{"version":"1.0","truncation":null,"padding":null,"added_tokens":[{"id":0,"content":"<PAD>","single_word":false,"lstrip":false,"rstrip":false,"normalized":false,"special":true},{"id":1,"content":"<BOS>","single_word":false,"lstrip":false,"rstrip":false,"normalized":false,"special":true},{"id":2,"content":"<EOS>","single_word":false,"lstrip":false,"rstrip":false,"normalized":false,"special":true},{"id":3,"content":"<UNK>","single_word":false,"lstrip":false,"rstrip":false,"normalized":false,"special":true},{"id":4,"content":"{","single_word":false,"lstrip":false,"rstrip":false,"normalized":false,"special":true},{"id":5,"content":"}","single_word":false,"lstrip":false,"rstrip":false,"normalized":false,"special":true},{"id":6,"content":"[","single_word":false,"lstrip":false,"rstrip":false,"normalized":false,"special":true},{"id":7,"content":"]","single_word":false,"lstrip":false,"rstrip":false,"normalized":false,"special":true},{"id":8,"content":":","single_word":false,"lstrip":false,"rstrip":false,"normalized":false,"special":true},{"id":9,"content":",","single_word":false,"lstrip":false,"rstrip":false,"normalized":false,"special":true},{"id":10,"content":"\"","single_word":false,"lstrip":false,"rstrip":false,"normalized":false,"special":true},{"id":11,"content":"\n","single_word":false,"lstrip":false,"rstrip":false,"normalized":false,"special":true}],"normalizer":{"type":"Sequence","normalizers":[{"type":"NFC"},{"type":"Lowercase"}]},"pre_tokenizer":{"type":"ByteLevel","add_prefix_space":true,"trim_offsets":true,"use_regex":true},"post_processor":{"type":"TemplateProcessing","single":[{"SpecialToken":{"id":"<BOS>","type_id":0}},{"Sequence":{"id":"A","type_id":0}},{"SpecialToken":{"id":"<EOS>","type_id":0}}],"pair":[{"SpecialToken":{"id":"<BOS>","type_id":0}},{"Sequence":{"id":"A","type_id":0}},{"SpecialToken":{"id":"<EOS>","type_id":0}},{"Sequence":{"id":"B","type_id":1}},{"SpecialToken":{"id":"<EOS>","type_id":1}}],"special_tokens":{"<BOS>":{"id":"<BOS>","ids":[1],"tokens":["<BOS>"]},"<EOS>":{"id":"<EOS>","ids":[2],"tokens":["<EOS>"]}}},"decoder":{"type":"ByteLevel","add_prefix_space":true,"trim_offsets":true,"use_regex":true},"model":{"type":"BPE","dropout":null,"unk_token":null,"continuing_subword_prefix":null,"end_of_word_suffix":null,"fuse_unk":false,"byte_fallback":false,"ignore_merges":false,"vocab":{"<PAD>":0,"<BOS>":1,"<EOS>":2,"<UNK>":3,"{":4,"}":5,"[":6,"]":7,":":8,",":9,"\"":10,"\n":11,"!":12,"#":13,"$":14,"%":15,"&":16,"'":17,"(":18,")":19,"*":20,"+":21,"-":22,".":23,"/":24,"0":25,"1":26,"2":27,"3":28,"4":29,"5":30,"6":31,"7":32,"8":33,"9":34,";":35,"<":36,"=":37,">":38,"?":39,"@":40,"\\":41,"^":42,"_":43,"`":44,"a":45,"b":46,"c":47,"d":48,"e":49,"f":50,"g":51,"h":52,"i":53,"j":54,"k":55,"l":56,"m":57,"n":58,"o":59,"p":60,"q":61,"r":62,"s":63,"t":64,"u":65,"v":66,"w":67,"x":68,"y":69,"z":70,"|":71,"~":72,"¡":73,"¢":74,"£":75,"¤":76,"¥":77,"¦":78,"§":79,"¨":80,"©":81,"ª":82,"«":83,"¬":84,"®":85,"¯":86,"°":87,"±":88,"²":89,"³":90,"´":91,"µ":92,"¶":93,"·":94,"¸":95,"¹":96,"º":97,"»":98,"¼":99,"½":100,"¾":101,"¿":102,"Â":103,"Ã":104,"Ä":105,"Å":106,"Æ":107,"Ç":108,"È":109,"É":110,"Ê":111,"Ë":112,"Ì":113,"Í":114,"Î":115,"Ï":116,"Ð":117,"Ñ":118,"×":119,"Ø":120,"Ù":121,"Ú":122,"Û":123,"à":124,"á":125,"â":126,"ã":127,"ä":128,"å":129,"æ":130,"ç":131,"è":132,"é":133,"ê":134,"ë":135,"ì":136,"í":137,"ï":138,"ð":139,"Ă":140,"ĉ":141,"Ċ":142,"ċ":143,"Ġ":144,"Ģ":145,"ģ":146,"Ĥ":147,"ĥ":148,"Ħ":149,"ħ":150,"Ĩ":151,"ĩ":152,"Ī":153,"ī":154,"Ĭ":155,"ĭ":156,"Į":157,"į":158,"İ":159,"ı":160,"Ĳ":161,"ĳ":162,"Ĵ":163,"ĵ":164,"Ķ":165,"ķ":166,"ĸ":167,"Ĺ":168,"ĺ":169,"Ļ":170,"ļ":171,"Ľ":172,"ľ":173,"Ŀ":174,"ŀ":175,"Ł":176,"ł":177,"Ń":178,"Ġt":179,"Ġa":180,"he":181,"in":182,"Ġthe":183,"re":184,"Ġs":185,"on":186,"ĠĠ":187,"Ġc":188,"at":189,"er":190,"Ġw":191,"Ġo":192,"nd":193,"Ġi":194,"es":195,"Ġf":196,"ou":197,"Ġp":198,"en":199,"or":200,"Ġm":201,"Ġb":202,"ing":203,"Ġand":204,"Ġd":205,"an":206,"al":207,"Ġto":208,"Ġin":209,"it":210,"Ġof":211,"le":212,"Ġh":213,"ar":214,"Ġth":215,"is":216,"ed":217,"ion":218,"Ġn":219,"Ġy":220,"ic":221,"Ġe":222,"ro":223,"as":224,"Ġg":225,"Ġl":226,"ĠĠĠĠ":227,"Ġyou":228,"ent":229,"Ġre":230,"us":231,"ct":232,"ve":233,"ll":234,"om":235,"Ġis":236,"et":237,"ut":238,"ĠĊ":239,"ow":240,"Ġfor":241,"Ġbe":242,"id":243,"Ġhe":244,"st":245,"ot":246,"am":247,"Ġthat":248,"Ġst":249,"ay":250,"ce":251,"Ġit":252,"Ġwh":253,"ly":254,"Ġon":255,"ch":256,"ig":257,"im":258,"ur":259,"se":260,"ad":261,"ĠĠĠ":262,"ith":263,"ld":264,"ation":265,"un":266,"od":267,"ver":268,"Ġan":269,"Ġwith":270,"ir":271,"Ġwe":272,"Ġpro":273,"ra":274,"ke":275,"Ġ\"":276,"ate":277,"um":278,"Ġcon":279,"Ġas":280,"il":281,"Ġj":282,"ers":283,"ol":284,"Ġcan":285,"ul":286,"ge":287,"Ġus":288,"Ġha":289,"Ġcom":290,"Ġse":291,"Ġde":292,"if":293,"Ġthis":294,"Ġv":295,"Ġ=":296,"Ġ1":297,"Ġare":298,"th":299,"qu":300,"Ġor":301,"ess":302,"Ġex":303,"ri":304,"ab":305,"ht":306,"est":307,"pe":308,"Ġr":309,"Ġch":310,"Ġme":311,"ill":312,"her":313,"Ġsh":314,"ist":315,"up":316,"ore":317,"ment":318,"ive":319,"Ġne":320,"ac":321,"Ġ`":322,"ain":323,"ter":324,"Ġyour":325,"Ġk":326,"Ġle":327,"op":328,"Ġnot":329,"'s":330,"âĢ":331,"ure":332,"Ġ(":333,"ĠĠĠĠĠĠĠ":334,"mp":335,"rom":336,"ight":337,"Ġdo":338,"ant":339,"Ġhave":340,"ction":341,"iv":342,"ould":343,"Ġ2":344,"ity":345,"Ġ-":346,"el":347,"ord":348,"Ġfrom":349,"all":350,"os":351,"Ġby":352,"nt":353,"Ġal":354,"ust":355,"and":356,"Ġif":357,"ort":358,"Ġso":359,"pl":360,"Ġwas":361,"te":362,"art":363,"Ġall":364,"Ġgo":365,"ame":366,"ies":367,"Ġwhat":368,"Ġma":369,"res":370,"Ġthey":371,"pt":372,"Ġwill":373,"Ġte":374,"Ġun":375,"Ġab":376,"out":377,"Ġad":378,"ud":379,"age":380,"Ġwhe":381,"ie":382,"Ġlo":383,"Ġpl":384,"Ġat":385,"Ġtheir":386,"to":387,"Ġen":388,"Ġmy":389,"Ġsu":390,"âĢĻ":391,"ine":392,"iz":393,"pp":394,"fe":395,"ial":396,"Ġbut":397,"Ġtr":398,"em":399,"..":400,"Ġar":401,"Ġhow":402,"ome":403,"ide":404,"ind":405,"Ġcomp":406,"ue":407,"red":408,"Ġup":409,"Ġout":410,"ich":411,"ok":412,"Ġhis":413,"Ġwor":414,"Ġimp":415,"Ġ3":416,"Ġsa":417,"our":418,"Ġthem":419,"Ġli":420,"ck":421,"lo":422,"00":423,"act":424,"ase":425,"Ġman":426,"able":427,"Ġthere":428,"ile":429,"ult":430,"orm":431,"ah":432,"ag":433,"int":434,"Ġno":435,"cc":436,"ally":437,"ime":438,"now":439,"per":440,"ard":441,"one":442,"ep":443,"Ġwho":444,"ack":445,"ast":446,"cl":447,"ak":448,"Ġqu":449,"Ġstr":450,"Ġco":451,"ther":452,"ach":453,"Ġcl":454,"Ġwhich":455,"Ġpr":456,"ound":457,"ass":458,"reat":459,"ions":460,"ence":461,"Ġres":462,"oug":463,"umb":464,"are":465,"form":466,"urn":467,"Ġmore":468,"Ġro":469,"Ġ{":470,"ice":471,"Ġhas":472,"ong":473,"Ġone":474,"Ġfo":475,"ip":476,"Ġfe":477,"Ġsc":478,"ace":479,"Ġabout":480,"du":481,"Ġlike":482,"ite":483,"ĠĠĠĠĠĠĠĠ":484,"Ġye":485,"Ġcont":486,"av":487,"ous":488,"ations":489,"Ġ$":490,"ance":491,"xt":492,"so":493,"Ġpe":494,"Ġadd":495,"Ġev":496,"Ġfun":497,"Ġ``":498,"Ġknow":499,"Ġ```":500,"Ġu":501,"ans":502,"Ġsome":503,"Ġuse":504,"Ġwhen":505,"ount":506,"ry":507,"Ġam":508,"ap":509,"Ġspe":510,"ode":511,"Ġsp":512,"Ġmo":513,"ign":514,"Ġhim":515,"Ġdis":516,"Ġ4":517,"ings":518,"ble":519,"ata":520,"Ġnumb":521,"con":522,"Ġ}":523,"--":524,"Ġany":525,"Ġret":526,"ren":527,"put":528,"Ġprov":529,"ated":530,"'t":531,"og":532,"Ġ5":533,"Ġval":534,"Ġover":535,"ary":536,"ition":537,"Ġnew":538,"Ġget":539,"Ġother":540,"Ġfunction":541,"Ġshe":542,"ical":543,"eth":544,"we":545,"Ġwork":546,"Ġhere":547,"ath":548,"ang":549,"Ġdes":550,"Ġ|":551,"ect":552,"very":553,"Ġinto":554,"Ġher":555,"Ġmake":556,"Ġtime":557,"Ġper":558,"get":559,"()":560,"ress":561,"ory":562,"\",":563,"Ġhel":564,"ough":565,"ire":566,"Ġthese":567,"ific":568,"str":569,"ild":570,"ents":571,"gr":572,"ff":573,"Ġpo":574,"vel":575,"ays":576,"led":577,"Ġthen":578,"Ġhelp":579,"Ġwould":580,"Ġlet":581,"Ġser":582,"ces":583,"Ġ#":584,"Ġshould":585,"aus":586,"ple":587,"rent":588,"ink":589,"Ġtw":590,"Ġjust":591,"ree":592,"lf":593,"Ġalso":594,"Ġke":595,"ho":596,"de":597,"Ġreturn":598,"Ġ<":599,"Ġpeop":600,"Ġacc":601,"ake":602,"Ġusing":603,"Ġcomm":604,"Ġ'":605,"ub":606,"Ġag":607,"Ġthan":608,"Ġbec":609,"Ġ+":610,"Ġpeople":611,"Ġpre":612,"Ġwr":613,"Ġeach":614,"ick":615,"Ġsy":616,"Ġneed":617,"Ġwere":618,"lement":619,"nder":620,"ark":621,"\\_":622,"Ġ0":623,"clud":624,"...":625,"Ġmay":626,"ari":627,"Ġcre":628,"ors":629,"les":630,"Ġbet":631,"Ġlist":632,"ade":633,"Ġhad":634,"Ġbo":635,"Ġoff":636,"ĠĠĠĠĠĠĠĠĠĠĠ":637,"ose":638,"ne":639,"Ġdif":640,"Ġsaid":641,"Ġapp":642,"Ġpart":643,"ail":644,"Ġap":645,");":646,"ars":647,"Ġexam":648,"Ġdata":649,"Ġ*":650,"ause":651,"Ġword":652,"Ġgod":653,"irst":654,"Ġnumber":655,"fore":656,"Ġwell":657,"Ġgr":658,"ize":659,"Ġbu":660,"Ġwhere":661,"Ġour":662,"Ġspec":663,"Ġph":664,"Ġrec":665,"ph":666,"Ġ[":667,"Ġ\\":668,"ject":669,"Ġcould":670,"ens":671,"Ġdef":672,"Ġcode":673,"Ġwant":674,"Ġoh":675,"Ġinclud":676,"Ġaf":677,"Ġsuch":678,"Ġtra":679,"Ġfirst":680,"ange":681,"Ġra":682,"ish":683,"Ġits":684,"Ġtwo":685,"Ġset":686,"Ġ/":687,"Ġnow":688,"Ġmod":689,"Ġright":690,"ates":691,"cess":692,"Ġcal":693,"Ġcol":694,"ual":695,"row":696,"ise":697,"ia":698,"ert":699,"end":700,"Ġcreate":701,"Ġgiv":702,"ater":703,"Ġcons":704,"ys":705,"Ġdon":706,"Ġprodu":707,"Ġpos":708,"Ġjo":709,"Ġunder":710,"Ġgreat":711,"Ġhand":712,"Ġche":713,"Ġgen":714,"Ġdid":715,"ning":716,"Ġdiffe":717,"yth":718,"Ġchar":719,"Ġsee":720,"llow":721,"Ġgu":722,"Ġsm":723,"Ġimport":724,"Ġsay":725,"vers":726,"own":727,"port":728,"Ġho":729,"be":730,"Ġstart":731,"ased":732,"Ġinc":733,"Ġind":734,"oth":735,"Ġgood":736,"Ġthr":737,"ython":738,"ict":739,"ft":740,"Ġrem":741,"Ġje":742,"Ġfind":743,"Ġ6":744,"Ġfl":745,"ons":746,"Ġok":747,"ty":748,"err":749,"igh":750,"Ġinter":751,"Ġevery":752,"Ġcome":753,"Ġgive":754,"ci":755,"fect":756,"Ġact":757,"Ġx":758,"Ġform":759,"stem":760,"Ġlook":761,"Ġthrough":762,".\"":763,"ating":764,"Ġused":765,"Ġprint":766,"Ġbeen":767,"Ġtake":768,"(\"":769,"Ġem":770,"Ġmade":771,"Ġinte":772,"Ġsup":773,"wer":774,"lect":775,"Ġprovide":776,"Ġpers":777,"ting":778,"Ġshall":779,"che":780,"Ġbr":781,"Ġlord":782,"arch":783,"Ġback":784,"Ġans":785,"Ġway":786,"Ġday":787,"eng":788,"Ġel":789,"Ġsent":790,"Ġbecause":791,"Ġfollow":792,"Ġrel":793,"Ġdoes":794,"ug":795,"Ġstep":796,"ks":797,"ility":798,"ities":799,"Ġdet":800,"Ġserv":801,"Ġsub":802,"Ġsol":803,"ful":804,"Ġunto":805,"ower":806,"Ġcur":807,"ife":808,"Ġsystem":809,"lic":810,"erm":811,"Ġinv":812,"Ġagain":813,"com":814,"Ġthink":815,"Ġint":816,"Ġinform":817,"ues":818,"the":819,"cri":820,"ient":821,"Ġput":822,"its":823,"king":824,"):":825,"Ġgiven":826,"Ġgener":827,"Ġrequ":828,"Ġsim":829,"Ġtrans":830,"gram":831,"ible":832,"ract":833,"Ġbefore":834,"Ġeven":835,"Ġafter":836,"ness":837,"'m":838,"Ġvari":839,"Ġstring":840,"ative":841,"self":842,"Ġname":843,"Ġob":844,"Ġple":845,"ib":846,"Ġaw":847,"ving":848,"wn":849,"Ġim":850,"Ġdifferent":851,"Ġwhile":852,"ices":853,"Ġty":854,"\":":855,"Ġexpl":856,"Ġexample":857,"ature":858,"ics":859,"ather":860,").":861,"cial":862,"olog":863,"ull":864,"ments":865,"Ġprogram":866,"Ġexper":867,"ween":868,"Ġmin":869,"Ġend":870,"Ġear":871,"Ġvalue":872,"Ġbetween":873,"read":874,"enc":875,"Ġonly":876,"cept":877,"Ġ10":878,"Ġanswer":879,"Ġdown":880,"ience":881,"Ġclass":882,"ĠâĢ":883,"Ġbl":884,"Ġinformation":885,"ify":886,"pect":887,"val":888,"'re":889,"Ġmat":890,"velop":891,"),":892,"Ġcreat":893,"Ġ20":894,"Ġresult":895,"Ġhigh":896,"ular":897,"Ġquest":898,"ray":899,"Ġopt":900,"Ġtech":901,"der":902,"Ġfin":903,"Ġid":904,"Ġcor":905,"Ġmark":906,"Ġstud":907,"Ġinput":908,"Ġperson":909,"Ġtak":910,"ustom":911,"Ġdec":912,"Ġla":913,"Ġproduct":914,"Ġworld":915,"gy":916,"ved":917,"Ġmon":918,"Ġdevelop":919,"Ġz":920,"ential":921,"Ġsure":922,"Ġinst":923,"Ġfr":924,"Ġart":925,"na":926,"Ġmany":927,"Ġplay":928,"als":929,"itt":930,"ps":931,"Ġass":932,"Ġreg":933,"Ġcharact":934,"ves":935,"ex":936,"Ġyeah":937,"Ġtext":938,"Ġ7":939,"bo":940,"Ġplease":941,"Ġcomple":942,"Ġent":943,"ss":944,"name":945,"cus":946,"gg":947,"iness":948,"Ġtechn":949,"Ġprocess":950,"Ġread":951,"Ġwhy":952,"Ġokay":953,"iqu":954,"Ġjeho":955,"ute":956,"Ġcr":957,"ied":958,"Ġprovid":959,"----":960,"Ġ//":961,"Ġmean":962,"Ġbus":963,"Ġelement":964,"Ġcustom":965,"Ġking":966,"other":967,"ix":968,"Ġwrite":969,"Ġ8":970,"vah":971,"Ġspecific":972,"Ġpass":973,"Ġsign":974,"Ġlong":975,"Ġchild":976,"Ġjehovah":977,"Ġcount":978,"ouse":979,"iew":980,"Ġeng":981,"uring":982,"ven":983,"word":984,"pr":985,"Ġbel":986,"Ġlear":987,"Ġboth":988,"ns":989,"stand":990,"ution":991,"Ġlife":992,"ctions":993,"Ġexp":994,"ethod":995,"wor":996,"ber":997,"Ġuser":998,"Ġmed":999,"Ġemp":1000,"Ġmost":1001,"ages":1002,"ian":1003,"ĠĠĠĠĠ":1004,"ought":1005,"ave":1006,"Ġsum":1007,"Ġins":1008,"Ġpar":1009,"iss":1010,"ious":1011,"Ġac":1012,"rib":1013,"ples":1014,"alth":1015,"ines":1016,"Ġsk":1017,"Ġcle":1018,"Ġmethod":1019,"Ġthose":1020,"Ġbuild":1021,"Ġcheck":1022,"ts":1023,"ality":1024,"Ġmain":1025,"Ġcompan":1026,"Ġhey":1027,"ffect":1028,"Ġfil":1029,"Ġaddition":1030,"Ġcar":1031,"Ġland":1032,"',":1033,"Ġsal":1034,"error":1035,"Ġplace":1036,"pro":1037,"Ġwords":1038,"Ġaut":1039,"ily":1040,"Ġkey":1041,"ield":1042,"fl":1043,"Ġunderstand":1044,"Ġbusiness":1045,"cul":1046,"ond":1047,"Ġequ":1048,"Ġallow":1049,"Ġop":1050,"text":1051,"Ġtest":1052,"co":1053,"ody":1054,"Ġatt":1055,"Ġkeep":1056,"Ġreally":1057,"Ġpot":1058,"Ġfile":1059,"riend":1060,"Ġref":1061,"Ġyes":1062,"Ġdesign":1063,"uct":1064,"gan":1065,"ner":1066,"Ġsom":1067,"bs":1068,"Ġthings":1069,"Ġself":1070,"Ġbre":1071,"Ġcame":1072,"Ġbased":1073,"uch":1074,"Ġsin":1075,"ized":1076,"hip":1077,"Ġtell":1078,"Ġeffect":1079,"Ġcommun":1080,"Ġcho":1081,"hes":1082,"\")":1083,"Ġpri":1084,"Ġresp":1085,"cond":1086,"Ġloc":1087,"ward":1088,"rael":1089,"Ġtry":1090,"itive":1091,"ms":1092,"string":1093,"line":1094,"Ġhouse":1095,"Ġmarket":1096,"cript":1097,"Ġrep":1098,"Ġpython":1099,"Ġhum":1100,"Ġisrael":1101,"Ġown":1102,"Ġmight":1103,"Ġappro":1104,"Ġgra":1105,"ication":1106,"Ġgot":1107,"Ġmult":1108,"ger":1109,"Ġoutput":1110,"Ġpres":1111,"ced":1112,"Ġide":1113,"Ġplan":1114,"Ġstate":1115,"pend":1116,"Ġson":1117,"Ġrun":1118,"Ġdist":1119,"Ġed":1120,"Ġvis":1121,"Ġfeel":1122,"Ġav":1123,"Ġmodel":1124,"Ġthou":1125,"Ġbeing":1126,"Ġve":1127,"day":1128,"Ġsame":1129,"br":1130,"Ġwithout":1131,"Ġfollowing":1132,"Ġhealth":1133,"Ġmus":1134,"Ġsmall":1135,"Ġbest":1136,"Ġbro":1137,"Ġfound":1138,"ye":1139,"Ġcall":1140,"Ġfact":1141,"Ġpub":1142,"ivid":1143,"=\"":1144,"Ġpoint":1145,"hed":1146,"oup":1147,"Ġthy":1148,"ures":1149,"Ġshow":1150,"Ġagainst":1151,"Ġmen":1152,"ove":1153,"ery":1154,"Ġpower":1155,"li":1156,"Ġ9":1157,"ength":1158,"ins":1159,"Ġanal":1160,"Ġnumbers":1161,"Ġwater":1162,"ene":1163,"Ġpa":1164,"ax":1165,"Ġposs":1166,"ertain":1167,"ural":1168,"Ġmess":1169,"Ġlead":1170,"Ġinclude":1171,"Ġarray":1172,"))":1173,"Ġreal":1174,"ever":1175,"Ġwent":1176,"Ġgoing":1177,"Ġtot":1178,"Ġcurrent":1179,"Ġperform":1180,"imes":1181,"ants":1182,"Ġfam":1183,"ĠĠĠĠĠĠĠĠĠĠĠĠĠĠĠ":1184,"Ġlove":1185,"ering":1186,"10":1187,"son":1188,"ually":1189,"Ġquestion":1190,"Ġthree":1191,"Ġimplement":1192,"Ġincre":1193,"ets":1194,"Ġtal":1195,"Ġimpro":1196,"und":1197,"Ġmuch":1198,"ash":1199,"Ġsec":1200,"Ġchildren":1201,"Ġmem":1202,"Ġhapp":1203,"io":1204,"Ġcalcul":1205,"mat":1206,"Ġproble":1207,"Ġtop":1208,"po":1209,"Ġtas":1210,"Ġsecond":1211,"Ġgl":1212,"Ġbook":1213,"Ġfood":1214,"000":1215,"Ġident":1216,"Ġlar":1217,"python":1218,"Ġtrue":1219,"Ġorder":1220,"ired":1221,"Ġsupport":1222,"Ġaway":1223,"Ġsentence":1224,"Ġens":1225,"no":1226,"ique":1227,"Ġblo":1228,"Ġbra":1229,"Ġsur":1230,"Ġconst":1231,"Ġdr":1232,"Ġadv":1233,"Ġpur":1234,"Ġcontain":1235,"20":1236,"ret":1237,"Ġopen":1238,"ology":1239,"angu":1240,"par":1241,"Ġeas":1242,"Ġsl":1243,"gether":1244,"Ġyears":1245,"Ġvery":1246,"ense":1247,"sh":1248,"ething":1249,"Ġcase":1250,"Ġprof":1251,"Ġanother":1252,"iting":1253,"ames":1254,"ional":1255,"ability":1256,"Ġsomething":1257,"Ġline":1258,"ten":1259,"Ġdire":1260,"Ġpat":1261,"Ġliv":1262,"Ġbelie":1263,"Ġincluding":1264,"view":1265,"Ġteam":1266,"Ġdi":1267,"Ġtogether":1268,"ited":1269,"Ġ19":1270,"Ġtotal":1271,"Ġconf":1272,"Ġwar":1273,"Ġbetter":1274,"data":1275,"Ġsocial":1276,"mon":1277,"Ġhead":1278,"ational":1279,"Ġext":1280,"ffic":1281,"Ġoper":1282,"cho":1283,"Ġca":1284,"Ġmet":1285,"Ġobject":1286,"Ġaccess":1287,"ases":1288,"Ġfriend":1289,"Ġlangu":1290,"count":1291,"Ġcompany":1292,"Ġappl":1293,"Ġpotential":1294,"Ġtable":1295,"ined":1296,"tern":1297,"Ġ==":1298,"pos":1299,"rect":1300,"thing":1301,"Ġduring":1302,"Ġpol":1303,"rest":1304,"Ġpublic":1305,"Ġturn":1306,"Ġfather":1307,"Ġlight":1308,"amp":1309,"ider":1310,"ric":1311,"by":1312,"of":1313,"ency":1314,"Ġyear":1315,"Ġstill":1316,"ml":1317,"Ġnext":1318,"gor":1319,"Ġcalled":1320,"Ġcare":1321,"__":1322,"sc":1323,"ization":1324,"Ġelse":1325,"uc":1326,"Ġrest":1327,"list":1328,"gin":1329,"col":1330,"Ġlast":1331,"Ġuh":1332,"Ġcomplex":1333,"oc":1334,"Ġfield":1335,"Ġvalues":1336,"Ġpop":1337,"Ġless":1338,"Ġtri":1339,"onna":1340,"az":1341,"Ġnum":1342,"ason":1343,"ird":1344,"rence":1345,"ety":1346,"Ġrange":1347,"ention":1348,"Ġcertain":1349,"ier":1350,"Ġtype":1351,"Ġmanage":1352,"search":1353,"Ġhowever":1354,"Ġcost":1355,"Ġtyp":1356,"ument":1357,"Ġredu":1358,"ems":1359,"jo":1360,"Ġimpact":1361,"ator":1362,"Ġce":1363,"Ġmaking":1364,"Ġpract":1365,"Ġbreak":1366,"Ġgonna":1367,"vert":1368,"date":1369,"oney":1370,"Ġheart":1371,"Ġpartic":1372,"Ġupon":1373,"Ġ&":1374,"ables":1375,"Ġsort":1376,"Ġsugg":1377,"Ġmust":1378,"Ġsuggest":1379,"utes":1380,"Ġdat":1381,"ences":1382,"Ġcontin":1383,"sel":1384,"ittle":1385,"Ġcharacter":1386,"Ġmar":1387,"ital":1388,"play":1389,"Ġindivid":1390,"Ġstore":1391,"atch":1392,"Ġearth":1393,"Ġtemp":1394,"Ġ.":1395,"Ġfeature":1396,"Ġgame":1397,"ining":1398,"ream":1399,"Ġplat":1400,"ton":1401,",\"":1402,"Ġaround":1403,"ccess":1404,"Ġtool":1405,"Ġstory":1406,"Ġproject":1407,"ified":1408,"Ġstand":1409,"Ġexamples":1410,"Ġcent":1411,"'ll":1412,"Ġener":1413,"Ġlittle":1414,"ically":1415,"Ġthee":1416,"work":1417,"Ġcontent":1418,"\".":1419,"tr":1420,"Ġold":1421,"Ġfocus":1422,"ision":1423,"âĢĿ":1424,"Ġpost":1425,"Ġindividual":1426,"aut":1427,"hing":1428,"Ġenc":1429,"verse":1430,"ale":1431,"Ġmax":1432,"Ġsearch":1433,"Ġthought":1434,"Ġdays":1435,"Ġbeh":1436,"ken":1437,"Ġorgan":1438,"Ġgrow":1439,"Ġtoo":1440,"Ġterm":1441,"dd":1442,"Ġelements":1443,"ern":1444,"Ġmind":1445,"Ġpossible":1446,"Ġunt":1447,"me":1448,"Ġwom":1449,"arget":1450,"Ġlanguage":1451,"Ġchang":1452,"ĠâĢľ":1453,"Ġsignific":1454,"Ġchall":1455,"Ġchange":1456,"Ġda":1457,"Ġprom":1458,"new":1459,"Ġenergy":1460,"Ġcour":1461,"Ġjud":1462,"Ġsuccess":1463,"Ġside":1464,"Ġtook":1465,"Ġfa":1466,"Ġimportant":1467,"Ġplatform":1468,"Ġproblem":1469,"ism":1470,"Ġ12":1471,"Ġlearning":1472,"Ġwithin":1473,"ware":1474,"ists":1475,"Ġhuman":1476,"Ġexplain":1477,"Ġprev":1478,"Ġfull":1479,"Ġgroup":1480,"tain":1481,"Ġvo":1482,"Ġrepres":1483,"ources":1484,"Ġstrate":1485,"Ġ:":1486,"Ġexperience":1487,"Ġhour":1488,"Ġuntil":1489,"Ġlevel":1490,"Ġthing":1491,"let":1492,"Ġsaying":1493,"Ġface":1494,"ote":1495,"Ġsit":1496,"ledge":1497,"vir":1498,"imate":1499,"Ġlength":1500,"Ġdirect":1501,"Ġest":1502,"place":1503,"ling":1504,"ways":1505,"Ġwa":1506,"Ġclear":1507,"Ġsw":1508,"Ġproper":1509,"Ġcorrect":1510,"Ġmessage":1511,"Ġcharacters":1512,"Ġsound":1513,"aces":1514,"('":1515,"Ġleft":1516,"ross":1517,"ource":1518,"ze":1519,"Ġes":1520,"Ġarg":1521,"Ġcity":1522,"Ġdig":1523,"Ġnever":1524,"Ġensure":1525,"ron":1526,"ared":1527,"Ġcult":1528,"key":1529,"ser":1530,"Ġmove":1531,"</":1532,"Ġcomb":1533,"Ġmusic":1534,"Ġunique":1535,"ank":1536,"viron":1537,"Ġhist":1538,"add":1539,"ivity":1540,"Ġinde":1541,"Ġgave":1542,"Ġdeterm":1543,"ording":1544,"Ġmeas":1545,"Ġiss":1546,"yle":1547,"Ġhome":1548,"Ġinvol":1549,"Ġusers":1550,"'ve":1551,"iter":1552,"oun":1553,"Ġimprove":1554,"kes":1555,"ec":1556,"Ġnet":1557,"Ġconc":1558,"ted":1559,"alse":1560,"els":1561,"app":1562,"Ġamong":1563,"Ġerror":1564,"gn":1565,"itle":1566,"Ġbig":1567,"ood":1568,"Ġsing":1569,"Ġdri":1570,"Ġhard":1571,"cing":1572,"llo":1573,"reen":1574,"Ġwee":1575,"hor":1576,"gorith":1577,"nect":1578,"Ġstat":1579,"Ġstruct":1580,"Ġsince":1581,"onse":1582,"Ġcommon":1583,"Ġscri":1584,"ndom":1585,"Ġdra":1586,"Ġenviron":1587,"Ġdone":1588,"hold":1589,"set":1590,"Ġever":1591,"Ġinit":1592,"less":1593,"Ġmonth":1594,"lish":1595,"know":1596,"Ġexpress":1597,"py":1598,"Ġalgorith":1599,"cle":1600,"Ġcook":1601,"not":1602,"Ġmultip":1603,"Ġai":1604,"Ġcommand":1605,"Ġ15":1606,"Ġask":1607,"Ġconsider":1608,"Ġrele":1609,"Ġknowledge":1610,"Ġaccording":1611,"Ġpay":1612,"value":1613,"Ġdiv":1614,"ites":1615,"Ġdev":1616,"Ġoften":1617,"ries":1618,"Ġrequire":1619,"itions":1620,"Ġsoft":1621,"Ġinstr":1622,"ws":1623,"Ġpersonal":1624,"ails":1625,"ides":1626,"Ġbene":1627,"Ġcap":1628,"raph":1629,"ives":1630,"Ġscript":1631,"ients":1632,"Ġinterest":1633,"();":1634,"Ġach":1635,"Ġfour":1636,"Ġstrong":1637,"Ġaddress":1638,"Ġways":1639,"Ġmeet":1640,"Ġess":1641,"aring":1642,"Ġtarget":1643,"Ġlim":1644,"Ġtrad":1645,"Ġtakes":1646,"Ġcomput":1647,"Ġcontro":1648,"igin":1649,"ob":1650,"Ġalways":1651,"Ġdevelopment":1652,"Ġkind":1653,"Ġgenerate":1654,"Ġfree":1655,"Ġdeath":1656,"],":1657,"Ġstartup":1658,"Ġdav":1659,"Ġidentify":1660,"idd":1661,"Ġonce":1662,"Ġable":1663,"Ġwal":1664,"eric":1665,"Ġspace":1666,"right":1667,"Ġht":1668,"Ġnon":1669,"12":1670,"Ġlog":1671,"ma":1672,"Ġfew":1673,"ql":1674,"Ġaud":1675,"Ġinvest":1676,"Ġvarious":1677,"Ġsumm":1678,"back":1679,"Ġmeans":1680,"rix":1681,"Ġmil":1682,"mb":1683,"Ġdoing":1684,"omm":1685,"Ġcond":1686,"Ġknown":1687,"Ġlearn":1688,"Ġsignificant":1689,"ination":1690,"Ġoffer":1691,"iction":1692,"Ġdavid":1693,"urs":1694,"Ġresearch":1695,"uck":1696,"Ġaccount":1697,"Ġachie":1698,"Ġnight":1699,"Ġbas":1700,"ither":1701,"Ġbuilding":1702,"Ġpositive":1703,"--------":1704,"::":1705,"man":1706,"Ġvers":1707,"Ġsor":1708,"Ġtimes":1709,"url":1710,"Ġopp":1711,"Ġselect":1712,"Ġlarge":1713,"uction":1714,"Ġsqu":1715,"Ġneg":1716,"ips":1717,"Ġenvironment":1718,"aterial":1719,"ats":1720,"Ġbenef":1721,"time":1722,"Ġrelations":1723,"wh":1724,"ming":1725,"Ġtherefore":1726,"Ġeffective":1727,"abor":1728,"num":1729,"file":1730,"requ":1731,"arr":1732,"cy":1733,"Ġprote":1734,"Ġtre":1735,"Ġemplo":1736,"ught":1737,"Ġtechnology":1738,"//":1739,"ler":1740,"Ġoptim":1741,"Ġphys":1742,"yes":1743,"Ġvide":1744,"Ġhelps":1745,"Ġabove":1746,"Ġdescri":1747,"Ġwind":1748,"Ġevent":1749,"min":1750,"iled":1751,"Ġcolum":1752,"Ġremain":1753,"uff":1754,"Ġorigin":1755,"ng":1756,"Ġanaly":1757,"Ġfalse":1758,"Ġindust":1759,"Ġocc":1760,"Ġidea":1761,"Ġcolor":1762,"Ġbody":1763,"Ġrequest":1764,"ule":1765,"Ġsend":1766,"ĠĠĠĠĠĠĠĠĠĠĠĠĠĠĠĠ":1767,"wr":1768,"Ġspecial":1769,"Ġadditionally":1770,"ills":1771,"Ġwon":1772,"Ġlot":1773,"Ġstudents":1774,"Ġminutes":1775,"Ġfar":1776,"Ġhaving":1777,"Ġprovided":1778,"eter":1779,"Ġoverall":1780,"Ġchalleng":1781,"Ġflo":1782,"Ġfore":1783,"Ġsize":1784,"Ġprob":1785,"ior":1786,"Ġdep":1787,"Ġcalculate":1788,"Ġhy":1789,"Ġge":1790,"Ġris":1791,"for":1792,"Ġmoney":1793,"Ġmaterial":1794,"Ġmedia":1795,"Ġfamily":1796,"ost":1797,"Ġworks":1798,"Ġunderstanding":1799,"aging":1800,"ches":1801,"Ġimage":1802,"land":1803,"Ġmarketing":1804,"Ġpresent":1805,"Ġjav":1806,"Ġum":1807,"ouble":1808,"Ġoptions":1809,"Ġthank":1810,"aking":1811,"iah":1812,"Ġhi":1813,"Ġconcept":1814,"ĠÐ":1815,"Ġsomeone":1816,"Ġappe":1817,"Ġevil":1818,"go":1819,"Ġcut":1820,"Ġ100":1821,"Ġneeds":1822,"my":1823,"Ġstop":1824,"Ġuni":1825,"duct":1826,"pose":1827,"Ġarea":1828,"Ġsteps":1829,"Ġred":1830,"Ġwebs":1831,"ead":1832,"Ġinfl":1833,"Ġcontext":1834,"Ġservice":1835,"body":1836,"Ġuses":1837,"aster":1838,"Ġavail":1839,"Ġ>":1840,"Ġheav":1841,"cent":1842,"Ġfur":1843,"input":1844,"Ġeffic":1845,"Ġair":1846,"Ġdidn":1847,"Ġliving":1848,"Ġcustomer":1849,"oss":1850,"selves":1851,"Ġmach":1852,"Ġjob":1853,"Ġrelationship":1854,"Ġquestions":1855,"Ġsever":1856,"Ġrandom":1857,"load":1858,"Ġtrack":1859,"Ġarr":1860,"light":1861,"Ġsou":1862,"clus":1863,"Ġbecome":1864,"Ġâ":1865,"Ġfut":1866,"Ġcup":1867,"Ġsolution":1868,"Ġsam":1869,"Ġfire":1870,"Ġweb":1871,"Ġdest":1872,"Ġexpect":1873,"Ġspir":1874,"cuss":1875,"Ġamount":1876,"Ġmakes":1877,"dom":1878,"Ġcontrol":1879,"oud":1880,"Ġdiff":1881,"://":1882,"numb":1883,"Ġmor":1884,"ories":1885,"fo":1886,"iment":1887,"Ġ30":1888,"here":1889,"chool":1890,"Ġdepend":1891,"Ġshort":1892,"Ġresponse":1893,"Ġlooking":1894,"Ġfinally":1895,"Ġbi":1896,"50":1897,"`.":1898,"Ġiter":1899,"Ġallows":1900,"Ġroom":1901,"avor":1902,"Ġproducts":1903,"Ġdate":1904,"Ġothers":1905,"Ġbring":1906,"Ġnat":1907,"Ġfeatures":1908,"Ġrepresent":1909,"ilar":1910,"rences":1911,"Ġinitial":1912,"ered":1913,"verage":1914,"Ġrole":1915,"Ġrece":1916,"Ġjer":1917,"Ġremem":1918,"Ġsense":1919,"att":1920,"por":1921,"Ġsimple":1922,"Ġseveral":1923,"Ġtoday":1924,"ift":1925,"Ġfriends":1926,"Ġdiscuss":1927,"Ġconnect":1928,"Ġsons":1929,"rie":1930,"Ġchr":1931,"Ġlow":1932,"Ġresults":1933,"Ġwin":1934,"Ġbar":1935,"idence":1936,"Ġhandle":1937,"Ġlay":1938,"ape":1939,"Ġmultiple":1940,"Ġ%":1941,"Ġbal":1942,"Ġsat":1943,"Ġservices":1944,"ush":1945,"med":1946,"ards":1947,"orn":1948,"Ġdoc":1949,"Ġsaw":1950,"head":1951,"Ġlocal":1952,"do":1953,"Ġguys":1954,"Ġeyes":1955,"Ġcapt":1956,"Ġlaw":1957,"air":1958,"Ġrecomm":1959,"Ġcreating":1960,"Ġmiss":1961,"Ġpast":1962,"Ġvalid":1963,"Ġĉ":1964,"Ġmanagement":1965,"Ġworking":1966,"Ġmov":1967,"Ġrecommend":1968,"Ġhold":1969,"Ġclean":1970,"Ġhig":1971,"lection":1972,"Ġdisplay":1973,"ont":1974,"izing":1975,"amed":1976,"Ġswe":1977,"Ġreturns":1978,"Ġprofess":1979,"Ġtypes":1980,"Ġformat":1981,"Ġquick":1982,"Ġprime":1983,"Ġfuture":1984,"Ġclo":1985,"Ġhar":1986,"abase":1987,"ysis":1988,"Ġcustomers":1989,"Ġreason":1990,"nding":1991,"print":1992,"Ġloop":1993,"yn":1994,"gs":1995,"Ġnote":1996,"Ġlibr":1997,"Ġsun":1998,"Ġschool":1999,"Ġhath":2000,"oh":2001,"imum":2002,"Ġsorry":2003,"Ġalgorithm":2004,"Ġemot":2005,"lling":2006,"Ġsoftware":2007,"Ġmer":2008,"Ġjes":2009,"Ġjour":2010,"Ġcomplete":2011,"Ġnode":2012,"Ġsystems":2013,"ished":2014,"Ġtaken":2015,"Ġpain":2016,"Ġreport":2017,"!!":2018,"$.":2019,"ipp":2020,"Ġfurther":2021,"cont":2022,"come":2023,"ones":2024,"Ġexist":2025,"Ġpie":2026,"Ġinstead":2027,"':":2028,"Ġchanges":2029,"Ġcourse":2030,"icult":2031,"Ġemail":2032,"urity":2033,"icle":2034,"Ġintern":2035,"resp":2036,"ident":2037,"Ġut":2038,"11":2039,"Ġtown":2040,"Ġtalk":2041,"Ġapproach":2042,"off":2043,"Ġparam":2044,"Ġsn":2045,"ctor":2046,"Ġonline":2047,"Ġlink":2048,"Ġste":2049,"Ġcause":2050,"Ġsimilar":2051,"Ġview":2052,"Ġrul":2053,"imal":2054,"==":2055,"Ġpack":2056,"Ġfive":2057,"Ġhappen":2058,"Ġgold":2059,"index":2060,"Ġjson":2061,"Ġfac":2062,"Ġbab":2063,"Ġsays":2064,"ann":2065,"Ġadditional":2066,"istic":2067,"Ġseen":2068,"Ġbehav":2069,"Ġstrateg":2070,"bal":2071,"Ġincor":2072,"itional":2073,"ael":2074,"Ġinflu":2075,"Ġavailable":2076,"Ġelect":2077,"Ġhope":2078,"Ġauthor":2079,"Ġment":2080,"Ġreview":2081,"ters":2082,"ready":2083,"oid":2084,"utions":2085,"oses":2086,"ances":2087,"Ġprovides":2088,".\\":2089,"mpt":2090,"Ġhands":2091,"Ġround":2092,"Ġah":2093,"Ġtask":2094,"Ã©":2095,"Ġpred":2096,"Ġanything":2097,"uation":2098,"Ġ18":2099,"ffe":2100,"book":2101,"Ġport":2102,"ilities":2103,"Ġindex":2104,"Ġnegative":2105,"Ġchrist":2106,"face":2107,"Ġperformance":2108,"âĢĶ":2109,"->":2110,"Ġstay":2111,"path":2112,"##":2113,"ney":2114,"Ġmom":2115,"Ġmich":2116,"Ġdem":2117,"Ġhours":2118,"Ġwebsite":2119,"Ġvariable":2120,"Ġcommunity":2121,"Ġanalysis":2122,"Ġupd":2123,"Ġremember":2124,"Ġbegin":2125,"ilt":2126,"Ġmaybe":2127,"Ġbrother":2128,"conom":2129,"Ġdeep":2130,"uit":2131,"Ġeasy":2132,"Ġstyle":2133,"Ġexperi":2134,"Ġnecess":2135,"Ġleast":2136,"Ġdoesn":2137,"Ġver":2138,"Ġmot":2139,"ows":2140,"cription":2141,"way":2142,"Ġ16":2143,"25":2144,"`,":2145,"tps":2146,"ised":2147,"ott":2148,"ese":2149,"Ġstates":2150,"Ġactiv":2151,"Ġconne":2152,"Ġhal":2153,"Ġactually":2154,"Ġaction":2155,"cal":2156,"Ġpath":2157,"Ġwriting":2158,"?!":2159,"Ġhistory":2160,"hn":2161,"Ġbelieve":2162,"Ġnor":2163,"Ġeduc":2164,"Ġexec":2165,"Ġtaking":2166,"Ġapplication":2167,"fer":2168,"Ġpage":2169,"Ġpoints":2170,"Ġalready":2171,"Ġintro":2172,"Ġquality":2173,"Ġwoman":2174,"Ġerr":2175,"Ġrespons":2176,"fr":2177,"gress":2178,"ying":2179,"ls":2180,"Ġnatural":2181,"\">":2182,"Ġshare":2183,"Ġprin":2184,"Ġcompon":2185,"Ġwait":2186,"vent":2187,"alt":2188,"ude":2189,"Ġresources":2190,"Ġcoll":2191,"ipe":2192,"ately":2193,"ulation":2194,"Ġindividuals":2195,"ww":2196,"Ġchoose":2197,"15":2198,"Ġcamp":2199,"Ġstructure":2200,"Ġspirit":2201,"Ġdetermine":2202,"Ġoil":2203,"oura":2204,"Ġjesus":2205,"Ġ=>":2206,"Ġparticular":2207,"Ġyoung":2208,"mm":2209,"Ġameric":2210,"Ġcra":2211,"action":2212,"Ġstatement":2213,"Ġvideo":2214,"19":2215,"Ġyet":2216,"Ġ</":2217,"Ġmeaning":2218,"Ġintegr":2219,"fra":2220,"Ġlab":2221,"Ġweek":2222,"Ġbit":2223,"ortun":2224,"Ġeconom":2225,"ference":2226,"Ġtitle":2227,"Ġposition":2228,"Ġenough":2229,"Ġemploye":2230,"type":2231,"Ġregular":2232,"])":2233,"ged":2234,"Ġpriest":2235,"Ġoriginal":2236,"Ġthanks":2237,"ume":2238,"Ġincrease":2239,"ĠĠĠĠĊ":2240,"ina":2241,"Ġcontrib":2242,"ane":2243,"acy":2244,"Ġmeasure":2245,"Ġtransl":2246,"Ġsingle":2247,"Ġhot":2248,"Ġfear":2249,"ta":2250,"Ð¾":2251,"Ġachieve":2252,"Ġlive":2253,"()`":2254,"Ġeat":2255,"Ġnothing":2256,"Ġ200":2257,"arent":2258,"based":2259,"rop":2260,"Ġwhether":2261,"Ġmount":2262,"Ġmaintain":2263,"Ġfall":2264,"sy":2265,"Ġbeaut":2266,"Ġbusinesses":2267,"nds":2268,"Ġindustry":2269,"zz":2270,"Ġfactors":2271,"Ġcaus":2272,"}{":2273,"Ġri":2274,"Ġtrying":2275,"Ġsle":2276,"Ġabs":2277,"Ġmichael":2278,"quence":2279,"irt":2280,"Ġdel":2281,"ification":2282,"Ġskills":2283,"Ġholy":2284,"Ġideas":2285,"apt":2286,"user":2287,"Ġmethods":2288,"Ġdetails":2289,"Ġpriv":2290,"Ġeverything":2291,"Ġbase":2292,"Ġblack":2293,"Ġsolve":2294,"Ġsales":2295,"Ġlisten":2296,"vern":2297,"Ġpopular":2298,"Ġversion":2299,"case":2300,"Ġmix":2301,"\\*":2302,"Ġadj":2303,"ral":2304,"Ġgetting":2305,"ium":2306,"oring":2307,"mod":2308,"Ġreduce":2309,"Ġdatabase":2310,"side":2311,"30":2312,"Ġing":2313,"ley":2314,"reng":2315,"asing":2316,"Ġconvert":2317,"Ġnone":2318,"Ġprice":2319,"Ġsepar":2320,"ched":2321,"words":2322,"Ġtools":2323,"Ġwatch":2324,"Ġaccur":2325,"Ġpaper":2326,"Ġcir":2327,"lex":2328,"ram":2329,"erc":2330,"Ġbox":2331,"Ġmachine":2332,"Ġtree":2333,"Ġgir":2334,"Ġcomes":2335,"iques":2336,"Ġchallenges":2337,"ison":2338,"Ġfund":2339,"Ġacross":2340,"Ġtraining":2341,"sv":2342,"Ġcy":2343,"Ġvol":2344,"Ġbenefits":2345,"ges":2346,"Ġblock":2347,"gen":2348,"Ġsil":2349,"Ġstreng":2350,"Ġenjo":2351,"ai":2352,"Ġnear":2353,"Ġexcept":2354,"Ġcountry":2355,"vant":2356,"fs":2357,"itten":2358,"Ġ11":2359,"Ġphil":2360,"Ġdifficult":2361,"Ġmoses":2362,"Ġsong":2363,"Ġsubject":2364,"Ġvoice":2365,"Ġquant":2366,"Ġquery":2367,"Ġwrong":2368,"Ġtoward":2369,"Ġevents":2370,"itical":2371,"pri":2372,"ograph":2373,"this":2374,"ibility":2375,"Ġintrodu":2376,"'d":2377,"Ġweight":2378,"order":2379,"Ġburn":2380,"Ġdark":2381,"gypt":2382,"Ġapi":2383,"Ġcolumn":2384,"ners":2385,"Ġ--":2386,"Ġgreen":2387,"Ġcreated":2388,"Ġcontinue":2389,"ging":2390,"Ġnamed":2391,"Ġwhole":2392,"bers":2393,"Ġsave":2394,"Ġmatch":2395,"frac":2396,"Ġegypt":2397,"olution":2398,"Ġdigital":2399,"Ġgovern":2400,"Ġcompet":2401,"Ġtravel":2402,"Ġ...":2403,"array":2404,"Ġsecurity":2405,"')":2406,"**":2407,"ply":2408,"Ġtips":2409,"log":2410,"Ġdead":2411,"Ġbad":2412,"unch":2413,"ried":2414,"vation":2415,"Ġdecision":2416,"ula":2417,"Ġ<<":2418,"Ġjoe":2419,"Ġcell":2420,"Ġaudience":2421,"Ġtreat":2422,"Ġcry":2423,"Ġdrink":2424,"Ġstrategies":2425,"Ġ50":2426,"Ġtechniques":2427,"Ġspeak":2428,"ailed":2429,"aries":2430,"opt":2431,"inary":2432,"Ġglo":2433,"uments":2434,"fil":2435,"ister":2436,"temp":2437,"Ġeveryone":2438,"Ġperfect":2439,"ids":2440,"Ġcertainly":2441,"full":2442,"Ġroot":2443,"mer":2444,"Ġ14":2445,"Ġdocument":2446,"Ġincorpor":2447,"Ġthemselves":2448,"Ġvisual":2449,"ica":2450,"Ġnews":2451,"Ġcompanies":2452,"Ġrad":2453,"Ġterms":2454,"Ġhost":2455,".,":2456,"test":2457,"Ġ!":2458,"16":2459,"Ġsea":2460,"gers":2461,"point":2462,"Ġdue":2463,"Ġnetwork":2464,"Ġgoals":2465,"Ġfeet":2466,"Ġrecord":2467,"Ġsquare":2468,"Ġbaby":2469,"Ġmill":2470,"Ġaverage":2471,"Ġnecessary":2472,"Ġtim":2473,"Ġconstr":2474,"Ġhund":2475,"ires":2476,"Ġpress":2477,"Ġhor":2478,"Ġconvers":2479,"Ġlower":2480,"aling":2481,"ains":2482,"Ġage":2483,"Ġautom":2484,"Ġprevious":2485,"Ġavoid":2486,"Ġupdate":2487,"Ġwaste":2488,"Ġsens":2489,"Ð°":2490,"Ġeval":2491,"Ġletter":2492,"Ġer":2493,"Ġenglish":2494,"Ġreplace":2495,"Ġross":2496,"Ġhundred":2497,"Ġbrow":2498,"Ġnut":2499,"Ġfeed":2500,"Ġbur":2501,"Ġrequired":2502,"Ġoption":2503,"Ġsource":2504,"Ġscience":2505,"Ġ25":2506,"Ġgreater":2507,"Ġalong":2508,"Ġopportun":2509,"Ġrob":2510,"anced":2511,"Ġwhom":2512,"izes":2513,"Ġet":2514,"akes":2515,"Ġdisco":2516,"Ġyourself":2517,"Ġingred":2518,"Ġinteger":2519,"Ġveget":2520,"ffee":2521,"ousand":2522,"Ġstudy":2523,"Ġcomplexity":2524,"Ġgrowth":2525,"Ġang":2526,"over":2527,"Ġthousand":2528,"ently":2529,"Ġcommunication":2530,"Ġmemory":2531,"eters":2532,"Ġequal":2533,"Ġtransform":2534,"idth":2535,"Ġrespect":2536,"Ġthird":2537,"usal":2538,"Ġhalf":2539,"Ġserver":2540,"Ġball":2541,"ogn":2542,"Ġrow":2543,"Ġpick":2544,"Ġissues":2545,"but":2546,"Ġneeded":2547,"Ġconsum":2548,"Ġtasks":2549,"hens":2550,"soci":2551,"length":2552,"Ġfine":2553,"Ġgar":2554,"Ġstra":2555,"['":2556,"Ġprim":2557,"Ġfinal":2558,"Ġimplementation":2559,"ascript":2560,"Ġencoura":2561,"usalem":2562,"Ġmid":2563,"Ġnames":2564,"Ġjerusalem":2565,"sum":2566,"Ġdefine":2567,"ault":2568,"Ġmention":2569,"ived":2570,"Ġphysical":2571,"Ġequation":2572,"\";":2573,"bed":2574,"Ġclick":2575,"ises":2576,"Ġfunctions":2577,"Ġthough":2578,"Ġjudah":2579,"Ġarticle":2580,"Ġdiction":2581,"Ġbehavior":2582,"Ġflow":2583,"Ġefficient":2584,"het":2585,"Ġrev":2586,"Ġtraditional":2587,":\\":2588,"Ġexerc":2589,"atic":2590,"Ġwide":2591,"la":2592,"Ġassoci":2593,"Ġpurpose":2594,"Ðµ":2595,"mbol":2596,"Ġremove":2597,"\");":2598,"ising":2599,"23":2600,"Ġbread":2601,"sub":2602,"ster":2603,"Ġcoffee":2604,"Ġmatrix":2605,"Ġnav":2606,"Ġhimself":2607,"ump":2608,"Ġexplore":2609,"Ġlen":2610,"Ġwhite":2611,"Ġque":2612,"ĠâĢĵ":2613,"Ġphot":2614,"Ġenjoy":2615,"result":2616,"Ġ$\\":2617,"size":2618,"Ġconnection":2619,"Ġdw":2620,"Ġexce":2621,"tend":2622,"iddle":2623,"++":2624,"Ġspeed":2625,"Ġincludes":2626,"Ġrock":2627,"Ġclose":2628,"Ġscore":2629,"\"]":2630,"Ġcop":2631,"Ġmother":2632,"Ġinstall":2633,"Ġpolic":2634,"Ġdifference":2635,"ications":2636,"Ġwall":2637,"Ġseries":2638,"Ġdream":2639,"Ġnull":2640,"Ġprop":2641,"Ġ},":2642,"Ġ+=":2643,"Ġessential":2644,"iod":2645,"Ġcannot":2646,"aching":2647,"Ġfig":2648,"Ġleg":2649,"Ġlibrary":2650,"ik":2651,"Ġpun":2652,"Ġscient":2653,"sole":2654,"Ġoffering":2655,"']":2656,"Ġshalt":2657,"Ġguy":2658,"Ġunivers":2659,"Ġadjust":2660,"fully":2661,"Ġready":2662,"erature":2663,"Ġlikely":2664,"Ġstrength":2665,"Ġmaj":2666,"Ġblue":2667,"Ġcontains":2668,"Ġempty":2669,"gest":2670,"json":2671,"room":2672,"uctions":2673,"Ġoccur":2674,"Ġparty":2675,"Ġpeace":2676,"uro":2677,"Ġsweet":2678,"uce":2679,"Ġsix":2680,"Ġchick":2681,"Ġsuper":2682,"Ġfiles":2683,"Ġengine":2684,"Ġblood":2685,"ground":2686,"Ġdaught":2687,"div":2688,"Ġbow":2689,"Ġrunning":2690,"Ġjava":2691,"tp":2692,"itude":2693,"Ġimag":2694,"ration":2695,"Ġ13":2696,"Ġaffect":2697,"ny":2698,"Ġproviding":2699,"Ġmic":2700,"Ġdam":2701,"pre":2702,"Ġwritten":2703,"Ġord":2704,"Ġdoor":2705,"Ġearly":2706,"Ġhello":2707,"Ġenter":2708,"22":2709,"fort":2710,"Ġbuilt":2711,"Ġstrings":2712,"Ġrecogn":2713,"Ġhappy":2714,"ably":2715,"Ġhear":2716,"Ġbuy":2717,"?\"":2718,"resh":2719,"Ġfit":2720,"Ġdom":2721,"Ġwalk":2722,"Ġmag":2723,"Ġground":2724,"Ġclos":2725,"Ġconclus":2726,"Ġcompre":2727,"Ġdescribe":2728,"Ġrisk":2729,"Ġcoming":2730,"Ġbrand":2731,"Ġmental":2732,"Ġpredict":2733,"char":2734,"Ġdeb":2735,"ological":2736,"Ġheat":2737,"Ġdefin":2738,"Ġimages":2739,"Ġten":2740,"Ġitems":2741,"Ġphr":2742,"Ġinside":2743,"Ġrecipe":2744,"ius":2745,"Ġ@":2746,"plit":2747,"ustain":2748,"ager":2749,"cre":2750,"Ġoffice":2751,"Ġactivities":2752,"aim":2753,"Ġseem":2754,"Ġlocation":2755,"uh":2756,"Ġlimit":2757,"opp":2758,"Ġunited":2759,"Ġagree":2760,"Ġcat":2761,"Ġguide":2762,"fact":2763,"product":2764,"Ġvi":2765,"Ġurl":2766,"Ġfoot":2767,"Ġperiod":2768,"Ġ**":2769,"Ġrate":2770,"bl":2771,"Ġsche":2772,"Ġwomen":2773,"Ġrelated":2774,"Ġcam":2775,"Ġheard":2776,"Ġstd":2777,"Ġability":2778,"cd":2779,"Ġaff":2780,"Ġinno":2781,"Ġvar":2782,"comp":2783,"Ġwow":2784,"Ġhtml":2785,"Ġcate":2786,"Ġwants":2787,"Ġhon":2788,"Ġ?":2789,"Ġcred":2790,"Ġcool":2791,"Ġthinking":2792,"ights":2793,"uel":2794,"Ġsymbol":2795,"Ġjohn":2796,"fun":2797,"oups":2798,"Ġill":2799,"ask":2800,"ock":2801,"ators":2802,"Ġadded":2803,"box":2804,"Ġfrequ":2805,"Ġsafe":2806,"aps":2807,"Ġconditions":2808,"step":2809,"Ġhigher":2810,"14":2811,"inst":2812,"etic":2813,"aves":2814,"Ġgraph":2815,"Ġant":2816,"Ġparts":2817,"Ġengage":2818,"Ġpair":2819,"Ġcomputer":2820,"ÑĤ":2821,"Ġtold":2822,"Ġconsole":2823,"js":2824,"Ġsoci":2825,"Ġfaith":2826,"ĠĠĠĠĠĠĠĠĠ":2827,"Ġsustain":2828,"Ġeither":2829,"ament":2830,"Ġassign":2831,"Ġappropri":2832,"miss":2833,"Ġrather":2834,"ury":2835,"ief":2836,"Ġcoun":2837,"Ġcomprehens":2838,"Ġexpression":2839,"Ġrelevant":2840,"Ġareas":2841,"clude":2842,"Ġtemperature":2843,"number":2844,"Ġexplan":2845,"itch":2846,"Ġclient":2847,"Ġseed":2848,"Ġingredients":2849,"Ġq":2850,"Ġdeli":2851,"18":2852,"Ġenh":2853,"Ġbutton":2854,"board":2855,"sp":2856,"Ġdetailed":2857,"Ġinstructions":2858,"Ġdictionary":2859,"ots":2860,"Ġsleep":2861,"hen":2862,"Ġwhose":2863,"cer":2864,"Ġlater":2865,"Ġsequence":2866,"Ġpepp":2867,"Ġspr":2868,"rel":2869,"Ġnice":2870,"Ġbecame":2871,"bit":2872,"ively":2873,"Ġconfig":2874,"Ġplayer":2875,"Ġfix":2876,"Ġmi":2877,"Ġbud":2878,"Ġprep":2879,"Ġcollabor":2880,"has":2881,"icate":2882,"Ġmorning":2883,"Ġprivate":2884,"aign":2885,"Ġpan":2886,"Ġmajor":2887,"Ġgoal":2888,"Ġmaterials":2889,"Ġjoey":2890,"Ġben":2891,"ache":2892,"Ġmulti":2893,"21":2894,"Ġprogress":2895,"Ġadding":2896,"Ġbrought":2897,"Ġdistrib":2898,"uth":2899,"Ġtalking":2900,"Ġestab":2901,"isf":2902,"Ġfinan":2903,"Ġpractice":2904,"Ġplant":2905,"ball":2906,"ogle":2907,"Ġdesigned":2908,"Ġdouble":2909,"uted":2910,"ned":2911,"Ġimportance":2912,"irth":2913,"Ġattention":2914,"Ġoffers":2915,"bu":2916,"].":2917,"hers":2918,"Ġformula":2919,"Ġegg":2920,"Ġbehold":2921,"round":2922,"Ġcub":2923,"Ġframe":2924,"Ġtheory":2925,"node":2926,"Ġgeneral":2927,"oph":2928,"Ġfactor":2929,"Ġextract":2930,"Ġcampaign":2931,"Ġange":2932,"Ġseems":2933,"Ġchoice":2934,"Ġmaximum":2935,"Ġnature":2936,"Ġ17":2937,"Ġload":2938,"Ġturned":2939,"osp":2940,"Ġbooks":2941,"Ġseven":2942,"Ġexperiences":2943,"andler":2944,"Ġmovie":2945,"Ġamaz":2946,"Ġjourney":2947,"Ġsorted":2948,"top":2949,"Ġfavor":2950,"Ġanim":2951,"Ġarch":2952,"Ġprogramming":2953,"isions":2954,"Ġconclusion":2955,"Ġrod":2956,"Ġsecret":2957,"query":2958,"ians":2959,"Ġmembers":2960,"Ġsounds":2961,"Ġcases":2962,"Ġcard":2963,"ĠĠĠĠĠĠĠĠĠĠĠĠĠĠĠĠĠĠĠ":2964,"Ġscen":2965,"Ġaccept":2966,"Ġjim":2967,"vered":2968,"Ġann":2969,"Ġgre":2970,"Ġmatter":2971,"Ġissue":2972,"Ġones":2973,"Ġstarted":2974,"Ġanalyze":2975,"Ġwife":2976,"Ġlif":2977,"Ġexact":2978,"element":2979,"chel":2980,"Ġpromot":2981,"lying":2982,"Ġprevent":2983,"Ð¸":2984,"Ġinteract":2985,"Ġeff":2986,"zy":2987,"Ġfast":2988,"Ġupdated":2989,"Ġlat":2990,"html":2991,"Ġtrust":2992,"ĠÃ":2993,"ams":2994,"Ġdescription":2995,"Ġ24":2996,"Ġfamil":2997,"Ġrequirements":2998,"Ġfight":2999,"Ġassist":3000,"Ġthroughout":3001,"Ġcolle":3002,"100":3003,"ued":3004,"Ġtou":3005,"Ġwood":3006,"omes":3007,"change":3008,"Ġprobability":3009,"Ġmodify":3010,"Ġbird":3011,"Ġcloud":3012,"Ġphone":3013,"Ġsources":3014,"Ġbill":3015,"sec":3016,"Ġdraw":3017,"Ġcover":3018,"Ġdistance":3019,"Ġemployees":3020,"Ġitem":3021,"Ġexpected":3022,"chan":3023,"Ġstudent":3024,"tra":3025,"Ġsides":3026,"Ġeffects":3027,"Ġpark":3028,"Ġbehind":3029,"Ġaspect":3030,"Ġleave":3031,"Ġeffort":3032,"Ġgames":3033,"Ġvirt":3034,"Ġaltern":3035,"rt":3036,"Ġsubst":3037,"Ġappropriate":3038,"you":3039,"!\"":3040,"Ġdie":3041,"Ġ[]":3042,"Ġparent":3043,"Ġservant":3044,"Ġmodels":3045,"matrix":3046,"Ġintegers":3047,"Ġstrategy":3048,"\\*\\*":3049,"oes":3050,"imately":3051,"Ġsmart":3052,"Ġsql":3053,"Ġheight":3054,"Ġheaven":3055,"gar":3056,"Ġfruit":3057,"Ġrules":3058,"Ġeducation":3059,"Ġseason":3060,"Ġur":3061,"Ġsalt":3062,"Ġreflect":3063,"Ġevalu":3064,"Ġadapt":3065,"Ġsaith":3066,"Ġdise":3067,"Ġglobal":3068,"cur":3069,"your":3070,"Ġtag":3071,"Ġpractices":3072,"gment":3073,"Ġsolutions":3074,"most":3075,"ux":3076,"Ġplaces":3077,"Ġguess":3078,"Ġbelow":3079,"Ġstarting":3080,"mit":3081,"Ġcultural":3082,"xa":3083,"Ġdog":3084,"elt":3085,"Ġinvolves":3086,"respond":3087,"Ġthus":3088,"Ġlives":3089,"ork":3090,"othes":3091,"https":3092,"Ġmodern":3093,"Ġband":3094,"Ġfib":3095,"urt":3096,"care":3097,"iful":3098,"outh":3099,"Ġrachel":3100,"Ġ40":3101,"Ġattack":3102,"ana":3103,"($":3104,"Ġpray":3105,"Ġevidence":3106,"Ġrom":3107,"Ġentire":3108,"Ġprior":3109,"Ġrich":3110,"Ġfinancial":3111,"Ġele":3112,"llig":3113,"uration":3114,"Ġgives":3115,"valid":3116,"Ġvisit":3117,"ension":3118,"17":3119,"code":3120,"Ġsetting":3121,"Ġtransport":3122,"with":3123,"Ġnavig":3124,"idered":3125,"Ġcollect":3126,"Ġfresh":3127,"Ġbirth":3128,"Ġalt":3129,"Ġconsist":3130,"rypt":3131,"Ġserve":3132,"Ġ:=":3133,"Ġcand":3134,"Ġsmo":3135,"Ġnorm":3136,"Ġhighlight":3137,"aced":3138,"Ġvariety":3139,"ero":3140,"ferences":3141,"Ġguid":3142,"Ġpassage":3143,"Ġprofessional":3144,"Ġcast":3145,"Ġsimpl":3146,"Ġparticip":3147,"Ġled":3148,"Ġ\\*":3149,"Ġconsidered":3150,"artment":3151,"Ġprotect":3152,"Ġpow":3153,"Ġcenter":3154,"Ġbalance":3155,"Ġfeedback":3156,"friend":3157,"Ġobser":3158,"Ġgone":3159,"append":3160,"rap":3161,"Ġmeeting":3162,"Ġcorrespond":3163,"ties":3164,"Ġbed":3165,"Ġwanted":3166,"Ġquickly":3167,"Ġamerican":3168,"Ġreach":3169,"Ġlonger":3170,"60":3171,"ara":3172,"Ġproblems":3173,"ln":3174,"ugg":3175,"Ġsummary":3176,"Ġutil":3177,"Ġbott":3178,"Ġmechan":3179,"Ġlevels":3180,"$,":3181,"rup":3182,"what":3183,"^^":3184,"class":3185,"Ġinstance":3186,"uly":3187,"Ġgroups":3188,"item":3189,"ðŁ":3190,"Ġforth":3191,"ception":3192,"Ġcross":3193,"Ġgovernment":3194,"Ġoutside":3195,"Ġsatisf":3196,"Ġdwight":3197,"aur":3198,"sort":3199,"lab":3200,"Ġproduction":3201,"Ġemer":3202,"astic":3203,"af":3204,"pecial":3205,"Ġgiving":3206,"max":3207,"Ġculture":3208,"Ġdeal":3209,"Ġsuccessful":3210,"Ġtowards":3211,"istics":3212,"Ġdesired":3213,"rem":3214,"Ġleading":3215,"Ġsouth":3216,"Ġstandard":3217,"Ġproperty":3218,"Ġcheese":3219,"title":3220,"Ġrepl":3221,"Ġknew":3222,"any":3223,"Ġrelationships":3224,"oo":3225,"amb":3226,"Ġgoes":3227,"Ġpra":3228,"Ġgoogle":3229,"Ġusage":3230,"ored":3231,"Ġlooks":3232,"\\_\\_":3233,"Ġwine":3234,"field":3235,"Ġtables":3236,"Ġservants":3237,"Ġmob":3238,"Ġhyp":3239,"Ġ!=":3240,"like":3241,"eness":3242,"Ġmis":3243,"Ġcomfort":3244,"gre":3245,"Ġmass":3246,"angle":3247,"Ġfail":3248,"Ġwat":3249,"odes":3250,"osh":3251,"Ġpercent":3252,"Ġfields":3253,"hello":3254,"Ġcomprehensive":3255,"inter":3256,"},":3257,"Ġpattern":3258,"Ġforward":3259,"Ġdemon":3260,"Ġanyone":3261,"Ġdyn":3262,"Ġreward":3263,"Ġbeautiful":3264,"pass":3265,"Ġprompt":3266,"mess":3267,"Ġnations":3268,"][":3269,"anna":3270,"itor":3271,"Ġfilm":3272,"Ġrepe":3273,"Ġcosts":3274,"orage":3275,"Ġfre":3276,"200":3277,"wise":3278,"Ġstress":3279,"Ġmyself":3280,"db":3281,"Ġexplanation":3282,"down":3283,"Ġmouth":3284,"Ġbreat":3285,"Ġinsp":3286,"Ġhoney":3287,"use":3288,"Ġattrib":3289,"Ġwonder":3290,"Ġjac":3291,"32":3292,"she":3293,"Ġfill":3294,"aged":3295,"Ġpurch":3296,"Ġsauce":3297,"Ġmoment":3298,"Ġlines":3299,"apan":3300,"Ġchicken":3301,"Ġincreased":3302,"vi":3303,"40":3304,"aches":3305,"Ġemb":3306,"Ġvoid":3307,"sql":3308,"Ġkingdom":3309,"Ġhealthy":3310,"Ġtrain":3311,"Ġdry":3312,"Ġtruth":3313,"attle":3314,"Ġden":3315,"Ġstuff":3316,"Ġhair":3317,"ression":3318,"Ġintellig":3319,"80":3320,"Ġchandler":3321,"conf":3322,"next":3323,"Ġextra":3324,"Ġliter":3325,"Ġdemand":3326,"Ġtesting":3327,"Ġsituation":3328,"izations":3329,"actions":3330,"Ġactions":3331,"Ġpowerful":3332,"ung":3333,"ival":3334,"Ġobjects":3335,"Ġmicro":3336,"Ġoperations":3337,"Ġmath":3338,"Ġsection":3339,"Ġoffic":3340,"Ġmiddle":3341,"ologies":3342,"Ġfront":3343,"aa":3344,"eous":3345,"une":3346,"ulate":3347,"ĠĠĊ":3348,"enty":3349,"Ġpiece":3350,"lly":3351,"Ġwild":3352,"Ġep":3353,"Ġsell":3354,"Ġarm":3355,"Ġeffectively":3356,"Ġbasic":3357,"13":3358,"Ġaim":3359,"Ġitself":3360,"Ġmr":3361,"ession":3362,"ured":3363,"den":3364,"ony":3365,"Ġmaster":3366,"Ġbackground":3367,"true":3368,"Ġclimate":3369,"start":3370,"def":3371,"where":3372,"iency":3373,"Ġult":3374,"Ġox":3375,"asts":3376,"Ġmillion":3377,"cious":3378,"Ġchecks":3379,"Ġpal":3380,"sequ":3381,"map":3382,"Ġsett":3383,"Ġstack":3384,"Ġstream":3385,"Ġtour":3386,"terns":3387,"Ġstri":3388,"Ġrout":3389,"Ġmentioned":3390,"Ġpret":3391,"Ġquantum":3392,"Ġimm":3393,"Ġdemonstr":3394,"jav":3395,"Ġgrad":3396,"Ġban":3397,"Ġmonths":3398,"itation":3399,"45":3400,"Ġund":3401,"posed":3402,"more":3403,"Ġwest":3404,"Ġjapan":3405,"cket":3406,"Ġjoy":3407,"Ġassociated":3408,"sl":3409,"Ġ->":3410,"Ġrepresents":3411,"Ġgirl":3412,"part":3413,"Ġkept":3414,"Ġvariables":3415,"Ġjacob":3416,"Ġcountries":3417,"Ġalright":3418,"dis":3419,"net":3420,"Ġpho":3421,"Ġpsy":3422,"Ġdaily":3423,"Ġcapital":3424,"Ġhast":3425,"olute":3426,"Ġargument":3427,"Ġexc":3428,"Ġdecisions":3429,"illed":3430,"Ñģ":3431,"Ġrecurs":3432,"Ġspread":3433,"Ġrule":3434,"Ġter":3435,"Ġspecified":3436,"Ġglory":3437,"enge":3438,"Ġcompare":3439,"Ġbless":3440,"Ġvirtual":3441,"mt":3442,"Ġpoem":3443,"Ġstre":3444,"pecially":3445,"Ġgain":3446,"Ġactivity":3447,"Ġconstant":3448,"inner":3449,"Ġcreative":3450,"Ġfish":3451,"Ġtoken":3452,"Ġfathers":3453,"Ġcirc":3454,"lished":3455,"ciples":3456,"enced":3457,"Ġisn":3458,"Ġmel":3459,"Ġemphas":3460,"Ġbroken":3461,"arc":3462,"Ġhistor":3463,"Ġcolors":3464,"itable":3465,"Ġeasier":3466,"ban":3467,"Ġmine":3468,"Ġsmaller":3469,"Ġapplications":3470,"Ġparticularly":3471,"dat":3472,"Ġfra":3473,"Ġuniversity":3474,"token":3475,"spe":3476,"Ġtom":3477,"Ġsomet":3478,"Ġtent":3479,"Ġcou":3480,"pped":3481,"Ġsand":3482,"Ġmonica":3483,"Ġcities":3484,"lete":3485,"Ġmilk":3486,"da":3487,"Ġrighteous":3488,"Ġprem":3489,"asure":3490,"Ġremo":3491,"Ġmotiv":3492,"];":3493,"Ġ###":3494,"venue":3495,"Ð½":3496,"Ġble":3497,"Ġmeal":3498,"Ġdynam":3499,"Ġtypically":3500,"irm":3501,"Ġproduce":3502,"Ġcomponents":3503,"Ġprimary":3504,"Ġreading":3505,"Ġespecially":3506,"Ġcontact":3507,"numbers":3508,"Ġraise":3509,"[\"":3510,"format":3511,"Ġdim":3512,"Ġorders":3513,"Ġgard":3514,"Ġfeeling":3515,"ek":3516,"ham":3517,"Ġapply":3518,"Ġmodule":3519,"math":3520,"Ġstudies":3521,"Ġcomponent":3522,"Ġjavascript":3523,"Ġsoul":3524,"gory":3525,"Ġsty":3526,"Ġrequires":3527,"Ġpatterns":3528,"Ġroad":3529,"Ġletters":3530,"mark":3531,"Ġtrouble":3532,"works":3533,"cending":3534,"Ġneither":3535,"Ġdefault":3536,"Ġwarm":3537,"Ġdirectly":3538,"rief":3539,"Ġconstruct":3540,"qrt":3541,"Ġ60":3542,"vin":3543,"Ġlos":3544,"anger":3545,"inct":3546,"oub":3547,"dddd":3548,"println":3549,"Ġwanna":3550,"Ġhol":3551,"bre":3552,"bon":3553,"Ġscenari":3554,"Ġpam":3555,"Ġmist":3556,"image":3557,"cccc":3558,"hest":3559,"Ġ\"\"":3560,"Ġabsolute":3561,"Ġthereof":3562,"Ġassum":3563,"Ġstatic":3564,"hemat":3565,"Ġeuro":3566,"Ġbrain":3567,"Ġretrie":3568,"Ġnorth":3569,"ĠĠĠĠĠĠ":3570,"Ġeasily":3571,"color":3572,"Ġdaughter":3573,"select":3574,"Ġregard":3575,"len":3576,"Ġbound":3577,"Ġparameters":3578,".)":3579,"Ġ_":3580,"Ġwit":3581,"Ġsan":3582,"Ġthrow":3583,"Ġeconomic":3584,"za":3585,"Ġtopic":3586,"trans":3587,"Ġuniverse":3588,"Ġessay":3589,"Ġremaining":3590,"Ġemotional":3591,"reci":3592,"Ġgets":3593,"Ġengaging":3594,"Ġreceive":3595,"99":3596,"Ġboy":3597,"Ġ---":3598,"Ġscene":3599,"Ġcurrently":3600,"Ġinvolved":3601,"Ġpepper":3602,"Ġindic":3603,"Ġdatas":3604,"Ġseparate":3605,"Ġpict":3606,"Ġclaim":3607,"Ġaware":3608,"Ġrenew":3609,"free":3610,"ÑĢ":3611,"Ġpolicy":3612,"0000":3613,"Ġprograms":3614,"lebr":3615,"iring":3616,"Ġsimply":3617,"Ġasked":3618,"Ġdivid":3619,"world":3620,"year":3621,"Ġprojects":3622,"64":3623,"term":3624,"Ġmap":3625,"Ġexisting":3626,"itect":3627,"Ġskin":3628,"Ġstatus":3629,"ba":3630,"ov":3631,"Ġchat":3632,"Ġfat":3633,"Ġalph":3634,"Ġtouch":3635,"find":3636,"Ġappear":3637,"des":3638,"api":3639,"Ġpassword":3640,"Ġsustainable":3641,"hel":3642,"onac":3643,"Ġinf":3644,"lear":3645,"unk":3646,"Ġsport":3647,"host":3648,"Ġexperiment":3649,"Ġfair":3650,"Ġodd":3651,"Ġremind":3652,"Ġir":3653,"cks":3654,")\\":3655,"df":3656,"Ġgerm":3657,"Ġloss":3658,"cr":3659,"Ġflavor":3660,"Ġsentiment":3661,"Ġsometimes":3662,"ell":3663,"Ġplayers":3664,"write":3665,"ops":3666,"pers":3667,"Ġcondition":3668,"ighb":3669,"Ġperspect":3670,"Ġallowing":3671,"Ġmiles":3672,"medi":3673,"Ġder":3674,"Ġdan":3675,"Ġdress":3676,"Ġconcer":3677,"Ġopportunities":3678,"Ġphoe":3679,"Ġplaying":3680,"Ġpromote":3681,"----------------":3682,"Ġexpert":3683,"[]":3684,"Ġwis":3685,"Ġappreci":3686,"Ġvan":3687,"oper":3688,"Ġphrase":3689,"Ġworth":3690,"Ġcogn":3691,"Ġlarger":3692,"Ġproperties":3693,"Ġcreates":3694,"Ġfif":3695,"ĠâĢ¢":3696,"Ġdirectory":3697,"Ġdesp":3698,"ensive":3699,"Ġactual":3700,"Ġmathemat":3701,"Ġinsert":3702,"Ġchallenge":3703,"Ġarchitect":3704,"Ġsword":3705,"Ġbran":3706,"Ġerrors":3707,"usion":3708,"etch":3709,"Ġcelebr":3710,"Ġdevices":3711,"ened":3712,"Ġprocesses":3713,"Ġthoughts":3714,"onacci":3715,"rench":3716,"Ġnumer":3717,"Ġsample":3718,"Ġparameter":3719,"Ġpen":3720,"ama":3721,"Ġdestr":3722,"Ġmobile":3723,"rics":3724,"asons":3725,"iling":3726,"Ġbrown":3727,"message":3728,"Ġcommit":3729,"Ġcorresponding":3730,"Ġlost":3731,"men":3732,"Ġmedical":3733,"Ġlate":3734,"aph":3735,"Ġrestaur":3736,"stat":3737,"semb":3738,"abilities":3739,"Ġchoices":3740,"Ġexercise":3741,"Ġpretty":3742,"Ġ__":3743,"ordin":3744,"Ġsaf":3745,"loc":3746,"Ġcru":3747,"Ġoperation":3748,"Ġtaste":3749,"Ġchann":3750,"ils":3751,"Ġsold":3752,"Ġsets":3753,"Ġexpand":3754,"Ġenhance":3755,"Ġboard":3756,"px":3757,"Ġuseful":3758,"Ġstorage":3759,"Ġdevice":3760,"Ġinteresting":3761,"Ġfloat":3762,"Ġforce":3763,"Ġsus":3764,"left":3765,"Ġserious":3766,"Ġfinding":3767,"Ġfollows":3768,"Ġplatforms":3769,"Ġencourage":3770,"24":3771,"cient":3772,"====":3773,"orrow":3774,"Ġ<=":3775,"Ġplayed":3776,"Ġbowl":3777,"ding":3778,"Ġecho":3779,"ample":3780,"Ġjose":3781,"Ġcompl":3782,"Ġfilter":3783,"Ġscreen":3784,"lock":3785,"yed":3786,"Ġuncle":3787,"Ġstrugg":3788,"Ġhit":3789,"Ġham":3790,"Ġslow":3791,"hh":3792,"bb":3793,"create":3794,"ses":3795,"uzz":3796,"values":3797,"Ġdepending":3798,"Ġbegan":3799,"Ġbinary":3800,"Ġchina":3801,"iveness":3802,"Ġdish":3803,"Ġcream":3804,"table":3805,"pping":3806,"ĠâĢĺ":3807,"Ġsociety":3808,"ached":3809,"Ġumm":3810,"met":3811,"encies":3812,"Ġincreasing":3813,"Ġagreement":3814,"Ġhumans":3815,"ternal":3816,"icles":3817,"lesh":3818,"Ġforest":3819,"ulations":3820,"Ġphoebe":3821,"cip":3822,"Ġol":3823,"Ġweather":3824,"Ġhelpful":3825,"Ġ[\"":3826,"Ġreality":3827,"Ġregion":3828,"Ġmac":3829,"client":3830,"Ġdivis":3831,"Ġprobably":3832,"Ġĉĉ":3833,"Ġscientific":3834,"aw":3835,"Ġplot":3836,"agraph":3837,"Ġsecure":3838,"frame":3839,"etime":3840,"Ġdesire":3841,"prime":3842,"Ġdecl":3843,"Ġgarden":3844,"ef":3845,"ij":3846,"Ġcontr":3847,"Ġgrand":3848,"score":3849,"well":3850,"ua":3851,"Ġteac":3852,"emp":3853,"run":3854,"Ã³":3855,"Ġreverse":3856,"Ġapprox":3857,"Ġcareer":3858,"Ġsilver":3859,"Ġcatch":3860,"Ġtill":3861,"Ġcolumns":3862,"pret":3863,"uary":3864,"iced":3865,"Ġeye":3866,"Ġadmin":3867,"Ġprocessing":3868,"Ġmeasures":3869,"include":3870,"Ġneighb":3871,"())":3872,"Ġanimals":3873,"lib":3874,"oint":3875,"ado":3876,"adem":3877,"lder":3878,"Ġtrade":3879,"Ġsurface":3880,"Ġhappened":3881,"Ġetc":3882,"Ġeth":3883,"Ġdestro":3884,"Ġdestruction":3885,"aff":3886,"Ġsch":3887,"Ġsuggestions":3888,"aron":3889,"www":3890,"Ġexactly":3891,"Ġelectric":3892,"');":3893,"rate":3894,"Ġwed":3895,"Ġhighly":3896,"Ġemotions":3897,"Ġflesh":3898,"Ġjack":3899,"Ġadvanced":3900,"Ġreducing":3901,"Ġtur":3902,"Ġstar":3903,"Ġconduct":3904,"Ġdelic":3905,"post":3906,"Ġnp":3907,"Ġchief":3908,"Ġpopulation":3909,"Ġintelligence":3910,"Ġdrive":3911,"';":3912,"Ġsite":3913,"Ġrain":3914,"Ġsentences":3915,"Ġfavorite":3916,"Ġeurope":3917,"Ġseek":3918,"Ġpackage":3919,"Ġalternative":3920,"Ġ});":3921,"Ġsafety":3922,"iation":3923,"Ġslic":3924,"email":3925,"Ġrows":3926,"Ġsmooth":3927,"ino":3928,"Ġlack":3929,"Ġassess":3930,"au":3931,"Ġnational":3932,"Ġpoor":3933,"Ġjoseph":3934,"atives":3935,"Ġstage":3936,"uplic":3937,"Ð¾Ð":3938,"button":3939,"Ġcm":3940,"Ġcontract":3941,"Ġmit":3942,"ada":3943,"Ġshape":3944,"Ã¤":3945,"Ġbat":3946,"Ġpolitical":3947,"Ġpriests":3948,"Ġviol":3949,"Ġpsych":3950,"Ġsud":3951,"Ġflex":3952,"Ġreact":3953,"iles":3954,"Ġbudget":3955,"icing":3956,"ios":3957,"Ġhandling":3958,"Ġinternational":3959,"ously":3960,"Ġsex":3961,"flow":3962,"Ġallowed":3963,"Ġjan":3964,"Ġspecies":3965,"Ġtrees":3966,"Ġvegetables":3967,"aving":3968,"Ġshows":3969,"Ġenvironmental":3970,"Ġriver":3971,"equ":3972,"Ġdance":3973,"Ġmagn":3974,"known":3975,"Ġpieces":3976,"Ġton":3977,"Ġbag":3978,"Ġinternet":3979,"Ġstraight":3980,"Ġapple":3981,"friendly":3982,"main":3983,"¿½":3984,"Ġhous":3985,"Ġwindow":3986,"wers":3987,"group":3988,"Ġcritical":3989,"model":3990,"Ġcopy":3991,"ï¿½":3992,"Ġded":3993,"Ġhuh":3994,"Ġmanager":3995,"33":3996,"Ġfilled":3997,"Ġcooking":3998,"Ġhom":3999,"cast":4000,"Ġfelt":4001,"lon":4002,"uits":4003,"init":4004,"Ġsubt":4005,"Ġalex":4006,"inte":4007,"Ġice":4008,"Ġencrypt":4009,"current":4010,"vice":4011,"era":4012,"Ġbutter":4013,"Ġplanning":4014,"Ġforg":4015,"Ġefficiency":4016,"Ġreceived":4017,"Ġjourn":4018,"Ġlimited":4019,"Ġtransportation":4020,"Ġmal":4021,"Ġmoving":4022,"flict":4023,"Ġhealthcare":4024,"Ġmessages":4025,"ller":4026,"Ġstories":4027,"Ġju":4028,"Ġpresident":4029,"Ġresponsible":4030,"comm":4031,"Ġrespond":4032,"Ġalgorithms":4033,"Ġyork":4034,"ÃŃ":4035,"Ġusually":4036,"Ġadvert":4037,"Ġhttps":4038,"Ġbrothers":4039,"Ġevaluate":4040,"75":4041,"Ġtick":4042,"Ġrevenue":4043,"tes":4044,"Ġaccom":4045,"Ġspecifically":4046,"Ġlargest":4047,"Ġwidth":4048,"Ġfrench":4049,"Ġchance":4050,"Ġdisk":4051,"Ġrefers":4052,"Ġlayer":4053,"Ġ)":4054,"Ġbey":4055,"Ġlabel":4056,"amin":4057,"Ġparagraph":4058,"ography":4059,"Ġrenewable":4060,"hent":4061,"Ġpy":4062,"content":4063,"Ġestablish":4064,"Ġnest":4065,"Ġbond":4066,"Ġnovel":4067,"Ġresulting":4068,"90":4069,"Ġyog":4070,"que":4071,"Ġalign":4072,"anging":4073,"amm":4074,"Ġdoll":4075,"password":4076,"Ġcognitive":4077,"65":4078,"width":4079,"Ġsac":4080,"Ġtwenty":4081,"Ġglass":4082,"position":4083,"Ġdivide":4084,"Ġtruly":4085,"agram":4086,"Ġmoon":4087,"Ġbroad":4088,"Ġarguments":4089,"Ġfamilies":4090,"fit":4091,"Ġsaul":4092,"Ġbecomes":4093,"Ġchem":4094,"Ġphilos":4095},"merges":["Ġ t","Ġ a","h e","i n","Ġt he","r e","Ġ s","o n","Ġ Ġ","Ġ c","a t","e r","Ġ w","Ġ o","n d","Ġ i","e s","Ġ f","o u","Ġ p","e n","o r","Ġ m","Ġ b","in g","Ġa nd","Ġ d","a n","a l","Ġt o","Ġ in","i t","Ġo f","l e","Ġ h","a r","Ġt h","i s","e d","i on","Ġ n","Ġ y","i c","Ġ e","r o","a s","Ġ g","Ġ l","ĠĠ ĠĠ","Ġy ou","en t","Ġ re","u s","c t","v e","l l","o m","Ġi s","e t","u t","Ġ Ċ","o w","Ġf or","Ġb e","i d","Ġ he","s t","o t","a m","Ġth at","Ġs t","a y","c e","Ġi t","Ġw h","l y","Ġ on","c h","i g","i m","u r","s e","a d","ĠĠ Ġ","it h","l d","at ion","u n","o d","v er","Ġa n","Ġw ith","i r","Ġw e","Ġp ro","r a","k e","Ġ \"","at e","u m","Ġc on","Ġa s","i l","Ġ j","er s","o l","Ġc an","u l","g e","Ġ us","Ġh a","Ġc om","Ġs e","Ġd e","i f","Ġth is","Ġ v","Ġ =","Ġ 1","Ġa re","t h","q u","Ġo r","es s","Ġe x","r i","a b","h t","es t","p e","Ġ r","Ġc h","Ġm e","i ll","he r","Ġs h","is t","u p","o re","m ent","i ve","Ġn e","a c","Ġ `","a in","t er","Ġyou r","Ġ k","Ġ le","o p","Ġn ot","' s","â Ģ","u re","Ġ (","ĠĠĠĠ ĠĠĠ","m p","ro m","ig ht","Ġd o","an t","Ġha ve","ct ion","i v","ou ld","Ġ 2","it y","Ġ -","e l","or d","Ġf rom","al l","o s","Ġb y","n t","Ġa l","us t","a nd","Ġi f","or t","Ġs o","p l","Ġw as","t e","ar t","Ġa ll","Ġg o","am e","i es","Ġwh at","Ġm a","re s","Ġthe y","p t","Ġw ill","Ġt e","Ġ un","Ġa b","ou t","Ġa d","u d","a ge","Ġw he","i e","Ġl o","Ġp l","Ġa t","Ġthe ir","t o","Ġ en","Ġm y","Ġs u","âĢ Ļ","in e","i z","p p","f e","i al","Ġb ut","Ġt r","e m",". .","Ġa r","Ġh ow","om e","id e","in d","Ġcom p","u e","re d","Ġ up","Ġo ut","ic h","o k","Ġh is","Ġw or","Ġi mp","Ġ 3","Ġs a","ou r","Ġthe m","Ġl i","c k","l o","0 0","a ct","as e","Ġm an","ab le","Ġthe re","i le","ul t","or m","a h","a g","in t","Ġn o","c c","al ly","im e","n ow","p er","ar d","on e","e p","Ġwh o","ac k","as t","c l","a k","Ġ qu","Ġst r","Ġc o","t her","a ch","Ġc l","Ġwh ich","Ġp r","ou nd","as s","re at","ion s","en ce","Ġre s","ou g","um b","a re","f orm","ur n","Ġm ore","Ġ ro","Ġ {","ic e","Ġh as","on g","Ġon e","Ġf o","i p","Ġf e","Ġs c","a ce","Ġab out","d u","Ġli ke","it e","ĠĠĠĠ ĠĠĠĠ","Ġy e","Ġcon t","a v","ou s","ation s","Ġ $","an ce","x t","s o","Ġp e","Ġad d","Ġe v","Ġf un","Ġ` `","Ġk now","Ġ`` `","Ġ u","an s","Ġs ome","Ġus e","Ġwhe n","ou nt","r y","Ġa m","a p","Ġs pe","od e","Ġs p","Ġm o","ig n","Ġh im","Ġd is","Ġ 4","ing s","b le","at a","Ġn umb","c on","Ġ }","- -","Ġan y","Ġre t","re n","p ut","Ġpro v","at ed","' t","o g","Ġ 5","Ġv al","Ġo ver","ar y","it ion","Ġne w","Ġg et","Ġo ther","Ġfun ction","Ġs he","ic al","et h","w e","Ġwor k","Ġhe re","at h","an g","Ġd es","Ġ |","e ct","ver y","Ġin to","Ġhe r","Ġma ke","Ġt ime","Ġp er","g et","( )","res s","or y","\" ,","Ġhe l","oug h","i re","Ġthe se","if ic","st r","i ld","ent s","g r","f f","Ġp o","ve l","ay s","le d","Ġthe n","Ġhel p","Ġw ould","Ġle t","Ġs er","c es","Ġ #","Ġsh ould","a us","p le","re nt","in k","Ġt w","Ġj ust","re e","l f","Ġal so","Ġ ke","h o","d e","Ġret urn","Ġ <","Ġpe op","Ġa cc","a ke","Ġus ing","Ġcom m","Ġ '","u b","Ġa g","Ġth an","Ġbe c","Ġ +","Ġpeop le","Ġp re","Ġw r","Ġe ach","ic k","Ġs y","Ġne ed","Ġwe re","le ment","nd er","ar k","\\ _","Ġ 0","cl ud",".. .","Ġm ay","ar i","Ġc re","or s","l es","Ġb et","Ġl ist","ad e","Ġh ad","Ġb o","Ġof f","ĠĠĠĠ ĠĠĠĠĠĠĠ","o se","n e","Ġd if","Ġsa id","Ġa pp","Ġp art","a il","Ġa p",") ;","ar s","Ġex am","Ġd ata","Ġ *","aus e","Ġw ord","Ġg od","ir st","Ġnumb er","f ore","Ġwe ll","Ġg r","iz e","Ġb u","Ġwhe re","Ġo ur","Ġspe c","Ġp h","Ġre c","p h","Ġ [","Ġ \\","j ect","Ġc ould","en s","Ġde f","Ġc ode","Ġw ant","Ġo h","Ġin clud","Ġa f","Ġsu ch","Ġt ra","Ġf irst","an ge","Ġ ra","is h","Ġit s","Ġtw o","Ġs et","Ġ /","Ġn ow","Ġm od","Ġr ight","at es","c ess","Ġc al","Ġc ol","u al","ro w","is e","i a","er t","e nd","Ġcre ate","Ġg iv","at er","Ġcon s","y s","Ġd on","Ġpro du","Ġp os","Ġj o","Ġu nder","Ġg reat","Ġha nd","Ġc he","Ġg en","Ġd id","n ing","Ġdif fe","y th","Ġch ar","Ġse e","ll ow","Ġg u","Ġs m","Ġimp ort","Ġs ay","ver s","ow n","p ort","Ġh o","b e","Ġst art","as ed","Ġin c","Ġin d","ot h","Ġgo od","Ġth r","yth on","ic t","f t","Ġre m","Ġj e","Ġf ind","Ġ 6","Ġf l","on s","Ġo k","t y","er r","ig h","Ġin ter","Ġe very","Ġcom e","Ġg ive","c i","fe ct","Ġa ct","Ġ x","Ġfor m","st em","Ġlo ok","Ġthr ough",". \"","at ing","Ġus ed","Ġpr int","Ġbe en","Ġt ake","( \"","Ġe m","Ġm ade","Ġin te","Ġs up","w er","le ct","Ġprov ide","Ġp ers","t ing","Ġsh all","c he","Ġb r","Ġl ord","ar ch","Ġb ack","Ġan s","Ġw ay","Ġd ay","en g","Ġe l","Ġs ent","Ġbec ause","Ġfo llow","Ġre l","Ġdo es","u g","Ġst ep","k s","il ity","it ies","Ġd et","Ġser v","Ġsu b","Ġs ol","f ul","Ġun to","ow er","Ġc ur","if e","Ġsy stem","l ic","er m","Ġin v","Ġag ain","c om","Ġth ink","Ġin t","Ġin form","u es","t he","c ri","i ent","Ġp ut","it s","k ing",") :","Ġgiv en","Ġgen er","Ġre qu","Ġs im","Ġtr ans","gr am","i ble","ra ct","Ġbe fore","Ġev en","Ġaf ter","n ess","' m","Ġv ari","Ġstr ing","at ive","se lf","Ġn ame","Ġo b","Ġp le","i b","Ġa w","v ing","w n","Ġi m","Ġdiffe rent","Ġwh ile","ic es","Ġt y","\" :","Ġex pl","Ġexam ple","at ure","ic s","at her",") .","c ial","ol og","u ll","ment s","Ġpro gram","Ġex per","we en","Ġm in","Ġe nd","Ġe ar","Ġval ue","Ġbet ween","re ad","en c","Ġon ly","ce pt","Ġ1 0","Ġans wer","Ġd own","i ence","Ġcl ass","Ġ âĢ","Ġb l","Ġinform ation","if y","pe ct","v al","' re","Ġm at","vel op",") ,","Ġc reat","Ġ2 0","Ġres ult","Ġh igh","ul ar","Ġqu est","r ay","Ġo pt","Ġte ch","d er","Ġf in","Ġi d","Ġc or","Ġm ark","Ġst ud","Ġin put","Ġpers on","Ġt ak","ust om","Ġde c","Ġl a","Ġprodu ct","Ġwor ld","g y","v ed","Ġm on","Ġde velop","Ġ z","ent ial","Ġs ure","Ġin st","Ġf r","Ġar t","n a","Ġman y","Ġpl ay","al s","it t","p s","Ġas s","Ġre g","Ġchar act","v es","e x","Ġye ah","Ġte xt","Ġ 7","b o","Ġple ase","Ġcomp le","Ġ ent","s s","n ame","c us","g g","in ess","Ġtech n","Ġpro cess","Ġre ad","Ġwh y","Ġok ay","i qu","Ġje ho","ut e","Ġc r","i ed","Ġprov id","-- --","Ġ/ /","Ġme an","Ġb us","Ġe lement","Ġc ustom","Ġk ing","ot her","i x","Ġwr ite","Ġ 8","v ah","Ġspec ific","Ġp ass","Ġs ign","Ġl ong","Ġch ild","Ġjeho vah","Ġc ount","ou se","ie w","Ġen g","ur ing","v en","w ord","p r","Ġbe l","Ġle ar","Ġb oth","n s","st and","ut ion","Ġl ife","ction s","Ġex p","eth od","w or","b er","Ġus er","Ġm ed","Ġe mp","Ġmo st","ag es","i an","ĠĠĠĠ Ġ","oug ht","a ve","Ġs um","Ġin s","Ġp ar","is s","i ous","Ġa c","ri b","pl es","al th","in es","Ġs k","Ġc le","Ġm ethod","Ġth ose","Ġbu ild","Ġche ck","t s","al ity","Ġm ain","Ġcomp an","Ġhe y","f fect","Ġf il","Ġadd ition","Ġc ar","Ġl and","' ,","Ġs al","err or","Ġpl ace","p ro","Ġword s","Ġa ut","i ly","Ġke y","ie ld","f l","Ġunder stand","Ġbus iness","c ul","on d","Ġe qu","Ġall ow","Ġo p","te xt","Ġt est","c o","od y","Ġat t","Ġke ep","Ġre ally","Ġp ot","Ġf ile","ri end","Ġre f","Ġy es","Ġdes ign","u ct","g an","n er","Ġs om","b s","Ġth ings","Ġse lf","Ġb re","Ġc ame","Ġb ased","u ch","Ġs in","iz ed","h ip","Ġte ll","Ġe ffect","Ġcomm un","Ġch o","he s","\" )","Ġp ri","Ġres p","con d","Ġlo c","w ard","ra el","Ġtr y","it ive","m s","str ing","l ine","Ġh ouse","Ġmark et","cri pt","Ġre p","Ġp ython","Ġh um","Ġis rael","Ġo wn","Ġm ight","Ġapp ro","Ġg ra","ic ation","Ġg ot","Ġm ult","g er","Ġout put","Ġp res","c ed","Ġi de","Ġpl an","Ġst ate","pe nd","Ġs on","Ġr un","Ġd ist","Ġ ed","Ġv is","Ġfe el","Ġa v","Ġmod el","Ġth ou","Ġbe ing","Ġ ve","d ay","Ġs ame","b r","Ġwith out","Ġfollow ing","Ġhe alth","Ġm us","Ġsm all","Ġb est","Ġb ro","Ġf ound","y e","Ġc all","Ġf act","Ġp ub","iv id","= \"","Ġpo int","he d","ou p","Ġth y","ure s","Ġsh ow","Ġagain st","Ġm en","o ve","er y","Ġp ower","l i","Ġ 9","eng th","in s","Ġan al","Ġnumb ers","Ġw ater","en e","Ġp a","a x","Ġpos s","ert ain","ur al","Ġm ess","Ġle ad","Ġinclud e","Ġar ray",") )","Ġre al","e ver","Ġw ent","Ġgo ing","Ġto t","Ġcur rent","Ġper form","im es","ant s","Ġf am","ĠĠĠĠĠĠĠĠ ĠĠĠĠĠĠĠ","Ġlo ve","er ing","1 0","s on","u ally","Ġquest ion","Ġth ree","Ġimp lement","Ġinc re","et s","Ġt al","Ġimp ro","u nd","Ġm uch","as h","Ġse c","Ġchild ren","Ġme m","Ġha pp","i o","Ġcal cul","m at","Ġpro ble","Ġto p","p o","Ġt as","Ġse cond","Ġg l","Ġbo ok","Ġfo od","00 0","Ġid ent","Ġl ar","p ython","Ġtr ue","Ġor der","i red","Ġsup port","Ġaw ay","Ġsent ence","Ġen s","n o","iqu e","Ġb lo","Ġb ra","Ġs ur","Ġcon st","Ġd r","Ġad v","Ġp ur","Ġcont ain","2 0","re t","Ġop en","olog y","ang u","p ar","Ġe as","Ġs l","get her","Ġye ars","Ġ very","en se","s h","eth ing","Ġc ase","Ġpro f","Ġan other","it ing","am es","ion al","ab ility","Ġsom ething","Ġl ine","t en","Ġd ire","Ġp at","Ġl iv","Ġbel ie","Ġinclud ing","v iew","Ġte am","Ġd i","Ġto gether","it ed","Ġ1 9","Ġtot al","Ġcon f","Ġw ar","Ġbet ter","d ata","Ġso cial","m on","Ġhe ad","ation al","Ġex t","ff ic","Ġo per","ch o","Ġc a","Ġm et","Ġob ject","Ġacc ess","as es","Ġf riend","Ġl angu","c ount","Ġcompan y","Ġap pl","Ġpot ential","Ġt able","in ed","ter n","Ġ= =","p os","re ct","th ing","Ġd uring","Ġp ol","re st","Ġpub lic","Ġt urn","Ġf ather","Ġl ight","am p","id er","r ic","b y","o f","enc y","Ġye ar","Ġst ill","m l","Ġne xt","g or","Ġcal led","Ġc are","_ _","s c","iz ation","Ġel se","u c","Ġre st","l ist","g in","c ol","Ġl ast","Ġu h","Ġcomple x","o c","Ġf ield","Ġval ues","Ġp op","Ġl ess","Ġt ri","on na","a z","Ġn um","as on","ir d","ren ce","et y","Ġr ange","ent ion","Ġc ertain","i er","Ġty pe","Ġman age","se arch","Ġhow ever","Ġco st","Ġty p","um ent","Ġre du","em s","j o","Ġimp act","at or","Ġc e","Ġma king","Ġp ract","Ġbre ak","Ġg onna","ver t","d ate","one y","Ġhe art","Ġpart ic","Ġup on","Ġ &","ab les","Ġs ort","Ġsu gg","Ġm ust","Ġsugg est","ut es","Ġd at","en ces","Ġcont in","se l","itt le","Ġcharact er","Ġm ar","it al","pl ay","Ġind ivid","Ġst ore","at ch","Ġear th","Ġte mp","Ġ .","Ġfe ature","Ġg ame","in ing","re am","Ġpl at","t on",", \"","Ġar ound","cc ess","Ġto ol","Ġst ory","Ġpro ject","if ied","Ġst and","Ġexam ples","Ġc ent","' ll","Ġen er","Ġl ittle","ic ally","Ġthe e","wor k","Ġcont ent","\" .","t r","Ġo ld","Ġfo cus","is ion","âĢ Ŀ","Ġpo st","Ġindivid ual","a ut","h ing","Ġen c","ver se","al e","Ġma x","Ġse arch","Ġth ought","Ġd ays","Ġbe h","k en","Ġor gan","Ġg row","Ġto o","Ġt erm","d d","Ġelement s","er n","Ġm ind","Ġposs ible","Ġun t","m e","Ġw om","ar get","Ġlangu age","Ġch ang","ĠâĢ ľ","Ġsign ific","Ġch all","Ġch ange","Ġd a","Ġpro m","ne w","Ġener gy","Ġc our","Ġj ud","Ġsu ccess","Ġs ide","Ġto ok","Ġf a","Ġimport ant","Ġplat form","Ġproble m","is m","Ġ1 2","Ġlear ning","Ġwith in","w are","ist s","Ġhum an","Ġexpl ain","Ġpre v","Ġf ull","Ġgr oup","t ain","Ġv o","Ġrep res","our ces","Ġstr ate","Ġ :","Ġexper ience","Ġh our","Ġunt il","Ġle vel","Ġth ing","le t","Ġsay ing","Ġf ace","ot e","Ġs it","led ge","v ir","im ate","Ġl ength","Ġdire ct","Ġ est","pl ace","l ing","w ays","Ġw a","Ġcle ar","Ġs w","Ġpro per","Ġcor rect","Ġmess age","Ġcharact ers","Ġs ound","ac es","( '","Ġle ft","ro ss","our ce","z e","Ġ es","Ġar g","Ġc ity","Ġd ig","Ġne ver","Ġens ure","r on","a red","Ġc ult","ke y","s er","Ġmo ve","< /","Ġcom b","Ġmus ic","Ġun ique","an k","vir on","Ġh ist","ad d","iv ity","Ġin de","Ġg ave","Ġdet erm","ord ing","Ġme as","Ġis s","y le","Ġh ome","Ġinv ol","Ġus ers","' ve","it er","ou n","Ġimpro ve","k es","e c","Ġn et","Ġcon c","t ed","al se","el s","a pp","Ġam ong","Ġ error","g n","it le","Ġb ig","o od","Ġs ing","Ġd ri","Ġh ard","c ing","ll o","re en","Ġwe e","h or","gor ith","n ect","Ġst at","Ġstr uct","Ġsin ce","on se","Ġcomm on","Ġsc ri","nd om","Ġd ra","Ġen viron","Ġd one","ho ld","s et","Ġe ver","Ġin it","l ess","Ġmon th","l ish","k now","Ġexp ress","p y","Ġal gorith","c le","Ġco ok","n ot","Ġmult ip","Ġa i","Ġcomm and","Ġ1 5","Ġas k","Ġcons ider","Ġre le","Ġknow ledge","Ġacc ording","Ġp ay","val ue","Ġd iv","it es","Ġde v","Ġof ten","ri es","Ġrequ ire","it ions","Ġso ft","Ġin str","w s","Ġperson al","ail s","id es","Ġb ene","Ġc ap","ra ph","iv es","Ġscri pt","i ents","Ġinte rest","() ;","Ġa ch","Ġf our","Ġstr ong","Ġadd ress","Ġw ays","Ġme et","Ġ ess","ar ing","Ġt arget","Ġl im","Ġtr ad","Ġtak es","Ġcomp ut","Ġcont ro","ig in","o b","Ġal ways","Ġdevelop ment","Ġk ind","Ġgener ate","Ġf ree","Ġde ath","] ,","Ġstart up","Ġd av","Ġident ify","id d","Ġon ce","Ġab le","Ġw al","er ic","Ġsp ace","r ight","Ġh t","Ġn on","1 2","Ġlo g","m a","Ġfe w","q l","Ġa ud","Ġinv est","Ġvari ous","Ġsum m","b ack","Ġme ans","ri x","Ġm il","m b","Ġdo ing","om m","Ġcon d","Ġknow n","Ġlear n","Ġsignific ant","in ation","Ġoff er","ict ion","Ġdav id","ur s","Ġre search","u ck","Ġacc ount","Ġach ie","Ġn ight","Ġb as","it her","Ġbuild ing","Ġpos itive","---- ----",": :","m an","Ġ vers","Ġs or","Ġt imes","ur l","Ġo pp","Ġse lect","Ġlar ge","u ction","Ġs qu","Ġne g","ip s","Ġenviron ment","ater ial","at s","Ġbene f","t ime","Ġrel ations","w h","m ing","Ġthere fore","Ġeffect ive","ab or","n um","f ile","re qu","ar r","c y","Ġpro te","Ġt re","Ġemp lo","ug ht","Ġtechn ology","/ /","l er","Ġopt im","Ġph ys","y es","Ġv ide","Ġhelp s","Ġab ove","Ġdes cri","Ġw ind","Ġev ent","m in","ile d","Ġcol um","Ġrem ain","u ff","Ġor igin","n g","Ġanal y","Ġf alse","Ġind ust","Ġo cc","Ġide a","Ġcol or","Ġb ody","Ġrequ est","u le","Ġse nd","ĠĠĠĠĠĠĠĠ ĠĠĠĠĠĠĠĠ","w r","Ġspec ial","Ġaddition ally","ill s","Ġw on","Ġl ot","Ġstud ents","Ġmin utes","Ġf ar","Ġha ving","Ġprovid ed","et er","Ġover all","Ġchall eng","Ġf lo","Ġf ore","Ġs ize","Ġpro b","i or","Ġde p","Ġcalcul ate","Ġh y","Ġg e","Ġr is","f or","Ġm oney","Ġm aterial","Ġmed ia","Ġfam ily","o st","Ġwork s","Ġunderstand ing","ag ing","che s","Ġim age","l and","Ġmarket ing","Ġpres ent","Ġj av","Ġ um","ou ble","Ġopt ions","Ġthan k","ak ing","i ah","Ġh i","Ġcon cept","Ġ Ð","Ġsome one","Ġap pe","Ġev il","g o","Ġc ut","Ġ1 00","Ġneed s","m y","Ġst op","Ġun i","du ct","p ose","Ġare a","Ġstep s","Ġre d","Ġwe bs","e ad","Ġin fl","Ġcon text","Ġserv ice","b ody","Ġus es","as ter","Ġav ail","Ġ >","Ġhe av","c ent","Ġf ur","in put","Ġe ffic","Ġa ir","Ġdid n","Ġliv ing","Ġcustom er","os s","sel ves","Ġma ch","Ġjo b","Ġrelations hip","Ġquest ions","Ġse ver","Ġra ndom","lo ad","Ġtra ck","Ġar r","l ight","Ġs ou","cl us","Ġbec ome","Ġ â","Ġf ut","Ġc up","Ġsol ution","Ġs am","Ġf ire","Ġwe b","Ġd est","Ġex pect","Ġsp ir","cus s","Ġam ount","Ġma kes","d om","Ġcontro l","ou d","Ġdif f",": //","n umb","Ġm or","or ies","f o","im ent","Ġ3 0","he re","cho ol","Ġde pend","Ġsh ort","Ġresp onse","Ġlook ing","Ġfin ally","Ġb i","5 0","` .","Ġit er","Ġallow s","Ġro om","av or","Ġproduct s","Ġd ate","Ġother s","Ġbr ing","Ġn at","Ġfeature s","Ġrepres ent","il ar","ren ces","Ġinit ial","e red","ver age","Ġro le","Ġre ce","Ġj er","Ġrem em","Ġs ense","at t","p or","Ġsim ple","Ġsever al","Ġto day","if t","Ġfriend s","Ġdis cuss","Ġcon nect","Ġs ons","ri e","Ġch r","Ġl ow","Ġresult s","Ġw in","Ġb ar","id ence","Ġhand le","Ġl ay","a pe","Ġmultip le","Ġ %","Ġb al","Ġs at","Ġserv ices","us h","m ed","ard s","or n","Ġdo c","Ġsa w","he ad","Ġloc al","d o","Ġgu ys","Ġe yes","Ġca pt","Ġla w","a ir","Ġrec omm","Ġcreat ing","Ġm iss","Ġp ast","Ġval id","Ġ ĉ","Ġmanage ment","Ġwork ing","Ġmo v","Ġrecomm end","Ġho ld","Ġcle an","Ġh ig","le ction","Ġdis play","on t","iz ing","am ed","Ġs we","Ġreturn s","Ġprof ess","Ġtyp es","Ġform at","Ġqu ick","Ġpr ime","Ġfut ure","Ġc lo","Ġh ar","ab ase","ys is","Ġcustom ers","Ġre ason","nd ing","pr int","Ġlo op","y n","g s","Ġnot e","Ġli br","Ġs un","Ġs chool","Ġh ath","o h","im um","Ġsor ry","Ġalgorith m","Ġem ot","ll ing","Ġsoft ware","Ġm er","Ġj es","Ġj our","Ġcomple te","Ġn ode","Ġsystem s","is hed","Ġtak en","Ġp ain","Ġre port","! !","$ .","i pp","Ġfur ther","con t","c ome","on es","Ġex ist","Ġp ie","Ġinst ead","' :","Ġchang es","Ġcour se","ic ult","Ġem ail","ur ity","ic le","Ġinter n","res p","id ent","Ġ ut","1 1","Ġto wn","Ġtal k","Ġappro ach","o ff","Ġpar am","Ġs n","ct or","Ġon line","Ġl ink","Ġst e","Ġc ause","Ġsim ilar","Ġv iew","Ġr ul","im al","= =","Ġp ack","Ġf ive","Ġhapp en","Ġgo ld","ind ex","Ġj son","Ġf ac","Ġb ab","Ġs ays","an n","Ġaddition al","ist ic","Ġse en","Ġbeh av","Ġstrate g","b al","Ġinc or","ition al","a el","Ġinfl u","Ġavail able","Ġe lect","Ġho pe","Ġaut hor","Ġm ent","Ġre view","t ers","read y","o id","ut ions","os es","an ces","Ġprovid es",". \\","mp t","Ġhand s","Ġr ound","Ġa h","Ġtas k","Ã ©","Ġp red","Ġany thing","u ation","Ġ1 8","f fe","bo ok","Ġp ort","il ities","Ġinde x","Ġneg ative","Ġchr ist","f ace","Ġperform ance","âĢ Ķ","- >","Ġst ay","p ath","# #","ne y","Ġm om","Ġm ich","Ġde m","Ġhour s","Ġwebs ite","Ġvari able","Ġcommun ity","Ġanal ysis","Ġup d","Ġremem ber","Ġbe gin","il t","Ġmay be","Ġbro ther","con om","Ġde ep","u it","Ġeas y","Ġst yle","Ġexper i","Ġne cess","Ġle ast","Ġdoes n","Ġ ver","Ġm ot","ow s","cript ion","w ay","Ġ1 6","2 5","` ,","t ps","is ed","ot t","es e","Ġst ates","Ġact iv","Ġcon ne","Ġh al","Ġact ually","Ġa ction","c al","Ġp ath","Ġwr iting","? !","Ġhist ory","h n","Ġbelie ve","Ġn or","Ġed uc","Ġex ec","Ġtak ing","Ġappl ication","f er","Ġp age","Ġpoint s","Ġal ready","Ġint ro","Ġqu ality","Ġwom an","Ġ err","Ġresp ons","f r","g ress","y ing","l s","Ġnat ural","\" >","Ġsh are","Ġpr in","Ġcomp on","Ġwa it","v ent","al t","ud e","Ġres ources","Ġco ll","i pe","ate ly","ul ation","Ġindividual s","w w","Ġcho ose","1 5","Ġc amp","Ġstruct ure","Ġspir it","Ġdeterm ine","Ġo il","ou ra","Ġjes us","Ġ= >","Ġpartic ular","Ġyou ng","m m","Ġam eric","Ġc ra","a ction","Ġstate ment","Ġvide o","1 9","Ġy et","Ġ< /","Ġmean ing","Ġinte gr","f ra","Ġl ab","Ġwee k","Ġb it","ort un","Ġe conom","fe rence","Ġt itle","Ġpos ition","Ġen ough","Ġemplo ye","ty pe","Ġreg ular","] )","g ed","Ġpri est","Ġorigin al","Ġthan ks","um e","Ġincre ase","ĠĠĠĠ Ċ","in a","Ġcont rib","an e","ac y","Ġmeas ure","Ġtrans l","Ġsing le","Ġh ot","Ġfe ar","t a","Ð ¾","Ġachie ve","Ġl ive","() `","Ġe at","Ġnot hing","Ġ2 00","are nt","b ased","ro p","Ġwhe ther","Ġm ount","Ġmain tain","Ġf all","s y","Ġbe aut","Ġbusiness es","nd s","Ġindust ry","z z","Ġfact ors","Ġc aus","} {","Ġ ri","Ġtry ing","Ġs le","Ġab s","Ġmich ael","qu ence","ir t","Ġde l","ific ation","Ġsk ills","Ġho ly","Ġide as","a pt","us er","Ġmethod s","Ġdet ails","Ġpri v","Ġevery thing","Ġb ase","Ġbl ack","Ġsol ve","Ġsal es","Ġlist en","ver n","Ġpop ular","Ġvers ion","c ase","Ġm ix","\\ *","Ġad j","r al","Ġget ting","i um","or ing","m od","Ġredu ce","Ġdat abase","s ide","3 0","Ġ ing","le y","ren g","as ing","Ġcon vert","Ġn one","Ġpr ice","Ġse par","che d","word s","Ġtool s","Ġw atch","Ġacc ur","Ġpa per","Ġc ir","le x","r am","er c","Ġbo x","Ġmach ine","Ġt ree","Ġg ir","Ġcom es","iqu es","Ġchalleng es","is on","Ġf und","Ġac ross","Ġtra ining","s v","Ġc y","Ġv ol","Ġbenef its","g es","Ġblo ck","g en","Ġs il","Ġst reng","Ġen jo","a i","Ġne ar","Ġex cept","Ġcount ry","v ant","f s","itt en","Ġ1 1","Ġph il","Ġdiff icult","Ġm oses","Ġs ong","Ġsub ject","Ġvo ice","Ġqu ant","Ġqu ery","Ġwr ong","Ġto ward","Ġev ents","it ical","p ri","og raph","th is","ib ility","Ġintro du","' d","Ġwe ight","ord er","Ġb urn","Ġd ark","gy pt","Ġap i","Ġcolum n","n ers","Ġ- -","Ġg reen","Ġcreat ed","Ġcontin ue","g ing","Ġn amed","Ġwho le","b ers","Ġsa ve","Ġmat ch","fra c","Ġe gypt","ol ution","Ġdig ital","Ġgo vern","Ġcomp et","Ġtra vel","Ġ ...","ar ray","Ġsec urity","' )","* *","p ly","Ġt ips","lo g","Ġde ad","Ġb ad","un ch","ri ed","v ation","Ġdec ision","ul a","Ġ< <","Ġjo e","Ġce ll","Ġaud ience","Ġt reat","Ġc ry","Ġdr ink","Ġstrateg ies","Ġ5 0","Ġtechn iques","Ġspe ak","a iled","ar ies","op t","in ary","Ġg lo","um ents","f il","ist er","te mp","Ġevery one","Ġper fect","id s","Ġcertain ly","f ull","Ġro ot","m er","Ġ1 4","Ġdoc ument","Ġincor por","Ġthem selves","Ġvis ual","ic a","Ġnew s","Ġcompan ies","Ġr ad","Ġterm s","Ġho st",". ,","t est","Ġ !","1 6","Ġse a","g ers","po int","Ġd ue","Ġnet work","Ġgo als","Ġfe et","Ġrec ord","Ġsqu are","Ġbab y","Ġm ill","Ġa verage","Ġnecess ary","Ġt im","Ġcon str","Ġh und","i res","Ġp ress","Ġh or","Ġcon vers","Ġl ower","al ing","ain s","Ġa ge","Ġaut om","Ġprev ious","Ġav oid","Ġup date","Ġwas te","Ġs ens","Ð °","Ġev al","Ġlet ter","Ġ er","Ġeng lish","Ġre place","Ġro ss","Ġhund red","Ġb row","Ġn ut","Ġfe ed","Ġb ur","Ġrequ ired","Ġopt ion","Ġs ource","Ġsc ience","Ġ2 5","Ġgreat er","Ġal ong","Ġopp ortun","Ġro b","an ced","Ġwh om","iz es","Ġe t","ak es","Ġdis co","Ġyour self","Ġing red","Ġinte ger","Ġve get","ffe e","ous and","Ġstud y","Ġcomplex ity","Ġgrow th","Ġan g","o ver","Ġth ousand","ent ly","Ġcommun ication","Ġmem ory","et ers","Ġequ al","Ġtrans form","id th","Ġres pect","Ġth ird","us al","Ġhal f","Ġser ver","Ġb all","og n","Ġro w","Ġp ick","Ġiss ues","b ut","Ġneed ed","Ġcons um","Ġtas ks","he ns","so ci","l ength","Ġf ine","Ġg ar","Ġst ra","[ '","Ġpr im","Ġfin al","Ġimplement ation","as cript","Ġenc oura","usal em","Ġm id","Ġn ames","Ġjer usalem","s um","Ġdef ine","a ult","Ġm ention","iv ed","Ġphys ical","Ġequ ation","\" ;","b ed","Ġcl ick","is es","Ġfunction s","Ġth ough","Ġjud ah","Ġart icle","Ġd iction","Ġbehav ior","Ġfl ow","Ġeffic ient","he t","Ġre v","Ġtrad itional",": \\","Ġex erc","at ic","Ġw ide","l a","Ġas soci","Ġpur pose","Ð µ","mb ol","Ġrem ove","\" );","is ing","2 3","Ġb read","s ub","st er","Ġco ffee","Ġmat rix","Ġn av","Ġhim self","um p","Ġexpl ore","Ġl en","Ġwh ite","Ġqu e","ĠâĢ ĵ","Ġph ot","Ġenjo y","res ult","Ġ$ \\","s ize","Ġconne ction","Ġd w","Ġex ce","te nd","idd le","+ +","Ġspe ed","Ġinclud es","Ġro ck","Ġclo se","Ġsc ore","\" ]","Ġc op","Ġm other","Ġinst all","Ġpol ic","Ġdiffe rence","ic ations","Ġw all","Ġser ies","Ġd ream","Ġn ull","Ġpro p","Ġ} ,","Ġ+ =","Ġess ential","i od","Ġcan not","ach ing","Ġf ig","Ġle g","Ġlibr ary","i k","Ġp un","Ġsc ient","so le","Ġoff ering","' ]","Ġsh alt","Ġgu y","Ġuni vers","Ġadj ust","full y","Ġread y","er ature","Ġlike ly","Ġstreng th","Ġma j","Ġbl ue","Ġcontain s","Ġemp ty","g est","j son","ro om","u ctions","Ġocc ur","Ġpart y","Ġpe ace","u ro","Ġswe et","u ce","Ġs ix","Ġch ick","Ġsup er","Ġfil es","Ġeng ine","Ġblo od","gr ound","Ġda ught","d iv","Ġb ow","Ġrun ning","Ġjav a","t p","it ude","Ġim ag","r ation","Ġ1 3","Ġaf fect","n y","Ġprovid ing","Ġm ic","Ġd am","p re","Ġwr itten","Ġor d","Ġdo or","Ġear ly","Ġhe llo","Ġent er","2 2","f ort","Ġbu ilt","Ġstr ings","Ġrec ogn","Ġhapp y","ab ly","Ġhe ar","Ġbu y","? \"","res h","Ġf it","Ġd om","Ġwal k","Ġma g","Ġgr ound","Ġcl os","Ġcon clus","Ġcomp re","Ġdescri be","Ġris k","Ġcom ing","Ġbra nd","Ġment al","Ġpred ict","ch ar","Ġde b","olog ical","Ġhe at","Ġdef in","Ġim ages","Ġt en","Ġit ems","Ġph r","Ġins ide","Ġrec ipe","i us","Ġ @","pl it","ust ain","ag er","c re","Ġoff ice","Ġactiv ities","a im","Ġse em","Ġloc ation","u h","Ġlim it","op p","Ġun ited","Ġag ree","Ġc at","Ġgu ide","f act","pro duct","Ġv i","Ġ url","Ġfo ot","Ġper iod","Ġ* *","Ġr ate","b l","Ġsc he","Ġwom en","Ġrel ated","Ġc am","Ġhe ard","Ġst d","Ġab ility","c d","Ġa ff","Ġin no","Ġv ar","com p","Ġw ow","Ġht ml","Ġc ate","Ġwant s","Ġh on","Ġ ?","Ġc red","Ġco ol","Ġthink ing","ight s","u el","Ġsy mbol","Ġjo hn","f un","ou ps","Ġi ll","as k","o ck","at ors","Ġadd ed","bo x","Ġf requ","Ġsa fe","ap s","Ġcond itions","st ep","Ġhig her","1 4","in st","et ic","av es","Ġgra ph","Ġan t","Ġpart s","Ġeng age","Ġpa ir","Ġcomput er","Ñ Ĥ","Ġto ld","Ġcon sole","j s","Ġso ci","Ġfa ith","ĠĠĠĠĠĠĠĠ Ġ","Ġs ustain","Ġe ither","am ent","Ġass ign","Ġappro pri","m iss","Ġr ather","ur y","ie f","Ġc oun","Ġcompre hens","Ġexpress ion","Ġrele vant","Ġare as","clud e","Ġtemp erature","numb er","Ġexpl an","it ch","Ġcl ient","Ġse ed","Ġingred ients","Ġ q","Ġde li","1 8","Ġen h","Ġbut ton","bo ard","s p","Ġdet ailed","Ġinstr uctions","Ġdiction ary","ot s","Ġsle ep","he n","Ġwho se","c er","Ġl ater","Ġse quence","Ġpe pp","Ġsp r","re l","Ġn ice","Ġbec ame","b it","ive ly","Ġconf ig","Ġplay er","Ġf ix","Ġm i","Ġb ud","Ġpre p","Ġcoll abor","h as","ic ate","Ġmor ning","Ġpriv ate","a ign","Ġp an","Ġmaj or","Ġgo al","Ġmaterial s","Ġjoe y","Ġb en","ac he","Ġmult i","2 1","Ġpro gress","Ġadd ing","Ġbr ought","Ġdist rib","ut h","Ġtal king","Ġest ab","is f","Ġfin an","Ġpract ice","Ġpl ant","b all","og le","Ġdesign ed","Ġd ouble","ut ed","n ed","Ġimport ance","ir th","Ġatt ention","Ġoff ers","b u","] .","her s","Ġform ula","Ġe gg","Ġbe hold","r ound","Ġc ub","Ġfr ame","Ġthe ory","n ode","Ġgener al","op h","Ġfact or","Ġext ract","Ġcamp aign","Ġan ge","Ġse ems","Ġcho ice","Ġmax imum","Ġn ature","Ġ1 7","Ġlo ad","Ġturn ed","os p","Ġbook s","Ġse ven","Ġexperi ences","and ler","Ġmov ie","Ġam az","Ġjour ney","Ġsort ed","t op","Ġf avor","Ġan im","Ġar ch","Ġprogram ming","is ions","Ġconclus ion","Ġro d","Ġsec ret","qu ery","i ans","Ġmem bers","Ġsound s","Ġc ases","Ġc ard","ĠĠĠĠĠĠĠĠ ĠĠĠĠĠĠĠĠĠĠĠ","Ġsc en","Ġac cept","Ġj im","ve red","Ġan n","Ġg re","Ġmat ter","Ġiss ue","Ġon es","Ġstart ed","Ġanaly ze","Ġw ife","Ġl if","Ġex act","e lement","che l","Ġprom ot","ly ing","Ġprev ent","Ð ¸","Ġinter act","Ġe ff","z y","Ġf ast","Ġupd ated","Ġl at","ht ml","Ġtr ust","Ġ Ã","am s","Ġdes cription","Ġ2 4","Ġfam il","Ġrequire ments","Ġf ight","Ġass ist","Ġthrough out","Ġcol le","1 00","u ed","Ġt ou","Ġw ood","om es","ch ange","Ġprob ability","Ġmod ify","Ġb ird","Ġcl oud","Ġph one","Ġs ources","Ġb ill","se c","Ġdra w","Ġco ver","Ġdist ance","Ġemploye es","Ġit em","Ġexpect ed","ch an","Ġstud ent","t ra","Ġs ides","Ġeffect s","Ġp ark","Ġbeh ind","Ġas pect","Ġle ave","Ġeff ort","Ġg ames","Ġv irt","Ġal tern","r t","Ġsub st","Ġappropri ate","y ou","! \"","Ġd ie","Ġ[ ]","Ġp arent","Ġserv ant","Ġmodel s","mat rix","Ġinte gers","Ġstrate gy","\\* \\*","o es","imate ly","Ġsm art","Ġs ql","Ġhe ight","Ġheav en","g ar","Ġfr uit","Ġrul es","Ġeduc ation","Ġse ason","Ġ ur","Ġsal t","Ġref lect","Ġeval u","Ġad apt","Ġsa ith","Ġdis e","Ġglo bal","c ur","y our","Ġt ag","Ġpract ices","g ment","Ġsol utions","m ost","u x","Ġpl aces","Ġgu ess","Ġbel ow","Ġstart ing","m it","Ġcult ural","x a","Ġdo g","el t","Ġinvol ves","resp ond","Ġth us","Ġliv es","or k","ot hes","ht tps","Ġmod ern","Ġb and","Ġf ib","ur t","c are","if ul","ou th","Ġra chel","Ġ4 0","Ġatt ack","an a","( $","Ġpr ay","Ġev idence","Ġ rom","Ġent ire","Ġpri or","Ġr ich","Ġfinan cial","Ġe le","ll ig","ur ation","Ġgiv es","val id","Ġvis it","ens ion","1 7","c ode","Ġset ting","Ġtrans port","w ith","Ġnav ig","ide red","Ġcol lect","Ġf resh","Ġb irth","Ġal t","Ġcons ist","ry pt","Ġser ve","Ġ: =","Ġc and","Ġsm o","Ġn orm","Ġhigh light","ac ed","Ġvari ety","er o","fe rences","Ġgu id","Ġpass age","Ġprofess ional","Ġc ast","Ġsim pl","Ġpartic ip","Ġle d","Ġ\\ *","Ġcons idered","art ment","Ġprote ct","Ġp ow","Ġcent er","Ġbal ance","Ġfeed back","f riend","Ġob ser","Ġg one","ap pend","ra p","Ġmeet ing","Ġcor respond","t ies","Ġb ed","Ġwant ed","Ġquick ly","Ġameric an","Ġre ach","Ġlong er","6 0","ar a","Ġproble ms","l n","ug g","Ġsumm ary","Ġut il","Ġb ott","Ġme chan","Ġlevel s","$ ,","r up","wh at","^ ^","cl ass","Ġinst ance","u ly","Ġgr oups","it em","ð Ł","Ġfor th","cept ion","Ġc ross","Ġgovern ment","Ġout side","Ġsat isf","Ġdw ight","a ur","s ort","l ab","Ġprodu ction","Ġem er","ast ic","a f","pe cial","Ġgiv ing","m ax","Ġcult ure","Ġde al","Ġsuccess ful","Ġtoward s","ist ics","Ġdes ired","re m","Ġlead ing","Ġsou th","Ġstand ard","Ġproper ty","Ġche ese","t itle","Ġre pl","Ġk new","an y","Ġrelationship s","o o","am b","Ġgo es","Ġp ra","Ġgo ogle","Ġus age","ore d","Ġlook s","\\_ \\_","Ġw ine","f ield","Ġt ables","Ġserv ants","Ġmo b","Ġhy p","Ġ! =","li ke","en ess","Ġm is","Ġcom fort","g re","Ġm ass","ang le","Ġf ail","Ġw at","od es","os h","Ġper cent","Ġfield s","he llo","Ġcomprehens ive","in ter","} ,","Ġpat tern","Ġfor ward","Ġde mon","Ġany one","Ġd yn","Ġre ward","Ġbeaut iful","p ass","Ġpro mpt","m ess","Ġn ations","] [","an na","it or","Ġfil m","Ġre pe","Ġcost s","or age","Ġf re","2 00","w ise","Ġst ress","Ġmy self","d b","Ġexplan ation","d own","Ġm outh","Ġb reat","Ġins p","Ġh oney","us e","Ġatt rib","Ġwon der","Ġj ac","3 2","s he","Ġf ill","ag ed","Ġpur ch","Ġsa uce","Ġmom ent","Ġl ines","ap an","Ġchick en","Ġincre ased","v i","4 0","ac hes","Ġem b","Ġvo id","s ql","Ġking dom","Ġhealth y","Ġtra in","Ġd ry","Ġtr uth","att le","Ġd en","Ġst uff","Ġha ir","ress ion","Ġinte llig","8 0","Ġch andler","con f","ne xt","Ġext ra","Ġl iter","Ġdem and","Ġtest ing","Ġsit uation","iz ations","a ctions","Ġa ctions","Ġpower ful","un g","iv al","Ġobject s","Ġmic ro","Ġoper ations","Ġm ath","Ġse ction","Ġoff ic","Ġm iddle","olog ies","Ġfr ont","a a","e ous","un e","ul ate","ĠĠ Ċ","ent y","Ġpie ce","ll y","Ġw ild","Ġe p","Ġse ll","Ġar m","Ġeffective ly","Ġbas ic","1 3","Ġa im","Ġit self","Ġm r","ess ion","ure d","d en","on y","Ġm aster","Ġback ground","tr ue","Ġcl imate","st art","de f","w here","i ency","Ġ ult","Ġo x","ast s","Ġmill ion","ci ous","Ġcheck s","Ġp al","se qu","m ap","Ġset t","Ġst ack","Ġst ream","Ġt our","ter ns","Ġst ri","Ġr out","Ġmention ed","Ġpre t","Ġquant um","Ġim m","Ġdemon str","j av","Ġgr ad","Ġb an","Ġmonth s","it ation","4 5","Ġu nd","pos ed","m ore","Ġw est","Ġj apan","ck et","Ġjo y","Ġassoci ated","s l","Ġ- >","Ġrepres ents","Ġgir l","p art","Ġke pt","Ġvari ables","Ġjac ob","Ġcount ries","Ġal right","d is","n et","Ġp ho","Ġp sy","Ġda ily","Ġcap ital","Ġh ast","ol ute","Ġarg ument","Ġex c","Ġdec isions","il led","Ñ ģ","Ġrec urs","Ġsp read","Ġr ule","Ġt er","Ġspec ified","Ġgl ory","en ge","Ġcomp are","Ġbl ess","Ġvirt ual","m t","Ġpo em","Ġst re","pecial ly","Ġg ain","Ġact ivity","Ġconst ant","in ner","Ġcreat ive","Ġf ish","Ġto ken","Ġfather s","Ġcir c","l ished","ci ples","enc ed","Ġis n","Ġme l","Ġemp has","Ġbro ken","ar c","Ġhist or","Ġcol ors","it able","Ġeas ier","b an","Ġm ine","Ġsmall er","Ġappl ications","Ġparticular ly","d at","Ġf ra","Ġunivers ity","to ken","s pe","Ġto m","Ġsom et","Ġt ent","Ġc ou","pp ed","Ġs and","Ġmon ica","Ġc ities","le te","Ġmil k","d a","Ġright eous","Ġpre m","as ure","Ġrem o","Ġmot iv","] ;","Ġ# ##","ven ue","Ð ½","Ġb le","Ġme al","Ġdyn am","Ġtyp ically","ir m","Ġprodu ce","Ġcompon ents","Ġprim ary","Ġread ing","Ġes pecially","Ġcont act","numb ers","Ġra ise","[ \"","form at","Ġd im","Ġord ers","Ġg ard","Ġfeel ing","e k","h am","Ġapp ly","Ġmod ule","m ath","Ġstud ies","Ġcompon ent","Ġjav ascript","Ġsou l","g ory","Ġst y","Ġrequ ires","Ġpat terns","Ġro ad","Ġlet ters","m ark","Ġtr ouble","wor ks","ce nding","Ġne ither","Ġdef ault","Ġwar m","Ġdirect ly","rie f","Ġconstr uct","q rt","Ġ6 0","v in","Ġl os","ang er","in ct","ou b","dd dd","print ln","Ġw anna","Ġh ol","b re","b on","Ġscen ari","Ġp am","Ġm ist","im age","cc cc","he st","Ġ\" \"","Ġabs olute","Ġthere of","Ġass um","Ġstat ic","he mat","Ġe uro","Ġbra in","Ġret rie","Ġnor th","ĠĠĠĠ ĠĠ","Ġeas ily","col or","Ġdaught er","se lect","Ġreg ard","l en","Ġb ound","Ġparam eters",". )","Ġ _","Ġw it","Ġs an","Ġth row","Ġeconom ic","z a","Ġtop ic","tr ans","Ġuni verse","Ġess ay","Ġremain ing","Ġemot ional","re ci","Ġget s","Ġeng aging","Ġrece ive","9 9","Ġbo y","Ġ- --","Ġsc ene","Ġcurrent ly","Ġinvol ved","Ġpepp er","Ġind ic","Ġdat as","Ġsepar ate","Ġp ict","Ġcl aim","Ġaw are","Ġre new","f ree","Ñ Ģ","Ġpolic y","00 00","Ġprogram s","le br","ir ing","Ġsim ply","Ġask ed","Ġd ivid","wor ld","ye ar","Ġproject s","6 4","ter m","Ġma p","Ġexist ing","ite ct","Ġsk in","Ġstat us","b a","o v","Ġch at","Ġf at","Ġal ph","Ġtou ch","f ind","Ġappe ar","d es","ap i","Ġpass word","Ġsustain able","he l","on ac","Ġin f","le ar","un k","Ġsp ort","ho st","Ġexper iment","Ġfa ir","Ġo dd","Ġrem ind","Ġi r","ck s",") \\","d f","Ġg erm","Ġl oss","c r","Ġfl avor","Ġsent iment","Ġsomet imes","e ll","Ġplay ers","wr ite","op s","p ers","Ġcond ition","igh b","Ġpers pect","Ġallow ing","Ġmil es","med i","Ġd er","Ġd an","Ġd ress","Ġconc er","Ġopportun ities","Ġpho e","Ġplay ing","Ġprom ote","-------- --------","Ġexper t","[ ]","Ġw is","Ġapp reci","Ġv an","op er","Ġphr ase","Ġwor th","Ġco gn","Ġlar ger","Ġproper ties","Ġcreat es","Ġf if","ĠâĢ ¢","Ġdirect ory","Ġdes p","ens ive","Ġact ual","Ġmat hemat","Ġins ert","Ġchall enge","Ġarch itect","Ġs word","Ġbr an","Ġerr ors","us ion","et ch","Ġce lebr","Ġdev ices","en ed","Ġprocess es","Ġthought s","onac ci","ren ch","Ġnum er","Ġsam ple","Ġparam eter","Ġp en","am a","Ġdest r","Ġmob ile","r ics","as ons","il ing","Ġbrow n","mess age","Ġcomm it","Ġcorrespond ing","Ġlo st","m en","Ġmed ical","Ġl ate","ap h","Ġrest aur","st at","se mb","ab ilities","Ġcho ices","Ġexerc ise","Ġpret ty","Ġ __","ord in","Ġsa f","lo c","Ġcr u","Ġoper ation","Ġtas te","Ġch ann","il s","Ġso ld","Ġset s","Ġexp and","Ġenh ance","Ġbo ard","p x","Ġuse ful","Ġst orage","Ġdev ice","Ġinterest ing","Ġflo at","Ġfor ce","Ġs us","le ft","Ġser ious","Ġfind ing","Ġfollow s","Ġplatform s","Ġencoura ge","2 4","ci ent","== ==","or row","Ġ< =","Ġplay ed","Ġbow l","d ing","Ġe cho","am ple","Ġj ose","Ġcom pl","Ġfil ter","Ġsc reen","lo ck","y ed","Ġun cle","Ġstr ugg","Ġh it","Ġh am","Ġsl ow","h h","b b","cre ate","s es","u zz","val ues","Ġdepend ing","Ġbe gan","Ġb inary","Ġch ina","iv eness","Ġdis h","Ġcre am","t able","pp ing","ĠâĢ ĺ","Ġsoci ety","ac hed","Ġum m","m et","enc ies","Ġincre asing","Ġagree ment","Ġhum ans","tern al","ic les","les h","Ġfore st","ul ations","Ġphoe be","c ip","Ġo l","Ġwe ather","Ġhelp ful","Ġ[ \"","Ġre ality","Ġreg ion","Ġm ac","cl ient","Ġdiv is","Ġprob ably","Ġĉ ĉ","Ġscient ific","a w","Ġpl ot","ag raph","Ġsec ure","fr ame","et ime","Ġdes ire","pr ime","Ġde cl","Ġgard en","e f","i j","Ġcont r","Ġgra nd","sc ore","we ll","u a","Ġte ac","e mp","r un","Ã ³","Ġre verse","Ġappro x","Ġcare er","Ġsil ver","Ġc atch","Ġt ill","Ġcolum ns","p ret","u ary","ic ed","Ġe ye","Ġad min","Ġprocess ing","Ġmeas ures","in clude","Ġne ighb","() )","Ġanim als","l ib","o int","ad o","ad em","ld er","Ġtr ade","Ġsur face","Ġhappen ed","Ġet c","Ġe th","Ġdest ro","Ġdestr uction","a ff","Ġs ch","Ġsuggest ions","ar on","ww w","Ġexact ly","Ġelect ric","' );","r ate","Ġw ed","Ġhigh ly","Ġemot ions","Ġf lesh","Ġj ack","Ġadv anced","Ġredu cing","Ġt ur","Ġst ar","Ġcon duct","Ġde lic","po st","Ġn p","Ġch ief","Ġpop ulation","Ġintellig ence","Ġdri ve","' ;","Ġs ite","Ġra in","Ġsent ences","Ġfavor ite","Ġeuro pe","Ġsee k","Ġpack age","Ġaltern ative","Ġ} );","Ġsaf ety","i ation","Ġs lic","em ail","Ġro ws","Ġsmo oth","in o","Ġl ack","Ġass ess","a u","Ġn ational","Ġpo or","Ġjose ph","at ives","Ġst age","up lic","Ð¾ Ð","but ton","Ġc m","Ġcont ract","Ġm it","ad a","Ġsh ape","Ã ¤","Ġb at","Ġpol itical","Ġpriest s","Ġvi ol","Ġpsy ch","Ġs ud","Ġf lex","Ġre act","il es","Ġbud get","ic ing","i os","Ġhand ling","Ġintern ational","ous ly","Ġse x","fl ow","Ġallow ed","Ġj an","Ġspec ies","Ġtre es","Ġveget ables","av ing","Ġshow s","Ġenvironment al","Ġri ver","e qu","Ġd ance","Ġma gn","know n","Ġpie ces","Ġt on","Ġb ag","Ġintern et","Ġstra ight","Ġapp le","friend ly","m ain","¿ ½","Ġh ous","Ġwind ow","w ers","gr oup","Ġcr itical","mod el","Ġcop y","ï ¿½","Ġd ed","Ġh uh","Ġman ager","3 3","Ġfil led","Ġcook ing","Ġh om","c ast","Ġf elt","l on","u its","in it","Ġsub t","Ġa lex","in te","Ġi ce","Ġenc rypt","cur rent","v ice","er a","Ġbut ter","Ġplan ning","Ġfor g","Ġeffic iency","Ġrece ived","Ġjour n","Ġlim ited","Ġtransport ation","Ġm al","Ġmo ving","fl ict","Ġhealth care","Ġmess ages","ll er","Ġst ories","Ġj u","Ġpres ident","Ġrespons ible","com m","Ġresp ond","Ġalgorith ms","Ġy ork","Ã Ń","Ġus ually","Ġad vert","Ġht tps","Ġbrother s","Ġevalu ate","7 5","Ġt ick","Ġre venue","t es","Ġacc om","Ġspecific ally","Ġlar gest","Ġw idth","Ġf rench","Ġch ance","Ġdis k","Ġref ers","Ġlay er","Ġ )","Ġbe y","Ġlab el","am in","Ġpar agraph","ograph y","Ġrenew able","he nt","Ġp y","cont ent","Ġestab lish","Ġn est","Ġb ond","Ġno vel","Ġresult ing","9 0","Ġy og","qu e","Ġal ign","ang ing","am m","Ġdo ll","pass word","Ġcogn itive","6 5","w idth","Ġs ac","Ġtw enty","Ġgl ass","pos ition","Ġdiv ide","Ġtr uly","ag ram","Ġmo on","Ġbro ad","Ġarg uments","Ġfamil ies","f it","Ġsa ul","Ġbec omes","Ġche m","Ġphil os"]}}