{"version":"1.0","truncation":null,"padding":null,"added_tokens":[{"id":0,"content":"<PAD>","single_word":false,"lstrip":false,"rstrip":false,"normalized":false,"special":true},{"id":1,"content":"<BOS>","single_word":false,"lstrip":false,"rstrip":false,"normalized":false,"special":true},{"id":2,"content":"<EOS>","single_word":false,"lstrip":false,"rstrip":false,"normalized":false,"special":true},{"id":3,"content":"<UNK>","single_word":false,"lstrip":false,"rstrip":false,"normalized":false,"special":true},{"id":4,"content":"{","single_word":false,"lstrip":false,"rstrip":false,"normalized":false,"special":true},{"id":5,"content":"}","single_word":false,"lstrip":false,"rstrip":false,"normalized":false,"special":true},{"id":6,"content":"[","single_word":false,"lstrip":false,"rstrip":false,"normalized":false,"special":true},{"id":7,"content":"]","single_word":false,"lstrip":false,"rstrip":false,"normalized":false,"special":true},{"id":8,"content":":","single_word":false,"lstrip":false,"rstrip":false,"normalized":false,"special":true},{"id":9,"content":",","single_word":false,"lstrip":false,"rstrip":false,"normalized":false,"special":true},{"id":10,"content":"\"","single_word":false,"lstrip":false,"rstrip":false,"normalized":false,"special":true},{"id":11,"content":"\n","single_word":false,"lstrip":false,"rstrip":false,"normalized":false,"special":true}],"normalizer":{"type":"Sequence","normalizers":[{"type":"NFC"},{"type":"Lowercase"}]},"pre_tokenizer":{"type":"ByteLevel","add_prefix_space":true,"trim_offsets":true,"use_regex":true},"post_processor":{"type":"TemplateProcessing","single":[{"SpecialToken":{"id":"<BOS>","type_id":0}},{"Sequence":{"id":"A","type_id":0}},{"SpecialToken":{"id":"<EOS>","type_id":0}}],"pair":[{"SpecialToken":{"id":"<BOS>","type_id":0}},{"Sequence":{"id":"A","type_id":0}},{"SpecialToken":{"id":"<EOS>","type_id":0}},{"Sequence":{"id":"B","type_id":1}},{"SpecialToken":{"id":"<EOS>","type_id":1}}],"special_tokens":{"<BOS>":{"id":"<BOS>","ids":[1],"tokens":["<BOS>"]},"<EOS>":{"id":"<EOS>","ids":[2],"tokens":["<EOS>"]}}},"decoder":{"type":"ByteLevel","add_prefix_space":true,"trim_offsets":true,"use_regex":true},"model":{"type":"BPE","dropout":null,"unk_token":null,"continuing_subword_prefix":null,"end_of_word_suffix":null,"fuse_unk":false,"byte_fallback":false,"ignore_merges":false,"vocab":{"<PAD>":0,"<BOS>":1,"<EOS>":2,"<UNK>":3,"{":4,"}":5,"[":6,"]":7,":":8,",":9,"\"":10,"\n":11,"!":12,"#":13,"$":14,"%":15,"&":16,"'":17,"(":18,")":19,"*":20,"+":21,"-":22,".":23,"/":24,"0":25,"1":26,"2":27,"3":28,"4":29,"5":30,"6":31,"7":32,"8":33,"9":34,";":35,"<":36,"=":37,">":38,"?":39,"@":40,"\\":41,"^":42,"_":43,"`":44,"a":45,"b":46,"c":47,"d":48,"e":49,"f":50,"g":51,"h":52,"i":53,"j":54,"k":55,"l":56,"m":57,"n":58,"o":59,"p":60,"q":61,"r":62,"s":63,"t":64,"u":65,"v":66,"w":67,"x":68,"y":69,"z":70,"|":71,"~":72,"¡":73,"¢":74,"£":75,"¤":76,"¥":77,"¦":78,"§":79,"¨":80,"©":81,"ª":82,"«":83,"¬":84,"®":85,"¯":86,"°":87,"±":88,"²":89,"³":90,"´":91,"µ":92,"¶":93,"·":94,"¸":95,"¹":96,"º":97,"»":98,"¼":99,"½":100,"¾":101,"¿":102,"Â":103,"Ã":104,"Ä":105,"Å":106,"Æ":107,"Ç":108,"È":109,"É":110,"Ê":111,"Ë":112,"Ì":113,"Î":114,"Ï":115,"Ð":116,"Ñ":117,"×":118,"Ø":119,"Ù":120,"Ú":121,"Û":122,"à":123,"á":124,"â":125,"ã":126,"ä":127,"å":128,"æ":129,"ç":130,"è":131,"é":132,"ê":133,"ë":134,"ì":135,"í":136,"ï":137,"ð":138,"ĉ":139,"Ċ":140,"Ġ":141,"Ģ":142,"ģ":143,"Ĥ":144,"ĥ":145,"Ħ":146,"ħ":147,"Ĩ":148,"ĩ":149,"Ī":150,"ī":151,"Ĭ":152,"ĭ":153,"Į":154,"į":155,"İ":156,"ı":157,"Ĳ":158,"ĳ":159,"Ĵ":160,"ĵ":161,"Ķ":162,"ķ":163,"ĸ":164,"Ĺ":165,"ĺ":166,"Ļ":167,"ļ":168,"Ľ":169,"ľ":170,"Ŀ":171,"ŀ":172,"Ł":173,"ł":174,"Ń":175,"Ġt":176,"Ġa":177,"in":178,"he":179,"re":180,"Ġthe":181,"ĠĠ":182,"Ġs":183,"on":184,"Ġc":185,"er":186,"at":187,"or":188,"en":189,"Ġw":190,"es":191,"Ġp":192,"Ġi":193,"Ġf":194,"nd":195,"Ġo":196,"ing":197,"Ġm":198,"Ġb":199,"ou":200,"al":201,"an":202,"Ġin":203,"Ġd":204,"it":205,"Ġto":206,"le":207,"Ġand":208,"ar":209,"ion":210,"Ġof":211,"st":212,"ed":213,"ic":214,"ro":215,"ĠĠĠĠ":216,"Ġth":217,"Ġe":218,"Ġh":219,"ct":220,"ent":221,"Ġn":222,"Ġre":223,"Ġl":224,"is":225,"as":226,"ĠĊ":227,"om":228,"et":229,"ve":230,"Ġg":231,"Ġis":232,"Ġy":233,"Ġu":234,"il":235,"ut":236,"Ġst":237,"Ġyou":238,"ra":239,"Ġfor":240,"se":241,"ow":242,"ce":243,"id":244,"ch":245,"ĠĠĠ":246,"ation":247,"ot":248,"ly":249,"am":250,"Ġbe":251,"ol":252,"Ġthat":253,"ur":254,"Ġon":255,"ig":256,"Ġ\"":257,"Ġpro":258,"Ġit":259,"im":260,"ers":261,"ate":262,"ith":263,"Ġan":264,"Ġwh":265,"Ġcon":266,"um":267,"ul":268,"Ġv":269,"Ġhe":270,"Ġwith":271,"ay":272,"od":273,"el":274,"ir":275,"Ġcan":276,"Ġ1":277,"Ġas":278,"qu":279,"Ġex":280,"ge":281,"Ġ=":282,"ad":283,"if":284,"Ġor":285,"ke":286,"ess":287,"Ġal":288,"Ġde":289,"Ġcom":290,"ab":291,"ver":292,"Ġsu":293,"est":294,"ri":295,"Ġthis":296,"Ġare":297,"pp":298,"ment":299,"th":300,"ist":301,"un":302,"Ġwe":303,"ld":304,"Ġch":305,"Ġ(":306,"mp":307,"Ġ`":308,"pe":309,"Ġus":310,"ĠĠĠĠĠĠĠ":311,"ore":312,"ac":313,"Ġ2":314,"ive":315,"us":316,"Ġne":317,"Ġ-":318,"res":319,"Ġse":320,"Ġha":321,"ity":322,"ction":323,"Ġr":324,"ter":325,"her":326,"ain":327,"op":328,"iv":329,"nt":330,"Ġen":331,"Ġj":332,"Ġle":333,"ort":334,"Ġsh":335,"ant":336,"igh":337,"ill":338,"os":339,"Ġad":340,"oc":341,"rom":342,"ould":343,"Ġyour":344,"pt":345,"age":346,"Ġme":347,"ies":348,"pl":349,"Ġby":350,"Ġif":351,"art":352,"Ġwor":353,"Ġma":354,"iz":355,"Ġfrom":356,"ial":357,"'s":358,"ud":359,"out":360,"Ġint":361,"Ġpl":362,"Ġcomp":363,"ust":364,"fe":365,"ure":366,"Ġnot":367,"and":368,"Ġab":369,"end":370,"Ġte":371,"Ġdo":372,"all":373,"ine":374,"ight":375,"Ġimp":376,"Ġhow":377,"Ġat":378,"00":379,"Ġk":380,"em":381,"Ġwhat":382,"Ġ3":383,"Ġhave":384,"âĢ":385,"ue":386,"ide":387,"Ġar":388,"cc":389,"act":390,"ind":391,"Ġtheir":392,"int":393,"for":394,"ome":395,"og":396,"ame":397,"ile":398,"Ġwhe":399,"ag":400,"per":401,"ult":402,"ase":403,"Ġcont":404,"Ġcl":405,"cl":406,"able":407,"are":408,"ie":409,"Ġtr":410,"Ġqu":411,"ions":412,"ence":413,"ost":414,"Ġcre":415,"Ġun":416,"Ġstr":417,"our":418,"low":419,"form":420,"ach":421,"du":422,"Ġres":423,"ip":424,"king":425,"ime":426,"Ġ{":427,"ical":428,"ks":429,"Ġthey":430,"Ġnum":431,"Ġwas":432,"ass":433,"ĠĠĠĠĠĠĠĠ":434,"Ġ$":435,"Ġapp":436,"ther":437,"Ġwill":438,"Ġadd":439,"Ġmore":440,"oo":441,"ber":442,"ast":443,"Ġpr":444,"xt":445,"ep":446,"Ġsc":447,"Ġ``":448,"ite":449,"ard":450,"ich":451,"Ġli":452,"Ġ```":453,"Ġout":454,"ound":455,"ations":456,"ated":457,"ance":458,"Ġuse":459,"ack":460,"ans":461,"Ġfun":462,"put":463,"Ġgo":464,"gh":465,"urn":466,"red":467,"Ġbut":468,"Ġ4":469,"ode":470,"ice":471,"Ġman":472,"av":473,"ata":474,"ign":475,"Ġhas":476,"Ġso":477,"ect":478,"Ġsp":479,"ell":480,"Ġ}":481,"Ġret":482,"Ġprov":483,"ble":484,"Ġro":485,"Ġabout":486,"Ġ|":487,"Ġ5":488,"Ġsome":489,"Ġwhich":490,"Ġfe":491,"ong":492,"ary":493,"ous":494,"Ġfunction":495,"one":496,"Ġval":497,"ough":498,"Ġdis":499,"Ġhel":500,"\",":501,"ition":502,"ount":503,"ace":504,"Ġspe":505,"Ġup":506,"()":507,"vel":508,"so":509,"str":510,"ang":511,"Ġmy":512,"te":513,"Ġall":514,"--":515,"Ġnew":516,"Ġone":517,"Ġlike":518,"Ġother":519,"Ġdes":520,"ents":521,"Ġev":522,"rent":523,"ap":524,"ory":525,"ual":526,"ord":527,"con":528,"Ġhelp":529,"ress":530,"Ġ#":531,"Ġtra":532,"ific":533,"Ġthere":534,"de":535,"Ġusing":536,"Ġper":537,"ram":538,"Ġ+":539,"ple":540,"ail":541,"Ġpe":542,"Ġreturn":543,"Ġ<":544,"lo":545,"Ġeach":546,"ces":547,"Ġthem":548,"clud":549,"lement":550,"get":551,"Ġsy":552,"ire":553,"Ġdif":554,"Ġcomm":555,"Ġtime":556,"Ġcol":557,"Ġ0":558,"Ġalso":559,"ry":560,"Ġacc":561,"Ġshould":562,"Ġany":563,"ors":564,"ak":565,"we":566,"\\_":567,"ĠĠĠĠĠĠĠĠĠĠĠ":568,"ren":569,"Ġexam":570,"now":571,"âĢĻ":572,"ings":573,"Ġpre":574,"Ġdata":575,"Ġser":576,"Ġwhen":577,"Ġ'":578,"Ġover":579,"com":580,"Ġwho":581,"ff":582,");":583,"les":584,"ck":585,"ub":586,"Ġ[":587,"Ġspec":588,"Ġlist":589,"Ġneed":590,"ize":591,"Ġ*":592,"Ġam":593,"Ġthese":594,"Ġinclud":595,"Ġbet":596,"ates":597,"yth":598,"ject":599,"Ġdef":600,"Ġinto":601,"Ġmake":602,"Ġwr":603,"Ġ\\":604,"ove":605,"ating":606,"led":607,"Ġnumber":608,"Ġhere":609,"Ġwould":610,"ens":611,"ari":612,"Ġke":613,"lic":614,"Ġcode":615,"ild":616,"ally":617,"Ġcreate":618,"ree":619,"cess":620,"ark":621,"ater":622,"Ġbu":623,"Ġ/":624,"ays":625,"Ġmod":626,"Ġprodu":627,"Ġtw":628,"Ġimport":629,"au":630,"eth":631,"ph":632,"Ġra":633,"Ġget":634,"ia":635,"Ġpart":636,"Ġcons":637,"Ġdiffe":638,"Ġset":639,"Ġind":640,"ne":641,"Ġhis":642,"Ġfir":643,"Ġsuch":644,"Ġchar":645,"up":646,"ook":647,"ange":648,"ython":649,"Ġpos":650,"Ġthan":651,"nder":652,"ople":653,"Ġknow":654,"ov":655,"Ġph":656,"ful":657,"ars":658,"Ġinter":659,"ath":660,"Ġ6":661,"Ġstart":662,"ose":663,"Ġcal":664,"Ġpeople":665,"Ġits":666,"ds":667,"Ġfol":668,"Ġgen":669,"ick":670,"Ġfirst":671,"ased":672,"stem":673,"ative":674,"Ġcould":675,"Ġprog":676,"Ġfind":677,"ient":678,"ft":679,"Ġrec":680,"ys":681,"Ġx":682,"ert":683,"Ġshe":684,"ffe":685,"Ġprint":686,"Ġche":687,"Ġform":688,"arch":689,"Ġwhere":690,"Ġinc":691,"Ġpo":692,"Ġno":693,"ll":694,"Ġthen":695,"arn":696,"Ġprovide":697,"Ġsm":698,".\"":699,"lect":700,"Ġgr":701,"ility":702,"Ġgre":703,"Ġour":704,"Ġrem":705,"Ġsub":706,"row":707,"Ġher":708,"(\"":709,"ish":710,"Ġunder":711,"Ġoff":712,"ict":713,"Ġpers":714,"Ġem":715,"Ġsol":716,"Ġstep":717,"eng":718,"rough":719,"err":720,"Ġdet":721,"Ġtwo":722,"Ġsystem":723,"Ġstring":724,"Ġused":725,"):":726,"Ġfollow":727,"Ġinv":728,"Ġmay":729,"\":":730,"Ġbl":731,"Ġco":732,"Ġrel":733,"rib":734,"ities":735,"Ġsim":736,"Ġinform":737,"ake":738,"sw":739,"Ġexpl":740,"Ġwork":741,"Ġdoes":742,"erm":743,"Ġcur":744,"ues":745,"ty":746,"ible":747,"ise":748,"Ġwant":749,"enc":750,"Ġexper":751,"ices":752,"Ġdifferent":753,"oth":754,"Ġsa":755,"ript":756,"Ġact":757,"ract":758,"der":759,"Ġprogram":760,"Ġexample":761,"Ġag":762,"Ġrequ":763,"Ġtrans":764,"Ġty":765,"Ġlet":766,"Ġvari":767,"ray":768,"ience":769,"Ġinput":770,"pon":771,"ustom":772,").":773,"Ġthrough":774,"its":775,"sel":776,"Ġgener":777,"ob":778,"Ġass":779,"ery":780,"Ġbec":781,"ics":782,"ib":783,"ures":784,"Ġansw":785,"Ġ10":786,"Ġgiv":787,"Ġob":788,"ments":789,"Ġopt":790,"Ġvalue":791,"ting":792,"als":793,"Ġinte":794,"Ġrep":795,"Ġwhile":796,"gg":797,"velop":798,"ween":799,"Ġinformation":800,"olog":801,"Ġ20":802,"bers":803,"Ġproduct":804,"pect":805,"Ġel":806,"ify":807,"Ġbetween":808,"Ġtext":809,"Ġclass":810,"iness":811,"Ġcustom":812,"the":813,"'t":814,"cept":815,"Ġim":816,"ffect":817,"hes":818,"Ġresult":819,"Ġperson":820,"Ġcharact":821,"Ġfin":822,"Ġquest":823,"Ġtech":824,"Ġbus":825,"Ġdevelop":826,"Ġanswer":827,"Ġmin":828,"Ġsent":829,"ĠâĢ":830,"Ġserv":831,"Ġ8":832,"name":833,"Ġaf":834,"Ġplay":835,"ular":836,"ink":837,"Ġprocess":838,"Ġ7":839,"Ġprovid":840,"ential":841,"ood":842,"Ġstud":843,"lease":844,"Ġinst":845,"),":846,"Ġmany":847,"Ġid":848,"iqu":849,"fore":850,"Ġcor":851,"Ġexp":852,"Ġfl":853,"Ġtechn":854,"ause":855,"Ġart":856,"Ġmat":857,"ĠĠĠĠĠ":858,"ex":859,"pr":860,"Ġelement":861,"Ġmed":862,"Ġworld":863,"Ġcomple":864,"ower":865,"Ġhand":866,"Ġwrite":867,"ps":868,"ethod":869,"Ġonly":870,"Ġuser":871,"Ġeng":872,"uring":873,"sc":874,"val":875,"own":876,"Ġdec":877,"Ġye":878,"Ġsupp":879,"Ġhigh":880,"Ġent":881,"Ġreg":882,"Ġsoc":883,"Ġpar":884,"Ġwere":885,"Ġever":886,"iew":887,"Ġmark":888,"Ġmost":889,"Ġlearn":890,"ality":891,"Ġbusiness":892,"Ġhad":893,"Ġway":894,"Ġjust":895,"ious":896,"Ġmain":897,"Ġsum":898,"Ġmethod":899,"ctions":900,"..":901,"Ġemp":902,"stand":903,"Ġ//":904,"Ġgiven":905,"self":906,"ution":907,"ns":908,"to":909,"Ġplease":910,"ts":911,"Ġbeen":912,"read":913,"anc":914,"ade":915,"Ġgu":916,"Ġfile":917,"----":918,"Ġsure":919,"Ġkey":920,"ages":921,"ife":922,"Ġaddition":923,"Ġsign":924,"Ġback":925,"Ġequ":926,"Ġspecific":927,"wor":928,"Ġac":929,"Ġboth":930,"Ġbuild":931,"Ġpass":932,"Ġloc":933,"Ġatt":934,"ian":935,"Ġwell":936,"Ġend":937,"Ġname":938,"ied":939,"ix":940,"Ġoutput":941,"elf":942,"Ġplan":943,"Ġins":944,"ten":945,"Ġafter":946,"cul":947,"Ġread":948,"Ġsk":949,"ines":950,"gy":951,"Ġaut":952,"Ġhum":953,"Ġcompan":954,"Ġdesign":955,"Ġdisc":956,"Ġunderstand":957,"Ġcr":958,"Ġfil":959,"Ġbr":960,"Ġlong":961,"))":962,"Ġbo":963,"alth":964,"wn":965,"Ġsee":966,"Ġbased":967,"word":968,"ute":969,"ature":970,"gr":971,"gan":972,"ness":973,"Ġself":974,"Ġref":975,"Ġpython":976,"Ġgood":977,"Ġcount":978,"Ġallow":979,"uct":980,"=\"":981,"Ġdesc":982,"itive":983,"Ġeffect":984,"Ġcommun":985,"Ġeven":986,"app":987,"ized":988,"hip":989,"error":990,"Ġpot":991,"ving":992,"Ġmarket":993,"Ġlo":994,"ivid":995,"Ġnow":996,"hed":997,"Ġz":998,"Ġday":999,"ms":1000,"iss":1001,"Ġweb":1002,"Ġgra":1003,"ength":1004,"Ġav":1005,"Ġanal":1006,"Ġwhy":1007,"string":1008,"Ġ9":1009,"pro":1010,"Ġinclude":1011,"Ġtest":1012,"ger":1013,"Ġbecause":1014,"num":1015,"Ġmult":1016,"Ġdep":1017,"iel":1018,"Ġsmall":1019,"old":1020,"Ġvis":1021,"ward":1022,"Ġfollowing":1023,"Ġstate":1024,"Ġbre":1025,"Ġrev":1026,"Ġappro":1027,"br":1028,"line":1029,"Ġrespon":1030,"Ġfact":1031,"Ġdist":1032,"Ġlead":1033,"ning":1034,"Ġhealth":1035,"Ġop":1036,"ef":1037,"ock":1038,"Ġshow":1039,"ples":1040,"Ġmon":1041,"Ġcurrent":1042,"Ġmodel":1043,"Ġarray":1044,"Ġcontain":1045,"Ġcle":1046,"Ġext":1047,"Ġnumbers":1048,"Ġpub":1049,"Ġadv":1050,"ner":1051,"Ġide":1052,"Ġbeing":1053,"Ġbest":1054,"uc":1055,"Ġcar":1056,"ons":1057,"Ġbra":1058,"Ġlife":1059,"ily":1060,"Ġla":1061,"000":1062,"tal":1063,"Ġsentence":1064,"ique":1065,"Ġtake":1066,"ĠĠĠĠĠĠĠĠĠĠĠĠĠĠĠ":1067,"Ġinf":1068,"python":1069,"oup":1070,"ax":1071,"Ġpol":1072,"Ġident":1073,"Ġtry":1074,"Ġfr":1075,"Ġsal":1076,"Ġconst":1077,"Ġrun":1078,"Ġposs":1079,"Ġcalcul":1080,"Ġgreat":1081,"',":1082,"Ġmu":1083,"Ġed":1084,"Ġconf":1085,"ull":1086,"ural":1087,"Ġimpro":1088,"Ġpres":1089,"Ġpoint":1090,"Ġword":1091,"Ġwords":1092,"Ġteam":1093,"ather":1094,"ider":1095,"Ġve":1096,"Ġdid":1097,"Ġimplement":1098,"imes":1099,"Ġproble":1100,"Ġlar":1101,"Ġperform":1102,"\")":1103,"ss":1104,"angu":1105,"Ġincre":1106,"mat":1107,"Ġquestion":1108,"Ġown":1109,"Ġmean":1110,"Ġca":1111,"Ġmus":1112,"ets":1113,"Ġpa":1114,"Ġbefore":1115,"Ġsupport":1116,"Ġmess":1117,"other":1118,"Ġens":1119,"ins":1120,"Ġtop":1121,"mon":1122,"Ġjo":1123,"10":1124,"ability":1125,"riend":1126,"Ġreal":1127,"ware":1128,"Ġsocial":1129,"Ġdown":1130,"akes":1131,"ash":1132,"Ġincluding":1133,"ml":1134,"par":1135,"be":1136,"data":1137,"ier":1138,"cur":1139,"Ġsame":1140,"ology":1141,"ever":1142,"bo":1143,"ational":1144,"Ġorder":1145,"Ġfeel":1146,"Ġpower":1147,"ves":1148,"ically":1149,"Ġfound":1150,"Ġsom":1151,"Ġtotal":1152,"Ġpat":1153,"ency":1154,"Ġevery":1155,"Ġcost":1156,"Ġwater":1157,"aking":1158,"tt":1159,"ask":1160,"Ġobject":1161,"Ġ19":1162,"Ġsur":1163,"Ġgive":1164,"Ġtre":1165,"ional":1166,"Ġlangu":1167,"ved":1168,"20":1169,"Ġduring":1170,"search":1171,"Ġless":1172,"by":1173,"Ġeas":1174,"Ġdire":1175,"Ġmem":1176,"ization":1177,"ited":1178,"play":1179,"Ġprof":1180,"Ġrange":1181,"Ġdi":1182,"ffic":1183,"Ġcase":1184,"Ġmade":1185,"Ġright":1186,"Ġpotential":1187,"Ġwithout":1188,"Ġbel":1189,"Ġvalues":1190,"ertain":1191,"gor":1192,"Ġline":1193,"Ġap":1194,"Ġoper":1195,"ocus":1196,"ames":1197,"io":1198,"Ġcomplex":1199,"Ġmet":1200,"day":1201,"Ġtyp":1202,"ividual":1203,"ric":1204,"ccess":1205,"rest":1206,"Ġaccess":1207,"Ġcent":1208,"date":1209,"Ġ==":1210,"Ġear":1211,"Ġmanage":1212,"Ġdon":1213,"Ġimpact":1214,"Ġindividual":1215,"Ġtable":1216,"Ġhowever":1217,"ye":1218,"ired":1219,"rect":1220,"Ġpur":1221,"Ġtype":1222,"ety":1223,"ases":1224,"Ġcompany":1225,"Ġfocus":1226,"Ġimportant":1227,"Ġcheck":1228,"Ġpost":1229,"ument":1230,"list":1231,"Ġstory":1232,"Ġment":1233,"Ġwrit":1234,"Ġredu":1235,"cho":1236,"ggest":1237,"ences":1238,"Ġcharacter":1239,"ense":1240,"Ġcall":1241,"Ġtool":1242,"Ġfam":1243,"rence":1244,"Ġpublic":1245,"Ġsuccess":1246,"Ġtrue":1247,"gin":1248,"Ġsuggest":1249,"Ġcare":1250,"Ġpop":1251,"ton":1252,"Ġcontent":1253,"ables":1254,"Ġenc":1255,"Ġorgan":1256,"Ġpri":1257,"son":1258,"Ġelements":1259,"cond":1260,"verse":1261,"Ġtell":1262,"Ġexamples":1263,"\".":1264,"ined":1265,",\"":1266,"ives":1267,"Ġopen":1268,"Ġmight":1269,"over":1270,"ator":1271,"Ġyes":1272,"Ġbetter":1273,"ining":1274,"comm":1275,"tern":1276,"âĢĿ":1277,"ieve":1278,"ital":1279,"Ġgame":1280,"Ġconsider":1281,"Ġben":1282,"Ġexplain":1283,"ted":1284,"Ġkeep":1285,"Ġmax":1286,"Ġpract":1287,"Ġelse":1288,"Ġpossible":1289,"Ġsignific":1290,"ĠâĢľ":1291,"Ġhuman":1292,"Ġlevel":1293,"ody":1294,"Ġcontin":1295,"ems":1296,"Ġdat":1297,"Ġ12":1298,"arget":1299,"Ġsearch":1300,"Ġexperience":1301,"ending":1302,"Ġplat":1303,"Ġdel":1304,"Ġstore":1305,"Ġcho":1306,"ken":1307,"Ġthose":1308,"</":1309,"Ġproject":1310,"Ġhapp":1311,"Ġlanguage":1312,"Ġpartic":1313,"Ġcharacters":1314,"Ġlength":1315,"Ġchall":1316,"vir":1317,"work":1318,"ield":1319,"ason":1320,"Ġnext":1321,"ream":1322,"ced":1323,"ually":1324,"tr":1325,"Ġlog":1326,"Ġgrow":1327,"Ġstrate":1328,"Ġusers":1329,"Ġunique":1330,"Ġtemp":1331,"aut":1332,"Ġagain":1333,"Ġmaking":1334,"Ġchang":1335,"utes":1336,"atures":1337,"Ġhist":1338,"Ġterm":1339,"amp":1340,"Ġsort":1341,"imate":1342,"Ġthree":1343,"Ġprev":1344,"ern":1345,"Ġbeh":1346,"Ġfriend":1347,"viron":1348,"Ġdig":1349,"Ġ&":1350,"Ġmuch":1351,"Ġaround":1352,"Ġtoo":1353,"Ġproblem":1354,"Ġlast":1355,"Ġplace":1356,"Ġmust":1357,"ince":1358,"ists":1359,"Ġplatform":1360,"Ġhim":1361,"Ġtri":1362,"ism":1363,"Ġcult":1364,"__":1365,"me":1366,"Ġthink":1367,"Ġlight":1368,"ext":1369,"Ġfood":1370,"ources":1371,"Ġapplic":1372,"Ġcomb":1373,"Ġwithin":1374,"ified":1375,"Ġarg":1376,"Ġthough":1377,"Ġrepres":1378,"Ġspace":1379,"po":1380,"Ġcalled":1381,"Ġdirect":1382,"oid":1383,"Ġanother":1384,"ling":1385,"rac":1386,"Ġsay":1387,"Ġunt":1388,"ething":1389,"Ġdeterm":1390,"ci":1391,"Ġgroup":1392,"Ġlearning":1393,"ergy":1394,"tain":1395,"way":1396,"Ġenviron":1397,"sh":1398,"Ġimprove":1399,"nect":1400,"Ġensure":1401,"Ġexpress":1402,"li":1403,"Ġprom":1404,"Ġyears":1405,"ze":1406,"Ġwar":1407,"Ġsomething":1408,"Ġmar":1409,"Ġinvol":1410,"ĠÐ":1411,"ants":1412,"Ġdiv":1413,"Ġoften":1414,"Ġlook":1415,"ivity":1416,"Ġpersonal":1417,"jo":1418,"Ġmov":1419,"Ġmessage":1420,"text":1421,"Ġcorrect":1422,"Ġmultip":1423,"key":1424,"Ġest":1425,"Ġstand":1426,"Ġ15":1427,"Ġcommon":1428,"itle":1429,"Ġyear":1430,"set":1431,"Ġcertain":1432,"tle":1433,"ven":1434,"ret":1435,"Ġsecond":1436,"Ġscript":1437,"Ġchange":1438,"Ġproper":1439,"Ġenergy":1440,"gorith":1441,"ails":1442,"Ġes":1443,"lish":1444,"ote":1445,"Ġmeans":1446,"uss":1447,"Ġ.":1448,"tml":1449,"let":1450,"ients":1451,"ways":1452,"pos":1453,"ource":1454,"Ġsty":1455,"Ġthings":1456,"Ġsoft":1457,"Ġbro":1458,"ron":1459,"Ġhelps":1460,"ication":1461,"Ġinvest":1462,"Ġcour":1463,"Ġalgorith":1464,"Ġstartup":1465,"Ġresearch":1466,"ndom":1467,"Ġnet":1468,"ah":1469,"file":1470,"Ġach":1471,"ug":1472,"Ġcustomer":1473,"Ġuntil":1474,"Ġfew":1475,"ek":1476,"ser":1477,"Ġrequire":1478,"ooking":1479,"vers":1480,"add":1481,"Ġoffer":1482,"kes":1483,"Ġinit":1484,"Ġhour":1485,"ming":1486,"Ġidentify":1487,"less":1488,"Ġaud":1489,"Ġstat":1490,"Ġess":1491,"ale":1492,"Ġiss":1493,"Ġstruct":1494,"'re":1495,"Ġnon":1496,"Ġlit":1497,"ec":1498,"stru":1499,"ql":1500,"Ġeffective":1501,"itions":1502,"Ġenvironment":1503,"ision":1504,"Ġanaly":1505,"und":1506,"Ġinterest":1507,"Ġtarget":1508,"Ġmove":1509,"raph":1510,"12":1511,"inal":1512,"Ġaddress":1513,"Ġerror":1514,"Ġsw":1515,"air":1516,"Ġ:":1517,"Ġsing":1518,"Ġsumm":1519,"Ġoptim":1520,"();":1521,"Ġvarious":1522,"py":1523,"ared":1524,"Ġcap":1525,"Ġsl":1526,"place":1527,"Ġbenef":1528,"iction":1529,"Ġgenerate":1530,"wr":1531,"Ġsit":1532,"Ġdescrib":1533,"Ġmusic":1534,"requ":1535,"atch":1536,"rol":1537,"input":1538,"Ġorig":1539,"erc":1540,"Ġspecial":1541,"Ġvery":1542,"ooks":1543,"('":1544,"],":1545,"ank":1546,"Ġtakes":1547,"Ġsignificant":1548,"Ġinfl":1549,"ross":1550,"new":1551,"ats":1552,"els":1553,"Ġlim":1554,"dition":1555,"ips":1556,"Ġbuilding":1557,"//":1558,"Ġlarge":1559,"Ġbook":1560,"oun":1561,"Ġstill":1562,"Ġmeas":1563,"ination":1564,"Ġoptions":1565,"Ġsince":1566,"not":1567,"Ġpositive":1568,"Ġdevelopment":1569,"ma":1570,"Ġwebs":1571,"eric":1572,"ouse":1573,"count":1574,"Ġsaid":1575,"Ġclear":1576,"hor":1577,"Ġpay":1578,"Ġtoget":1579,"Ġtogether":1580,"Ġgod":1581,"Ġchild":1582,"aterial":1583,"Ġmil":1584,"Ġconc":1585,"ries":1586,"Ġneg":1587,"Ġmedia":1588,"Ġabove":1589,"Ġopp":1590,"eter":1591,"Ġconcept":1592,"Ġknown":1593,"vert":1594,"Ġris":1595,"aging":1596,"Ġonce":1597,"ior":1598,"Ġcontext":1599,"Ġvers":1600,"abor":1601,"Ġtechnology":1602,"oney":1603,"Ġvide":1604,"ills":1605,"back":1606,"Ġevent":1607,"ave":1608,"Ġdra":1609,"Ġdev":1610,"Ġselect":1611,"Ġalways":1612,"Ġhome":1613,"Ġmind":1614,"Ġlove":1615,"ides":1616,"Ġunderstanding":1617,"::":1618,"Ġcomput":1619,"Ġservice":1620,"value":1621,"Ġadditionally":1622,"ule":1623,"Ġaccount":1624,"aces":1625,"Ġrelations":1626,"mb":1627,"Ġcalculate":1628,"Ġremain":1629,"of":1630,"rix":1631,"Ġjav":1632,"Ġcolum":1633,"Ġstudents":1634,"Ġur":1635,"Ġprovided":1636,"Ġsize":1637,"Ġbig":1638,"Ġhead":1639,"ogn":1640,"Ġmaterial":1641,"Ġquestions":1642,"Ġgl":1643,"Ġcustomers":1644,"Ġbreak":1645,"ws":1646,"Ġocc":1647,"Ġarea":1648,"Ġservices":1649,"Ġside":1650,"Ġdiff":1651,"Ġoverall":1652,"Ġchalleng":1653,"Ġleft":1654,"Ġâ":1655,"Ġmach":1656,"Ġsqu":1657,"ilar":1658,"Ġminutes":1659,"urs":1660,"verage":1661,"min":1662,"che":1663,"time":1664,"Ġappe":1665,"Ġindust":1666,"Ġold":1667,"Ġphys":1668,"Ġsound":1669,"Ġdri":1670,"ights":1671,"duct":1672,"Ġmultiple":1673,"Ġways":1674,"Ġeffic":1675,"Ġneeds":1676,"Ġred":1677,"port":1678,"Ġprot":1679,"Ġavail":1680,"Ġworks":1681,"Ġ30":1682,"://":1683,"Ġtal":1684,"Ġemplo":1685,"cript":1686,"Ġ100":1687,"wh":1688,"Ġhy":1689,"Ġrelationship":1690,"Ġiter":1691,"Ġmarketing":1692,"Ġhard":1693,"Ġrequest":1694,"--------":1695,"Ð¾":1696,"Ġ>":1697,"Ġexpect":1698,"Ġinde":1699,"cccc":1700,"ope":1701,"ond":1702,"Ġuses":1703,"Ġcolor":1704,"Ġai":1705,"alse":1706,"Ġexist":1707,"Ġsolution":1708,"Ġsteps":1709,"print":1710,"az":1711,"col":1712,"Ġfur":1713,"Ġtimes":1714,"Ġsever":1715,"Ġfeatures":1716,"iled":1717,"Ġothers":1718,"ording":1719,"Ġrecomm":1720,"Ġconnect":1721,"Ġallows":1722,"idence":1723,"Ġamount":1724,"Ġjob":1725,"Ġhig":1726,"ead":1727,"izing":1728,"Ġsoftware":1729,"Ġparam":1730,"Ġinflu":1731,"Ġresponse":1732,"Ġrest":1733,"Ġrecommend":1734,"Ġlay":1735,"Ġinitial":1736,"Ġrandom":1737,"mpt":1738,"Ġhandle":1739,"Ġshort":1740,"`.":1741,"sp":1742,"Ġcommand":1743,"oose":1744,"Ġlibr":1745,"Ġfinally":1746,"iment":1747,"Ġdr":1748,"Ġdisplay":1749,"cle":1750,"ysis":1751,"Ġfac":1752,"arr":1753,"Ġproducts":1754,"Ġmot":1755,"$.":1756,"##":1757,"ctor":1758,"usion":1759,"bu":1760,"net":1761,"Ġair":1762,"50":1763,"Ġrele":1764,"Ġreturns":1765,"Ġturn":1766,"Ġrole":1767,"Ġseveral":1768,"\\*":1769,"Ġidea":1770,"Ġask":1771,"Ġsimple":1772,"Ġcity":1773,"icle":1774,"ention":1775,"Ġsimilar":1776,"curity":1777,"Ġalgorithm":1778,"cent":1779,"Ġnat":1780,"Ġmanagement":1781,"Ġstor":1782,"Ġprime":1783,"Ġloop":1784,"Ġvalid":1785,"Ġchanges":1786,"Ġfut":1787,"Ġcup":1788,"utions":1789,"Ġadditional":1790,"log":1791,"Ġcontrol":1792,"rences":1793,"ledge":1794,"'m":1795,"Ġbi":1796,"lection":1797,"rame":1798,"Ġput":1799,"Ġable":1800,"Ġemail":1801,"Ġresults":1802,"Ġbrand":1803,"Ġtypes":1804,"ĠĠĠĠĠĠĠĠĠĠĠĠĠĠĠĠ":1805,"ape":1806,"Ġface":1807,"Ġprovides":1808,"Ġwebsite":1809,"ipp":1810,"abase":1811,"Ġsomeone":1812,"man":1813,"Ġland":1814,"...":1815,"Ġfree":1816,"Ġfore":1817,"asks":1818,"ilities":1819,"yn":1820,"aring":1821,"':":1822,"Ġtask":1823,"Ġ16":1824,"Ġemot":1825,"head":1826,"Ġreport":1827,"Ġcreating":1828,"index":1829,"Ġdiscuss":1830,"here":1831,"ush":1832,"avor":1833,"Ġhistory":1834,"Ġrepresent":1835,"ulation":1836,"Ġlow":1837,"Ġ18":1838,"Ġfurther":1839,"Ġnor":1840,"Ġleg":1841,"Ġaccording":1842,"imal":1843,"Ġreview":1844,"Ġprofess":1845,"idd":1846,"ttps":1847,"Ġformat":1848,"Ġpresent":1849,"Ġbelie":1850,"path":1851,"Ġimage":1852,"imum":1853,"Ġanalysis":1854,"Ġmoney":1855,"respon":1856,"my":1857,"Ġcome":1858,"Ġscen":1859,"Ġinstead":1860,"Ġprob":1861,"Ġcompon":1862,"Ġ%":1863,"ster":1864,"Ġgoals":1865,"Ġlocal":1866,"Ġpage":1867,"Ġge":1868,"Ġcoll":1869,"Ġsystems":1870,"Ã©":1871,"view":1872,"Ġnode":1873,"Ġsec":1874,"Ġstrateg":1875,"Ġbas":1876,"Ġapplication":1877,"Ġdays":1878,"ident":1879,"cing":1880,"Ġdoc":1881,"Ġrece":1882,"Ġquant":1883,"Ġreally":1884,"Ġnote":1885,"Ġweek":1886,"Ġquality":1887,"struct":1888,"Ġactiv":1889,"Ġpain":1890,"Ġaction":1891,"Ġavailable":1892,"Ġmakes":1893,"Ġfuture":1894,"Ġwin":1895,"Ġexperi":1896,"ding":1897,"chool":1898,"Ġ</":1899,"Ġjour":1900,"Ġindividuals":1901,"por":1902,"land":1903,"oss":1904,"ift":1905,"Ġnecess":1906,"Ġachieve":1907,"Ġapproach":1908,"Ġhours":1909,"bal":1910,"hel":1911,"Ġdem":1912,"ird":1913,"Ġchoose":1914,"go":1915,".\\":1916,"Ġview":1917,"Ġfactors":1918,"Ġfield":1919,"Ġmonth":1920,"Ġdetermine":1921,"Ġelect":1922,"Ġupd":1923,"Ġsense":1924,"Ġintro":1925,"Ġonline":1926,"Ġeasy":1927,"Ġresources":1928,"ters":1929,"Ġver":1930,"Ġstrong":1931,"ards":1932,"co":1933,"ailed":1934,"Ð°":1935,"Ġsn":1936,"Ġsat":1937,"()`":1938,"med":1939,"Ġ--":1940,"Ġfamily":1941,"Ġstates":1942,"Ġpath":1943,"Ġadj":1944,"Ġperformance":1945,"Ġvideo":1946,"Ðµ":1947,"ished":1948,"Ġcommunity":1949,"ney":1950,"Ġmaintain":1951,"Ġbusinesses":1952,"Ġbehav":1953,"Ġtransl":1954,"Ġmag":1955,"ering":1956,"Ġdate":1957,"Ġfar":1958,"Ġfalse":1959,"Ġshare":1960,"Ġcompet":1961,"Ġstyle":1962,"ches":1963,"iting":1964,"Ġworking":1965,"Ġauthor":1966,"icult":1967,"Ġbegin":1968,"Ġcontrib":1969,"Ġcrit":1970,"Ġeduc":1971,"Ġindex":1972,"\">":1973,"Ġsingle":1974,"Ġwal":1975,"Ġpie":1976,"Ġfriends":1977,"Ġ200":1978,"Ġknowledge":1979,"Ġbody":1980,"icate":1981,"Ġnegative":1982,"Ġport":1983,"wards":1984,"mod":1985,"Ġwind":1986,"Ġsun":1987,"ived":1988,"Ġskills":1989,"pri":1990,"Ġce":1991,"Ġwhether":1992,"Ġsuccessful":1993,"Ġpopular":1994,"istic":1995,"Ġcamp":1996,"erg":1997,"Ġmo":1998,"Ġvariable":1999,"Ġpred":2000,"ann":2001,"oura":2002,"Ġste":2003,"Ġincor":2004,"Ġstructure":2005,"}{":2006,"Ġdou":2007,"Ġmethods":2008,"Ġnatural":2009,"face":2010,"Ġbal":2011,"Ġpast":2012,"Ġinstru":2013,"oot":2014,"ium":2015,"Ġcook":2016,"user":2017,"Ġdetails":2018,"ral":2019,"Ġschool":2020,"ember":2021,"do":2022,"Ġparticular":2023,"lex":2024,"ivers":2025,"Ġ=>":2026,"Ġdifficult":2027,"`,":2028,"fer":2029,"Ġut":2030,"fect":2031,"cont":2032,"11":2033,"Ġsubject":2034,"25":2035,"Ġameric":2036,"ances":2037,"Ġsecurity":2038,"Ġbenefits":2039,"ont":2040,"Ġbecome":2041,"Ġflo":2042,"Ġintegr":2043,"Ġtitle":2044,"Ġcourse":2045,"Ġcy":2046,"erature":2047,"based":2048,"Ġearth":2049,"ume":2050,"ipe":2051,"pper":2052,"Ġtraining":2053,"Ġpassage":2054,"Ġheart":2055,"Ġexec":2056,"resh":2057,"Ġleast":2058,"Ġagainst":2059,"Ġdatabase":2060,"Ġlab":2061,"Ġevents":2062,"Ġtools":2063,"uation":2064,"Ġĉ":2065,"ĠĠĠĠĊ":2066,"iques":2067,"Ġvir":2068,"Ġincrease":2069,"ault":2070,"Ġrespons":2071,"Ġmachine":2072,"action":2073,"Ġpack":2074,"Ġstatement":2075,"Ġideas":2076,"quence":2077,"sy":2078,"Ġaudience":2079,"16":2080,"gen":2081,"ately":2082,"array":2083,"type":2084,"Ġstudy":2085,"Ġing":2086,"Ġcomplete":2087,"])":2088,"==":2089,"Ġmeaning":2090,"Ġclean":2091,"pose":2092,"ification":2093,"Ġvisual":2094,"->":2095,"Ġoriginal":2096,"load":2097,"Ġflow":2098,"Ġbox":2099,"Ġreason":2100,"Ġnever":2101,"Ġgover":2102,"Ġroom":2103,"Ġsolve":2104,"Ġnull":2105,"ends":2106,"15":2107,"Ġmiss":2108,"Ġenjo":2109,"Ġtasks":2110,"inary":2111,"ortun":2112,"Ġtrack":2113,"Ġposition":2114,"Ġhar":2115,"ered":2116,"ru":2117,"ng":2118,"Ġvol":2119,"'ve":2120,"bl":2121,"Ġtechniques":2122,"Ġaverage":2123,"Ġlooking":2124,"Ġmeet":2125,"19":2126,"ners":2127,"Ġemploye":2128,"Ġdescript":2129,"Ġreduce":2130,"hn":2131,"Ġbase":2132,"Ġdeep":2133,"Ġapi":2134,"Ġindustry":2135,"frac":2136,"Ġsam":2137,"uck":2138,"Ġtips":2139,"book":2140,"Ġfund":2141,"Ġpoints":2142,"ww":2143,"Ġerr":2144,"orn":2145,"ready":2146,"Ġbar":2147,"Ġsepar":2148,"Ġquick":2149,"ina":2150,"Ġwom":2151,"Ġlot":2152,"Ġtradition":2153,"asing":2154,"Ġstay":2155,"comes":2156,"Ġcreated":2157,"vant":2158,"ference":2159,"Ġblack":2160,"apt":2161,"Ġhaving":2162,"Ġarr":2163,"Ġfull":2164,"Ġhot":2165,"Ġ14":2166,"Ġgoing":2167,"rop":2168,"Ġversion":2169,"di":2170,"amed":2171,"opt":2172,"Ġscience":2173,"Ġwriting":2174,"Ġtaking":2175,"Ġfast":2176,"Ġpriv":2177,"Ġnetwork":2178,"Ġhol":2179,"Ġlink":2180,"Ġsuper":2181,"illion":2182,"ibility":2183,"Ġgovern":2184,"Ġenjoy":2185,"ones":2186,"words":2187,"Ġwon":2188,"Ġfour":2189,"Ġjson":2190,"Ġtravel":2191,"Ġcontains":2192,"Ġchallenges":2193,"Ġintrodu":2194,"come":2195,"Ġconne":2196,"this":2197,"pped":2198,"Ġcontinue":2199,"Ġplayer":2200,"Ġstrategies":2201,"30":2202,"ÑĤ":2203,"ograph":2204,"Ġscient":2205,"Ġcompanies":2206,"Ġsav":2207,"Ġhouse":2208,"Ġlikely":2209,"ese":2210,"Ġmix":2211,"Ġinteger":2212,"Ġbot":2213,"Ġtherefore":2214,"Ġdigital":2215,"ane":2216,"Ġdiction":2217,"Ġterms":2218,"Ġnecessary":2219,"ĠĠĠĠĠĠĠĠĠ":2220,"Ġchec":2221,"Ġexplore":2222,"Ġlibrary":2223,"side":2224,"Ġet":2225,"arent":2226,"Ġ},":2227,"Ġavoid":2228,"\";":2229,"ilt":2230,"Ġ25":2231,"Ġkind":2232,"Ġenglish":2233,"Ġprevious":2234,"Ġcir":2235,"Ġquery":2236,"Ġregular":2237,"Ġmom":2238,"Ġlower":2239,"Ġfeed":2240,"Ġeu":2241,"gers":2242,"Ġreplace":2243,"Ġphot":2244,"eters":2245,"conom":2246,"Ġtrying":2247,"Ġaway":2248,"Ġcommunication":2249,"Ġhtml":2250,"Ġcomplexity":2251,"Ġglo":2252,"Ġang":2253,"bot":2254,"na":2255,"Ġbeaut":2256,"Ġgreen":2257,"\\*\\*":2258,"Ð¸":2259,"**":2260,"olution":2261,"Ġsave":2262,"anced":2263,"Ġalready":2264,"length":2265,"Ġcell":2266,"Ġcapt":2267,"ules":2268,"Ġdifference":2269,"ception":2270,"Ġ13":2271,"Ġprice":2272,"Ġpaper":2273,"Ġefficient":2274,"'ll":2275,"sub":2276,"Ġtransform":2277,"Ġequal":2278,"pre":2279,"oci":2280,"Ġequation":2281,"Ġurl":2282,"ditions":2283,"Ġveget":2284,"Ġdue":2285,"Ġnut":2286,"Ġ$\\":2287,"Ġencoura":2288,"Ġadjust":2289,"hens":2290,"Ġoption":2291,"Ġacross":2292,"ires":2293,"pec":2294,"Ġfiles":2295,"Ġbuy":2296,"Ġ202":2297,"Ġimplementation":2298,"Ġingred":2299,"].":2300,"Ġeval":2301,"Ġtoday":2302,"Ġ11":2303,"Ġdescribe":2304,"iod":2305,"Ġinn":2306,"fil":2307,"Ġsource":2308,"Ġnav":2309,"izes":2310,"oud":2311,"Ġcertainly":2312,"')":2313,"ises":2314,"mit":2315,"iving":2316,"Ġformul":2317,"Ġempty":2318,"Ġmatch":2319,"Ġautom":2320,"aries":2321,"ids":2322,"Ġremove":2323,"light":2324,"Ġ!":2325,"dd":2326,"result":2327,"aling":2328,"plit":2329,"Ġsquare":2330,"aste":2331,"Ġrequired":2332,"Ġproviding":2333,"Ġmental":2334,"Ġmeasure":2335,"Ġassoci":2336,":\\":2337,"div":2338,"Ġprim":2339,"Ġseries":2340,"Ġassign":2341,"Ġgrowth":2342,"Ġbrow":2343,"Ġfinal":2344,"Ġarticle":2345,"box":2346,"order":2347,"ges":2348,"Ġthought":2349,"Ġcolumn":2350,"ascript":2351,"Ġrelated":2352,"pective":2353,"Ġbehavior":2354,"sv":2355,"Ġhope":2356,"Ġalong":2357,"Ġdeb":2358,"Ġmention":2359,"fs":2360,"Ġupdate":2361,"Ġ@":2362,"Ġeconom":2363,"Ġrecipe":2364,"Ġhappen":2365,"Ġopportun":2366,"Ġrisk":2367,"ik":2368,"Ġprote":2369,"Ġroot":2370,"su":2371,"Ġunivers":2372,"Ġdocument":2373,"Ġrout":2374,"Ġspeed":2375,"Ġamong":2376,"Ġengine":2377,"Ġdictionary":2378,"ently":2379,"Ġserver":2380,"ration":2381,"Ġcut":2382,"Ġincludes":2383,"Ġabs":2384,"ories":2385,"ites":2386,"Ġrecogn":2387,"Ġessential":2388,"ised":2389,"ffee":2390,"jor":2391,"Ġpress":2392,"Ġhal":2393,"Ġneeded":2394,"Ġfinanc":2395,"\");":2396,"Ġincorpor":2397,"Ġinstall":2398,"Ġlittle":2399,"Ġjava":2400,"Ġoil":2401,"oups":2402,"icy":2403,"Ġsens":2404,"Ġfunctions":2405,"Ġissues":2406,"cre":2407,"ators":2408,"Ġconvert":2409,"uments":2410,"Ġexpression":2411,"Ġscore":2412,"Ġguide":2413,"ground":2414,"Ġactivities":2415,"js":2416,"Ġlen":2417,"ĠâĢĵ":2418,"Ġreach":2419,"fun":2420,"Ġgoal":2421,"Ġje":2422,"Ġdefine":2423,"âĢĶ":2424,"Ġoccur":2425,"Ġdark":2426,"step":2427,"Ġconvers":2428,"Ġdog":2429,"ising":2430,"char":2431,"Ġ50":2432,"Ġ**":2433,"Ġsong":2434,"Ġwide":2435,"Ġexerc":2436,"Ġlocation":2437,"ĠĠĠĠĠĠĠĠĠĠĠĠĠĠĠĠĠĠĠ":2438,"Ġconsum":2439,"mbol":2440,"aign":2441,"Ġunited":2442,"Ġsche":2443,"iety":2444,"ament":2445,"Ġque":2446,"Ġperiod":2447,"Ġremember":2448,"Ġtraditional":2449,"oring":2450,"atic":2451,"idth":2452,"Ġability":2453,"rypt":2454,"met":2455,"ugg":2456,"Ġconcl":2457,"Ġcompre":2458,"\"]":2459,"Ġant":2460,"ogle":2461,"temp":2462,"Ġletter":2463,"Ġchildren":2464,"Ġcoffee":2465,"hen":2466,"Ġcollabor":2467,"Ġ?":2468,"Ġq":2469,"inst":2470,"Ġadding":2471,"Ġimag":2472,"ler":2473,"Ġmor":2474,"Ġbat":2475,"acks":2476,"Ġexplan":2477,"Ġsales":2478,"Ġphysical":2479,"ological":2480,"gest":2481,"Ġball":2482,"Ġitems":2483,"Ġstrings":2484,"rt":2485,"Ġrather":2486,"sum":2487,"Ġsell":2488,"Ġnight":2489,"Ġphr":2490,"Ġtheory":2491,"Ġappropri":2492,"Ġfit":2493,"Ġchick":2494,"Ġ+=":2495,"Ġcaus":2496,"bs":2497,".,":2498,"zz":2499,"Ġcat":2500,"Ġfall":2501,"point":2502,"Ġinstructions":2503,"lt":2504,"Ġdream":2505,"ury":2506,"Ġdoesn":2507,"Ġrelevant":2508,"Ġdu":2509,"Ġnamed":2510,"no":2511,"xa":2512,"Ġaffect":2513,"Ġbit":2514,"right":2515,"Ġtim":2516,"Ġcate":2517,"Ġrecord":2518,"Ġpair":2519,"Ġhigher":2520,"case":2521,"Ġanim":2522,"Ġconsist":2523,"++":2524,"mal":2525,"Ġtree":2526,"Ġintern":2527,"Ġvirt":2528,"miss":2529,"round":2530,"Ġheat":2531,"Ġmajor":2532,"Ġclos":2533,"Ġrow":2534,"Ġgold":2535,"Ġcomprehens":2536,"vent":2537,"18":2538,"node":2539,"size":2540,"Ġenh":2541,"Ġdetailed":2542,"Ġcampaign":2543,"Ġingredients":2544,"cy":2545,"cal":2546,"Ġrequirements":2547,"Ġfinancial":2548,"Ġbutton":2549,"Ġextract":2550,"pass":2551,"Ġprogress":2552,"Ġgreater":2553,"Ġemb":2554,"icro":2555,"Ġrate":2556,"cer":2557,"Ġround":2558,"Ġprogramming":2559,"Ġengage":2560,"html":2561,"Ġnature":2562,"Ġclient":2563,"Ġmatrix":2564,"Ġdouble":2565,"top":2566,"chan":2567,"Ġenough":2568,"Ġsetting":2569,"ðŁ":2570,"Ġfive":2571,"Ġ17":2572,"rist":2573,"inking":2574,"Ġsolutions":2575,"Ġwhite":2576,"Ġcred":2577,"Ġimportance":2578,"Ġmaterials":2579,"Ġprompt":2580,"reng":2581,"Ġinnov":2582,"Ġfrequ":2583,"Ġtrust":2584,"ring":2585,"Ġthing":2586,"ude":2587,"Ġdoing":2588,"Ġclick":2589,"Ġgraph":2590,"fact":2591,"Ġcard":2592,"ither":2593,"Ġegg":2594,"cd":2595,"Ġweight":2596,"Ġclose":2597,"board":2598,"Ġprobability":2599,"your":2600,"Ġnames":2601,"Ġbuilt":2602,"Ġstrategy":2603,"14":2604,"iverse":2605,"Ġdesigned":2606,"Ġpractice":2607,"Ġfeedback":2608,"Ġconclusion":2609,"Ġevidence":2610,"Ġreflect":2611,"Ġload":2612,"Ġprior":2613,"Ġmaximum":2614,"test":2615,"Ġer":2616,"Ġexce":2617,"Ġsequence":2618,"reen":2619,"Ġperfect":2620,"100":2621,"ta":2622,"ump":2623,"Ġadded":2624,"Ġdecision":2625,"imately":2626,"Ġanalyze":2627,"ĠÃ":2628,"Ġeff":2629,"Ġgames":2630,"Ġbooks":2631,"Ġlive":2632,"rie":2633,"Ġcop":2634,"unch":2635,"Ġoffers":2636,"?\"":2637,"Ġwa":2638,"clude":2639,"Ġinteract":2640,"Ġblue":2641,"Ġpolit":2642,"][":2643,"Ġcra":2644,"Ġfail":2645,"Ġstreng":2646,"pping":2647,"Ġapply":2648,"Ġmodify":2649,"Ġgetting":2650,"Ġexpected":2651,"Ġpredict":2652,"Ġconditions":2653,"Ġeffort":2654,"Ġprin":2655,"Ġbring":2656,"Ġsorted":2657,"Ġdom":2658,"Ġsust":2659,"Ġsmart":2660,"Ġtag":2661,"Ġgot":2662,"Ġseg":2663,"Ġmechan":2664,"Ġdefin":2665,"Ġaccept":2666,"Ġmi":2667,"augh":2668,"Ġsymbol":2669,"Ġsmo":2670,"ounter":2671,"Ġexperiences":2672,"Ġupdated":2673,"Ġ<<":2674,"Ġattention":2675,"Ġfactor":2676,"json":2677,"itch":2678,"Ġchoice":2679,"but":2680,"Ġ24":2681,"Ġuniverse":2682,"append":2683,"Ñģ":2684,"Ġyourself":2685,"Ġframe":2686,"Ġdest":2687,"Ġstack":2688,"Ġadapt":2689,"sole":2690,"Ġ[]":2691,"Ġrunning":2692,"Ġsustain":2693,"element":2694,"Ġri":2695,"Ġill":2696,"Ġenter":2697,"Ġformula":2698,"gn":2699,"Ġtreat":2700,"Ġprivate":2701,"hing":2702,"Ġcorrespon":2703,"Ġmulti":2704,"Ġmembers":2705,"Ġcannot":2706,"Ġaspect":2707,"product":2708,"Ġfru":2709,"Ġsend":2710,"Ġprotect":2711,"Ġappropriate":2712,"Ġvo":2713,"Ġfeature":2714,"Ġprevent":2715,"Ġlimit":2716,"Ġsle":2717,"Ġbow":2718,"Ġitem":2719,"0000":2720,"Ġsummary":2721,"Ð½":2722,"Ġcountry":2723,"Ġcomputer":2724,"Ġrelationships":2725,"Ġfire":2726,"oph":2727,"Ġvisit":2728,"isf":2729,"Ġstarting":2730,"Ġmemory":2731,"Ġconnection":2732,"Ġmodern":2733,"arc":2734,"ister":2735,"aps":2736,"Ġgeneral":2737,"Ġbelow":2738,"Ġpurch":2739,"Ġissue":2740,"Ġsimpl":2741,"Ġthird":2742,"Ġaltern":2743,"number":2744,"Ġcenter":2745,"Ġpurpose":2746,"ison":2747,"Ġvariety":2748,"Ġculture":2749,"Ġpromot":2750,"Ġglobal":2751,"Ġvirtual":2752,"ln":2753,"oms":2754,"ows":2755,"Ġupon":2756,"selves":2757,"valid":2758,"Ġwritten":2759,"Ġlevels":2760,"Ġevalu":2761,"$,":2762,"Ġhor":2763,"Ġsides":2764,"Ġdone":2765,"yes":2766,"Ġage":2767,"Ġlisten":2768,"Ġearly":2769,"Ġinvolves":2770,"ging":2771,"Ġsubst":2772,"iddle":2773,"loc":2774,"oes":2775,"tra":2776,"osp":2777,"Ġeffects":2778,"Ġvar":2779,"Ġarch":2780,"Ġ40":2781,"Ġestab":2782,"Ġcases":2783,"Ġmen":2784,"Ġbelieve":2785,"Ġcultural":2786,"Ġutil":2787,"!\"":2788,"Ġlat":2789,"Ġchat":2790,"Ġblock":2791,"Ġquantum":2792,"Ġareas":2793,"ended":2794,"Ġintegers":2795,"off":2796,"Ġproblems":2797,"']":2798,"17":2799,"actions":2800,"Ġaccur":2801,"['":2802,"ued":2803,"Ġhost":2804,"Ġstop":2805,"Ġpow":2806,"Ġhold":2807,"Ġgroups":2808,"Ġsil":2809,"Ġdyn":2810,"Ġvi":2811,"Ġann":2812,"Ġprep":2813,"cccccccc":2814,"Ġprofessional":2815,"ocol":2816,"Ġplant":2817,"Ġsalt":2818,"Ġnavig":2819,"gar":2820,"Ġpan":2821,"Ġimages":2822,"Ġdistance":2823,"Ġbehind":2824,"Ġtou":2825,"query":2826,"Ġcollect":2827,"Ġground":2828,"Ġinside":2829,"Ġbud":2830,"uted":2831,"Ġconsole":2832,"ially":2833,"weet":2834,"aim":2835,"ls":2836,"mer":2837,"Ġrom":2838,"izations":2839,"Ġnone":2840,"Ġgoogle":2841,"Ġ\\*":2842,"ields":2843,"Ġmodels":2844,"Ġjourney":2845,"60":2846,"Ġbir":2847,"any":2848,"Ġled":2849,"Ġleav":2850,"Ġdistrib":2851,"dom":2852,"Ġsays":2853,"Ġsources":2854,"Ġamerican":2855,"Ġfix":2856,"Ġusage":2857,"Ġcam":2858,"isions":2859,"Ġyet":2860,"Ġstra":2861,"def":2862,"hello":2863,"Ġgovernment":2864,"title":2865,"ÑĢ":2866,"iter":2867,"Ġtemperature":2868,"Ġcomprehensive":2869,"code":2870,"Ġseason":2871,"Ġju":2872,"Ġtransport":2873,"has":2874,"lab":2875,"Ġhalf":2876,"($":2877,"af":2878,"emp":2879,"ung":2880,"max":2881,"ties":2882,"ension":2883,"Ġfoot":2884,"Ġhom":2885,"Ġstd":2886,"34":2887,"ams":2888,"enced":2889,"Ġconfig":2890,"24":2891,"Ġpattern":2892,"body":2893,"des":2894,"fl":2895,"Ġfresh":2896,"Ġtowards":2897,"Ġyoung":2898,"ender":2899,"Ġpowerful":2900,"Ġdescription":2901,"coming":2902,"matrix":2903,"Ġfavor":2904,"uration":2905,"Ġstarted":2906,"Ġinsp":2907,"Ġcosts":2908,"Ġeffectively":2909,"Ġfel":2910,"Ġrepe":2911,"idered":2912,"Ġleading":2913,"Ġdraw":2914,"Ġemployees":2915,"uff":2916,"Ġsql":2917,"Ġrules":2918,"Ġsau":2919,"ttp":2920,"Ġmovie":2921,"othes":2922,"Ġaccom":2923,"aken":2924,"Ġpractices":2925,"sql":2926,"ana":2927,"Ġseems":2928,"Ġcolle":2929,"Ġconsidered":2930,"Ġthroughout":2931,"Ġassist":2932,"ley":2933,"rap":2934,"Ġcomes":2935,"Ġjohn":2936,"Ġeveryone":2937,"ĠĠĊ":2938,"ili":2939,"Ġmanag":2940,"Ġparts":2941,"Ġhyp":2942,"Ġdemon":2943,"token":2944,"Ġeducation":2945,"Ġbalance":2946,"Ġeuro":2947,"ork":2948,"arg":2949,"Ġsou":2950,"Ġheight":2951,"ache":2952,"ression":2953,"Ġphil":2954,"ball":2955,"db":2956,"ym":2957,"Ġactually":2958,"enge":2959,"fort":2960,"rel":2961,"Ġfib":2962,"Ġbad":2963,"roll":2964,"angle":2965,"Ð¾Ð":2966,"Ġbasic":2967,"Ġ_":2968,"Ġseem":2969,"Ġattrib":2970,"Ġdiscover":2971,"Ġhistor":2972,"ched":2973,"https":2974,"Ġwood":2975,"Ġliving":2976,"Ġwants":2977,"Ġobser":2978,"Ġobjects":2979,"friend":2980,"aches":2981,"ferences":2982,"like":2983,"Ġsatisf":2984,"Ġchicken":2985,"Ġtoken":2986,"Ġrecurs":2987,"Ġchecks":2988,"Ġstress":2989,"Ġdemand":2990,"Ġsection":2991,"Ġaim":2992,"ored":2993,"Ġserve":2994,"Ġproduction":2995,"Ġexplanation":2996,"80":2997,"inct":2998,"Ġnear":2999,"ellig":3000,"Ġthank":3001,"Ġlaw":3002,"Ġwatch":3003,"ything":3004,"Ġguid":3005,"Ġmentioned":3006,"64":3007,"post":3008,"Ġcause":3009,"aced":3010,"ival":3011,"32":3012,"run":3013,"Ġpercent":3014,"Ġentire":3015,"Ġcurrently":3016,"Ġwarm":3017,"Ġrepl":3018,"Ġgain":3019,"Ġwhole":3020,"Ġtesting":3021,"qrt":3022,"Ġparent":3023,"Ġmillion":3024,"Ġexact":3025,"Ġbackground":3026,"Ġfilm":3027,"jav":3028,"ulate":3029,"write":3030,"Ġfig":3031,"Ġgar":3032,"Ġpoem":3033,"Ġcomponent":3034,"Ġstrength":3035,"plo":3036,"Ġmotiv":3037,"},":3038,"Ġmis":3039,"icks":3040,"Ġeither":3041,"acy":3042,"Ġcreative":3043,"Ġrepresents":3044,"Ġtables":3045,"Ġregard":3046,"Ġhealthy":3047,"care":3048,"cast":3049,"use":3050,"thing":3051,"mess":3052,"Ġlines":3053,"Ġargument":3054,"item":3055,"Ġanc":3056,"Ġremov":3057,"Ã¤":3058,"Ġmicro":3059,"eds":3060,"Ġplot":3061,"Ġcapital":3062,"onac":3063,"Ġitself":3064,"ession":3065,"Ġassum":3066,"Ġhttps":3067,"Ġmodule":3068,"Ġsmaller":3069,"Ġdynam":3070,"Ġdemonstr":3071,"bre":3072,"ged":3073,"Ġcompare":3074,"class":3075,"Ġimm":3076,"Ġcomponents":3077,"Ġuniversity":3078,"[\"":3079,"down":3080,"wise":3081,"enue":3082,"Ġult":3083,"Ġheav":3084,"Ġmatter":3085,"Ġsleep":3086,"len":3087,"Ġ...":3088,"oper":3089,"Ġclimate":3090,"Ġsafe":3091,"Ġmedical":3092,"itable":3093,"istics":3094,"Ġthemselves":3095,"iver":3096,"lete":3097,"Ġlater":3098,"change":3099,"ipment":3100,"Ġspir":3101,"Ġeverything":3102,"Ġmoment":3103,"hemat":3104,"Ġvoid":3105,"Ġ###":3106,"Ġprem":3107,"Ġoperations":3108,"df":3109,"Ġinstance":3110,"Ġtypically":3111,"println":3112,"ero":3113,"term":3114,"Ġdesired":3115,"Ġmilk":3116,"Ġok":3117,"Ġlives":3118,"Ġapplications":3119,"Ġexisting":3120,"free":3121,"Ġmath":3122,"url":3123,"terns":3124,"Ġcolors":3125,"Ġphone":3126,"Ġmob":3127,"Ġdivid":3128,"Ġlos":3129,"Ġpolicy":3130,"Ġsauce":3131,"yle":3132,"hest":3133,"Ġintellig":3134,"Ġretrie":3135,"Ġparameter":3136,"itation":3137,"Ġeasier":3138,"Ġsituation":3139,"know":3140,"ux":3141,"Ġprec":3142,"Ġstandard":3143,"Ġassociated":3144,"onacci":3145,"Ġful":3146,"math":3147,"Ġlin":3148,"Ġconse":3149,"Ġrock":3150,"Ġengaging":3151,"true":3152,"Ġquickly":3153,"Ġ!=":3154,"ably":3155,"Ġincreased":3156,"40":3157,"Ġaware":3158,"Ġcand":3159,"Ġmid":3160,"Ġmist":3161,"Ġseen":3162,"Ġanything":3163,"encies":3164,"Ġstudent":3165,"Ġtur":3166,"itude":3167,"lying":3168,"Ġdefault":3169,"Ġdepending":3170,"start":3171,"Ġund":3172,"Ġtrain":3173,"equ":3174,"mt":3175,"reg":3176,"Ġpick":3177,"Ġrequires":3178,"Ġparticip":3179,"];":3180,"itor":3181,"Ġoutside":3182,"Ġfinding":3183,"Ġextra":3184,"Ġslow":3185,"Ġconstruct":3186,"hers":3187,"ĠâĢ¢":3188,"Ġemphas":3189,"Ġcross":3190,"Ġmap":3191,"Ġtopic":3192,"aur":3193,"sort":3194,"Ġpsy":3195,"Ġban":3196,"Ġnumer":3197,"Ġindic":3198,"Ġplayers":3199,"Ġchoices":3200,"Ġstatus":3201,"Ġsounds":3202,"Ġprimary":3203,"99":3204,"bon":3205,"most":3206,"Ġmass":3207,"Ġ\"\"":3208,"Ġfre":3209,"Ġexpert":3210,"numbers":3211,"Ġcorresponding":3212,"main":3213,"apan":3214,"Ġwrong":3215,"Ġreading":3216,"Ġjavascript":3217,")\\":3218,"ply":3219,"inter":3220,"Ġamaz":3221,"Ġshows":3222,"Ġdivis":3223,"Ġones":3224,"Ġalph":3225,"abilities":3226,"astic":3227,"Ġuseful":3228,"Ġhash":3229,"Ġmathemat":3230,"Ġdirectly":3231,"Ġessay":3232,"Ġremaining":3233,"Ġcirc":3234,"mar":3235,"Ġfra":3236,"asons":3237,"Ġgerm":3238,"Ġparameters":3239,"22":3240,"eness":3241,"Ġecho":3242,"Ġdeg":3243,"une":3244,"prime":3245,"Ġparticularly":3246,"fol":3247,"wa":3248,"itect":3249,"aily":3250,"Ġexperiment":3251,"score":3252,"Ġ---":3253,"Ġpepper":3254,"Ġchallenge":3255,"iful":3256,"ption":3257,"Ġenvironmental":3258,"Ġlayer":3259,"iet":3260,"lished":3261,"Ġden":3262,"Ġ60":3263,"dis":3264,"dict":3265,"Ġweather":3266,"Ġinsert":3267,"Ġgir":3268,"Ġblog":3269,"Ġactivity":3270,"Ġpiece":3271,"Ġcondition":3272,"Ġtalk":3273,"Ġscene":3274,"Ġele":3275,"Ġreality":3276,"uth":3277,"overed":3278,"Ġactive":3279,"Ġeasily":3280,"racy":3281,"Ġanimals":3282,"dat":3283,"Ġactions":3284,"Ġfill":3285,"Ġband":3286,"Ġstrugg":3287,"conf":3288,"script":3289,"Ġconstant":3290,"Ġvector":3291,"mark":3292,"Ġcm":3293,"lebr":3294,"Ġep":3295,"Ġjapan":3296,"email":3297,"Ġspaces":3298,"Ġvariables":3299,"Ġstudies":3300,"Ġpatterns":3301,"Ġstatic":3302,"Ġpropos":3303,"ops":3304,"Ġcheese":3305,"ologies":3306,"200":3307,"ians":3308,"Ġmer":3309,"Ġblo":3310,"Ġreact":3311,"Ġexcept":3312,"Ġcommit":3313,"Ġsets":3314,"Ġdirectory":3315,"Ġarchitect":3316,"Ġeurope":3317,"field":3318,"tings":3319,"ying":3320,"odes":3321,"Ġking":3322,"Ġapple":3323,"ensive":3324,"Ġtrend":3325,"Ġbrother":3326,"Ġancient":3327,"Ġfeet":3328,"Ġspecif":3329,"Ġfollows":3330,"Ġhighly":3331,"Ġespec":3332,"map":3333,"Ġthinking":3334,"Ġcool":3335,"iency":3336,"Ġfields":3337,"Ġdaily":3338,"left":3339,"Ġcreates":3340,"Ġdise":3341,"Ġfront":3342,"illed":3343,"Ġstream":3344,"Ġshape":3345,"Ġprocesses":3346,"Ġcareer":3347,"Ġtook":3348,"Ġexc":3349,"Ġradi":3350,"Ġdecisions":3351,"current":3352,"Ġemotional":3353,"tes":3354,"Ġpal":3355,"Ġeat":3356,"Ġexpand":3357,"Ġsky":3358,"icing":3359,"Ġ->":3360,"Ġremind":3361,"Ġsaf":3362,"Ġpassword":3363,"Ġcountries":3364,"Ġbrain":3365,"Ġ:=":3366,"Ġstorage":3367,"Ġwoman":3368,"13":3369,"etimes":3370,"Ġconver":3371,"Ġoffic":3372,"Ġsimply":3373,"Ġhappy":3374,"Ġproperty":3375,"Ġcelebr":3376,"ny":3377,"Ġforward":3378,"())":3379,"Ġnews":3380,"Ġplaying":3381,"Ġinvolved":3382,"Ġseparate":3383,"flow":3384,"Ġadvant":3385,"lib":3386,"att":3387,"Ġmount":3388,"iling":3389,"Ġscreen":3390,"Ġthanks":3391,"Ġoffice":3392,"Ġprograms":3393,"Ġpun":3394,"Ġbinary":3395,"Ġpromote":3396,"Ġphrase":3397,"Ġbowl":3398,"find":3399,"Ġpark":3400,"format":3401,"Ġhelpful":3402,"Ġetc":3403,"gory":3404,"Ġcub":3405,"artment":3406,"Ġclaim":3407,"Ġhumans":3408,"Ġenhance":3409,"Ġstage":3410,"amb":3411,"Ġconflic":3412,"Ġprojects":3413,"Ġdevice":3414,"Ġbrown":3415,"Ġespecially":3416,"23":3417,"ara":3418,"quences":3419,"Ġspeak":3420,"Ġemerg":3421,"Ġdepend":3422,"Ġcogn":3423,"Ġnan":3424,"abet":3425,"ffer":3426,"Ġrevenue":3427,"Ġdevices":3428,"da":3429,"rate":3430,"aset":3431,"Ġspecified":3432,"Ġadvanced":3433,"erv":3434,"Ġflex":3435,"Ġproduce":3436,"Ġletters":3437,"Ġfilter":3438,"Ġlarger":3439,"Ġincreasing":3440,"Ġplatforms":3441,"where":3442,"Ã³":3443,"Ġ__":3444,"Ġlimited":3445,"Ġbri":3446,"Ġdie":3447,"Ġhab":3448,"request":3449,"Ġadmin":3450,"Ġappl":3451,"Ġsuggestions":3452,"[]":3453,"Ġcover":3454,"Ġlonger":3455,"Ġappear":3456,"agram":3457,"Ġoutcomes":3458,"Ġspread":3459,"ought":3460,"ÃŃ":3461,"Ġapprox":3462,"Ġbeautiful":3463,"ox":3464,"inf":3465,"Ġstri":3466,"Ġflavor":3467,"Ġplanning":3468,"ios":3469,"Ġdim":3470,"Ġdeal":3471,"rench":3472,"Ġdidn":3473,"Ġsometimes":3474,"Ġcolumns":3475,"what":3476,"Ġencourage":3477,"Ġgives":3478,"Ġprocessing":3479,"Ġfeeling":3480,"Ġorganizations":3481,"Ġsafety":3482,"frame":3483,"part":3484,"Ġreverse":3485,"Ġlov":3486,"Ġunc":3487,"Ġachie":3488,"Ġconduct":3489,"Ġcontact":3490,"works":3491,"medi":3492,"Ġtaken":3493,"Ġwest":3494,"Ġsentiment":3495,"Ġrefers":3496,"struction":3497,"Ġemotions":3498,"Ġscenari":3499,"Ġsample":3500,"tom":3501,"xx":3502,"Ġpu":3503,"Ġdry":3504,"olute":3505,"Ġchrist":3506,"Ġboard":3507,"build":3508,"stat":3509,"adem":3510,"Ġdeliver":3511,"Ġarguments":3512,"Ġpolitical":3513,"Ġalternative":3514,"bb":3515,"icles":3516,"Ġlooks":3517,"output":3518,"ured":3519,"Ġparag":3520,"Ġpopulation":3521,"yal":3522,"Ġrich":3523,"Ġappre":3524,"Ġactual":3525,"Ġhighlight":3526,"Ġvegetables":3527,"Ġ####":3528,"aly":3529,"Ġinternational":3530,"Ġbudget":3531,"gra":3532,"sqrt":3533,"win":3534,"Ġdam":3535,"():":3536,"address":3537,"Ġhighest":3538,"Ġexercise":3539,"vey":3540,"Ġstars":3541,"Ġsport":3542,"Ġ<=":3543,"Ġresulting":3544,"Ġplayed":3545,"world":3546,"create":3547,"known":3548,"page":3549,"hent":3550,"Ġmel":3551,"Ġhandling":3552,"Ġproperties":3553,"Ġalex":3554,"Ġyog":3555,"Ġ{\\":3556,"Ġchem":3557,"Ġsentences":3558,"Ġallowing":3559,"Ġeyes":3560,"select":3561,"comp":3562,"trans":3563,"cos":3564,"Ġslic":3565,"Ġcontainer":3566,"Ġreducing":3567,"password":3568,"label":3569,"Ġsite":3570,"Ġhon":3571,"Ġchann":3572,"Ġleave":3573,"Ġdish":3574,"next":3575,"Ġsummar":3576,"Ġerrors":3577,"Ð»":3578,"Ġciv":3579,"Ġbur":3580,"ĠĠĠĠĠĠ":3581,"Ġloss":3582,"^^":3583,"Ġbound":3584,"Ġroad":3585,"Ġscientific":3586,"ev":3587,"Ġearn":3588,"Ġnp":3589,"ample":3590,"iring":3591,"ford":3592,"ordin":3593,"Ġagree":3594,"Ġfamous":3595,"Ġopportunities":3596,"function":3597,"Ġ22":3598,"Ġbutter":3599,"Ġdesp":3600,"Ġregion":3601,"Ġjourn":3602,"Ġlinked":3603,"Ġabsolute":3604,"Ġfibonacci":3605,"friendly":3606,"Ġappreci":3607,"'d":3608,"uable":3609,"Ġcov":3610,"plic":3611,"Ġrod":3612,"Ġdistinct":3613,"Ġinfluence":3614,"Ġreceive":3615,"ares":3616,"pers":3617,"with":3618,"Ġten":3619,"Ġmiddle":3620,"Ġvary":3621,"inte":3622,"Ġprices":3623,"year":3624,"za":3625,"Ġip":3626,"ested":3627,"Ġrates":3628,"Ġroll":3629,"api":3630,"Ġassess":3631,"Ġevaluate":3632,"aw":3633,"Ġsix":3634,"raint":3635,"Ġbecomes":3636,"rome":3637,"Ġteach":3638,"Ġcruc":3639,"Ġmessages":3640,"Ġiterate":3641,"Ġcritical":3642,"Ġder":3643,"Ġhello":3644,"Ġpartners":3645,"Ġplanet":3646,"Ġmiles":3647,"Ġwalk":3648,"www":3649,"Ġsmooth":3650,"rics":3651,"uous":3652,"ils":3653,"Ġcomfort":3654,"Ġcream":3655,"Ġsociety":3656,"Ġequipment":3657,"Ġho":3658,"enter":3659,"Ġnational":3660,"ifications":3661,"Ġincluded":3662,"Ġforms":3663,"Ġcontaining":3664,"Ġpresident":3665,"include":3666,"rep":3667,"Ġteams":3668,"Ġsurface":3669,"Ġinteresting":3670,"Ġeconomic":3671,"Ġcategor":3672,"Ġintelligence":3673,"Ġcooking":3674,"Ġadvert":3675,"Ġunit":3676,"Ġlargest":3677,"Ġsignificance":3678,"Ġvoice":3679,"Ġpet":3680,"urt":3681,"Ġ});":3682,"Ġgenerated":3683,"Ġbecame":3684,"Ġinsights":3685,"Ġensuring":3686,"Ġphilos":3687,".)":3688,"Ġsand":3689,"Ġodd":3690,"Ġgas":3691,"Ġtruth":3692,"Ġreli":3693,"Ġeggs":3694,"zy":3695,"que":3696,"Ġcloud":3697,"arian":3698,"Ġsustainable":3699,"Ġtransportation":3700,"table":3701,"itory":3702,"Ġeth":3703,"Ġhair":3704,"Ġsheet":3705,"Ġdeveloped":3706,"Ġlongest":3707,"Ġsecure":3708,"Ġparagraph":3709,"ned":3710,"Ġ]":3711,"Ġjac":3712,"Ġworth":3713,"Ġsupply":3714,"Ġrestaur":3715,"Ġfruit":3716,"Ġsouth":3717,"';":3718,"ĠÂ":3719,"Ġwild":3720,"Ġign":3721,"Ġsugar":3722,"epend":3723,"Ġhands":3724,"Ġlocated":3725,"Ġwomen":3726,"Ġcrucial":3727,"Ġded":3728,"Ġusually":3729,"iveness":3730,"Ġshap":3731,"Ġcontract":3732,"Ġcognitive":3733,"Ġgard":3734,"eline":3735,"ried":3736,"Ġchina":3737,"Ġclients":3738,"Ġmobile":3739,"ban":3740,"host":3741,"Ġwent":3742,"Ġbon":3743,"ada":3744,"Ġ[\"":3745,"Ġrecip":3746,"Ġdetail":3747,"Ġoperation":3748,"Ġorigin":3749,"Ġschedu":3750,"pret":3751,"Ġforce":3752,"oll":3753,"Ġraise":3754,"Ġparty":3755,"ai":3756,"Ġcatch":3757,"Ġwall":3758,"Ġpen":3759,"Ġbreath":3760,"color":3761,"Ġrecommendations":3762,"Ġpackage":3763,"}$.":3764,"you":3765,"Ġfu":3766,"Ġthrow":3767,"ains":3768,"anger":3769,"fully":3770,"Ġleaders":3771,"Ġidentity":3772,"ography":3773,"message":3774,"td":3775,"ype":3776,"yond":3777,"Ġapples":3778,"Ġmaybe":3779,"Ġdeveloping":3780,"Ġefficiency":3781,"Ġfacebook":3782,"Ġĉĉ":3783,"Ġprotein":3784,"Ġrecursive":3785,"Ã¡":3786,"arily":3787,"osed":3788,"Ġinterface":3789,"Ġacadem":3790,"Ġpsych":3791,"status":3792,"eks":3793,"Ġspecies":3794,"group":3795,"Ġcopy":3796,"Ġhistorical":3797,"bit":3798,"rs":3799,"Ġwidth":3800,"Ġpush":3801,"Ġdrop":3802,"Ġyork":3803,"Ġmedium":3804,"Ġcombination":3805,"Ġmonths":3806,"Ġrese":3807,"Ġrespect":3808,"Ġspr":3809,"connect":3810,"enses":3811,"ifying":3812,"Ġfavorite":3813,"~~":3814,"init":3815,"oses":3816,"Ġvaluable":3817,"Ġsitu":3818,"Ġrisks":3819,"mission":3820,"button":3821,"sent":3822,"split":3823,"Ġter":3824,"Ġcame":3825,"icious":3826,"etch":3827,"Ġstre":3828,"phone":3829,"Ġinstit":3830,"ĠâĪ":3831,"Ġpieces":3832,"ses":3833,"Ġbill":3834,"Ġcontra":3835,"Ġinternet":3836,"65":3837,"Ġhi":3838,"Ġlif":3839,"ulations":3840,"Ġnovel":3841,"Ġinvestment":3842,"Ġoptimize":3843,"----------------":3844,"Ġdeath":3845,"Ġspo":3846,"zzle":3847,"Ġpriorit":3848,"Ġsplit":3849,"Ġrelease":3850,"Ġbeyond":3851,"iff":3852,"Ġ80":3853,"ancing":3854,"Ġfocused":3855,"Ġbeauty":3856,"Ġfailure":3857,"lines":3858,"Ġtour":3859,"Ġaust":3860,"het":3861,"Ġfather":3862,"Ġrecent":3863,"Ġcentral":3864,"Ġbroad":3865,"Ġfelt":3866,"erate":3867,"Ġrule":3868,"Ġdifferences":3869,"Ġattract":3870,"Ġconstraint":3871,"Ġforest":3872,"Ġmoon":3873,"Ġspirit":3874,"Ġtab":3875,"atives":3876,"etime":3877,"Ġdisk":3878,"Ġcollection":3879,"Ġorganization":3880,"Ġvolume":3881,"Ġsubstit":3882,"Ġspecifically":3883,"yl":3884,"Ġfight":3885,"Ġscal":3886,"Ġinvent":3887,"Ġsegment":3888,"hand":3889,"ony":3890,"Ġfrench":3891,"unk":3892,"Ġjud":3893,"Ġshared":3894,"Ġcompar":3895,"force":3896,"Ġlists":3897,"Ġrelig":3898,"values":3899,"Ġsaying":3900,"Ġwonder":3901,"Ġestablish":3902,"Ġreasons":3903,"Ġvac":3904,"elling":3905,"Ġotherwise":3906,"Ġdefined":3907,"Ġjacob":3908,"Ġtaste":3909,"inner":3910,"Ġfair":3911,"Ġmal":3912,"Ġmac":3913,"Ġchocol":3914,"client":3915,"Ġveh":3916,"Ġmeasures":3917,"Ġlabel":3918,"Ġlate":3919,"Ġknew":3920,"xture":3921,"Ġkeys":3922,"Ġaccurate":3923,"70":3924,"Ġcounter":3925,"Ġinj":3926,"Ġcommunities":3927,"wrong":3928,"content":3929,"hol":3930,"ok":3931,"rem":3932,"Ġol":3933,"Ġmother":3934,"Ġrect":3935,"Ġconv":3936,"Ġalign":3937,"ached":3938,"Ġhelping":3939,"Ġprints":3940,"Ġpractical":3941,"Ġstories":3942,"Ġsecret":3943,"cra":3944,"pack":3945,"Ġir":3946,"Ġmut":3947,"Ġlack":3948,"rael":3949,"Ġsea":3950,"conds":3951,"Ġtrac":3952,"Ġsurv":3953,"Ġinterested":3954,")^":3955,"eria":3956,"ename":3957,"iced":3958,"room":3959,"Ġdecl":3960,"Ġrespective":3961,"Ġtraffic":3962,"Ġanyone":3963,"rene":3964,"Ġcombine":3965,"aff":3966,"cip":3967,"Ġ)":3968,"Ġcast":3969,"era":3970,"Ġdead":3971,"Ġauthent":3972,"ternal":3973,"Ġthoughts":3974,"model":3975,"Ġengagement":3976,"Ġmixture":3977,"Ġbrief":3978,"}$":3979,"Ġwaste":3980,"roid":3981,"iday":3982,"cket":3983,"Ġdetect":3984,"Ġgrand":3985,"Ġsurround":3986,"Ġencrypt":3987,"poon":3988,"Ġconcepts":3989,"Ġthera":3990,"Ġvan":3991,"users":3992,"().":3993,"Ġtrees":3994,"Ġchallenging":3995,"oh":3996,"Ġsch":3997,"level":3998,"uting":3999,"Ġ21":4000,"Ġcompared":4001,"Ġnothing":4002,"Ġdownload":4003,"Ġfrequency":4004,"='":4005,"org":4006,"oration":4007,"Ġfish":4008,"Ġtrade":4009,"tag":4010,"Ġmit":4011,"Ġbegan":4012,"Ġplants":4013,"Ġadds":4014,"Ġprefer":4015,"Ġcarbon":4016,"Ġanalyt":4017,"ino":4018,"Ġisrael":4019,"Ġmodified":4020,"Ġcontribute":4021,"====":4022,"((":4023,"33":4024,"cut":4025,"hy":4026,"Ġdivide":4027,"Ġglass":4028,"Ð°Ð":4029,"Ġ,":4030,"Ġcos":4031,"Ġstarts":4032,"Ġperspective":4033,"Ġsaw":4034,"Ġminimum":4035,"Ġcombined":4036,"rupt":4037,"Ġhypothes":4038,"Ġgarden":4039,"Ġchocolate":4040,"45":4041,"uten":4042,"Ġjose":4043,"Ġrefer":4044,"ashion":4045,"Ġdiet":4046,"Ġinvolve":4047,"Ġalgorithms":4048,"Ġrequests":4049,"idden":4050,"Ġopportunity":4051,"more":4052,"width":4053,"Ġcou":4054,"Ġice":4055,"learn":4056,"ots":4057,"izer":4058,"ĠĠĠĠĠĠĠĠĠĠĠĠĠ":4059,"Ġdepends":4060,"Ġinvestig":4061,"Ġfloat":4062,"={":4063,"bt":4064,"Ñĥ":4065,"Ġcore":4066,"Ġpand":4067,"Ġii":4068,"Ġfa":4069,"Ġstar":4070,"image":4071,"Ġenable":4072,"Ġreceived":4073,"Ġelectric":4074,"hood":4075,"she":4076,"uracy":4077,"usive":4078,"inese":4079,"pes":4080,"Ġpict":4081,"ado":4082,"Ġatm":4083,"Ġgoes":4084,"Ġgiving":4085,"Ġbrit":4086,"process":4087,"Ġintroduction":4088,"Ġaspects":4089,"Ġtouch":4090,"75":4091,"ded":4092,"lim":4093,"uary":4094,"Ġtone":4095},"merges":["Ġ t","Ġ a","i n","h e","r e","Ġt he","Ġ Ġ","Ġ s","o n","Ġ c","e r","a t","o r","e n","Ġ w","e s","Ġ p","Ġ i","Ġ f","n d","Ġ o","in g","Ġ m","Ġ b","o u","a l","a n","Ġ in","Ġ d","i t","Ġt o","l e","Ġa nd","a r","i on","Ġo f","s t","e d","i c","r o","ĠĠ ĠĠ","Ġt h","Ġ e","Ġ h","c t","en t","Ġ n","Ġ re","Ġ l","i s","a s","Ġ Ċ","o m","e t","v e","Ġ g","Ġi s","Ġ y","Ġ u","i l","u t","Ġs t","Ġy ou","r a","Ġf or","s e","o w","c e","i d","c h","ĠĠ Ġ","at ion","o t","l y","a m","Ġb e","o l","Ġth at","u r","Ġ on","i g","Ġ \"","Ġp ro","Ġi t","i m","er s","at e","it h","Ġa n","Ġw h","Ġc on","u m","u l","Ġ v","Ġ he","Ġw ith","a y","o d","e l","i r","Ġc an","Ġ 1","Ġa s","q u","Ġe x","g e","Ġ =","a d","i f","Ġ or","k e","es s","Ġa l","Ġd e","Ġc om","a b","v er","Ġs u","es t","r i","Ġth is","Ġa re","p p","m ent","t h","i st","u n","Ġw e","l d","Ġc h","Ġ (","m p","Ġ `","p e","Ġu s","ĠĠĠĠ ĠĠĠ","o re","a c","Ġ 2","i ve","u s","Ġn e","Ġ -","re s","Ġs e","Ġh a","it y","ct ion","Ġ r","t er","he r","a in","o p","i v","n t","Ġ en","Ġ j","Ġ le","or t","Ġs h","an t","ig h","il l","o s","Ġa d","o c","ro m","ou ld","Ġyou r","p t","a ge","Ġm e","i es","p l","Ġb y","Ġi f","ar t","Ġw or","Ġm a","i z","Ġf rom","i al","' s","u d","ou t","Ġin t","Ġp l","Ġcom p","u st","f e","u re","Ġn ot","a nd","Ġa b","en d","Ġt e","Ġd o","al l","in e","igh t","Ġi mp","Ġh ow","Ġa t","0 0","Ġ k","e m","Ġwh at","Ġ 3","Ġha ve","â Ģ","u e","id e","Ġa r","c c","a ct","in d","Ġthe ir","in t","f or","om e","o g","am e","i le","Ġw he","a g","p er","ul t","as e","Ġcon t","Ġc l","c l","ab le","a re","i e","Ġt r","Ġ qu","ion s","en ce","o st","Ġc re","Ġu n","Ġst r","ou r","l ow","for m","a ch","d u","Ġre s","i p","k ing","im e","Ġ {","ic al","k s","Ġthe y","Ġn um","Ġw as","as s","ĠĠĠĠ ĠĠĠĠ","Ġ $","Ġa pp","t her","Ġw ill","Ġad d","Ġm ore","o o","b er","a st","Ġp r","x t","e p","Ġs c","Ġ` `","it e","ar d","ic h","Ġl i","Ġ`` `","Ġo ut","ou nd","ation s","at ed","an ce","Ġu se","ac k","an s","Ġf un","p ut","Ġg o","g h","ur n","re d","Ġb ut","Ġ 4","od e","ic e","Ġm an","a v","at a","ig n","Ġh as","Ġs o","e ct","Ġs p","el l","Ġ }","Ġre t","Ġpro v","b le","Ġ ro","Ġab out","Ġ |","Ġ 5","Ġs ome","Ġwh ich","Ġf e","on g","ar y","ou s","Ġfun ction","on e","Ġv al","ou gh","Ġd is","Ġhe l","\" ,","it ion","ou nt","a ce","Ġs pe","Ġu p","( )","ve l","s o","st r","an g","Ġm y","t e","Ġal l","- -","Ġne w","Ġon e","Ġli ke","Ġo ther","Ġd es","ent s","Ġe v","re nt","a p","or y","u al","or d","c on","Ġhel p","res s","Ġ #","Ġt ra","if ic","Ġthe re","d e","Ġus ing","Ġp er","ra m","Ġ +","p le","a il","Ġp e","Ġret urn","Ġ <","l o","Ġe ach","c es","Ġthe m","cl ud","le ment","g et","Ġs y","i re","Ġd if","Ġcom m","Ġt ime","Ġc ol","Ġ 0","Ġal so","r y","Ġa cc","Ġsh ould","Ġan y","or s","a k","w e","\\ _","ĠĠĠĠ ĠĠĠĠĠĠĠ","re n","Ġex am","n ow","âĢ Ļ","ing s","Ġp re","Ġd ata","Ġs er","Ġwhe n","Ġ '","Ġo ver","c om","Ġwh o","f f",") ;","l es","c k","u b","Ġ [","Ġspe c","Ġl ist","Ġne ed","iz e","Ġ *","Ġa m","Ġthe se","Ġin clud","Ġb et","at es","y th","j ect","Ġde f","Ġint o","Ġma ke","Ġw r","Ġ \\","o ve","at ing","le d","Ġnum ber","Ġhe re","Ġw ould","en s","ar i","Ġ ke","l ic","Ġc ode","il d","al ly","Ġcre ate","re e","c ess","ar k","at er","Ġb u","Ġ /","ay s","Ġm od","Ġpro du","Ġt w","Ġimp ort","a u","et h","p h","Ġ ra","Ġg et","i a","Ġp art","Ġcon s","Ġdif fe","Ġs et","Ġin d","n e","Ġh is","Ġf ir","Ġsu ch","Ġch ar","u p","oo k","an ge","yth on","Ġp os","Ġth an","nd er","op le","Ġk now","o v","Ġp h","f ul","ar s","Ġin ter","at h","Ġ 6","Ġst art","o se","Ġc al","Ġpe ople","Ġit s","d s","Ġf ol","Ġg en","ic k","Ġfir st","as ed","st em","at ive","Ġc ould","Ġpro g","Ġf ind","i ent","f t","Ġre c","y s","Ġ x","er t","Ġs he","f fe","Ġpr int","Ġc he","Ġfor m","ar ch","Ġwhe re","Ġin c","Ġp o","Ġn o","l l","Ġthe n","ar n","Ġprov ide","Ġs m",". \"","le ct","Ġg r","il ity","Ġg re","Ġo ur","Ġre m","Ġsu b","ro w","Ġhe r","( \"","is h","Ġu nder","Ġof f","ic t","Ġp ers","Ġe m","Ġs ol","Ġst ep","en g","r ough","er r","Ġd et","Ġtw o","Ġsy stem","Ġstr ing","Ġus ed",") :","Ġfol low","Ġin v","Ġm ay","\" :","Ġb l","Ġc o","Ġre l","ri b","it ies","Ġs im","Ġin form","a ke","s w","Ġex pl","Ġwor k","Ġdo es","er m","Ġc ur","u es","t y","i ble","is e","Ġw ant","en c","Ġex per","ic es","Ġdiffe rent","ot h","Ġs a","ri pt","Ġa ct","ra ct","d er","Ġprog ram","Ġexam ple","Ġa g","Ġre qu","Ġtr ans","Ġt y","Ġle t","Ġv ari","ra y","i ence","Ġin put","p on","ust om",") .","Ġth rough","it s","se l","Ġgen er","o b","Ġas s","er y","Ġbe c","ic s","i b","u res","Ġan sw","Ġ1 0","Ġg iv","Ġo b","ment s","Ġo pt","Ġval ue","t ing","al s","Ġint e","Ġre p","Ġwh ile","g g","vel op","we en","Ġinform ation","ol og","Ġ2 0","b ers","Ġprodu ct","pe ct","Ġe l","if y","Ġbet ween","Ġte xt","Ġcl ass","in ess","Ġc ustom","t he","' t","ce pt","Ġi m","ffe ct","he s","Ġres ult","Ġpers on","Ġchar act","Ġf in","Ġqu est","Ġte ch","Ġb us","Ġde velop","Ġansw er","Ġm in","Ġs ent","Ġ âĢ","Ġser v","Ġ 8","n ame","Ġa f","Ġpl ay","ul ar","in k","Ġpro cess","Ġ 7","Ġprov id","ent ial","o od","Ġst ud","le ase","Ġin st",") ,","Ġman y","Ġi d","i qu","f ore","Ġc or","Ġex p","Ġf l","Ġtech n","au se","Ġar t","Ġm at","ĠĠĠĠ Ġ","e x","p r","Ġe lement","Ġm ed","Ġwor ld","Ġcomp le","ow er","Ġha nd","Ġwr ite","p s","eth od","Ġon ly","Ġus er","Ġen g","ur ing","s c","v al","ow n","Ġde c","Ġy e","Ġsu pp","Ġh igh","Ġ ent","Ġre g","Ġs oc","Ġp ar","Ġwe re","Ġe ver","ie w","Ġm ark","Ġm ost","Ġle arn","al ity","Ġbus iness","Ġh ad","Ġw ay","Ġj ust","i ous","Ġm ain","Ġs um","Ġm ethod","ction s",". .","Ġe mp","st and","Ġ/ /","Ġgiv en","sel f","ut ion","n s","t o","Ġp lease","t s","Ġbe en","re ad","an c","ad e","Ġg u","Ġf ile","-- --","Ġsu re","Ġke y","ag es","if e","Ġadd ition","Ġs ign","Ġb ack","Ġe qu","Ġspec ific","w or","Ġa c","Ġb oth","Ġbu ild","Ġp ass","Ġl oc","Ġat t","i an","Ġw ell","Ġen d","Ġn ame","i ed","i x","Ġout put","el f","Ġpl an","Ġin s","t en","Ġaf ter","c ul","Ġre ad","Ġs k","in es","g y","Ġa ut","Ġh um","Ġcomp an","Ġdes ign","Ġdis c","Ġunder stand","Ġc r","Ġf il","Ġb r","Ġl ong",") )","Ġb o","al th","w n","Ġse e","Ġb ased","w ord","ut e","at ure","g r","g an","n ess","Ġs elf","Ġre f","Ġp ython","Ġgo od","Ġc ount","Ġal low","u ct","= \"","Ġdes c","it ive","Ġe ffect","Ġcomm un","Ġev en","a pp","iz ed","h ip","err or","Ġp ot","v ing","Ġmark et","Ġl o","iv id","Ġn ow","he d","Ġ z","Ġd ay","m s","is s","Ġwe b","Ġg ra","eng th","Ġa v","Ġan al","Ġwh y","str ing","Ġ 9","p ro","Ġinclud e","Ġt est","g er","Ġbec ause","n um","Ġm ult","Ġde p","i el","Ġsm all","ol d","Ġv is","w ard","Ġfollow ing","Ġst ate","Ġb re","Ġre v","Ġapp ro","b r","l ine","Ġres pon","Ġf act","Ġd ist","Ġle ad","n ing","Ġhe alth","Ġo p","e f","oc k","Ġsh ow","pl es","Ġm on","Ġcur rent","Ġmod el","Ġar ray","Ġcont ain","Ġc le","Ġex t","Ġnum bers","Ġp ub","Ġad v","n er","Ġi de","Ġbe ing","Ġb est","u c","Ġc ar","on s","Ġb ra","Ġl ife","il y","Ġl a","00 0","t al","Ġsent ence","iqu e","Ġt ake","ĠĠĠĠĠĠĠĠ ĠĠĠĠĠĠĠ","Ġin f","p ython","ou p","a x","Ġp ol","Ġid ent","Ġtr y","Ġf r","Ġs al","Ġcon st","Ġr un","Ġpos s","Ġcal cul","Ġgre at","' ,","Ġm u","Ġ ed","Ġcon f","ul l","ur al","Ġimp ro","Ġp res","Ġpo int","Ġwor d","Ġwor ds","Ġte am","at her","id er","Ġ ve","Ġd id","Ġimp lement","im es","Ġpro ble","Ġl ar","Ġper form","\" )","s s","ang u","Ġinc re","m at","Ġquest ion","Ġo wn","Ġme an","Ġc a","Ġm us","et s","Ġp a","Ġbe fore","Ġsupp ort","Ġm ess","ot her","Ġen s","in s","Ġto p","m on","Ġj o","1 0","ab ility","ri end","Ġre al","w are","Ġsoc ial","Ġd own","ak es","as h","Ġinclud ing","m l","p ar","b e","d ata","i er","c ur","Ġs ame","olog y","e ver","b o","ation al","Ġor der","Ġfe el","Ġp ower","v es","ical ly","Ġf ound","Ġs om","Ġto tal","Ġp at","enc y","Ġever y","Ġc ost","Ġw ater","a king","t t","as k","Ġob ject","Ġ1 9","Ġs ur","Ġg ive","Ġt re","ion al","Ġl angu","v ed","2 0","Ġd uring","se arch","Ġl ess","b y","Ġe as","Ġd ire","Ġme m","iz ation","it ed","pl ay","Ġpro f","Ġr ange","Ġd i","ff ic","Ġc ase","Ġm ade","Ġr ight","Ġpot ential","Ġwith out","Ġbe l","Ġval ues","ert ain","g or","Ġl ine","Ġa p","Ġo per","oc us","am es","i o","Ġcomple x","Ġm et","d ay","Ġty p","ivid ual","r ic","cc ess","re st","Ġacc ess","Ġc ent","d ate","Ġ= =","Ġe ar","Ġman age","Ġd on","Ġimp act","Ġind ividual","Ġt able","Ġhow ever","y e","i red","re ct","Ġp ur","Ġty pe","et y","as es","Ġcompan y","Ġf ocus","Ġimport ant","Ġche ck","Ġp ost","um ent","l ist","Ġst ory","Ġm ent","Ġwr it","Ġre du","ch o","gg est","en ces","Ġcharact er","en se","Ġc all","Ġto ol","Ġf am","ren ce","Ġpub lic","Ġsu ccess","Ġtr ue","g in","Ġsu ggest","Ġc are","Ġp op","t on","Ġcont ent","ab les","Ġen c","Ġor gan","Ġp ri","s on","Ġelement s","con d","ver se","Ġt ell","Ġexam ples","\" .","in ed",", \"","iv es","Ġop en","Ġm ight","o ver","at or","Ġy es","Ġbet ter","in ing","com m","ter n","âĢ Ŀ","ie ve","it al","Ġg ame","Ġcons ider","Ġb en","Ġexpl ain","t ed","Ġke ep","Ġma x","Ġp ract","Ġel se","Ġposs ible","Ġsign ific","ĠâĢ ľ","Ġhum an","Ġle vel","od y","Ġcont in","em s","Ġd at","Ġ1 2","ar get","Ġse arch","Ġexper ience","end ing","Ġpl at","Ġd el","Ġst ore","Ġch o","k en","Ġth ose","< /","Ġpro ject","Ġha pp","Ġlangu age","Ġpart ic","Ġcharact ers","Ġl ength","Ġch all","v ir","wor k","iel d","as on","Ġne xt","re am","c ed","ual ly","t r","Ġl og","Ġg row","Ġstr ate","Ġus ers","Ġun ique","Ġte mp","a ut","Ġag ain","Ġma king","Ġch ang","ut es","at ures","Ġh ist","Ġt erm","am p","Ġs ort","im ate","Ġth ree","Ġpre v","er n","Ġbe h","Ġf riend","vir on","Ġd ig","Ġ &","Ġmu ch","Ġar ound","Ġto o","Ġproble m","Ġl ast","Ġpl ace","Ġm ust","in ce","ist s","Ġplat form","Ġh im","Ġt ri","is m","Ġc ult","_ _","m e","Ġth ink","Ġl ight","e xt","Ġf ood","our ces","Ġapp lic","Ġcom b","Ġwith in","if ied","Ġar g","Ġth ough","Ġrep res","Ġsp ace","p o","Ġcal led","Ġdire ct","o id","Ġan other","l ing","ra c","Ġs ay","Ġu nt","eth ing","Ġdet erm","c i","Ġgr oup","Ġlearn ing","er gy","t ain","w ay","Ġen viron","s h","Ġimpro ve","n ect","Ġens ure","Ġexp ress","l i","Ġpro m","Ġye ars","z e","Ġw ar","Ġsom ething","Ġm ar","Ġinv ol","Ġ Ð","ant s","Ġd iv","Ġof ten","Ġl ook","iv ity","Ġperson al","j o","Ġm ov","Ġmess age","te xt","Ġcor rect","Ġmult ip","ke y","Ġ est","Ġst and","Ġ1 5","Ġcomm on","it le","Ġye ar","s et","Ġc ertain","t le","v en","re t","Ġse cond","Ġsc ript","Ġch ange","Ġpro per","Ġen ergy","gor ith","ail s","Ġ es","l ish","ot e","Ġme ans","us s","Ġ .","t ml","le t","i ents","w ays","p os","our ce","Ġst y","Ġth ings","Ġso ft","Ġb ro","r on","Ġhelp s","ic ation","Ġinv est","Ġc our","Ġal gorith","Ġstart up","Ġre search","nd om","Ġn et","a h","f ile","Ġa ch","u g","Ġcustom er","Ġunt il","Ġfe w","e k","s er","Ġrequ ire","oo king","v ers","ad d","Ġoff er","k es","Ġin it","Ġh our","m ing","Ġident ify","l ess","Ġa ud","Ġst at","Ġ ess","al e","Ġis s","Ġstr uct","' re","Ġn on","Ġl it","e c","str u","q l","Ġeffect ive","it ions","Ġenviron ment","is ion","Ġanal y","u nd","Ġinte rest","Ġt arget","Ġm ove","ra ph","1 2","in al","Ġadd ress","Ġ error","Ġs w","a ir","Ġ :","Ġs ing","Ġsum m","Ġopt im","() ;","Ġvari ous","p y","are d","Ġc ap","Ġs l","pl ace","Ġben ef","ict ion","Ġgener ate","w r","Ġs it","Ġdesc rib","Ġmus ic","re qu","at ch","ro l","in put","Ġor ig","er c","Ġspec ial","Ġv ery","oo ks","( '","] ,","an k","Ġt akes","Ġsignific ant","Ġinf l","ro ss","ne w","at s","el s","Ġl im","d ition","ip s","Ġbuild ing","/ /","Ġlar ge","Ġb ook","ou n","Ġst ill","Ġme as","in ation","Ġopt ions","Ġs ince","n ot","Ġpos itive","Ġdevelop ment","m a","Ġweb s","er ic","ou se","c ount","Ġsa id","Ġcle ar","h or","Ġp ay","Ġto get","Ġtoget her","Ġg od","Ġch ild","ater ial","Ġm il","Ġcon c","ri es","Ġne g","Ġmed ia","Ġab ove","Ġo pp","et er","Ġcon cept","Ġknow n","ver t","Ġr is","ag ing","Ġon ce","i or","Ġcont ext","Ġv ers","ab or","Ġtechn ology","one y","Ġv ide","ill s","b ack","Ġev ent","a ve","Ġd ra","Ġde v","Ġse lect","Ġal ways","Ġh ome","Ġm ind","Ġl ove","id es","Ġunderstand ing",": :","Ġcomp ut","Ġserv ice","val ue","Ġaddition ally","u le","Ġacc ount","ac es","Ġrel ations","m b","Ġcalcul ate","Ġrem ain","o f","ri x","Ġj av","Ġcol um","Ġstud ents","Ġu r","Ġprovid ed","Ġs ize","Ġb ig","Ġhe ad","og n","Ġm aterial","Ġquest ions","Ġg l","Ġcustom ers","Ġbre ak","w s","Ġo cc","Ġare a","Ġserv ices","Ġs ide","Ġdif f","Ġover all","Ġchall eng","Ġle ft","Ġ â","Ġma ch","Ġs qu","il ar","Ġmin utes","ur s","ver age","m in","c he","t ime","Ġapp e","Ġind ust","Ġo ld","Ġph ys","Ġs ound","Ġd ri","ight s","du ct","Ġmultip le","Ġw ays","Ġe ffic","Ġneed s","Ġre d","p ort","Ġpro t","Ġav ail","Ġwor ks","Ġ3 0",": //","Ġt al","Ġemp lo","c ript","Ġ1 00","w h","Ġh y","Ġrelations hip","Ġit er","Ġmarket ing","Ġh ard","Ġrequ est","---- ----","Ð ¾","Ġ >","Ġex pect","Ġin de","cc cc","o pe","on d","Ġus es","Ġcol or","Ġa i","al se","Ġex ist","Ġsol ution","Ġstep s","pr int","a z","c ol","Ġf ur","Ġt imes","Ġse ver","Ġfe atures","ile d","Ġother s","ord ing","Ġre comm","Ġcon nect","Ġallow s","id ence","Ġam ount","Ġj ob","Ġh ig","e ad","iz ing","Ġsoft ware","Ġpar am","Ġinfl u","Ġrespon se","Ġre st","Ġrecomm end","Ġl ay","Ġinit ial","Ġra ndom","mp t","Ġhand le","Ġsh ort","` .","s p","Ġcomm and","oo se","Ġli br","Ġfin ally","im ent","Ġd r","Ġdis play","c le","ys is","Ġf ac","ar r","Ġproduct s","Ġm ot","$ .","# #","ct or","us ion","b u","n et","Ġa ir","5 0","Ġre le","Ġreturn s","Ġt urn","Ġro le","Ġsever al","\\ *","Ġide a","Ġas k","Ġsim ple","Ġc ity","ic le","ent ion","Ġsim ilar","cur ity","Ġalgorith m","c ent","Ġn at","Ġmanage ment","Ġst or","Ġpr ime","Ġlo op","Ġval id","Ġchang es","Ġf ut","Ġc up","ut ions","Ġaddition al","l og","Ġcont rol","ren ces","led ge","' m","Ġb i","le ction","ram e","Ġp ut","Ġab le","Ġem ail","Ġresult s","Ġbra nd","Ġtyp es","ĠĠĠĠĠĠĠĠ ĠĠĠĠĠĠĠĠ","a pe","Ġf ace","Ġprovid es","Ġwebs ite","i pp","ab ase","Ġsome one","m an","Ġl and",".. .","Ġf ree","Ġf ore","as ks","il ities","y n","ar ing","' :","Ġt ask","Ġ1 6","Ġem ot","he ad","Ġrep ort","Ġcre ating","ind ex","Ġdisc uss","he re","us h","av or","Ġhist ory","Ġrepres ent","ul ation","Ġl ow","Ġ1 8","Ġfur ther","Ġn or","Ġle g","Ġacc ording","im al","Ġrev iew","Ġprof ess","id d","tt ps","Ġform at","Ġpres ent","Ġbel ie","p ath","Ġim age","im um","Ġanal ysis","Ġm oney","res pon","m y","Ġcom e","Ġsc en","Ġinst ead","Ġpro b","Ġcomp on","Ġ %","st er","Ġgo als","Ġloc al","Ġp age","Ġg e","Ġcol l","Ġsystem s","Ã ©","v iew","Ġn ode","Ġse c","Ġstrate g","Ġb as","Ġapplic ation","Ġd ays","id ent","c ing","Ġd oc","Ġre ce","Ġqu ant","Ġre ally","Ġnot e","Ġwe ek","Ġqu ality","str uct","Ġact iv","Ġp ain","Ġa ction","Ġavail able","Ġma kes","Ġfut ure","Ġw in","Ġexper i","d ing","cho ol","Ġ< /","Ġj our","Ġindividual s","p or","l and","os s","if t","Ġne cess","Ġach ieve","Ġappro ach","Ġhour s","b al","he l","Ġde m","ir d","Ġch oose","g o",". \\","Ġv iew","Ġfact ors","Ġf ield","Ġmon th","Ġdeterm ine","Ġe lect","Ġup d","Ġs ense","Ġint ro","Ġon line","Ġeas y","Ġres ources","t ers","Ġv er","Ġstr ong","ard s","c o","a iled","Ð °","Ġs n","Ġs at","() `","m ed","Ġ- -","Ġfam ily","Ġst ates","Ġp ath","Ġad j","Ġperform ance","Ġvide o","Ð µ","is hed","Ġcommun ity","ne y","Ġmain tain","Ġbusiness es","Ġbeh av","Ġtrans l","Ġma g","er ing","Ġd ate","Ġf ar","Ġf alse","Ġsh are","Ġcomp et","Ġsty le","c hes","it ing","Ġwor king","Ġaut hor","ic ult","Ġbe gin","Ġcont rib","Ġcr it","Ġed uc","Ġinde x","\" >","Ġsing le","Ġw al","Ġp ie","Ġfriend s","Ġ2 00","Ġknow ledge","Ġb ody","ic ate","Ġneg ative","Ġp ort","ward s","m od","Ġw ind","Ġsu n","iv ed","Ġsk ills","p ri","Ġc e","Ġwhe ther","Ġsuccess ful","Ġpop ular","ist ic","Ġc amp","er g","Ġm o","Ġvari able","Ġp red","an n","ou ra","Ġst e","Ġinc or","Ġstruct ure","} {","Ġd ou","Ġmethod s","Ġnat ural","f ace","Ġb al","Ġp ast","Ġin stru","o ot","i um","Ġc ook","us er","Ġdet ails","r al","Ġs chool","em ber","d o","Ġpartic ular","le x","iv ers","Ġ= >","Ġdiff icult","` ,","f er","Ġu t","fe ct","con t","1 1","Ġsub ject","2 5","Ġam eric","an ces","Ġse curity","Ġbenef its","on t","Ġbec ome","Ġf lo","Ġinte gr","Ġt itle","Ġcour se","Ġc y","er ature","b ased","Ġear th","um e","i pe","pp er","Ġtra ining","Ġpass age","Ġhe art","Ġex ec","res h","Ġle ast","Ġagain st","Ġdat abase","Ġl ab","Ġev ents","Ġtool s","u ation","Ġ ĉ","ĠĠĠĠ Ċ","iqu es","Ġv ir","Ġincre ase","a ult","Ġrespon s","Ġmach ine","a ction","Ġp ack","Ġstate ment","Ġide as","qu ence","s y","Ġaud ience","1 6","g en","ate ly","ar ray","ty pe","Ġstud y","Ġ ing","Ġcomple te","] )","= =","Ġmean ing","Ġcle an","p ose","ific ation","Ġvis ual","- >","Ġorig inal","lo ad","Ġf low","Ġbo x","Ġre ason","Ġne ver","Ġgo ver","Ġro om","Ġsol ve","Ġn ull","end s","1 5","Ġm iss","Ġen jo","Ġt asks","in ary","ort un","Ġtra ck","Ġpos ition","Ġh ar","e red","r u","n g","Ġv ol","' ve","b l","Ġtechn iques","Ġa verage","Ġl ooking","Ġme et","1 9","n ers","Ġemplo ye","Ġdesc ript","Ġredu ce","h n","Ġb ase","Ġde ep","Ġap i","Ġindust ry","f rac","Ġs am","u ck","Ġt ips","b ook","Ġf und","Ġpoint s","w w","Ġ err","or n","read y","Ġb ar","Ġse par","Ġqu ick","in a","Ġw om","Ġl ot","Ġtra dition","as ing","Ġst ay","com es","Ġcre ated","v ant","fe rence","Ġbl ack","a pt","Ġha ving","Ġar r","Ġf ull","Ġh ot","Ġ1 4","Ġgo ing","ro p","Ġvers ion","d i","am ed","op t","Ġsc ience","Ġwrit ing","Ġt aking","Ġf ast","Ġpri v","Ġnet work","Ġh ol","Ġl ink","Ġsu per","ill ion","ib ility","Ġgover n","Ġenjo y","on es","word s","Ġw on","Ġf our","Ġj son","Ġtra vel","Ġcontain s","Ġchalleng es","Ġintro du","c ome","Ġcon ne","th is","pp ed","Ġcontin ue","Ġplay er","Ġstrateg ies","3 0","Ñ Ĥ","og raph","Ġsc ient","Ġcompan ies","Ġs av","Ġh ouse","Ġlike ly","es e","Ġm ix","Ġinte ger","Ġb ot","Ġthere fore","Ġdig ital","an e","Ġd iction","Ġterm s","Ġnecess ary","ĠĠĠĠĠĠĠĠ Ġ","Ġche c","Ġexpl ore","Ġlibr ary","s ide","Ġe t","are nt","Ġ} ,","Ġav oid","\" ;","il t","Ġ2 5","Ġk ind","Ġeng lish","Ġprev ious","Ġc ir","Ġqu ery","Ġreg ular","Ġm om","Ġl ower","Ġfe ed","Ġe u","g ers","Ġre place","Ġph ot","et ers","con om","Ġtry ing","Ġa way","Ġcommun ication","Ġh tml","Ġcomplex ity","Ġg lo","Ġan g","b ot","n a","Ġbe aut","Ġgre en","\\* \\*","Ð ¸","* *","ol ution","Ġsa ve","anc ed","Ġal ready","l ength","Ġc ell","Ġca pt","ul es","Ġdiffe rence","cept ion","Ġ1 3","Ġpr ice","Ġpa per","Ġeffic ient","' ll","s ub","Ġtrans form","Ġequ al","p re","oc i","Ġequ ation","Ġur l","d itions","Ġve get","Ġd ue","Ġn ut","Ġ$ \\","Ġenc oura","Ġadj ust","he ns","Ġopt ion","Ġac ross","i res","pe c","Ġfil es","Ġbu y","Ġ20 2","Ġimplement ation","Ġing red","] .","Ġev al","Ġto day","Ġ1 1","Ġdescrib e","i od","Ġin n","f il","Ġs ource","Ġn av","iz es","ou d","Ġcertain ly","' )","is es","m it","iv ing","Ġform ul","Ġemp ty","Ġmat ch","Ġaut om","ar ies","id s","Ġrem ove","l ight","Ġ !","d d","res ult","al ing","pl it","Ġsqu are","ast e","Ġrequ ired","Ġprovid ing","Ġment al","Ġmeas ure","Ġass oci",": \\","d iv","Ġpr im","Ġser ies","Ġass ign","Ġgrow th","Ġb row","Ġfin al","Ġart icle","bo x","ord er","g es","Ġthough t","Ġcolum n","as cript","Ġrel ated","pect ive","Ġbehav ior","s v","Ġh ope","Ġal ong","Ġde b","Ġment ion","f s","Ġup date","Ġ @","Ġe conom","Ġrec ipe","Ġhapp en","Ġopp ortun","Ġris k","i k","Ġpro te","Ġro ot","s u","Ġun ivers","Ġdoc ument","Ġr out","Ġspe ed","Ġam ong","Ġeng ine","Ġdiction ary","ent ly","Ġser ver","r ation","Ġc ut","Ġinclud es","Ġab s","or ies","it es","Ġrec ogn","Ġess ential","is ed","ffe e","j or","Ġp ress","Ġh al","Ġneed ed","Ġfin anc","\" );","Ġincor por","Ġinst all","Ġlit tle","Ġjav a","Ġo il","ou ps","ic y","Ġs ens","Ġfunction s","Ġiss ues","c re","at ors","Ġcon vert","um ents","Ġexpress ion","Ġsc ore","Ġgu ide","gr ound","Ġactiv ities","j s","Ġl en","ĠâĢ ĵ","Ġre ach","f un","Ġgo al","Ġj e","Ġdef ine","âĢ Ķ","Ġocc ur","Ġd ark","st ep","Ġcon vers","Ġdo g","is ing","ch ar","Ġ5 0","Ġ* *","Ġs ong","Ġw ide","Ġex erc","Ġloc ation","ĠĠĠĠĠĠĠĠ ĠĠĠĠĠĠĠĠĠĠĠ","Ġcons um","mb ol","a ign","Ġun ited","Ġsc he","i ety","am ent","Ġqu e","Ġper iod","Ġrem ember","Ġtradition al","or ing","at ic","id th","Ġab ility","ry pt","m et","u gg","Ġcon cl","Ġcomp re","\" ]","Ġan t","og le","te mp","Ġlet ter","Ġchild ren","Ġco ffee","he n","Ġcoll abor","Ġ ?","Ġ q","in st","Ġadd ing","Ġim ag","l er","Ġm or","Ġb at","ac ks","Ġexpl an","Ġsal es","Ġphys ical","olog ical","g est","Ġb all","Ġit ems","Ġstr ings","r t","Ġr ather","s um","Ġs ell","Ġn ight","Ġph r","Ġthe ory","Ġappro pri","Ġf it","Ġch ick","Ġ+ =","Ġca us","b s",". ,","z z","Ġc at","Ġf all","po int","Ġinstru ctions","l t","Ġd ream","ur y","Ġdoes n","Ġrele vant","Ġd u","Ġn amed","n o","x a","Ġa ffect","Ġb it","r ight","Ġt im","Ġc ate","Ġrec ord","Ġpa ir","Ġhig her","c ase","Ġan im","Ġcons ist","+ +","m al","Ġt ree","Ġinter n","Ġvir t","m iss","r ound","Ġhe at","Ġma jor","Ġcl os","Ġro w","Ġg old","Ġcompre hens","v ent","1 8","n ode","s ize","Ġen h","Ġdet ailed","Ġcamp aign","Ġingred ients","c y","c al","Ġrequire ments","Ġfinanc ial","Ġbut ton","Ġext ract","p ass","Ġprog ress","Ġgre ater","Ġem b","ic ro","Ġr ate","c er","Ġr ound","Ġprogram ming","Ġeng age","h tml","Ġn ature","Ġcl ient","Ġmat rix","Ġdou ble","t op","ch an","Ġen ough","Ġset ting","ð Ł","Ġf ive","Ġ1 7","ri st","in king","Ġsol utions","Ġwh ite","Ġcre d","Ġimport ance","Ġmaterial s","Ġpro mpt","ren g","Ġinn ov","Ġf requ","Ġtr ust","r ing","Ġth ing","ud e","Ġdo ing","Ġcl ick","Ġgra ph","f act","Ġc ard","it her","Ġe gg","c d","Ġwe ight","Ġcl ose","bo ard","Ġprob ability","y our","Ġn ames","Ġbu ilt","Ġstrate gy","1 4","i verse","Ġdesign ed","Ġpract ice","Ġfeed back","Ġconcl usion","Ġev idence","Ġref lect","Ġlo ad","Ġpri or","Ġmax imum","t est","Ġ er","Ġex ce","Ġse quence","re en","Ġper fect","1 00","t a","um p","Ġadd ed","Ġdec ision","imate ly","Ġanaly ze","Ġ Ã","Ġe ff","Ġg ames","Ġb ooks","Ġl ive","ri e","Ġc op","un ch","Ġoff ers","? \"","Ġw a","clud e","Ġinter act","Ġbl ue","Ġpol it","] [","Ġc ra","Ġf ail","Ġst reng","pp ing","Ġapp ly","Ġmod ify","Ġget ting","Ġexpect ed","Ġpred ict","Ġcon ditions","Ġeff ort","Ġpr in","Ġbr ing","Ġsort ed","Ġd om","Ġsu st","Ġsm art","Ġt ag","Ġg ot","Ġse g","Ġme chan","Ġdef in","Ġac cept","Ġm i","au gh","Ġsy mbol","Ġsm o","oun ter","Ġexperi ences","Ġupd ated","Ġ< <","Ġatt ention","Ġfact or","j son","it ch","Ġcho ice","b ut","Ġ2 4","Ġun iverse","app end","Ñ ģ","Ġyour self","Ġf rame","Ġd est","Ġst ack","Ġad apt","so le","Ġ[ ]","Ġrun ning","Ġsust ain","e lement","Ġ ri","Ġi ll","Ġent er","Ġformul a","g n","Ġtre at","Ġpriv ate","h ing","Ġcor respon","Ġmult i","Ġmem bers","Ġcan not","Ġas pect","pro duct","Ġfr u","Ġs end","Ġprot ect","Ġappropri ate","Ġv o","Ġfe ature","Ġprev ent","Ġlim it","Ġs le","Ġb ow","Ġit em","00 00","Ġsumm ary","Ð ½","Ġcount ry","Ġcomput er","Ġrelationship s","Ġf ire","op h","Ġvis it","is f","Ġstart ing","Ġmem ory","Ġconne ction","Ġmod ern","ar c","ist er","ap s","Ġgener al","Ġbe low","Ġpur ch","Ġiss ue","Ġsim pl","Ġth ird","Ġal tern","num ber","Ġcent er","Ġpur pose","is on","Ġvari ety","Ġcult ure","Ġprom ot","Ġglo bal","Ġvirt ual","l n","om s","ow s","Ġup on","sel ves","val id","Ġwrit ten","Ġlevel s","Ġeval u","$ ,","Ġh or","Ġs ides","Ġd one","y es","Ġa ge","Ġlist en","Ġear ly","Ġinvol ves","g ing","Ġsub st","idd le","l oc","o es","t ra","os p","Ġeffect s","Ġv ar","Ġar ch","Ġ4 0","Ġest ab","Ġc ases","Ġm en","Ġbel ieve","Ġcult ural","Ġut il","! \"","Ġl at","Ġch at","Ġbl ock","Ġquant um","Ġare as","end ed","Ġinte gers","o ff","Ġproble ms","' ]","1 7","a ctions","Ġacc ur","[ '","u ed","Ġh ost","Ġst op","Ġp ow","Ġh old","Ġgr oups","Ġs il","Ġd yn","Ġv i","Ġan n","Ġpre p","cccc cccc","Ġprofess ional","oc ol","Ġpl ant","Ġsal t","Ġnav ig","g ar","Ġp an","Ġim ages","Ġdist ance","Ġbeh ind","Ġt ou","qu ery","Ġcol lect","Ġgr ound","Ġins ide","Ġb ud","ut ed","Ġcon sole","ial ly","we et","a im","l s","m er","Ġ rom","iz ations","Ġn one","Ġgo ogle","Ġ\\ *","iel ds","Ġmodel s","Ġjour ney","6 0","Ġb ir","an y","Ġle d","Ġle av","Ġdist rib","d om","Ġs ays","Ġs ources","Ġameric an","Ġf ix","Ġus age","Ġc am","is ions","Ġy et","Ġst ra","de f","hel lo","Ġgovern ment","t itle","Ñ Ģ","it er","Ġtemp erature","Ġcomprehens ive","c ode","Ġse ason","Ġj u","Ġtrans port","h as","l ab","Ġhal f","( $","a f","e mp","un g","m ax","t ies","ens ion","Ġf oot","Ġh om","Ġst d","3 4","am s","enc ed","Ġconf ig","2 4","Ġpat tern","b ody","d es","f l","Ġf resh","Ġto wards","Ġyou ng","end er","Ġpower ful","Ġdescript ion","com ing","mat rix","Ġf avor","ur ation","Ġstart ed","Ġins p","Ġcost s","Ġeffective ly","Ġf el","Ġre pe","ide red","Ġlead ing","Ġdra w","Ġemploye es","u ff","Ġs ql","Ġr ules","Ġs au","tt p","Ġmov ie","ot hes","Ġacc om","ak en","Ġpract ices","s ql","an a","Ġse ems","Ġcol le","Ġcons idered","Ġthrough out","Ġass ist","le y","ra p","Ġcom es","Ġjo hn","Ġevery one","ĠĠ Ċ","il i","Ġman ag","Ġpart s","Ġhy p","Ġde mon","to ken","Ġeduc ation","Ġbal ance","Ġeu ro","or k","ar g","Ġs ou","Ġhe ight","ac he","ress ion","Ġph il","b all","d b","y m","Ġact ually","en ge","f ort","re l","Ġf ib","Ġb ad","ro ll","ang le","Ð¾ Ð","Ġbas ic","Ġ _","Ġse em","Ġatt rib","Ġdisc over","Ġhist or","c hed","h ttps","Ġw ood","Ġl iving","Ġwant s","Ġob ser","Ġobject s","f riend","ac hes","fe rences","li ke","Ġsat isf","Ġchick en","Ġto ken","Ġrec urs","Ġchec ks","Ġst ress","Ġdem and","Ġse ction","Ġa im","ore d","Ġser ve","Ġprodu ction","Ġexplan ation","8 0","in ct","Ġne ar","ell ig","Ġthan k","Ġla w","Ġw atch","yth ing","Ġgu id","Ġmention ed","6 4","p ost","Ġc ause","ac ed","iv al","3 2","r un","Ġper cent","Ġent ire","Ġcurrent ly","Ġwar m","Ġre pl","Ġg ain","Ġwho le","Ġtest ing","q rt","Ġp arent","Ġm illion","Ġex act","Ġback ground","Ġfil m","j av","ul ate","wr ite","Ġf ig","Ġg ar","Ġpo em","Ġcompon ent","Ġstreng th","pl o","Ġmot iv","} ,","Ġm is","ic ks","Ġe ither","ac y","Ġcre ative","Ġrepres ents","Ġt ables","Ġreg ard","Ġhealth y","c are","c ast","u se","th ing","m ess","Ġl ines","Ġarg ument","it em","Ġan c","Ġrem ov","Ã ¤","Ġm icro","ed s","Ġpl ot","Ġcap ital","on ac","Ġit self","ess ion","Ġass um","Ġh ttps","Ġmod ule","Ġsmall er","Ġdyn am","Ġdemon str","b re","g ed","Ġcomp are","cl ass","Ġim m","Ġcompon ents","Ġunivers ity","[ \"","d own","w ise","en ue","Ġu lt","Ġhe av","Ġmat ter","Ġsle ep","l en","Ġ ...","op er","Ġcl imate","Ġsa fe","Ġmed ical","it able","ist ics","Ġthem selves","i ver","le te","Ġl ater","ch ange","ip ment","Ġsp ir","Ġever ything","Ġmom ent","he mat","Ġv oid","Ġ# ##","Ġpre m","Ġoper ations","d f","Ġinst ance","Ġtyp ically","print ln","er o","ter m","Ġdes ired","Ġmil k","Ġo k","Ġl ives","Ġapplic ations","Ġexist ing","f ree","Ġm ath","ur l","ter ns","Ġcol ors","Ġph one","Ġm ob","Ġd ivid","Ġl os","Ġpol icy","Ġsau ce","y le","he st","Ġint ellig","Ġret rie","Ġparam eter","it ation","Ġeas ier","Ġsit uation","k now","u x","Ġpre c","Ġstand ard","Ġassoci ated","onac ci","Ġf ul","m ath","Ġl in","Ġcon se","Ġro ck","Ġeng aging","tr ue","Ġquick ly","Ġ! =","ab ly","Ġincre ased","4 0","Ġa ware","Ġc and","Ġm id","Ġm ist","Ġse en","Ġany thing","enc ies","Ġstud ent","Ġt ur","it ude","ly ing","Ġdef ault","Ġdep ending","st art","Ġu nd","Ġtra in","e qu","m t","re g","Ġp ick","Ġrequ ires","Ġpartic ip","] ;","it or","Ġout side","Ġfind ing","Ġext ra","Ġs low","Ġcon struct","her s","ĠâĢ ¢","Ġemp has","Ġc ross","Ġma p","Ġtop ic","a ur","s ort","Ġp sy","Ġb an","Ġnum er","Ġind ic","Ġplay ers","Ġcho ices","Ġstat us","Ġsound s","Ġprim ary","9 9","b on","m ost","Ġm ass","Ġ\" \"","Ġf re","Ġexper t","num bers","Ġcorrespon ding","m ain","ap an","Ġwr ong","Ġread ing","Ġjav ascript",") \\","p ly","in ter","Ġam az","Ġshow s","Ġdiv is","Ġon es","Ġal ph","ab ilities","ast ic","Ġuse ful","Ġhas h","Ġmat hemat","Ġdirect ly","Ġess ay","Ġremain ing","Ġcir c","m ar","Ġf ra","as ons","Ġg erm","Ġparam eters","2 2","en ess","Ġe cho","Ġde g","un e","pr ime","Ġparticular ly","f ol","w a","ite ct","ail y","Ġexper iment","sc ore","Ġ- --","Ġpe pper","Ġchall enge","if ul","pt ion","Ġenvironment al","Ġlay er","i et","l ished","Ġd en","Ġ6 0","d is","d ict","Ġwe ather","Ġins ert","Ġg ir","Ġbl og","Ġact ivity","Ġpie ce","Ġcon dition","Ġtal k","Ġscen e","Ġe le","Ġre ality","ut h","ove red","Ġact ive","Ġeas ily","rac y","Ġanim als","d at","Ġa ctions","Ġf ill","Ġb and","Ġstr ugg","con f","sc ript","Ġconst ant","Ġve ctor","m ark","Ġc m","le br","Ġe p","Ġj apan","em ail","Ġsp aces","Ġvari ables","Ġstud ies","Ġpat terns","Ġstat ic","Ġpro pos","op s","Ġche ese","olog ies","2 00","i ans","Ġm er","Ġb lo","Ġre act","Ġex cept","Ġcomm it","Ġset s","Ġdirect ory","Ġarch itect","Ġeuro pe","f ield","t ings","y ing","od es","Ġk ing","Ġapp le","ens ive","Ġtre nd","Ġbro ther","Ġanc ient","Ġfe et","Ġspec if","Ġfollow s","Ġhigh ly","Ġes pec","m ap","Ġth inking","Ġco ol","i ency","Ġf ields","Ġd aily","le ft","Ġcre ates","Ġdis e","Ġfr ont","il led","Ġst ream","Ġsh ape","Ġprocess es","Ġcare er","Ġtoo k","Ġex c","Ġra di","Ġdec isions","cur rent","Ġemot ional","t es","Ġp al","Ġe at","Ġexp and","Ġsk y","ic ing","Ġ- >","Ġrem ind","Ġsa f","Ġpass word","Ġcount ries","Ġbra in","Ġ: =","Ġstor age","Ġwom an","1 3","et imes","Ġcon ver","Ġoff ic","Ġsim ply","Ġhapp y","Ġproper ty","Ġce lebr","n y","Ġfor ward","() )","Ġnew s","Ġplay ing","Ġinvol ved","Ġsepar ate","f low","Ġadv ant","l ib","at t","Ġm ount","il ing","Ġsc reen","Ġthan ks","Ġoff ice","Ġprogram s","Ġp un","Ġb inary","Ġprom ote","Ġphr ase","Ġbow l","f ind","Ġp ark","form at","Ġhelp ful","Ġet c","g ory","Ġc ub","art ment","Ġcl aim","Ġhum ans","Ġenh ance","Ġst age","am b","Ġconf lic","Ġproject s","Ġdev ice","Ġbrow n","Ġespec ially","2 3","ar a","qu ences","Ġspe ak","Ġem erg","Ġdep end","Ġc ogn","Ġn an","ab et","ff er","Ġrev enue","Ġdev ices","d a","r ate","as et","Ġspec ified","Ġadv anced","er v","Ġf lex","Ġprodu ce","Ġlet ters","Ġfil ter","Ġlar ger","Ġincre asing","Ġplatform s","w here","Ã ³","Ġ __","Ġlim ited","Ġb ri","Ġd ie","Ġh ab","requ est","Ġad min","Ġapp l","Ġsuggest ions","[ ]","Ġco ver","Ġlong er","Ġappe ar","ag ram","Ġout comes","Ġsp read","ough t","Ã Ń","Ġappro x","Ġbeaut iful","o x","in f","Ġst ri","Ġfl avor","Ġplan ning","i os","Ġd im","Ġde al","ren ch","Ġdid n","Ġsom etimes","Ġcolum ns","wh at","Ġencoura ge","Ġgiv es","Ġprocess ing","Ġfeel ing","Ġorgan izations","Ġsaf ety","f rame","p art","Ġre verse","Ġl ov","Ġun c","Ġach ie","Ġcon duct","Ġcont act","wor ks","med i","Ġt aken","Ġw est","Ġsent iment","Ġref ers","stru ction","Ġemot ions","Ġscen ari","Ġsam ple","t om","x x","Ġp u","Ġd ry","ol ute","Ġch rist","Ġbo ard","bu ild","st at","ad em","Ġdel iver","Ġarg uments","Ġpolit ical","Ġaltern ative","b b","ic les","Ġl ooks","out put","ure d","Ġpar ag","Ġpop ulation","y al","Ġr ich","Ġapp re","Ġact ual","Ġhigh light","Ġveget ables","Ġ### #","al y","Ġintern ational","Ġbud get","g ra","s qrt","w in","Ġd am","() :","add ress","Ġhig hest","Ġexerc ise","ve y","Ġst ars","Ġsp ort","Ġ< =","Ġresult ing","Ġplay ed","wor ld","cre ate","know n","p age","he nt","Ġm el","Ġhand ling","Ġproper ties","Ġa lex","Ġy og","Ġ{ \\","Ġche m","Ġsent ences","Ġallow ing","Ġe yes","se lect","com p","tr ans","c os","Ġs lic","Ġcontain er","Ġredu cing","pass word","lab el","Ġs ite","Ġh on","Ġch ann","Ġle ave","Ġdis h","ne xt","Ġsumm ar","Ġerr ors","Ð »","Ġc iv","Ġb ur","ĠĠĠĠ ĠĠ","Ġl oss","^ ^","Ġb ound","Ġro ad","Ġscient ific","e v","Ġe arn","Ġn p","am ple","ir ing","for d","ord in","Ġag ree","Ġfam ous","Ġopportun ities","fun ction","Ġ2 2","Ġbut ter","Ġdes p","Ġreg ion","Ġjour n","Ġlink ed","Ġabs olute","Ġfib onacci","friend ly","Ġappre ci","' d","u able","Ġc ov","pl ic","Ġro d","Ġdist inct","Ġinflu ence","Ġrece ive","a res","p ers","w ith","Ġt en","Ġm iddle","Ġv ary","int e","Ġpr ices","ye ar","z a","Ġi p","est ed","Ġr ates","Ġro ll","ap i","Ġass ess","Ġevalu ate","a w","Ġs ix","ra int","Ġbe comes","rom e","Ġte ach","Ġcr uc","Ġmess ages","Ġiter ate","Ġcrit ical","Ġd er","Ġhel lo","Ġpart ners","Ġplan et","Ġmil es","Ġwal k","ww w","Ġsmo oth","r ics","u ous","il s","Ġcom fort","Ġcre am","Ġsoc iety","Ġequ ipment","Ġh o","ent er","Ġn ational","ific ations","Ġinclud ed","Ġform s","Ġcontain ing","Ġpres ident","in clude","re p","Ġteam s","Ġsur face","Ġinterest ing","Ġeconom ic","Ġcate gor","Ġintellig ence","Ġc ooking","Ġad vert","Ġun it","Ġlar gest","Ġsignific ance","Ġvo ice","Ġp et","ur t","Ġ} );","Ġgener ated","Ġbec ame","Ġins ights","Ġens uring","Ġphil os",". )","Ġs and","Ġo dd","Ġg as","Ġtr uth","Ġrel i","Ġegg s","z y","qu e","Ġcl oud","ari an","Ġsustain able","Ġtransport ation","t able","it ory","Ġe th","Ġha ir","Ġshe et","Ġdevelop ed","Ġlong est","Ġsec ure","Ġparag raph","n ed","Ġ ]","Ġj ac","Ġwor th","Ġsupp ly","Ġrest aur","Ġfru it","Ġsou th","' ;","Ġ Â","Ġw ild","Ġi gn","Ġsu gar","ep end","Ġhand s","Ġloc ated","Ġwom en","Ġcruc ial","Ġd ed","Ġus ually","iv eness","Ġsh ap","Ġcont ract","Ġcogn itive","Ġg ard","el ine","ri ed","Ġch ina","Ġcl ients","Ġmob ile","b an","h ost","Ġw ent","Ġb on","ad a","Ġ[ \"","Ġrec ip","Ġdet ail","Ġoper ation","Ġorig in","Ġsche du","p ret","Ġfor ce","ol l","Ġra ise","Ġpart y","a i","Ġc atch","Ġw all","Ġp en","Ġbre ath","col or","Ġrecommend ations","Ġpack age","} $.","y ou","Ġf u","Ġth row","ain s","ang er","ful ly","Ġlead ers","Ġident ity","ograph y","mess age","t d","y pe","y ond","Ġapp les","Ġmay be","Ġdevelop ing","Ġeffic iency","Ġface book","Ġĉ ĉ","Ġprote in","Ġrecurs ive","Ã ¡","ar ily","os ed","Ġinter face","Ġac adem","Ġpsy ch","stat us","e ks","Ġspec ies","gr oup","Ġcop y","Ġhistor ical","b it","r s","Ġw idth","Ġp ush","Ġd rop","Ġy ork","Ġmed ium","Ġcomb ination","Ġmonth s","Ġre se","Ġres pect","Ġsp r","con nect","ens es","ify ing","Ġfavor ite","~ ~","in it","os es","Ġval uable","Ġsit u","Ġris ks","miss ion","but ton","s ent","s plit","Ġt er","Ġc ame","ic ious","et ch","Ġst re","ph one","Ġinst it","Ġâ Ī","Ġpie ces","s es","Ġb ill","Ġcont ra","Ġinter net","6 5","Ġh i","Ġl if","ul ations","Ġno vel","Ġinvest ment","Ġoptim ize","-------- --------","Ġde ath","Ġsp o","zz le","Ġprior it","Ġs plit","Ġre lease","Ġbe yond","if f","Ġ8 0","anc ing","Ġfocus ed","Ġbeaut y","Ġfail ure","l ines","Ġt our","Ġa ust","he t","Ġf ather","Ġrec ent","Ġcent ral","Ġbro ad","Ġfel t","er ate","Ġr ule","Ġdiffe rences","Ġatt ract","Ġconst raint","Ġfore st","Ġmo on","Ġspir it","Ġt ab","at ives","et ime","Ġdis k","Ġcol lection","Ġorgan ization","Ġvol ume","Ġsubst it","Ġspecif ically","y l","Ġf ight","Ġsc al","Ġinv ent","Ġseg ment","h and","on y","Ġf rench","un k","Ġj ud","Ġsh ared","Ġcomp ar","for ce","Ġlist s","Ġrel ig","val ues","Ġsay ing","Ġwon der","Ġestab lish","Ġre asons","Ġv ac","ell ing","Ġother wise","Ġdef ined","Ġjac ob","Ġt aste","in ner","Ġf air","Ġm al","Ġm ac","Ġch ocol","cl ient","Ġve h","Ġmeas ures","Ġlab el","Ġl ate","Ġk new","xt ure","Ġke ys","Ġaccur ate","7 0","Ġc ounter","Ġin j","Ġcommun ities","wr ong","cont ent","h ol","o k","re m","Ġo l","Ġm other","Ġre ct","Ġcon v","Ġal ign","ac hed","Ġhelp ing","Ġprint s","Ġpract ical","Ġstor ies","Ġsec ret","c ra","p ack","Ġi r","Ġm ut","Ġl ack","ra el","Ġse a","con ds","Ġtra c","Ġsur v","Ġinterest ed",") ^","er ia","en ame","ic ed","ro om","Ġde cl","Ġres pective","Ġtra ffic","Ġany one","ren e","Ġcomb ine","a ff","c ip","Ġ )","Ġc ast","er a","Ġde ad","Ġaut hent","tern al","Ġthough ts","mod el","Ġengage ment","Ġmi xture","Ġbri ef","} $","Ġw aste","ro id","id ay","ck et","Ġdet ect","Ġgra nd","Ġsur round","Ġenc rypt","po on","Ġconcept s","Ġthe ra","Ġv an","us ers","() .","Ġtre es","Ġchalleng ing","o h","Ġs ch","le vel","ut ing","Ġ2 1","Ġcomp ared","Ġnot hing","Ġdown load","Ġfrequ ency","= '","or g","or ation","Ġf ish","Ġtra de","t ag","Ġm it","Ġbe gan","Ġpl ants","Ġadd s","Ġpre fer","Ġcar bon","Ġanaly t","in o","Ġis rael","Ġmod ified","Ġcontrib ute","== ==","( (","3 3","c ut","h y","Ġdiv ide","Ġgl ass","Ð° Ð","Ġ ,","Ġc os","Ġstart s","Ġpers pective","Ġsa w","Ġmin imum","Ġcomb ined","ru pt","Ġhyp othes","Ġgard en","Ġchocol ate","4 5","ut en","Ġj ose","Ġref er","ash ion","Ġdi et","Ġinvol ve","Ġalgorith ms","Ġrequest s","idd en","Ġopportun ity","m ore","w idth","Ġc ou","Ġi ce","le arn","ot s","iz er","ĠĠĠĠĠĠĠĠ ĠĠĠĠĠ","Ġdep ends","Ġinvest ig","Ġflo at","= {","b t","Ñ ĥ","Ġc ore","Ġp and","Ġi i","Ġf a","Ġst ar","im age","Ġen able","Ġrece ived","Ġelect ric","h ood","s he","u racy","us ive","ines e","p es","Ġp ict","ad o","Ġat m","Ġgo es","Ġgiv ing","Ġbr it","pro cess","Ġintrodu ction","Ġaspect s","Ġtou ch","7 5","d ed","l im","u ary","Ġt one"]}}