{"version":"1.0","truncation":null,"padding":null,"added_tokens":[{"id":0,"content":"<PAD>","single_word":false,"lstrip":false,"rstrip":false,"normalized":false,"special":true},{"id":1,"content":"<BOS>","single_word":false,"lstrip":false,"rstrip":false,"normalized":false,"special":true},{"id":2,"content":"<EOS>","single_word":false,"lstrip":false,"rstrip":false,"normalized":false,"special":true},{"id":3,"content":"<UNK>","single_word":false,"lstrip":false,"rstrip":false,"normalized":false,"special":true},{"id":4,"content":"{","single_word":false,"lstrip":false,"rstrip":false,"normalized":false,"special":true},{"id":5,"content":"}","single_word":false,"lstrip":false,"rstrip":false,"normalized":false,"special":true},{"id":6,"content":"[","single_word":false,"lstrip":false,"rstrip":false,"normalized":false,"special":true},{"id":7,"content":"]","single_word":false,"lstrip":false,"rstrip":false,"normalized":false,"special":true},{"id":8,"content":":","single_word":false,"lstrip":false,"rstrip":false,"normalized":false,"special":true},{"id":9,"content":",","single_word":false,"lstrip":false,"rstrip":false,"normalized":false,"special":true},{"id":10,"content":"\"","single_word":false,"lstrip":false,"rstrip":false,"normalized":false,"special":true},{"id":11,"content":"\n","single_word":false,"lstrip":false,"rstrip":false,"normalized":false,"special":true}],"normalizer":{"type":"Sequence","normalizers":[{"type":"NFC"},{"type":"Lowercase"}]},"pre_tokenizer":{"type":"ByteLevel","add_prefix_space":true,"trim_offsets":true,"use_regex":true},"post_processor":{"type":"TemplateProcessing","single":[{"SpecialToken":{"id":"<BOS>","type_id":0}},{"Sequence":{"id":"A","type_id":0}},{"SpecialToken":{"id":"<EOS>","type_id":0}}],"pair":[{"SpecialToken":{"id":"<BOS>","type_id":0}},{"Sequence":{"id":"A","type_id":0}},{"SpecialToken":{"id":"<EOS>","type_id":0}},{"Sequence":{"id":"B","type_id":1}},{"SpecialToken":{"id":"<EOS>","type_id":1}}],"special_tokens":{"<BOS>":{"id":"<BOS>","ids":[1],"tokens":["<BOS>"]},"<EOS>":{"id":"<EOS>","ids":[2],"tokens":["<EOS>"]}}},"decoder":{"type":"ByteLevel","add_prefix_space":true,"trim_offsets":true,"use_regex":true},"model":{"type":"BPE","dropout":null,"unk_token":null,"continuing_subword_prefix":null,"end_of_word_suffix":null,"fuse_unk":false,"byte_fallback":false,"ignore_merges":false,"vocab":{"<PAD>":0,"<BOS>":1,"<EOS>":2,"<UNK>":3,"{":4,"}":5,"[":6,"]":7,":":8,",":9,"\"":10,"\n":11,"!":12,"#":13,"$":14,"%":15,"&":16,"'":17,"(":18,")":19,"*":20,"+":21,"-":22,".":23,"/":24,"0":25,"1":26,"2":27,"3":28,"4":29,"5":30,"6":31,"7":32,"8":33,"9":34,";":35,"<":36,"=":37,">":38,"?":39,"@":40,"\\":41,"^":42,"_":43,"`":44,"a":45,"b":46,"c":47,"d":48,"e":49,"f":50,"g":51,"h":52,"i":53,"j":54,"k":55,"l":56,"m":57,"n":58,"o":59,"p":60,"q":61,"r":62,"s":63,"t":64,"u":65,"v":66,"w":67,"x":68,"y":69,"z":70,"|":71,"~":72,"¡":73,"¢":74,"£":75,"¤":76,"¥":77,"¦":78,"§":79,"¨":80,"©":81,"ª":82,"«":83,"¬":84,"®":85,"¯":86,"°":87,"±":88,"²":89,"³":90,"´":91,"µ":92,"¶":93,"·":94,"¸":95,"¹":96,"º":97,"»":98,"¼":99,"½":100,"¾":101,"¿":102,"Â":103,"Ã":104,"Ä":105,"Å":106,"Æ":107,"Ç":108,"È":109,"É":110,"Ê":111,"Ë":112,"Ì":113,"Í":114,"Î":115,"Ï":116,"Ð":117,"Ñ":118,"×":119,"Ø":120,"Ù":121,"Ú":122,"Û":123,"à":124,"á":125,"â":126,"ã":127,"ä":128,"å":129,"æ":130,"ç":131,"è":132,"é":133,"ê":134,"ë":135,"ì":136,"í":137,"ï":138,"ð":139,"Ă":140,"ĉ":141,"Ċ":142,"ċ":143,"Ġ":144,"Ģ":145,"ģ":146,"Ĥ":147,"ĥ":148,"Ħ":149,"ħ":150,"Ĩ":151,"ĩ":152,"Ī":153,"ī":154,"Ĭ":155,"ĭ":156,"Į":157,"į":158,"İ":159,"ı":160,"Ĳ":161,"ĳ":162,"Ĵ":163,"ĵ":164,"Ķ":165,"ķ":166,"ĸ":167,"Ĺ":168,"ĺ":169,"Ļ":170,"ļ":171,"Ľ":172,"ľ":173,"Ŀ":174,"ŀ":175,"Ł":176,"ł":177,"Ń":178,"Ġt":179,"Ġa":180,"he":181,"in":182,"Ġthe":183,"re":184,"Ġs":185,"on":186,"ĠĠ":187,"Ġc":188,"at":189,"er":190,"Ġw":191,"Ġo":192,"nd":193,"Ġi":194,"es":195,"Ġf":196,"ou":197,"Ġp":198,"en":199,"or":200,"Ġm":201,"Ġb":202,"ing":203,"Ġand":204,"Ġd":205,"an":206,"al":207,"Ġto":208,"Ġin":209,"it":210,"Ġof":211,"le":212,"Ġh":213,"ar":214,"Ġth":215,"is":216,"ed":217,"ion":218,"Ġn":219,"Ġy":220,"ic":221,"Ġe":222,"ro":223,"as":224,"Ġg":225,"Ġl":226,"ĠĠĠĠ":227,"Ġyou":228,"ent":229,"Ġre":230,"us":231,"ct":232,"ve":233,"ll":234,"om":235,"Ġis":236,"et":237,"ut":238,"ĠĊ":239,"ow":240,"Ġfor":241,"Ġbe":242,"id":243,"Ġhe":244,"st":245,"ot":246,"am":247,"Ġthat":248,"Ġst":249,"ay":250,"ce":251,"Ġit":252,"Ġwh":253,"ly":254,"Ġon":255,"ch":256,"ig":257,"im":258,"ur":259,"se":260,"ad":261,"ĠĠĠ":262,"ith":263,"ld":264,"ation":265,"un":266,"od":267,"ver":268,"Ġan":269,"Ġwith":270,"ir":271,"Ġwe":272,"Ġpro":273,"ra":274,"ke":275,"Ġ\"":276,"ate":277,"um":278,"Ġcon":279,"Ġas":280,"il":281,"Ġj":282,"ers":283,"ol":284,"Ġcan":285,"ul":286,"ge":287,"Ġus":288,"Ġha":289,"Ġcom":290,"Ġse":291,"Ġde":292,"if":293,"Ġthis":294,"Ġv":295,"Ġ=":296,"Ġ1":297,"Ġare":298,"th":299,"qu":300,"Ġor":301,"ess":302,"Ġex":303,"ri":304,"ab":305,"ht":306,"est":307,"pe":308,"Ġr":309,"Ġch":310,"Ġme":311,"ill":312,"her":313,"Ġsh":314,"ist":315,"up":316,"ore":317,"ment":318,"ive":319,"Ġne":320,"ac":321,"Ġ`":322,"ain":323,"ter":324,"Ġyour":325,"Ġk":326,"Ġle":327,"op":328,"Ġnot":329,"'s":330,"âĢ":331,"ure":332,"Ġ(":333,"ĠĠĠĠĠĠĠ":334,"mp":335,"rom":336,"ight":337,"Ġdo":338,"ant":339,"Ġhave":340,"ction":341,"iv":342,"ould":343,"Ġ2":344,"ity":345,"Ġ-":346,"el":347,"ord":348,"Ġfrom":349,"all":350,"os":351,"Ġby":352,"nt":353,"Ġal":354,"ust":355,"and":356,"Ġif":357,"ort":358,"Ġso":359,"pl":360,"Ġwas":361,"te":362,"art":363,"Ġall":364,"Ġgo":365,"ame":366,"ies":367,"Ġwhat":368,"Ġma":369,"res":370,"Ġthey":371,"pt":372,"Ġwill":373,"Ġte":374,"Ġun":375,"Ġab":376,"out":377,"Ġad":378,"ud":379,"age":380,"Ġwhe":381,"ie":382,"Ġlo":383,"Ġpl":384,"Ġat":385,"Ġtheir":386,"to":387,"Ġen":388,"Ġmy":389,"Ġsu":390,"âĢĻ":391,"ine":392,"iz":393,"pp":394,"fe":395,"ial":396,"Ġbut":397,"Ġtr":398,"em":399,"..":400,"Ġar":401,"Ġhow":402,"ome":403,"ide":404,"ind":405,"Ġcomp":406,"ue":407,"red":408,"Ġup":409,"Ġout":410,"ich":411,"ok":412,"Ġhis":413,"Ġwor":414,"Ġimp":415,"Ġ3":416,"Ġsa":417,"our":418,"Ġthem":419,"Ġli":420,"ck":421,"lo":422,"00":423,"act":424,"ase":425,"Ġman":426,"able":427,"Ġthere":428,"ile":429,"ult":430,"orm":431,"ah":432,"ag":433,"int":434,"Ġno":435,"cc":436,"ally":437,"ime":438,"now":439,"per":440,"ard":441,"one":442,"ep":443,"Ġwho":444,"ack":445,"ast":446,"cl":447,"ak":448,"Ġqu":449,"Ġstr":450,"Ġco":451,"ther":452,"ach":453,"Ġcl":454,"Ġwhich":455,"Ġpr":456,"ound":457,"ass":458,"reat":459,"ions":460,"ence":461,"Ġres":462,"oug":463,"umb":464,"are":465,"form":466,"urn":467,"Ġmore":468,"Ġro":469,"Ġ{":470,"ice":471,"Ġhas":472,"ong":473,"Ġone":474,"Ġfo":475,"ip":476,"Ġfe":477,"Ġsc":478,"ace":479,"Ġabout":480,"du":481,"Ġlike":482,"ite":483,"ĠĠĠĠĠĠĠĠ":484,"Ġye":485,"Ġcont":486,"av":487,"ous":488,"ations":489,"Ġ$":490,"ance":491,"xt":492,"so":493,"Ġpe":494,"Ġadd":495,"Ġev":496,"Ġfun":497,"Ġ``":498,"Ġknow":499,"Ġ```":500,"Ġu":501,"ans":502,"Ġsome":503,"Ġuse":504,"Ġwhen":505,"ount":506,"ry":507,"Ġam":508,"ap":509,"Ġspe":510,"ode":511,"Ġsp":512,"Ġmo":513,"ign":514,"Ġhim":515,"Ġdis":516,"Ġ4":517,"ings":518,"ble":519,"ata":520,"Ġnumb":521,"con":522,"Ġ}":523,"--":524,"Ġany":525,"Ġret":526,"ren":527,"put":528,"Ġprov":529,"ated":530,"'t":531,"og":532,"Ġ5":533,"Ġval":534,"Ġover":535,"ary":536,"ition":537,"Ġnew":538,"Ġget":539,"Ġother":540,"Ġfunction":541,"Ġshe":542,"ical":543,"eth":544,"we":545,"Ġwork":546,"Ġhere":547,"ath":548,"ang":549,"Ġdes":550,"Ġ|":551,"ect":552,"very":553,"Ġinto":554,"Ġher":555,"Ġmake":556,"Ġtime":557,"Ġper":558,"get":559,"()":560,"ress":561,"ory":562,"\",":563,"Ġhel":564,"ough":565,"ire":566,"Ġthese":567,"ific":568,"str":569,"ild":570,"ents":571,"gr":572,"ff":573,"Ġpo":574,"vel":575,"ays":576,"led":577,"Ġthen":578,"Ġhelp":579,"Ġwould":580,"Ġlet":581,"Ġser":582,"ces":583,"Ġ#":584,"Ġshould":585,"aus":586,"ple":587,"rent":588,"ink":589,"Ġtw":590,"Ġjust":591,"ree":592,"lf":593,"Ġalso":594,"Ġke":595,"ho":596,"de":597,"Ġreturn":598,"Ġ<":599,"Ġpeop":600,"Ġacc":601,"ake":602,"Ġusing":603,"Ġcomm":604,"Ġ'":605,"ub":606,"Ġag":607,"Ġthan":608,"Ġbec":609,"Ġ+":610,"Ġpeople":611,"Ġpre":612,"Ġwr":613,"Ġeach":614,"ick":615,"Ġsy":616,"Ġneed":617,"Ġwere":618,"lement":619,"nder":620,"ark":621,"\\_":622,"Ġ0":623,"clud":624,"...":625,"Ġmay":626,"ari":627,"Ġcre":628,"ors":629,"les":630,"Ġbet":631,"Ġlist":632,"ade":633,"Ġhad":634,"Ġbo":635,"Ġoff":636,"ĠĠĠĠĠĠĠĠĠĠĠ":637,"ose":638,"ne":639,"Ġdif":640,"Ġsaid":641,"Ġapp":642,"Ġpart":643,"ail":644,"Ġap":645,");":646,"ars":647,"Ġexam":648,"Ġdata":649,"Ġ*":650,"ause":651,"Ġword":652,"Ġgod":653,"irst":654,"Ġnumber":655,"fore":656,"Ġwell":657,"Ġgr":658,"ize":659,"Ġbu":660,"Ġwhere":661,"Ġour":662,"Ġspec":663,"Ġph":664,"Ġrec":665,"ph":666,"Ġ[":667,"Ġ\\":668,"ject":669,"Ġcould":670,"ens":671,"Ġdef":672,"Ġcode":673,"Ġwant":674,"Ġoh":675,"Ġinclud":676,"Ġaf":677,"Ġsuch":678,"Ġtra":679,"Ġfirst":680,"ange":681,"Ġra":682,"ish":683,"Ġits":684,"Ġtwo":685,"Ġset":686,"Ġ/":687,"Ġnow":688,"Ġmod":689,"Ġright":690,"ates":691,"cess":692,"Ġcal":693,"Ġcol":694,"ual":695,"row":696,"ise":697,"ia":698,"ert":699,"end":700,"Ġcreate":701,"Ġgiv":702,"ater":703,"Ġcons":704,"ys":705,"Ġdon":706,"Ġprodu":707,"Ġpos":708,"Ġjo":709,"Ġunder":710,"Ġgreat":711,"Ġhand":712,"Ġche":713,"Ġgen":714,"Ġdid":715,"ning":716,"Ġdiffe":717,"yth":718,"Ġchar":719,"Ġsee":720,"llow":721,"Ġgu":722,"Ġsm":723,"Ġimport":724,"Ġsay":725,"vers":726,"own":727,"port":728,"Ġho":729,"be":730,"Ġstart":731,"ased":732,"Ġinc":733,"Ġind":734,"oth":735,"Ġgood":736,"Ġthr":737,"ython":738,"ict":739,"ft":740,"Ġrem":741,"Ġje":742,"Ġfind":743,"Ġ6":744,"Ġfl":745,"ons":746,"Ġok":747,"ty":748,"err":749,"igh":750,"Ġinter":751,"Ġevery":752,"Ġcome":753,"Ġgive":754,"ci":755,"fect":756,"Ġact":757,"Ġx":758,"Ġform":759,"stem":760,"Ġlook":761,"Ġthrough":762,".\"":763,"ating":764,"Ġused":765,"Ġprint":766,"Ġbeen":767,"Ġtake":768,"(\"":769,"Ġem":770,"Ġmade":771,"Ġinte":772,"Ġsup":773,"wer":774,"lect":775,"Ġprovide":776,"Ġpers":777,"ting":778,"Ġshall":779,"che":780,"Ġbr":781,"Ġlord":782,"arch":783,"Ġback":784,"Ġans":785,"Ġway":786,"Ġday":787,"eng":788,"Ġel":789,"Ġsent":790,"Ġbecause":791,"Ġfollow":792,"Ġrel":793,"Ġdoes":794,"ug":795,"Ġstep":796,"ks":797,"ility":798,"ities":799,"Ġdet":800,"Ġserv":801,"Ġsub":802,"Ġsol":803,"ful":804,"Ġunto":805,"ower":806,"Ġcur":807,"ife":808,"Ġsystem":809,"lic":810,"erm":811,"Ġinv":812,"Ġagain":813,"com":814,"Ġthink":815,"Ġint":816,"Ġinform":817,"ues":818,"the":819,"cri":820,"ient":821,"Ġput":822,"its":823,"king":824,"):":825,"Ġgiven":826,"Ġgener":827,"Ġrequ":828,"Ġsim":829,"Ġtrans":830,"gram":831,"ible":832,"ract":833,"Ġbefore":834,"Ġeven":835,"Ġafter":836,"ness":837,"'m":838,"Ġvari":839,"Ġstring":840,"ative":841,"self":842,"Ġname":843,"Ġob":844,"Ġple":845,"ib":846,"Ġaw":847,"ving":848,"wn":849,"Ġim":850,"Ġdifferent":851,"Ġwhile":852,"ices":853,"Ġty":854,"\":":855,"Ġexpl":856,"Ġexample":857,"ature":858,"ics":859,"ather":860,").":861,"cial":862,"olog":863,"ull":864,"ments":865,"Ġprogram":866,"Ġexper":867,"ween":868,"Ġmin":869,"Ġend":870,"Ġear":871,"Ġvalue":872,"Ġbetween":873,"read":874,"enc":875,"Ġonly":876,"cept":877,"Ġ10":878,"Ġanswer":879,"Ġdown":880,"ience":881,"Ġclass":882,"ĠâĢ":883,"Ġbl":884,"Ġinformation":885,"ify":886,"pect":887,"val":888,"'re":889,"Ġmat":890,"velop":891,"),":892,"Ġcreat":893,"Ġ20":894,"Ġresult":895,"Ġhigh":896,"ular":897,"Ġquest":898,"ray":899,"Ġopt":900,"Ġtech":901,"der":902,"Ġfin":903,"Ġid":904,"Ġcor":905,"Ġmark":906,"Ġstud":907,"Ġinput":908,"Ġperson":909,"Ġtak":910,"ustom":911,"Ġdec":912,"Ġla":913,"Ġproduct":914,"Ġworld":915,"gy":916,"ved":917,"Ġmon":918,"Ġdevelop":919,"Ġz":920,"ential":921,"Ġsure":922,"Ġinst":923,"Ġfr":924,"Ġart":925,"na":926,"Ġmany":927,"Ġplay":928,"als":929,"itt":930,"ps":931,"Ġass":932,"Ġreg":933,"Ġcharact":934,"ves":935,"ex":936,"Ġyeah":937,"Ġtext":938,"Ġ7":939,"bo":940,"Ġplease":941,"Ġcomple":942,"Ġent":943,"ss":944,"name":945,"cus":946,"gg":947,"iness":948,"Ġtechn":949,"Ġprocess":950,"Ġread":951,"Ġwhy":952,"Ġokay":953,"iqu":954,"Ġjeho":955,"ute":956,"Ġcr":957,"ied":958,"Ġprovid":959,"----":960,"Ġ//":961,"Ġmean":962,"Ġbus":963,"Ġelement":964,"Ġcustom":965,"Ġking":966,"other":967,"ix":968,"Ġwrite":969,"Ġ8":970,"vah":971,"Ġspecific":972,"Ġpass":973,"Ġsign":974,"Ġlong":975,"Ġchild":976,"Ġjehovah":977,"Ġcount":978,"ouse":979,"iew":980,"Ġeng":981,"uring":982,"ven":983,"word":984,"pr":985,"Ġbel":986,"Ġlear":987,"Ġboth":988,"ns":989,"stand":990,"ution":991,"Ġlife":992,"ctions":993,"Ġexp":994,"ethod":995,"wor":996,"ber":997,"Ġuser":998,"Ġmed":999,"Ġemp":1000,"Ġmost":1001,"ages":1002,"ian":1003,"ĠĠĠĠĠ":1004,"ought":1005,"ave":1006,"Ġsum":1007,"Ġins":1008,"Ġpar":1009,"iss":1010,"ious":1011,"Ġac":1012,"rib":1013,"ples":1014,"alth":1015,"ines":1016,"Ġsk":1017,"Ġcle":1018,"Ġmethod":1019,"Ġthose":1020,"Ġbuild":1021,"Ġcheck":1022,"ts":1023,"ality":1024,"Ġmain":1025,"Ġcompan":1026,"Ġhey":1027,"ffect":1028,"Ġfil":1029,"Ġaddition":1030,"Ġcar":1031,"Ġland":1032,"',":1033,"Ġsal":1034,"error":1035,"Ġplace":1036,"pro":1037,"Ġwords":1038,"Ġaut":1039,"ily":1040,"Ġkey":1041,"ield":1042,"fl":1043,"Ġunderstand":1044,"Ġbusiness":1045,"cul":1046,"ond":1047,"Ġequ":1048,"Ġallow":1049,"Ġop":1050,"text":1051,"Ġtest":1052,"co":1053,"ody":1054,"Ġatt":1055,"Ġkeep":1056,"Ġreally":1057,"Ġpot":1058,"Ġfile":1059,"riend":1060,"Ġref":1061,"Ġyes":1062,"Ġdesign":1063,"uct":1064,"gan":1065,"ner":1066,"Ġsom":1067,"bs":1068,"Ġthings":1069,"Ġself":1070,"Ġbre":1071,"Ġcame":1072,"Ġbased":1073,"uch":1074,"Ġsin":1075,"ized":1076,"hip":1077,"Ġtell":1078,"Ġeffect":1079,"Ġcommun":1080,"Ġcho":1081,"hes":1082,"\")":1083,"Ġpri":1084,"Ġresp":1085,"cond":1086,"Ġloc":1087,"ward":1088,"rael":1089,"Ġtry":1090,"itive":1091,"ms":1092,"string":1093,"line":1094,"Ġhouse":1095,"Ġmarket":1096,"cript":1097,"Ġrep":1098,"Ġpython":1099,"Ġhum":1100,"Ġisrael":1101,"Ġown":1102,"Ġmight":1103,"Ġappro":1104,"Ġgra":1105,"ication":1106,"Ġgot":1107,"Ġmult":1108,"ger":1109,"Ġoutput":1110,"Ġpres":1111,"ced":1112,"Ġide":1113,"Ġplan":1114,"Ġstate":1115,"pend":1116,"Ġson":1117,"Ġrun":1118,"Ġdist":1119,"Ġed":1120,"Ġvis":1121,"Ġfeel":1122,"Ġav":1123,"Ġmodel":1124,"Ġthou":1125,"Ġbeing":1126,"Ġve":1127,"day":1128,"Ġsame":1129,"br":1130,"Ġwithout":1131,"Ġfollowing":1132,"Ġhealth":1133,"Ġmus":1134,"Ġsmall":1135,"Ġbest":1136,"Ġbro":1137,"Ġfound":1138,"ye":1139,"Ġcall":1140,"Ġfact":1141,"Ġpub":1142,"ivid":1143,"=\"":1144,"Ġpoint":1145,"hed":1146,"oup":1147,"Ġthy":1148,"ures":1149,"Ġshow":1150,"Ġagainst":1151,"Ġmen":1152,"ove":1153,"ery":1154,"Ġpower":1155,"li":1156,"Ġ9":1157,"ength":1158,"ins":1159,"Ġanal":1160,"Ġnumbers":1161,"Ġwater":1162,"ene":1163,"Ġpa":1164,"ax":1165,"Ġposs":1166,"ertain":1167,"ural":1168,"Ġmess":1169,"Ġlead":1170,"Ġinclude":1171,"Ġarray":1172,"))":1173,"Ġreal":1174,"ever":1175,"Ġwent":1176,"Ġgoing":1177,"Ġtot":1178,"Ġcurrent":1179,"Ġperform":1180,"imes":1181,"ants":1182,"Ġfam":1183,"ĠĠĠĠĠĠĠĠĠĠĠĠĠĠĠ":1184,"Ġlove":1185,"ering":1186,"10":1187,"son":1188,"ually":1189,"Ġquestion":1190,"Ġthree":1191,"Ġimplement":1192,"Ġincre":1193,"ets":1194,"Ġtal":1195,"Ġimpro":1196,"und":1197,"Ġmuch":1198,"ash":1199,"Ġsec":1200,"Ġchildren":1201,"Ġmem":1202,"Ġhapp":1203,"io":1204,"Ġcalcul":1205,"mat":1206,"Ġproble":1207,"Ġtop":1208,"po":1209,"Ġtas":1210,"Ġsecond":1211,"Ġgl":1212,"Ġbook":1213,"Ġfood":1214,"000":1215,"Ġident":1216,"Ġlar":1217,"python":1218,"Ġtrue":1219,"Ġorder":1220,"ired":1221,"Ġsupport":1222,"Ġaway":1223,"Ġsentence":1224,"Ġens":1225,"no":1226,"ique":1227,"Ġblo":1228,"Ġbra":1229,"Ġsur":1230,"Ġconst":1231,"Ġdr":1232,"Ġadv":1233,"Ġpur":1234,"Ġcontain":1235,"20":1236,"ret":1237,"Ġopen":1238,"ology":1239,"angu":1240,"par":1241,"Ġeas":1242,"Ġsl":1243,"gether":1244,"Ġyears":1245,"Ġvery":1246,"ense":1247,"sh":1248,"ething":1249,"Ġcase":1250,"Ġprof":1251,"Ġanother":1252,"iting":1253,"ames":1254,"ional":1255,"ability":1256,"Ġsomething":1257,"Ġline":1258,"ten":1259,"Ġdire":1260,"Ġpat":1261,"Ġliv":1262,"Ġbelie":1263,"Ġincluding":1264,"view":1265,"Ġteam":1266,"Ġdi":1267,"Ġtogether":1268,"ited":1269,"Ġ19":1270,"Ġtotal":1271,"Ġconf":1272,"Ġwar":1273,"Ġbetter":1274,"data":1275,"Ġsocial":1276,"mon":1277,"Ġhead":1278,"ational":1279,"Ġext":1280,"ffic":1281,"Ġoper":1282,"cho":1283,"Ġca":1284,"Ġmet":1285,"Ġobject":1286,"Ġaccess":1287,"ases":1288,"Ġfriend":1289,"Ġlangu":1290,"count":1291,"Ġcompany":1292,"Ġappl":1293,"Ġpotential":1294,"Ġtable":1295,"ined":1296,"tern":1297,"Ġ==":1298,"pos":1299,"rect":1300,"thing":1301,"Ġduring":1302,"Ġpol":1303,"rest":1304,"Ġpublic":1305,"Ġturn":1306,"Ġfather":1307,"Ġlight":1308,"amp":1309,"ider":1310,"ric":1311,"by":1312,"of":1313,"ency":1314,"Ġyear":1315,"Ġstill":1316,"ml":1317,"Ġnext":1318,"gor":1319,"Ġcalled":1320,"Ġcare":1321,"__":1322,"sc":1323,"ization":1324,"Ġelse":1325,"uc":1326,"Ġrest":1327,"list":1328,"gin":1329,"col":1330,"Ġlast":1331,"Ġuh":1332,"Ġcomplex":1333,"oc":1334,"Ġfield":1335,"Ġvalues":1336,"Ġpop":1337,"Ġless":1338,"Ġtri":1339,"onna":1340,"az":1341,"Ġnum":1342,"ason":1343,"ird":1344,"rence":1345,"ety":1346,"Ġrange":1347,"ention":1348,"Ġcertain":1349,"ier":1350,"Ġtype":1351,"Ġmanage":1352,"search":1353,"Ġhowever":1354,"Ġcost":1355,"Ġtyp":1356,"ument":1357,"Ġredu":1358,"ems":1359,"jo":1360,"Ġimpact":1361,"ator":1362,"Ġce":1363,"Ġmaking":1364,"Ġpract":1365,"Ġbreak":1366,"Ġgonna":1367,"vert":1368,"date":1369,"oney":1370,"Ġheart":1371,"Ġpartic":1372,"Ġupon":1373,"Ġ&":1374,"ables":1375,"Ġsort":1376,"Ġsugg":1377,"Ġmust":1378,"Ġsuggest":1379,"utes":1380,"Ġdat":1381,"ences":1382,"Ġcontin":1383,"sel":1384,"ittle":1385,"Ġcharacter":1386,"Ġmar":1387,"ital":1388,"play":1389,"Ġindivid":1390,"Ġstore":1391,"atch":1392,"Ġearth":1393,"Ġtemp":1394,"Ġ.":1395,"Ġfeature":1396,"Ġgame":1397,"ining":1398,"ream":1399,"Ġplat":1400,"ton":1401,",\"":1402,"Ġaround":1403,"ccess":1404,"Ġtool":1405,"Ġstory":1406,"Ġproject":1407,"ified":1408,"Ġstand":1409,"Ġexamples":1410,"Ġcent":1411,"'ll":1412,"Ġener":1413,"Ġlittle":1414,"ically":1415,"Ġthee":1416,"work":1417,"Ġcontent":1418,"\".":1419,"tr":1420,"Ġold":1421,"Ġfocus":1422,"ision":1423,"âĢĿ":1424,"Ġpost":1425,"Ġindividual":1426,"aut":1427,"hing":1428,"Ġenc":1429,"verse":1430,"ale":1431,"Ġmax":1432,"Ġsearch":1433,"Ġthought":1434,"Ġdays":1435,"Ġbeh":1436,"ken":1437,"Ġorgan":1438,"Ġgrow":1439,"Ġtoo":1440,"Ġterm":1441,"dd":1442,"Ġelements":1443,"ern":1444,"Ġmind":1445,"Ġpossible":1446,"Ġunt":1447,"me":1448,"Ġwom":1449,"arget":1450,"Ġlanguage":1451,"Ġchang":1452,"ĠâĢľ":1453,"Ġsignific":1454,"Ġchall":1455,"Ġchange":1456,"Ġda":1457,"Ġprom":1458,"new":1459,"Ġenergy":1460,"Ġcour":1461,"Ġjud":1462,"Ġsuccess":1463,"Ġside":1464,"Ġtook":1465,"Ġfa":1466,"Ġimportant":1467,"Ġplatform":1468,"Ġproblem":1469,"ism":1470,"Ġ12":1471,"Ġlearning":1472,"Ġwithin":1473,"ware":1474,"ists":1475,"Ġhuman":1476,"Ġexplain":1477,"Ġprev":1478,"Ġfull":1479,"Ġgroup":1480,"tain":1481,"Ġvo":1482,"Ġrepres":1483,"ources":1484,"Ġstrate":1485,"Ġ:":1486,"Ġexperience":1487,"Ġhour":1488,"Ġuntil":1489,"Ġlevel":1490,"Ġthing":1491,"let":1492,"Ġsaying":1493,"Ġface":1494,"ote":1495,"Ġsit":1496,"ledge":1497,"vir":1498,"imate":1499,"Ġlength":1500,"Ġdirect":1501,"Ġest":1502,"place":1503,"ling":1504,"ways":1505,"Ġwa":1506,"Ġclear":1507,"Ġsw":1508,"Ġproper":1509,"Ġcorrect":1510,"Ġmessage":1511,"Ġcharacters":1512,"Ġsound":1513,"aces":1514,"('":1515,"Ġleft":1516,"ross":1517,"ource":1518,"ze":1519,"Ġes":1520,"Ġarg":1521,"Ġcity":1522,"Ġdig":1523,"Ġnever":1524,"Ġensure":1525,"ron":1526,"ared":1527,"Ġcult":1528,"key":1529,"ser":1530,"Ġmove":1531,"</":1532,"Ġcomb":1533,"Ġmusic":1534,"Ġunique":1535,"ank":1536,"viron":1537,"Ġhist":1538,"add":1539,"ivity":1540,"Ġinde":1541,"Ġgave":1542,"Ġdeterm":1543,"ording":1544,"Ġmeas":1545,"Ġiss":1546,"yle":1547,"Ġhome":1548,"Ġinvol":1549,"Ġusers":1550,"'ve":1551,"iter":1552,"oun":1553,"Ġimprove":1554,"kes":1555,"ec":1556,"Ġnet":1557,"Ġconc":1558,"ted":1559,"alse":1560,"els":1561,"app":1562,"Ġamong":1563,"Ġerror":1564,"gn":1565,"itle":1566,"Ġbig":1567,"ood":1568,"Ġsing":1569,"Ġdri":1570,"Ġhard":1571,"cing":1572,"llo":1573,"reen":1574,"Ġwee":1575,"hor":1576,"gorith":1577,"nect":1578,"Ġstat":1579,"Ġstruct":1580,"Ġsince":1581,"onse":1582,"Ġcommon":1583,"Ġscri":1584,"ndom":1585,"Ġdra":1586,"Ġenviron":1587,"Ġdone":1588,"hold":1589,"set":1590,"Ġever":1591,"Ġinit":1592,"less":1593,"Ġmonth":1594,"lish":1595,"know":1596,"Ġexpress":1597,"py":1598,"Ġalgorith":1599,"cle":1600,"Ġcook":1601,"not":1602,"Ġmultip":1603,"Ġai":1604,"Ġcommand":1605,"Ġ15":1606,"Ġask":1607,"Ġconsider":1608,"Ġrele":1609,"Ġknowledge":1610,"Ġaccording":1611,"Ġpay":1612,"value":1613,"Ġdiv":1614,"ites":1615,"Ġdev":1616,"Ġoften":1617,"ries":1618,"Ġrequire":1619,"itions":1620,"Ġsoft":1621,"Ġinstr":1622,"ws":1623,"Ġpersonal":1624,"ails":1625,"ides":1626,"Ġbene":1627,"Ġcap":1628,"raph":1629,"ives":1630,"Ġscript":1631,"ients":1632,"Ġinterest":1633,"();":1634,"Ġach":1635,"Ġfour":1636,"Ġstrong":1637,"Ġaddress":1638,"Ġways":1639,"Ġmeet":1640,"Ġess":1641,"aring":1642,"Ġtarget":1643,"Ġlim":1644,"Ġtrad":1645,"Ġtakes":1646,"Ġcomput":1647,"Ġcontro":1648,"igin":1649,"ob":1650,"Ġalways":1651,"Ġdevelopment":1652,"Ġkind":1653,"Ġgenerate":1654,"Ġfree":1655,"Ġdeath":1656,"],":1657,"Ġstartup":1658,"Ġdav":1659,"Ġidentify":1660,"idd":1661,"Ġonce":1662,"Ġable":1663,"Ġwal":1664,"eric":1665,"Ġspace":1666,"right":1667,"Ġht":1668,"Ġnon":1669,"12":1670,"Ġlog":1671,"ma":1672,"Ġfew":1673,"ql":1674,"Ġaud":1675,"Ġinvest":1676,"Ġvarious":1677,"Ġsumm":1678,"back":1679,"Ġmeans":1680,"rix":1681,"Ġmil":1682,"mb":1683,"Ġdoing":1684,"omm":1685,"Ġcond":1686,"Ġknown":1687,"Ġlearn":1688,"Ġsignificant":1689,"ination":1690,"Ġoffer":1691,"iction":1692,"Ġdavid":1693,"urs":1694,"Ġresearch":1695,"uck":1696,"Ġaccount":1697,"Ġachie":1698,"Ġnight":1699,"Ġbas":1700,"ither":1701,"Ġbuilding":1702,"Ġpositive":1703,"--------":1704,"::":1705,"man":1706,"Ġvers":1707,"Ġsor":1708,"Ġtimes":1709,"url":1710,"Ġopp":1711,"Ġselect":1712,"Ġlarge":1713,"uction":1714,"Ġsqu":1715,"Ġneg":1716,"ips":1717,"Ġenvironment":1718,"aterial":1719,"ats":1720,"Ġbenef":1721,"time":1722,"Ġrelations":1723,"wh":1724,"ming":1725,"Ġtherefore":1726,"Ġeffective":1727,"abor":1728,"num":1729,"file":1730,"requ":1731,"arr":1732,"cy":1733,"Ġprote":1734,"Ġtre":1735,"Ġemplo":1736,"ught":1737,"Ġtechnology":1738,"//":1739,"ler":1740,"Ġoptim":1741,"Ġphys":1742,"yes":1743,"Ġvide":1744,"Ġhelps":1745,"Ġabove":1746,"Ġdescri":1747,"Ġwind":1748,"Ġevent":1749,"min":1750,"iled":1751,"Ġcolum":1752,"Ġremain":1753,"uff":1754,"Ġorigin":1755,"ng":1756,"Ġanaly":1757,"Ġfalse":1758,"Ġindust":1759,"Ġocc":1760,"Ġidea":1761,"Ġcolor":1762,"Ġbody":1763,"Ġrequest":1764,"ule":1765,"Ġsend":1766,"ĠĠĠĠĠĠĠĠĠĠĠĠĠĠĠĠ":1767,"wr":1768,"Ġspecial":1769,"Ġadditionally":1770,"ills":1771,"Ġwon":1772,"Ġlot":1773,"Ġstudents":1774,"Ġminutes":1775,"Ġfar":1776,"Ġhaving":1777,"Ġprovided":1778,"eter":1779,"Ġoverall":1780,"Ġchalleng":1781,"Ġflo":1782,"Ġfore":1783,"Ġsize":1784,"Ġprob":1785,"ior":1786,"Ġdep":1787,"Ġcalculate":1788,"Ġhy":1789,"Ġge":1790,"Ġris":1791,"for":1792,"Ġmoney":1793,"Ġmaterial":1794,"Ġmedia":1795,"Ġfamily":1796,"ost":1797,"Ġworks":1798,"Ġunderstanding":1799,"aging":1800,"ches":1801,"Ġimage":1802,"land":1803,"Ġmarketing":1804,"Ġpresent":1805,"Ġjav":1806,"Ġum":1807,"ouble":1808,"Ġoptions":1809,"Ġthank":1810,"aking":1811,"iah":1812,"Ġhi":1813,"Ġconcept":1814,"ĠÐ":1815,"Ġsomeone":1816,"Ġappe":1817,"Ġevil":1818,"go":1819,"Ġcut":1820,"Ġ100":1821,"Ġneeds":1822,"my":1823,"Ġstop":1824,"Ġuni":1825,"duct":1826,"pose":1827,"Ġarea":1828,"Ġsteps":1829,"Ġred":1830,"Ġwebs":1831,"ead":1832,"Ġinfl":1833,"Ġcontext":1834,"Ġservice":1835,"body":1836,"Ġuses":1837,"aster":1838,"Ġavail":1839,"Ġ>":1840,"Ġheav":1841,"cent":1842,"Ġfur":1843,"input":1844,"Ġeffic":1845,"Ġair":1846,"Ġdidn":1847,"Ġliving":1848,"Ġcustomer":1849,"oss":1850,"selves":1851,"Ġmach":1852,"Ġjob":1853,"Ġrelationship":1854,"Ġquestions":1855,"Ġsever":1856,"Ġrandom":1857,"load":1858,"Ġtrack":1859,"Ġarr":1860,"light":1861,"Ġsou":1862,"clus":1863,"Ġbecome":1864,"Ġâ":1865,"Ġfut":1866,"Ġcup":1867,"Ġsolution":1868,"Ġsam":1869,"Ġfire":1870,"Ġweb":1871,"Ġdest":1872,"Ġexpect":1873,"Ġspir":1874,"cuss":1875,"Ġamount":1876,"Ġmakes":1877,"dom":1878,"Ġcontrol":1879,"oud":1880,"Ġdiff":1881,"://":1882,"numb":1883,"Ġmor":1884,"ories":1885,"fo":1886,"iment":1887,"Ġ30":1888,"here":1889,"chool":1890,"Ġdepend":1891,"Ġshort":1892,"Ġresponse":1893,"Ġlooking":1894,"Ġfinally":1895,"Ġbi":1896,"50":1897,"`.":1898,"Ġiter":1899,"Ġallows":1900,"Ġroom":1901,"avor":1902,"Ġproducts":1903,"Ġdate":1904,"Ġothers":1905,"Ġbring":1906,"Ġnat":1907,"Ġfeatures":1908,"Ġrepresent":1909,"ilar":1910,"rences":1911,"Ġinitial":1912,"ered":1913,"verage":1914,"Ġrole":1915,"Ġrece":1916,"Ġjer":1917,"Ġremem":1918,"Ġsense":1919,"att":1920,"por":1921,"Ġsimple":1922,"Ġseveral":1923,"Ġtoday":1924,"ift":1925,"Ġfriends":1926,"Ġdiscuss":1927,"Ġconnect":1928,"Ġsons":1929,"rie":1930,"Ġchr":1931,"Ġlow":1932,"Ġresults":1933,"Ġwin":1934,"Ġbar":1935,"idence":1936,"Ġhandle":1937,"Ġlay":1938,"ape":1939,"Ġmultiple":1940,"Ġ%":1941,"Ġbal":1942,"Ġsat":1943,"Ġservices":1944,"ush":1945,"med":1946,"ards":1947,"orn":1948,"Ġdoc":1949,"Ġsaw":1950,"head":1951,"Ġlocal":1952,"do":1953,"Ġguys":1954,"Ġeyes":1955,"Ġcapt":1956,"Ġlaw":1957,"air":1958,"Ġrecomm":1959,"Ġcreating":1960,"Ġmiss":1961,"Ġpast":1962,"Ġvalid":1963,"Ġĉ":1964,"Ġmanagement":1965,"Ġworking":1966,"Ġmov":1967,"Ġrecommend":1968,"Ġhold":1969,"Ġclean":1970,"Ġhig":1971,"lection":1972,"Ġdisplay":1973,"ont":1974,"izing":1975,"amed":1976,"Ġswe":1977,"Ġreturns":1978,"Ġprofess":1979,"Ġtypes":1980,"Ġformat":1981,"Ġquick":1982,"Ġprime":1983,"Ġfuture":1984,"Ġclo":1985,"Ġhar":1986,"abase":1987,"ysis":1988,"Ġcustomers":1989,"Ġreason":1990,"nding":1991,"print":1992,"Ġloop":1993,"yn":1994,"gs":1995,"Ġnote":1996,"Ġlibr":1997,"Ġsun":1998,"Ġschool":1999,"Ġhath":2000,"oh":2001,"imum":2002,"Ġsorry":2003,"Ġalgorithm":2004,"Ġemot":2005,"lling":2006,"Ġsoftware":2007,"Ġmer":2008,"Ġjes":2009,"Ġjour":2010,"Ġcomplete":2011,"Ġnode":2012,"Ġsystems":2013,"ished":2014,"Ġtaken":2015,"Ġpain":2016,"Ġreport":2017,"!!":2018,"$.":2019,"ipp":2020,"Ġfurther":2021,"cont":2022,"come":2023,"ones":2024,"Ġexist":2025,"Ġpie":2026,"Ġinstead":2027,"':":2028,"Ġchanges":2029,"Ġcourse":2030,"icult":2031,"Ġemail":2032,"urity":2033,"icle":2034,"Ġintern":2035,"resp":2036,"ident":2037,"Ġut":2038,"11":2039,"Ġtown":2040,"Ġtalk":2041,"Ġapproach":2042,"off":2043,"Ġparam":2044,"Ġsn":2045,"ctor":2046,"Ġonline":2047,"Ġlink":2048,"Ġste":2049,"Ġcause":2050,"Ġsimilar":2051,"Ġview":2052,"Ġrul":2053,"imal":2054,"==":2055,"Ġpack":2056,"Ġfive":2057,"Ġhappen":2058,"Ġgold":2059,"index":2060,"Ġjson":2061,"Ġfac":2062,"Ġbab":2063,"Ġsays":2064,"ann":2065,"Ġadditional":2066,"istic":2067,"Ġseen":2068,"Ġbehav":2069,"Ġstrateg":2070,"bal":2071,"Ġincor":2072,"itional":2073,"ael":2074,"Ġinflu":2075,"Ġavailable":2076,"Ġelect":2077,"Ġhope":2078,"Ġauthor":2079,"Ġment":2080,"Ġreview":2081,"ters":2082,"ready":2083,"oid":2084,"utions":2085,"oses":2086,"ances":2087,"Ġprovides":2088,".\\":2089,"mpt":2090,"Ġhands":2091,"Ġround":2092,"Ġah":2093,"Ġtask":2094,"Ã©":2095,"Ġpred":2096,"Ġanything":2097,"uation":2098,"Ġ18":2099,"ffe":2100,"book":2101,"Ġport":2102,"ilities":2103,"Ġindex":2104,"Ġnegative":2105,"Ġchrist":2106,"face":2107,"Ġperformance":2108,"âĢĶ":2109,"->":2110,"Ġstay":2111,"path":2112,"##":2113,"ney":2114,"Ġmom":2115,"Ġmich":2116,"Ġdem":2117,"Ġhours":2118,"Ġwebsite":2119,"Ġvariable":2120,"Ġcommunity":2121,"Ġanalysis":2122,"Ġupd":2123,"Ġremember":2124,"Ġbegin":2125,"ilt":2126,"Ġmaybe":2127,"Ġbrother":2128,"conom":2129,"Ġdeep":2130,"uit":2131,"Ġeasy":2132,"Ġstyle":2133,"Ġexperi":2134,"Ġnecess":2135,"Ġleast":2136,"Ġdoesn":2137,"Ġver":2138,"Ġmot":2139,"ows":2140,"cription":2141,"way":2142,"Ġ16":2143,"25":2144,"`,":2145,"tps":2146,"ised":2147,"ott":2148,"ese":2149,"Ġstates":2150,"Ġactiv":2151,"Ġconne":2152,"Ġhal":2153,"Ġactually":2154,"Ġaction":2155,"cal":2156,"Ġpath":2157,"Ġwriting":2158,"?!":2159,"Ġhistory":2160,"hn":2161,"Ġbelieve":2162,"Ġnor":2163,"Ġeduc":2164,"Ġexec":2165,"Ġtaking":2166,"Ġapplication":2167,"fer":2168,"Ġpage":2169,"Ġpoints":2170,"Ġalready":2171,"Ġintro":2172,"Ġquality":2173,"Ġwoman":2174,"Ġerr":2175,"Ġrespons":2176,"fr":2177,"gress":2178,"ying":2179,"ls":2180,"Ġnatural":2181,"\">":2182,"Ġshare":2183,"Ġprin":2184,"Ġcompon":2185,"Ġwait":2186,"vent":2187,"alt":2188,"ude":2189,"Ġresources":2190,"Ġcoll":2191,"ipe":2192,"ately":2193,"ulation":2194,"Ġindividuals":2195,"ww":2196,"Ġchoose":2197,"15":2198,"Ġcamp":2199,"Ġstructure":2200,"Ġspirit":2201,"Ġdetermine":2202,"Ġoil":2203,"oura":2204,"Ġjesus":2205,"Ġ=>":2206,"Ġparticular":2207,"Ġyoung":2208,"mm":2209,"Ġameric":2210,"Ġcra":2211,"action":2212,"Ġstatement":2213,"Ġvideo":2214,"19":2215,"Ġyet":2216,"Ġ</":2217,"Ġmeaning":2218,"Ġintegr":2219,"fra":2220,"Ġlab":2221,"Ġweek":2222,"Ġbit":2223,"ortun":2224,"Ġeconom":2225,"ference":2226,"Ġtitle":2227,"Ġposition":2228,"Ġenough":2229,"Ġemploye":2230,"type":2231,"Ġregular":2232,"])":2233,"ged":2234,"Ġpriest":2235,"Ġoriginal":2236,"Ġthanks":2237,"ume":2238,"Ġincrease":2239,"ĠĠĠĠĊ":2240,"ina":2241,"Ġcontrib":2242,"ane":2243,"acy":2244,"Ġmeasure":2245,"Ġtransl":2246,"Ġsingle":2247,"Ġhot":2248,"Ġfear":2249,"ta":2250,"Ð¾":2251,"Ġachieve":2252,"Ġlive":2253,"()`":2254,"Ġeat":2255,"Ġnothing":2256,"Ġ200":2257,"arent":2258,"based":2259,"rop":2260,"Ġwhether":2261,"Ġmount":2262,"Ġmaintain":2263,"Ġfall":2264,"sy":2265,"Ġbeaut":2266,"Ġbusinesses":2267,"nds":2268,"Ġindustry":2269,"zz":2270,"Ġfactors":2271,"Ġcaus":2272,"}{":2273,"Ġri":2274,"Ġtrying":2275,"Ġsle":2276,"Ġabs":2277,"Ġmichael":2278,"quence":2279,"irt":2280,"Ġdel":2281,"ification":2282,"Ġskills":2283,"Ġholy":2284,"Ġideas":2285,"apt":2286,"user":2287,"Ġmethods":2288,"Ġdetails":2289,"Ġpriv":2290,"Ġeverything":2291,"Ġbase":2292,"Ġblack":2293,"Ġsolve":2294,"Ġsales":2295,"Ġlisten":2296,"vern":2297,"Ġpopular":2298,"Ġversion":2299,"case":2300,"Ġmix":2301,"\\*":2302,"Ġadj":2303,"ral":2304,"Ġgetting":2305,"ium":2306,"oring":2307,"mod":2308,"Ġreduce":2309,"Ġdatabase":2310,"side":2311,"30":2312,"Ġing":2313,"ley":2314,"reng":2315,"asing":2316,"Ġconvert":2317,"Ġnone":2318,"Ġprice":2319,"Ġsepar":2320,"ched":2321,"words":2322,"Ġtools":2323,"Ġwatch":2324,"Ġaccur":2325,"Ġpaper":2326,"Ġcir":2327,"lex":2328,"ram":2329,"erc":2330,"Ġbox":2331,"Ġmachine":2332,"Ġtree":2333,"Ġgir":2334,"Ġcomes":2335,"iques":2336,"Ġchallenges":2337,"ison":2338,"Ġfund":2339,"Ġacross":2340,"Ġtraining":2341,"sv":2342,"Ġcy":2343,"Ġvol":2344,"Ġbenefits":2345,"ges":2346,"Ġblock":2347,"gen":2348,"Ġsil":2349,"Ġstreng":2350,"Ġenjo":2351,"ai":2352,"Ġnear":2353,"Ġexcept":2354,"Ġcountry":2355,"vant":2356,"fs":2357,"itten":2358,"Ġ11":2359,"Ġphil":2360,"Ġdifficult":2361,"Ġmoses":2362,"Ġsong":2363,"Ġsubject":2364,"Ġvoice":2365,"Ġquant":2366,"Ġquery":2367,"Ġwrong":2368,"Ġtoward":2369,"Ġevents":2370,"itical":2371,"pri":2372,"ograph":2373,"this":2374,"ibility":2375,"Ġintrodu":2376,"'d":2377,"Ġweight":2378,"order":2379,"Ġburn":2380,"Ġdark":2381,"gypt":2382,"Ġapi":2383,"Ġcolumn":2384,"ners":2385,"Ġ--":2386,"Ġgreen":2387,"Ġcreated":2388,"Ġcontinue":2389,"ging":2390,"Ġnamed":2391,"Ġwhole":2392,"bers":2393,"Ġsave":2394,"Ġmatch":2395,"frac":2396,"Ġegypt":2397,"olution":2398,"Ġdigital":2399,"Ġgovern":2400,"Ġcompet":2401,"Ġtravel":2402,"Ġ...":2403,"array":2404,"Ġsecurity":2405,"')":2406,"**":2407,"ply":2408,"Ġtips":2409,"log":2410,"Ġdead":2411,"Ġbad":2412,"unch":2413,"ried":2414,"vation":2415,"Ġdecision":2416,"ula":2417,"Ġ<<":2418,"Ġjoe":2419,"Ġcell":2420,"Ġaudience":2421,"Ġtreat":2422,"Ġcry":2423,"Ġdrink":2424,"Ġstrategies":2425,"Ġ50":2426,"Ġtechniques":2427,"Ġspeak":2428,"ailed":2429,"aries":2430,"opt":2431,"inary":2432,"Ġglo":2433,"uments":2434,"fil":2435,"ister":2436,"temp":2437,"Ġeveryone":2438,"Ġperfect":2439,"ids":2440,"Ġcertainly":2441,"full":2442,"Ġroot":2443,"mer":2444,"Ġ14":2445,"Ġdocument":2446,"Ġincorpor":2447,"Ġthemselves":2448,"Ġvisual":2449,"ica":2450,"Ġnews":2451,"Ġcompanies":2452,"Ġrad":2453,"Ġterms":2454,"Ġhost":2455,".,":2456,"test":2457,"Ġ!":2458,"16":2459,"Ġsea":2460,"gers":2461,"point":2462,"Ġdue":2463,"Ġnetwork":2464,"Ġgoals":2465,"Ġfeet":2466,"Ġrecord":2467,"Ġsquare":2468,"Ġbaby":2469,"Ġmill":2470,"Ġaverage":2471,"Ġnecessary":2472,"Ġtim":2473,"Ġconstr":2474,"Ġhund":2475,"ires":2476,"Ġpress":2477,"Ġhor":2478,"Ġconvers":2479,"Ġlower":2480,"aling":2481,"ains":2482,"Ġage":2483,"Ġautom":2484,"Ġprevious":2485,"Ġavoid":2486,"Ġupdate":2487,"Ġwaste":2488,"Ġsens":2489,"Ð°":2490,"Ġeval":2491,"Ġletter":2492,"Ġer":2493,"Ġenglish":2494,"Ġreplace":2495,"Ġross":2496,"Ġhundred":2497,"Ġbrow":2498,"Ġnut":2499,"Ġfeed":2500,"Ġbur":2501,"Ġrequired":2502,"Ġoption":2503,"Ġsource":2504,"Ġscience":2505,"Ġ25":2506,"Ġgreater":2507,"Ġalong":2508,"Ġopportun":2509,"Ġrob":2510,"anced":2511,"Ġwhom":2512,"izes":2513,"Ġet":2514,"akes":2515,"Ġdisco":2516,"Ġyourself":2517,"Ġingred":2518,"Ġinteger":2519,"Ġveget":2520,"ffee":2521,"ousand":2522,"Ġstudy":2523,"Ġcomplexity":2524,"Ġgrowth":2525,"Ġang":2526,"over":2527,"Ġthousand":2528,"ently":2529,"Ġcommunication":2530,"Ġmemory":2531,"eters":2532,"Ġequal":2533,"Ġtransform":2534,"idth":2535,"Ġrespect":2536,"Ġthird":2537,"usal":2538,"Ġhalf":2539,"Ġserver":2540,"Ġball":2541,"ogn":2542,"Ġrow":2543,"Ġpick":2544,"Ġissues":2545,"but":2546,"Ġneeded":2547,"Ġconsum":2548,"Ġtasks":2549,"hens":2550,"soci":2551,"length":2552,"Ġfine":2553,"Ġgar":2554,"Ġstra":2555,"['":2556,"Ġprim":2557,"Ġfinal":2558,"Ġimplementation":2559,"ascript":2560,"Ġencoura":2561,"usalem":2562,"Ġmid":2563,"Ġnames":2564,"Ġjerusalem":2565,"sum":2566,"Ġdefine":2567,"ault":2568,"Ġmention":2569,"ived":2570,"Ġphysical":2571,"Ġequation":2572,"\";":2573,"bed":2574,"Ġclick":2575,"ises":2576,"Ġfunctions":2577,"Ġthough":2578,"Ġjudah":2579,"Ġarticle":2580,"Ġdiction":2581,"Ġbehavior":2582,"Ġflow":2583,"Ġefficient":2584,"het":2585,"Ġrev":2586,"Ġtraditional":2587,":\\":2588,"Ġexerc":2589,"atic":2590,"Ġwide":2591,"la":2592,"Ġassoci":2593,"Ġpurpose":2594,"Ðµ":2595,"mbol":2596,"Ġremove":2597,"\");":2598,"ising":2599,"23":2600,"Ġbread":2601,"sub":2602,"ster":2603,"Ġcoffee":2604,"Ġmatrix":2605,"Ġnav":2606,"Ġhimself":2607,"ump":2608,"Ġexplore":2609,"Ġlen":2610,"Ġwhite":2611,"Ġque":2612,"ĠâĢĵ":2613,"Ġphot":2614,"Ġenjoy":2615,"result":2616,"Ġ$\\":2617,"size":2618,"Ġconnection":2619,"Ġdw":2620,"Ġexce":2621,"tend":2622,"iddle":2623,"++":2624,"Ġspeed":2625,"Ġincludes":2626,"Ġrock":2627,"Ġclose":2628,"Ġscore":2629,"\"]":2630,"Ġcop":2631,"Ġmother":2632,"Ġinstall":2633,"Ġpolic":2634,"Ġdifference":2635,"ications":2636,"Ġwall":2637,"Ġseries":2638,"Ġdream":2639,"Ġnull":2640,"Ġprop":2641,"Ġ},":2642,"Ġ+=":2643,"Ġessential":2644,"iod":2645,"Ġcannot":2646,"aching":2647,"Ġfig":2648,"Ġleg":2649,"Ġlibrary":2650,"ik":2651,"Ġpun":2652,"Ġscient":2653,"sole":2654,"Ġoffering":2655,"']":2656,"Ġshalt":2657,"Ġguy":2658,"Ġunivers":2659,"Ġadjust":2660,"fully":2661,"Ġready":2662,"erature":2663,"Ġlikely":2664,"Ġstrength":2665,"Ġmaj":2666,"Ġblue":2667,"Ġcontains":2668,"Ġempty":2669,"gest":2670,"json":2671,"room":2672,"uctions":2673,"Ġoccur":2674,"Ġparty":2675,"Ġpeace":2676,"uro":2677,"Ġsweet":2678,"uce":2679,"Ġsix":2680,"Ġchick":2681,"Ġsuper":2682,"Ġfiles":2683,"Ġengine":2684,"Ġblood":2685,"ground":2686,"Ġdaught":2687,"div":2688,"Ġbow":2689,"Ġrunning":2690,"Ġjava":2691,"tp":2692,"itude":2693,"Ġimag":2694,"ration":2695,"Ġ13":2696,"Ġaffect":2697,"ny":2698,"Ġproviding":2699,"Ġmic":2700,"Ġdam":2701,"pre":2702,"Ġwritten":2703,"Ġord":2704,"Ġdoor":2705,"Ġearly":2706,"Ġhello":2707,"Ġenter":2708,"22":2709,"fort":2710,"Ġbuilt":2711,"Ġstrings":2712,"Ġrecogn":2713,"Ġhappy":2714,"ably":2715,"Ġhear":2716,"Ġbuy":2717,"?\"":2718,"resh":2719,"Ġfit":2720,"Ġdom":2721,"Ġwalk":2722,"Ġmag":2723,"Ġground":2724,"Ġclos":2725,"Ġconclus":2726,"Ġcompre":2727,"Ġdescribe":2728,"Ġrisk":2729,"Ġcoming":2730,"Ġbrand":2731,"Ġmental":2732,"Ġpredict":2733,"char":2734,"Ġdeb":2735,"ological":2736,"Ġheat":2737,"Ġdefin":2738,"Ġimages":2739,"Ġten":2740,"Ġitems":2741,"Ġphr":2742,"Ġinside":2743,"Ġrecipe":2744,"ius":2745,"Ġ@":2746,"plit":2747,"ustain":2748,"ager":2749,"cre":2750,"Ġoffice":2751,"Ġactivities":2752,"aim":2753,"Ġseem":2754,"Ġlocation":2755,"uh":2756,"Ġlimit":2757,"opp":2758,"Ġunited":2759,"Ġagree":2760,"Ġcat":2761,"Ġguide":2762,"fact":2763,"product":2764,"Ġvi":2765,"Ġurl":2766,"Ġfoot":2767,"Ġperiod":2768,"Ġ**":2769,"Ġrate":2770,"bl":2771,"Ġsche":2772,"Ġwomen":2773,"Ġrelated":2774,"Ġcam":2775,"Ġheard":2776,"Ġstd":2777,"Ġability":2778,"cd":2779,"Ġaff":2780,"Ġinno":2781,"Ġvar":2782,"comp":2783,"Ġwow":2784,"Ġhtml":2785,"Ġcate":2786,"Ġwants":2787,"Ġhon":2788,"Ġ?":2789,"Ġcred":2790,"Ġcool":2791,"Ġthinking":2792,"ights":2793,"uel":2794,"Ġsymbol":2795,"Ġjohn":2796,"fun":2797,"oups":2798,"Ġill":2799,"ask":2800,"ock":2801,"ators":2802,"Ġadded":2803,"box":2804,"Ġfrequ":2805,"Ġsafe":2806,"aps":2807,"Ġconditions":2808,"step":2809,"Ġhigher":2810,"14":2811,"inst":2812,"etic":2813,"aves":2814,"Ġgraph":2815,"Ġant":2816,"Ġparts":2817,"Ġengage":2818,"Ġpair":2819,"Ġcomputer":2820,"ÑĤ":2821,"Ġtold":2822,"Ġconsole":2823,"js":2824,"Ġsoci":2825,"Ġfaith":2826,"ĠĠĠĠĠĠĠĠĠ":2827,"Ġsustain":2828,"Ġeither":2829,"ament":2830,"Ġassign":2831,"Ġappropri":2832,"miss":2833,"Ġrather":2834,"ury":2835,"ief":2836,"Ġcoun":2837,"Ġcomprehens":2838,"Ġexpression":2839,"Ġrelevant":2840,"Ġareas":2841,"clude":2842,"Ġtemperature":2843,"number":2844,"Ġexplan":2845,"itch":2846,"Ġclient":2847,"Ġseed":2848,"Ġingredients":2849,"Ġq":2850,"Ġdeli":2851,"18":2852,"Ġenh":2853,"Ġbutton":2854,"board":2855,"sp":2856,"Ġdetailed":2857,"Ġinstructions":2858,"Ġdictionary":2859,"ots":2860,"Ġsleep":2861,"hen":2862,"Ġwhose":2863,"cer":2864,"Ġlater":2865,"Ġsequence":2866,"Ġpepp":2867,"Ġspr":2868,"rel":2869,"Ġnice":2870,"Ġbecame":2871,"bit":2872,"ively":2873,"Ġconfig":2874,"Ġplayer":2875,"Ġfix":2876,"Ġmi":2877,"Ġbud":2878,"Ġprep":2879,"Ġcollabor":2880,"has":2881,"icate":2882,"Ġmorning":2883,"Ġprivate":2884,"aign":2885,"Ġpan":2886,"Ġmajor":2887,"Ġgoal":2888,"Ġmaterials":2889,"Ġjoey":2890,"Ġben":2891,"ache":2892,"Ġmulti":2893,"21":2894,"Ġprogress":2895,"Ġadding":2896,"Ġbrought":2897,"Ġdistrib":2898,"uth":2899,"Ġtalking":2900,"Ġestab":2901,"isf":2902,"Ġfinan":2903,"Ġpractice":2904,"Ġplant":2905,"ball":2906,"ogle":2907,"Ġdesigned":2908,"Ġdouble":2909,"uted":2910,"ned":2911,"Ġimportance":2912,"irth":2913,"Ġattention":2914,"Ġoffers":2915,"bu":2916,"].":2917,"hers":2918,"Ġformula":2919,"Ġegg":2920,"Ġbehold":2921,"round":2922,"Ġcub":2923,"Ġframe":2924,"Ġtheory":2925,"node":2926,"Ġgeneral":2927,"oph":2928,"Ġfactor":2929,"Ġextract":2930,"Ġcampaign":2931,"Ġange":2932,"Ġseems":2933,"Ġchoice":2934,"Ġmaximum":2935,"Ġnature":2936,"Ġ17":2937,"Ġload":2938,"Ġturned":2939,"osp":2940,"Ġbooks":2941,"Ġseven":2942,"Ġexperiences":2943,"andler":2944,"Ġmovie":2945,"Ġamaz":2946,"Ġjourney":2947,"Ġsorted":2948,"top":2949,"Ġfavor":2950,"Ġanim":2951,"Ġarch":2952,"Ġprogramming":2953,"isions":2954,"Ġconclusion":2955,"Ġrod":2956,"Ġsecret":2957,"query":2958,"ians":2959,"Ġmembers":2960,"Ġsounds":2961,"Ġcases":2962,"Ġcard":2963,"ĠĠĠĠĠĠĠĠĠĠĠĠĠĠĠĠĠĠĠ":2964,"Ġscen":2965,"Ġaccept":2966,"Ġjim":2967,"vered":2968,"Ġann":2969,"Ġgre":2970,"Ġmatter":2971,"Ġissue":2972,"Ġones":2973,"Ġstarted":2974,"Ġanalyze":2975,"Ġwife":2976,"Ġlif":2977,"Ġexact":2978,"element":2979,"chel":2980,"Ġpromot":2981,"lying":2982,"Ġprevent":2983,"Ð¸":2984,"Ġinteract":2985,"Ġeff":2986,"zy":2987,"Ġfast":2988,"Ġupdated":2989,"Ġlat":2990,"html":2991,"Ġtrust":2992,"ĠÃ":2993,"ams":2994,"Ġdescription":2995,"Ġ24":2996,"Ġfamil":2997,"Ġrequirements":2998,"Ġfight":2999,"Ġassist":3000,"Ġthroughout":3001,"Ġcolle":3002,"100":3003,"ued":3004,"Ġtou":3005,"Ġwood":3006,"omes":3007,"change":3008,"Ġprobability":3009,"Ġmodify":3010,"Ġbird":3011,"Ġcloud":3012,"Ġphone":3013,"Ġsources":3014,"Ġbill":3015,"sec":3016,"Ġdraw":3017,"Ġcover":3018,"Ġdistance":3019,"Ġemployees":3020,"Ġitem":3021,"Ġexpected":3022,"chan":3023,"Ġstudent":3024,"tra":3025,"Ġsides":3026,"Ġeffects":3027,"Ġpark":3028,"Ġbehind":3029,"Ġaspect":3030,"Ġleave":3031,"Ġeffort":3032,"Ġgames":3033,"Ġvirt":3034,"Ġaltern":3035,"rt":3036,"Ġsubst":3037,"Ġappropriate":3038,"you":3039,"!\"":3040,"Ġdie":3041,"Ġ[]":3042,"Ġparent":3043,"Ġservant":3044,"Ġmodels":3045,"matrix":3046,"Ġintegers":3047,"Ġstrategy":3048,"\\*\\*":3049,"oes":3050,"imately":3051,"Ġsmart":3052,"Ġsql":3053,"Ġheight":3054,"Ġheaven":3055,"gar":3056,"Ġfruit":3057,"Ġrules":3058,"Ġeducation":3059,"Ġseason":3060,"Ġur":3061,"Ġsalt":3062,"Ġreflect":3063,"Ġevalu":3064,"Ġadapt":3065,"Ġsaith":3066,"Ġdise":3067,"Ġglobal":3068,"cur":3069,"your":3070,"Ġtag":3071,"Ġpractices":3072,"gment":3073,"Ġsolutions":3074,"most":3075,"ux":3076,"Ġplaces":3077,"Ġguess":3078,"Ġbelow":3079,"Ġstarting":3080,"mit":3081,"Ġcultural":3082,"xa":3083,"Ġdog":3084,"elt":3085,"Ġinvolves":3086,"respond":3087,"Ġthus":3088,"Ġlives":3089,"ork":3090,"othes":3091,"https":3092,"Ġmodern":3093,"Ġband":3094,"Ġfib":3095,"urt":3096,"care":3097,"iful":3098,"outh":3099,"Ġrachel":3100,"Ġ40":3101,"Ġattack":3102,"ana":3103,"($":3104,"Ġpray":3105,"Ġevidence":3106,"Ġrom":3107,"Ġentire":3108,"Ġprior":3109,"Ġrich":3110,"Ġfinancial":3111,"Ġele":3112,"llig":3113,"uration":3114,"Ġgives":3115,"valid":3116,"Ġvisit":3117,"ension":3118,"17":3119,"code":3120,"Ġsetting":3121,"Ġtransport":3122,"with":3123,"Ġnavig":3124,"idered":3125,"Ġcollect":3126,"Ġfresh":3127,"Ġbirth":3128,"Ġalt":3129,"Ġconsist":3130,"rypt":3131,"Ġserve":3132,"Ġ:=":3133,"Ġcand":3134,"Ġsmo":3135,"Ġnorm":3136,"Ġhighlight":3137,"aced":3138,"Ġvariety":3139,"ero":3140,"ferences":3141,"Ġguid":3142,"Ġpassage":3143,"Ġprofessional":3144,"Ġcast":3145,"Ġsimpl":3146,"Ġparticip":3147,"Ġled":3148,"Ġ\\*":3149,"Ġconsidered":3150,"artment":3151,"Ġprotect":3152,"Ġpow":3153,"Ġcenter":3154,"Ġbalance":3155,"Ġfeedback":3156,"friend":3157,"Ġobser":3158,"Ġgone":3159,"append":3160,"rap":3161,"Ġmeeting":3162,"Ġcorrespond":3163,"ties":3164,"Ġbed":3165,"Ġwanted":3166,"Ġquickly":3167,"Ġamerican":3168,"Ġreach":3169,"Ġlonger":3170,"60":3171,"ara":3172,"Ġproblems":3173,"ln":3174,"ugg":3175,"Ġsummary":3176,"Ġutil":3177,"Ġbott":3178,"Ġmechan":3179,"Ġlevels":3180,"$,":3181,"rup":3182,"what":3183,"^^":3184,"class":3185,"Ġinstance":3186,"uly":3187,"Ġgroups":3188,"item":3189,"ðŁ":3190,"Ġforth":3191,"ception":3192,"Ġcross":3193,"Ġgovernment":3194,"Ġoutside":3195,"Ġsatisf":3196,"Ġdwight":3197,"aur":3198,"sort":3199,"lab":3200,"Ġproduction":3201,"Ġemer":3202,"astic":3203,"af":3204,"pecial":3205,"Ġgiving":3206,"max":3207,"Ġculture":3208,"Ġdeal":3209,"Ġsuccessful":3210,"Ġtowards":3211,"istics":3212,"Ġdesired":3213,"rem":3214,"Ġleading":3215,"Ġsouth":3216,"Ġstandard":3217,"Ġproperty":3218,"Ġcheese":3219,"title":3220,"Ġrepl":3221,"Ġknew":3222,"any":3223,"Ġrelationships":3224,"oo":3225,"amb":3226,"Ġgoes":3227,"Ġpra":3228,"Ġgoogle":3229,"Ġusage":3230,"ored":3231,"Ġlooks":3232,"\\_\\_":3233,"Ġwine":3234,"field":3235,"Ġtables":3236,"Ġservants":3237,"Ġmob":3238,"Ġhyp":3239,"Ġ!=":3240,"like":3241,"eness":3242,"Ġmis":3243,"Ġcomfort":3244,"gre":3245,"Ġmass":3246,"angle":3247,"Ġfail":3248,"Ġwat":3249,"odes":3250,"osh":3251,"Ġpercent":3252,"Ġfields":3253,"hello":3254,"Ġcomprehensive":3255,"inter":3256,"},":3257,"Ġpattern":3258,"Ġforward":3259,"Ġdemon":3260,"Ġanyone":3261,"Ġdyn":3262,"Ġreward":3263,"Ġbeautiful":3264,"pass":3265,"Ġprompt":3266,"mess":3267,"Ġnations":3268,"][":3269,"anna":3270,"itor":3271,"Ġfilm":3272,"Ġrepe":3273,"Ġcosts":3274,"orage":3275,"Ġfre":3276,"200":3277,"wise":3278,"Ġstress":3279,"Ġmyself":3280,"db":3281,"Ġexplanation":3282,"down":3283,"Ġmouth":3284,"Ġbreat":3285,"Ġinsp":3286,"Ġhoney":3287,"use":3288,"Ġattrib":3289,"Ġwonder":3290,"Ġjac":3291,"32":3292,"she":3293,"Ġfill":3294,"aged":3295,"Ġpurch":3296,"Ġsauce":3297,"Ġmoment":3298,"Ġlines":3299,"apan":3300,"Ġchicken":3301,"Ġincreased":3302,"vi":3303,"40":3304,"aches":3305,"Ġemb":3306,"Ġvoid":3307,"sql":3308,"Ġkingdom":3309,"Ġhealthy":3310,"Ġtrain":3311,"Ġdry":3312,"Ġtruth":3313,"attle":3314,"Ġden":3315,"Ġstuff":3316,"Ġhair":3317,"ression":3318,"Ġintellig":3319,"80":3320,"Ġchandler":3321,"conf":3322,"next":3323,"Ġextra":3324,"Ġliter":3325,"Ġdemand":3326,"Ġtesting":3327,"Ġsituation":3328,"izations":3329,"actions":3330,"Ġactions":3331,"Ġpowerful":3332,"ung":3333,"ival":3334,"Ġobjects":3335,"Ġmicro":3336,"Ġoperations":3337,"Ġmath":3338,"Ġsection":3339,"Ġoffic":3340,"Ġmiddle":3341,"ologies":3342,"Ġfront":3343,"aa":3344,"eous":3345,"une":3346,"ulate":3347,"ĠĠĊ":3348,"enty":3349,"Ġpiece":3350,"lly":3351,"Ġwild":3352,"Ġep":3353,"Ġsell":3354,"Ġarm":3355,"Ġeffectively":3356,"Ġbasic":3357,"13":3358,"Ġaim":3359,"Ġitself":3360,"Ġmr":3361,"ession":3362,"ured":3363,"den":3364,"ony":3365,"Ġmaster":3366,"Ġbackground":3367,"true":3368,"Ġclimate":3369,"start":3370,"def":3371,"where":3372,"iency":3373,"Ġult":3374,"Ġox":3375,"asts":3376,"Ġmillion":3377,"cious":3378,"Ġchecks":3379,"Ġpal":3380,"sequ":3381,"map":3382,"Ġsett":3383,"Ġstack":3384,"Ġstream":3385,"Ġtour":3386,"terns":3387,"Ġstri":3388,"Ġrout":3389,"Ġmentioned":3390,"Ġpret":3391,"Ġquantum":3392,"Ġimm":3393,"Ġdemonstr":3394,"jav":3395,"Ġgrad":3396,"Ġban":3397,"Ġmonths":3398,"itation":3399,"45":3400,"Ġund":3401,"posed":3402,"more":3403,"Ġwest":3404,"Ġjapan":3405,"cket":3406,"Ġjoy":3407,"Ġassociated":3408,"sl":3409,"Ġ->":3410,"Ġrepresents":3411,"Ġgirl":3412,"part":3413,"Ġkept":3414,"Ġvariables":3415,"Ġjacob":3416,"Ġcountries":3417,"Ġalright":3418,"dis":3419,"net":3420,"Ġpho":3421,"Ġpsy":3422,"Ġdaily":3423,"Ġcapital":3424,"Ġhast":3425,"olute":3426,"Ġargument":3427,"Ġexc":3428,"Ġdecisions":3429,"illed":3430,"Ñģ":3431,"Ġrecurs":3432,"Ġspread":3433,"Ġrule":3434,"Ġter":3435,"Ġspecified":3436,"Ġglory":3437,"enge":3438,"Ġcompare":3439,"Ġbless":3440,"Ġvirtual":3441,"mt":3442,"Ġpoem":3443,"Ġstre":3444,"pecially":3445,"Ġgain":3446,"Ġactivity":3447,"Ġconstant":3448,"inner":3449,"Ġcreative":3450,"Ġfish":3451,"Ġtoken":3452,"Ġfathers":3453,"Ġcirc":3454,"lished":3455,"ciples":3456,"enced":3457,"Ġisn":3458,"Ġmel":3459,"Ġemphas":3460,"Ġbroken":3461,"arc":3462,"Ġhistor":3463,"Ġcolors":3464,"itable":3465,"Ġeasier":3466,"ban":3467,"Ġmine":3468,"Ġsmaller":3469,"Ġapplications":3470,"Ġparticularly":3471,"dat":3472,"Ġfra":3473,"Ġuniversity":3474,"token":3475,"spe":3476,"Ġtom":3477,"Ġsomet":3478,"Ġtent":3479,"Ġcou":3480,"pped":3481,"Ġsand":3482,"Ġmonica":3483,"Ġcities":3484,"lete":3485,"Ġmilk":3486,"da":3487,"Ġrighteous":3488,"Ġprem":3489,"asure":3490,"Ġremo":3491,"Ġmotiv":3492,"];":3493,"Ġ###":3494,"venue":3495,"Ð½":3496,"Ġble":3497,"Ġmeal":3498,"Ġdynam":3499,"Ġtypically":3500,"irm":3501,"Ġproduce":3502,"Ġcomponents":3503,"Ġprimary":3504,"Ġreading":3505,"Ġespecially":3506,"Ġcontact":3507,"numbers":3508,"Ġraise":3509,"[\"":3510,"format":3511,"Ġdim":3512,"Ġorders":3513,"Ġgard":3514,"Ġfeeling":3515,"ek":3516,"ham":3517,"Ġapply":3518,"Ġmodule":3519,"math":3520,"Ġstudies":3521,"Ġcomponent":3522,"Ġjavascript":3523,"Ġsoul":3524,"gory":3525,"Ġsty":3526,"Ġrequires":3527,"Ġpatterns":3528,"Ġroad":3529,"Ġletters":3530,"mark":3531,"Ġtrouble":3532,"works":3533,"cending":3534,"Ġneither":3535,"Ġdefault":3536,"Ġwarm":3537,"Ġdirectly":3538,"rief":3539,"Ġconstruct":3540,"qrt":3541,"Ġ60":3542,"vin":3543,"Ġlos":3544,"anger":3545,"inct":3546,"oub":3547,"dddd":3548,"println":3549,"Ġwanna":3550,"Ġhol":3551,"bre":3552,"bon":3553,"Ġscenari":3554,"Ġpam":3555,"Ġmist":3556,"image":3557,"cccc":3558,"hest":3559,"Ġ\"\"":3560,"Ġabsolute":3561,"Ġthereof":3562,"Ġassum":3563,"Ġstatic":3564,"hemat":3565,"Ġeuro":3566,"Ġbrain":3567,"Ġretrie":3568,"Ġnorth":3569,"ĠĠĠĠĠĠ":3570,"Ġeasily":3571,"color":3572,"Ġdaughter":3573,"select":3574,"Ġregard":3575,"len":3576,"Ġbound":3577,"Ġparameters":3578,".)":3579,"Ġ_":3580,"Ġwit":3581,"Ġsan":3582,"Ġthrow":3583,"Ġeconomic":3584,"za":3585,"Ġtopic":3586,"trans":3587,"Ġuniverse":3588,"Ġessay":3589,"Ġremaining":3590,"Ġemotional":3591,"reci":3592,"Ġgets":3593,"Ġengaging":3594,"Ġreceive":3595,"99":3596,"Ġboy":3597,"Ġ---":3598,"Ġscene":3599,"Ġcurrently":3600,"Ġinvolved":3601,"Ġpepper":3602,"Ġindic":3603,"Ġdatas":3604,"Ġseparate":3605,"Ġpict":3606,"Ġclaim":3607,"Ġaware":3608,"Ġrenew":3609,"free":3610,"ÑĢ":3611,"Ġpolicy":3612,"0000":3613,"Ġprograms":3614,"lebr":3615,"iring":3616,"Ġsimply":3617,"Ġasked":3618,"Ġdivid":3619,"world":3620,"year":3621,"Ġprojects":3622,"64":3623,"term":3624,"Ġmap":3625,"Ġexisting":3626,"itect":3627,"Ġskin":3628,"Ġstatus":3629,"ba":3630,"ov":3631,"Ġchat":3632,"Ġfat":3633,"Ġalph":3634,"Ġtouch":3635,"find":3636,"Ġappear":3637,"des":3638,"api":3639,"Ġpassword":3640,"Ġsustainable":3641,"hel":3642,"onac":3643,"Ġinf":3644,"lear":3645,"unk":3646,"Ġsport":3647,"host":3648,"Ġexperiment":3649,"Ġfair":3650,"Ġodd":3651,"Ġremind":3652,"Ġir":3653,"cks":3654,")\\":3655,"df":3656,"Ġgerm":3657,"Ġloss":3658,"cr":3659,"Ġflavor":3660,"Ġsentiment":3661,"Ġsometimes":3662,"ell":3663,"Ġplayers":3664,"write":3665,"ops":3666,"pers":3667,"Ġcondition":3668,"ighb":3669,"Ġperspect":3670,"Ġallowing":3671,"Ġmiles":3672,"medi":3673,"Ġder":3674,"Ġdan":3675,"Ġdress":3676,"Ġconcer":3677,"Ġopportunities":3678,"Ġphoe":3679,"Ġplaying":3680,"Ġpromote":3681,"----------------":3682,"Ġexpert":3683,"[]":3684,"Ġwis":3685,"Ġappreci":3686,"Ġvan":3687,"oper":3688,"Ġphrase":3689,"Ġworth":3690,"Ġcogn":3691,"Ġlarger":3692,"Ġproperties":3693,"Ġcreates":3694,"Ġfif":3695,"ĠâĢ¢":3696,"Ġdirectory":3697,"Ġdesp":3698,"ensive":3699,"Ġactual":3700,"Ġmathemat":3701,"Ġinsert":3702,"Ġchallenge":3703,"Ġarchitect":3704,"Ġsword":3705,"Ġbran":3706,"Ġerrors":3707,"usion":3708,"etch":3709,"Ġcelebr":3710,"Ġdevices":3711,"ened":3712,"Ġprocesses":3713,"Ġthoughts":3714,"onacci":3715,"rench":3716,"Ġnumer":3717,"Ġsample":3718,"Ġparameter":3719,"Ġpen":3720,"ama":3721,"Ġdestr":3722,"Ġmobile":3723,"rics":3724,"asons":3725,"iling":3726,"Ġbrown":3727,"message":3728,"Ġcommit":3729,"Ġcorresponding":3730,"Ġlost":3731,"men":3732,"Ġmedical":3733,"Ġlate":3734,"aph":3735,"Ġrestaur":3736,"stat":3737,"semb":3738,"abilities":3739,"Ġchoices":3740,"Ġexercise":3741,"Ġpretty":3742,"Ġ__":3743,"ordin":3744,"Ġsaf":3745,"loc":3746,"Ġcru":3747,"Ġoperation":3748,"Ġtaste":3749,"Ġchann":3750,"ils":3751,"Ġsold":3752,"Ġsets":3753,"Ġexpand":3754,"Ġenhance":3755,"Ġboard":3756,"px":3757,"Ġuseful":3758,"Ġstorage":3759,"Ġdevice":3760,"Ġinteresting":3761,"Ġfloat":3762,"Ġforce":3763,"Ġsus":3764,"left":3765,"Ġserious":3766,"Ġfinding":3767,"Ġfollows":3768,"Ġplatforms":3769,"Ġencourage":3770,"24":3771,"cient":3772,"====":3773,"orrow":3774,"Ġ<=":3775,"Ġplayed":3776,"Ġbowl":3777,"ding":3778,"Ġecho":3779,"ample":3780,"Ġjose":3781,"Ġcompl":3782,"Ġfilter":3783,"Ġscreen":3784,"lock":3785,"yed":3786,"Ġuncle":3787,"Ġstrugg":3788,"Ġhit":3789,"Ġham":3790,"Ġslow":3791,"hh":3792,"bb":3793,"create":3794,"ses":3795,"uzz":3796,"values":3797,"Ġdepending":3798,"Ġbegan":3799,"Ġbinary":3800,"Ġchina":3801,"iveness":3802,"Ġdish":3803,"Ġcream":3804,"table":3805,"pping":3806,"ĠâĢĺ":3807,"Ġsociety":3808,"ached":3809,"Ġumm":3810,"met":3811,"encies":3812,"Ġincreasing":3813,"Ġagreement":3814,"Ġhumans":3815,"ternal":3816,"icles":3817,"lesh":3818,"Ġforest":3819,"ulations":3820,"Ġphoebe":3821,"cip":3822,"Ġol":3823,"Ġweather":3824,"Ġhelpful":3825,"Ġ[\"":3826,"Ġreality":3827,"Ġregion":3828,"Ġmac":3829,"client":3830,"Ġdivis":3831,"Ġprobably":3832,"Ġĉĉ":3833,"Ġscientific":3834,"aw":3835,"Ġplot":3836,"agraph":3837,"Ġsecure":3838,"frame":3839,"etime":3840,"Ġdesire":3841,"prime":3842,"Ġdecl":3843,"Ġgarden":3844,"ef":3845,"ij":3846,"Ġcontr":3847,"Ġgrand":3848,"score":3849,"well":3850,"ua":3851,"Ġteac":3852,"emp":3853,"run":3854,"Ã³":3855,"Ġreverse":3856,"Ġapprox":3857,"Ġcareer":3858,"Ġsilver":3859,"Ġcatch":3860,"Ġtill":3861,"Ġcolumns":3862,"pret":3863,"uary":3864,"iced":3865,"Ġeye":3866,"Ġadmin":3867,"Ġprocessing":3868,"Ġmeasures":3869,"include":3870,"Ġneighb":3871,"())":3872,"Ġanimals":3873,"lib":3874,"oint":3875,"ado":3876,"adem":3877,"lder":3878,"Ġtrade":3879,"Ġsurface":3880,"Ġhappened":3881,"Ġetc":3882,"Ġeth":3883,"Ġdestro":3884,"Ġdestruction":3885,"aff":3886,"Ġsch":3887,"Ġsuggestions":3888,"aron":3889,"www":3890,"Ġexactly":3891,"Ġelectric":3892,"');":3893,"rate":3894,"Ġwed":3895,"Ġhighly":3896,"Ġemotions":3897,"Ġflesh":3898,"Ġjack":3899,"Ġadvanced":3900,"Ġreducing":3901,"Ġtur":3902,"Ġstar":3903,"Ġconduct":3904,"Ġdelic":3905,"post":3906,"Ġnp":3907,"Ġchief":3908,"Ġpopulation":3909,"Ġintelligence":3910,"Ġdrive":3911,"';":3912,"Ġsite":3913,"Ġrain":3914,"Ġsentences":3915,"Ġfavorite":3916,"Ġeurope":3917,"Ġseek":3918,"Ġpackage":3919,"Ġalternative":3920,"Ġ});":3921,"Ġsafety":3922,"iation":3923,"Ġslic":3924,"email":3925,"Ġrows":3926,"Ġsmooth":3927,"ino":3928,"Ġlack":3929,"Ġassess":3930,"au":3931,"Ġnational":3932,"Ġpoor":3933,"Ġjoseph":3934,"atives":3935,"Ġstage":3936,"uplic":3937,"Ð¾Ð":3938,"button":3939,"Ġcm":3940,"Ġcontract":3941,"Ġmit":3942,"ada":3943,"Ġshape":3944,"Ã¤":3945,"Ġbat":3946,"Ġpolitical":3947,"Ġpriests":3948,"Ġviol":3949,"Ġpsych":3950,"Ġsud":3951,"Ġflex":3952,"Ġreact":3953,"iles":3954,"Ġbudget":3955,"icing":3956,"ios":3957,"Ġhandling":3958,"Ġinternational":3959,"ously":3960,"Ġsex":3961,"flow":3962,"Ġallowed":3963,"Ġjan":3964,"Ġspecies":3965,"Ġtrees":3966,"Ġvegetables":3967,"aving":3968,"Ġshows":3969,"Ġenvironmental":3970,"Ġriver":3971,"equ":3972,"Ġdance":3973,"Ġmagn":3974,"known":3975,"Ġpieces":3976,"Ġton":3977,"Ġbag":3978,"Ġinternet":3979,"Ġstraight":3980,"Ġapple":3981,"friendly":3982,"main":3983,"¿½":3984,"Ġhous":3985,"Ġwindow":3986,"wers":3987,"group":3988,"Ġcritical":3989,"model":3990,"Ġcopy":3991,"ï¿½":3992,"Ġded":3993,"Ġhuh":3994,"Ġmanager":3995,"33":3996,"Ġfilled":3997,"Ġcooking":3998,"Ġhom":3999,"cast":4000,"Ġfelt":4001,"lon":4002,"uits":4003,"init":4004,"Ġsubt":4005,"Ġalex":4006,"inte":4007,"Ġice":4008,"Ġencrypt":4009,"current":4010,"vice":4011,"era":4012,"Ġbutter":4013,"Ġplanning":4014,"Ġforg":4015,"Ġefficiency":4016,"Ġreceived":4017,"Ġjourn":4018,"Ġlimited":4019,"Ġtransportation":4020,"Ġmal":4021,"Ġmoving":4022,"flict":4023,"Ġhealthcare":4024,"Ġmessages":4025,"ller":4026,"Ġstories":4027,"Ġju":4028,"Ġpresident":4029,"Ġresponsible":4030,"comm":4031,"Ġrespond":4032,"Ġalgorithms":4033,"Ġyork":4034,"ÃŃ":4035,"Ġusually":4036,"Ġadvert":4037,"Ġhttps":4038,"Ġbrothers":4039,"Ġevaluate":4040,"75":4041,"Ġtick":4042,"Ġrevenue":4043,"tes":4044,"Ġaccom":4045,"Ġspecifically":4046,"Ġlargest":4047,"Ġwidth":4048,"Ġfrench":4049,"Ġchance":4050,"Ġdisk":4051,"Ġrefers":4052,"Ġlayer":4053,"Ġ)":4054,"Ġbey":4055,"Ġlabel":4056,"amin":4057,"Ġparagraph":4058,"ography":4059,"Ġrenewable":4060,"hent":4061,"Ġpy":4062,"content":4063,"Ġestablish":4064,"Ġnest":4065,"Ġbond":4066,"Ġnovel":4067,"Ġresulting":4068,"90":4069,"Ġyog":4070,"que":4071,"Ġalign":4072,"anging":4073,"amm":4074,"Ġdoll":4075,"password":4076,"Ġcognitive":4077,"65":4078,"width":4079,"Ġsac":4080,"Ġtwenty":4081,"Ġglass":4082,"position":4083,"Ġdivide":4084,"Ġtruly":4085,"agram":4086,"Ġmoon":4087,"Ġbroad":4088,"Ġarguments":4089,"Ġfamilies":4090,"fit":4091,"Ġsaul":4092,"Ġbecomes":4093,"Ġchem":4094,"Ġphilos":4095,"Ġtab":4096,"Ġwise":4097,"Ġpet":4098,"Ġspaces":4099,"ifying":4100,"Ġadvant":4101,"Ġorganizations":4102,"Ġiterate":4103,"status":4104,"under":4105,"enter":4106,"Ġstock":4107,"Ġcontaining":4108,"ole":4109,"Ġ]":4110,"Ġsolar":4111,"Ġsky":4112,"ipment":4113,"ares":4114,"label":4115,"Ġconflict":4116,"Ġprotein":4117,"Ġinfluence":4118,"Ġupper":4119,"Ġsheet":4120,"Ġorganization":4121,"Ġinsights":4122,"ait":4123,"Ġisland":4124,"Ġclients":4125,"arian":4126,"sal":4127,"Ġtax":4128,"inal":4129,"stream":4130,"Ġdetect":4131,"Ġcombination":4132,"Ġvector":4133,"Ġensuring":4134,"Ġattract":4135,"Ġhighest":4136,"Ġaltar":4137,"uable":4138,"Ġ,":4139,"Ġstone":4140,"band":4141,"Ġwasn":4142,"Ġcounter":4143,"Ġcrow":4144,"oms":4145,"arily":4146,"Ġbright":4147,"():":4148,"mber":4149,"Ġlinked":4150,"Ġbeyond":4151,"Ã¡":4152,"Ġcollection":4153,"Ġdisease":4154,"Ġaaron":4155,"Ġshap":4156,"Ġscal":4157,"Ġstick":4158,"ename":4159,"Ġasking":4160,"function":4161,"iet":4162,"Ġovercome":4163,"how":4164,"tot":4165,"Ġprec":4166,"Ġschedu":4167,"='":4168,"iff":4169,"Ġacadem":4170,"Ġcalls":4171,"comes":4172,"Ġsubstit":4173,"Ġ####":4174,"vey":4175,"Ġsummar":4176,"etry":4177,"request":4178,"output":4179,"Ġgenerated":4180,"Ġincorporate":4181,"Ġrates":4182,"Ġforms":4183,"can":4184,"ades":4185,"Ġsugar":4186,"Ġinterface":4187,"Ġconversation":4188,"Ġeast":4189,"Ġsurv":4190,"connect":4191,"Ġpreferences":4192,"Ġteaching":4193,"Ġgeneration":4194,"Ġdeveloping":4195,"Ġlocated":4196,"Ġsoon":4197,"Ġmodified":4198,"Ġ80":4199,"Ġweeks":4200,")^":4201,"Ġwel":4202,"Ġze":4203,"force":4204,"Ġcollege":4205,"Ġalone":4206,"Ġwisdom":4207,"icated":4208,"erate":4209,"Ġvac":4210,"Ġcloth":4211,"oding":4212,"Ġminute":4213,"Ġfrequency":4214,"ided":4215,"phone":4216,"Ġseeing":4217,"Ġminimum":4218,"process":4219,"mission":4220,"Ġancient":4221,"Ġtraffic":4222,"hood":4223,"itted":4224,"Ġmountain":4225,"sqrt":4226,"Ġshared":4227,"Ġsurround":4228,"Ġpractical":4229,"ev":4230,"Ġthread":4231,"aked":4232,"rig":4233,"Ġconsid":4234,"je":4235,"Ġaust":4236,"Ġign":4237,"Ġscale":4238,"Ġhypothes":4239,"gon":4240,"Ġteams":4241,"zer":4242,"Ġspend":4243,"Ġaccurate":4244,"Ġfibonacci":4245,"Ġactive":4246,"Ġdistinct":4247,"pack":4248,"Ġflight":4249,"Ġwitness":4250,"'.":4251,"Ġsplit":4252,"poon":4253,"Ġlin":4254,"Ġbeliefs":4255,"}$.":4256,"level":4257,"raint":4258,"Ġinnov":4259,"Ġanimal":4260,"Ġunit":4261,"Ġsyn":4262,"Ġip":4263,"Ġlists":4264,"Ġincluded":4265,"Ġgent":4266,"Ġglad":4267,"oke":4268,"Ġdrop":4269,"Ġjoke":4270,"Ġdifferences":4271,"tered":4272,"ounds":4273,"Ġprefer":4274,"Ġseconds":4275,"colate":4276,"Ġdeliver":4277,"Ġcrucial":4278,"Ġgas":4279,"Ġcredit":4280,"ifications":4281,"config":4282,"}$":4283,"Ġfamous":4284,"Ġadvent":4285,"idge":4286,"Ġrou":4287,"Ġkill":4288,"mas":4289,"Ġafric":4290,"Ġsitu":4291,"Ġec":4292,"Ġstars":4293,"Ġinterested":4294,"Ġbeauty":4295,"Ġ21":4296,"Ġprison":4297,"Ġinvent":4298,"rant":4299,"xic":4300,"Ġciv":4301,"Ġstarts":4302,"Ġinterpret":4303,"Ġeggs":4304,"pes":4305,"Ġbank":4306,"Ġ22":4307,"Ġtele":4308,"Ġcold":4309,"csv":4310,"Ġreli":4311,"Ġdetail":4312,"inese":4313,"iel":4314,"Ġoutcomes":4315,"Ġtechnologies":4316,"car":4317,"Ġdefined":4318,"Ġsalad":4319,"Ġinvolve":4320,"Ġbirds":4321,"ii":4322,"lines":4323,"ring":4324,"Ġlad":4325,"Ġexchange":4326,"Ġcompar":4327,"Ġresource":4328,"Ġrecip":4329,"Ġintroduction":4330,"Ġhun":4331,"atever":4332,"Ġvaluable":4333,"Ġotherwise":4334,"Ġsynt":4335,"ĠâĪ":4336,"Ġcategor":4337,"Ġcompos":4338,"Ġsubs":4339,"Ġpassed":4340,"Ġnormal":4341,"70":4342,"house":4343,"Ġrat":4344,"rome":4345,"Ġrecent":4346,"price":4347,"Ġrequests":4348,"Ġfigure":4349,"Ġhelping":4350,"Ġwindows":4351,"isms":4352,"Ġreasons":4353,"irect":4354,"Ġjoin":4355,"Ġdeveloped":4356,"Ġconcepts":4357,"Ġpraise":4358,"idden":4359,"offering":4360,"Ġborn":4361,"Ġprofit":4362,"Ġdiet":4363,"bel":4364,"Ġzero":4365,"Ġpayment":4366,"Ġpresence":4367,"Ġidentity":4368,"object":4369,"Ġprepare":4370,"().":4371,"itory":4372,"Ġprices":4373,"td":4374,"oming":4375,"Ġ{\"":4376,"Ġdownload":4377,"Ġinvestig":4378,"Ġmissing":4379,"rupt":4380,"arp":4381,"otes":4382,"Ġsav":4383,"Ġrelig":4384,"Ġinvestment":4385,"((":4386,"yal":4387,"ĠÂ":4388,"Ġstret":4389,"rs":4390,"Ġna":4391,"Ġgather":4392,"Ġalb":4393,"Ġedge":4394,"Ġcontinu":4395,"Ġreference":4396,"style":4397,"Ġvary":4398,"cker":4399,"Ġimmedi":4400,"ashion":4401,"Ġ1000":4402,"Ġbeginning":4403,"Ġgarlic":4404,"oy":4405,"state":4406,"Ġaspects":4407,"Ġbeg":4408,"Ġtall":4409,"Ġeight":4410,"Ġplants":4411,"Ġfunny":4412,"Ġsnipp":4413,"Ġamazing":4414,"Ġfollowed":4415,"Ġrefer":4416,"Ġrelease":4417,"rec":4418,"Ġatm":4419,"Ġhelped":4420,"Ġtechnique":4421,"Ġroll":4422,"Ġopportunity":4423,"Ġdataset":4424,"life":4425,"Ġkings":4426,"eline":4427,"Ġherit":4428,"Ġcontainer":4429,"Ġsuggests":4430,"Ġwaters":4431,"Ġenable":4432,"Ġreturned":4433,"build":4434,"Ġhistorical":4435,"ky":4436,"Ġkids":4437,"Ġmarried":4438,"34":4439,"Ġtomat":4440,"uting":4441,"Ġshut":4442,"Ġcombine":4443,"Ġwhatever":4444,"Ġchinese":4445,"ption":4446,"ague":4447,"Ġwaiting":4448,"Ġcorrectly":4449,"Ġgal":4450,"Ġrese":4451,"Ġrent":4452,"colum":4453,"Ġdescrib":4454,"Ġgree":4455,"Ġdespite":4456,"aly":4457,"http":4458,"Ġlev":4459,"Ġkeys":4460,"Ġprints":4461,"Ġrighteousness":4462,"split":4463,"Ġremote":4464,"fficient":4465,"Ġfeelings":4466,"Ġchanged":4467,"Ġheritage":4468,"Ġiron":4469,"agon":4470,"Ġcentral":4471,"wrong":4472,"Ġvolume":4473,"Ġquite":4474,"Ġequipment":4475,"Ġcommunities":4476,"Ġoptimize":4477,"Ġpressure":4478,"Ġalmost":4479,"Ġloved":4480,"Ġwrath":4481,"Ġauthent":4482,"dict":4483,"Ġsho":4484,"Ġinstit":4485,"Ġpages":4486,"Ġtheme":4487,"Ġpoll":4488,"Ġapples":4489,"xi":4490,"Ġstir":4491,"Ġconsequ":4492,"Ġleaves":4493,"Ġsheep":4494,"lim":4495,"from":4496,"Ġtone":4497,"Ġpars":4498,"Ġbes":4499,"Ġdro":4500,"imize":4501,"Ġchallenging":4502,"cause":4503,"xture":4504,"Ġrelax":4505,"Ġpurs":4506,"Ġmedium":4507,"Ġengagement":4508,"ĠÃĹ":4509,"Ġplain":4510,"Ġcontribute":4511,"Ġrise":4512,"apter":4513,"Ġmatches":4514,"Ġimproving":4515,"win":4516,"Ġreve":4517,"Ġpoly":4518,"Ġvow":4519,"Ġvill":4520,"Ġplans":4521,"Ġblog":4522,"01":4523,"eper":4524,"iar":4525,"Ġfunc":4526,"Ġsurpr":4527,"Ġsignificance":4528,"sembly":4529,"ha":4530,"Ġcompared":4531,"Ġcrit":4532,"Ġdepth":4533,"Ġfixed":4534,"Ġconsidering":4535,"Ġvision":4536,"page":4537,"rew":4538,"Ġsister":4539,"yl":4540,"Ġsupply":4541,"Ġcells":4542,"Ġapproximately":4543,"Ġfaster":4544,"Ġheld":4545,"though":4546,"ube":4547,"bot":4548,"fast":4549,"Ġfocused":4550,"Ġcomments":4551,"Ġphara":4552,"Ġcalling":4553,"Ġunclean":4554,"ship":4555,"itter":4556,"Ġmeat":4557,"Ġpharaoh":4558,"Ġos":4559,"Ġhus":4560,"Ġcert":4561,"Ġdial":4562,"alph":4563,"Ġforget":4564,"Ġ32":4565,"Ġlibraries":4566,"reme":4567,"Ġ{\\":4568,"enses":4569,"Ġgoods":4570,"Ġflour":4571,"address":4572,"Ġmixture":4573,"ee":4574,"mes":4575,"Ġdiscount":4576,"Ġsegment":4577,"Ġearli":4578,"Ġfacebook":4579,"Ġcombined":4580,"Ġexcell":4581,"pace":4582,"Ġoce":4583,"Ġdanger":4584,"anc":4585,"Ġbrit":4586,"Ġmindful":4587,"Ġcompletely":4588,"ufact":4589,"Ġdisc":4590,"Ġ\\\\":4591,"Ġcore":4592,"Ġhop":4593,"Ġrus":4594,"Ġmoved":4595,"Ġcarry":4596,"Ġlegal":4597,"doc":4598,"gh":4599,"sup":4600,"Ġpand":4601,"Ġresol":4602,"Ġtechnical":4603,"Ġgotta":4604,"airs":4605,"person":4606,"mic":4607,"antic":4608,"response":4609,"Ġwear":4610,"icked":4611,"Ġoppos":4612,"urance":4613,"raham":4614,"Ġcovered":4615,"Ġanswers":4616,"Ġclasses":4617,"Ġburned":4618,"++)":4619,"late":4620,"that":4621,"Ġsharing":4622,"Ġunits":4623,"Ġsummer":4624,"Ġhypothesis":4625,"Ġfashion":4626,"Ġshad":4627,"Ġcards":4628,"Ġfro":4629,"Ġthreat":4630,"ifies":4631,"Ġmanaging":4632,"Ġemployee":4633,"ÏĢ":4634,"acity":4635,"Ġenem":4636,"izer":4637,"Ġcoordin":4638,"Ġago":4639,"Ġveh":4640,"root":4641,"Ġfem":4642,"Ġfunctionality":4643,"Ġrecommendations":4644,"Ġreasoning":4645,"option":4646,"Ġcategory":4647,"Ġmut":4648,"Ġya":4649,"Ġabraham":4650,"Ġspent":4651,"Ġtransfer":4652,"Ġtrip":4653,"Ġmovement":4654,"Ġofficial":4655,"Ġjournal":4656,"Ġmir":4657,"abet":4658,"Ġchocolate":4659,"Ġoperator":4660,"hab":4661,"Ð»":4662,"Ġduplic":4663,"Ġvine":4664,"Ġworked":4665,"Ġelabor":4666,"Ġlesswrong":4667,"gu":4668,"Ġhat":4669,"Ġ28":4670,"Ġkeeping":4671,"Ġcivil":4672,"Ġpiz":4673,"Ġdinner":4674,"Ġeverybody":4675,"Ġconstraint":4676,"Ġstaff":4677,"Ġpromp":4678,"Ġpartners":4679,"Ġobtain":4680,"Ġstructures":4681,"Ġdistribution":4682,"pu":4683,"Ġwealth":4684,"Ġsuccessfully":4685,"Ġbattle":4686,"asc":4687,"Ġflat":4688,"Ġadvice":4689,"Ġpaul":4690,"Ġfully":4691,"]:":4692,"ref":4693,"used":4694,"ĠĠĠĠĠĠĠĠĠĠĠĠĠ":4695,"Ġplanet":4696,"Ġswitch":4697,"Ġstyles":4698,"oon":4699,"org":4700,"Ġbrief":4701,"Ġdece":4702,"Ġbelief":4703,"Ġrisks":4704,"Ġaccuracy":4705,"Ġram":4706,"Ġelif":4707,"Ġlongest":4708,"Ġprofession":4709,"Ġparents":4710,"Ġsnippet":4711,"uge":4712,"ype":4713,"Ġears":4714,"Ġluck":4715,"hy":4716,"Ġchain":4717,"Ġpros":4718,"Ġmanufact":4719,"Ġ45":4720,"ae":4721,"random":4722,"Ġadds":4723,"rene":4724,"Ġtranslate":4725,"ech":4726,"Ġpush":4727,"Ġlogic":4728,"Ġms":4729,"Ġimplementing":4730,"Ġsettings":4731,"base":4732,"Ġbaking":4733,"urch":4734,"Ġstreet":4735,"Ġtwe":4736,"Ġjames":4737,"Ġrice":4738,"ctors":4739,"Ġselection":4740,"Ġkit":4741,"Ġ23":4742,"ificial":4743,"Ġimproved":4744,"Ġcentury":4745,"Ġhearing":4746,"Ġali":4747,"Ġcarbon":4748,"making":4749,"Ġbul":4750,"Ġshame":4751,"cdot":4752,"Ġsar":4753,"Ġborder":4754,"ceed":4755,"Ġonto":4756,"Ġtea":4757,"opped":4758,"Ġnavigate":4759,"Ġlabor":4760,"Ġcouldn":4761,"Ġhearts":4762,"Ġesc":4763,"Ġframework":4764,"first":4765,"Ġdb":4766,"ria":4767,"Ġtopics":4768,"Ġvideos":4769,"Ġdepends":4770,"sent":4771,"info":4772,"Ġinterview":4773,"Ġimplemented":4774,"Ġremains":4775,"Ġinteractive":4776,"old":4777,"iving":4778,"Ġopening":4779,"Ġpatient":4780,"Ġretrieve":4781,"Ġtv":4782,"Ġbeth":4783,"Ġmanner":4784,"ishment":4785,"Ġgrace":4786,"Ġcomputing":4787,"Ġsummarize":4788,"Ġtit":4789,"rapy":4790,"Ġunc":4791,"Ġqual":4792,"Ġlooked":4793,"Ġdomain":4794,"Ġ\"\"\"":4795,"dig":4796,"nded":4797,"acing":4798,"param":4799,"Ġbottom":4800,"Ġschedule":4801,"Ġhusband":4802,"Ġweak":4803,"Ġrational":4804,"join":4805,"Ġefforts":4806,"ka":4807,"onent":4808,"atory":4809,"Ġpuzz":4810,"Ġoffe":4811,"Ġgate":4812,"omon":4813,"Ġalthough":4814,"look":4815,"Ġlanguages":4816,"66":4817,"link":4818,"iny":4819,"Ġhall":4820,"Ġdirection":4821,"Ġpicture":4822,"Ġrestaurant":4823,"));":4824,"rc":4825,"sol":4826,"Ġmad":4827,"inger":4828,"Ġmember":4829,"Ġchanging":4830,"Ġtonight":4831,"erv":4832,"Ġconver":4833,"Ġdefe":4834,"Ġroast":4835,"Ġstored":4836,"Ġillust":4837,"Ġatmosp":4838,"Ġlearned":4839,"Ġmaintaining":4840,"Ġangle":4841,"custom":4842,"Ġ};":4843,"Ġdriving":4844,"Ġtowns":4845,"Ġpriorit":4846,"Ġolive":4847,"Ġsituations":4848,"Ġcsv":4849,"Ġpap":4850,"Ġjudge":4851,"Ġperspective":4852,"Ġhaven":4853,"itely":4854,"context":4855,"Ġconsult":4856,"Ġrelative":4857,"Ġgenerally":4858,"Ġcouple":4859,"Ġrank":4860,"Ġdescript":4861,"Ġleaders":4862,"Ġdefinition":4863,"Ġpurchase":4864,"Ġoven":4865,"ancy":4866,"aming":4867,"Ġgenerates":4868,"Ġabsolutely":4869,"Ġphilosoph":4870,"Ġtrig":4871,"Ġreaders":4872,"Ġadvance":4873,"Ġconstruction":4874,"Ġcircum":4875,"Ġaccompl":4876,"Ġmale":4877,"Ġhosp":4878,"roll":4879,"iday":4880,"abb":4881,"osen":4882,"Ġgrowing":4883,"vious":4884,"Ġtheore":4885,"Ġandy":4886,"Ġmeters":4887,"Ġdamage":4888,"irty":4889,"estamp":4890,"Ġdiverse":4891,"opping":4892,"Ġelaborate":4893,"flo":4894,"Ġeph":4895,"users":4896,"Ġpotentially":4897,"core":4898,"Ġthemes":4899,"Ġsolomon":4900,"Ġpaid":4901,"Ġheads":4902,"Ġoptimization":4903,"Ġimagine":4904,"lin":4905,"sm":4906,"source":4907,"raw":4908,"Ġtreatment":4909,"Ġdelicious":4910,"Ġnarr":4911,"Ġdiscover":4912,"pa":4913,"Ġsession":4914,"uten":4915,"Ġves":4916,"Ġpull":4917,"oration":4918,"Ġgods":4919,"ensions":4920,"begin":4921,"Ġmercy":4922,"Ġhash":4923,"Ġ90":4924,"iers":4925,"Ġsen":4926,"Ġvict":4927,"hib":4928,"Ġmagic":4929,"Ġprayer":4930,"orial":4931,"Ġshift":4932,"Ġwatching":4933,"javascript":4934,"{\\":4935,"Ñĥ":4936,"....":4937,"Ġarmy":4938,"Ġimplic":4939,"Ġartificial":4940,"instance":4941,"Ġgerman":4942,"Ġconsequences":4943,"28":4944,"55":4945,"Ġpill":4946,"Ġexists":4947,"check":4948,"Ġwalking":4949,"Ġofferings":4950,"Ġshown":4951,"plication":4952,"Ġcreation":4953,"Ġlaws":4954,"Ġnutr":4955,"Ġspake":4956,"Ġclassic":4957,"Ġanalyt":4958,"Ġappears":4959,"}\")":4960,"tim":4961,"alle":4962,"Ġnation":4963,"Ġfool":4964,"wered":4965,"Ġwouldn":4966,"clusive":4967,"Ġtomorrow":4968,"Ġexcellent":4969,"gl":4970,"script":4971,"click":4972,"Ġleads":4973,"Ġexecute":4974,"(-":4975,"Ġba":4976,"Ġbob":4977,"Ġdecre":4978,"Ġinputs":4979,"Ġtried":4980,"Ġbask":4981,"Ġâī":4982,"Ġprophet":4983,"Ġspan":4984,"Ġcris":4985,"Ġcommonly":4986,"Ġinitialize":4987,"Ġplug":4988,"Ġsuitable":4989,"oken":4990,"Ġdecimal":4991,"Ġradius":4992,"Ġrevolution":4993,"Ġcollaboration":4994,"iding":4995,"Ġjosh":4996,"Ġdelete":4997,"Ġchopped":4998,"Ġcommunicate":4999,"Ġproperly":5000,"Ġindepend":5001,".âĢĿ":5002,"ca":5003,"gree":5004,"reg":5005,"Ġcake":5006,"eries":5007,"Ġhate":5008,"Ġteach":5009,"Ġclar":5010,"Ġiniti":5011,"Ġdepartment":5012,"ync":5013,"Ġbabylon":5014,"Ġarchitecture":5015,"Ġpod":5016,">\\":5017,"bar":5018,"dir":5019,"Ðº":5020,"Ġrect":5021,".\")":5022,"Ġartists":5023,"Ġcampaigns":5024,"Ġadminist":5025,"Ġvessel":5026,"Ġinj":5027,"Ġpersonalized":5028,"Ġhttp":5029,"Ġtrends":5030,"Ġintegration":5031,"Ġcompetition":5032,"Ġexercises":5033,"Ġocean":5034,"rep":5035,"ightly":5036,"Ġ&&":5037,"command":5038,"fix":5039,"tw":5040,"Ġcit":5041,"Ġkn":5042,"rows":5043,"**:":5044,"Ġpremise":5045,"Ġresearc":5046,"hand":5047,"erve":5048,"Ġleaving":5049,"example":5050,"Ġhouses":5051,"([":5052,"roid":5053,"local":5054,"\"?":5055,"range":5056,"Ġsight":5057,"istance":5058,"chen":5059,"Ġphysics":5060,"Ġmode":5061,"Ġbear":5062,"Ġapplied":5063,"Ġauthority":5064,"Ġcraft":5065,"Ġearlier":5066,"ped":5067,"acter":5068,"soft":5069,"Ġdecide":5070,"Ġconfiguration":5071,"Ġinner":5072,"Ġwelcome":5073,"67":5074,"Ġvir":5075,"Ġring":5076,"Ġrub":5077,"Ġattend":5078,"Ġresid":5079,"ounter":5080,"Ġcaused":5081,"lt":5082,"lower":5083,"Ġcos":5084,"Ġthick":5085,"Ġcalculates":5086,"Ġturning":5087,"____":5088,"Ġtrib":5089,"Ġfant":5090,"Ġdepl":5091,"Ġran":5092,"Ġmeant":5093,"Ġgrain":5094,"Ġinstruction":5095,"Ġconnected":5096,"Ã¼":5097,"Ġwish":5098,"Ġadult":5099,"Ġfinish":5100,"Ġcriter":5101,"Ġextreme":5102,"pan":5103,"Ġcars":5104,"ancing":5105,"Ġanxi":5106,"Ġphp":5107,"Ġanxiety":5108,"Ġgift":5109,"Ġ($":5110,"Ġprepar":5111,"Ġburning":5112,"Ġsacr":5113,"}\\":5114,"cm":5115,"dep":5116,"Ġfont":5117,"Ġdied":5118,"Ġopin":5119,"Ġphilist":5120,"Ġconcerns":5121,",âĢĿ":5122,"Ġinfr":5123,"omen":5124,"Ġkid":5125,"Ġ27":5126,"Ġsupposed":5127,"Ġcausing":5128,"Ġexception":5129,"sin":5130,"Ġtail":5131,"real":5132,"eral":5133,"Ġlaunch":5134,"Ġargs":5135,"Ġbuff":5136,"Ġchecking":5137,"Ġnotice":5138,"Ġyellow":5139,"anges":5140,"Ġreleased":5141,"Ġanalyz":5142,"Ġsudden":5143,"ror":5144,"Ġhappens":5145,"`:":5146,"Ġdoub":5147,"Ġweird":5148,"Ġ<-":5149,"being":5150,"Ġreader":5151,"Ġpotat":5152,"sim":5153,"Ġafford":5154,"Ġadvertising":5155,"Ġjobs":5156,"Ġbreath":5157,"vis":5158,"Ġmountains":5159,"Ġhidden":5160,"Ġeating":5161,"child":5162,"Ġbelieved":5163,"Ġaug":5164,"Ġpour":5165,"ifier":5166,"Ġrot":5167,"(),":5168,"Ġapart":5169,"Ġclothing":5170,")(":5171,"Ġicon":5172,"open":5173,"ibly":5174,"Ġpizza":5175,":\",":5176,"Ġsad":5177,"Ġchapter":5178,"^^^^":5179,"inations":5180,"Ġgi":5181,"Ġvia":5182,"Ġclub":5183,"ĠĠĠĠĠĠĠĠĠĠĠĠĠĠĠĠĠĠĠĠĠĠĠ":5184,"Ġ500":5185,"Ġflag":5186,"Ġcourt":5187,"Ġcamera":5188,"invalid":5189,"Ġchart":5190,"Ġguest":5191,"Ġanswered":5192,"Ġselected":5193,"Ġroute":5194,"target":5195,"xy":5196,"php":5197,"Ġrights":5198,"Ġsnack":5199,"29":5200,"Ġcart":5201,"Ġbell":5202,"Ġdigits":5203,"Ġsports":5204,"Ġlie":5205,"Ġlunch":5206,"Ġapps":5207,"Ġposts":5208,"Ġultimately":5209,"})":5210,"bra":5211,"quality":5212,"Ġraised":5213,"ker":5214,"items":5215,"rote":5216,"Ġends":5217,"Ġprinciples":5218,"total":5219,"kens":5220,"thren":5221,"Ġchosen":5222,"astr":5223,"Ġinval":5224,"Ġbrethren":5225,"Ġfloor":5226,"500":5227,"Ġseat":5228,"Ġkiss":5229,"ipped":5230,"Ġoffered":5231,"Ġamb":5232,"Ġlived":5233,"Ġgolden":5234,"Ġprincip":5235,"Ġeconomy":5236,"Ġfundament":5237,"Ġrecipes":5238,"Ġkeywords":5239,"Ġthine":5240,"Ġark":5241,"Ġcompute":5242,"Ġevolution":5243,"contain":5244,"Ġputs":5245,"ĠâĢĶ":5246,"exec":5247,"ronic":5248,"Ġnetworks":5249,"Ġcups":5250,"mond":5251,"Ġaz":5252,"Ġregist":5253,"month":5254,"Ġdivision":5255,"Ġmur":5256,"ili":5257,"Ġarri":5258,"Ġincome":5259,"Ġsalvation":5260,"Ġdynamic":5261,"Ġcss":5262,"Ġfailure":5263,"Ġwedding":5264,"dri":5265,"last":5266,"nam":5267,"hered":5268,"Ġshop":5269,"Ġjapanese":5270,"Ġsarah":5271,"ds":5272,"Ġstup":5273,"Ġassembly":5274,"Ġupright":5275,"weight":5276,"Ġjews":5277,"insert":5278,"Ġaccessible":5279,"pi":5280,"Ġvul":5281,"Ġbenefit":5282,"Ġmixed":5283,"gments":5284,"task":5285,"Ġsnow":5286,"Ġsaved":5287,"Ġserved":5288,"Ġchristmas":5289,"Ġawareness":5290,"atically":5291,"Ġneural":5292,"Ġconscious":5293,"Ġcharge":5294,"Ġdevelopers":5295,"Ġax":5296,"uster":5297,"Ġhen":5298,"Ġevol":5299,"Ġprepared":5300,"Â°":5301,"imin":5302,"dered":5303,"Ġpolicies":5304,"Ġangel":5305,"water":5306,"Ġvert":5307,"Ġworkers":5308,"Ġdesk":5309,"Ġdelivery":5310,"ambda":5311,"Ġgro":5312,"ester":5313,"Ġtwice":5314,"ublic":5315,"Ġcircle":5316,"Ġincorporating":5317,"Ġemerg":5318,"48":5319,"raft":5320,"Ġstores":5321,"Ġpaint":5322,"Ġprophe":5323,"Ġepis":5324,"Ġdivisible":5325,"arg":5326,"Ġthor":5327,"osing":5328,"Ġsuff":5329,"Ġfruits":5330,"Ġrecords":5331,"Ġta":5332,"Ġahead":5333,"Ġpassion":5334,"pop":5335,"Ġtor":5336,"odies":5337,"Ġsolid":5338,"Ġcurs":5339,"Ġcreativity":5340,"ucture":5341,"boxed":5342,"Ġpromoting":5343,"Ġinnovative":5344,"Ġstupid":5345,"Ġwo":5346,"Ġtend":5347,"Ġlose":5348,"Ġtwel":5349,"Ġuk":5350,"Ġrepresentation":5351,"Ġamerica":5352,"Ġjuice":5353,"Ġacademic":5354,"Ġbath":5355,"Ġcancer":5356,"Ġwilling":5357,"Ġmanip":5358,"Ġmeditation":5359,"Ġappreciate":5360,"wind":5361,"Ġquote":5362,"Ġstrange":5363,"Ġupdates":5364,"Ġcandid":5365,"Ġchemical":5366,"even":5367,"Ġow":5368,"Ġfetch":5369,"Ġpropos":5370,"Ġdescribed":5371,"Ġaustral":5372,"Ġfest":5373,"Ġcomment":5374,"Ġappend":5375,"\"))":5376,"Ġcookies":5377,"Ġbay":5378,"Ġ{}":5379,"Ġration":5380,"Ġpatients":5381,"args":5382,"Ġspot":5383,"Ġdaughters":5384,"36":5385,"Ġstones":5386,"Ġ300":5387,"Ġfourth":5388,"Ġstood":5389,"kend":5390,"choice":5391,"Ġbritish":5392,"({":5393,"rm":5394,"Ġfed":5395,"Ġshot":5396,"coming":5397,"Ġdecided":5398,"Ġ>=":5399,"Ġattemp":5400,"Ġfell":5401,"Ġ$(":5402,"Ġretail":5403,"Ġstanding":5404,"Ġsignificantly":5405,"orary":5406,"itary":5407,"arm":5408,"Ġnan":5409,"Ġvs":5410,"tery":5411,"Ġplaced":5412,"igned":5413,"Ġatmosphere":5414,"Ġfab":5415,"leg":5416,"Ġdecor":5417,"Ġproductivity":5418,"Ġdrug":5419,"Ġneighbor":5420,"Ġtherapy":5421,"illa":5422,"cles":5423,"Ġpartner":5424,"Ġsmell":5425,"27":5426,"ki":5427,"Ġcommer":5428,"Ġcorpor":5429,"Ġlowercase":5430,"Ġspring":5431,"Ġlatest":5432,"Ġmathematical":5433,"Ġbasket":5434,"Ġful":5435,"imeter":5436,"Ġorange":5437,"Ġexternal":5438,"Ġtests":5439,"match":5440,"Ġconcise":5441,"Ġoptimal":5442,"Ġinnovation":5443,"Ġliterature":5444,"Ġbought":5445,"Ġisa":5446,"conne":5447,"Ġraw":5448,"Ġindia":5449,"Ġtemple":5450,"Ġattribute":5451,"xx":5452,"Ġsem":5453,"Ġspin":5454,"Ġsitting":5455,"Ġvulner":5456,"Ġbeat":5457,"Ġstation":5458,"Ġsevent":5459,"Ġrose":5460,"Ġdishes":5461,"Ġincred":5462,"Ġentertain":5463,"Ġdigit":5464,"Ġcomparison":5465,"\").":5466,"yan":5467,"zen":5468,"Ġooh":5469,"Ġinches":5470,"Ġimmediately":5471,"Ġmindfulness":5472,"35":5473,"bash":5474,"pred":5475,"Ġphen":5476,"Ġhero":5477,"Ġquiet":5478,"={":5479,"entity":5480,"chain":5481,"olf":5482,"Ġunf":5483,"lose":5484,"Ġpleasure":5485,"Ġbelong":5486,"Ġskill":5487,"Ġannoun":5488,"26":5489,"std":5490,"Ġgrat":5491,"Ġ199":5492,"ener":5493,"Ġdad":5494,"Ġunknown":5495,"Ġwhoa":5496,"icks":5497,"Ġpunct":5498,"Ġpowder":5499,"sheet":5500,"mut":5501,"Ġdust":5502,"ĠĠĠĠĠĠĠĠĊ":5503,"Ġsmallest":5504,"Ġfocusing":5505,"height":5506,"Ġhill":5507,"Ġdear":5508,"Ġplays":5509,"Ġprinted":5510,"Ġmetal":5511,"Ġcourses":5512,"pat":5513,"txt":5514,"Ġscan":5515,"Ġpairs":5516,"Ġrepeat":5517,"sequence":5518,"Ġ(`":5519,"Ġaws":5520,"ipping":5521,"Ġpeter":5522,"rible":5523,"Ġresearchers":5524,"Ġinfrastr":5525,"Ġdepart":5526,"asy":5527,"Ġmoreover":5528,"Ġrecommended":5529,"Ġscenarios":5530,"Ġphenomen":5531,"Ġbon":5532,"Ġrevers":5533,"ums":5534,"ules":5535,"Ġprophets":5536,"Ġcu":5537,"Ġwhis":5538,"Ġdesigns":5539,"Ġinfluenc":5540,"Ġdreams":5541,"Ġdefinitely":5542,"Ġfactorial":5543,"Ġnested":5544,"Ġcher":5545,"Ġber":5546,"Ġbehavi":5547,"Ġconnections":5548,"Ġoct":5549,"Ġnodes":5550,"Ġwearing":5551,"Ġshopping":5552,"Ġ26":5553,"Ġestablished":5554,"\\*\\*\\*\\*":5555,"Ġbranch":5556,"Ġlevites":5557,"event":5558,"Ġ29":5559,"there":5560,"Ġregions":5561,"Ġcaptain":5562,"Ġembra":5563,"found":5564,"~~":5565,"Ġmig":5566,"ingu":5567,"Ġgall":5568,"Ġworry":5569,"Ġacqu":5570,"Ġbreakfast":5571,"Ġcutting":5572,"Ġcapture":5573,"Ġscenario":5574,"Ġprofessionals":5575,"arter":5576,"Ġatte":5577,"Ġvalley":5578,"ensity":5579,"Ġevening":5580,"Ġlandsc":5581,"Ġtribe":5582,"Ġteacher":5583,"press":5584,"Ġsoup":5585,"ordan":5586,"Ġplastic":5587,"Ġvalueerror":5588,"Ġstatements":5589,"Ġmovies":5590,"Ġpunishment":5591,"Ġdollars":5592,"Ġfly":5593,"plays":5594,"Ġcluster":5595,"Ġseeking":5596,"Ġinsurance":5597,"Ġlogical":5598,"Ġhyper":5599,"Ġinfrastructure":5600,"aled":5601,"vector":5602,"Ġmyst":5603,"Ġpool":5604,"dec":5605,"return":5606,"Ġroutine":5607,"Ġpride":5608,"Ġ${":5609,"Ġindustries":5610,"bin":5611,"utive":5612,"Ġwashing":5613,"Ġpolice":5614,"Ġcauses":5615,"Ġrecognition":5616,"Ġassistant":5617,"Ġbillion":5618,"Ġdestroy":5619,"Ġdu":5620,"Ġserving":5621,"Ġheavy":5622,"Ġlinks":5623,"cccccccc":5624,"connection":5625,"unt":5626,"rency":5627,"strings":5628,"Ġearn":5629,"Ġangry":5630,"dddddddd":5631,"](":5632,"89":5633,"Ġtup":5634,"Ġwrote":5635,"icy":5636,"Ġloud":5637,"stac":5638,"stack":5639,"cking":5640,"Ġvegan":5641,"Ġcriteria":5642,"Ġinvalid":5643,"alled":5644,"Ġhabit":5645,"Ġpeoples":5646,"Ġrap":5647,"Ġputting":5648,"Ġhyd":5649,"Ġsongs":5650,"86":5651,"Ġalert":5652,"Ġtriangle":5653,"Ġseeds":5654,"Ġchannel":5655,"Ġphilistines":5656,"false":5657,"Ġcontinues":5658,"apple":5659,"grees":5660,"emplo":5661,"Ġwicked":5662,"adr":5663,"Ġloyal":5664,"Ġpregn":5665,"Ġgrid":5666,"Ġtotally":5667,"Ġexperienced":5668,"Ġtranslation":5669,"Ġnuc":5670,"Ġlic":5671,"Ġdescending":5672,"Ġparse":5673,"Ġpublished":5674,"Ġreports":5675,"Ġphrases":5676,"Ġdivided":5677,"Ġfaces":5678,"Ġselling":5679,"Ġworship":5680,"Ġclim":5681,"Ġrationality":5682,"fill":5683,"Ġreferr":5684,"Ġpossess":5685,"Ġuncertain":5686,"Ġinher":5687,"Ġxml":5688,"author":5689,"uffer":5690,"Ġpowers":5691,"Ġrecursive":5692,"Ġscr":5693,"Ġdisciples":5694,"Ġoperating":5695,"Ġengineering":5696,"44":5697,"vas":5698,"Ñı":5699,"Ġdegree":5700,"team":5701,"Ġmysql":5702,"eping":5703,"Ġfinds":5704,"Ġacts":5705,"Ġgrav":5706,"Ġcapacity":5707,"Ġlayout":5708,"related":5709,"Ġsubtract":5710,"iration":5711,"Ġdeeper":5712,"Ġsigns":5713,"Ġemploy":5714,"Ġdiscussion":5715,"iot":5716,"Ġsi":5717,"Ġjordan":5718,"Ġnotes":5719,"Ġdoctor":5720,"indrome":5721,"Ġestim":5722,"Ġclearly":5723,"Ġtracking":5724,"Ġreviews":5725,"Ġregularly":5726,"Ġprompts":5727,"Ġjoshua":5728,"ext":5729,"hal":5730,"Ġhell":5731,"Ġship":5732,"Ġabst":5733,"Ġappoint":5734,"Ġcalculated":5735,"Ġadventure":5736,"Ġthirty":5737,"section":5738,"umin":5739,"Ġchurch":5740,"Ġspoken":5741,"athan":5742,"Ġslightly":5743,"Ġexceed":5744,"Ġfamiliar":5745,"long":5746,"Ġru":5747,"---":5748,"Ġimpacts":5749,"Ġmilitary":5750,"filter":5751,"Ġtwelve":5752,"ded":5753,"Ġstan":5754,"ilit":5755,"osy":5756,"Ġclothes":5757,"aria":5758,"Ġbot":5759,"Ġly":5760,"Ġlas":5761,"uries":5762,"raid":5763,"Ġknows":5764,"Ġspeech":5765,"Ġinteractions":5766,"Ġpainting":5767,"Ġimplications":5768,"igen":5769,"web":5770,"Ġsuppl":5771,"Ġmenu":5772,"Ġiteration":5773,"column":5774,">>":5775,"Ġsod":5776,"Ġboss":5777,"Ġhang":5778,"Ġgun":5779,"usage":5780,"Ġnoise":5781,"Ġtexture":5782,"Ġruns":5783,"Ġaims":5784,"Ġcategories":5785,"Ġcro":5786,"rill":5787,"Ġteas":5788,"Ġemiss":5789,"Ġ2022":5790,"Ġlaug":5791,"Ġmonit":5792,"Ġarrange":5793,"Ġwidely":5794,"Ġcord":5795,"Ġfuel":5796,"Ġnil":5797,"Ġfeels":5798,"Ġpit":5799,"ulated":5800,"Ġcycle":5801,"Ġhoriz":5802,"Ġconsistent":5803,"Ġcas":5804,"Ġforces":5805,"ithub":5806,"Ġaren":5807,"Ġyourselves":5808,"Ġgrass":5809,"Ġmonitor":5810,"Ġblessing":5811,"Ġadvantage":5812,"37":5813,"Ġchair":5814,"Ġplus":5815,"Ġafraid":5816,"Ġexpos":5817,"Ġfurthermore":5818,"Ġscientists":5819,"Ġfitness":5820,"lst":5821,"sk":5822,"account":5823,"Ġoutline":5824,"Ġcooked":5825,"Ġaudio":5826,"Ġoccurs":5827,"Ġbirthday":5828,"^{":5829,"tree":5830,"Ġterr":5831,"Ġdegrees":5832,"Ġfunctional":5833,"Ġintel":5834,"Ġobstac":5835,"Ġ70":5836,"Ġpolit":5837,"Ġinterests":5838,"Ġmission":5839,"Ġamazon":5840,"Ġurban":5841,"Ġfemale":5842,"uts":5843,"Ġoutcome":5844,"Ġproduced":5845,"Ġruss":5846,"Ġnic":5847,"Ġdisplays":5848,"Ġguard":5849,"Ġindeed":5850,"Ġcrazy":5851,"Ġgat":5852,"Ġrender":5853,"Ġfort":5854,"Ġvoc":5855,"Ġpositions":5856,"ront":5857,"Ġlimitations":5858,"Ġparticipants":5859,"fall":5860,"hol":5861,"iform":5862,"rial":5863,"access":5864,"Ġlemon":5865,"Ġ(-":5866,"Ġuna":5867,"Ġ35":5868,"Ġsco":5869,"Ġ```\\":5870,"Ġobvious":5871,"Ġexpenses":5872,"calcul":5873,"asks":5874,"Ġjump":5875,"Ġmexic":5876,"Ġjustice":5877,"Ġagency":5878,"Ġeventually":5879,"Ġflowers":5880,"Ġalphabet":5881,"Ġgratitude":5882,"dy":5883,"Ġrestr":5884,"Ġproto":5885,"Ġ||":5886,"Ġconfusion":5887,"Ġkinda":5888,"contro":5889,"Ġaccurately":5890,"Ġregarding":5891,"Ġmitig":5892,"Ġyoga":5893,"reprene":5894,"Ġbye":5895,"akers":5896,">`":5897,"cs":5898,"haps":5899,"Ġexcus":5900,"plot":5901,"Ġformer":5902,"Ġawait":5903,"going":5904,"ford":5905,"lled":5906,"Ġfle":5907,"Ġyea":5908,"Ġensures":5909,"Ġmidst":5910,"rad":5911,"Ġmole":5912,"Ġassume":5913,"__(":5914,"Ġdelive":5915,"Ġwalls":5916,"05":5917,"Ġtong":5918,"amount":5919,"sect":5920,"Ġarms":5921,"Ġbecoming":5922,"Ġintric":5923,"Ġfrance":5924,"Ġtalent":5925,"Ġholding":5926,"partial":5927,"edom":5928,"Ġrein":5929,"Ġjew":5930,"Ġaward":5931,"Ġexploring":5932,"Ġentry":5933,"Ġlinear":5934,"Ġdomin":5935,"Ġbenj":5936,"Ã³n":5937,"Ġdescribes":5938,"Ġabilities":5939,"avors":5940,"Ġnumpy":5941,"Ġpasta":5942,"close":5943,"effect":5944,"sa":5945,"Ġrewrite":5946,"Ġdogs":5947,"Ġentreprene":5948,"Ġshowing":5949,"Ġlistening":5950,"Ġlifted":5951,"Ġcash":5952,"Ġpi":5953,"oting":5954,"Ġproced":5955,"Ġryan":5956,"Ġohh":5957,"Ġrace":5958,"Ġideal":5959,"Ġdriver":5960,"Ġarrays":5961,"Ġexistence":5962,"Ġdiscovery":5963,"Ġgreek":5964,"Ġpuzzle":5965,"det":5966,"Ġmes":5967,"Ġhur":5968,"Ġvib":5969,"Ġparties":5970,"expect":5971,"project":5972,"Ġequations":5973,"Ġinfluenced":5974,"Ġhorse":5975,"Ġprioritize":5976,"Ġtut":5977,"icit":5978,"Ġcalif":5979,"parse":5980,"Ġreduced":5981,"Ġprotection":5982,"Ġconsumption":5983,"Ġcomfortable":5984,"Ġpul":5985,"ushed":5986,"Ġtelling":5987,"Ġslide":5988,"Ġpromise":5989,"Ġdetermined":5990,"Ġforeign":5991,"nes":5992,"Ġvariations":5993,"Ġgluten":5994,"Ġfighting":5995,"Ġmary":5996,"Ġfee":5997,"Ġ2023":5998,"Ġcontrast":5999,"Ġfundamental":6000,"Ġsick":6001,"Ġpadd":6002,"Ġtower":6003,"Ġbeef":6004,"umps":6005,"Ġsequ":6006,"Ġ(\"":6007,"Ġpricing":6008,"Ġgenerations":6009,"Ġauto":6010,"scale":6011,"craft":6012,"vision":6013,"rer":6014,"Ġmars":6015,"eting":6016,"books":6017,"hetic":6018,"Ġgentle":6019,"Ġosc":6020,"area":6021,"Ġolder":6022,"Ġresponses":6023,"39":6024,"ril":6025,"Ġpure":6026,"Ġpounds":6027,"Ġlets":6028,"Ġidentifying":6029,"backs":6030,"Ð°Ð":6031,"ga":6032,"jang":6033,"Ġtun":6034,"Ġpil":6035,"Ġknowing":6036,"Ġmood":6037,"Ġsignal":6038,"Ġhousehold":6039,"Ġincorrect":6040,"\"\\":6041,"Ġdut":6042,"Ġweigh":6043,"Ġspect":6044,"ogue":6045,"Ġowners":6046,"country":6047,"Ġsearching":6048,"Ġwinter":6049,"iance":6050,"Ġath":6051,"cons":6052,"Ġtwitter":6053,"exception":6054,"Ġpurpos":6055,"Ġwebsites":6056,"ornia":6057,"Ġdiseases":6058,"cate":6059,"Ġpm":6060,"Ġimpl":6061,"version":6062,"Ġfindings":6063,"Ġeducational":6064,"points":6065,"Ġnuts":6066,"Ġscores":6067,"rooms":6068,"java":6069,"Ġchannels":6070,"ÑĮ":6071,"Ġtro":6072,"Ġautomatically":6073,"Ġrespectively":6074,"Ġefficiently":6075,"train":6076,"Ġ);":6077,"Ġwid":6078,"Ġjon":6079,"Ġvast":6080,"Ġ36":6081,"Ġresil":6082,"Ġgreatest":6083,"Ġowner":6084,"Ġobjective":6085,"Ġseemed":6086,"spec":6087,"di":6088,"mo":6089,"ille":6090,"Ġneck":6091,"Ġagent":6092,"Ġprinting":6093,"Ġfinished":6094,"Ġconfidence":6095,"Ġguidance":6096,"Ġkitchen":6097,"ein":6098,"Ġarise":6099,"Ġ}\\":6100,"Ġwriter":6101,"Ġjoh":6102,"Ġexploration":6103,"Ġsupports":6104,"Ġfaced":6105,"Ġmike":6106,".\",":6107,"bits":6108,"Ġpin":6109,"Ġll":6110,"reshold":6111,"Ġkevin":6112,"Ġsorting":6113,"default":6114,"sche":6115,"xml":6116,"ening":6117,"Ġital":6118,"Ġconvey":6119,"orders":6120,"Ġdiscovered":6121,"Ġrecognize":6122,"Ġhonor":6123,"greg":6124,"Ġattributes":6125,"rees":6126,"Ġascending":6127,"Ġmultiply":6128,"Ġfarm":6129,"Ġconsumers":6130,"Ġhonest":6131,"Ġreligious":6132,"eta":6133,"see":6134,"Ġconv":6135,"Ġvisually":6136,"Ġgirls":6137,"Ġpercentage":6138,"Ġemissions":6139,"Ġfirm":6140,"cell":6141,"Ġ`<":6142,"Ġalice":6143,"Ġtrump":6144,"Ġlib":6145,"Ġspecify":6146,"Ġauth":6147,"hips":6148,"Ġvegetable":6149,"Ġdelivered":6150,")]":6151,"Ġmarch":6152,"Ġdf":6153,"Ġsharp":6154,"Ġmyster":6155,"Ġcovers":6156,"Ġintu":6157,"Ġincrement":6158,"tenance":6159,"Ġdiam":6160,"Ġcommanded":6161,"attrib":6162,"ographic":6163,"Ġafrican":6164,"77":6165,"sw":6166,"inv":6167,"Ġhurt":6168,"Ġads":6169,"ressed":6170,"Ġdocuments":6171,"Ġtranslated":6172,"38":6173,"Ġcab":6174,"Ġperhaps":6175,"Ġleader":6176,"Ġstronger":6177,"Ġreliable":6178,"Ġdeploy":6179,")$":6180,"Ġbeans":6181,"Ġroles":6182,"Ġ['":6183,"Ġformed":6184,"Ġ150":6185,"Ġcalifornia":6186,"jour":6187,"Ġphe":6188,"Ġalmond":6189,"Ġfeast":6190,"Ġcompleted":6191,"Ġsandw":6192,"Ġmistake":6193,"location":6194,"Ġanalytics":6195,";\\":6196,"Ġscott":6197,"Ġapolog":6198,"Ġ2020":6199,"Ġfoods":6200,"Ġrepresenting":6201,"Ġnumerous":6202,"rated":6203,"lla":6204,"aker":6205,"Ġcolon":6206,"Ġsubstring":6207,"Ġcharacteristics":6208,"cher":6209,"pow":6210,"Ġisol":6211,"Ġspending":6212,"Ġoverview":6213,"Ġoccas":6214,"Ġhighlights":6215,"cor":6216,"lay":6217,"su":6218,"Ġii":6219,"Ġdar":6220,"ondon":6221,"Ġaffected":6222,"Ġremoved":6223,"Ġratio":6224,"Ġpunctuation":6225,"Ġpurposes":6226,"Ġnative":6227,"Ġandroid":6228,"Ġinhab":6229,"Ġhex":6230,"Ġlegs":6231,"Ġeffectiveness":6232,"balance":6233,"Ġlaid":6234,"entials":6235,"Ġkeyword":6236,"Ġheader":6237,"Ġturns":6238,"Ġexpertise":6239,"Ġbranches":6240,"Ã¶":6241,"Ġfan":6242,"Ġbeach":6243,"ston":6244,"Ġcomplement":6245,"Ġfold":6246,"Ġmotion":6247,"Ġfalling":6248,"Ġhosts":6249,"Ġballs":6250,"wide":6251,"âĪ":6252,"ushing":6253,"Ġcultures":6254,"Ġruler":6255,"Ġblockchain":6256,"Ġthousands":6257,"aws":6258,"Ġrh":6259,"());":6260,"Ġcontinued":6261,"which":6262,"ĠÐ¿":6263,"Ġdates":6264,"tex":6265,"Ġspices":6266,"Ġboost":6267,"Ġspiritual":6268,"Ġsatisfaction":6269,"Ġterra":6270,"Ġbenjamin":6271,"mble":6272,"ini":6273,"imp":6274,"Ġkm":6275,"ipher":6276,"const":6277,"Ġserves":6278,"Ġparalle":6279,"Ġelectr":6280,"Ġfunding":6281,"Ġcubits":6282,"Ġprotocol":6283,">:":6284,"aan":6285,"cat":6286,"hr":6287,"Ġhuge":6288,"Ġrust":6289,"Ġunion":6290,"active":6291,"Ġperimeter":6292,"ibilities":6293,"Ġblank":6294,"Ġartist":6295,"Ġsecre":6296,"Ġinstrument":6297,"Ġinfin":6298,"Ġspanish":6299,"Ġexcuse":6300,"mar":6301,"Ġbeast":6302,"Ġupload":6303,"Ġlesson":6304,"wood":6305,"herent":6306,"rip":6307,"Ġken":6308,"Ġinteraction":6309,"Ġsins":6310,"Ġdedicated":6311,"Ġtomatoes":6312,"Ġcommercial":6313,"nel":6314,"Ġbac":6315,"Ġmeets":6316,"agers":6317,"Ġcurse":6318,"Ġmaintenance":6319,"mony":6320,"Ġassistance":6321,"learn":6322,"Ġsliced":6323,"ym":6324,"Ġbeer":6325,"Ġexport":6326,"Ġsolving":6327,"Ġexpensive":6328,"Ġepisode":6329,"rb":6330,"uing":6331,"Ġlst":6332,"Ġextend":6333,"Ġlogg":6334,"Ġrach":6335,"Ġcalm":6336,"Ġhole":6337,"Ġ2021":6338,"Ġtells":6339,"Ġfacilit":6340,"Ġbodies":6341,"Ġsuppose":6342,"Ġparticles":6343,"Ġdatetime":6344,"service":6345,"Ġencryption":6346,"Ġhospital":6347,"Ġinherit":6348,"_{":6349,"cop":6350,"Ġcache":6351,"Ġoath":6352,"rot":6353,"hern":6354,"Ġsomebody":6355,"Ġapartment":6356,"Ġminister":6357,"Ġcloser":6358,"Ġanalyzing":6359,"Ġack":6360,"asm":6361,"asp":6362,"vere":6363,"Ġ\",":6364,"Ġsimilarly":6365,"========":6366,"uk":6367,"Ġshoes":6368,"elines":6369,"Ġcorner":6370,"Ġprofile":6371,"john":6372,"Ġhardware":6373,"Ġphoto":6374,"Ġisaac":6375,"buffer":6376,"Ġordered":6377,"Ġtransp":6378,"Ġarts":6379,"Ġkeeps":6380,"Ġmuse":6381,"Ġdemonstrate":6382,"Ġexcited":6383,"Ġgathered":6384,"cp":6385,"Ġpiv":6386,"Ġbare":6387,"cked":6388,"Ġmoves":6389,"Ġhook":6390,"Ġhappiness":6391,"Ġvalidate":6392,"Ġschools":6393,"ijah":6394,"Ġroasted":6395,"\\\\":6396,"hi":6397,"Ġdoors":6398,"Ġdefines":6399,"Ġindicate":6400,"Ġapproaches":6401,"Ġperformed":6402,"Ġstands":6403,"Ġconcent":6404,"Ġpresentation":6405,"Ġcrypt":6406,"Ġradio":6407,"Ġindicating":6408,"draw":6409,"Ġtokens":6410,"Ġist":6411,"Ġtransition":6412,"Ġopened":6413,"Ġstandards":6414,"Ġqueen":6415,"Ġethical":6416,"><":6417,"high":6418,"Ġonion":6419,"Ġspark":6420,"Ġwrit":6421,"Ġmetrics":6422,"Ġswim":6423,"Ġconcern":6424,"Ġarmies":6425,"Ġconstraints":6426,"85":6427,"var":6428,"Ġske":6429,"update":6430,"Ġbutt":6431,"Ġelimin":6432,"Ġcurve":6433,"Ġmargin":6434,"Ġvalidation":6435,"Ġboxes":6436,"ros":6437,"util":6438,"thread":6439,"Ġyours":6440,"Ġ$$":6441,"Ġexperts":6442,"Ġavoc":6443,"Ġburnt":6444,"Ġdebt":6445,"alpha":6446,"Ġdwell":6447,"Ġaccordingly":6448,"gb":6449,"alk":6450,"rand":6451,"Ġalive":6452,"Ġgreatly":6453,"Ġencounter":6454,"uid":6455,"Ġdelight":6456,"Ġentered":6457,"Ġfoundation":6458,"Ġclosed":6459,"Ġ\"$":6460,"abc":6461,"Ġanyway":6462,"Ġinstalled":6463,"Ġpassing":6464,"Ġspeaker":6465,"Ġappearance":6466,"Ġnarrative":6467,"Ġrestrict":6468,")`":6469,"fmt":6470,"Ġaid":6471,"Ġlondon":6472,"Ġrid":6473,"reader":6474,"Ġlocations":6475,"counts":6476,"Ġconversion":6477,"Ġfreedom":6478,"Ġescape":6479,"Ġcooper":6480,"Ġblind":6481,"Ġcreatures":6482,"working":6483,"123":6484,"Ġdemoc":6485,"olean":6486,"Ġalbum":6487,"Ġpandas":6488,"Ġacknow":6489,"Ġsour":6490,"Ġalloc":6491,"Ġ400":6492,"Ġharry":6493,"Ġhotel":6494,"Ġintroduce":6495,"Ġsymbols":6496,"Ġvisitors":6497,"}}":6498,"yy":6499,"icial":6500,"Ġshel":6501,"Ġequival":6502,"Ġbrands":6503,"Ġsorrow":6504,"Ġexcel":6505,"Ġfifty":6506,"Ġteachers":6507,"Ġsyntax":6508,"Ġcitiz":6509,"Ġpd":6510,"Ġbind":6511,"Ġjul":6512,"aren":6513,"conn":6514,"Ġgenerating":6515,"idding":6516,"Ġexecution":6517,"Ġlabels":6518,"Ġcompetitive":6519,"Ġroman":6520,"expected":6521,"pal":6522,"ti":6523,"who":6524,"Ġworse":6525,"Ġmoab":6526,"Ġherself":6527,"Ġindian":6528,"Ġinterval":6529,"Ġmarks":6530,"Ġorganic":6531,"server":6532,"Ġdividing":6533,"Ġtar":6534,"Ġshr":6535,"teams":6536,"Ġcarefully":6537,"apping":6538,"Ġcapabilities":6539,"Ġachieving":6540,"Ġinternal":6541,"Ġpor":6542,"Ġpas":6543,"Ġthri":6544,"ida":6545,"ifts":6546,"Ġsoil":6547,"berry":6548,"Ġrealized":6549,"username":6550,"Ġnutri":6551,"Ġrobert":6552,"ĠâīĪ":6553,"efficient":6554,"Ġcel":6555,"Ġstake":6556,"Ġliqu":6557,"Ġspeaking":6558,"Ġflor":6559,"Ġperforming":6560,"Ġiterates":6561,"Ġdisplayed":6562,"Ġsecrets":6563,"fol":6564,"Ġcow":6565,"Ġexit":6566,"Ġchamp":6567,"Ġ<+":6568,"system":6569,"Ġopposite":6570,"bf":6571,"Ġdna":6572,"Ġreached":6573,"second":6574,"Ġlege":6575,"ago":6576,"Ġclin":6577,"Ġsale":6578,"Ġinitially":6579,"Ġassigned":6580,"city":6581,"cos":6582,"orph":6583,"Ġnine":6584,"iments":6585,"grid":6586,"ensional":6587,"transform":6588,"Ġvessels":6589,"oded":6590,"Ġkil":6591,"Ġtwist":6592,"Ġintent":6593,"Ġmedic":6594,"Ġimprovement":6595,"Ġemotion":6596,"Ġclaims":6597,"Ġvillage":6598,"49":6599,"unte":6600,"iewer":6601,"Ġaddresses":6602,"}{\\":6603,"Ġeuropean":6604,"Ġstretch":6605,"Ġteaspoon":6606,"orge":6607,"istry":6608,"pline":6609,"Ġimposs":6610,"Ġrealize":6611,"Ġcomputers":6612,"Ġdarkness":6613,"security":6614,",\\":6615,"cout":6616,"direct":6617,"Ġfer":6618,"allow":6619,"Ġboat":6620,"Ġengaged":6621,"Ġorganized":6622,"Ġexpressions":6623,"evidence":6624,"Ġpivot":6625,"pm":6626,"arrow":6627,"omb":6628,"Ġkne":6629,"Ġunco":6630,"oking":6631,"Ġbiggest":6632,"Ġstatistics":6633,"Ġbitter":6634,"Ġmagical":6635,"Ġitalian":6636,"Ġwaves":6637,"Ġcontemp":6638,"Ġvit":6639,"essions":6640,"comple":6641,"Ġven":6642,"anged":6643,"Ġresting":6644,"Ġdepression":6645,"Ġverb":6646,"Ġvolunte":6647,"Ġfoolish":6648,"Ġlandscape":6649,"home":6650,"ups":6651,"outs":6652,"Ġappealing":6653,"ðŁĴ":6654,"02":6655,"pet":6656,"onom":6657,"lets":6658,"Ġstorm":6659,"Ġprimes":6660,"Ġrare":6661,"cost":6662,"Ġviews":6663,"Ġassignment":6664,"Ġsprink":6665,"Ġmicrosoft":6666,"Ġconcerning":6667,"Ġastr":6668,"admin":6669,"raim":6670,"Ġride":6671,"agn":6672,"grad":6673,"Ġ64":6674,"Ġromantic":6675,"Ġuppercase":6676,"Ġresolve":6677,"Ġaffordable":6678,"Ġobstacles":6679,"blo":6680,"iences":6681,"pmatrix":6682,"Ġsir":6683,"Ġwire":6684,"Ġresolution":6685,"athy":6686,"Ġapril":6687,"Ġsurely":6688,"Ġfootball":6689,"Ġfifth":6690,"Ġbesides":6691,"two":6692,"osystem":6693,"Ġweap":6694,"Ġconference":6695,"Ġcapable":6696,"Ġnegot":6697,"Ġdifficulty":6698,"ping":6699,"hem":6700,"Ġmart":6701,"Ġbub":6702,"Ġhan":6703,"ishes":6704,"eless":6705,"Ġbuildings":6706,"Ġchoosing":6707,"Ġfocuses":6708,"Ġconsumer":6709,"fu":6710,"lor":6711,"Ġlake":6712,"Ġproof":6713,"keys":6714,"ifice":6715,"Ġanymore":6716,"Ġcounts":6717,"Ġmush":6718,"Ġincreases":6719,"Ġsanct":6720,"Ġsuddenly":6721,"Ġmonitoring":6722,"mem":6723,"Ġtap":6724,"using":6725,"Ġforty":6726,"Ġbeasts":6727,"Ġvent":6728,"Ġrating":6729,"Ġcoven":6730,"versity":6731,"Ġdirector":6732,"integer":6733,"float":6734,"Ġimpossible":6735,"ebs":6736,"stop":6737,"oted":6738,"Ġproposed":6739,"rab":6740,"Ġbreaking":6741,"Ġfailed":6742,"Ġbias":6743,"Ġmerge":6744,"filename":6745,"Ġtablespoon":6746,"Ġsubstitute":6747,"Ġfabric":6748,"dt":6749,"Ġ;":6750,"Ġbones":6751,"Ġaside":6752,"Ġloose":6753,"Ġencount":6754,"Ġcompat":6755,"exp":6756,"Ġrefrig":6757,"Ġcaught":6758,"Ġselecting":6759,"Ġcleaning":6760,"256":6761,"Ġintroduced":6762,"Ġecosystem":6763,"inos":6764,"Ġprotest":6765,"Ġcanada":6766,"ifact":6767,"Ġsaving":6768,"Ġachieved":6769,"nums":6770,"Ġfacing":6771,"Ġdimensions":6772,"Ġintricate":6773,"\"],":6774,"').":6775,"Ġfellow":6776,"Ġterrible":6777,"Ġmistakes":6778,"Ġamp":6779,"Ġsoph":6780,"Ġunlike":6781,"Ġrecently":6782,"ensor":6783,"Ġaccounts":6784,"Ġutility":6785,"Ġprimarily":6786,"Ġephraim":6787,"Ġaccident":6788,"Ġheavens":6789,"Ġdestination":6790,"Ġcontributed":6791,"Ġignore":6792,"Ġentertainment":6793,"03":6794,"1000":6795,"79":6796,"call":6797,"tag":6798,"Ġdough":6799,"Ġhint":6800,"Ġanger":6801,"iry":6802,"Ġ(!":6803,"Ġfeat":6804,"Ġgrade":6805,"Ġfunds":6806,"Ġwave":6807,"Ġsegments":6808,"Ġplate":6809,"Ġcontents":6810,"aved":6811,"Ġbold":6812,"Ġunderlying":6813,"Ġflash":6814,"Ġmachines":6815,"Ġseriously":6816,"Ġpsychological":6817,"Ġthorough":6818,"Ġapologize":6819,"dim":6820,"frequ":6821,"chars":6822,"irts":6823,"riage":6824,"Ġnumbered":6825,"Ġacting":6826,"Ġdirections":6827,"byid":6828,"Ġmonthly":6829,"Ġstruggle":6830,"Ġattempt":6831,"/>":6832,"bt":6833,"Ġ48":6834,"Ġagents":6835,"Ġpersonality":6836,"Ġedit":6837,"Ġbreaks":6838,"Ġswift":6839,"Ġpredictions":6840,"sentence":6841,"Ñĭ":6842,"Ġagr":6843,"instr":6844,"arant":6845,"Ġyield":6846,"asse":6847,"Ġexhib":6848,"Ġfolder":6849,"Ġoutputs":6850,"Ġpayments":6851,"Ġlayers":6852,"Ġcycl":6853,"Ġera":6854,"[:":6855,"dr":6856,"hey":6857,"Ġduration":6858,"Ġhung":6859,"eds":6860,"Ġlun":6861,"okes":6862,"Ġending":6863,"Ġassert":6864,"Ġsending":6865,"Ġavailability":6866,"company":6867,"description":6868,"Ġprecision":6869,"Ġinhabit":6870,"ked":6871,"Ġsizes":6872,"ervation":6873,"Ġcoast":6874,"Ġbusy":6875,"Ġhumor":6876,"Ġshowcase":6877,"Ġinstruments":6878,"Ġintegrate":6879,"Ġcyber":6880,"Ġreplaced":6881,"low":6882,"Ġtang":6883,"Ġsabb":6884,"Ġpig":6885,"Ġcha":6886,"Ġjeh":6887,"Ġformal":6888,"Ġsubmit":6889,"Ġrulers":6890,"Ġportion":6891,"Ġrobot":6892,"Ġpeppers":6893,"]]":6894,"stood":6895,"Ġmyth":6896,"Ġcalend":6897,"Ġconfirm":6898,"Ġtemperatures":6899,"Ġmechanisms":6900,"customer":6901,"power":6902,"Ġcanaan":6903,"ander":6904,"Ġbuying":6905,"gener":6906,"Ġwilder":6907,"Ġemphasizes":6908,"Ġcute":6909,"Ġ120":6910,"ishing":6911,"Ġexpectations":6912,"Ġharm":6913,"Ġschol":6914,"Ġcritic":6915,"Ġabstract":6916,"Ġpheebs":6917,"han":6918,"och":6919,"Ġtheories":6920,"Ġstable":6921,"umes":6922,"ols":6923,"teen":6924,"Ġshell":6925,"Ġemily":6926,"Ġdeveloper":6927,"Ġarticles":6928,"Ġrepos":6929,"holders":6930,"Ġrepeated":6931,"Ġtents":6932,"atural":6933,"Ġvivid":6934,"ckets":6935,"Ġsympt":6936,"then":6937,"Ġexplicit":6938,"letter":6939,"Ġvowels":6940,"Ġmanufacturing":6941,"Ġmsg":6942,"fib":6943,"iam":6944,"Ġcv":6945,"Ġein":6946,"etric":6947,"stud":6948,"isters":6949,"Ġoutdo":6950,"Ġflavors":6951,"Ġpreviously":6952,"Ġadvantages":6953,"jection":6954,"predict":6955,"Ġintellect":6956,"Ġcovenant":6957,"84":6958,"Ġtiny":6959,"atom":6960,"Ġ31":6961,"Ġfrank":6962,"Ġreads":6963,"Ġoccurrences":6964,"\\_\\_\\_\\_":6965,"jango":6966,"site":6967,"Ġpsal":6968,"Ġcompass":6969,"Ġoverw":6970,"Ġconsists":6971,"Ġincent":6972,"Ġadvoc":6973,"Ġreduction":6974,"Ġlosing":6975,"Ġinventory":6976,"Ġsavings":6977,"Ġagricult":6978,"Ġhmm":6979,"Ġneuro":6980,"aints":6981,"Ġdocker":6982,"Ġtruck":6983,"umber":6984,"Ġsupporting":6985,"ourage":6986,"Ġutilize":6987,"Ġexciting":6988,"Ġmystery":6989,"Ġwilderness":6990,"69":6991,"card":6992,"Ġthin":6993,"rian":6994,"Ġsuggested":6995,"Ġdangerous":6996,"Ġcuis":6997,"Ġresilience":6998,"Ġsabbath":6999,"Â²":7000,"Ġwet":7001,"ald":7002,"Ġprot":7003,"Ġkore":7004,"Ġminimize":7005,"Ġentity":7006,"Ġpresented":7007,"offer":7008,"Ġwestern":7009,"Ġindicates":7010,"Ġenemy":7011,"Ġopinion":7012,"Ġoscar":7013,"Ġparallel":7014,"Ġnu":7015,"oli":7016,"Ġcham":7017,"Ġmanif":7018,"Ġworksh":7019,"Ġfacts":7020,"Ġconfident":7021,"Ġinvestors":7022,"Ġrepresented":7023,"Ġmeaningful":7024,"Ġcrying":7025,"sorted":7026,"Ġnumerical":7027,"Ġreversed":7028,"Ġeu":7029,"ractions":7030,"inder":7031,"Ġeditor":7032,"Ġinvesting":7033,"while":7034,"Ġsamuel":7035,"Ġwinning":7036,"Ġtags":7037,"Ġrapid":7038,"}.":7039,"del":7040,"night":7041,"Ġlion":7042,"ithm":7043,"Ġuns":7044,"Ġ===":7045,"Ġprince":7046,"Ġdimension":7047,"Ġyogurt":7048,"Ġbuffer":7049,"container":7050,"attribute":7051,"bi":7052,"gi":7053,"Ġfiction":7054,"Ġjune":7055,"Ġsuit":7056,"Ġui":7057,"why":7058,"Ġmoments":7059,"Ġcounsel":7060,"Ġblend":7061,"Ġvehicle":7062,"days":7063,"Ġwra":7064,"Ġdash":7065,"icip":7066,"âĢĵ":7067,"Ġcomparing":7068,"Ġinstances":7069,"2023":7070,"Ġextension":7071,"Ġforever":7072,"Ġhappening":7073,"Ġstrategic":7074,"missions":7075,"Ġflexibility":7076,"Ġcontinuous":7077,"Ġprinciple":7078,"Ġsymptoms":7079,"aten":7080,"Ġdess":7081,"celer":7082,"Ġkilled":7083,"Ġquarter":7084,"Ġpoetry":7085,"Ġgenre":7086,"Ġmemor":7087,"Ġstopped":7088,"Ġwinner":7089,"Ġverify":7090,"Ġsubjects":7091,"Ġoccurred":7092,"Ġtickets":7093,"Ġfurn":7094,"Ġrepro":7095,"Ġasync":7096,"aint":7097,"Ġbrass":7098,"Ġobjectives":7099,"Ġenvironments":7100,"Ġtradition":7101,"Ġâľ":7102,"Ġblocks":7103,"Ġdocumentation":7104,"Ġsociet":7105,"Ġcoordinates":7106,"%.":7107,"oned":7108,"ceived":7109,"Ġsees":7110,"acle":7111,"arest":7112,"Ġboolean":7113,"commer":7114,"Ġlights":7115,"Ġlighting":7116,"Ġrequirement":7117,"Ġrandomly":7118,"Ġinspired":7119,"Ġblessed":7120,"Ġcipher":7121,"Ġyouth":7122,"Ġconn":7123,"rier":7124,"Ġimpress":7125,"Ġlots":7126,"Ġquantity":7127,"Ġangela":7128,"Ġlady":7129,"Ġdessert":7130,"78":7131,"ä¸":7132,"Ġinqu":7133,"Ġyout":7134,"Ġsep":7135,"pper":7136,"Ġlikes":7137,"Ġphase":7138,"Ġcurl":7139,"Ġzer":7140,"Ġbike":7141,"Ġautomation":7142,"Ġfigures":7143,"Ġassessment":7144,"Ġforgot":7145,"Ġaustralia":7146,"lar":7147,"ĠÎ":7148,"Ġtender":7149,"Ġgrant":7150,"Ġembed":7151,"common":7152,"Ġclassical":7153,"Ġfriday":7154,"Ġrepublic":7155,"Ġcommitment":7156,"Ġtelevision":7157,"document":7158,"Ġtweet":7159,"Ġphilosophy":7160,"Ġwings":7161,"Ġthom":7162,"idity":7163,"cel":7164,"Ġprove":7165,"Ġworst":7166,"Ġgramm":7167,"Ġintended":7168,"Ġcarol":7169,"Ġattacks":7170,"Ġbreathing":7171,"Ġequivalent":7172,"kiah":7173,"ĠÏĢ":7174,"Ġpest":7175,"Ġunless":7176,"Ġqueries":7177,"worth":7178,"Ġplanets":7179,"Ġcere":7180,"Ġgrown":7181,"Ġtargeted":7182,"Ġtrading":7183,"speed":7184,"Ġsacrifice":7185,"Ġtongue":7186,"Ð²":7187,"Ġreferences":7188,"Ġjuly":7189,"Ġleague":7190,"Ġloving":7191,"umble":7192,"Ġsched":7193,"Ġzion":7194,"Ġlimits":7195,"Ġsensitive":7196,"Ġtransformation":7197,"Ġrichard":7198,"Ġsurprise":7199,"timestamp":7200,"Ġindependent":7201,"css":7202,"vol":7203,"Ġ\"/":7204,"orses":7205,"Ġhandles":7206,"Ġedges":7207,"Ġrooms":7208,"Ġcontributions":7209,"Ġtaught":7210,"Ġnuclear":7211,"Ġavocado":7212,"bye":7213,"fi":7214,"faces":7215,"Ġsessions":7216,"road":7217,"Ġrede":7218,"Ġconven":7219,"Ġcomed":7220,"Ġunexpected":7221,"oked":7222,"Ġstudio":7223,"Ġdraft":7224,"Ġwalked":7225,"Ġhonour":7226,"Ġregardless":7227,"Ġchatbot":7228,":\"":7229,"Ġduck":7230,"Ġspo":7231,"Ġcustomize":7232,"Ġmighty":7233,"mean":7234,"Ġtalked":7235,"Ġfacility":7236,"Ġseparated":7237,"Ġannual":7238,"elements":7239,"Ġvehicles":7240,"Ġembrace":7241,"creat":7242,"Ġtast":7243,"Ġconvin":7244,"Ġchunk":7245,"percent":7246,"Ġregister":7247,"Ġmarkets":7248,"Ġestate":7249,"Ġaddressing":7250,"Ġholds":7251,"Ġguidelines":7252,"Ġjanuary":7253,"Ġauthentication":7254,"oured":7255,"Ġlit":7256,"Ġmail":7257,"Ġgenetic":7258,"\"></":7259,"Ġcollaborate":7260,"born":7261,"none":7262,"names":7263,"Ġtact":7264,"Ġbin":7265,"Ġbake":7266,"Ġthreshold":7267,"Ġlies":7268,"angers":7269,"grade":7270,"Ġbucket":7271,"Ġcareful":7272,"Ġpapers":7273,"employe":7274,"bus":7275,"block":7276,"ection":7277,"hour":7278,"ĠÑģ":7279,"Ġcin":7280,"Ġiniqu":7281,"Ġeternal":7282,"Ġsund":7283,"Ġlips":7284,"Ġcurios":7285,"Ġinstant":7286,"Ġreported":7287,"Ġperspectives":7288,"Ġgrammar":7289,"bur":7290,"mitted":7291,"vable":7292,"Ġmm":7293,"Ġinformed":7294,"Ġ2019":7295,"Ġskil":7296,"Ġelectronic":7297,"Ġsurrounding":7298,"Ġenemies":7299,"Ġduplicate":7300,"Ġoverwhel":7301,"commerce":7302,"mus":7303,"Ġhire":7304,"Ġhomes":7305,"Ġlux":7306,"send":7307,"quant":7308,"Ġreson":7309,"Ġidentified":7310,"Ġjudgment":7311,"Ġevaluation":7312,"Ġbrowser":7313,"Ġmechanics":7314,"Ġsusp":7315,"Ġaccomplish":7316,"Ġentrepreneurs":7317,"Ġcitizens":7318,"nament":7319,"ãģ":7320,"Ġwrap":7321,"Ġbits":7322,"Ġproceed":7323,"Ġjar":7324,"Ġkick":7325,"Ġguit":7326,"Ġcrime":7327,"Ġdrinking":7328,"Ġfrequently":7329,"Ġdistributed":7330,"Ġpollution":7331,"Ġemergency":7332,"bles":7333,"hist":7334,"van":7335,"yll":7336,"Ġfate":7337,"Ġfasc":7338,"lem":7339,"Ġrough":7340,"tech":7341,"emic":7342,"Ġmarked":7343,"Ġslice":7344,"lands":7345,"Ġconverted":7346,"Ġbegins":7347,"Ġmysterious":7348,"76":7349,"method":7350,"Ġtough":7351,"Ġslo":7352,"img":7353,"Ġash":7354,"Ġwheel":7355,"Ġpoems":7356,"Ġinsight":7357,"player":7358,"Ġtemplate":7359,"Ġamounts":7360,"Ġsatur":7361,"Ġassuming":7362,"Ġdescriptive":7363,"Ġfeaturing":7364,".[":7365,"pg":7366,"Ġcout":7367,"Ġconve":7368,"):\\":7369,"Ġmessaging":7370,"Ġfriendly":7371,"Ġremainder":7372,"Ġspirits":7373,"Ġdiscussing":7374,"Ġenterpr":7375,"Ġadults":7376,"Ġbasketball":7377,"Ġpadding":7378,"\"{":7379,"31":7380,"bc":7381,"kind":7382,"replace":7383,"Ġdur":7384,"ali":7385,"amps":7386,"Ġric":7387,"duction":7388,"Ġrecy":7389,"Ġtransaction":7390,"Ġasset":7391,"Ġrealistic":7392,"Ġsorts":7393,"Ġhumanity":7394,"Ġultimate":7395,"\"),":7396,"Ã±":7397,"chant":7398,"Ġmeals":7399,"Ġenables":7400,"Ġsetup":7401,"berries":7402,"Ġmuscle":7403,"Ġcorrected":7404,"Ġbigger":7405,"Ġencourages":7406,"Ġrewards":7407,"eled":7408,"hum":7409,"non":7410,"rase":7411,"vide":7412,"Ð¼":7413,"Ġil":7414,"idential":7415,"Ġnobody":7416,"Ġages":7417,"Ġguarant":7418,"Ġemma":7419,"Ġparis":7420,"Ġmechanism":7421,"Ġboundaries":7422,"gent":7423,"Ġsant":7424,"Ġsout":7425,"âĢ¦":7426,"Ġourselves":7427,"Ġprofessor":7428,"Ġpaths":7429,"Ġdebug":7430,"Ġparticipate":7431,"Ġfestival":7432,"Ġscope":7433,"lambda":7434,"Ñĩ":7435,"esome":7436,"aken":7437,"Ġflower":7438,"Ġplane":7439,"Ġmoral":7440,"Ġnavigation":7441,"Ġremoving":7442,"Ġbullet":7443,"Ġloyalty":7444,"Ġtutorial":7445,"Ġcuriosity":7446,"nn":7447,"Ġhorses":7448,"ulating":7449,"Ġcoat":7450,"Ġ42":7451,"proper":7452,"Ġdistr":7453,"bruary":7454,"Ġfilling":7455,"Ġslices":7456,"Ġincredible":7457,"Ġuncertainty":7458,"Ġyoutube":7459,"88":7460,"Ġtroub":7461,"comfort":7462,"Ġtechnological":7463,"Ġperiods":7464,"Ġstreets":7465,"Ġafrica":7466,"offerings":7467,"42":7468,"cut":7469,"Ġped":7470,"Ġgrief":7471,"Ġlying":7472,"ometry":7473,"Ġ()":7474,"Ġapplying":7475,"Ġwherefore":7476,"cope":7477,"serv":7478,"Ġslowly":7479,"95":7480,"Ġpound":7481,"Ġorg":7482,"estyle":7483,"Ġkno":7484,"Ġadop":7485,"delete":7486,"Ġtrained":7487,"bell":7488,"Ġjerem":7489,"Ġblow":7490,"Ġmedian":7491,"bytes":7492,"Ġweekend":7493,"files":7494,"Ġflexible":7495,"folio":7496,"fin":7497,"ih":7498,"uous":7499,"orter":7500,"Ġtrail":7501,"encing":7502,"Ġcommands":7503,"ĠĠĠĠĠĠĠĠĠĠĠĠĠĠĠĠĠĠĠĠĠĠĠĠĠĠĠĠĠĠĠĠ":7504,"Ġconsistency":7505,"Ġdestroyed":7506,")/":7507,"iant":7508,"Ġsv":7509,"Ġmong":7510,"Ġhier":7511,"istical":7512,"emade":7513,"Ġmanaged":7514,"getelement":7515,"Ġorganize":7516,"Ġcultiv":7517,"Ġdried":7518,"Ġsteel":7519,"Ġexplores":7520,"Ġtuple":7521,"getelementbyid":7522,"gt":7523,"Ġexcess":7524,"Ġkg":7525,"Ġunable":7526,"Ġperception":7527,"Ġaccomm":7528,"Ġfranc":7529,"poons":7530,"Ġgender":7531,"Ġsatisfied":7532,"Ġrefriger":7533,"Ġaccommod":7534,"pie":7535,"Ġluc":7536,"Ġstim":7537,"Ġconclude":7538,"ĠĠĠĠĠĠĠĠĠĠ":7539,"Ġacceler":7540,"Ġfilters":7541,"writ":7542,"Ġbiases":7543,"Ġcuisine":7544,"hus":7545,"erved":7546,"isco":7547,"Ġscat":7548,"appe":7549,"Ġshowed":7550,"writer":7551,"Ġintegrated":7552,"Ġtransformed":7553,"Ġdebate":7554,"Ġconstantly":7555,"Ġhomemade":7556,"Ġgravity":7557,"category":7558,"Ġauthors":7559,"(\\":7560,"`)":7561,"lates":7562,"tt":7563,"Ġhide":7564,"omin":7565,"omial":7566,"unique":7567,"Ġcometh":7568,"Ġwash":7569,"Ġ37":7570,"Ġfeather":7571,"deb":7572,"azz":7573,"Ġminds":7574,"Ġestimate":7575,"Ġexecuted":7576,"Ġrespective":7577,"Ġimagery":7578,"Ġimmers":7579,"Ġrestaurants":7580,"Ġcorporate":7581,"Ġbehaviors":7582,"mult":7583,"rating":7584,"Ġcommitted":7585,"cluding":7586,"Ġcarried":7587,"Ġharv":7588,"Ġgrew":7589,"Ġmotivation":7590,"Ġprecise":7591,"Ġlinux":7592,"Ġtomato":7593,"Ġaugust":7594,"Ġguests":7595,"uate":7596,"Ġcattle":7597,"Ġcoding":7598,"Ġpipe":7599,"Ġnort":7600,"Ġhabits":7601,"quest":7602,"Ġkidding":7603,"Ġsuc":7604,"strate":7605,"ission":7606,"Ġmeasuring":7607,"domain":7608,"Ġadministr":7609,"Ġmuseum":7610,"np":7611,"Ġbars":7612,"Ġease":7613,"Ġweeping":7614,"thr":7615,"ores":7616,"theta":7617,"nesses":7618,"Ġfilename":7619,"measure":7620,"Ġfault":7621,"Ġsites":7622,"Ġmixing":7623,"Ġphotos":7624,"Ġconfigure":7625,"Ġmotivated":7626,"Ġpictures":7627,"Ġadvancements":7628,"Ġcandidate":7629,"calculate":7630,")}":7631,".'":7632,"lation":7633,"Ġcoin":7634,"Ġfox":7635,"Ġwhenever":7636,"Ġlanding":7637,"Ġpublish":7638,"Ġinstruct":7639,"Ġlawy":7640,"Ġmotor":7641,"relation":7642,"Ġbanana":7643,"Ġphenomenon":7644,"Ġinheritance":7645,"Ġfans":7646,"Ġmort":7647,"Ġneut":7648,"fection":7649,"Ġbrush":7650,"Ġdesigning":7651,"Ġprize":7652,"Ġbeneficial":7653,"Ġtribes":7654,"Ġstanley":7655,"dimensional":7656,"ees":7657,"lp":7658,"Ġfict":7659,"Ġhanging":7660,"Ġnaked":7661,"Ġgam":7662,"Ġreput":7663,"stal":7664,"ieve":7665,"Ġquotes":7666,"Ġunderstood":7667,"Ġminor":7668,"Ġelectricity":7669,"Ġshapes":7670,"agonist":7671,"buck":7672,"front":7673,"game":7674,"Ġdating":7675,"Ġhip":7676,"Ġlift":7677,"gex":7678,"Ġhaz":7679,"ultane":7680,"agree":7681,"Ġgrilled":7682,"engers":7683,"Ġinformative":7684,"Ġprovider":7685,"Ġcounty":7686,"Ġtestim":7687,"Ġgrab":7688,"database":7689,"connected":7690,"Ġpreparation":7691,"Ġexposure":7692,"cil":7693,"ji":7694,"push":7695,"take":7696,"Ġpitch":7697,"itivity":7698,"Ġsector":7699,"Ġmanasse":7700,"Ġcocon":7701,"Ġfebruary":7702,"lfriend":7703,"Ġdetection":7704,"Ġended":7705,"Ġoptimized":7706,"Ġweights":7707,"Ġsmoke":7708,"Ġrecursively":7709,"Ġmagnetic":7710,"Ġtheorem":7711,"Ġreinforce":7712,"Ġintellectual":7713,"Ġmanasseh":7714,"bing":7715,"squ":7716,"isa":7717,"\",\\":7718,"Ġshouldn":7719,"Ġsimulation":7720,"Ġmusical":7721,"matic":7722,"limit":7723,"Ġjeremiah":7724,"47":7725,"sing":7726,"Ġpine":7727,"Ġrely":7728,"Ġongoing":7729,"raction":7730,"Ġloves":7731,"aped":7732,"Ġreco":7733,"Ġsmith":7734,"cii":7735,"Ġcorn":7736,"boam":7737,"Ġmemories":7738,"Ġmaximize":7739,"Ġscheme":7740,"Ġcontemporary":7741,"Ġcalendar":7742,"Ġì":7743,"Ġate":7744,"heat":7745,"Ġtherm":7746,"Ġdot":7747,"Ġtex":7748,"Ġ2016":7749,"Ġbringing":7750,"Ġclock":7751,"Ġloops":7752,"Ġreporting":7753,"Ġhighlighting":7754,"Ġrectangle":7755,"iate":7756,"iÃ³n":7757,"Ġsought":7758,"Ġwives":7759,"amic":7760,"tember":7761,"Ġfees":7762,"Ġworkplace":7763,"Ġherbs":7764,"Ġsimultane":7765,"Ġsalary":7766,"Ġmultitude":7767,"Ġmovements":7768,"Ġversions":7769,"ĠÐ²":7770,"ĠÐ½":7771,"options":7772,"func":7773,"acteria":7774,":**":7775,"Ġcourage":7776,"Ġwound":7777,"Ġfol":7778,"Ġtoast":7779,"Ġchips":7780,"Ġpotatoes":7781,"Ġdistrict":7782,"Ġsucceed":7783,"gra":7784,"spr":7785,"zil":7786,"Ġ\\_":7787,"Ġbash":7788,"icity":7789,"izz":7790,"ilead":7791,"ĠĠĠĠĠĠĠĠĠĠĠĠ":7792,"Ġspell":7793,"Ġproduces":7794,"Ġfinance":7795,"Ġhoping":7796,"Ġtheoret":7797,"Ġlegend":7798,"lie":7799,"nings":7800,"nish":7801,"tasks":7802,"ui":7803,"Ġcater":7804,"Ġnin":7805,"Ġles":7806,"Ġcanvas":7807,"Ġlean":7808,"Ġcontest":7809,"dev":7810,"neg":7811,"Ġpara":7812,"Ġtypical":7813,"Ġconnecting":7814,"Ġdeeply":7815,"factor":7816,"products":7817,"Ġbottle":7818,"Ġtitles":7819,"}\"":7820,"${":7821,"87":7822,"bul":7823,"Ø§":7824,"itors":7825,"odb":7826,"Ġseam":7827,"Ġclassification":7828,"Ġlaun":7829,"Ġworldwide":7830,"Ġproviders":7831,"Ġshowc":7832,"Ġprofound":7833,"Ġtrial":7834,"Ġtimestamp":7835,"Ġmultipl":7836,"Ġrelatively":7837,"Ġdoubt":7838,"driven":7839,"Ġunfortun":7840,"Ġathlet":7841,"rou":7842,"tor":7843,"Ġtension":7844,"Ġpip":7845,"Ġbrings":7846,"Ġfilms":7847,"Ġbroke":7848,"Ġversat":7849,"Ġgeorge":7850,"Ġsubstance":7851,"remove":7852,"Ġdemonstrates":7853,"Ġsurvive":7854,"Ġleadership":7855,"Ġrhyth":7856,"Ġguitar":7857,"just":7858,"Ġhug":7859,"Ġsear":7860,"Ġactor":7861,"Ġregional":7862,"Ġdram":7863,"Ġimprovements":7864,"Ġmissed":7865,"Ġmatching":7866,"Ġrobust":7867,"Ġcredentials":7868,"Ġderiv":7869,"Ġbonds":7870,"04":7871,"lat":7872,"sample":7873,"when":7874,"Ġwand":7875,"Ġgaming":7876,"odd":7877,"Ġseated":7878,"Ġsections":7879,"Ġrelief":7880,"Ġsubsequ":7881,"Ġinstagram":7882,"Ġsupported":7883,"Ġterminal":7884,"foot":7885,"Ġresponsibility":7886,"Ġsustainability":7887,"queue":7888,"Ġdialogue":7889,"Ġalien":7890,"oe":7891,"tab":7892,"Ġsisters":7893,"Ġgly":7894,"Ġrit":7895,"Ġ2000":7896,"Ġ[[":7897,"Ġassets":7898,"Ġ75":7899,"program":7900,"doing":7901,"Ġabsor":7902,"Ġcollected":7903,"Ġpalindrome":7904,"Ġdressing":7905,"depth":7906,"ithmetic":7907,"Ġcoconut":7908,"Ġrecovery":7909,"(`":7910,"Ġdict":7911,"stmt":7912,"Ġstability":7913,"ador":7914,"Ġjen":7915,"pling":7916,"Ġmak":7917,"Ġpron":7918,"Ġproud":7919,"Ġrelat":7920,"Ġrelation":7921,"Ġassy":7922,"Ġreflection":7923,")))":7924,"Ġbalanced":7925,"Ġsensory":7926,"Ġgermany":7927,"quantity":7928,"Ġwax":7929,"Ġmas":7930,"olic":7931,"Ġnotable":7932,"iefs":7933,"Ġbool":7934,"Ġpartial":7935,"Ġcreature":7936,"Ġsurvey":7937,"show":7938,"Ġcenturies":7939,"Ġreminder":7940,"Ġcelebrate":7941,"Ġseventh":7942,"Ġjohns":7943,"Ġoccasion":7944,"Ġdemocr":7945,"Ġfictional":7946,"cap":7947,"nger":7948,"Ġteeth":7949,"Ġjoab":7950,"Ġtransactions":7951,"Ġreasonable":7952,"Ġobserved":7953,"Ġtroubled":7954,"Ġpotato":7955,"Ġfascin":7956,"pay":7957,"Ġfert":7958,"iture":7959,"ople":7960,"Ġmaps":7961,"Ġ{'":7962,"Ġanywhere":7963,"archy":7964,"Ġanswering":7965,"primes":7966,"Ġbreast":7967,"Ġpossibility":7968,"Ġprinces":7969,"Ġwonderful":7970,"onym":7971,"Ġbonus":7972,"ere":7973,"Ġcongr":7974,"Ġenum":7975,"Ġmonday":7976,"Ġspecialized":7977,"Ġdiscussed":7978,"Ġstaying":7979,"Ġmedicine":7980,"distance":7981,"Ġfi":7982,"Ġmask":7983,"Ġisinstance":7984,"Ġconsec":7985,"Ġalter":7986,"ptic":7987,"Ġcurrency":7988,"Ġexpans":7989,"Ġmeta":7990,"Ġbasis":7991,"Ġtimeline":7992,"prev":7993,"instein":7994,"Ġinterpretation":7995,"Ġinhabitants":7996,"Ġpix":7997,"Ġnap":7998,"Ġ\");":7999,"Ġuint":8000,"Ġdiss":8001,"Ġ2018":8002,"Ġlessons":8003,"Ġmindset":8004,"Ġoxen":8005,"Ġpsychology":8006,"Ġproposal":8007,"husi":8008,"}`":8009,"rd":8010,"inent":8011,"Ġwond":8012,"Ġwider":8013,"Ġyounger":8014,"Ġreform":8015,"seed":8016,"Ġseats":8017,"abled":8018,"wards":8019,"Ġcalculation":8020,"Ġtraditions":8021,"Ġcaptains":8022,"Ġpackages":8023,"Ġfalls":8024,"Ġmultiplication":8025,"Ġdynamics":8026,"scores":8027,"Ġfederal":8028,"Ġmitigate":8029,"Ġmanifest":8030,"yllis":8031,"400":8032,"vid":8033,"ĠðŁ":8034,"Ġtip":8035,"ician":8036,"Ġstoring":8037,"ola":8038,"mented":8039,"Ġkelly":8040,"Ġchest":8041,"Ġ2015":8042,"Ġmostly":8043,"Ġlifestyle":8044,"Ġinspire":8045,"Ġinstitutions":8046,"execute":8047,"Ġattempts":8048,"instruction":8049,"83":8050,"kl":8051,"tion":8052,"wa":8053,"ĠÃ©":8054,"Ġwilt":8055,"Ġlamb":8056,"otic":8057,"Ġ\"<":8058,"Ġasia":8059,"claim":8060,"Ġammon":8061,"Ġphyllis":8062,"Ġbrazil":8063,"auth":8064,"Ġstatistical":8065,"black":8066,"Ġcommitte":8067,"Ġviolence":8068,"Ġshaping":8069,"Ġgalax":8070,"aud":8071,"har":8072,"rum":8073,"Ġstead":8074,"ckers":8075,"Ġhelper":8076,"struct":8077,"chem":8078,"Ġattach":8079,"Ġmajority":8080,"Ġdrawing":8081,"Ġsubscription":8082,"Ġskillet":8083,"ris":8084,"Ġlever":8085,"Ġuniform":8086,"Ġscar":8087,"Ġdataframe":8088,"Ġperforms":8089,"Ġexplaining":8090,"offset":8091,"Ġstraw":8092,"law":8093,"Ġrecursion":8094,"Ġseptember":8095,"cir":8096,"leep":8097,"edia":8098,"Ġvisited":8099,"Ġrealm":8100,"Ġconcaten":8101,"Ġdriven":8102,"Ġindustrial":8103,"Ġflock":8104,"header":8105,"Ġprivacy":8106,"Ġrecorded":8107,"Ġvegetarian":8108,"secret":8109,"Ġentirely":8110,"Ġextremely":8111,"._":8112,"fa":8113,"mi":8114,"watch":8115,"Ġfinger":8116,"Ġpac":8117,"unning":8118,"Ġsoap":8119,"Ġsphere":8120,"Ġnetworking":8121,"folder":8122,"Ġdiscussions":8123,"ffered":8124,"Ġobserve":8125,"Ġpregnant":8126,"Ġpsalm":8127,"Ã§":8128,"Ð´":8129,"Ġtan":8130,"ales":8131,"asters":8132,"aks":8133,"Ġ2017":8134,"Ġenthusi":8135,"Ġempire":8136,"axis":8137,"holder":8138,"Ġnecessarily":8139,"Ġsimplify":8140,"Ġoxy":8141,"Ġstretched":8142,"Ġshadow":8143,"Ġtrigger":8144,"Ġneighborhood":8145,"Ġvibrant":8146,"Ġsandwich":8147,"Ġstakeholders":8148,"Ġâľĵ":8149,"Ġiniquity":8150,"'])":8151,"iest":8152,"Ġct":8153,"stic":8154,"Ġnoticed":8155,"Ġadoption":8156,"Ġarithmetic":8157,"ormal":8158,"Ġflask":8159,"Ġminimal":8160,"Ġpicked":8161,"Ġanticip":8162,"Ġspinach":8163,"Ġprotagonist":8164,"don":8165,"hmm":8166,"rub":8167,"west":8168,"Ġonions":8169,"Ġdealing":8170,"illy":8171,"Ġstrict":8172,"socket":8173,"Ġpossibly":8174,"Ġsurve":8175,"Ġlengths":8176,"ova":8177,"Ġthreads":8178,"Ġvinegar":8179,"Ġdescriptions":8180,"Ġfulfill":8181,"]`":8182,"(&":8183,")):":8184,"bmatrix":8185,"Ġrib":8186,"Ġheark":8187,"ulum":8188,"ensitive":8189,"Ġfrust":8190,"cohol":8191,"Ġmarin":8192,"Ġportfolio":8193,"Ġcovering":8194,"Ġplainformat":8195,"digit":8196,"Ġillustrate":8197,"Ġhence":8198,"Ġcursor":8199,"Ġmexico":8200,"Ġjohnson":8201,"best":8202,"Ġtack":8203,"Ġcats":8204,"ader":8205,"Ġsoy":8206,"Ġ34":8207,"Ġ'{":8208,"Ġchess":8209,"Ġstudying":8210,"Ġcrushed":8211,"Ġconstit":8212,"Ġinvolving":8213,"Ġconnects":8214,"!!!":8215,"contact":8216,"solving":8217,"Ġphilosophical":8218,"Ġencountered":8219,"08":8220,"54":8221,"96":8222,"mail":8223,"pol":8224,"Ġreject":8225,"Ġforced":8226,"Ġteen":8227,"aphor":8228,"Ġdisagree":8229,"Ġairport":8230,"Ġroots":8231,"Ġrocks":8232,"Ġclouds":8233,"Ġguided":8234,"Ġutilizing":8235,"Ġroutes":8236,"ober":8237,"reed":8238,"Ġml":8239,"Ġinsect":8240,"ette":8241,"ami":8242,"Ġjun":8243,"Ġdeals":8244,"feature":8245,"Ġdesert":8246,"Ġprey":8247,"Ġclassify":8248,"Ġacid":8249,"Ġcharacterized":8250,"Ġesp":8251,"manager":8252,"printf":8253,"ventions":8254,"submit":8255,"results":8256,"Ġbands":8257,"Ġtablespoons":8258,"Ġticket":8259,"Ġpreferred":8260,"Ġpillars":8261,"Ġtroubles":8262,"300":8263,"pher":8264,"Ġtoss":8265,"Ġeld":8266,"Ġrejo":8267,"ura":8268,"ulous":8269,"Ġboil":8270,"Ġbackup":8271,"Ġsklearn":8272,"Ġdragon":8273,"Ġfacilities":8274,"Ġnearly":8275,"Ġaffects":8276,"blue":8277,"Ġanti":8278,"Ġinspiration":8279,"empty":8280,"Ġcertific":8281,"Ġwashington":8282,"writeline":8283,"Ġseamless":8284,"bn":8285,"wing":8286,"Ġapparent":8287,"Ġjoint":8288,"Ġfounded":8289,"2022":8290,"Ġschema":8291,"Ġdrawbacks":8292,"Ġdaniel":8293,"Ġstruggling":8294,"record":8295,"Ġhorizon":8296,"Ġrepository":8297,"occ":8298,"such":8299,"ammat":8300,"igma":8301,"Ġ-->":8302,"izable":8303,"Ġtrick":8304,"perform":8305,"ariah":8306,"Ġemails":8307,"Ġcruel":8308,"Ġnums":8309,"Ġmarriage":8310,"fold":8311,"Ġgirlfriend":8312,"Ġexplanations":8313,"Ġholiday":8314,"Ġdatasets":8315,"Ġcrisis":8316,"Ġresidents":8317,"Ġfantasy":8318,"esterday":8319,"Ġhydro":8320,"Ġimplies":8321,"Ġjonathan":8322,"Ġbuttons":8323,"Ġsprinkle":8324,"Ġtu":8325,"ifi":8326,"Ġexclusive":8327,"Ġ<!":8328,"Ġsmile":8329,"Ġsmote":8330,"Ġusername":8331,"Ġcenters":8332,"Ġpaying":8333,"Ġkinds":8334,"Ġmovq":8335,"Ġmentions":8336,"Ġbaseball":8337,"module":8338,"Ġholes":8339,"Ġsurvival":8340,"Ġconverts":8341,"pattern":8342,"Ġliquid":8343,"pars":8344,"Ġtensor":8345,"Ġdiced":8346,"Ġlou":8347,"Ġnotifications":8348,"telling":8349,"Ġfewer":8350,"Ġpean":8351,"Ġsheets":8352,"Ġgene":8353,"standing":8354,"Ġtested":8355,"Ġmeetings":8356,"Ġerin":8357,"Ġreflects":8358,"cision":8359,"kin":8360,"Ġts":8361,"Ġnerv":8362,"Ġnearest":8363,"Ġcharged":8364,"Ġbridge":8365,"Ġawesome":8366,"Ġregression":8367,"Ġstartups":8368,"Ġheavily":8369,"Ġchristian":8370,"Ġingredient":8371,"Ġemphasize":8372,"Ġappreciation":8373,"Ġsexual":8374,"Ġpup":8375,"Ġdisci":8376,"Ġexamine":8377,"icted":8378,"Ġoptional":8379,"Ġzone":8380,"Ġacr":8381,"Ġcaes":8382,"Ġesau":8383,"Ġnearby":8384,"Ġcube":8385,"Ġincreasingly":8386,"Ġcircumst":8387,"Ġnutritional":8388,"'),":8389,"cred":8390,"war":8391,"rend":8392,"ppings":8393,"clos":8394,"Ġcurious":8395,"Ġsigned":8396,"Ġsquares":8397,"Ġrising":8398,"Ġappeal":8399,"follow":8400,"Ġdamn":8401,"Ġmathematics":8402,"Ġconsciousness":8403,"Ġbathroom":8404,"Ġsaturday":8405,"mel":8406,"vari":8407,"ala":8408,"Ġnarrow":8409,"Ġlu":8410,"Ġwheat":8411,"Ġouter":8412,"agues":8413,"Ġmoist":8414,"Ġprefix":8415,"Ġintense":8416,"Ġrepair":8417,"Ġmeasured":8418,"Ġmassive":8419,"packages":8420,"Ġoutdoor":8421,"bor":8422,"food":8423,"Ġsab":8424,"only":8425,"Ġbid":8426,"Ġgad":8427,"Ġ\"#":8428,"Ġnoah":8429,"ĠĠĠĠĠĠĠĠĠĠĠĠĠĠ":8430,"Ġpreference":8431,"Ġ/>":8432,"Ġproducing":8433,"Ġendpoint":8434,"Ġpurple":8435,"Ġextensive":8436,"Ġencouraging":8437,"Ġgraphics":8438,"Ġcandy":8439,"Ġfraction":8440,"Ġlinen":8441,"Ġdecember":8442,"Ġvirgin":8443,"(%":8444,"drop":8445,"effic":8446,"gust":8447,"Ġaest":8448,"Ġspl":8449,"Ġpork":8450,"Ġinequ":8451,"Ġeco":8452,"Ġasks":8453,"abling":8454,"Ġchiefs":8455,"mph":8456,"Ġreturning":8457,"Ġcrew":8458,"Ġboys":8459,"endl":8460,"Ġeveryday":8461,"Ġreply":8462,"Ġpresents":8463,"Ġwarning":8464,"Ġimpacted":8465,"Ġharder":8466,"Ġconversations":8467,"Ġassociation":8468,"Ġstrengths":8469,"Ġmagaz":8470,"--------------------------------":8471,"Ġencrypted":8472,"Ġmanufacture":8473,"Ġinitiatives":8474,"^^^^^^^^":8475,"Ġannounce":8476,"Ġmushrooms":8477,"97":8478,"bas":8479,"eb":8480,"rations":8481,"tri":8482,"times":8483,"Ġtherap":8484,"Ġsrc":8485,"eras":8486,"Ġtoy":8487,"Ġreaching":8488,"Ġheze":8489,"riers":8490,"Ġneb":8491,"Ġatom":8492,"Ġzip":8493,"Ġartistic":8494,"Ġengland":8495,"Ġorganisms":8496,"Ġtermin":8497,"Ġaccounting":8498,"substring":8499,"Ġimagination":8500,"Ġbattery":8501,"Ġvacation":8502,"Ġevolved":8503,"Ġhezekiah":8504,"fire":8505,"va":8506,"Ġtort":8507,"Ġcakes":8508,"Ġpic":8509,"Ġpink":8510,"Ġstro":8511,"Ġstuck":8512,"uling":8513,"Ġrig":8514,"upper":8515,"osis":8516,"Ġrecall":8517,"Ġdefense":8518,"(\"\\":8519,"Ġartifact":8520,"Ġprocessor":8521,"coin":8522,"Ġvend":8523,"Ġdivor":8524,"Ġtrend":8525,"Ġrequested":8526,"Ġinstallation":8527,"mathbf":8528,"Ġconducted":8529,"Ġreferred":8530,"?:":8531,"cers":8532,"Ġcul":8533,"Ġpdf":8534,"Ġlingu":8535,"Ġ\")":8536,"Ġ((":8537,"Ġsake":8538,"Ġquadr":8539,"Ġgenerator":8540,"Ġmarketplace":8541,"Ġfloating":8542,"Ġformatting":8543,"Ġvisualization":8544,"Ġclosely":8545,"Ġhypot":8546,"ÃŃa":8547,"Ġcrown":8548,"Ġbayes":8549,"Ġreferring":8550,"Ġtheoretical":8551,"Ġcommittee":8552,"aiah":8553,"Ä±":8554,"Ġtired":8555,"reverse":8556,"Ġbible":8557,"align":8558,"Ġasp":8559,"Ġshock":8560,"Ġshipping":8561,"Ġmapping":8562,"Ġ33":8563,"Ġmetaphor":8564,"Ġsends":8565,"Ġegyptians":8566,"Ġclosing":8567,"Ġpanel":8568,"Ġrelaxation":8569,"Ġsimultaneously":8570,"Ġunfortunately":8571,"'],":8572,"orient":8573,"Ġgay":8574,"Ġgithub":8575,"Ġreign":8576,"Ġchains":8577,"Ġabund":8578,"Ġlock":8579,"Ġrolling":8580,"Ġ65":8581,"gger":8582,"Ġvisible":8583,"Ġexpressed":8584,"ĠÐ¸":8585,"Ġmeasurements":8586,"Ġrecognized":8587,"Ġelev":8588,"Ġgained":8589,"inoa":8590,"Ġdescribing":8591,"Ġnutrients":8592,"make":8593,"move":8594,"makers":8595,"rich":8596,"ya":8597,"Ĥ¬":8598,"Ġterror":8599,"Ġauction":8600,"rele":8601,"Ġdoth":8602,"Ġyesterday":8603,"Ġdepos":8604,"abases":8605,"convert":8606,"Ġindices":8607,"Ġprintf":8608,"Ġtransmission":8609,"Ġengines":8610,"Ġpopulations":8611,"Ġcombinations":8612,"Ġoccup":8613,"component":8614,"Ġwondering":8615,"Ġturkey":8616,"Ġattractive":8617,"Ġthreats":8618,"Ġretailers":8619,"Ġestimated":8620,"Ġoxygen":8621,"pom":8622,"rary":8623,"íķ":8624,"Ġfu":8625,"rots":8626,"Ġ\";":8627,"Ġatl":8628,"Ġanybody":8629,"Ġcommission":8630,"Ġbund":8631,"Ġthinks":8632,"Ġtemplates":8633,"Ġsamaria":8634,"Ġvowel":8635,"Ġvertices":8636,"Ġthomas":8637,"rank":8638,"Ġë":8639,"Ġtie":8640,"heit":8641,"heart":8642,"Ġsaints":8643,"Ġborrow":8644,"alog":8645,"Ġnick":8646,"stone":8647,"Ġwhites":8648,"semble":8649,"ads":8650,"ading":8651,"oder":8652,"Ġsevere":8653,"Ġarmed":8654,"\",\"":8655,"uesday":8656,"Ġessence":8657,"Ġappeared":8658,"Ġexperiencing":8659,"Ġvertex":8660,"Ġparking":8661,"Ġforgiveness":8662,"cccccccccccccccc":8663,"dddddddddddddddd":8664,"Ġbacon":8665,"Ġfeathers":8666,"}'":8667,"]);":8668,".</":8669,"bind":8670,"zip":8671,"Ġbt":8672,"Ġhind":8673,"Ġreaches":8674,"Ġexte":8675,"Ġalle":8676,"loved":8677,"Ġquinoa":8678,"gets":8679,"Ġlisted":8680,"Ġtraits":8681,"Ġformation":8682,"Ġcalculating":8683,"Ġadjac":8684,"Ġsleeping":8685,"Ġangels":8686,"Ġreflecting":8687,"Ġassumes":8688,"bet":8689,"fc":8690,"Ġtight":8691,"Ġpants":8692,"Ġcompe":8693,"Ġpointer":8694,"Ġtrave":8695,"Ġcharles":8696,"Ġqueue":8697,"datetime":8698,"Ġreligion":8699,"Ġadministration":8700,"Ġmigration":8701,"average":8702,"een":8703,"Ġcodes":8704,"Ġoun":8705,"env":8706,"Ġjane":8707,"Ġunch":8708,"Ġdisgust":8709,"ogram":8710,"Ġsupple":8711,"Ġexperiments":8712,"Ġpercentile":8713,"Ġparser":8714,"Ġdiscounts":8715,"Ġscanner":8716,"Ġassyria":8717,"ruby":8718,"jun":8719,"parent":8720,"some":8721,"Ġfing":8722,"Ġeinstein":8723,"elle":8724,"Ġunity":8725,"Ġconsume":8726,"Ġentities":8727,"params":8728,"Ġdrag":8729,"Ġperfectly":8730,"localhost":8731,"frequency":8732,"Ġsunday":8733,"Ġlaunched":8734,"56":8735,"dog":8736,"may":8737,"Ġcried":8738,"Ġflying":8739,"Ġmile":8740,"ometers":8741,"ota":8742,"Ġjoined":8743,"Ġevenly":8744,"cules":8745,"Ġfactory":8746,"Ġwarri":8747,"Ġpracticing":8748,"Ġstorytelling":8749,"Ġsunlight":8750,"ÑĤÐ¾":8751,"Ġinjury":8752,"Ġoctober":8753,"dk":8754,"wel":8755,"Äĥ":8756,"Ġhorn":8757,"Ġghost":8758,"Ġheap":8759,"ained":8760,"oso":8761,"Ġloan":8762,"groups":8763,"Ġholly":8764,"Ġsignature":8765,"Ġcombining":8766,"Ġmultiplying":8767,"Ġupdating":8768,"Ġexecutive":8769,"Ġbench":8770,"Ġpriority":8771,"Ġexcite":8772,"Ġpreparing":8773,"cache":8774,"sign":8775,"hell":8776,"Ġtoby":8777,"Ġ\".":8778,"Ġmere":8779,"Ġplenty":8780,"Ġcompost":8781,"Ġsolved":8782,"Ġedom":8783,"Ġmemo":8784,"Ġdetermin":8785,"ĠÐº":8786,"Ġsamples":8787,"Ġreceiving":8788,"Ġcontributing":8789,"Ġvisualize":8790,"Ġuniversal":8791,"after":8792,"Ġvanilla":8793,"Ġpursue":8794,"Ġtuesday":8795,"origin":8796,"Ġhil":8797,"Ġginger":8798,"aining":8799,"archar":8800,"Ġreduces":8801,"Ġdatabases":8802,"Ġresponsive":8803,"Ġdrinks":8804,"Ġvacc":8805,"mid":8806,"mode":8807,"null":8808,"Ġast":8809,"iner":8810,"Ġcass":8811,"Ġpir":8812,"Ġpushing":8813,"Ġvital":8814,"Ġkar":8815,"answer":8816,"application":8817,"Ġdisappe":8818,"Ġ})":8819,"Ġremark":8820,"Ġformats":8821,"Ġsimon":8822,"âĢĿ.":8823,"Ġaudiences":8824,"Ġcubic":8825,"Ġdefend":8826,"radius":8827,"huh":8828,"nis":8829,"lech":8830,"Ġlowest":8831,"Ġsteam":8832,"Ġdwelt":8833,"Ġconstructor":8834,"Ġdecrease":8835,"Ġsacrific":8836,"Ġobviously":8837,"powered":8838,"video":8839,"}:":8840,"vow":8841,"roph":8842,"Ġrecon":8843,"abs":8844,"Ġdisrupt":8845,"Ġoperate":8846,"ughter":8847,"Ġdiffer":8848,"Ġdelay":8849,"Ġsimplifying":8850,"marks":8851,"Ġbaal":8852,"Ġpodcast":8853,"Ġinfluencers":8854,"effective":8855,"Ġweapons":8856,"spring":8857,"!)":8858,"pc":8859,"pus":8860,"Ġ),":8861,"income":8862,"Ġbapt":8863,"itative":8864,"ifting":8865,"htag":8866,"Ġmanagers":8867,"Ġspons":8868,"Ġspoon":8869,"Ġagreed":8870,"Ġmaxim":8871,"ernel":8872,"Ġdrawn":8873,"Ġaccepted":8874,"________":8875,"directory":8876,"green":8877,"ĶĢ":8878,"req":8879,"Ġsed":8880,"Ġiv":8881,"Ġfet":8882,"Ġdas":8883,"Ġgit":8884,"ulates":8885,"Ġrings":8886,"Ġknot":8887,"Ġsole":8888,"Ġenzy":8889,"Ġroof":8890,"Ġfost":8891,"Ġ2010":8892,"Ġglow":8893,"Ġoperators":8894,"obj":8895,"Ġrivers":8896,"display":8897,"Ġstruggles":8898,"Ġflorida":8899,"debug":8900,"Ġritual":8901,"\"`":8902,"hs":8903,"Ġarab":8904,"Ġcpu":8905,"Ġell":8906,"Ġlambda":8907,"ctype":8908,"Ġalcohol":8909,"resource":8910,"Ġadm":8911,"Ġupset":8912,"Ġspicy":8913,"Ġempathy":8914,"Ġparaph":8915,"Ġbroth":8916,"Ġdrama":8917,"Ġceo":8918,"Ġavoiding":8919,"Ġscenes":8920,"Ġliterary":8921,"Ġconflicts":8922,"Ġprospect":8923,"Ġplugin":8924,"Ġdeployment":8925,"bucket":8926,"Ġom":8927,"alom":8928,"Ġinfo":8929,"store":8930,"umbled":8931,"develop":8932,"Ġcalories":8933,"Ġthrone":8934,"Ġzo":8935,"prob":8936,"prov":8937,"Ġmarine":8938,"Ġargue":8939,"Ġdigest":8940,"Ġcomprehension":8941,"Ġpromotion":8942,"Ġbags":8943,"Ġextended":8944,"arency":8945,"dp":8946,"diff":8947,"oice":8948,"ras":8949,"tol":8950,"Ġ],":8951,"Ġtsp":8952,"Ġwars":8953,"organ":8954,"Ġdude":8955,"Ġgates":8956,"Ġreaction":8957,"Ġhet":8958,"iger":8959,"people":8960,"Ġenabling":8961,"Ġtrim":8962,"Ġresistance":8963,"soever":8964,"Ġprecious":8965,"Ġintersection":8966,"Ġ2014":8967,"Ġfran":8968,"Ġcarrots":8969,"bsp":8970,"Ġmarry":8971,"Ġswap":8972,"Ġtraveling":8973,"Ġoccurrence":8974,"Ġdrugs":8975,"~~~~":8976,"Ġdiamond":8977,"Ġenterprise":8978,"Ġexpansion":8979,"Ġwonders":8980,"save":8981,"Ġaro":8982,"Ġcot":8983,"Ġcuc":8984,"Ġbatch":8985,"Ġinherent":8986,"Ġ('":8987,"Ġscaling":8988,"Ġwellness":8989,"Ġeli":8990,"Ġcorrelation":8991,"flin":8992,"Ġcookie":8993,"Ġdependencies":8994,"255":8995,"Ġrevised":8996,"Ġalternatives":8997,"Ġfurniture":8998,"Ġexcitement":8999,"hon":9000,"ru":9001,"src":9002,"heet":9003,"Ġwi":9004,"Ġgilead":9005,"star":9006,"Ġstages":9007,"Ġplacing":9008,"Ġupcoming":9009,");\\":9010,"Ġrefine":9011,"Ġfeatured":9012,"zech":9013,"filepath":9014,"Ġelectron":9015,"Ġeaten":9016,"template":9017,"Ġcollaborative":9018,"Ġalignment":9019,"Ġruby":9020,"Ġfantastic":9021,"Ġgiant":9022,"Ġazure":9023,"Ġrussian":9024,"Ġbubble":9025,"Ġcircumstances":9026,"}(":9027,":]":9028,"bow":9029,"five":9030,"nic":9031,"zone":9032,"rete":9033,"Ġsher":9034,"Ġware":9035,"icon":9036,"Ġhaun":9037,"Ġvin":9038,"Ġshred":9039,"Ġshower":9040,"Ġtraum":9041,"Ġpersu":9042,"Ġdistances":9043,"generate":9044,"Ġemerging":9045,"Ġinstitute":9046,"Ġopinions":9047,"Ġfacilitate":9048,"Ġwriters":9049,"Ġvitamin":9050,"Ġscholars":9051,"Ġdashboard":9052,"ja":9053,"cend":9054,"Ġvon":9055,"Ġshorter":9056,"Ġtherein":9057,"ahren":9058,"Ġdefining":9059,"Ġoriginally":9060,"Ġcontexts":9061,"Ġ180":9062,"Ġincorporated":9063,"Ġrome":9064,"Ġemerged":9065,"Ġhousing":9066,"Ġobtained":9067,"Ġconverting":9068,"Ġvertical":9069,"Ġclinical":9070,"Ġfascinating":9071,"mother":9072,"Ġore":9073,"Ġpian":9074,"Ġtooth":9075,"Ġtoppings":9076,"Ġstom":9077,"Ġmanual":9078,"Ġpersist":9079,"Ġmonkey":9080,"scan":9081,"Ġconcrete":9082,"Ġbasil":9083,"Ġsubjective":9084,"Ġmillions":9085,"Ġ255":9086,"Ġdeceit":9087,"Ġchaos":9088,"Ġnervous":9089,"\"},":9090,"68":9091,"Ġwake":9092,"Ġbeloved":9093,"Ġpropose":9094,"Ġjam":9095,"Ġchuck":9096,"âĢľ":9097,"Ġadject":9098,"Ġclause":9099,"ryl":9100,"arsh":9101,"Ġgrate":9102,"Ġlastly":9103,"Ġsinging":9104,"Ġflowing":9105,"Ġbuddy":9106,"Ġcrowd":9107,"Ġduplicates":9108,"Ġintuitive":9109,"through":9110,"github":9111,"hash":9112,"langu":9113,"male":9114,"sized":9115,"Ġtank":9116,"Ġiphone":9117,"ito":9118,"vec":9119,"urally":9120,"Ġdoctors":9121,"Ġplt":9122,"Ġdisapp":9123,"please":9124,"Ġmodules":9125,"enger":9126,"Ġminced":9127,"Ġskilled":9128,"Ġcolorful":9129,"Ġcontrolled":9130,"Ġbabies":9131,"Ġportray":9132,"Ġbeginners":9133,"character":9134,"Ġobserv":9135,"Ġtournament":9136,"Ġhaters":9137,"Ġscratch":9138,"Ġprocedures":9139,"Ġsequences":9140,"Ġimpressive":9141,"strategy":9142,"good":9143,"master":9144,"tod":9145,"uf":9146,"wait":9147,"Ġaer":9148,"Ġsqrt":9149,"ifflin":9150,"acc":9151,"Ġ`$":9152,"Ġfoster":9153,"Ġoverflow":9154,"ario":9155,"they":9156,"Ġpotter":9157,"aze":9158,"isticated":9159,"Ġsoldiers":9160,"Ġnutrition":9161,"Ġharvest":9162,"[-":9163,"dem":9164,"tail":9165,"Ġtat":9166,"Ġtbsp":9167,"Ġczech":9168,"alf":9169,"idents":9170,"Ġ\"-":9171,"gender":9172,"Ġnose":9173,"asses":9174,"Ġserial":9175,"Ġbug":9176,"Ġimplements":9177,"Ġtalks":9178,"Ġapplic":9179,"tru":9180,"Ġsinger":9181,"loads":9182,"Ġutter":9183,"Ġexceptions":9184,"Ġgradually":9185,"Ġinvestigation":9186,",'":9187,"74":9188,"mind":9189,"rus":9190,"Ġfired":9191,"anova":9192,"Ġhref":9193,"Ġelection":9194,"Ġreactions":9195,"omorph":9196,"oles":9197,"Ġdelet":9198,"abul":9199,"Ġchrom":9200,"Ġabram":9201,"izers":9202,"Ġperse":9203,"Ġcharity":9204,"Ġcarl":9205,"Ġdrum":9206,"Ġdairy":9207,"Ġforecast":9208,"Ġhundreds":9209,"Ġextracted":9210,"Ġboyfriend":9211,"operator":9212,"Ġinvestigate":9213,"Ġsoda":9214,"fish":9215,"Ġcave":9216,"Ġmc":9217,"anes":9218,"Ġrural":9219,"Ġleaf":9220,"Ġnove":9221,"Ġdesol":9222,"Ġsimulate":9223,"Ġmini":9224,"Ġplaylist":9225,"Ġaccessories":9226,"Ġparticle":9227,"Ġtemporary":9228,"Ġcombat":9229,"Ġdetermination":9230,"Ġseparately":9231,"Ġtreated":9232,"Ġcouncil":9233,"Ġanimation":9234,"Ġfiber":9235,"Ġbatter":9236,"Ġsenior":9237,"conscious":9238,"Ġagriculture":9239,"Ġfrancisco":9240,"blog":9241,"cimal":9242,"Ġiii":9243,"ora":9244,"Ġbone":9245,"Ġdunder":9246,"unks":9247,"Ġwilliam":9248,"Ġune":9249,"udes":9250,"Ġlogin":9251,"Ġquit":9252,"Ġcoach":9253,"Ġfollowers":9254,"Ġmeanings":9255,"Ġcommunic":9256,"Ġforeach":9257,"Ġintegral":9258,"Ġangles":9259,"Ġconsumed":9260,"Ġsells":9261,"Ġbegat":9262,"Ġreveal":9263,"argument":9264,"Ġchampions":9265,"Ġcompassion":9266,"Ġmos":9267,"Ġbacteria":9268,"ingly":9269,"adata":9270,"Ġ\"\\":9271,"Ġcongress":9272,"ulpt":9273,"Ġresist":9274,"Ġsculpt":9275,"week":9276,"Ġdistingu":9277,"Ġeastern":9278,"Ġmetric":9279,"Ġwalks":9280,"Ġfriendship":9281,"Ġsensors":9282,"Ġcollective":9283,"Ġbanks":9284,"Ġdarryl":9285,"Ġinfinite":9286,"Ġtransparency":9287,"Ġsophisticated":9288,"Ġtexas":9289,"dist":9290,"ê¸":9291,"Ġtel":9292,"Ġwing":9293,"Ġchal":9294,"Ġshaking":9295,"plug":9296,"Ġmodifications":9297,"Ġimg":9298,"Ġlazy":9299,"Ġcalculations":9300,"Ġoldest":9301,"Ġeleg":9302,"datas":9303,"Ġtouching":9304,"Ġislands":9305,"specific":9306,"06":9307,"98":9308,"casts":9309,"mov":9310,"sis":9311,"á»":9312,"Ġ~":9313,"Ġ×":9314,"react":9315,"Ġcd":9316,"Ġpump":9317,"ita":9318,"Ġhiring":9319,"Ġyep":9320,"Ġeve":9321,"Ġlon":9322,"Ġjumps":9323,"pel":9324,"areth":9325,"Ġspat":9326,"Ġdisorders":9327,"Ġintrig":9328,"Ġearthqu":9329,"Ġjudged":9330,"Ġexplained":9331,"Ġintroducing":9332,"Ġbroader":9333,"details":9334,"Ġmesh":9335,"Ġlibert":9336,"Ġeliminate":9337,"gres":9338,"lig":9339,"uine":9340,"zero":9341,"oral":9342,"Ġmcc":9343,"Ġhub":9344,"asant":9345,"cha":9346,"abil":9347,"Ġpretend":9348,"comb":9349,"Ġafterno":9350,"Ġtries":9351,"ernatural":9352,"Ġdetermining":9353,"Ġgreenhouse":9354,"Ġphotography":9355,"Ġmutual":9356,"Ġpaste":9357,"Ġuncover":9358,"Ġmemorable":9359,"Ġneutral":9360,")?":9361,"onic":9362,"Ġlest":9363,"Ġanch":9364,"eps":9365,"adecimal":9366,"Ġentr":9367,"Ġchildhood":9368,"Ġmedit":9369,"Ġcalculator":9370,"Ġcontainers":9371,"sharp":9372,"Ġexplains":9373,"Ġtracks":9374,"Ġgovernments":9375,"Ġofficer":9376,"Ġdancing":9377,"Ġpandemic":9378,"Ġcivilization":9379,"Ġclarity":9380,"Ġlicense":9381,"Ġcaesar":9382,"Ġinequality":9383,"bound":9384,"fetch":9385,"Ġmand":9386,"Ġmug":9387,"Ġbaked":9388,"Ġdy":9389,"Ġdensity":9390,"icians":9391,"Ġstem":9392,"verty":9393,"Ġweren":9394,"Ġdeed":9395,"Ġliked":9396,"Ġphar":9397,"Ġearned":9398,"Ġvisiting":9399,"bron":9400,"Ġthyself":9401,"job":9402,"filled":9403,"Ġenhancing":9404,"Ġcircular":9405,"Ġtenth":9406,"Ġalpha":9407,"metrics":9408,"\\*\\*\\*\\*\\*\\*\\*\\*":9409,"Ġsupplies":9410,"Ġlogging":9411,"Ġlawyer":9412,"58":9413,"jpg":9414,"Ġbio":9415,"Ġbatt":9416,"Ġgifts":9417,"Ġseo":9418,"Ġvr":9419,"Ġvote":9420,"Ġshirt":9421,"Ġroyal":9422,"Ġshoulder":9423,"ateral":9424,"Ġfiltered":9425,"Ġpossibilities":9426,"Ġprominent":9427,"Ġconsideration":9428,"Ġcomputational":9429,"white":9430,"Ġautomated":9431,"Ġsafely":9432,"Ġaimed":9433,"Ġshaped":9434,"Ġdietary":9435,"Ġshoot":9436,"Ġpolitics":9437,"Ġelectrical":9438,"Ġtactics":9439,"vania":9440,"46":9441,"ju":9442,"kish":9443,"png":9444,"âĶĢ":9445,"Ġgoat":9446,"types":9447,"Ġprocessed":9448,"\")\\":9449,"Ġanalog":9450,"1010":9451,"Ġtale":9452,"shape":9453,"Ġsouls":9454,"Ġautomate":9455,"Ġeleph":9456,"Ġdeclare":9457,"Ġdelicate":9458,"Ġvictor":9459,"Ġvulnerabilities":9460,"mutations":9461,"negative":9462,"abulary":9463,"kg":9464,"pot":9465,"reth":9466,"Ġyum":9467,"Ġgently":9468,"Ġlang":9469,"Ġwhoso":9470,"chron":9471,"ulative":9472,"Ġhaw":9473,"Ġletting":9474,"Ġboot":9475,"Ġgenres":9476,".\");":9477,"Ġlands":9478,"Ġexpressing":9479,"Ġcaptiv":9480,"Ġviewers":9481,"Ġstructured":9482,"Ġcompetitors":9483,"Ġradiation":9484,"Ġadapted":9485,"Ġsuspect":9486,"Ġsnacks":9487,"namon":9488,"Ġcandidates":9489,"Ġcherry":9490,"Ġcabin":9491,"Ġconsecutive":9492,"mary":9493,"pdf":9494,"Ġ^":9495,"Ġbing":9496,"Ġrefe":9497,"kels":9498,"Ġray":9499,"Ġrhy":9500,"Ġshout":9501,"ilee":9502,"Ġhashtag":9503,"Ġprovin":9504,"device":9505,"hesis":9506,"Ġlogo":9507,"Ġinvestments":9508,"Ġinfluential":9509,"ventional":9510,"Ġabsalom":9511,"Ġreplacement":9512,"Ġintelligent":9513,"Ġfraud":9514,"Ġcreamy":9515,"supanova":9516,"Ġchamber":9517,"giving":9518,"kit":9519,"wall":9520,"Ġfir":9521,"Ġpok":9522,"Ġdow":9523,"Ġeine":9524,"oma":9525,"Ġstations":9526,"acher":9527,"Ġsufficient":9528,"agency":9529,"Ġsomewhere":9530,"Ġworkout":9531,"Ġperf":9532,"Ġgenuine":9533,"Ġbelieves":9534,"Ġfrequent":9535,"Ġgraphic":9536,"Ġofficers":9537,"locity":9538,"Ġimmediate":9539,"Ġmanipulate":9540,"Ġinfluencer":9541,"Ġappointed":9542,"Ġmolecules":9543,"Ġpulled":9544,"Ġsouthern":9545,"43":9546,"happ":9547,"Ġdense":9548,"Ġgang":9549,"enth":9550,"Ġchic":9551,"ptions":9552,"Ġ''":9553,"Ġrecur":9554,"Ġconservation":9555,"Ġsupernatural":9556,"Ġeliz":9557,"Ġcommunications":9558,"Ġconfir":9559,"minute":9560,"Ġremained":9561,"ĠÐ´":9562,"Ġmerc":9563,"Ġrounded":9564,"Ġamericans":9565,"Ð½Ð¸":9566,"Ġreliability":9567,"Ġownership":9568,"complete":9569,"ahrenheit":9570,"}$,":9571,".*":9572,"></":9573,"binary":9574,"ez":9575,"vy":9576,"via":9577,"alous":9578,"Ġtoler":9579,"utter":9580,"Ġchip":9581,"Ġneur":9582,"Ġwhoever":9583,"Ġtrace":9584,"beat":9585,"Ġinterv":9586,"expl":9587,"Ġentries":9588,"Ġcrust":9589,"berg":9590,"ĠâĶ":9591,"Ġbiological":9592,"Ġhorror":9593,"Ġaffl":9594,"Ġstreams":9595,"Ġprisoners":9596,"Ġcomposition":9597,"Ġsurprised":9598,"Ġpregnancy":9599,"Ġmolec":9600,"Ġversatile":9601,"Ġdramatic":9602,"Ġdisgusting":9603,"=\\":9604,"double":9605,"ien":9606,"orus":9607,"Ġlam":9608,"Ġjazz":9609,"abeth":9610,"Ġugh":9611,"Ġsyll":9612,"Ġelastic":9613,"Ġobj":9614,"Ġsignals":9615,"coordin":9616,"Ġcombines":9617,"google":9618,"Ġ>>>":9619,"Ġautomatic":9620,"Ġmrs":9621,"Ġmelody":9622,"Ġdropped":9623,"Ġhospit":9624,"floor":9625,"Ġscheduling":9626,"Ġreputation":9627,"Ġgrateful":9628,"}\":":9629,"57":9630,"dest":9631,"rices":9632,"Ġtid":9633,"icious":9634,"Ġlid":9635,"Ġregex":9636,"ste":9637,"Ġ\"{":9638,"arer":9639,"Ġproven":9640,"Ġbeta":9641,"Ġrecover":9642,"phones":9643,"engine":9644,"Ġelijah":9645,"msg":9646,"Ġmilest":9647,"Ġproteins":9648,"Ġtreasure":9649,"Ġhorns":9650,"prefix":9651,"Ġexpanding":9652,"Ġcursed":9653,"Ġcasual":9654,"blob":9655,"Ġincentives":9656,"parser":9657,"'?":9658,"dif":9659,"ni":9660,"pur":9661,"Ġwins":9662,"Ġmouse":9663,"Ġthurs":9664,"rape":9665,"Ġcompile":9666,"Ġcoal":9667,"Ġspice":9668,"Ġagencies":9669,"Ġcheer":9670,"ighth":9671,"Ġcorrupt":9672,"Ġbeneath":9673,"center":9674,"Ġwinners":9675,"Ġharmony":9676,"Ġsimilarity":9677,"Ġportug":9678,"Ġclosest":9679,"Ġurls":9680,"Ġpanels":9681,"Ġassumptions":9682,"Ġgentiles":9683,"Ġcinnamon":9684,"Ġafternoon":9685,"07":9686,"82":9687,"ko":9688,"health":9689,"rection":9690,"Ġfought":9691,"Ġbills":9692,"Ġbean":9693,"chat":9694,"Ġjokes":9695,"Ġnope":9696,"Ġ55":9697,"Ġsymm":9698,"necess":9699,"Ġwherein":9700,"bered":9701,"Ġfluid":9702,"Ġexceptional":9703,"Ġdictionaries":9704,"Ġaccepts":9705,"slide":9706,"Ġturkish":9707,"Ġbehaviour":9708,"Ġrussia":9709,"success":9710,"Ġhungry":9711,"Ġcotton":9712,"cpp":9713,"cpu":9714,"pub":9715,"uer":9716,"ona":9717,"Ġbunch":9718,"Ġdx":9719,"aml":9720,"lymp":9721,"Ġvarchar":9722,"Ġchronic":9723,"Ġ`[":9724,"Ġkir":9725,"Ġunlock":9726,"Ġworsh":9727,"ccer":9728,"Ġ49":9729,"Ġchef":9730,"Ġclassroom":9731,"Ġsupportive":9732,"Ġpatience":9733,"Ġpublication":9734,"Ġsilence":9735,"Ġnamespace":9736,"span":9737,"00000000":9738,"Ġvarying":9739,"builder":9740,"Ġprocedure":9741,"Ġacknowled":9742,"Ġsanctuary":9743,"Ġimmersive":9744,"Ġpeanut":9745,"Ġcompelling":9746,")*":9747,"glo":9748,"nab":9749,"nav":9750,"public":9751,"uv":9752,"yard":9753,"ï¼":9754,"erg":9755,"utf":9756,"static":9757,"Ġascii":9758,"Ġchances":9759,"Ġshuff":9760,"iezer":9761,"Ġcomprom":9762,"Ġliber":9763,"Ġdisput":9764,"Ġapache":9765,"share":9766,"Ġtrials":9767,"Ġoptimizing":9768,"Ġahh":9769,"Ġweekly":9770,"Ġengineer":9771,"Ġprotected":9772,"defined":9773,"Ġconducting":9774,"Ġviolent":9775,"Ġrestrictions":9776,"Ġdisappoint":9777,"150":9778,"Ġinverse":9779,"Ġgem":9780,"Ġrend":9781,"Ġish":9782,"Ġdispos":9783,"Ġpermissions":9784,"Ġpreheat":9785,"Ġgrammat":9786,"Ġexplo":9787,"Ġmining":9788,"Ġpasses":9789,"Ġrefuge":9790,"Ġbreakdown":9791,"Ġiterations":9792,"Ġcrystal":9793,"Ġburied":9794,"Ġsuperior":9795,"Ġcolleagues":9796,"Ġsimpler":9797,"Ġimmune":9798,"Ġemphasis":9799,"Ġtailored":9800,"Ġarrived":9801,"Ġlyrics":9802,"Ġdutch":9803,"Ġexplicitly":9804,"Ġtestimon":9805,"Ġelders":9806,"_`":9807,"django":9808,"sit":9809,"sur":9810,"Ġturt":9811,"incre":9812,"Ġhills":9813,"Ġbeings":9814,"Ġoranges":9815,"Ġenforce":9816,"Ġscre":9817,"Ġagile":9818,"Ġtravers":9819,"Ġcharges":9820,"Ġcurric":9821,"Ġ2012":9822,"Ġmont":9823,"Ġcountless":9824,"Ġrepet":9825,"pool":9826,"Ġglor":9827,"auto":9828,"Ġmusicians":9829,"Ġkindness":9830,"ĠÐ¾":9831,"doctype":9832,"Ġauthorities":9833,"Ġcollections":9834,"Ġpurchasing":9835,"Ġexperimental":9836,"Ġdivisor":9837,"Ġĉĉĉ":9838,"Ġtabern":9839,"Ġincredibly":9840,"palindrome":9841,"Ġnovember":9842,"ben":9843,"bert":9844,"bian":9845,"eval":9846,"Ġssl":9847,"erves":9848,"Ġmuff":9849,"Ġdip":9850,"Ġwithdraw":9851,"erson":9852,"Ġshining":9853,"Ġwashed":9854,"Ġworried":9855,"Ġcock":9856,"Ġdesires":9857,"uben":9858,"Ġpreprocess":9859,"Ġeverywhere":9860,"ologist":9861,"Ġmatt":9862,"Ġentang":9863,"Ġjehoi":9864,"Ġvisibility":9865,"Ġhealthier":9866,"Ġexecuting":9867,"Ġresponsibilities":9868,"Ġpopularity":9869,"ÐµÑĤ":9870,"Ġenjoyed":9871,"Ġessentially":9872,"Ġwooden":9873,"Ġphilosop":9874,"Ġsurrounded":9875,"parameters":9876,"property":9877,"Ġcongrat":9878,"Ġquadratic":9879,"language":9880,"){":9881,"cakes":9882,"lah":9883,"normal":9884,"Ġwiz":9885,"Ġolymp":9886,"ouns":9887,"Ġpace":9888,"Ġdrew":9889,"iser":9890,"Ġlisa":9891,"Ġadvers":9892,"Ġpartition":9893,"Ġ*/":9894,"Ġcrim":9895,"Ġgrapes":9896,"listener":9897,"Ġsuggestion":9898,"letters":9899,"Ġcontrovers":9900,"Ġflood":9901,"Ġdiscusses":9902,"Ġdoorway":9903,"Ġdistribute":9904,"Ġboundary":9905,"Ġfrozen":9906,"Ġmirror":9907,"Ġiconic":9908,"Ġaxis":9909,"Ġsubsequent":9910,"72":9911,"oboam":9912,"session":9913,"rain":9914,"Ġchili":9915,"weet":9916,"Ġapost":9917,"Ġgran":9918,"Ġ600":9919,"Ġhummus":9920,"Ġmuscles":9921,"insp":9922,"Ġcontrols":9923,"Ġjeroboam":9924,"Ġconnectivity":9925,"Ġplanting":9926,"Ġlifting":9927,"Ġcomplicated":9928,"Ġsuffering":9929,"Ġtorch":9930,"randint":9931,"Ġkilometers":9932,"Ġampl":9933,"Ġsanta":9934,":\")":9935,")\"":9936,"middle":9937,"onents":9938,"Ġdun":9939,"Ġnah":9940,"oto":9941,"Ġsha":9942,"Ġunle":9943,"Ġlovers":9944,"Ġpoverty":9945,"Ġaggreg":9946,"Ġpleased":9947,"Ġ2013":9948,"Ġapproval":9949,"Ġdipl":9950,"Ġbasically":9951,"Ġintegrity":9952,"Ġreviewer":9953,"Ġfootprint":9954,"Ġlatin":9955,"Ġnorms":9956,"aaaa":9957,"Ġpalace":9958,"Ġneighbour":9959,"Ġvocabulary":9960,"Ġstomach":9961,"cery":9962,"lot":9963,"rid":9964,"Ġod":9965,"Ġdil":9966,"Ġgab":9967,"Ġgym":9968,"olves":9969,"Ġunnecess":9970,"Ġadam":9971,"cling":9972,"strong":9973,"Ġapologies":9974,"Ġgray":9975,"Ġchees":9976,"exper":9977,"Ġcrash":9978,"Ġediting":9979,"Ġclicked":9980,"Ġadjustments":9981,"Ġacceptance":9982,"learning":9983,"Ġsubscri":9984,"Ġvictory":9985,"Ġfarmers":9986,"copy":9987,"Ġacknowledge":9988,"Ġkorean":9989,"Ġfingers":9990,"dl":9991,"was":9992,"Ġmamm":9993,"anas":9994,"Ġgos":9995,"chann":9996,"rah":9997,"Ġleather":9998,"Ġatoms":9999,"oneous":10000,"Ġcoverage":10001,"angular":10002,"Ġwhereas":10003,"Ġmodul":10004,"Ġflu":10005,"cience":10006,"Ġpleasing":10007,"Ġawards":10008,"Ġmatters":10009,"Ġequally":10010,"iostream":10011,"2021":10012,"Ġheading":10013,"Ġencoding":10014,"Ġreceives":10015,"Ġbottles":10016,"ranton":10017,"Ġrevealed":10018,"paper":10019,"Ġsubtracting":10020,"nesday":10021,"Ġsocietal":10022,"oriented":10023,"Ġounces":10024,"Ġwarehouse":10025,"Ġpharise":10026,"cam":10027,"hop":10028,"handler":10029,"oi":10030,"Ġcort":10031,"Ġny":10032,"iches":10033,"Ġhealing":10034,"adian":10035,"Ġdeck":10036,"Ġranging":10037,"Ġ250":10038,"Ġsavi":10039,"Ġscroll":10040,"Ġscranton":10041,"Ġ44":10042,"Ġproductive":10043,"Ġdeviation":10044,"forward":10045,"Ġscientist":10046,"charact":10047,"Ġpursuit":10048,"Ġgateway":10049,"window":10050,"Ġthoroughly":10051,"Ġcomedy":10052,"Ġhypothet":10053,"Ġarose":10054,"Ġsaviour":10055,"csharp":10056,"graph":10057,"pod":10058,"sight":10059,"turn":10060,"ĠÏ":10061,"Ġwil":10062,"Ġnit":10063,"Ġreuben":10064,"storage":10065,"Ġstunning":10066,"imag":10067,"Ġanth":10068,"estate":10069,"Ġshake":10070,"Ġdoe":10071,"Ġunic":10072,"redith":10073,"Ġnood":10074,"weather":10075,"Ġdecades":10076,"Ġregul":10077,"Ġconfidential":10078,"Ġheaders":10079,"Ġiterating":10080,"Ġformatted":10081,"anny":10082,"Ġexecut":10083,"recurs":10084,"since":10085,"history":10086,"Ġsvg":10087,"rat":10088,"sound":10089,"Ġdies":10090,"Ġinclusive":10091,"Ġnurs":10092,"sty":10093,"verb":10094,"kel":10095,"Ġassemble":10096,"Ġriddle":10097,"Ġtears":10098,"Ġarc":10099,"imelech":10100,"Ġincident":10101,"Ġrelate":10102,"Ġopera":10103,"Ġmete":10104,"Ġsuggesting":10105,"------------":10106,"fruit":10107,"Ġlabeled":10108,"Ġgreens":10109,"Ġprotecting":10110,"Ġlaugh":10111,"Ġmexican":10112,"Ġcompatible":10113,"Ġworkshops":10114,"Ġconvenient":10115,"Ġrefrigerator":10116,"Ġthursday":10117,"'))":10118,"63":10119,">\";":10120,"counter":10121,"Ġtape":10122,"Ġcath":10123,"Ġfits":10124,"Ġexclude":10125,"Ġlect":10126,"Ġ-=":10127,"Ġsocket":10128,"Ġcompound":10129,"Ġpeer":10130,"Ġdesper":10131,"Ġraises":10132,"Ġregulation":10133,"iox":10134,"Ġaccessibility":10135,"Ġtargeting":10136,"Ġenjoying":10137,"Ġsixth":10138,"Ġbuyers":10139,"Ġprogression":10140,"Ġembark":10141,"aphat":10142,"Ġqualities":10143,"Ġphenomena":10144,"Ġlaser":10145,"Ġcooperation":10146,"Ġluxury":10147,"Ġenumerate":10148,"=$":10149,"lis":10150,"nomial":10151,"Ġtac":10152,"repos":10153,"Ġpunch":10154,"Ġpadr":10155,"Ġships":10156,"Ġlee":10157,"Ġimper":10158,"logger":10159,"Ġpeak":10160,"ogen":10161,"Ġjoining":10162,"Ġundergo":10163,"Ġbiology":10164,"Ġiterative":10165,"zzle":10166,"optional":10167,"Ġpeaceful":10168,"Ġangeles":10169,"Ġdressed":10170,"Ġdedication":10171,"Ġladies":10172,"Ġinitiative":10173,"Ġdesktop":10174,"Ġswimming":10175,"Ġpadrinos":10176,">\"":10177,"oons":10178,"nda":10179,"Ġ\"__":10180,"Ġexch":10181,"Ġkernel":10182,"Ġnotification":10183,"Ġquart":10184,"Ġworker":10185,"Ġrail":10186,"Ġcheap":10187,"Ġ2011":10188,"Ġcustomized":10189,"profile":10190,"Ġmodeling":10191,"Ġjudges":10192,"Ġsingular":10193,"Ġpackaging":10194,"Ġactivation":10195,"Ġ2008":10196,"Ġcompete":10197,"ðŁ¤":10198,"Ġshadows":10199,"Ġprosper":10200,"Ġhorizont":10201,"uity":10202,"Ġtam":10203,"Ġtiss":10204,"Ġmmm":10205,"Ġmeredith":10206,"Ġshade":10207,"Ġkat":10208,"auss":10209,"Ġaccum":10210,"Ġapis":10211,"Ġbull":10212,"Ġspecifies":10213,"Ġpersons":10214,"Ġsubur":10215,"Ġcurry":10216,"Ġinvited":10217,"Ġchecked":10218,"Ġopens":10219,"Ġrefres":10220,"Ġvegg":10221,"Ġdiagram":10222,"Ġ2009":10223,"ographics":10224,"Ġcubes":10225,"Ġprotocols":10226,"62":10227,"bott":10228,"qtt":10229,"ÑĪ":10230,"Ġmour":10231,"ano":10232,"Ġinfect":10233,"Ġgig":10234,"eto":10235,"ila":10236,"uls":10237,"three":10238,"Ġunus":10239,"Ġdidst":10240,"Ġmatrices":10241,"Ġcompleting":10242,"iances":10243,"Ġuhh":10244,"Ġremembered":10245,"Ġsensor":10246,"Ġconsistently":10247,"Ġgrandmother":10248,"Ġdiameter":10249,"?âĢĿ":10250,"dated":10251,"kah":10252,"mal":10253,"note":10254,"Ġmu":10255,"Ġdol":10256,"Ġinfer":10257,"lections":10258,"Ġhits":10259,"isc":10260,"Ġnod":10261,"amcc":10262,"Ġproport":10263,"Ġseasons":10264,"Ġshield":10265,"Ġshares":10266,"Ġquot":10267,"Ġdisaster":10268,"Ġcharlie":10269,"Ġcurtain":10270,"Ġentering":10271,"Ġdisplaying":10272,"Ġframeworks":10273,"Ġunders":10274,"Ġderived":10275,"Ġwednesday":10276,"interest":10277,"Ġcarrying":10278,"Ġannounced":10279,"Ġceremony":10280,"characters":10281,".\\_":10282,".ï¿½":10283,"^(":10284,"aware":10285,"ville":10286,"wt":10287,"heth":10288,"Ġbang":10289,"Ġlent":10290,"entry":10291,"ados":10292,"ilant":10293,"Ġrum":10294,"Ġlevi":10295,"Ġloans":10296,"Ġamor":10297,"consum":10298,"Ġmodification":10299,"Ġ800":10300,"Ġpassover":10301,"Ġtestament":10302,"Ġdivers":10303,"Ġessays":10304,"Ġphysically":10305,"Ġsilk":10306,"meta":10307,"Ġadventures":10308,"columns":10309,"Ã¼r":10310,"journey":10311,"Ġhexadecimal":10312,"Ġshredded":10313,"]+":10314,"will":10315,"Ġtub":10316,"inn":10317,"erving":10318,"Ġfn":10319,"Ġfmt":10320,"Ġps":10321,"Ġpenc":10322,"Ġmifflin":10323,"Ġhated":10324,"ceive":10325,"Ġleverage":10326,"Ġspain":10327,"Ġperceived":10328,"depend":10329,"Ġminim":10330,"Ġblur":10331,"exist":10332,"Ġpreserve":10333,"Ġslack":10334,"Ġdiatom":10335,"ounce":10336,"Ġconcert":10337,"Ġlogs":10338,"Ġdifficulties":10339,"Ġtreatments":10340,"Ġstreaming":10341,"ÑģÑĤ":10342,"Ġpremium":10343,"Ġremoves":10344,"Ġprisoner":10345,"Ġcontinuously":10346,"Ġgibe":10347,"bes":10348,"diction":10349,"Ġted":10350,"Ġoak":10351,"edit":10352,"Ġger":10353,"Ġlions":10354,"Ġanoint":10355,"aciÃ³n":10356,"Ġbyte":10357,"usters":10358,"emed":10359,"login":10360,"Ġretention":10361,"Ġ'.":10362,"...\"":10363,"Ġinvite":10364,"Ġlocate":10365,"Ġconfused":10366,"Ġuhm":10367,"Ġgear":10368,"Ġcloves":10369,"Ġahab":10370,"zzar":10371,"Ġstrive":10372,"breaking":10373,"Ġhunt":10374,"Ġmurder":10375,"Ġtuples":10376,"Ġterraform":10377,"comfortable":10378,"Ġmongodb":10379,"piece":10380,"hot":10381,"made":10382,"rust":10383,"Ġcows":10384,"Ġdum":10385,"Ġeag":10386,"Ġgap":10387,"Ġvotes":10388,"Ġshakes":10389,"Ġbytes":10390,"Ġsoccer":10391,"cloud":10392,"Ġdifferently":10393,"Ġinspect":10394,"shad":10395,"Ġmetab":10396,"Ġpolar":10397,"sett":10398,"Ġemployed":10399,"Ġhosting":10400,"Ð¾Ð²":10401,"Ġsubtle":10402,"Ġtriggers":10403,"Ġsuffer":10404,"Ġseventy":10405,"Ġwhisk":10406,"Ġterritory":10407,"Ġoverwhelming":10408,"Ġpacific":10409,"Ġtabernacle":10410,"Ġunnecessary":10411,"53":10412,"cest":10413,"pair":10414,"Ã¨":10415,"Ġsne":10416,"Ġcomo":10417,"ela":10418,"Ġ54":10419,"Ġnewly":10420,"Ġrecording":10421,"Ġbreed":10422,"Ġgotten":10423,"Ġplanned":10424,"Ġdiagn":10425,"Ġdrain":10426,"Ġopponent":10427,"cycle":10428,"Ġfallen":10429,"Ġmacro":10430,"Ġcontrad":10431,"commun":10432,"sales":10433,"Ġgathering":10434,"handle":10435,"Ġberries":10436,"Ġpilot":10437,"Ġhierarchy":10438,"Ġinsects":10439,"ivers":10440,"uum":10441,"ÙĦ":10442,"Ġak":10443,"Ġsals":10444,"Ġwolf":10445,"ani":10446,"sey":10447,"irl":10448,"Ġaltru":10449,"Ġaband":10450,"Ġresc":10451,"isha":10452,"Ġdesigners":10453,"lihood":10454,"Ġbooking":10455,"Ġadvis":10456,"Ġslides":10457,"amped":10458,"svg":10459,"Ġpredictive":10460,"Ġgreet":10461,"Ġtrusted":10462,"Ġwoods":10463,"Ġutilized":10464,"banana":10465,"Ġadvertise":10466,"haust":10467,"Ġaustralian":10468,"Ġdiplom":10469,"bird":10470,"duplic":10471,"Ġtheater":10472,"review":10473,"Ġich":10474,"anum":10475,"Ġtofu":10476,"rog":10477,"uses":10478,"Ġitaly":10479,"iler":10480,"Ġchari":10481,"Ġuncomfortable":10482,"too":10483,"Ġ56":10484,"Ġpreced":10485,"Ġjealous":10486,"Ġlaund":10487,"Ġbuilder":10488,"uchad":10489,"Ġvelocity":10490,"Ġfounder":10491,"Ġwarming":10492,"byte":10493,"Ġcommandment":10494,"Ġinitializes":10495,"Ġspeakers":10496,"Ġpreventing":10497,"Ġgrocery":10498,"Ġattempting":10499,"Ġjewel":10500,"Ġnorthern":10501,"Ġmultiplied":10502,"Ġrejoice":10503,"Ġnebuchad":10504,">();":10505,"Ñħ":10506,"Ġfis":10507,"Ġhired":10508,"Ġeager":10509,"advant":10510,"Ġpose":10511,"Ġrab":10512,"Ġedition":10513,"Ġpostgres":10514,"lessly":10515,"Ġchris":10516,"Ġburden":10517,"break":10518,"Ġglasses":10519,"Ġalbert":10520,"Ġrental":10521,"controller":10522,"Ġshrimp":10523,"Ġapparently":10524,"Ġelizabeth":10525,"\"}":10526,"92":10527,"hm":10528,"kins":10529,"Ġcrop":10530,"Ġpity":10531,"analy":10532,"Ġgolf":10533,"Ġreigned":10534,"Ġusa":10535,"Ġartwork":10536,"Ġ72":10537,"Ġkeyboard":10538,"screen":10539,"appro":10540,"ĠÐ¼":10541,"Ġharmon":10542,"Ġprincess":10543,"Ġoccurring":10544,"Ġofficials":10545,"Ġprincipal":10546,"longest":10547,"fibonacci":10548,"Ġhypothetical":10549,"recursive":10550,"curl":10551,"ride":10552,"wi":10553,"áº":10554,"Ġss":10555,"Ġses":10556,"onics":10557,"Ġcine":10558,"Ġcoup":10559,"orah":10560,"ims":10561,"Ġjs":10562,"Ġleap":10563,"activity":10564,"ccoli":10565,"Ġcoherent":10566,"Ġscary":10567,"Ġconson":10568,"Ġcharging":10569,"Ġincom":10570,"Ġinterrupt":10571,"Ġinterconnected":10572,"Ġdeter":10573,"Ġsecondary":10574,"Ġdrone":10575,"Ġdivine":10576,"Ġbalancing":10577,"Ġcopies":10578,"Ġbudd":10579,"onyms":10580,"party":10581,"Ġcouch":10582,"Ġcmd":10583,"Ġsurroundings":10584,"Ġinstitution":10585,"Ġniche":10586,"Ġcelest":10587,"Ġlovingkind":10588,"Ġpersever":10589,")$.":10590,"800":10591,"fat":10592,"||":10593,"Ġtense":10594,"Ġfake":10595,"Ġmild":10596,"Ġbor":10597,"Ġbun":10598,"ione":10599,"Ġlime":10600,"Ġstated":10601,"ilty":10602,"Ġlef":10603,"osion":10604,"Ġ38":10605,"Ġcoord":10606,"Ġclip":10607,"ouses":10608,"Ġ\\[":10609,"Ġattached":10610,"Ġlasting":10611,"written":10612,"Ġbarriers":10613,"priv":10614,"Ġegyptian":10615,"Ġenjoyable":10616,"Ġengineers":10617,"Ġrods":10618,"Ġpromotes":10619,"Ġevaluating":10620,"Ġutilizes":10621,"Ġpyram":10622,"Ġpolygon":10623,"Ġcords":10624,"Ġduty":10625,"Ġconcentration":10626,"channel":10627,"bro":10628,"dings":10629,"elect":10630,"lined":10631,"pread":10632,"Ġfount":10633,"rax":10634,"Ġexhaust":10635,"Ġchill":10636,"Ġservers":10637,"Ġboards":10638,"Ġslain":10639,"ĠĠĠĠĠĠĠĠĠĠĠĠĠĠĠĠĠĠĠĠĠĠĠĠĠĠĠ":10640,"contrib":10641,"Ġrival":10642,"Ġordin":10643,"Ġaffili":10644,"Ġmisunder":10645,"messages":10646,"Ġwildlife":10647,"Ġalphab":10648,"Ġpolynomial":10649,"Ġelectrons":10650,"Ġgalaxy":10651,"Ġliberty":10652,"aj":10653,"gal":10654,"ku":10655,"vo":10656,"Ð¹":10657,"Ġfled":10658,"ented":10659,"Ġchose":10660,"Ġmeow":10661,"Ġlex":10662,"Ġoutfit":10663,"Ġsaves":10664,"Ġgrams":10665,"Ġbride":10666,"Ġtextures":10667,"Ġpassengers":10668,"Ġcounting":10669,"Ġbuilds":10670,"Ġtalents":10671,"Ġpromised":10672,"Ġcrack":10673,"Ġpredicted":10674,"Ġinspiring":10675,"efined":10676,"Ġturb":10677,"Ġsmoothie":10678,"Ġacademy":10679,"Ġdialect":10680,"Ġspectrum":10681,"rbp":10682,"Ġjehosh":10683,"Ġdemocratic":10684,"Ġcertificate":10685,"Ġcurriculum":10686,"anumeric":10687,"trees":10688,"Ġari":10689,"Ġios":10690,"asures":10691,"Ġjet":10692,"Ġvig":10693,"Ġvice":10694,"estic":10695,"peare":10696,"orship":10697,"Ġraising":10698,"Ġindo":10699,"(\"/":10700,"Ġdecent":10701,"bob":10702,"Ġswed":10703,"Ġflocks":10704,"Ġshortest":10705,"iki":10706,"Ġsmartphone":10707,"Ġchemistry":10708,"Ġcrispy":10709,"Ġridic":10710,"Ġguarantee":10711,"Ġsalsa":10712,"600":10713,"gos":10714,"ĢðŁĴ":10715,"Ġcud":10716,"Ġcels":10717,"Ġfoss":10718,"Ġbern":10719,"Ġtoile":10720,"isp":10721,"Ġorig":10722,"ested":10723,"Ġrs":10724,"Ġspends":10725,"Ġspoke":10726,"Ġcomma":10727,"Ġsyrup":10728,"Ġpersonnel":10729,"Ġdecrypt":10730,"exchange":10731,"profit":10732,"Ġbreasts":10733,"Ġvectors":10734,"Ġswallow":10735,"Ġconsiderations":10736,"Ġintegrating":10737,"Ġeconomics":10738,"Ġthanksgiving":10739,"Ġfundra":10740,"Ġcellular":10741,"Ġburst":10742,"Ġenhanced":10743,"Ġbedroom":10744,"Ġdeclar":10745,"Ġdollar":10746,"Ġweaknesses":10747,"Ġtrauma":10748,"Ġpharisees":10749,"repository":10750,":/":10751,"obe":10752,"Ġmint":10753,"Ġbases":10754,"Ġelder":10755,"ifer":10756,"Ġrug":10757,"Ġalge":10758,"Ġroy":10759,"Ġrobe":10760,"decode":10761,"Ġoffset":10762,"ceptions":10763,"Ġcustomization":10764,"Ġ85":10765,"Ġsinners":10766,"Ġmustard":10767,"Ġdirected":10768,"Ġdrives":10769,"Ġerroneous":10770,"Ġsilent":10771,"Ġstrengthen":10772,"Ġrobes":10773,"Ġcandles":10774,"Ġfishing":10775,"brevi":10776,"Ġparsley":10777,"Ġcertification":10778,"Ġknees":10779,"ðŁ¤Ķ":10780,"71":10781,"81":10782,"fight":10783,"lers":10784,"Ġcumin":10785,"attr":10786,"ervice":10787,"Ġrearr":10788,"ifted":10789,"Ġnotation":10790,"Ġcompose":10791,"Ġresort":10792,"Ġscared":10793,"Ġ41":10794,"Ġparmes":10795,"Ġ1980":10796,"Ġmarvel":10797,"Ġscripts":10798,"Ġwallet":10799,"writing":10800,"Ġredirect":10801,"Ġ!==":10802,"topic":10803,"Ġpurchased":10804,"Ġcomposed":10805,"Ġgreece":10806,"Ġcoordinate":10807,"Ġtweets":10808,"Ġinjuries":10809,"department":10810,"Ġreferral":10811,"gregation":10812,"Ġknock":10813,"Ġtraveled":10814,"Ġmeteor":10815,"Ġjehoshaphat":10816,"cards":10817,"each":10818,"Ġsink":10819,"onaut":10820,"Ġhid":10821,"Ġni":10822,"Ġgrill":10823,"othed":10824,"images":10825,"seen":10826,"rika":10827,"elf":10828,"Ġcoaching":10829,"Ġdisadvant":10830,"Ġactively":10831,"comput":10832,"Ġworlds":10833,"Ġ1990":10834,"Ġextent":10835,"Ġjudging":10836,"arrass":10837,"Ġsnap":10838,"Ġwatched":10839,"building":10840,"Ġdeparted":10841,"Ġhearken":10842,"Ġbayesian":10843,"Ġextends":10844,"Ġparmesan":10845,"\"\"":10846,"bby":10847,"sen":10848,"sam":10849,"Ġthesis":10850,"rey":10851,"Ġsore":10852,"Ġced":10853,"Ġrenow":10854,"imiter":10855,"Ġasa":10856,"Ġja":10857,"Ġjones":10858,"Ġrush":10859,"Ġvalued":10860,"Ġperman":10861,"Ġxy":10862,"ibl":10863,"Ġresulted":10864,"prim":10865,"Ġequil":10866,"Ġidentifier":10867,"etype":10868,"contin":10869,"Ġlatter":10870,"support":10871,"looking":10872,"Ġcircumcision":10873,"Ġindependence":10874,"Ġfeeble":10875,"Ġcompatibility":10876,"employees":10877,"services":10878,"Ġscatter":10879,"square":10880,"Ġathletes":10881,"omorphic":10882,")-":10883,"wed":10884,"zo":10885,"atisf":10886,"Ġfav":10887,"Ġscrew":10888,"Ġaddiction":10889,"Ġ46":10890,"Ġherb":10891,"Ġdecides":10892,"Ġbroccoli":10893,"Ġrestore":10894,"Ġdrizzle":10895,"Ġanalyst":10896,"Ġprediction":10897,"Ġcameras":10898,"Ġpromotions":10899,"rupted":10900,"Ġzeal":10901,"Ġhunting":10902,"Ġinterviews":10903,"Ġrhythm":10904,"Ġchicago":10905,"ĢðŁĴĢðŁĴ":10906,"ðŁ¤ĶðŁ¤Ķ":10907,"09":10908,"eed":10909,"four":10910,"fits":10911,"zm":10912,"Ġï¿½":10913,"Ġawe":10914,"report":10915,"itudes":10916,"Ġelo":10917,"Ġasleep":10918,"clip":10919,"cluded":10920,"phrase":10921,"Ġrails":10922,"Ġgoodbye":10923,"Ġemo":10924,"Ġfridge":10925,"Ġ99":10926,"Ġpromises":10927,"Ġvoices":10928,"Ġconcur":10929,"Ġslew":10930,"Ġloading":10931,"Ġgrey":10932,"Ġrepeating":10933,"Ġgradient":10934,"Ġvacuum":10935,"ĠâĪļ":10936,"ylvania":10937,"Ġpartnerships":10938,"Ġclarify":10939,"ltk":10940,"Ġbelongs":10941,"Ġtransparent":10942,"Ġrapidly":10943,"Ġreinforcement":10944,"Ġaesthetic":10945,"Ġwarriors":10946,"Ġlovingkindness":10947,"Ġperseverance":10948,"(*":10949,"pas":10950,"Ãº":10951,"âĤ¬":10952,"Ġaqu":10953,"Ġpant":10954,"Ġdent":10955,"uniform":10956,"Ġ\"))":10957,"Ġusual":10958,"Ġsuite":10959,"Ġclues":10960,"Ġresume":10961,"aret":10962,"Ġfears":10963,"apse":10964,"Ġdisks":10965,"Ġovercoming":10966,"Ġguilty":10967,"Ġtexts":10968,"nsylvania":10969,"Ġordering":10970,"Ġdiagon":10971,"Ġcaf":10972,"ierce":10973,"Ġsquee":10974,"Ġwebin":10975,"Ġsteal":10976,"space":10977,"Ġaccompan":10978,"Ġscalability":10979,"Ġsavory":10980,"Ġvulnerable":10981,"Ġgallons":10982,"Ġctx":10983,"Ġwhosoever":10984,"(_":10985,"Ġ];":10986,"Ġinch":10987,"stock":10988,"import":10989,"odge":10990,"Ġchron":10991,"Ġshirts":10992,"ordinary":10993,"Ġsojour":10994,"places":10995,"arts":10996,"Ġgoats":10997,"Ġenchant":10998,"Ġ39":10999,"Ġcovid":11000,"Ġgenes":11001,"Ġintensity":11002,"them":11003,"Ġenters":11004,"gging":11005,"issance":11006,"Ġdesigner":11007,"Ġperformances":11008,"Ġorganizing":11009,"Ġswit":11010,"Ġ2005":11011,"Ġvolcan":11012,"Ġlegis":11013,"Ġadjusting":11014,"Ġrecognizing":11015,"Ġcollecting":11016,"Ġfragr":11017,"Ġthrows":11018,"Ġauthentic":11019,"================":11020,"question":11021,"happy":11022,"Ġalgebra":11023,"bid":11024,"rational":11025,"tk":11026,"Ġsli":11027,"Ġmol":11028,"strip":11029,"imm":11030,"Ġank":11031,"think":11032,"Ġwhatsoever":11033,"Ġlily":11034,"umbers":11035,"Ġ$('":11036,"apes":11037,"ensing":11038,"Ġjeff":11039,"Ġeliezer":11040,"Ġtransgress":11041,"Ġlapt":11042,"Ġisraelites":11043,"Ġpossession":11044,"Ġarraylist":11045,"Ġbrave":11046,"Ġcafe":11047,"Ġtriple":11048,"azar":11049,"Ġtimest":11050,"Ġsatisfy":11051,"Ġfreq":11052,"Ġimmig":11053,"help":11054,"Ġpennsylvania":11055,"Ġcontracts":11056,"Ġscheduled":11057,"Ġrotation":11058,"Ġsemant":11059,"Ġalphabetical":11060,"Ġflee":11061,"Ġsuspense":11062,"human":11063,"Ġwounded":11064,"Ġcelsius":11065,"]\\":11066,"52":11067,"rout":11068,"Ġaids":11069,"Ġtheat":11070,"Ġcable":11071,"Ġfon":11072,"Ġbak":11073,"Ġbite":11074,"Ġdile":11075,"alysis":11076,"itarian":11077,"Ġhay":11078,"plat":11079,"Ġcompares":11080,"Ġamen":11081,"wear":11082,"Ġbetray":11083,"Ġvariance":11084,"Ġskip":11085,"Ġdrunk":11086,"collection":11087,"Ġaddressed":11088,"Ġgeometry":11089,"Ġcyl":11090,"Ġmidjourney":11091,"Ġparticipation":11092,"Ġfreel":11093,"Ġembarrass":11094,"Ġemphasizing":11095,"Ġcelebration":11096,"Ġrouter":11097,"Ġnucle":11098,"Ġllm":11099,"Ġecosystems":11100,"torch":11101,"Ġmagazine":11102,"Ġdivorce":11103,"Ġwhitespace":11104,"Ġtestimonial":11105,")=":11106,"Ġmeth":11107,"Ġbomb":11108,"itz":11109,"Ġnom":11110,"idx":11111,"imation":11112,"irical":11113,"andy":11114,"Ġsomewhat":11115,"Ġshepher":11116,"()\\":11117,"othing":11118,"Ġidiot":11119,"naissance":11120,"Ġsignaling":11121,"Ġapplies":11122,"__\":":11123,"Ġcapability":11124,"Ġnights":11125,"Ġahaz":11126,"Ġphotograph":11127,"Ġlegacy":11128,"Ġordinary":11129,"install":11130,"boarding":11131,"Ġreplacing":11132,"Ġcharts":11133,"Ġconcerned":11134,"student":11135,"Ġtroublesho":11136,"original":11137,"Ġcongratulations":11138,"father":11139,"say":11140,"tage":11141,"wan":11142,"Ġmall":11143,"Ġthumb":11144,"isy":11145,"Ġjos":11146,"article":11147,"Ġstranger":11148,"Ġ|\\":11149,"Ġlisting":11150,"Ġstudied":11151,"Ġpersonally":11152,"expr":11153,"Ġcompletion":11154,"Ġequipped":11155,"Ġ1970":11156,"Ġconfront":11157,"Ġtyping":11158,"Ġcontinually":11159,"apped":11160,"Ġdrivers":11161,"Ġselects":11162,"ĠĠĠĠĠĠĠĠĠĠĠĠĠĠĠĠĠ":11163,"Ġ>>":11164,"Ġachievements":11165,"Ġplanted":11166,"Ġhistoric":11167,"Ġdelivering":11168,"Ġrolls":11169,"control":11170,"schema":11171,"Ġnegoti":11172,"Ġventure":11173,"dataset":11174,"Ġshakespeare":11175,"Ġjewelry":11176,"curs":11177,"ele":11178,"rates":11179,"ĠØ":11180,"Ġverse":11181,"Ġeric":11182,"Ġdick":11183,"aniah":11184,"Ġharsh":11185,"isible":11186,"Ġhebron":11187,"americ":11188,"istan":11189,"Ġleban":11190,"Ġabom":11191,"Ġadversity":11192,"Ġcoins":11193,"Ġuamcc":11194,"Ġoverl":11195,"Ġworkflow":11196,"Ġ#{":11197,"Ġprofitable":11198,"Ġprofiles":11199,"numeric":11200,"Ġoriginated":11201,"Ġnaturally":11202,"Ġlaban":11203,"Ġtravels":11204,"Ġchickpe":11205,"Ġsatisfies":11206,"download":11207,"Ġstrike":11208,"Ġpartnership":11209,"Ġlucky":11210,"Ġunlikely":11211,"Ġfertil":11212,"Ġunusual":11213,"$$":11214,"59":11215,"pres":11216,"vm":11217,"Ġfails":11218,"Ġeigen":11219,"Ġbees":11220,"Ġstub":11221,"adde":11222,"vering":11223,"Ġjung":11224,"Ġorche":11225,"Ġadopt":11226,"Ġcompact":11227,"Ġdisplace":11228,"Ġdisorder":11229,"ograp":11230,"Ġpermission":11231,"Ġ03":11232,"Ġboston":11233,"forest":11234,"Ġtrapped":11235,"inson":11236,"Ġaccessed":11237,"positive":11238,"Ġmarbles":11239,"Ġhomeown":11240,"Ġbiom":11241,"Ġbarry":11242,"Ġrecommendation":11243,"Ġoils":11244,"Ġaffirm":11245,"Ġcelebrated":11246,"Ġsubstituting":11247,"sentiment":11248,"Ġexposed":11249,"Ġbinding":11250,"Ġstretching":11251,"generated":11252,"Ġderivative":11253,"occur":11254,"Ġadjacent":11255,"difference":11256,"Ġlaundry":11257,"'\"":11258,"cum":11259,"dc":11260,"tan":11261,"Ġsid":11262,"Ġsally":11263,"Ġsieve":11264,"Ġcav":11265,"Ġmice":11266,"Ġbust":11267,"Ġhr":11268,"arn":11269,"Ġheating":11270,"amel":11271,"igan":11272,"Ġprotot":11273,"Ġvot":11274,"Ġchunks":11275,"Ġclue":11276,"Ġpoison":11277,"Ġinterventions":11278,"Ġrequiring":11279,"Ġvariation":11280,"Ġframes":11281,"Ġregulations":11282,"boards":11283,"Ġmainly":11284,"Ġautonom":11285,"âĢĿ,":11286,"ĠâĨ":11287,"Ġcausal":11288,"Ġglob":11289,"Ġincorporates":11290,"Ġprophes":11291,"Ġseasoning":11292,"Ġguiding":11293,"Ġbananas":11294,"library":11295,"Ġschr":11296,"Ġsudo":11297,"Ġinvented":11298,"Ġdrops":11299,"Ġrationalist":11300,"Ġpaprika":11301,"Ġconsultant":11302,"Ġconvention":11303,"Ġterrain":11304,"employee":11305,"Ġsolely":11306,"73":11307,"beta":11308,"eq":11309,"vity":11310,"Ġarom":11311,"inch":11312,"Ġtheor":11313,"enn":11314,"ropy":11315,"Ġhebre":11316,"Ġchars":11317,"Ġalan":11318,"Ġsausage":11319,"Ġthereby":11320,"Ġ\\\"":11321,"Ġminer":11322,"Ġendl":11323,"exit":11324,"Ġmeanwhile":11325,"Ġversus":11326,"headers":11327,"Ġswear":11328,"Ġmerch":11329,"Ġsensitivity":11330,"++;":11331,"Ġsymbolism":11332,"Ġsimplified":11333,"Ġmelan":11334,"Ġmelted":11335,"Ġmotivations":11336,"Ġwarmth":11337,"Ġdeclared":11338,"Ġipv":11339,"Ġdrove":11340,"abetes":11341,"Ġalike":11342,"Ġwool":11343,"Ġlaughing":11344,"Ġastronom":11345,"Ġwandering":11346,"Ġpiano":11347,"plugin":11348,"Ġneurons":11349,"bottom":11350,"Ġrenowned":11351,"]))":11352,"oz":11353,"song":11354,"Ġsf":11355,"Ġwides":11356,"Ġiot":11357,"orous":11358,"Ġrebell":11359,"etary":11360,"Ġwhither":11361,"imeters":11362,"Ġlocked":11363,"tokens":11364,"Ġ350":11365,"love":11366,"actic":11367,"Ġstrangers":11368,"Ġcoefficient":11369,"Ġlikelihood":11370,"Ġguides":11371,"Ġflame":11372,"Ġinvention":11373,"Ġawake":11374,"Ġende":11375,"ribes":11376,"Ġmethodology":11377,"Ġsalmon":11378,"bridge":11379,"Ġfounders":11380,"shift":11381,"Ġcareers":11382,"Ġcommandments":11383,"Ġdepict":11384,"Ġsteve":11385,"symbol":11386,"Ġadjusted":11387,"Ġdefinitive":11388,"Ġfaithful":11389,"Ġmembership":11390,"mathbb":11391,"runner":11392,"Ġlinkedin":11393,"Ġknife":11394,"children":11395,"Ġmanipulation":11396,"Ġintuition":11397,"Ġshelter":11398,"memory":11399,"Ġworkshop":11400,"Ġmoisture":11401,"Ġcriminal":11402,"110":11403,"away":11404,"ias":11405,"Ãª":11406,"Ġ..":11407,"environ":11408,"Ġming":11409,"Ġmasks":11410,"Ġdah":11411,"Ġrenaissance":11412,"Ġjason":11413,"Ġsectors":11414,"tostring":11415,"Ġsuck":11416,"pert":11417,"avened":11418,"Ġnewfound":11419,"arks":11420,"Ġpharm":11421,"Ġrabb":11422,"Ġactors":11423,"Ġsubsequence":11424,"Ġintention":11425,"Ġaccessing":11426,"Ġgameplay":11427,"Ġsquash":11428,"Ġrepresentative":11429,"Ġcaptures":11430,"calc":11431,"Ġprayers":11432,"Ġcompliance":11433,"Ġjackson":11434,"Ġmagnitude":11435,"ammation":11436,"Ġpuzzles":11437,"Ġemployment":11438,"Ġvolunteer":11439,"Ġmartin":11440,"Ġspoil":11441,"Ġdownt":11442,"Ġwidespread":11443,"\"])":11444,"bac":11445,"ox":11446,"Ġdual":11447,"Ġnurt":11448,"ima":11449,"sell":11450,"Ġriding":11451,"Ġencomp":11452,"Ġworn":11453,"aghet":11454,"Ġ43":11455,"Ġgrated":11456,"Ġdistant":11457,"Ġnumeric":11458,"Ġcontroller":11459,"background":11460,"Ġhybr":11461,"Ġstopping":11462,"Ġcaption":11463,"Ġruling":11464,"Ġtreats":11465,"Ġtimer":11466,"iku":11467,"Ġsatisfying":11468,"Ġblender":11469,"Ġodds":11470,"Ġsusan":11471,"Ġsacred":11472,"Ġstocks":11473,"Ġshooting":11474,"Ġdialog":11475,"linked":11476,"Ġregistration":11477,"Ġsandwiches":11478,"Ġvolunteers":11479,"Ġastronaut":11480,"Ġrecycling":11481,"Ġadopted":11482,"Ġlouis":11483,"Ġfostering":11484,"Ġapplicable":11485,"Ġcommunicating":11486,"Ġcoordination":11487,"!\")":11488,"%;":11489,"bour":11490,"Ġtay":11491,"itious":11492,"Ġthunder":11493,"Ġeh":11494,"Ġheal":11495,"sender":11496,"aded":11497,"Ġanna":11498,"riages":11499,"acr":11500,"tools":11501,"Ġcompress":11502,"001":11503,"Ġspaghet":11504,"Ġretain":11505,"irement":11506,"Ġ<?":11507,"Ġsyria":11508,"arious":11509,"Ġwherewith":11510,"erman":11511,"Ġintake":11512,"Ġblade":11513,"Ġzu":11514,"Ġprofits":11515,"Ġmetadata":11516,"Ġtargets":11517,"Ġdependent":11518,"contract":11519,"Ġfacult":11520,"Ġ2007":11521,"Ġdelve":11522,"Ġmicrow":11523,"Ġsecretly":11524,"Ġforgive":11525,"Ġenabled":11526,"digits":11527,"Ġdeplo":11528,"Ġevolve":11529,"igenous":11530,"Ġcultivate":11531,"Ġobservations":11532,"Ġwizard":11533,"Ġspaghetti":11534,")[":11535,"Äį":11536,"ĠÑĤ":11537,"Ġbrill":11538,"Ġdump":11539,"Ġhorm":11540,"assembly":11541,"Ġhem":11542,"urable":11543,"Ġchord":11544,"Ġmaid":11545,"ptr":11546,"Ġreset":11547,"Ġaggress":11548,"Ġbuzz":11549,"Ġwherever":11550,"reading":11551,"ggle":11552,"Ġcustomizable":11553,"Ġpassive":11554,"Ġdiabetes":11555,"Ġdetermines":11556,"Ġgeom":11557,"Ġinflammation":11558,"Ġcleaned":11559,"merge":11560,"Ġgarments":11561,"Ġaffecting":11562,"factorial":11563,"ÑĤÑĮ":11564,"Ġadaptive":11565,"validate":11566,"Ġnavigating":11567,"interval":11568,"Ġflavorful":11569,"Ġestablishing":11570,"belie":11571,"Ġbriefly":11572,"Ġwidow":11573,"Ġisolation":11574,"Ġwritings":11575,"Ġcyclic":11576,"Ġremarkable":11577,"`).":11578,"dire":11579,"every":11580,"ieth":11581,"nan":11582,"ÅŁ":11583,"ìĿ":11584,"Ġfry":11585,"Ġandrew":11586,"Ġdining":11587,"asa":11588,"etes":11589,"unit":11590,"Ġasian":11591,"iven":11592,"ourse":11593,"Ġscream":11594,"Ġ',":11595,"Ġbullo":11596,"Ġfirstly":11597,"Ġski":11598,"proof":11599,"Ġlovely":11600,"Ġstrongly":11601,"doers":11602,"Ġsimilarities":11603,"mption":11604,"Ġmeasurement":11605,"Ġsenses":11606,"Ġconsisting":11607,"fields":11608,"Ġtourism":11609,"Ġtaxes":11610,"Ġsticky":11611,"Ġchemicals":11612,"Ġemployers":11613,"ĠÐ¿ÑĢ":11614,"hearted":11615,"Ġspatial":11616,"Ġscreens":11617,":</":11618,"61":11619,"aam":11620,"gage":11621,"iath":11622,"mys":11623,"Ġtk":11624,"Ġcer":11625,"Ġdumb":11626,"Ġink":11627,"itories":11628,"iciency":11629,"rogen":11630,"Ġgil":11631,"Ġgoth":11632,"verages":11633,"ulf":11634,"Ġdefect":11635,"antly":11636,"Ġmaze":11637,"Ġfeas":11638,"Ġuzz":11639,"Ġshekels":11640,"weights":11641,"linear":11642,"Ġmusician":11643,"addr":11644,"respons":11645,"Ġinfluences":11646,"Ġ160":11647,"Ġeconomies":11648,"Ġcontributes":11649,"Ġabsence":11650,"Ġtiming":11651,"instorm":11652,"Ġliterally":11653,"lasting":11654,"Ġwhisper":11655,"Ġtuna":11656,"Ġsocieties":11657,"Ġforgotten":11658,"business":11659,"Ġadministrative":11660,"Ġpublishing":11661,"Ġdiscipline":11662,"Ġartifacts":11663,"Ġabundance":11664,"Ġcelestial":11665,"Ġlebanon":11666,"\"/>":11667,"2000":11668,"mac":11669,"ooh":11670,"rr":11671,"wal":11672,"render":11673,"Ġcous":11674,"Ġfal":11675,"Ġgains":11676,"Ġreven":11677,"Ġhesit":11678,"Ġancest":11679,"thur":11680,"esty":11681,"accur":11682,"Ġwasted":11683,"Ġunpredict":11684,"Ġclusters":11685,"Ġclothed":11686,"Ġpend":11687,"Ġamy":11688,"Ġdisabilities":11689,"Ġmoder":11690,"Ġinterfaces":11691,"Ġlaughter":11692,"Ġexpense":11693,"Ġdistract":11694,"=\"#":11695,"Ġsla":11696,"Ġlightweight":11697,"Ġcampus":11698,"Ġdelib":11699,"Ġphilip":11700,"Ġmechanical":11701,"Ġdecline":11702,"Ġvulnerability":11703,"Ġacquis":11704,"Ġaccommodate":11705,"Ġpipeline":11706,"Ġentrance":11707,"Ġpostgresql":11708,"Ġtoilet":11709,"Ġsemantics":11710,"platform":11711,"failed":11712,"Ð·":11713,"Ġobe":11714,"Ġfahrenheit":11715,"Ġbass":11716,"Ġnur":11717,"Ġgst":11718,"idays":11719,"Ġhed":11720,"igs":11721,"Ġchairs":11722,"Ġabimelech":11723,"Ġadequ":11724,"Ġcompression":11725,"hole":11726,"Ġsys":11727,"rown":11728,"Ġconsp":11729,"Ġhobb":11730,"Ġincoming":11731,"Ġsubset":11732,"\":\"":11733,"Ġzed":11734,"Ġmedication":11735,"Ġidentical":11736,"Ġoperand":11737,"Ġpositively":11738,"arrays":11739,"Ġworkspace":11740,"Ġhotels":11741,"Ġachievement":11742,"Ġdamaged":11743,"factory":11744,"traction":11745,"Ġeleazar":11746,"Ġassumption":11747,"Ġambig":11748,"Ġweighs":11749,"correct":11750,"Ġblanket":11751,"Ġadjectives":11752,"};":11753,".]":11754,"51":11755,"94":11756,"great":11757,"iop":11758,"tic":11759,"ðĿ":11760,"Ġtbl":11761,"Ġoat":11762,"Ġpad":11763,"Ġdce":11764,"Ġtoys":11765,"async":11766,"Ġgrip":11767,"Ġlamp":11768,"Ġbeet":11769,"ulator":11770,"Ġ`.":11771,"plus":11772,"Ġrolled":11773,"Ġretreat":11774,"Ġthence":11775,"Ġtrailing":11776,"heses":11777,"Ġdiversity":11778,"Ġmetaph":11779,"Ġlargely":11780,"Ġinflation":11781,"Ġbitcoin":11782,"Ġfigured":11783,"Ġ240":11784,"Ġurgent":11785,"Ġparticipating":11786,"Ġfailing":11787,"Ġworthy":11788,"Ġfiltering":11789,"Ġalternatively":11790,"Ã¡s":11791,"Ġinterpreted":11792,"Ġcrisp":11793,"contains":11794,"Ġhenry":11795,"Ġrendering":11796,"Ġisolated":11797,"12345":11798,"Ġenzymes":11799,"Ġteles":11800,"Ġtolerance":11801,"came":11802,"dx":11803,"gam":11804,"taking":11805,"Ġcust":11806,"Ġbil":11807,"Ġdjango":11808,"rolling":11809,"Ġjess":11810,"Ġcanadian":11811,"Ġvint":11812,"Ġabroad":11813,"Ġadmit":11814,"together":11815,"Ġarrest":11816,"duce":11817,"Ġug":11818,"Ġincense":11819,"Ġintermedi":11820,"Ġprintln":11821,"boy":11822,"Ġthyme":11823,"Ġdawn":11824,"Ġprobabilities":11825,"Ġfacial":11826,"Ġdemographic":11827,"Ġpicking":11828,"Ġsweetie":11829,"Ġloads":11830,"Ġpromotional":11831,"Ġtouched":11832,"Ġoxid":11833,"Ġroutines":11834,"desk":11835,"equiv":11836,"Ġmales":11837,"Ġaligned":11838,"Ġinnovations":11839,"Ġsemi":11840,"íķĺ":11841,"Ġfossil":11842,"Ġfaculty":11843,"}\",":11844,"ais":11845,"god":11846,"km":11847,"mong":11848,"zes":11849,"Ġtf":11850,"Ġtire":11851,"Ġtons":11852,"Ġpc":11853,"Ġmari":11854,"Ġnathan":11855,"Ġrecept":11856,"ethe":11857,"stairs":11858,"olo":11859,"abel":11860,"Ġkra":11861,"Ġkoh":11862,"lope":11863,"Ġmock":11864,"Ġjustify":11865,"Ġohhh":11866,"Ġindigenous":11867,"Ġinterior":11868,"Ġoblig":11869,"Ġslay":11870,"ucch":11871,"Ġgrows":11872,"Ġmerged":11873,"selected":11874,"Ġthrowing":11875,"Ġscalable":11876,"jections":11877,"Ġflatten":11878,"Ġpillar":11879,"decimal":11880,"Ġclimb":11881,"Ġsurveys":11882,"Ġparaphrase":11883,"Ġridiculous":11884,"Ġorigins":11885,"=(":11886,"fig":11887,"houses":11888,"hex":11889,"Ġsie":11890,"Ġfried":11891,"ouch":11892,"Ġdice":11893,"asive":11894,"Ġgcd":11895,"Ġreception":11896,"ett":11897,"Ġfors":11898,"othe":11899,"Ġcongregation":11900,"Ġ`\"":11901,"Ġko":11902,"Ġnotion":11903,"Ġabbrevi":11904,"Ġwheels":11905,"Ġimpression":11906,"Ġsaut":11907,"angles":11908,"Ġperpet":11909,"Ġboiling":11910,"Ġflights":11911,"Ġbrus":11912,"Ġdecade":11913,"Ġmonster":11914,"Ġzones":11915,"boot":11916,"Ġpublis":11917,"Ġbrainstorm":11918,"Ġoperational":11919,"notation":11920,"Ġcomputation":11921,"Ġlogistics":11922,"Ġcaptivity":11923,"models":11924,"Ġdeadline":11925,"Ġconversions":11926,"Ġclicking":11927,"steps":11928,"Ġadaptation":11929,"Ġextraordinary":11930,"initial":11931,"Ġsynag":11932,"ĠâĪ«":11933,"Ġconsulting":11934,"Ġcrafting":11935,"Ġcrops":11936,"Ġjumping":11937,"Ġhouseholds":11938,"Ġintervals":11939,"Ġrepeatedly":11940,"Ġconvince":11941,"multip":11942,"Ġsearches":11943,"Ġpixel":11944,"Ġfirms":11945,"Ġhorizontal":11946,"awareness":11947,"rin":11948,"rical":11949,"tbl":11950,"wd":11951,"Ã£":11952,"ĠĠĠĊ":11953,"Ġnail":11954,"usr":11955,"etfs":11956,"ige":11957,"umph":11958,"Ġkim":11959,"Ġmah":11960,"Ġmaker":11961,"Ġplates":11962,"Ġmanually":11963,"Ġcoco":11964,"Ġroses":11965,"Ġpoet":11966,"neys":11967,"Ġtrains":11968,"Ġgiveth":11969,"Ġawk":11970,"Ġzoo":11971,"('/":11972,"Ġwinds":11973,"clusion":11974,"Ġprivile":11975,"Ġtreating":11976,"Ġencouraged":11977,"functions":11978,"Ġroads":11979,"Ġretrieves":11980,"Ġsecurely":11981,"Ġinvolvement":11982,"micro":11983,"small":11984,"Ġpulling":11985,"Ġcorporation":11986,"Ġinstrumental":11987,"Ġnutrient":11988,"largest":11989,"Ġdeposit":11990,"Ġnoodles":11991,"Ġlefto":11992,"%)":11993,"250":11994,"aper":11995,"fly":11996,"gard":11997,"wis":11998,"Ġaj":11999,"Ġnltk":12000,"Ġgest":12001,"Ġgaz":12002,"Ġrevel":12003,"ando":12004,"Ġworm":12005,"activ":12006,"Ġfeared":12007,"xty":12008,"Ġpermutations":12009,"encode":12010,"Ġclassified":12011,"Ġfilmm":12012,"Ġdesignated":12013,"Ġlocally":12014,"Ġapproved":12015,"Ġbrains":12016,"Ġlogistic":12017,"Ġgovernor":12018,"Ġalongside":12019,"Ġuniversities":12020,"Ġchickens":12021,"Ġmodifying":12022,"Ġpraised":12023,"Ġpurchases":12024,"Ġparagraphs":12025,"Ġscales":12026,"Ġratings":12027,"Ġgalilee":12028,"similar":12029,"Ġvocal":12030,"Ġtalented":12031,"layout":12032,"Ġmythology":12033,"Ġshowcasing":12034,"Ġmerely":12035,"Ġearthquake":12036,"Ġcatholic":12037,"Ġcontradict":12038,"Ġvintage":12039,"41":12040,"Ġwrest":12041,"oul":12042,"icide":12043,"Ġlap":12044,"Ġshifts":12045,"Ġ`-":12046,"Ġdozen":12047,"andra":12048,"feed":12049,"icho":12050,"Ġnobel":12051,"Ġspots":12052,"Ġdismiss":12053,"Ġzucch":12054,"Ġhomework":12055,"ecd":12056,"Ġstatutes":12057,"obile":12058,"::-":12059,"Ġsquared":12060,"Ġhiking":12061,"Ġtennis":12062,"Ġagreements":12063,"productive":12064,"Ġfrequencies":12065,"Ġcardio":12066,"Ġmomentum":12067,"marketing":12068,"Ġthrown":12069,"Ġexpanded":12070,"Ġwitnesses":12071,"Ġhunger":12072,"kyo":12073,"xyz":12074,"plotlib":12075,"Ġknee":12076,"Ġweapon":12077,"worthy":12078,"techn":12079,"Ġconveys":12080,"router":12081,"Ġoccasionally":12082,"coordinates":12083,"Ġentanglement":12084,"fam":12085,"had":12086,"mers":12087,"mma":12088,"pn":12089,"Ġtrop":12090,"oning":12091,"Ġpause":12092,"edge":12093,"Ġner":12094,"Ġnouns":12095,"Ġyu":12096,"stra":12097,"Ġproposition":12098,"Ġdeeds":12099,"este":12100,"Ġ`/":12101,"Ġquad":12102,"Ġshechem":12103,"Ġperish":12104,"Ġaged":12105,"Ġsimulations":12106,"Ġpleasant":12107,"should":12108,"trim":12109,"Ġpromising":12110,"Ġphysi":12111,"ĠÐ±":12112,"cluster":12113,"Ġjesse":12114,"Ġpacked":12115,"ventlistener":12116,"Ġslept":12117,"ĠÃł":12118,"Ġsimplicity":12119,"Ġobservation":12120,"Ġconstructed":12121,"Ġsticks":12122,"package":12123,"Ġkilling":12124,"Ġshoe":12125,"ascular":12126,"Ġregistered":12127,"driver":12128,"Ġkorea":12129,"created":12130,"Ġthermal":12131,"claimed":12132,"Ġfuels":12133,"Ġishma":12134,"settings":12135,"addeventlistener":12136,"Ġtaylor":12137,"ĠsautÃ©":12138,"[$":12139,"iom":12140,"natural":12141,"sil":12142,"ìĹ":12143,"Ġora":12144,"Ġmph":12145,"Ġbol":12146,"isation":12147,"Ġgle":12148,"sters":12149,"adab":12150,"keep":12151,"olen":12152,"Ġhaiku":12153,"Ġrasp":12154,"anda":12155,"loop":12156,"aven":12157,"Ġmodular":12158,"Ġfinnish":12159,"Ġequals":12160,"Ġattitude":12161,"Ġimproves":12162,"Ġceiling":12163,"Ġphysic":12164,"Ġarranged":12165,"Ġsnake":12166,"Ġgarnish":12167,"Ġmidian":12168,"ÐµÐ»":12169,"Ġbreadth":12170,"subject":12171,"Ġscored":12172,"Ġcatalog":12173,"Ġseasonal":12174,"Ġbreathe":12175,"mathcal":12176,"Ġjacket":12177,"Ġsynonyms":12178,"Ġdiscord":12179,"docs":12180,"Ġdecreased":12181,"Ġclubs":12182,"Ġarrive":12183,"invoice":12184,"Ġallocate":12185,"Ġthrive":12186,"ðŁĴĶ":12187,"route":12188,"Ġjunior":12189,"Ġtherapist":12190,"Ġdesolate":12191,"Ġintervention":12192,"Ġsuburbs":12193,"Ġdisplacement":12194,"desktop":12195,"120":12196,"sr":12197,"çļ":12198,"Ġcum":12199,"Ġpued":12200,"Ġmaria":12201,"Ġbent":12202,"Ġdp":12203,"Ġdive":12204,"also":12205,"Ġhann":12206,"Ġeb":12207,"ashes":12208,"racy":12209,"teenth":12210,"akim":12211,"Ġspider":12212,"Ġ52":12213,"Ġ##":12214,"Ġoffspring":12215,"Ġsmoking":12216,"Ġgoodness":12217,"Ġflip":12218,"Ġactress":12219,"Ġlaure":12220,"Ġreadable":12221,"Ġdistress":12222,"shaped":12223,"Ġdiy":12224,"Ġtriumph":12225,"Ġdevil":12226,"Ġdeaths":12227,"Ġcuts":12228,"Ġwebpage":12229,"Ġsatan":12230,"Ġbeginner":12231,"Ġcontribution":12232,"Ġlistener":12233,"Ð°Ðº":12234,"Ġcooling":12235,"Ġillumin":12236,"Ġcastle":12237,"Ġhallow":12238,"Ġcosm":12239,"legal":12240,"Ġneckl":12241,"Ġcelery":12242,"Ġtwisted":12243,"Ġluna":12244,"Ġpesto":12245,"Ġadopting":12246,"middleware":12247,"styles":12248,"çļĦ":12249,"!âĢĿ":12250,"$?":12251,"bm":12252,"hire":12253,"Ð³":12254,"Ġfierce":12255,"Ġmt":12256,"Ġdirt":12257,"Ġnoun":12258,"Ġnlp":12259,"Ġgord":12260,"Ġorbit":12261,"Ġsocks":12262,"plane":12263,"embed":12264,"Ġarrows":12265,"Ġsail":12266,"Ġ{{":12267,"Ġscribes":12268,"Ġ47":12269,"Ġ}}":12270,"ubern":12271,"Ġtraverse":12272,"Ġproducers":12273,"ports":12274,"(\"%":12275,"Ġbrid":12276,"Ġcreator":12277,"gged":12278,"Ġdistractions":12279,"Ġidentification":12280,"Ġsurger":12281,"Ġreleases":12282,"Ġlearners":12283,"Ġbasics":12284,"Ġstrengthe":12285,"temperature":12286,"Ġbackgrounds":12287,"Ġspreadsheet":12288,"Ġfairly":12289,"Ġresolved":12290,"Ġemergence":12291,"Ġpaintings":12292,"Ġfestiv":12293,"Ġdominant":12294,"Ġwireless":12295,"Ġstroke":12296,"Ġlambs":12297,"Ġregulatory":12298,"Ġzucchini":12299,"bad":12300,"qr":12301,"Ġsilly":12302,"Ġome":12303,"esh":12304,"Ġfred":12305,"Ġbother":12306,"itting":12307,"leys":12308,"Ġhumble":12309,"Ġyoke":12310,"Ġgrie":12311,"Ġgauss":12312,"ido":12313,"gered":12314,"Ġhackers":12315,"Ġdecom":12316,"Ġunw":12317,"aki":12318,"Ġpear":12319,"Ġspray":12320,"Ġsynd":12321,"Ġsmoked":12322,"Ġminus":12323,"Ġasses":12324,"Ġspecifications":12325,"Ġcheckout":12326,"Ġcarries":12327,"Ġattractions":12328,"Ġcontained":12329,"Ġcares":12330,"Ġ123":12331,"Ġportable":12332,"Ġburger":12333,"Ġclicks":12334,"ÐµÑĢ":12335,"Ġcasting":12336,"Ġmassage":12337,"Ġrewarding":12338,"Ġgradu":12339,"Ġaligns":12340,"Ġdetected":12341,"Ġsurviv":12342,"Ġsurprising":12343,"Ġvirus":12344,"Ġaugmented":12345,"Ġentrepreneur":12346,"Ġalmonds":12347,"Ġredemption":12348,"Ġdurable":12349,"Ġrelatable":12350,"Ġzealand":12351,"Ġhybrid":12352,"/(":12353,"erer":12354,"vance":12355,"reach":12356,"revenue":12357,"atype":12358,"Ġwitch":12359,"Ġpushed":12360,"Ġyard":12361,"ashed":12362,"Ġgol":12363,"Ġren":12364,"geometry":12365,"Ġorient":12366,"Ġhasn":12367,"Ġdesc":12368,"Ġ/*":12369,"Ġdonations":12370,"Ġhighway":12371,"Ġrunner":12372,"addy":12373,"Ġfreely":12374,"Ġconditional":12375,"Ġjericho":12376,"offs":12377,"Ġactionable":12378,"Ġcamping":12379,"Ġhorrible":12380,"Ġsqlite":12381,"Ġdenomin":12382,"Ġdemonstrated":12383,"Ġinsertion":12384,"Ġlatex":12385,"Ġforests":12386,"Ġslicing":12387,"Ġcontinuing":12388,"personal":12389,"Ġranking":12390,"Ġmaketh":12391,"onymous":12392,"Ġatomic":12393,"Ġsupplement":12394,"Ġdisappear":12395,"purpose":12396,"Ġpyramid":12397,"Ġschrute":12398,"}^":12399,"91":12400,"big":12401,"gins":12402,"lam":12403,"yout":12404,"zed":12405,"ĠÑ":12406,"Ġmqtt":12407,"Ġgroom":12408,"Ġanecd":12409,"Ġhacking":12410,"Ġseas":12411,"Ġabuse":12412,"Ġtran":12413,"Ġspa":12414,"()`.":12415,"Ġhandled":12416,"Ġforming":12417,"readline":12418,"Ġplaceholder":12419,"Ġbrook":12420,"Ġteamwork":12421,"Ġeste":12422,"Ġverily":12423,"Ġmaintained":12424,"Ġvoltage":12425,"Ġ},\\":12426,"Ġdefinitions":12427,"Ġoneself":12428,"Ġmelt":12429,"Ġirony":12430,"winners":12431,"Ġfrost":12432,"region":12433,"Ġcosmic":12434,"simulations":12435,"xxxx":12436,"Ġbackend":12437,"whoa":12438,"Ġcriticism":12439,"features":12440,"Ġcucumber":12441,"Ġacquisition":12442,"Ġishmael":12443,")),":12444,"die":12445,"ear":12446,"gic":12447,"kt":12448,"ran":12449,"Ġcilant":12450,"Ġfancy":12451,"ena":12452,"Ġbark":12453,"Ġdt":12454,"Ġdirty":12455,"aliah":12456,"Ġrebel":12457,"quer":12458,"osph":12459,"Ġquiz":12460,"Ġub":12461,"apers":12462,"Ġspelling":12463,"english":12464,"Ġrelates":12465,"Ġsimmer":12466,"Ġ101":12467,"Ġcorners":12468,"itters":12469,"Ġempower":12470,"Ġacou":12471,"Ġclever":12472,"Ġveter":12473,"yeah":12474,"Ġcallback":12475,"scal":12476,"125":12477,"Ġtypescript":12478,"Ġparams":12479,"Ġballoon":12480,"Ġantib":12481,"Ġsprint":12482,"Ġsubstitution":12483,"Ġattendees":12484,"Ġattending":12485,"Ġwickedness":12486,"Ġleveraging":12487,"circle":12488,"Ġutterly":12489,"Ġconfirmed":12490,"Ġmodulo":12491,"Ġamorites":12492,"Ġconcurrent":12493,"Ġcilantro":12494,")+":12495,"??":12496,"gue":12497,"ãĢ":12498,"Ġgri":12499,"Ġrebe":12500,"uss":12501,"chuck":12502,"Ġconventional":12503,"Ġexh":12504,"Ġnoted":12505,"Ġarbit":12506,"Ġpocket":12507,"Ġbuys":12508,"Ġbugs":12509,"shore":12510,"Ġcentimeters":12511,"Ġgeller":12512,"Ġcaptured":12513,"Ġvisuals":12514,"relations":12515,"Ġnormally":12516,"Ġdynamically":12517,"Ġreminders":12518,"Ġethiop":12519,"Ġnovels":12520,"canvas":12521,"Ġdropdown":12522,"Ġtitled":12523,"Ġnutritious":12524,"Ġsadness":12525,"Ġsixty":12526,"swift":12527,"Ġagricultural":12528,"Ġbattles":12529,"ï¼Į":12530,"Ġrefreshing":12531,"Ġbrilliant":12532,"Ã£o":12533,"youtube":12534,":.":12535,"'!":12536,"?\",":12537,"duration":12538,"obs":12539,"pd":12540,"rons":12541,"uent":12542,"§Ģ":12543,"Ġtile":12544,"Ġtiger":12545,"Ġaster":12546,"Ġio":12547,"Ġmord":12548,"Ġtoxic":12549,"isalpha":12550,"Ġnaz":12551,"odel":12552,"Ġasyn":12553,"Ġjed":12554,"Ġvaries":12555,"Ġrides":12556,"Ġkin":12557,"Ġarrow":12558,"Ġ3000":12559,"Ġ360":12560,"agen":12561,"Ġmold":12562,"Ġdissol":12563,"Ġwrought":12564,"Ġtraged":12565,"before":12566,"Ġsolo":12567,"Ġcrushing":12568,"Ġparli":12569,"Ġposted":12570,"clean":12571,"Ġdiffusion":12572,"ushi":12573,"Ġcleaner":12574,"Ġviewing":12575,"Ġjimmy":12576,"confidence":12577,"Ġepic":12578,"Ġfairy":12579,"Ġinserted":12580,"Ġalexander":12581,"Ġanalytical":12582,"Ġrectangular":12583,"Ġappointment":12584,"Ġhurric":12585,"Ġemotionally":12586,"Ġexhibit":12587,"Ġcycling":12588,"Ġlegendary":12589,"}`);":12590,"Ġculinary":12591,"Ġaspir":12592,"Ġprovince":12593,"Ġhospitals":12594,"inspired":12595,"dictionary":12596,"Ġmicrowave":12597,"cv":12598,"mapping":12599,"pah":12600,"Âł":12601,"ĠÙ":12602,"inity":12603,"Ġwoo":12604,"Ġfract":12605,"iche":12606,"Ġgut":12607,"Ġreho":12608,"Ġproxy":12609,"Ġjup":12610,"Ġusestate":12611,"Ġmaple":12612,"Ġqui":12613,"Ġclay":12614,"asso":12615,"Ġscrap":12616,"Ġspear":12617,"Ġdiscomfort":12618,"Ġgodd":12619,"Ġdifferential":12620,"Ġacids":12621,"flag":12622,"Ġruntime":12623,"Ġdistur":12624,"Ġlighter":12625,"Ġspecialist":12626,"Ġtranslates":12627,"Ġ2006":12628,"Ġgovernance":12629,"Ġdamas":12630,"Ġaccepting":12631,"Ġreplication":12632,"Ġimmense":12633,"Ġneighbors":12634,"Ġjanice":12635,"Ġbroadcast":12636,"salary":12637,"Ġparsing":12638,"Ġfulfilled":12639,"Ġhabitat":12640,"Ġadvocate":12641,"Ġroughly":12642,"Ġscattered":12643,"Ġdissert":12644,"vowels":12645,"Ġcaptivating":12646,"Ġcorruption":12647,"cursor":12648,"ubernetes":12649,"/âĪ":12650,"cin":12651,"font":12652,"special":12653,"Ġvel":12654,"Ġsd":12655,"Ġwie":12656,"Ġot":12657,"Ġira":12658,"analysis":12659,"itan":12660,"Ġstating":12661,"adel":12662,"Ġdealt":12663,"about":12664,"Ġshops":12665,"Ġleon":12666,"plant":12667,"Ġunfold":12668,"Ġlover":12669,"Ġlip":12670,"asty":12671,"apor":12672,"Ġfunctioning":12673,"Ġdeserve":12674,"Ġperceive":12675,"Ġphon":12676,"Ġflakes":12677,".\"?":12678,"Ġdifferentiate":12679,"Ġmatplotlib":12680,"Ġdevelopments":12681,"Ġisraeli":12682,"Ġquestioning":12683,"Ġcentre":12684,"Ġaudition":12685,"Ġaccountability":12686,"Ġrecei":12687,"previous":12688,"Ġdomains":12689,"Ġseemingly":12690,"apsed":12691,"Ġlifetime":12692,"without":12693,"Ġkingdoms":12694,"Ġsettle":12695,"Ġestablishment":12696,"Ġdistinctive":12697,"Ġbeside":12698,"Ġdiscard":12699,"Ġlaunching":12700,"Ġpassionate":12701,"Ġcryptography":12702,"efficients":12703,"Ġannouncement":12704,"Ġfountain":12705,",$":12706,"freq":12707,"rp":12708,"sour":12709,"school":12710,"Ġ00":12711,"Ġtum":12712,"inction":12713,"inform":12714,"Ġcure":12715,"Ġfart":12716,"Ġfries":12717,"Ġmund":12718,"Ġbc":12719,"Ġboring":12720,"Ġgn":12721,"Ġreck":12722,"vet":12723,"sto":12724,"rained":12725,"Ġcancel":12726,"ieval":12727,"Ġoutlook":12728,"agent":12729,"cloth":12730,"Ġcope":12731,"ipedia":12732,"Ġpeers":12733,"appl":12734,"Ġovertake":12735,"Ġaccord":12736,"Ġphones":12737,"Ġrecre":12738,"ensus":12739,"Ġsmite":12740,"Ġbrad":12741,"theless":12742,"Ġblows":12743,"Ġdeciding":12744,"Ġlearns":12745,"Ġmedieval":12746,"Ġsinned":12747,"Ġvec":12748,"Ġveil":12749,"Ġpointers":12750,"Ġbranding":12751,"lists":12752,"clear":12753,"ropri":12754,"Ġspeaks":12755,"ikipedia":12756,"Ġinnocent":12757,"Ġpanic":12758,"Ġalternate":12759,"Ġreflected":12760,"validation":12761,"Ġcorresponds":12762,"Ġepist":12763,"Ġrainbow":12764,"Ġmagnet":12765,"Ġdetective":12766,"Ġaliens":12767,"Ġplugging":12768,"Ġpowershell":12769,"Ġjewish":12770,"Ġallocation":12771,"Ġcybersecurity":12772,"Ġconvenience":12773,"relevant":12774,"Ġrhyme":12775,"ĠâĨĴ":12776,"ðŁĴĶðŁĴĶ":12777,"cf":12778,"cas":12779,"fry":12780,"mix":12781,"town":12782,"Ġtied":12783,"Ġcms":12784,"Ġought":12785,"Ġpel":12786,"Ġpond":12787,"Ġpoured":12788,"Ġbos":12789,"Ġbrian":12790,"Ġdying":12791,"isons":12792,"ometer":12793,"quote":12794,"Ġorth":12795,"Ġchur":12796,"Ġ(\\":12797,"else":12798,"Ġplague":12799,"Ġarthur":12800,"agger":12801,"ffff":12802,"Ġexamination":12803,"ensed":12804,"Ġmoderate":12805,"Ġcolumb":12806,"Ġinterpre":12807,"Ġbron":12808,"Ġtyre":12809,"Ġmarkdown":12810,"Ġselfish":12811,"Ġbroker":12812,"matches":12813,"Ġbrake":12814,"Ġpolish":12815,"Ġrestart":12816,"Ġbreakthrough":12817,"sels":12818,"Ġposter":12819,"Ġsounding":12820,"uffy":12821,"Ġaircraft":12822,"Ġcraw":12823,"Ġparentheses":12824,"Ġattacking":12825,"Ġultra":12826,"Ġtourists":12827,"Ġgraduate":12828,"Ġholidays":12829,"Ġfunctionalities":12830,"safe":12831,"Ġnegotiation":12832,"percentile":12833,"Ġliters":12834,"Ġpineapple":12835,"fferedreader":12836,"Ġdistinguish":12837,"Ġmilestone":12838,"Ġapostles":12839,"Ġdilig":12840,"Ġaffiliate":12841,"hd":12842,"hom":12843,"jane":12844,"nuts":12845,"tuce":12846,"Ġwolves":12847,"Ġmim":12848,"Ġinn":12849,"velope":12850,"oman":12851,"Ġstolen":12852,"uristic":12853,"tha":12854,"than":12855,"antial":12856,"Ġabner":12857,"Ġcompr":12858,"okay":12859,"Ġliver":12860,"Ġscn":12861,"Ġscent":12862,"Ġsciences":12863,"Ġpee":12864,"athon":12865,"Ġwrites":12866,"Ġproducer":12867,"Ġendless":12868,"Ġpointed":12869,"appropri":12870,"Ġfarmer":12871,"Ġstops":12872,"Ġbalaam":12873,"Ġrounds":12874,"Ã©s":12875,"Ġprinter":12876,"Ġtravelers":12877,"Ġconclusions":12878,"compare":12879,"Ġassignments":12880,"Ġloaded":12881,"Ġsecretary":12882,"Ġfastest":12883,"Ġstrip":12884,"Ġrouting":12885,"ekiah":12886,"Ġcontrarian":12887,"Ġsynthetic":12888,"Ġdepths":12889,"Ġbritain":12890,"Ġhopes":12891,"Ġlaboratory":12892,"Ġpodcasts":12893,"---|":12894,"Ġrepublican":12895,"Ġoverwhelmed":12896,"audio":12897,"welcome":12898,"provider":12899,"scanner":12900,"Ġmolecule":12901,"increment":12902,"Ġunderscore":12903,"Ġdiagonal":12904,"Ġzedekiah":12905,"easy":12906,"fut":12907,"fers":12908,"iams":12909,"md":12910,"try":12911,"zing":12912,"ĠÑĩ":12913,"Ġcries":12914,"Ġwer":12915,"alo":12916,"Ġheated":12917,"chart":12918,"Ġjug":12919,"Ġshine":12920,"ordered":12921,"Ġ365":12922,"agus":12923,"Ġcli":12924,"apore":12925,"Ġsubmission":12926,"Ġsystematic":12927,"Ġplayful":12928,"Ġcrunch":12929,"Ġpreserving":12930,"Ġpatch":12931,"Ġconfusing":12932,"Ġmorality":12933,"focus":12934,"Ġsweat":12935,"Ġseparation":12936,"Ġbehavioral":12937,"Ġgroundbreaking":12938,"Ġillness":12939,"Ġdemands":12940,"Ġfatig":12941,"Ġlosses":12942,"Ġcomposite":12943,"Ġruled":12944,"cccccccccccccccccccccccccccccccc":12945,"Ġgospel":12946,"Ġveggies":12947,"Ġdamascus":12948,"cert":12949,"material":12950,"nie":12951,"science":12952,"à¦":12953,"ĠÑĢ":12954,"Ġaunt":12955,"Ġfuzz":12956,"Ġpier":12957,"Ġbree":12958,"Ġbicy":12959,"arms":12960,"usable":12961,"una":12962,"Ġjr":12963,"Ġalf":12964,"Ġgoeth":12965,"permission":12966,"Ġreserve":12967,"aping":12968,"Ġdiscre":12969,"Ġgrants":12970,"Ġcolour":12971,"Ġguilt":12972,"othy":12973,"Ġintim":12974,"Ġregret":12975,"Ġexponent":12976,"Ġgrains":12977,"Ġidentifies":12978,"retion":12979,"Ġheadings":12980,"ucose":12981,"Ġposting":12982,"Ġesther":12983,"Ġswing":12984,"Ġheavier":12985,"Ġbarb":12986,"Ġbarrier":12987,"Ġharness":12988,"Ġeducators":12989,"Ġcircles":12990,"Ġwrongdoing":12991,"overline":12992,"ÐµÐ½":12993,"Ġfreak":12994,"Ġstreamline":12995,"Ġdemonstrating":12996,"Ġreminds":12997,"posts":12998,"Ġscala":12999,"Ġrelaxing":13000,"Ġpursuing":13001,"Ġaccomplished":13002,"Ġtailor":13003,"Ġwoe":13004,"Ġacquire":13005,"Ġclustering":13006,"Ġexceeds":13007,"percentage":13008,"credentials":13009,"dddddddddddddddddddddddddddddddd":13010,"Ġanchor":13011,"Ġunleavened":13012,"capt":13013,"eans":13014,"soup":13015,"tup":13016,"Ð±":13017,"Ġtresp":13018,"heast":13019,"infl":13020,"onia":13021,"Ġpse":13022,"orie":13023,"Ġdangers":13024,"Ġtokyo":13025,"Ġhass":13026,"Ġhog":13027,"Ġgross":13028,"utors":13029,"idad":13030,"amaz":13031,"Ġont":13032,"Ġanno":13033,"ira":13034,"pered":13035,"Ġruth":13036,"Ġwilliams":13037,"Ġsuffered":13038,"Ġcompounds":13039,"Ġcozy":13040,"Ġoverse":13041,"Ġmakeup":13042,"Ġtwin":13043,"Ġboom":13044,"Ġappet":13045,"foreach":13046,"Ġcurr":13047,"Ġparad":13048,"Ġfamine":13049,"ioexception":13050,"Ġsecondly":13051,"Ġmanageable":13052,"Ġcontinent":13053,"Ġcontrolling":13054,"media":13055,"1111":13056,"Ġstepped":13057,"Ġexplored":13058,"Ġsweetness":13059,"Ġcandle":13060,"Ġtourist":13061,"findall":13062,"Ġsynchron":13063,"Ġexceeding":13064,"Ġhorsemen":13065,"Ġyields":13066,"Ġconfirmation":13067,"\\_\\_\\_\\_\\_\\_\\_\\_":13068,"Ġfolk":13069,"Ġconstitution":13070,"tolower":13071,"Ġdolph":13072,"Ġchickpeas":13073,"Ġminerals":13074,"5000":13075,"git":13076,"maker":13077,"yon":13078,"hero":13079,"inclusive":13080,"Ġpom":13081,"ori":13082,"Ġdinos":13083,"arse":13084,"Ġnails":13085,"Ġlame":13086,"otion":13087,"chn":13088,"unct":13089,"Ġpropri":13090,"raine":13091,"Ġunbelie":13092,"Ġreserved":13093,"Ġdisasters":13094,"Ġflows":13095,"Ġflaw":13096,"Ġbricks":13097,"Ġelisha":13098,"Ġregulate":13099,"Ġreadability":13100,"iana":13101,"Ġcargo":13102,"Ġpointing":13103,"Ġrealism":13104,"shirt":13105,"Ġprevention":13106,"Ġnevertheless":13107,"ecai":13108,"Ġrelevance":13109,"Ġcondem":13110,"ographical":13111,"Ġnewspaper":13112,"Ġlegit":13113,"Ġgrounds":13114,"Ġcamels":13115,"Ġsprouts":13116,"Ð¾Ð¼":13117,"Ġtriggered":13118,"Ġevolving":13119,"authorized":13120,"falls":13121,"consist":13122,"Ġatlantic":13123,"ĠpokÃ©":13124,"Ġcortex":13125,"shadow":13126,"Ġmordecai":13127,"Ġparliament":13128,"aid":13129,"gas":13130,"jack":13131,"las":13132,"held":13133,"orange":13134,"Ġdc":13135,"Ġdv":13136,"Ġns":13137,"ico":13138,"Ġeats":13139,"eted":13140,"separ":13141,"irrel":13142,"Ġranges":13143,"Ġkan":13144,"Ġsuited":13145,"Ġsaas":13146,"umbs":13147,"Ġscot":13148,"Ġyeast":13149,"Ġbucks":13150,"Ġraz":13151,"Ġdonate":13152,"Ġsubmitted":13153,"Ġgeneric":13154,"Ġpersona":13155,"Ġcran":13156,"playing":13157,"Ġargent":13158,"Ġspacecraft":13159,"Ġdestinations":13160,"Ġsunset":13161,"Ġseafood":13162,"Ġmidnight":13163,"Ġgraphs":13164,"uggle":13165,"Ġmiscon":13166,"Ġstrips":13167,"disco":13168,"Ġconstructive":13169,"adox":13170,"Ġcopyright":13171,"intellig":13172,"Ġignor":13173,"ghan":13174,"Ġofficially":13175,"hydr":13176,"parameter":13177,"Ġillustration":13178,"energy":13179,"Ġclimbing":13180,"Ġgravit":13181,"Ġsuppliers":13182,"Ġcolonial":13183,"Ġinfinity":13184,"Ġsourced":13185,"Ġintentions":13186,"burg":13187,"Ġanthrop":13188,"Ġabandoned":13189,"Ġdisadvantages":13190,"Ġacoustic":13191,"]{":13192,"&#":13193,"\\\"":13194,"cases":13195,"tar":13196,"zu":13197,"ï¸":13198,"alice":13199,"Ġincl":13200,"Ġredd":13201,"uto":13202,"seq":13203,"Ġanime":13204,"Ġconform":13205,"Ġdele":13206,"osed":13207,"Ġteaches":13208,"Ġtheirs":13209,"Ġsucc":13210,"Ġnoble":13211,"Ġcoefficients":13212,"Ġknoweth":13213,"apples":13214,"Ġretirement":13215,"Ġshelf":13216,"Ġapo":13217,"Ġhollow":13218,"Ġrelies":13219,"cribe":13220,"ologists":13221,"flows":13222,"Ġ95":13223,"insensitive":13224,"Ġslower":13225,"short":13226,"Ġ1960":13227,"Ġtrips":13228,"Ġbehalf":13229,"apply":13230,"Ġtreacher":13231,"Ġexpecting":13232,"Ġrepresentatives":13233,"oids":13234,"Ġsalesman":13235,"Ġdeadlines":13236,"Ġdiscovers":13237,"Ġwallace":13238,"'];":13239,"Ġmichel":13240,"Ġobserver":13241,"Ġfailures":13242,"selector":13243,"ĠÂ¿":13244,"Ġswitching":13245,"Ġknight":13246,"Ġevolutionary":13247,"Ġepisodes":13248,"Ġfortune":13249,"Ġhints":13250,"Ġeucl":13251,"Ġlucas":13252,"Ġbashan":13253,"Ġpronoun":13254,"Ġmanufacturer":13255,"Ġvendor":13256,"Ġcomposting":13257,"Ġsacrifices":13258,"Ġportrayed":13259,"Ġsubscribers":13260,"Ġtissue":13261,"Ġpencil":13262,".&":13263,"/{":13264,"gcd":13265,"mount":13266,"oct":13267,"pent":13268,"purch":13269,"som":13270,"saved":13271,"uations":13272,"ato":13273,"Ġpets":13274,"Ġpale":13275,"enne":13276,"Ġborders":13277,"Ġinference":13278,"Ġgib":13279,"Ġlone":13280,"Ġseal":13281,"ifiers":13282,"abcd":13283,"Ġabel":13284,"Ġsuits":13285,"Ġtricks":13286,"eman":13287,"actor":13288,"Ġques":13289,"Ġsomehow":13290,"plete":13291,"Ġexamining":13292,"engu":13293,"Ġsubtraction":13294,"commit":13295,"Ġregards":13296,"Ġequity":13297,"ashing":13298,"shot":13299,"Ġpublicly":13300,"Ġcomplexities":13301,"ocur":13302,"Ġenerg":13303,"kenpom":13304,"series":13305,"Ġstatue":13306,"Ġtradem":13307,"Ġglobe":13308,"Ġ\\*\\*":13309,"Ġgaining":13310,"Ġstraightforward":13311,"Ġrevealing":13312,"ylation":13313,"mutation":13314,"Ġgentlemen":13315,"Ġpilate":13316,"Ġuncovered":13317,"Ġgranted":13318,"minded":13319,"Ġchromat":13320,"Ġelegant":13321,"Ġrecurring":13322,"Ġrescue":13323,"?\\":13324,"aug":13325,"bage":13326,"sensitive":13327,"wra":13328,"Ġtai":13329,"Ġsack":13330,"Ġpag":13331,"stick":13332,"illas":13333,"upload":13334,"Ġkay":13335,"Ġdoings":13336,"Ġabc":13337,"Ġroomm":13338,"Ġprovision":13339,"Ġovercame":13340,"Ġrecr":13341,"because":13342,"Ġintersect":13343,"Ġlords":13344,"Ġcrush":13345,"Ġbuilders":13346,"Ġglucose":13347,"Ġcaut":13348,"Ġvoy":13349,"median":13350,"Ġquantities":13351,"Ġweighted":13352,"Ġtransforming":13353,"Ġstrain":13354,"Ġconfigur":13355,"Ġpancakes":13356,"Ġurg":13357,"Ġclaimed":13358,"Ġdivisors":13359,"Ġhunter":13360,"Ġstirring":13361,"Ġresidential":13362,"Ġisolate":13363,"Ġtapest":13364,"Ġjehu":13365,"Ġenthusiasts":13366,"Ġdeclaration":13367,"Ġglobally":13368,"Ġpseud":13369,")).":13370,"dll":13371,"dot":13372,"eu":13373,"tick":13374,"vs":13375,"Ġcaching":13376,"Ġoz":13377,"Ġowe":13378,"Ġbish":13379,"Ġthrew":13380,"Ġgpu":13381,"Ġanagram":13382,"Ġ\"+":13383,"atell":13384,"Ġ110":13385,"Ġshime":13386,"Ġtem":13387,"Ġplag":13388,"Ġmanages":13389,"iph":13390,"hook":13391,"Ġaccidents":13392,"Ġtrait":13393,"beit":13394,"Ġobama":13395,"Ġcorrection":13396,"Ġstudios":13397,"Ġcaramel":13398,"Ġrespir":13399,"authent":13400,"Ġmissions":13401,"Ġpainted":13402,"Ġ2004":13403,"Ġlisteners":13404,"Ġgarment":13405,"Ġcoping":13406,"Ġadjustment":13407,"Ġ?>":13408,"Ġhabitats":13409,"Ġestimates":13410,"Ġruin":13411,"Ġpinch":13412,"Ġhooks":13413,"Ġskeptic":13414,"Ġvenue":13415,"Ġslope":13416,"Ġshowcases":13417,"Ġsearched":13418,"Ġdeterminant":13419,"Ġzoom":13420,"Ġhaunted":13421,"Ġenforcement":13422,"Ġnitrogen":13423,"Ġproportion":13424,"american":13425,"Ġjungle":13426,"!(":13427,"-%":13428,"^(-":13429,"cled":13430,"dor":13431,"hou":13432,"lining":13433,"mag":13434,"pmod":13435,"xl":13436,"×Ļ":13437,"Ġtony":13438,"Ġcabb":13439,"Ġoy":13440,"Ġfaint":13441,"Ġpent":13442,"Ġpies":13443,"Ġpays":13444,"Ġmiz":13445,"Ġdor":13446,"alert":13447,"Ġnth":13448,"Ġnarc":13449,"Ġstays":13450,"kends":13451,"Ġjur":13452,"third":13453,"peg":13454,"ista":13455,"Ġkubernetes":13456,"avg":13457,"Ġlettuce":13458,"cludes":13459,"Ġhadn":13460,"nezzar":13461,"Ġremed":13462,"Ġawful":13463,"Ġimaging":13464,"Ġinstinct":13465,"Ġcleans":13466,"conds":13467,"ocaly":13468,"Ġfarming":13469,"Ġcapturing":13470,"Ġconsuming":13471,"Ġcredibility":13472,"Ġannivers":13473,"Ġevaluated":13474,"Ġbanking":13475,"Ġarchitectural":13476,"micros":13477,"Ġanalyzed":13478,"Ġkissed":13479,"Ġtendency":13480,"Ġaccidentally":13481,"Ġinquiry":13482,"Ġtastes":13483,"ĠâĶĤ":13484,"Ġnebuchadnezzar":13485,"Ġhomeowners":13486,"?]":13487,"^\\":13488,"both":13489,"bread":13490,"did":13491,"hig":13492,"iro":13493,"jor":13494,"mn":13495,"oices":13496,"pad":13497,"swith":13498,"vens":13499,"zan":13500,"zas":13501,"Ãł":13502,"inc":13503,"inf":13504,"onal":13505,"Ġcents":13506,"Ġward":13507,"ĠfÃ¼r":13508,"Ġdub":13509,"lehem":13510,"arity":13511,"isk":13512,"Ġgosh":13513,"Ġlens":13514,"urities":13515,"Ġsemin":13516,"Ġdeleg":13517,"mentation":13518,"Ġ`%":13519,"Ġals":13520,"plan":13521,"Ġunst":13522,"Ġtray":13523,"Ġ$(\"":13524,"Ġpole":13525,"Ġjustification":13526,"Ġneedle":13527,"Ġobs":13528,"Ġpurse":13529,"dataframe":13530,"Ġcaution":13531,"Ġindividually":13532,"Ġcentered":13533,"128":13534,"Ġselector":13535,"Ġgeorg":13536,"Ġsweater":13537,"Ġdemographics":13538,"Ġassociate":13539,"\"];":13540,"Ġpunk":13541,"Ġqa":13542,"buf":13543,"Ġacceptable":13544,"Ġsimplifies":13545,"viet":13546,"Ġtours":13547,"ella":13548,"Ġnpm":13549,"Ġsync":13550,"Ġsmells":13551,"Ġalerts":13552,"Ġarrangements":13553,"Ġjulie":13554,"Ġharmful":13555,"footer":13556,"Ġstrictly":13557,"Ġrejected":13558,"demand":13559,"Ġexchanges":13560,"Ġchariots":13561,"Ġtragedy":13562,"Ġcautious":13563,"microscope":13564,"aire":13565,"bene":13566,"cence":13567,"his":13568,"lad":13569,"loss":13570,"Ġtails":13571,"Ġtorn":13572,"Ġtiles":13573,"Ġain":13574,"Ġsig":13575,"Ġbir":13576,"Ġdaddy":13577,"Ġgaps":13578,"utor":13579,"Ġsemic":13580,"Ġlewis":13581,"Ġaltogether":13582,"Ġcompens":13583,"Ġ375":13584,"aka":13585,"Ġdisney":13586,"Ġkeeper":13587,"ended":13588,"Ġunderworld":13589,"Ġministry":13590,"Ġcreators":13591,"Ġcharacteristic":13592,"Ġarguing":13593,"Ġsingapore":13594,"Ġquicksort":13595,"Ġstere":13596,"####":13597,"Ġpositioning":13598,"Ġinstalling":13599,"Ġcataly":13600,"Ġsubstantial":13601,"Ġaltars":13602,"Ġimmun":13603,"Ġundefined":13604,"processing":13605,"Ġdiscoveries":13606,"Ġwillingness":13607,"Ġcherub":13608,"half":13609,"Ġceremon":13610,"Ġschedules":13611,"Ġredeem":13612,"Ġtensorflow":13613,"Ġdiscipl":13614,"basic":13615,"Ġhashtags":13616,"Ġperfume":13617,"Ġeagle":13618,"Ġcedar":13619,"Ġaffirmations":13620,"cia":13621,"ea":13622,"jud":13623,"tight":13624,"Ġauf":13625,"Ġcush":13626,"Ġft":13627,"Ġfade":13628,"Ġfats":13629,"Ġbb":13630,"Ġincon":13631,"edu":13632,"Ġnigh":13633,"Ġeen":13634,"rob":13635,"irable":13636,"Ġ\"\")":13637,"Ġassemb":13638,"Ġdoin":13639,"Ġwhats":13640,"Ġenorm":13641,"Ġoutli":13642,"Ġoutlines":13643,"avail":13644,"Ġpears":13645,"Ġdisabled":13646,"Ġboots":13647,"Ġdonald":13648,"beh":13649,"Ġjeans":13650,"Ġxor":13651,"Ġobed":13652,"flat":13653,"criptions":13654,"Ġperformers":13655,"Ġcaffe":13656,"scene":13657,"alek":13658,"Ġcircul":13659,"Ġgarage":13660,"charge":13661,"Ġeleven":13662,"disk":13663,"operation":13664,"Ġhitting":13665,"Ġzebul":13666,"Ġwearable":13667,"aea":13668,"Ġdefeated":13669,"Ġnarrator":13670,"Ġreinfor":13671,"Ġstimul":13672,"Ġtattoo":13673,"Ġordinances":13674,"mysql":13675,"Ġunpredictable":13676,"Ġadequate":13677,"Ġcabbage":13678,"%,":13679,"=-":13680,"sug":13681,"tu":13682,"uz":13683,"ÙĨ":13684,"Ġtah":13685,"including":13686,"Ġfame":13687,"Ġharr":13688,"Ġthigh":13689,"eder":13690,"Ġnba":13691,"stre":13692,"story":13693,"amine":13694,"sex":13695,"Ġasher":13696,"Ġseattle":13697,"Ġvain":13698,"Ġshots":13699,"updated":13700,"Ġplaus":13701,"fections":13702,"indrom":13703,"Ġoutstanding":13704,"Ġ$-":13705,"Ġoverhead":13706,"Ġaccused":13707,"Ġohio":13708,"Ġremn":13709,"ciation":13710,"Ġblah":13711,"Ġempirical":13712,"Ġparadox":13713,"Ġrefuse":13714,"Ġmuslim":13715,"paralle":13716,"meal":13717,"Ġpersonalities":13718,"Ġsunny":13719,"Ġnegatively":13720,"Ġstayed":13721,"Ġcollapse":13722,"anean":13723,"optim":13724,"Ġrobots":13725,"Ġrocky":13726,"Ġpunish":13727,"Ġextracts":13728,"Ġparks":13729,"Ġattributed":13730,"shell":13731,"aaa":13732,"ÑģÐº":13733,"arcity":13734,"Ġirish":13735,"uzzle":13736,"Ġresponding":13737,"Ġopposed":13738,"Ð»Ð¸":13739,"schedu":13740,"Ġvitam":13741,"expression":13742,"Ġprotests":13743,"Ġtangy":13744,"Ġnapht":13745,"closed":13746,"Ġsesame":13747,"Ġfonts":13748,"Ġfestivals":13749,"Ġchurches":13750,"Ġrespiratory":13751,"dra":13752,"jan":13753,"rors":13754,"wrap":13755,"Ġau":13756,"Ġsine":13757,"Ġsime":13758,"Ġfusion":13759,"Ġpon":13760,"Ġmasters":13761,"isure":13762,"asion":13763,"Ġgpt":13764,"Ġgird":13765,"segment":13766,"irs":13767,"race":13768,"Ġconventions":13769,"Ġcanyon":13770,"ulas":13771,"Ġusb":13772,"Ġexcluding":13773,"Ġchim":13774,"Ġkale":13775,"Ġlend":13776,"Ġalarm":13777,"artifact":13778,"../":13779,"idean":13780,"indust":13781,"intro":13782,"Ġpeel":13783,"Ġwanting":13784,"Ġtrails":13785,"erranean":13786,"encrypt":13787,"Ġdecay":13788,"Ġcarrot":13789,"prote":13790,"Ġslight":13791,"Ġencamped":13792,"Ġsincere":13793,"Ġpayload":13794,"Ġcaps":13795,"Ġlimiting":13796,"Ġairlines":13797,"Ġagenda":13798,"Ġrevol":13799,"\"].":13800,"factors":13801,"Ġappropriately":13802,"Ġtouches":13803,"Ġdrying":13804,"Ġgrades":13805,"ĠÂ½":13806,"Ġwealthy":13807,"hyd":13808,"Ġisaiah":13809,"Ġsequential":13810,"Ġlogger":13811,"Ġmarginal":13812,"Ġencountering":13813,"Ġpixels":13814,"Ġdissatisf":13815,"vowel":13816,"Ġpersuasive":13817,"ê¸°":13818,"Ġmediterranean":13819,"destination":13820,"global":13821,"Ġgabe":13822,"Ġcheesec":13823,"private":13824,"Ġdecentral":13825,"Ġbakery":13826,"Ġdilemma":13827,"Ġjosiah":13828,"Ġrevelation":13829,"Ġanniversary":13830,"Ġsimeon":13831,"mach":13832,
[...]
