{"version":"1.0","truncation":null,"padding":null,"added_tokens":[{"id":0,"content":"<PAD>","single_word":false,"lstrip":false,"rstrip":false,"normalized":false,"special":true},{"id":1,"content":"<BOS>","single_word":false,"lstrip":false,"rstrip":false,"normalized":false,"special":true},{"id":2,"content":"<EOS>","single_word":false,"lstrip":false,"rstrip":false,"normalized":false,"special":true},{"id":3,"content":"<UNK>","single_word":false,"lstrip":false,"rstrip":false,"normalized":false,"special":true},{"id":4,"content":"{","single_word":false,"lstrip":false,"rstrip":false,"normalized":false,"special":true},{"id":5,"content":"}","single_word":false,"lstrip":false,"rstrip":false,"normalized":false,"special":true},{"id":6,"content":"[","single_word":false,"lstrip":false,"rstrip":false,"normalized":false,"special":true},{"id":7,"content":"]","single_word":false,"lstrip":false,"rstrip":false,"normalized":false,"special":true},{"id":8,"content":":","single_word":false,"lstrip":false,"rstrip":false,"normalized":false,"special":true},{"id":9,"content":",","single_word":false,"lstrip":false,"rstrip":false,"normalized":false,"special":true},{"id":10,"content":"\"","single_word":false,"lstrip":false,"rstrip":false,"normalized":false,"special":true},{"id":11,"content":"\n","single_word":false,"lstrip":false,"rstrip":false,"normalized":false,"special":true}],"normalizer":{"type":"Sequence","normalizers":[{"type":"NFC"},{"type":"Lowercase"}]},"pre_tokenizer":{"type":"ByteLevel","add_prefix_space":true,"trim_offsets":true,"use_regex":true},"post_processor":{"type":"TemplateProcessing","single":[{"SpecialToken":{"id":"<BOS>","type_id":0}},{"Sequence":{"id":"A","type_id":0}},{"SpecialToken":{"id":"<EOS>","type_id":0}}],"pair":[{"SpecialToken":{"id":"<BOS>","type_id":0}},{"Sequence":{"id":"A","type_id":0}},{"SpecialToken":{"id":"<EOS>","type_id":0}},{"Sequence":{"id":"B","type_id":1}},{"SpecialToken":{"id":"<EOS>","type_id":1}}],"special_tokens":{"<BOS>":{"id":"<BOS>","ids":[1],"tokens":["<BOS>"]},"<EOS>":{"id":"<EOS>","ids":[2],"tokens":["<EOS>"]}}},"decoder":{"type":"ByteLevel","add_prefix_space":true,"trim_offsets":true,"use_regex":true},"model":{"type":"BPE","dropout":null,"unk_token":null,"continuing_subword_prefix":null,"end_of_word_suffix":null,"fuse_unk":false,"byte_fallback":false,"ignore_merges":false,"vocab":{"<PAD>":0,"<BOS>":1,"<EOS>":2,"<UNK>":3,"{":4,"}":5,"[":6,"]":7,":":8,",":9,"\"":10,"\n":11,"!":12,"'":13,"-":14,".":15,"/":16,";":17,"?":18,"_":19,"a":20,"b":21,"c":22,"d":23,"e":24,"f":25,"g":26,"h":27,"i":28,"j":29,"k":30,"l":31,"m":32,"n":33,"o":34,"p":35,"q":36,"r":37,"s":38,"t":39,"u":40,"v":41,"w":42,"x":43,"y":44,"z":45,"â":46,"Ċ":47,"Ġ":48,"Ģ":49,"Ķ":50,"Ļ":51,"Ġt":52,"Ġi":53,"Ġa":54,"Ġw":55,"in":56,"Ġs":57,"Ġth":58,"at":59,"re":60,"Ġis":61,"ing":62,"Ġm":63,"es":64,"Ġp":65,"er":66,"on":67,"an":68,"Ġwh":69,"en":70,"Ġto":71,"Ġc":72,"Ġd":73,"Ġb":74,"or":75,"Ġf":76,"Ġthe":77,"ou":78,"le":79,"Ġh":80,"Ġwhat":81,"Ġo":82,"Ġan":83,"Ġg":84,"om":85,"Ġy":86,"th":87,"Ġe":88,"ar":89,"Ġl":90,"st":91,"Ġn":92,"Ġit":93,"ct":94,"Ġyou":95,"Ġin":96,"ll":97,"Ġbe":98,"Ġdo":99,"Ġof":100,"ro":101,"Ġand":102,"ve":103,"ion":104,"us":105,"Ġre":106,"ed":107,"ome":108,"Ġthat":109,"ce":110,"ow":111,"op":112,"Ġsome":113,"al":114,"Ġme":115,"ay":116,"Ġpro":117,"Ġmo":118,"el":119,"me":120,"ke":121,"ver":122,"ent":123,"Ġgo":124,"Ġha":125,"Ġli":126,"Ġpe":127,"thing":128,"de":129,"Ġare":130,"ople":131,"Ġpeople":132,"un":133,"ant":134,"Ġwor":135,"Ġst":136,"ri":137,"ic":138,"ot":139,"ld":140,"Ġmean":141,"ess":142,"Ġcan":143,"Ġso":144,"Ġor":145,"vi":146,"Ġwi":147,"Ġsomething":148,"as":149,"gh":150,"od":151,"Ġdi":152,"ge":153,"ra":154,"Ġon":155,"Ġfor":156,"ers":157,"ut":158,"ch":159,"Ġpl":160,"it":161,"se":162,"Ġma":163,"pp":164,"ad":165,"ble":166,"et":167,"um":168,"ind":169,"Ġga":170,"Ġk":171,"ly":172,"Ġne":173,"ere":174,"Ġex":175,"ect":176,"ff":177,"ul":178,"Ġwant":179,"Ġnot":180,"Ġthing":181,"Ġfe":182,"mp":183,"Ġwhen":184,"ght":185,"Ġun":186,"Ġhapp":187,"Ġwork":188,"Ġdoes":189,"Ġti":190,"Ġsu":191,"Ġgood":192,"Ġch":193,"Ġle":194,"ation":195,"all":196,"res":197,"ds":198,"ui":199,"Ġsp":200,"Ġlike":201,"Ġtime":202,"Ġus":203,"very":204,"rom":205,"Ġen":206,"Ġsh":207,"Ġcom":208,"Ġfrom":209,"Ġfeel":210,"ps":211,"Ġmy":212,"reat":213,"art":214,"Ġat":215,"one":216,"Ġdes":217,"ort":218,"ard":219,"ace":220,"Ġcon":221,"Ġhel":222,"ction":223,"Ġall":224,"Ġmeans":225,"Ġtr":226,"Ġimp":227,"ould":228,"Ġyes":229,"out":230,"is":231,"ter":232,"ur":233,"Ġbut":234,"Ġhappen":235,"du":236,"ving":237,"Ġhow":238,"ject":239,"Ġde":240,"der":241,"ig":242,"mes":243,"Ġthey":244,"arn":245,"Ġmore":246,"Ġwith":247,"Ġthings":248,"aus":249,"ue":250,"Ġfa":251,"Ġyum":252,"Ġgame":253,"Ġyumon":254,"ck":255,"Ġcreat":256,"ist":257,"ust":258,"stan":259,"Ġdiff":260,"Ġam":261,"Ġco":262,"Ġhard":263,"ther":264,"Ġhave":265,"Ġlearn":266,"os":267,"Ġif":268,"Ġide":269,"Ġexp":270,"now":271,"Ġab":272,"ink":273,"Ġkind":274,"Ġknow":275,"cess":276,"ive":277,"Ġfo":278,"Ġob":279,"Ġno":280,"Ġcomp":281,"ach":282,"ment":283,"ure":284,"orm":285,"oun":286,"Ġgames":287,"ful":288,"oo":289,"ate":290,"Ġsol":291,"Ġwill":292,"ci":293,"form":294,"kes":295,"Ġte":296,"Ġprodu":297,"Ġj":298,"Ġthink":299,"est":300,"Ġpers":301,"Ġplay":302,"ir":303,"Ġvery":304,"Ġwe":305,"Ġsm":306,"any":307,"Ġwhy":308,"Ġbec":309,"vel":310,"Ġread":311,"Ġproble":312,"Ġmake":313,"ult":314,"ause":315,"Ġproblem":316,"ep":317,"iness":318,"Ġwhere":319,"Ġbui":320,"Ġyour":321,"Ġbet":322,"Ġplan":323,"eren":324,"Ġunder":325,"stand":326,"Ġdifferen":327,"Ġunderstand":328,"'t":329,"ain":330,"Ġal":331,"Ġas":332,"Ġprog":333,"verse":334,"Ġsuc":335,"Ġchan":336,"ortant":337,"Ġimportant":338,"Ġabout":339,"ook":340,"'s":341,"si":342,"Ġmany":343,"Ġwho":344,"Ġstart":345,"Ġnew":346,"Ġneed":347,"Ġshould":348,"ack":349,"ves":350,"ong":351,"Ġinform":352,"Ġres":353,"Ġobject":354,"Ġperson":355,"Ġinformation":356,"cri":357,"il":358,"iverse":359,"Ġuniverse":360,"Ġspace":361,"Ġdescri":362,"Ġhelps":363,"ign":364,"Ġta":365,"Ġev":366,"Ġevery":367,"Ġlo":368,"Ġreal":369,"Ġsomeone":370,"Ġtrue":371,"Ġbuild":372,"gy":373,"qui":374,"up":375,"Ġtra":376,"ence":377,"Ġtoo":378,"Ġbook":379,"Ġhe":380,"ress":381,"ame":382,"qu":383,"way":384,"Ġv":385,"Ġwin":386,"Ġmat":387,"ends":388,"Ġdon":389,"Ġbus":390,"lex":391,"Ġhum":392,"Ġget":393,"Ġint":394,"Ġfeeling":395,"Ġdifferent":396,"Ġdescrib":397,"Ġbusiness":398,"are":399,"Ġri":400,"Ġper":401,"end":402,"Ġthere":403,"Ġany":404,"Ġeas":405,"Ġeff":406,"Ġone":407,"Ġhelp":408,"Ġidea":409,"Ġproduct":410,"Ġsmall":411,"Ġbecause":412,"ight":413,"wn":414,"Ġsi":415,"Ġthan":416,"Ġmind":417,"Ġfri":418,"ally":419,"Ġsuccess":420,"ning":421,"ore":422,"ergy":423,"led":424,"ions":425,"Ġenergy":426,"Ġhappens":427,"ound":428,"age":429,"rou":430,"Ġr":431,"Ġke":432,"Ġqu":433,"Ġby":434,"Ġthem":435,"Ġover":436,"row":437,"Ġmovi":438,"ity":439,"Ġmakes":440,"Ġhuman":441,"act":442,"able":443,"ie":444,"king":445,"ty":446,"Ġway":447,"Ġfun":448,"Ġgrow":449,"ste":450,"Ġworld":451,"Ġexist":452,"ish":453,"Ġjust":454,"im":455,"ull":456,"we":457,"Ġalex":458,"Ġwat":459,"Ġse":460,"Ġfind":461,"Ġevi":462,"Ġbeing":463,"Ġuse":464,"Ġfast":465,"Ġresult":466,"Ġinto":467,"id":468,"ti":469,"Ġsame":470,"Ġthen":471,"Ġmus":472,"our":473,"Ġoth":474,"als":475,"vide":476,"Ġdesign":477,"Ġreading":478,"Ġchang":479,"Ġbooks":480,"Ġmusic":481,"Ġothers":482,"ces":483,"ill":484,"low":485,"ten":486,"Ġpart":487,"Ġpos":488,"arge":489,"Ġrequi":490,"Ġmost":491,"Ġmove":492,"ents":493,"Ġlearning":494,"Ġbetter":495,"Ġprogress":496,"Ġtravel":497,"Ġright":498,"Ġeffort":499,"Ġkeep":500,"Ġmovies":501,"ast":502,"cus":503,"ies":504,"ness":505,"uch":506,"âĢ":507,"Ġaction":508,"Ġmom":509,"Ġoften":510,"Ġhas":511,"Ġplace":512,"Ġimpro":513,"Ġcreate":514,"Ġkinds":515,"Ġfocus":516,"Ġval":517,"Ġhumans":518,"Ġevil":519,"ice":520,"oy":521,"Ġro":522,"Ġup":523,"Ġag":524,"ree":525,"Ġpo":526,"Ġbig":527,"ory":528,"Ġanim":529,"Ġear":530,"Ġgoal":531,"Ġwords":532,"ass":533,"Ġmade":534,"Ġspe":535,"urn":536,"Ġideas":537,"Ġexpl":538,"Ġfood":539,"Ġplanet":540,"Ġalway":541,"sible":542,"Ġeverything":543,"Ġdescribe":544,"Ġalways":545,"fore":546,"ier":547,"Ġwould":548,"Ġsy":549,"Ġmone":550,"Ġmuch":551,"Ġday":552,"Ġtheir":553,"Ġop":554,"Ġlong":555,"Ġbefore":556,"Ġgod":557,"Ġatom":558,"Ġallow":559,"Ġcomput":560,"Ġsolve":561,"Ġbetwe":562,"Ġmoney":563,"Ġbetween":564,"ms":565,"ol":566,"ward":567,"Ġthou":568,"Ġthis":569,"Ġtoge":570,"Ġcl":571,"Ġhi":572,"Ġother":573,"Ġgreat":574,"Ġla":575,"Ġlarge":576,"Ġnow":577,"Ġprocess":578,"Ġword":579,"Ġste":580,"Ġstay":581,"Ġworking":582,"Ġsure":583,"Ġlead":584,"Ġcode":585,"Ġteach":586,"Ġprogra":587,"Ġthought":588,"Ġtogether":589,"back":590,"ding":591,"fus":592,"mot":593,"nect":594,"ually":595,"Ġout":596,"Ġsk":597,"Ġslow":598,"Ġown":599,"Ġemot":600,"Ġproject":601,"Ġlif":602,"ick":603,"ody":604,"Ġusers":605,"Ġcons":606,"Ġconfus":607,"Ġconnect":608,"Ġcreated":609,"Ġknowled":610,"Ġproblems":611,"Ġobjects":612,"Ġsyste":613,"Ġopen":614,"Ġhigh":615,"Ġprogram":616,"Ġknowledge":617,"ha":618,"Ġvide":619,"Ġtas":620,"Ġact":621,"Ġwas":622,"int":623,"Ġsay":624,"Ġset":625,"Ġcaus":626,"Ġfi":627,"Ġfut":628,"ars":629,"Ġlow":630,"Ġits":631,"Ġbel":632,"Ġrep":633,"Ġlight":634,"Ġonly":635,"ition":636,"Ġmaking":637,"Ġend":638,"Ġfail":639,"Ġchange":640,"side":641,"Ġfeelings":642,"Ġeasier":643,"Ġsimp":644,"Ġfriends":645,"Ġwater":646,"Ġmoment":647,"Ġimprove":648,"Ġvalue":649,"Ġanimals":650,"Ġatoms":651,"Ġvideo":652,"Ġtask":653,"Ġfuture":654,"cle":655,"ger":656,"te":657,"ting":658,"tion":659,"Ġaf":660,"Ġthrou":661,"red":662,"eri":663,"Ġcour":664,"Ġfin":665,"Ġfree":666,"ous":667,"Ġgra":668,"Ġeat":669,"Ġeach":670,"Ġnight":671,"Ġinst":672,"Ġinter":673,"Ġdown":674,"Ġstr":675,"ices":676,"icult":677,"Ġmeaning":678,"Ġdire":679,"ract":680,"Ġexact":681,"Ġhappy":682,"Ġsur":683,"Ġcomm":684,"Ġdep":685,"Ġdifficult":686,"Ġstartup":687,"Ġlove":688,"Ġbuilding":689,"Ġeasy":690,"Ġchanges":691,"âĢĶ":692,"Ġexplain":693,"Ġemotion":694,"Ġcauses":695,"Ġbelie":696,"Ġthrough":697,"Ġcourse":698,"Ġexactly":699,"ak":700,"cc":701,"co":702,"ile":703,"joy":704,"ming":705,"uth":706,"ures":707,"Ġapp":708,"Ġwri":709,"ine":710,"Ġsun":711,"Ġsad":712,"Ġsign":713,"Ġpun":714,"Ġpres":715,"Ġpull":716,"Ġwhic":717,"Ġcome":718,"Ġbo":719,"Ġho":720,"Ġgive":721,"Ġele":722,"Ġreach":723,"Ġmem":724,"Ġmoving":725,"Ġmoves":726,"Ġgoing":727,"Ġliving":728,"Ġstate":729,"ics":730,"Ġdis":731,"Ġcho":732,"Ġchall":733,"Ġusually":734,"Ġenjoy":735,"Ġcomes":736,"Ġtruth":737,"Ġfact":738,"Ġtell":739,"Ġtake":740,"Ġmatter":741,"Ġfriend":742,"Ġquick":743,"Ġsee":744,"Ġfaster":745,"Ġcomputer":746,"Ġlife":747,"Ġsystem":748,"ccur":749,"Ġpunish":750,"Ġwhich":751,"Ġchallen":752,"dle":753,"fic":754,"ging":755,"iz":756,"ose":757,"tain":758,"ups":759,"wh":760,"Ġturn":761,"Ġar":762,"Ġaway":763,"Ġsoun":764,"Ġsound":765,"ated":766,"Ġmor":767,"Ġmay":768,"Ġmust":769,"Ġpast":770,"ons":771,"Ġtop":772,"Ġcar":773,"Ġcare":774,"Ġback":775,"Ġfar":776,"Ġfir":777,"Ġhop":778,"Ġgi":779,"Ġgrou":780,"Ġlat":781,"Ġlot":782,"Ġinv":783,"Ġmoti":784,"Ġmotion":785,"ely":786,"Ġlist":787,"Ġwide":788,"Ġdistan":789,"rain":790,"Ġfeels":791,"Ġdeci":792,"Ġexperi":793,"Ġstartups":794,"Ġeven":795,"Ġmath":796,"Ġperha":797,"Ġresults":798,"Ġpossible":799,"Ġrequires":800,"Ġearth":801,"Ġthoughts":802,"Ġfinish":803,"Ġdirection":804,"Ġboth":805,"Ġquickly":806,"Ġsounds":807,"Ġmorning":808,"Ġfirst":809,"Ġmotiv":810,"Ġperhaps":811,"ap":812,"ave":813,"body":814,"ee":815,"les":816,"mo":817,"other":818,"ven":819,"Ġai":820,"Ġser":821,"Ġsci":822,"Ġmess":823,"Ġpri":824,"Ġpract":825,"Ġwhile":826,"Ġtoward":827,"Ġce":828,"Ġcust":829,"Ġcause":830,"Ġoh":831,"Ġoccur":832,"Ġanother":833,"Ġel":834,"ark":835,"Ġnon":836,"edback":837,"ceed":838,"Ġsometi":839,"Ġlie":840,"vity":841,"Ġforce":842,"Ġfeedback":843,"Ġshare":844,"Ġtry":845,"Ġdevel":846,"Ġsmart":847,"Ġsucceed":848,"Ġresp":849,"Ġtakes":850,"Ġevent":851,"Ġevents":852,"Ġdescribes":853,"Ġanything":854,"Ġwatch":855,"Ġallows":856,"Ġsimple":857,"Ġtasks":858,"Ġafter":859,"Ġdepends":860,"Ġbelief":861,"Ġtopics":862,"Ġcustom":863,"Ġsometimes":864,"Ġdevelop":865,"'m":866,"fi":867,"git":868,"ire":869,"li":870,"lo":871,"lt":872,"pl":873,"ry":874,"sh":875,"tt":876,"wo":877,"xt":878,"ys":879,"ze":880,"Ġent":881,"ĠâĢĶ":882,"Ġtwo":883,"Ġach":884,"Ġwa":885,"ines":886,"Ġsc":887,"Ġmass":888,"Ġpus":889,"Ġpass":890,"Ġcould":891,"Ġbas":892,"Ġbrain":893,"Ġfull":894,"Ġlos":895,"Ġbeen":896,"entist":897,"Ġlitt":898,"Ġstu":899,"Ġstars":900,"Ġdigit":901,"Ġonce":902,"chan":903,"ite":904,"etition":905,"Ġnext":906,"Ġhappiness":907,"Ġlevel":908,"Ġused":909,"Ġshow":910,"Ġatt":911,"ctions":912,"Ġdec":913,"Ġsolving":914,"Ġbecome":915,"Ġdifference":916,"Ġheal":917,"Ġwinning":918,"Ġsmaller":919,"Ġsize":920,"Ġquest":921,"ieve":922,"Ġuseful":923,"Ġchanging":924,"Ġrequire":925,"Ġpoint":926,"Ġplanets":927,"Ġstead":928,"Ġleads":929,"Ġskill":930,"Ġprojects":931,"Ġprogramming":932,"Ġfix":933,"Ġintern":934,"Ġcommon":935,"Ġmemory":936,"Ġchoices":937,"Ġgroup":938,"Ġdistance":939,"Ġmotivation":940,"Ġscientist":941,"Ġpractice":942,"Ġelse":943,"Ġrespon":944,"Ġachieve":945,"Ġpush":946,"Ġlittle":947,"Ġdigital":948,"am":949,"az":950,"action":951,"br":952,"ber":953,"bot":954,"day":955,"fect":956,"gan":957,"ily":958,"less":959,"ru":960,"so":961,"sing":962,"Ġvi":963,"Ġtest":964,"Ġim":965,"Ġill":966,"Ġac":967,"Ġari":968,"Ġwon":969,"Ġwere":970,"Ġsin":971,"ati":972,"ates":973,"ren":974,"rect":975,"reed":976,"esus":977,"Ġpow":978,"Ġpur":979,"Ġpain":980,"Ġcor":981,"Ġdet":982,"Ġbu":983,"Ġbre":984,"Ġbor":985,"Ġbri":986,"Ġbad":987,"Ġbest":988,"Ġfit":989,"lebr":990,"Ġless":991,"sta":992,"Ġinde":993,"Ġinste":994,"llow":995,"Ġrevi":996,"Ġremo":997,"oper":998,"Ġprovide":999,"ention":1000,"antly":1001,"Ġstep":1002,"Ġwish":1003,"Ġdid":1004,"Ġdist":1005,"iting":1006,"ected":1007,"ffee":1008,"Ġworks":1009,"Ġsub":1010,"Ġspend":1011,"dual":1012,"Ġwithin":1013,"Ġwithout":1014,"Ġamaz":1015,"Ġcooper":1016,"Ġcoffee":1017,"Ġexpress":1018,"Ġexpected":1019,"Ġfollow":1020,"Ġobsta":1021,"Ġnobody":1022,"Ġcomplex":1023,"ments":1024,"cific":1025,"Ġjoy":1026,"Ġjesus":1027,"Ġthinking":1028,"Ġeveryone":1029,"Ġloop":1030,"Ġperfect":1031,"Ġgrowth":1032,"âĢĻ":1033,"Ġactions":1034,"Ġrobot":1035,"Ġagreed":1036,"Ġspeed":1037,"Ġspecific":1038,"Ġsteps":1039,"Ġconfused":1040,"Ġfailure":1041,"Ġgravity":1042,"Ġinstantly":1043,"Ġstrong":1044,"Ġwrite":1045,"Ġpresent":1046,"Ġhole":1047,"Ġpunishment":1048,"Ġhope":1049,"Ġlater":1050,"Ġlisten":1051,"Ġexperience":1052,"Ġmessage":1053,"Ġcelebr":1054,"Ġmassive":1055,"Ġattention":1056,"Ġpower":1057,"Ġpurp":1058,"Ġcorrect":1059,"Ġbright":1060,"Ġinstead":1061,"'d":1062,"'re":1063,"bit":1064,"ears":1065,"gat":1066,"ls":1067,"lle":1068,"med":1069,"not":1070,"oint":1071,"pt":1072,"rons":1073,"sw":1074,"ume":1075,"uri":1076,"wing":1077,"ware":1078,"Ġ\"":1079,"Ġice":1080,"Ġair":1081,"Ġsl":1082,"Ġsent":1083,"ata":1084,"ath":1085,"ating":1086,"atures":1087,"Ġmar":1088,"Ġmist":1089,"Ġpre":1090,"Ġple":1091,"Ġpack":1092,"ery":1093,"ertain":1094,"ang":1095,"ens":1096,"ense":1097,"Ġtoday":1098,"Ġcur":1099,"Ġcuri":1100,"Ġdra":1101,"Ġdark":1102,"Ġdata":1103,"ors":1104,"orth":1105,"ories":1106,"Ġflow":1107,"Ġhis":1108,"Ġanger":1109,"Ġansw":1110,"Ġgl":1111,"Ġearn":1112,"Ġlook":1113,"Ġinc":1114,"Ġind":1115,"Ġinside":1116,"Ġdoing":1117,"usion":1118,"Ġrest":1119,"Ġreli":1120,"Ġmechan":1121,"Ġprovi":1122,"ket":1123,"Ġliqui":1124,"unch":1125,"Ġstory":1126,"ical":1127,"Ġcannot":1128,"Ġorgan":1129,"ase":1130,"Ġdir":1131,"get":1132,"Ġform":1133,"Ġmast":1134,"Ġnever":1135,"Ġnegat":1136,"Ġexc":1137,"ules":1138,"Ġwants":1139,"Ġusing":1140,"Ġhappened":1141,"Ġcold":1142,"Ġcolle":1143,"Ġabil":1144,"Ġnothing":1145,"Ġsolut":1146,"Ġproduce":1147,"Ġproduces":1148,"Ġplayer":1149,"Ġplayers":1150,"Ġbuilt":1151,"Ġplans":1152,"Ġunderstanding":1153,"Ġalso":1154,"Ġheat":1155,"Ġperform":1156,"Ġeffect":1157,"Ġround":1158,"Ġexists":1159,"Ġfinding":1160,"illions":1161,"Ġposition":1162,"Ġmovement":1163,"Ġmoments":1164,"Ġagain":1165,"Ġagree":1166,"Ġpoor":1167,"Ġcomputers":1168,"Ġlaw":1169,"Ġlaunch":1170,"Ġoutside":1171,"Ġsky":1172,"Ġsetback":1173,"Ġrepe":1174,"Ġinstru":1175,"Ġsurvi":1176,"Ġemotional":1177,"cover":1178,"Ġsadness":1179,"Ġelect":1180,"Ġdecide":1181,"fiction":1182,"Ġpassage":1183,"Ġdecis":1184,"Ġhealth":1185,"Ġillusion":1186,"Ġacce":1187,"rent":1188,"Ġindeed":1189,"Ġremove":1190,"Ġamazing":1191,"Ġpurpose":1192,"Ġmarket":1193,"Ġmista":1194,"Ġcurrent":1195,"Ġdrawing":1196,"Ġnegative":1197,"ab":1198,"ag":1199,"ax":1200,"ail":1201,"ams":1202,"aging":1203,"bt":1204,"cum":1205,"des":1206,"ever":1207,"ft":1208,"gi":1209,"gn":1210,"go":1211,"gin":1212,"gest":1213,"hys":1214,"ip":1215,"lu":1216,"mil":1217,"oid":1218,"pro":1219,"rong":1220,"sel":1221,"sure":1222,"ters":1223,"turn":1224,"ues":1225,"ucle":1226,"Ġqui":1227,"Ġtin":1228,"Ġidle":1229,"Ġad":1230,"Ġav":1231,"Ġable":1232,"Ġwrong":1233,"Ġsing":1234,"Ġsom":1235,"Ġsep":1236,"Ġsour":1237,"Ġsave":1238,"ature":1239,"Ġment":1240,"Ġmight":1241,"Ġpi":1242,"Ġpay":1243,"Ġput":1244,"Ġphys":1245,"and":1246,"Ġcle":1247,"Ġdou":1248,"Ġdel":1249,"Ġbody":1250,"Ġblo":1251,"ough":1252,"Ġhur":1253,"Ġold":1254,"Ġgr":1255,"Ġgal":1256,"Ġyet":1257,"Ġyears":1258,"ari":1259,"aring":1260,"Ġlou":1261,"Ġnum":1262,"Ġnice":1263,"Ġnucle":1264,"cture":1265,"lling":1266,"Ġbegin":1267,"Ġdog":1268,"Ġdocum":1269,"Ġreward":1270,"Ġreturn":1271,"eday":1272,"ceive":1273,"enti":1274,"Ġgot":1275,"Ġgoes":1276,"Ġhaving":1277,"Ġlive":1278,"Ġpeace":1279,"ants":1280,"Ġworry":1281,"Ġstop":1282,"Ġstill":1283,"vice":1284,"Ġongo":1285,"Ġforgi":1286,"Ġplants":1287,"ities":1288,"Ġking":1289,"erest":1290,"Ġfeatures":1291,"mper":1292,"Ġchoo":1293,"Ġeng":1294,"Ġshort":1295,"Ġcont":1296,"Ġtrust":1297,"Ġimpos":1298,"Ġhappening":1299,"duct":1300,"Ġcreates":1301,"Ġcreator":1302,"Ġcost":1303,"Ġlearned":1304,"Ġcompetition":1305,"Ġtemper":1306,"Ġpersist":1307,"Ġwell":1308,"Ġask":1309,"ongs":1310,"Ġlose":1311,"Ġtrack":1312,"Ġtools":1313,"Ġmatters":1314,"Ġhumble":1315,"Ġgets":1316,"Ġinterest":1317,"Ġriver":1318,"Ġanywh":1319,"Ġhelpful":1320,"Ġthank":1321,"Ġsuccessful":1322,"Ġrules":1323,"Ġbypro":1324,"Ġmovie":1325,"Ġdesigner":1326,"Ġparts":1327,"Ġtravels":1328,"Ġanimal":1329,"Ġearly":1330,"olves":1331,"Ġclos":1332,"Ġteaching":1333,"Ġconsist":1334,"Ġconsume":1335,"Ġconfusion":1336,"Ġconnection":1337,"Ġconnections":1338,"Ġgradual":1339,"Ġcommun":1340,"Ġsigni":1341,"Ġpulls":1342,"Ġenjoyable":1343,"Ġchallenging":1344,"Ġart":1345,"Ġaround":1346,"Ġinvolves":1347,"Ġfinishing":1348,"Ġpride":1349,"Ġoccurs":1350,"Ġtrying":1351,"Ġcustomers":1352,"Ġdevelopment":1353,"place":1354,"Ġbased":1355,"Ġstud":1356,"Ġquestions":1357,"Ġsteadily":1358,"Ġinternal":1359,"Ġscientists":1360,"Ġrespond":1361,"Ġarise":1362,"Ġwonder":1363,"Ġbreak":1364,"Ġboring":1365,"Ġrevise":1366,"Ġsubject":1367,"Ġslave":1368,"Ġprev":1369,"Ġplease":1370,"Ġreliable":1371,"Ġliquid":1372,"Ġexciting":1373,"Ġability":1374,"Ġmistakes":1375,"Ġquiet":1376,"Ġtiny":1377,"Ġsingle":1378,"Ġsomeday":1379,"Ġsepar":1380,"Ġsource":1381,"Ġmental":1382,"Ġphysical":1383,"Ġdoubt":1384,"Ġblock":1385,"Ġgalax":1386,"Ġnucleus":1387,"Ġdocument":1388,"ceived":1389,"Ġongoing":1390,"Ġchoose":1391,"Ġimpossible":1392,"Ġanywhere":1393,"Ġbyproduct":1394,"app":1395,"aking":1396,"aces":1397,"by":1398,"city":1399,"cles":1400,"dence":1401,"ew":1402,"eck":1403,"fit":1404,"full":1405,"fies":1406,"ges":1407,"gul":1408,"gry":1409,"here":1410,"ivi":1411,"iod":1412,"ira":1413,"ler":1414,"mber":1415,"nol":1416,"ogy":1417,"pe":1418,"pri":1419,"put":1420,"ring":1421,"ser":1422,"uage":1423,"vices":1424,"Ġour":1425,"Ġtends":1426,"Ġtend":1427,"Ġsle":1428,"Ġsick":1429,"Ġsongs":1430,"Ġthose":1431,"atur":1432,"ately":1433,"Ġmer":1434,"Ġmis":1435,"Ġmult":1436,"Ġpress":1437,"Ġpie":1438,"Ġpati":1439,"erm":1440,"onest":1441,"ands":1442,"ences":1443,"Ġcou":1444,"Ġcal":1445,"Ġcame":1446,"Ġcertain":1447,"Ġburn":1448,"Ġbillions":1449,"orit":1450,"Ġfra":1451,"Ġfly":1452,"Ġfoun":1453,"Ġfil":1454,"Ġfound":1455,"Ġflo":1456,"ouds":1457,"Ġhonest":1458,"Ġopp":1459,"Ġangry":1460,"Ġgen":1461,"Ġgas":1462,"Ġgui":1463,"Ġemp":1464,"aract":1465,"Ġlar":1466,"Ġlink":1467,"Ġlack":1468,"Ġlang":1469,"Ġnation":1470,"Ġnatur":1471,"Ġinf":1472,"llo":1473,"lls":1474,"Ġbeha":1475,"rop":1476,"roach":1477,"ved":1478,"Ġreme":1479,"Ġreas":1480,"Ġreally":1481,"Ġreact":1482,"Ġreven":1483,"Ġreaction":1484,"Ġregul":1485,"ality":1486,"Ġmeet":1487,"Ġprot":1488,"key":1489,"Ġgoals":1490,"Ġhabit":1491,"Ġstar":1492,"Ġstore":1493,"Ġstories":1494,"ries":1495,"ici":1496,"Ġsoft":1497,"Ġorder":1498,"asure":1499,"rage":1500,"raid":1501,"Ġforget":1502,"chnol":1503,"adl":1504,"etic":1505,"Ġgain":1506,"Ġnear":1507,"Ġwanting":1508,"Ġfear":1509,"Ġworkplace":1510,"Ġtired":1511,"Ġcharge":1512,"Ġcheck":1513,"Ġcharact":1514,"Ġsphere":1515,"Ġenough":1516,"Ġshap":1517,"Ġsharing":1518,"Ġdesire":1519,"Ġdesira":1520,"Ġconc":1521,"Ġcontain":1522,"urb":1523,"Ġdeadl":1524,"Ġharder":1525,"Ġknows":1526,"Ġobser":1527,"Ġcomple":1528,"Ġcompany":1529,"Ġcompare":1530,"Ġsolar":1531,"Ġteams":1532,"Ġtechnol":1533,"estment":1534,"Ġplaying":1535,"Ġweak":1536,"Ġplanning":1537,"Ġalone":1538,"Ġasking":1539,"Ġwhole":1540,"Ġneeds":1541,"Ġtable":1542,"Ġtaking":1543,"Ġloving":1544,"Ġreality":1545,"Ġtraverse":1546,"Ġhea":1547,"Ġhear":1548,"Ġhello":1549,"Ġvari":1550,"Ġmatch":1551,"Ġbusinesses":1552,"Ġperiod":1553,"ending":1554,"Ġproducts":1555,"Ġsimil":1556,"Ġrun":1557,"Ġrath":1558,"Ġquality":1559,"Ġoverwh":1560,"Ġgrowing":1561,"weight":1562,"Ġsequ":1563,"Ġselling":1564,"Ġevidence":1565,"Ġpartic":1566,"Ġimproves":1567,"Ġfocusing":1568,"Ġfocused":1569,"Ġvalid":1570,"Ġbigger":1571,"Ġspeak":1572,"Ġclouds":1573,"Ġteacher":1574,"Ġoutput":1575,"Ġlift":1576,"Ġsystems":1577,"Ġhigher":1578,"Ġacts":1579,"Ġactive":1580,"Ġfiction":1581,"Ġrepres":1582,"Ġrepetition":1583,"Ġendless":1584,"Ġafraid":1585,"Ġmeanings":1586,"Ġsurf":1587,"Ġsurpri":1588,"Ġdifficulty":1589,"Ġapproach":1590,"Ġwriting":1591,"Ġsignal":1592,"Ġelements":1593,"Ġdiscover":1594,"Ġdisapp":1595,"Ġfacts":1596,"Ġseems":1597,"Ġchallenge":1598,"Ġchallenges":1599,"izing":1600,"Ġturnkey":1601,"Ġcarries":1602,"Ġcareful":1603,"Ġcarefull":1604,"Ġgives":1605,"Ġlately":1606,"Ġinvestment":1607,"Ġlists":1608,"Ġexperiences":1609,"Ġmornings":1610,"Ġservice":1611,"Ġshared":1612,"Ġwatching":1613,"Ġbeliefs":1614,"Ġcustomer":1615,"Ġentire":1616,"Ġwait":1617,"Ġscore":1618,"Ġbasic":1619,"Ġloss":1620,"Ġlosing":1621,"Ġquestion":1622,"Ġsteady":1623,"Ġfixing":1624,"Ġinternet":1625,"Ġresponse":1626,"Ġtesting":1627,"Ġimmed":1628,"Ġimag":1629,"Ġbug":1630,"Ġlesson":1631,"Ġdisturb":1632,"Ġspending":1633,"Ġcooperate":1634,"Ġobstacle":1635,"Ġobstacles":1636,"Ġcelebrate":1637,"ointment":1638,"Ġsentence":1639,"Ġcurious":1640,"Ġanswer":1641,"Ġglad":1642,"Ġindivi":1643,"Ġmechanic":1644,"Ġorganiz":1645,"Ġdirty":1646,"Ġmastery":1647,"Ġcollege":1648,"Ġsolutions":1649,"Ġrepeated":1650,"Ġinstructions":1651,"Ġelectrons":1652,"Ġdecisions":1653,"Ġcurrently":1654,"self":1655,"Ġclear":1656,"Ġbeginning":1657,"Ġpeaceful":1658,"Ġstops":1659,"Ġforgiving":1660,"Ġcontin":1661,"Ġtemperature":1662,"Ġsignifies":1663,"Ġsleep":1664,"Ġmissing":1665,"Ġpressure":1666,"Ġpatience":1667,"Ġcourage":1668,"Ġcalled":1669,"Ġfounder":1670,"Ġoppos":1671,"Ġempty":1672,"Ġlanguage":1673,"Ġnatural":1674,"Ġremember":1675,"Ġrevenue":1676,"Ġregular":1677,"Ġsoftware":1678,"Ġforgetful":1679,"Ġcharacters":1680,"Ġdesirable":1681,"Ġtechnology":1682,"Ġsimilar":1683,"Ġrather":1684,"Ġoverwhel":1685,"Ġsurprising":1686,"Ġdisappointment":1687,"Ġcarefully":1688,"Ġimmedi":1689,"Ġimagine":1690,"ai":1691,"ale":1692,"ake":1693,"ares":1694,"be":1695,"bs":1696,"bers":1697,"bol":1698,"cor":1699,"come":1700,"cated":1701,"del":1702,"dir":1703,"denti":1704,"drop":1705,"eps":1706,"ether":1707,"fting":1708,"gor":1709,"gory":1710,"hind":1711,"ith":1712,"iver":1713,"ible":1714,"ither":1715,"ivity":1716,"ken":1717,"kay":1718,"late":1719,"lame":1720,"light":1721,"lier":1722,"mbol":1723,"ner":1724,"ores":1725,"per":1726,"part":1727,"ption":1728,"point":1729,"ron":1730,"ray":1731,"rink":1732,"rate":1733,"rors":1734,"ss":1735,"ses":1736,"sor":1737,"sess":1738,"sures":1739,"slate":1740,"ts":1741,"tal":1742,"uz":1743,"uar":1744,"uel":1745,"uge":1746,"uable":1747,"ucture":1748,"vy":1749,"vor":1750,"vate":1751,"wra":1752,"wim":1753,"worth":1754,"wake":1755,"ycle":1756,"zy":1757,"zles":1758,"Ġes":1759,"Ġer":1760,"Ġve":1761,"Ġrain":1762,"Ġty":1763,"Ġtal":1764,"Ġidenti":1765,"Ġaff":1766,"Ġaccur":1767,"Ġaware":1768,"Ġapart":1769,"Ġawake":1770,"Ġwro":1771,"Ġwow":1772,"Ġwind":1773,"Ġwest":1774,"Ġwast":1775,"inetic":1776,"Ġsa":1777,"Ġsat":1778,"Ġsou":1779,"Ġsit":1780,"Ġswe":1781,"Ġseri":1782,"Ġsens":1783,"Ġsense":1784,"Ġswim":1785,"Ġthes":1786,"read":1787,"Ġman":1788,"Ġmillions":1789,"Ġpen":1790,"Ġpot":1791,"Ġpit":1792,"Ġprou":1793,"Ġpath":1794,"Ġpuz":1795,"erally":1796,"anion":1797,"ance":1798,"ange":1799,"anation":1800,"anger":1801,"anslate":1802,"enery":1803,"Ġtouch":1804,"Ġcent":1805,"Ġcall":1806,"Ġcate":1807,"Ġcap":1808,"Ġcares":1809,"Ġcycle":1810,"Ġdri":1811,"Ġdum":1812,"Ġdone":1813,"Ġdur":1814,"Ġdam":1815,"Ġdens":1816,"Ġdrink":1817,"Ġdanger":1818,"Ġbro":1819,"Ġbun":1820,"Ġball":1821,"Ġbir":1822,"Ġbang":1823,"Ġbible":1824,"Ġblame":1825,"Ġfel":1826,"Ġfall":1827,"Ġfish":1828,"Ġfill":1829,"Ġhot":1830,"Ġhist":1831,"Ġhust":1832,"Ġhid":1833,"Ġhuge":1834,"Ġwhatever":1835,"Ġokay":1836,"Ġguar":1837,"omes":1838,"that":1839,"Ġever":1840,"Ġeast":1841,"Ġeither":1842,"arch":1843,"arity":1844,"stop":1845,"Ġnorm":1846,"Ġname":1847,"Ġnorth":1848,"Ġinvi":1849,"Ġinner":1850,"Ġbehind":1851,"Ġdoct":1852,"rot":1853,"ross":1854,"vered":1855,"Ġref":1856,"Ġrel":1857,"Ġrese":1858,"Ġreco":1859,"Ġrecover":1860,"Ġreceived":1861,"Ġrecor":1862,"cept":1863,"alty":1864,"Ġmeasure":1865,"Ġmetal":1866,"Ġproven":1867,"Ġprofit":1868,"Ġmodel":1869,"vers":1870,"verty":1871,"enty":1872,"entrate":1873,"Ġlik":1874,"Ġlikes":1875,"Ġlives":1876,"Ġarea":1877,"antee":1878,"Ġworth":1879,"Ġstra":1880,"Ġstands":1881,"Ġstores":1882,"ried":1883,"ricity":1884,"iced":1885,"ication":1886,"icates":1887,"Ġsoci":1888,"Ġorbit":1889,"vior":1890,"viron":1891,"Ġwire":1892,"Ġwise":1893,"asp":1894,"odle":1895,"Ġdies":1896,"ractions":1897,"Ġforms":1898,"Ġforward":1899,"ution":1900,"utrons":1901,"Ġplaces":1902,"Ġplenty":1903,"itive":1904,"Ġmagn":1905,"pport":1906,"uming":1907,"Ġkinetic":1908,"Ġneutrons":1909,"Ġext":1910,"Ġexchan":1911,"Ġnotice":1912,"Ġunit":1913,"Ġuncle":1914,"Ġunsure":1915,"Ġunwra":1916,"Ġworked":1917,"Ġdoesn":1918,"Ġsupport":1919,"Ġgoods":1920,"Ġgoodness":1921,"Ġgoodby":1922,"Ġlet":1923,"Ġspark":1924,"Ġspati":1925,"Ġensure":1926,"Ġensures":1927,"Ġenviron":1928,"Ġshine":1929,"Ġatte":1930,"Ġdest":1931,"Ġconsi":1932,"Ġconside":1933,"Ġconcept":1934,"Ġheld":1935,"Ġtranslate":1936,"isf":1937,"tern":1938,"Ġdeed":1939,"Ġfavor":1940,"Ġcreating":1941,"Ġcreatures":1942,"Ġcreativity":1943,"stances":1944,"Ġamoun":1945,"Ġcore":1946,"osity":1947,"Ġexpense":1948,"Ġabsor":1949,"Ġkindness":1950,"Ġknowing":1951,"Ġcompanion":1952,"Ġsolo":1953,"Ġsolves":1954,"Ġsolid":1955,"ciful":1956,"cially":1957,"cious":1958,"cipl":1959,"Ġteam":1960,"Ġplayed":1961,"Ġbecomes":1962,"Ġyourself":1963,"Ġalmo":1964,"Ġalgor":1965,"Ġwhoever":1966,"Ġstarted":1967,"Ġdescription":1968,"Ġtaste":1969,"Ġtaken":1970,"Ġevol":1971,"Ġlog":1972,"Ġlocated":1973,"Ġbuilds":1974,"Ġhey":1975,"Ġvast":1976,"Ġvoid":1977,"Ġwins":1978,"Ġdescribed":1979,"Ġperceived":1980,"ended":1981,"Ġanyone":1982,"Ġeasily":1983,"Ġeffici":1984,"Ġproductive":1985,"Ġsmallest":1986,"Ġside":1987,"Ġmindful":1988,"Ġfriction":1989,"Ġru":1990,"Ġrate":1991,"Ġrates":1992,"Ġkeys":1993,"Ġkeeps":1994,"Ġoveract":1995,"Ġovercome":1996,"Ġfunctions":1997,"Ġworlds":1998,"Ġexisted":1999,"Ġexistence":2000,"Ġseen":2001,"Ġdesigning":2002,"Ġpossess":2003,"Ġpositive":2004,"Ġrequired":2005,"Ġmostly":2006,"Ġimproving":2007,"Ġvaluable":2008,"Ġrot":2009,"Ġrole":2010,"Ġroom":2011,"Ġrock":2012,"Ġpoverty":2013,"Ġpoodle":2014,"Ġearlier":2015,"Ġexplanation":2016,"Ġsymbol":2017,"Ġdays":2018,"Ġclues":2019,"Ġgreater":2020,"Ġlabs":2021,"Ġlazy":2022,"Ġprocessing":2023,"Ġstaying":2024,"Ġleader":2025,"Ġteaches":2026,"Ġslower":2027,"Ġslowly":2028,"Ġemotions":2029,"Ġconsuming":2030,"Ġconscious":2031,"Ġconfusing":2032,"Ġconnects":2033,"Ġconnected":2034,"Ġactually":2035,"Ġsaying":2036,"Ġfire":2037,"Ġlower":2038,"Ġlighter":2039,"Ġlightweight":2040,"Ġendpoint":2041,"Ġfailing":2042,"Ġsimply":2043,"Ġmomentum":2044,"Ġimproved":2045,"Ġimprovements":2046,"Ġfreez":2047,"Ġinteract":2048,"Ġinteraction":2049,"Ġstructure":2050,"Ġstrange":2051,"Ġmeaningful":2052,"Ġdirect":2053,"Ġdepending":2054,"Ġexplains":2055,"Ġbelieve":2056,"covered":2057,"Ġapply":2058,"Ġsunlight":2059,"Ġsadly":2060,"Ġpresence":2061,"Ġhold":2062,"Ġelement":2063,"Ġreached":2064,"Ġmemories":2065,"Ġdiscipl":2066,"Ġdiscovered":2067,"Ġchoice":2068,"Ġtells":2069,"Ġfriendly":2070,"fication":2071,"Ġturns":2072,"Ġmaybe":2073,"Ġcarrot":2074,"Ġbackdrop":2075,"Ġgiant":2076,"Ġgiving":2077,"Ġgiven":2078,"Ġgroups":2079,"Ġinvent":2080,"Ġdistances":2081,"Ġdeciding":2082,"Ġdecides":2083,"Ġmotivated":2084,"apor":2085,"Ġserve":2086,"Ġservices":2087,"Ġpriorit":2088,"Ġprivate":2089,"Ġcells":2090,"Ġoccurred":2091,"Ġoccurring":2092,"Ġsmarter":2093,"Ġsucceeded":2094,"Ġdeveloping":2095,"fied":2096,"Ġentity":2097,"Ġwaves":2098,"Ġwaiting":2099,"Ġscale":2100,"Ġscenery":2101,"Ġfully":2102,"Ġstuff":2103,"Ġpoints":2104,"Ġpointless":2105,"Ġfixed":2106,"Ġachievement":2107,"Ġpushes":2108,"Ġvis":2109,"Ġview":2110,"Ġarises":2111,"Ġdetail":2112,"Ġdeterm":2113,"Ġdetai":2114,"Ġbuy":2115,"Ġbreaking":2116,"Ġborn":2117,"Ġdidn":2118,"Ġdistractions":2119,"Ġsubstances":2120,"Ġcooperation":2121,"Ġfollows":2122,"Ġrobots":2123,"Ġstronger":2124,"Ġstrongly":2125,"Ġlistening":2126,"Ġcelebration":2127,"Ġpowerful":2128,"Ġbrightly":2129,"Ġpacked":2130,"Ġpackage":2131,"Ġcuriosity":2132,"Ġflows":2133,"Ġanswers":2134,"Ġglass":2135,"Ġearning":2136,"Ġlooking":2137,"Ġinclu":2138,"Ġindicates":2139,"Ġmechanics":2140,"Ġproviding":2141,"Ġprovides":2142,"Ġorganic":2143,"getable":2144,"Ġmaster":2145,"Ġcollection":2146,"Ġsolution":2147,"Ġperforming":2148,"Ġperformance":2149,"Ġeffective":2150,"Ġrounded":2151,"Ġlaunching":2152,"Ġsetbacks":2153,"Ġinstruction":2154,"Ġsurvive":2155,"Ġsurviving":2156,"Ġelectricity":2157,"Ġdecision":2158,"Ġhealthy":2159,"Ġaccept":2160,"Ġacceler":2161,"Ġdrawings":2162,"ailable":2163,"gnizing":2164,"iple":2165,"luence":2166,"Ġadding":2167,"Ġavoid":2168,"Ġavailable":2169,"Ġpicture":2170,"Ġpaying":2171,"Ġdeliver":2172,"Ġhurdle":2173,"Ġground":2174,"Ġgrasp":2175,"Ġloud":2176,"Ġlouder":2177,"Ġnumber":2178,"Ġnumbers":2179,"ential":2180,"Ġengaging":2181,"Ġtrustworth":2182,"Ġcosts":2183,"Ġpersistence":2184,"Ġinterested":2185,"Ġcloser":2186,"Ġconsists":2187,"Ġconsistent":2188,"Ġcommunities":2189,"Ġcommunication":2190,"Ġprideful":2191,"Ġstudy":2192,"Ġsubjects":2193,"Ġprevent":2194,"Ġprevents":2195,"Ġseparation":2196,"Ġseparately":2197,"Ġblocks":2198,"Ġblocking":2199,"Ġgalaxy":2200,"Ġgalaxies":2201,"Ġdocumentation":2202,"pecially":2203,"Ġmerciful":2204,"Ġmultiple":2205,"Ġpiece":2206,"Ġcertainty":2207,"Ġframe":2208,"Ġfilled":2209,"Ġfloating":2210,"Ġgenerally":2211,"Ġguide":2212,"Ġlargest":2213,"Ġinfluence":2214,"Ġbehavior":2215,"Ġreason":2216,"Ġreacting":2217,"Ġprotons":2218,"Ġhabits":2219,"Ġstored":2220,"Ġgaining":2221,"Ġchecked":2222,"Ġshape":2223,"Ġconcentrate":2224,"Ġdeadlines":2225,"Ġobserving":2226,"Ġcompleting":2227,"Ġcompared":2228,"Ġweaken":2229,"Ġheavy":2230,"Ġmatches":2231,"Ġsequel":2232,"Ġparticles":2233,"Ġrepresents":2234,"Ġsurface":2235,"Ġbugs":2236,"Ġindividual":2237,"Ġorganized":2238,"Ġcontinues":2239,"Ġsleepy":2240,"Ġopposite":2241,"Ġoverwhelmed":2242,"Ġimmediate":2243,"Ġespecially":2244,"Ġerrors":2245,"Ġvegetable":2246,"Ġidentified":2247,"Ġaffect":2248,"Ġaccurate":2249,"Ġawareness":2250,"Ġwrote":2251,"Ġwasted":2252,"Ġsatisf":2253,"Ġsouth":2254,"Ġsweet":2255,"Ġserious":2256,"Ġsensation":2257,"Ġthese":2258,"Ġmanage":2259,"Ġpenalty":2260,"Ġpotential":2261,"Ġpitch":2262,"Ġproud":2263,"Ġpuzzles":2264,"Ġcenter":2265,"Ġcategory":2266,"Ġcapable":2267,"Ġdrifting":2268,"Ġdumb":2269,"Ġduring":2270,"Ġdamage":2271,"Ġdensity":2272,"Ġbirds":2273,"Ġfelt":2274,"Ġhistory":2275,"Ġhustle":2276,"Ġguarantee":2277,"Ġnormal":2278,"Ġinvisible":2279,"Ġresearch":2280,"Ġrecognizing":2281,"Ġrecords":2282,"Ġstraight":2283,"Ġsocial":2284,"Ġunclear":2285,"Ġunwraps":2286,"Ġgoodbye":2287,"Ġspatial":2288,"Ġenvironment":2289,"Ġattemp":2290,"Ġconsider":2291,"Ġconsidered":2292,"Ġfavorite":2293,"Ġabsorb":2294,"Ġalmost":2295,"Ġalgorith":2296,"Ġevolved":2297,"Ġefficient":2298,"Ġoveractive":2299,"Ġconsciousness":2300,"Ġdiscipline":2301,"Ġdetails":2302,"Ġdetermines":2303,"Ġdetailed":2304,"Ġincluding":2305,"Ġacceleration":2306,"Ġtrustworthy":2307},"merges":["Ġ t","Ġ i","Ġ a","Ġ w","i n","Ġ s","Ġt h","a t","r e","Ġi s","in g","Ġ m","e s","Ġ p","e r","o n","a n","Ġw h","e n","Ġt o","Ġ c","Ġ d","Ġ b","o r","Ġ f","Ġth e","o u","l e","Ġ h","Ġwh at","Ġ o","Ġa n","Ġ g","o m","Ġ y","t h","Ġ e","a r","Ġ l","s t","Ġ n","Ġi t","c t","Ġy ou","Ġi n","l l","Ġb e","Ġd o","Ġo f","r o","Ġan d","v e","i on","u s","Ġ re","e d","om e","Ġth at","c e","o w","o p","Ġs ome","a l","Ġm e","a y","Ġp ro","Ġm o","e l","m e","k e","v er","en t","Ġg o","Ġh a","Ġl i","Ġp e","th ing","d e","Ġa re","op le","Ġpe ople","u n","an t","Ġw or","Ġs t","r i","i c","o t","l d","Ġme an","es s","Ġc an","Ġs o","Ġ or","v i","Ġw i","Ġsome thing","a s","g h","o d","Ġd i","g e","r a","Ġ on","Ġf or","er s","u t","c h","Ġp l","i t","s e","Ġm a","p p","a d","b le","e t","u m","in d","Ġg a","Ġ k","l y","Ġn e","e re","Ġe x","e ct","f f","u l","Ġw ant","Ġn ot","Ġth ing","Ġf e","m p","Ġwh en","gh t","Ġ un","Ġha pp","Ġwor k","Ġdo es","Ġt i","Ġs u","Ġgo od","Ġc h","Ġ le","at ion","a ll","re s","d s","u i","Ġs p","Ġli ke","Ġti me","Ġ us","ver y","r om","Ġ en","Ġs h","Ġc om","Ġf rom","Ġfe el","p s","Ġm y","re at","ar t","Ġa t","on e","Ġd es","or t","ar d","a ce","Ġc on","Ġh el","ct ion","Ġa ll","Ġmean s","Ġt r","Ġi mp","ou ld","Ġy es","ou t","i s","t er","u r","Ġb ut","Ġhapp en","d u","v ing","Ġh ow","j ect","Ġd e","d er","i g","m es","Ġthe y","ar n","Ġmo re","Ġwi th","Ġthing s","a us","u e","Ġf a","Ġy um","Ġga me","Ġyum on","c k","Ġc reat","i st","u st","st an","Ġdi ff","Ġa m","Ġc o","Ġh ard","th er","Ġha ve","Ġle arn","o s","Ġi f","Ġi de","Ġex p","n ow","Ġa b","in k","Ġk ind","Ġk now","c ess","i ve","Ġf o","Ġo b","Ġn o","Ġcom p","a ch","m ent","u re","or m","ou n","Ġga mes","f ul","o o","at e","Ġso l","Ġwi ll","c i","f orm","k es","Ġt e","Ġpro du","Ġ j","Ġth ink","es t","Ġp ers","Ġpl ay","i r","Ġ very","Ġw e","Ġs m","an y","Ġwh y","Ġbe c","ve l","Ġre ad","Ġpro ble","Ġma ke","ul t","aus e","Ġproble m","e p","in ess","Ġwh ere","Ġb ui","Ġyou r","Ġbe t","Ġpl an","ere n","Ġun der","stan d","Ġdiff eren","Ġunder stand","' t","a in","Ġa l","Ġa s","Ġpro g","ver se","Ġsu c","Ġch an","ort ant","Ġimp ortant","Ġab out","oo k","' s","s i","Ġm any","Ġwh o","Ġst art","Ġne w","Ġne ed","Ġsh ould","a ck","v es","on g","Ġin form","Ġre s","Ġob ject","Ġpers on","Ġinform ation","c ri","i l","i verse","Ġun iverse","Ġsp ace","Ġdes cri","Ġhel ps","ig n","Ġt a","Ġe v","Ġe very","Ġl o","Ġre al","Ġsome one","Ġtr ue","Ġbui ld","g y","q ui","u p","Ġt ra","en ce","Ġto o","Ġb ook","Ġh e","res s","a me","q u","w ay","Ġ v","Ġw in","Ġm at","en ds","Ġd on","Ġb us","le x","Ġh um","Ġg et","Ġin t","Ġfeel ing","Ġdifferen t","Ġdescri b","Ġbus iness","a re","Ġ ri","Ġp er","en d","Ġthe re","Ġan y","Ġe as","Ġe ff","Ġon e","Ġhel p","Ġide a","Ġprodu ct","Ġsm all","Ġbec ause","i ght","w n","Ġs i","Ġth an","Ġm ind","Ġf ri","all y","Ġsuc cess","n ing","o re","er gy","le d","ion s","Ġen ergy","Ġhappen s","oun d","a ge","r ou","Ġ r","Ġ ke","Ġ qu","Ġb y","Ġthe m","Ġo ver","ro w","Ġmo vi","it y","Ġma kes","Ġhum an","a ct","a ble","i e","k ing","t y","Ġw ay","Ġf un","Ġg row","st e","Ġwor ld","Ġex ist","is h","Ġj ust","i m","u ll","w e","Ġa lex","Ġw at","Ġs e","Ġf ind","Ġe vi","Ġbe ing","Ġus e","Ġfa st","Ġres ult","Ġint o","i d","t i","Ġs ame","Ġth en","Ġm us","ou r","Ġo th","al s","vi de","Ġdes ign","Ġread ing","Ġchan g","Ġbook s","Ġmus ic","Ġoth ers","c es","i ll","l ow","t en","Ġp art","Ġp os","ar ge","Ġre qui","Ġmo st","Ġmo ve","ent s","Ġlearn ing","Ġbet ter","Ġprog ress","Ġtra vel","Ġri ght","Ġeff ort","Ġke ep","Ġmovi es","a st","c us","i es","n ess","u ch","â Ģ","Ġa ction","Ġm om","Ġof ten","Ġha s","Ġpl ace","Ġimp ro","Ġcreat e","Ġkind s","Ġfo cus","Ġv al","Ġhuman s","Ġevi l","i ce","o y","Ġ ro","Ġ up","Ġa g","re e","Ġp o","Ġb ig","or y","Ġan im","Ġe ar","Ġgo al","Ġwor ds","as s","Ġma de","Ġsp e","ur n","Ġide as","Ġexp l","Ġfo od","Ġplan et","Ġal way","si ble","Ġevery thing","Ġdescrib e","Ġalway s","f ore","i er","Ġw ould","Ġs y","Ġm one","Ġm uch","Ġd ay","Ġthe ir","Ġo p","Ġl ong","Ġbe fore","Ġgo d","Ġat om","Ġall ow","Ġcomp ut","Ġsol ve","Ġbet we","Ġmone y","Ġbetwe en","m s","o l","w ard","Ġth ou","Ġth is","Ġto ge","Ġc l","Ġh i","Ġo ther","Ġg reat","Ġl a","Ġl arge","Ġn ow","Ġpro cess","Ġwor d","Ġst e","Ġst ay","Ġwork ing","Ġsu re","Ġle ad","Ġco de","Ġte ach","Ġprog ra","Ġthou ght","Ġtoge ther","b ack","d ing","f us","m ot","n ect","u ally","Ġ out","Ġs k","Ġs low","Ġo wn","Ġe mot","Ġpro ject","Ġli f","ic k","od y","Ġus ers","Ġcon s","Ġcon fus","Ġcon nect","Ġcreat ed","Ġknow led","Ġproblem s","Ġobject s","Ġsy ste","Ġop en","Ġhi gh","Ġprogra m","Ġknowled ge","h a","Ġ vide","Ġt as","Ġa ct","Ġw as","in t","Ġs ay","Ġs et","Ġc aus","Ġf i","Ġf ut","ar s","Ġl ow","Ġit s","Ġbe l","Ġre p","Ġli ght","Ġon ly","it ion","Ġma king","Ġen d","Ġfa il","Ġchan ge","si de","Ġfeeling s","Ġeas ier","Ġsi mp","Ġfri ends","Ġwat er","Ġmom ent","Ġimpro ve","Ġval ue","Ġanim als","Ġatom s","Ġvide o","Ġtas k","Ġfut ure","c le","g er","t e","t ing","t ion","Ġa f","Ġth rou","re d","er i","Ġc our","Ġf in","Ġf ree","ou s","Ġg ra","Ġe at","Ġe ach","Ġn ight","Ġin st","Ġin ter","Ġdo wn","Ġst r","ic es","ic ult","Ġmean ing","Ġdi re","ra ct","Ġex act","Ġhapp y","Ġsu r","Ġcom m","Ġde p","Ġdiff icult","Ġstart up","Ġlo ve","Ġbuild ing","Ġeas y","Ġchang es","âĢ Ķ","Ġexpl ain","Ġemot ion","Ġcaus es","Ġbel ie","Ġthrou gh","Ġcour se","Ġexact ly","a k","c c","c o","i le","j oy","m ing","u th","u res","Ġa pp","Ġw ri","in e","Ġs un","Ġs ad","Ġs ign","Ġp un","Ġp res","Ġp ull","Ġwh ic","Ġc ome","Ġb o","Ġh o","Ġg ive","Ġe le","Ġre ach","Ġme m","Ġmo ving","Ġmo ves","Ġgo ing","Ġli ving","Ġst ate","ic s","Ġdi s","Ġch o","Ġch all","Ġus ually","Ġen joy","Ġcom es","Ġtr uth","Ġfa ct","Ġte ll","Ġta ke","Ġmat ter","Ġfri end","Ġqu ick","Ġse e","Ġfast er","Ġcomput er","Ġlif e","Ġsyste m","cc ur","Ġpun ish","Ġwhic h","Ġchall en","d le","f ic","g ing","i z","o se","t ain","u ps","w h","Ġt urn","Ġa r","Ġa way","Ġs oun","Ġs ound","at ed","Ġm or","Ġm ay","Ġm ust","Ġp ast","on s","Ġto p","Ġc ar","Ġc are","Ġb ack","Ġf ar","Ġf ir","Ġh op","Ġg i","Ġg rou","Ġl at","Ġl ot","Ġin v","Ġmo ti","Ġmo tion","el y","Ġli st","Ġwi de","Ġdi stan","ra in","Ġfeel s","Ġde ci","Ġexp eri","Ġstart ups","Ġev en","Ġmat h","Ġper ha","Ġresult s","Ġpos sible","Ġrequi res","Ġear th","Ġthought s","Ġfin ish","Ġdire ction","Ġbo th","Ġquick ly","Ġsoun ds","Ġmor ning","Ġfir st","Ġmoti v","Ġperha ps","a p","a ve","b ody","e e","l es","m o","o ther","v en","Ġa i","Ġs er","Ġs ci","Ġm ess","Ġp ri","Ġp ract","Ġwh ile","Ġto ward","Ġc e","Ġc ust","Ġc ause","Ġo h","Ġo ccur","Ġan other","Ġe l","ar k","Ġn on","ed back","ce ed","Ġsome ti","Ġli e","vi ty","Ġfor ce","Ġfe edback","Ġsh are","Ġtr y","Ġde vel","Ġsm art","Ġsuc ceed","Ġres p","Ġta kes","Ġev ent","Ġev ents","Ġdescrib es","Ġany thing","Ġwat ch","Ġallow s","Ġsimp le","Ġtask s","Ġaf ter","Ġdep ends","Ġbelie f","Ġtop ics","Ġcust om","Ġsometi mes","Ġdevel op","' m","f i","g it","i re","l i","l o","l t","p l","r y","s h","t t","w o","x t","y s","z e","Ġ ent","Ġ âĢĶ","Ġt wo","Ġa ch","Ġw a","in es","Ġs c","Ġm ass","Ġp us","Ġp ass","Ġc ould","Ġb as","Ġb rain","Ġf ull","Ġl os","Ġbe en","ent ist","Ġli tt","Ġst u","Ġst ars","Ġdi git","Ġon ce","ch an","it e","et ition","Ġne xt","Ġhapp iness","Ġle vel","Ġus ed","Ġsh ow","Ġat t","ction s","Ġde c","Ġsol ving","Ġbec ome","Ġdifferen ce","Ġhe al","Ġwin ning","Ġsmall er","Ġsi ze","Ġqu est","ie ve","Ġuse ful","Ġchang ing","Ġrequi re","Ġpo int","Ġplanet s","Ġste ad","Ġlead s","Ġsk ill","Ġproject s","Ġprogram ming","Ġfi x","Ġinter n","Ġcomm on","Ġmem ory","Ġcho ices","Ġgrou p","Ġdistan ce","Ġmotiv ation","Ġsci entist","Ġpract ice","Ġel se","Ġresp on","Ġach ieve","Ġpus h","Ġlitt le","Ġdigit al","a m","a z","a ction","b r","b er","b ot","d ay","f ect","g an","i ly","l ess","r u","s o","s ing","Ġ vi","Ġt est","Ġi m","Ġi ll","Ġa c","Ġa ri","Ġw on","Ġw ere","Ġs in","at i","at es","re n","re ct","re ed","es us","Ġp ow","Ġp ur","Ġp ain","Ġc or","Ġd et","Ġb u","Ġb re","Ġb or","Ġb ri","Ġb ad","Ġb est","Ġf it","le br","Ġl ess","st a","Ġin de","Ġin ste","ll ow","Ġre vi","Ġre mo","op er","Ġpro vide","ent ion","ant ly","Ġst ep","Ġwi sh","Ġdi d","Ġdi st","it ing","ect ed","ff ee","Ġwork s","Ġsu b","Ġsp end","du al","Ġwith in","Ġwith out","Ġam az","Ġco oper","Ġco ffee","Ġexp ress","Ġexp ected","Ġfo llow","Ġob sta","Ġno body","Ġcomp lex","ment s","ci fic","Ġj oy","Ġj esus","Ġthink ing","Ġevery one","Ġlo op","Ġper fect","Ġgrow th","âĢ Ļ","Ġaction s","Ġro bot","Ġag reed","Ġspe ed","Ġspe cific","Ġste ps","Ġconfus ed","Ġfail ure","Ġgra vity","Ġinst antly","Ġstr ong","Ġwri te","Ġpres ent","Ġho le","Ġpunish ment","Ġhop e","Ġlat er","Ġlist en","Ġexperi ence","Ġmess age","Ġce lebr","Ġmass ive","Ġatt ention","Ġpow er","Ġpur p","Ġcor rect","Ġbri ght","Ġinste ad","' d","' re","b it","e ars","g at","l s","l le","m ed","n ot","o int","p t","r ons","s w","u me","u ri","w ing","w are","Ġ \"","Ġi ce","Ġa ir","Ġs l","Ġs ent","at a","at h","at ing","at ures","Ġm ar","Ġm ist","Ġp re","Ġp le","Ġp ack","er y","er tain","an g","en s","en se","Ġto day","Ġc ur","Ġc uri","Ġd ra","Ġd ark","Ġd ata","or s","or th","or ies","Ġf low","Ġh is","Ġan ger","Ġan sw","Ġg l","Ġe arn","Ġl ook","Ġin c","Ġin d","Ġin side","Ġdo ing","us ion","Ġre st","Ġre li","Ġme chan","Ġpro vi","ke t","Ġli qui","un ch","Ġst ory","ic al","Ġcan not","Ġor gan","as e","Ġdi r","ge t","Ġfor m","Ġma st","Ġne ver","Ġne gat","Ġex c","ul es","Ġwant s","Ġus ing","Ġhappen ed","Ġco ld","Ġco lle","Ġab il","Ġno thing","Ġsol ut","Ġprodu ce","Ġprodu ces","Ġplay er","Ġplay ers","Ġbui lt","Ġplan s","Ġunderstand ing","Ġal so","Ġhe at","Ġper form","Ġeff ect","Ġr ound","Ġexist s","Ġfind ing","ill ions","Ġpos ition","Ġmove ment","Ġmom ents","Ġag ain","Ġag ree","Ġpo or","Ġcomput ers","Ġla w","Ġla unch","Ġout side","Ġsk y","Ġset back","Ġrep e","Ġinst ru","Ġsur vi","Ġemotion al","co ver","Ġsad ness","Ġele ct","Ġdeci de","fi ction","Ġpass age","Ġdec is","Ġheal th","Ġill usion","Ġac ce","ren t","Ġinde ed","Ġremo ve","Ġamaz ing","Ġpurp ose","Ġmar ket","Ġmist a","Ġcur rent","Ġdra wing","Ġnegat ive","a b","a g","a x","a il","a ms","a ging","b t","c um","d es","e ver","f t","g i","g n","g o","g in","g est","h ys","i p","l u","m il","o id","p ro","r ong","s el","s ure","t ers","t urn","u es","u cle","Ġ qui","Ġt in","Ġi dle","Ġa d","Ġa v","Ġa ble","Ġw rong","Ġs ing","Ġs om","Ġs ep","Ġs our","Ġs ave","at ure","Ġm ent","Ġm ight","Ġp i","Ġp ay","Ġp ut","Ġp hys","an d","Ġc le","Ġd ou","Ġd el","Ġb ody","Ġb lo","ou gh","Ġh ur","Ġo ld","Ġg r","Ġg al","Ġy et","Ġy ears","ar i","ar ing","Ġl ou","Ġn um","Ġn ice","Ġn ucle","ct ure","ll ing","Ġbe gin","Ġdo g","Ġdo cum","Ġre ward","Ġre turn","ed ay","ce ive","ent i","Ġgo t","Ġgo es","Ġha ving","Ġli ve","Ġpe ace","ant s","Ġwor ry","Ġst op","Ġst ill","vi ce","Ġon go","Ġfor gi","Ġpl ants","it ies","Ġk ing","ere st","Ġfe atures","mp er","Ġch oo","Ġen g","Ġsh ort","Ġcon t","Ġtr ust","Ġimp os","Ġhappen ing","du ct","Ġcreat es","Ġcreat or","Ġco st","Ġlearn ed","Ġcomp etition","Ġte mper","Ġpers ist","Ġwe ll","Ġas k","ong s","Ġlo se","Ġtra ck","Ġtoo ls","Ġmat ters","Ġhum ble","Ġget s","Ġint erest","Ġri ver","Ġany wh","Ġhelp ful","Ġthan k","Ġsuccess ful","Ġr ules","Ġby pro","Ġmovi e","Ġdesign er","Ġpart s","Ġtravel s","Ġanim al","Ġear ly","ol ves","Ġcl os","Ġteach ing","Ġcons ist","Ġcons ume","Ġconfus ion","Ġconnect ion","Ġconnect ions","Ġgra dual","Ġcomm un","Ġsign i","Ġpull s","Ġenjoy able","Ġchallen ging","Ġar t","Ġar ound","Ġinv olves","Ġfinish ing","Ġpri de","Ġoccur s","Ġtry ing","Ġcustom ers","Ġdevelop ment","pl ace","Ġbas ed","Ġstu d","Ġquest ions","Ġstead ily","Ġintern al","Ġscientist s","Ġrespon d","Ġari se","Ġwon der","Ġbre ak","Ġbor ing","Ġrevi se","Ġsub ject","Ġsl ave","Ġpre v","Ġple ase","Ġreli able","Ġliqui d","Ġexc iting","Ġabil ity","Ġmista kes","Ġqui et","Ġtin y","Ġsing le","Ġsom eday","Ġsep ar","Ġsour ce","Ġment al","Ġphys ical","Ġdou bt","Ġblo ck","Ġgal ax","Ġnucle us","Ġdocum ent","ceive d","Ġongo ing","Ġchoo se","Ġimpos sible","Ġanywh ere","Ġbypro duct","a pp","a king","a ces","b y","c ity","c les","d ence","e w","e ck","f it","f ull","f ies","g es","g ul","g ry","h ere","i vi","i od","i ra","l er","m ber","n ol","o gy","p e","p ri","p ut","r ing","s er","u age","v ices","Ġ our","Ġt ends","Ġt end","Ġs le","Ġs ick","Ġs ongs","Ġth ose","at ur","at ely","Ġm er","Ġm is","Ġm ult","Ġp ress","Ġp ie","Ġp ati","er m","on est","an ds","en ces","Ġc ou","Ġc al","Ġc ame","Ġc ertain","Ġb urn","Ġb illions","or it","Ġf ra","Ġf ly","Ġf oun","Ġf il","Ġf ound","Ġf lo","ou ds","Ġh onest","Ġo pp","Ġan gry","Ġg en","Ġg as","Ġg ui","Ġe mp","ar act","Ġl ar","Ġl ink","Ġl ack","Ġl ang","Ġn ation","Ġn atur","Ġin f","ll o","ll s","Ġbe ha","ro p","ro ach","ve d","Ġre me","Ġre as","Ġre ally","Ġre act","Ġre ven","Ġre action","Ġre gul","al ity","Ġme et","Ġpro t","ke y","Ġgo als","Ġha bit","Ġst ar","Ġst ore","Ġst ories","ri es","ic i","Ġso ft","Ġor der","as ure","ra ge","ra id","Ġfor get","ch nol","ad l","et ic","Ġga in","Ġne ar","Ġwant ing","Ġfe ar","Ġwork place","Ġti red","Ġch arge","Ġch eck","Ġch aract","Ġsp here","Ġen ough","Ġsh ap","Ġsh aring","Ġdes ire","Ġdes ira","Ġcon c","Ġcon tain","ur b","Ġde adl","Ġhard er","Ġknow s","Ġob ser","Ġcomp le","Ġcomp any","Ġcomp are","Ġsol ar","Ġte ams","Ġte chnol","est ment","Ġplay ing","Ġwe ak","Ġplan ning","Ġal one","Ġas king","Ġwho le","Ġneed s","Ġta ble","Ġta king","Ġlo ving","Ġreal ity","Ġtra verse","Ġhe a","Ġhe ar","Ġhe llo","Ġv ari","Ġmat ch","Ġbusiness es","Ġper iod","end ing","Ġproduct s","Ġsi mil","Ġr un","Ġr ath","Ġqu ality","Ġover wh","Ġgrow ing","we ight","Ġse qu","Ġse lling","Ġevi dence","Ġpart ic","Ġimpro ves","Ġfocus ing","Ġfocus ed","Ġval id","Ġbig ger","Ġspe ak","Ġcl ouds","Ġteach er","Ġout put","Ġlif t","Ġsyste ms","Ġhigh er","Ġact s","Ġact ive","Ġfi ction","Ġrep res","Ġrep etition","Ġend less","Ġaf raid","Ġmeaning s","Ġsur f","Ġsur pri","Ġdifficult y","Ġapp roach","Ġwri ting","Ġsign al","Ġele ments","Ġdis cover","Ġdis app","Ġfact s","Ġsee ms","Ġchallen ge","Ġchallen ges","iz ing","Ġturn key","Ġcar ries","Ġcare ful","Ġcare full","Ġgi ves","Ġlat ely","Ġinv estment","Ġlist s","Ġexperi ences","Ġmorning s","Ġser vice","Ġshare d","Ġwatch ing","Ġbelief s","Ġcustom er","Ġent ire","Ġwa it","Ġsc ore","Ġbas ic","Ġlos s","Ġlos ing","Ġquest ion","Ġstead y","Ġfix ing","Ġintern et","Ġrespon se","Ġtest ing","Ġim med","Ġim ag","Ġbu g","Ġless on","Ġdist urb","Ġspend ing","Ġcooper ate","Ġobsta cle","Ġobsta cles","Ġcelebr ate","oint ment","Ġsent ence","Ġcuri ous","Ġansw er","Ġgl ad","Ġind ivi","Ġmechan ic","Ġorgan iz","Ġdir ty","Ġmast ery","Ġcolle ge","Ġsolut ions","Ġrepe ated","Ġinstru ctions","Ġelect rons","Ġdecis ions","Ġcurrent ly","sel f","Ġcle ar","Ġbegin ning","Ġpeace ful","Ġstop s","Ġforgi ving","Ġcont in","Ġtemper ature","Ġsigni fies","Ġsle ep","Ġmis sing","Ġpress ure","Ġpati ence","Ġcou rage","Ġcal led","Ġfoun der","Ġopp os","Ġemp ty","Ġlang uage","Ġnatur al","Ġreme mber","Ġreven ue","Ġregul ar","Ġsoft ware","Ġforget ful","Ġcharact ers","Ġdesira ble","Ġtechnol ogy","Ġsimil ar","Ġrath er","Ġoverwh el","Ġsurpri sing","Ġdisapp ointment","Ġcarefull y","Ġimmed i","Ġimag ine","a i","a le","a ke","a res","b e","b s","b ers","b ol","c or","c ome","c ated","d el","d ir","d enti","d rop","e ps","e ther","f ting","g or","g ory","h ind","i th","i ver","i ble","i ther","i vity","k en","k ay","l ate","l ame","l ight","l ier","m bol","n er","o res","p er","p art","p tion","p oint","r on","r ay","r ink","r ate","r ors","s s","s es","s or","s ess","s ures","s late","t s","t al","u z","u ar","u el","u ge","u able","u cture","v y","v or","v ate","w ra","w im","w orth","w ake","y cle","z y","z les","Ġ es","Ġ er","Ġ ve","Ġ rain","Ġt y","Ġt al","Ġi denti","Ġa ff","Ġa ccur","Ġa ware","Ġa part","Ġa wake","Ġw ro","Ġw ow","Ġw ind","Ġw est","Ġw ast","in etic","Ġs a","Ġs at","Ġs ou","Ġs it","Ġs we","Ġs eri","Ġs ens","Ġs ense","Ġs wim","Ġth es","re ad","Ġm an","Ġm illions","Ġp en","Ġp ot","Ġp it","Ġp rou","Ġp ath","Ġp uz","er ally","an ion","an ce","an ge","an ation","an ger","an slate","en ery","Ġto uch","Ġc ent","Ġc all","Ġc ate","Ġc ap","Ġc ares","Ġc ycle","Ġd ri","Ġd um","Ġd one","Ġd ur","Ġd am","Ġd ens","Ġd rink","Ġd anger","Ġb ro","Ġb un","Ġb all","Ġb ir","Ġb ang","Ġb ible","Ġb lame","Ġf el","Ġf all","Ġf ish","Ġf ill","Ġh ot","Ġh ist","Ġh ust","Ġh id","Ġh uge","Ġwhat ever","Ġo kay","Ġg uar","om es","th at","Ġe ver","Ġe ast","Ġe ither","ar ch","ar ity","st op","Ġn orm","Ġn ame","Ġn orth","Ġin vi","Ġin ner","Ġbe hind","Ġdo ct","ro t","ro ss","ve red","Ġre f","Ġre l","Ġre se","Ġre co","Ġre cover","Ġre ceived","Ġre cor","ce pt","al ty","Ġme asure","Ġme tal","Ġpro ven","Ġpro fit","Ġmo del","ver s","ver ty","ent y","ent rate","Ġli k","Ġli kes","Ġli ves","Ġare a","ant ee","Ġwor th","Ġst ra","Ġst ands","Ġst ores","ri ed","ri city","ic ed","ic ation","ic ates","Ġso ci","Ġor bit","vi or","vi ron","Ġwi re","Ġwi se","as p","od le","Ġdi es","ra ctions","Ġfor ms","Ġfor ward","ut ion","ut rons","Ġpl aces","Ġpl enty","it ive","Ġma gn","pp ort","um ing","Ġk inetic","Ġne utrons","Ġex t","Ġex chan","Ġnot ice","Ġun it","Ġun cle","Ġun sure","Ġun wra","Ġwork ed","Ġdoes n","Ġsu pport","Ġgood s","Ġgood ness","Ġgood by","Ġle t","Ġsp ark","Ġsp ati","Ġen sure","Ġen sures","Ġen viron","Ġsh ine","Ġat te","Ġdes t","Ġcon si","Ġcon side","Ġcon cept","Ġhel d","Ġtr anslate","is f","ter n","Ġde ed","Ġfa vor","Ġcreat ing","Ġcreat ures","Ġcreat ivity","stan ces","Ġam oun","Ġco re","os ity","Ġexp ense","Ġab sor","Ġkind ness","Ġknow ing","Ġcomp anion","Ġsol o","Ġsol ves","Ġsol id","ci ful","ci ally","ci ous","ci pl","Ġte am","Ġplay ed","Ġbec omes","Ġyour self","Ġal mo","Ġal gor","Ġwho ever","Ġstart ed","Ġdescri ption","Ġta ste","Ġta ken","Ġev ol","Ġlo g","Ġlo cated","Ġbuild s","Ġhe y","Ġv ast","Ġv oid","Ġwin s","Ġdescrib ed","Ġper ceived","end ed","Ġany one","Ġeas ily","Ġeff ici","Ġproduct ive","Ġsmall est","Ġsi de","Ġmind ful","Ġfri ction","Ġr u","Ġr ate","Ġr ates","Ġke ys","Ġke eps","Ġover act","Ġover come","Ġfun ctions","Ġworld s","Ġexist ed","Ġexist ence","Ġse en","Ġdesign ing","Ġpos sess","Ġpos itive","Ġrequi red","Ġmost ly","Ġimpro ving","Ġval uable","Ġro t","Ġro le","Ġro om","Ġro ck","Ġpo verty","Ġpo odle","Ġear lier","Ġexpl anation","Ġsy mbol","Ġday s","Ġcl ues","Ġgreat er","Ġla bs","Ġla zy","Ġprocess ing","Ġstay ing","Ġlead er","Ġteach es","Ġslow er","Ġslow ly","Ġemot ions","Ġcons uming","Ġcons cious","Ġconfus ing","Ġconnect s","Ġconnect ed","Ġact ually","Ġsay ing","Ġfi re","Ġlow er","Ġlight er","Ġlight weight","Ġend point","Ġfail ing","Ġsimp ly","Ġmoment um","Ġimprove d","Ġimprove ments","Ġfree z","Ġinter act","Ġinter action","Ġstr ucture","Ġstr ange","Ġmeaning ful","Ġdire ct","Ġdep ending","Ġexplain s","Ġbelie ve","co vered","Ġapp ly","Ġsun light","Ġsad ly","Ġpres ence","Ġho ld","Ġele ment","Ġreach ed","Ġmem ories","Ġdis cipl","Ġdis covered","Ġcho ice","Ġtell s","Ġfriend ly","fic ation","Ġturn s","Ġmay be","Ġcar rot","Ġback drop","Ġgi ant","Ġgi ving","Ġgi ven","Ġgrou ps","Ġinv ent","Ġdistan ces","Ġdeci ding","Ġdeci des","Ġmotiv ated","ap or","Ġser ve","Ġser vices","Ġpri orit","Ġpri vate","Ġce lls","Ġoccur red","Ġoccur ring","Ġsmart er","Ġsucceed ed","Ġdevelop ing","fi ed","Ġent ity","Ġwa ves","Ġwa iting","Ġsc ale","Ġsc enery","Ġfull y","Ġstu ff","Ġpoint s","Ġpoint less","Ġfix ed","Ġachieve ment","Ġpush es","Ġvi s","Ġvi ew","Ġari ses","Ġdet ail","Ġdet erm","Ġdet ai","Ġbu y","Ġbre aking","Ġbor n","Ġdid n","Ġdist ractions","Ġsub stances","Ġcooper ation","Ġfollow s","Ġrobot s","Ġstrong er","Ġstrong ly","Ġlisten ing","Ġcelebr ation","Ġpower ful","Ġbright ly","Ġpack ed","Ġpack age","Ġcuri osity","Ġflow s","Ġansw ers","Ġgl ass","Ġearn ing","Ġlook ing","Ġinc lu","Ġind icates","Ġmechan ics","Ġprovi ding","Ġprovi des","Ġorgan ic","get able","Ġmast er","Ġcolle ction","Ġsolut ion","Ġperform ing","Ġperform ance","Ġeffect ive","Ġround ed","Ġlaunch ing","Ġsetback s","Ġinstru ction","Ġsurvi ve","Ġsurvi ving","Ġelect ricity","Ġdecis ion","Ġhealth y","Ġacce pt","Ġacce ler","Ġdrawing s","ail able","gn izing","ip le","lu ence","Ġad ding","Ġav oid","Ġav ailable","Ġpi cture","Ġpay ing","Ġdel iver","Ġhur dle","Ġgr ound","Ġgr asp","Ġlou d","Ġlou der","Ġnum ber","Ġnum bers","enti al","Ġeng aging","Ġtrust worth","Ġcost s","Ġpersist ence","Ġinterest ed","Ġclos er","Ġconsist s","Ġconsist ent","Ġcommun ities","Ġcommun ication","Ġpride ful","Ġstud y","Ġsubject s","Ġprev ent","Ġprev ents","Ġsepar ation","Ġsepar ately","Ġblock s","Ġblock ing","Ġgalax y","Ġgalax ies","Ġdocument ation","pe cially","Ġmer ciful","Ġmult iple","Ġpie ce","Ġcertain ty","Ġfra me","Ġfil led","Ġflo ating","Ġgen erally","Ġgui de","Ġlar gest","Ġinf luence","Ġbeha vior","Ġreas on","Ġreact ing","Ġprot ons","Ġhabit s","Ġstore d","Ġgain ing","Ġcheck ed","Ġshap e","Ġconc entrate","Ġdeadl ines","Ġobser ving","Ġcomple ting","Ġcompare d","Ġweak en","Ġhea vy","Ġmatch es","Ġsequ el","Ġpartic les","Ġrepres ents","Ġsurf ace","Ġbug s","Ġindivi dual","Ġorganiz ed","Ġcontin ues","Ġsleep y","Ġoppos ite","Ġoverwhel med","Ġimmedi ate","Ġes pecially","Ġer rors","Ġve getable","Ġidenti fied","Ġaff ect","Ġaccur ate","Ġaware ness","Ġwro te","Ġwast ed","Ġsat isf","Ġsou th","Ġswe et","Ġseri ous","Ġsens ation","Ġthes e","Ġman age","Ġpen alty","Ġpot ential","Ġpit ch","Ġprou d","Ġpuz zles","Ġcent er","Ġcate gory","Ġcap able","Ġdri fting","Ġdum b","Ġdur ing","Ġdam age","Ġdens ity","Ġbir ds","Ġfel t","Ġhist ory","Ġhust le","Ġguar antee","Ġnorm al","Ġinvi sible","Ġrese arch","Ġreco gnizing","Ġrecor ds","Ġstra ight","Ġsoci al","Ġuncle ar","Ġunwra ps","Ġgoodby e","Ġspati al","Ġenviron ment","Ġatte mp","Ġconsi der","Ġconside red","Ġfavor ite","Ġabsor b","Ġalmo st","Ġalgor ith","Ġevol ved","Ġeffici ent","Ġoveract ive","Ġconscious ness","Ġdiscipl ine","Ġdetail s","Ġdeterm ines","Ġdetai led","Ġinclu ding","Ġacceler ation","Ġtrustworth y"]}}