{"version":"1.0","truncation":null,"padding":null,"added_tokens":[{"id":0,"content":"<PAD>","single_word":false,"lstrip":false,"rstrip":false,"normalized":false,"special":true},{"id":1,"content":"<BOS>","single_word":false,"lstrip":false,"rstrip":false,"normalized":false,"special":true},{"id":2,"content":"<EOS>","single_word":false,"lstrip":false,"rstrip":false,"normalized":false,"special":true},{"id":3,"content":"<UNK>","single_word":false,"lstrip":false,"rstrip":false,"normalized":false,"special":true}],"normalizer":{"type":"Sequence","normalizers":[{"type":"NFC"},{"type":"Lowercase"}]},"pre_tokenizer":{"type":"ByteLevel","add_prefix_space":true,"trim_offsets":true,"use_regex":true},"post_processor":{"type":"TemplateProcessing","single":[{"SpecialToken":{"id":"<BOS>","type_id":0}},{"Sequence":{"id":"A","type_id":0}},{"SpecialToken":{"id":"<EOS>","type_id":0}}],"pair":[{"SpecialToken":{"id":"<BOS>","type_id":0}},{"Sequence":{"id":"A","type_id":0}},{"SpecialToken":{"id":"<EOS>","type_id":0}},{"Sequence":{"id":"B","type_id":1}},{"SpecialToken":{"id":"<EOS>","type_id":1}}],"special_tokens":{"<BOS>":{"id":"<BOS>","ids":[1],"tokens":["<BOS>"]},"<EOS>":{"id":"<EOS>","ids":[2],"tokens":["<EOS>"]}}},"decoder":{"type":"ByteLevel","add_prefix_space":true,"trim_offsets":true,"use_regex":true},"model":{"type":"BPE","dropout":null,"unk_token":null,"continuing_subword_prefix":null,"end_of_word_suffix":null,"fuse_unk":false,"byte_fallback":false,"ignore_merges":false,"vocab":{"<PAD>":0,"<BOS>":1,"<EOS>":2,"<UNK>":3,"!":4,"\"":5,"$":6,"%":7,"&":8,"'":9,"(":10,")":11,"+":12,",":13,"-":14,".":15,"/":16,"0":17,"1":18,"2":19,"3":20,"4":21,"5":22,"6":23,"7":24,"8":25,"9":26,":":27,";":28,"<":29,"=":30,">":31,"?":32,"@":33,"[":34,"\\":35,"]":36,"^":37,"_":38,"`":39,"a":40,"b":41,"c":42,"d":43,"e":44,"f":45,"g":46,"h":47,"i":48,"j":49,"k":50,"l":51,"m":52,"n":53,"o":54,"p":55,"q":56,"r":57,"s":58,"t":59,"u":60,"v":61,"w":62,"x":63,"y":64,"z":65,"{":66,"}":67,"~":68,"¡":69,"¢":70,"£":71,"¤":72,"¥":73,"¦":74,"§":75,"¨":76,"©":77,"ª":78,"«":79,"¬":80,"®":81,"¯":82,"°":83,"±":84,"²":85,"³":86,"´":87,"µ":88,"¶":89,"·":90,"¸":91,"¹":92,"º":93,"»":94,"¼":95,"½":96,"¾":97,"¿":98,"Â":99,"Ã":100,"Ä":101,"Å":102,"Æ":103,"Ç":104,"È":105,"É":106,"Ê":107,"Ë":108,"Ì":109,"Í":110,"Î":111,"Ï":112,"Ð":113,"Ñ":114,"Ò":115,"Ó":116,"Ô":117,"Õ":118,"Ö":119,"×":120,"Ø":121,"Ù":122,"Ú":123,"Û":124,"Ü":125,"Ý":126,"à":127,"á":128,"â":129,"ã":130,"ä":131,"å":132,"æ":133,"ç":134,"è":135,"é":136,"ê":137,"ë":138,"ì":139,"í":140,"ï":141,"ð":142,"ó":143,"ô":144,"Ċ":145,"Ġ":146,"Ģ":147,"ģ":148,"Ĥ":149,"ĥ":150,"Ħ":151,"ħ":152,"Ĩ":153,"ĩ":154,"Ī":155,"ī":156,"Ĭ":157,"ĭ":158,"Į":159,"į":160,"İ":161,"ı":162,"Ĳ":163,"ĳ":164,"Ĵ":165,"ĵ":166,"Ķ":167,"ķ":168,"ĸ":169,"Ĺ":170,"ĺ":171,"Ļ":172,"ļ":173,"Ľ":174,"ľ":175,"Ŀ":176,"ŀ":177,"Ł":178,"ł":179,"Ń":180,"Ġt":181,"he":182,"Ġa":183,"in":184,"Ġthe":185,"er":186,"Ġc":187,"or":188,"Ġs":189,"at":190,"on":191,"re":192,"Ġw":193,"an":194,"is":195,"Ġb":196,"es":197,"en":198,"Ġo":199,"ed":200,"it":201,"Ġin":202,"Ġf":203,"Ġp":204,"Ġm":205,"ar":206,"al":207,"Ġan":208,"Ġof":209,"as":210,"Ġd":211,"ic":212,"Ġh":213,"ro":214,"Ġand":215,"le":216,"ing":217,"Ġto":218,"ate":219,"Ġn":220,"ou":221,"ion":222,"Ġl":223,"ory":224,"ateg":225,"Ġcateg":226,"Ġcategory":227,"Ġg":228,"Ġre":229,"am":230,"ent":231,"Ġis":232,"il":233,"us":234,"Ġth":235,"Ġhe":236,"Ġe":237,"om":238,"Ġ1":239,"Ġwas":240,"un":241,"Ġit":242,"20":243,"Ġbe":244,"Ġon":245,"ol":246,"ad":247,"st":248,"Ġst":249,"ac":250,"Ġfor":251,"ot":252,"ir":253,"iv":254,"el":255,"id":256,"ur":257,"ers":258,"et":259,"im":260,"ay":261,"Ġ20":262,"ly":263,"ct":264,"ut":265,"ation":266,"ig":267,"op":268,"ow":269,"th":270,"em":271,"Ġal":272,"Ġas":273,"rom":274,"ist":275,"Ġr":276,"Ġj":277,"ch":278,"Ġk":279,"Ġv":280,"Ġ19":281,"Ġde":282,"ag":283,"Ġfrom":284,"and":285,"ce":286,"est":287,"ith":288,"Ġch":289,"ul":290,"her":291,"Ġ(":292,"Ġat":293,"ov":294,"Ġby":295,"ies":296,"ter":297,"Ġse":298,"Ġwith":299,"Ġare":300,"Ġun":301,"ia":302,"av":303,"oun":304,"um":305,"if":306,"Ġthat":307,"art":308,"Ġwh":309,"ces":310,"os":311,"ain":312,"ap":313,"Ġy":314,"Ġcon":315,"fer":316,"Ġpl":317,"ian":318,"Ġor":319,"Ġcom":320,"ab":321,"ber":322,"od":323,"ak":324,"Ġne":325,"ht":326,"ity":327,"ld":328,"all":329,"ill":330,"up":331,"res":332,"pe":333,"Ġus":334,"'s":335,"Ġhis":336,"Ġpro":337,"ri":338,"Ġle":339,"Ġthis":340,"ople":341,"oc":342,"ver":343,"Ġ\"":344,"Ġpe":345,"ame":346,"Ġ201":347,"ort":348,"ment":349,"Ġthey":350,"Ġar":351,"Ġnot":352,"ip":353,"ish":354,"feren":355,"Ġsh":356,"se":357,"Ġwor":358,"ant":359,"ud":360,"Ġpeople":361,"Ġreferen":362,"ge":363,"so":364,"ong":365,"qu":366,"Ġreferences":367,"ub":368,"ard":369,"Ġshe":370,"ave":371,"Ġhas":372,"Ġen":373,"ore":374,"ich":375,"ie":376,"Ġalso":377,"Ġte":378,"ere":379,"ary":380,"Ġex":381,"Ġ2":382,"Ġcan":383,"ther":384,"ast":385,"ount":386,"ive":387,"Ġab":388,"ust":389,"Ġaf":390,"ost":391,"ug":392,"Ġtr":393,"19":394,"ated":395,"Ġwere":396,"ik":397,"Ġman":398,"our":399,"Ġro":400,"Ġ200":401,"Ġbec":402,"Ġwhe":403,"og":404,"Ġplay":405,"pl":406,"ome":407,"ire":408,"Ġhave":409,"ates":410,"00":411,"Ġpart":412,"age":413,"out":414,"ial":415,"rit":416,"ure":417,"ight":418,"ear":419,"ath":420,"ang":421,"Ġcl":422,"ack":423,"Ġthere":424,"ell":425,"Ġnew":426,"Ġfir":427,"mer":428,"ions":429,"ok":430,"Ġother":431,"are":432,"ical":433,"Ġone":434,"orn":435,"Ġfirst":436,"ember":437,"Ġmar":438,"ine":439,"port":440,"ide":441,"der":442,"ited":443,"Ġi":444,"Ġbut":445,"uc":446,"Ġcomp":447,"Ġwhich":448,"ational":449,"ican":450,"land":451,"own":452,"Ġafter":453,"pt":454,"âĢ":455,"cl":456,"Ġcount":457,"Ġad":458,"ied":459,"ern":460,"ess":461,"ect":462,"ime":463,"ra":464,"Ġher":465,"ry":466,"Ġmov":467,"ans":468,"Ġhad":469,"ould":470,"Ġtheir":471,"Ġall":472,"ue":473,"Ġsc":474,"Ġyear":475,"end":476,"ance":477,"Ġap":478,"ade":479,"Ġsp":480,"Ġag":481,"ater":482,"ass":483,"ous":484,"Ġits":485,"Ġme":486,"ors":487,"ice":488,"Ġtw":489,"aus":490,"iz":491,"Ġ3":492,"ts":493,"Ġser":494,").":495,"ord":496,"Ġac":497,"Ġabout":498,"Ġ!":499,"Ġbir":500,"to":501,"ren":502,"amp":503,"ond":504,"ound":505,"Ġunited":506,"Ġind":507,"ace":508,"Ġcol":509,"Ġcont":510,"Ġwhen":511,"ally":512,"Ġpr":513,"Ġmany":514,"ne":515,"Ġdis":516,"Ġfr":517,"lect":518,"Ġwho":519,"ks":520,"und":521,"ach":522,"Ġ199":523,"act":524,"per":525,"man":526,"Ġwe":527,"ree":528,"ens":529,"Ġstates":530,"Ġsome":531,"Ġdo":532,"Ġ202":533,"one":534,"ric":535,"ign":536,"ths":537,"ind":538,"wn":539,"Ġact":540,"Ġmost":541,"ult":542,"ood":543,"Ġpres":544,"te":545,"Ġfe":546,"Ġpar":547,"Ġused":548,"Ġim":549,"Ġgro":550,"Ġcomm":551,"ild":552,"aw":553,"Ġpol":554,"com":555,"Ġnor":556,"les":557,"lish":558,"ww":559,"Ġtwo":560,"Ġmay":561,"Ġ18":562,"Ġdeath":563,"ake":564,"Ġkn":565,"Ġbo":566,"Ġev":567,"ib":568,"Ġcent":569,"ations":570,"uch":571,"we":572,"ics":573,"ings":574,"Ġmade":575,"Ġworld":576,"Ġmus":577,"Ġart":578,"ident":579,"Ġmore":580,"ities":581,"Ġnational":582,"ments":583,"ivers":584,"Ġbirths":585,"Ġup":586,"Ġbl":587,"Ġso":588,"Ġbeen":589,"Ġcity":590,"ists":591,"Ġtime":592,"Ġper":593,"als":594,"clud":595,"ause":596,"Ġfl":597,"Ġborn":598,"hed":599,"uring":600,"Ġsou":601,"Ġres":602,"Ġcall":603,"oug":604,"Ġgr":605,"Ġwork":606,"Ġbr":607,"bs":608,"ike":609,"for":610,"ery":611,"ite":612,"old":613,"Ġjo":614,"Ġ4":615,"Ġpop":616,"ps":617,"Ġteam":618,"Ġliv":619,"Ġinclud":620,"Ġspe":621,"ased":622,"ile":623,"Ġreg":624,"ians":625,"Ġdied":626,"ail":627,"Ġthem":628,"Ġover":629,"Ġout":630,"Ġph":631,"Ġfound":632,"Ġwar":633,"Ġinter":634,"ten":635,"ames":636,"Ġmin":637,"Ġear":638,"Ġqu":639,"ince":640,"Ġsy":641,"Ġinto":642,"Ġeng":643,"ence":644,"mp":645,"ition":646,"ward":647,"Ġ198":648,"Ġduring":649,"Ġbecame":650,"Ġbet":651,"Ġrec":652,"Ġco":653,"ons":654,"Ġsec":655,"Ġpre":656,"Ġdec":657,"Ġnum":658,"Ġest":659,"Ġamer":660,"Ġwill":661,"Ġ5":662,"//":663,"ah":664,"ved":665,"ubl":666,"uary":667,"Ġed":668,"Ġonly":669,"://":670,"Ġcar":671,"gan":672,"Ġcre":673,"ays":674,"Ġbecause":675,"ase":676,"Ġgo":677,"uct":678,"ose":679,"Ġoff":680,"ff":681,"Ġyears":682,"Ġcalled":683,"iss":684,"Ġhow":685,"Ġelect":686,"ft":687,"Ġgen":688,"Ġsong":689,"),":690,"ugh":691,"Ġunivers":692,"htt":693,"able":694,"Ġif":695,"Ġdep":696,"ents":697,"Ġnorth":698,"Ġno":699,"Ġam":700,"Ġthan":701,"Ġplayed":702,"urn":703,"io":704,"Ġbro":705,"Ġthese":706,"Ġhim":707,"Ġpopul":708,"Ġbu":709,"Ġrep":710,"ife":711,"ral":712,"overn":713,"Ġsch":714,"Ġtem":715,"vel":716,"Ġ197":717,"ury":718,"Ġlike":719,"Ġsouth":720,"ision":721,"Ġfam":722,"Ġdif":723,"br":724,"Ġwould":725,"ey":726,"Ġbel":727,"Ġdes":728,"Ġstart":729,"Ġsup":730,"che":731,"Ġhist":732,"Ġret":733,"ict":734,"hip":735,"Ġgre":736,"Ġknown":737,"ep":738,"ball":739,"cess":740,"Ġthen":741,"ick":742,"Ġgovern":743,"Ġform":744,"Ġmed":745,"Ġagain":746,"igh":747,"oot":748,"Ġdeaths":749,"Ġatt":750,"Ġsa":751,"Ġ6":752,"Ġdist":753,"uro":754,"Ġgroup":755,"Ġlar":756,"Ġ8":757,"ween":758,"Ġmet":759,"Ġz":760,"Ġyou":761,"Ġ7":762,"Ġnumber":763,"Ġsm":764,"Ġstate":765,"Ġbetween":766,"Ġmon":767,"Ġwhere":768,"ool":769,"Ġchar":770,"Ġcounty":771,"int":772,"form":773,"Ġdr":774,"ork":775,"Ġlater":776,"Ġwon":777,"Ġpers":778,"Ġstud":779,"amer":780,"Ġname":781,"Ġrel":782,"ph":783,"Ġking":784,"Ġuse":785,"Ġuniversity":786,"Ġestab":787,"ress":788,"ve":789,"Ġcap":790,"Ġ196":791,"imes":792,"fore":793,"tle":794,"âĢĵ":795,"Ġunder":796,"Ġ2020":797,"ink":798,"Ġhel":799,"the":800,"Ġvery":801,"olog":802,"til":803,"Ġmusic":804,"ton":805,"Ġsing":806,"Ġpresident":807,"18":808,"oth":809,"Ġass":810,"round":811,"ily":812,"ock":813,"Ġmain":814,"Ġfin":815,"de":816,"ages":817,"Ġartic":818,"Ġfrance":819,"Ġend":820,"rap":821,"ually":822,"ix":823,"Ġop":824,"uk":825,"\".":826,"Ġuntil":827,"Ġter":828,"Ġthro":829,"Ġpo":830,"Ġsuch":831,"Ġwest":832,"ob":833,"Ġcal":834,"Ġlong":835,"Ġrele":836,"Ġwrit":837,"rib":838,"ient":839,"Ġstr":840,"Ġshow":841,"Ġaust":842,"ough":843,"let":844,"ines":845,"iving":846,"ina":847,"Ġloc":848,"Ġmat":849,"Ġdiffer":850,"ism":851,"Ġspec":852,"Ġjan":853,"az":854,"Ã©":855,"lev":856,"other":857,"ital":858,"Ġthree":859,"Ġ9":860,"Ġbefore":861,"Ġgu":862,"ered":863,"aj":864,"ather":865,"erman":866,"Ġeuro":867,"Ġdifferent":868,"ins":869,"american":870,"Ġsecond":871,"Ġlife":872,"anc":873,"Ġage":874,"Ġcons":875,"ason":876,"ale":877,"Ġcare":878,"Ġsince":879,"amed":880,"lishments":881,"Ġprod":882,"Ġperson":883,"alk":884,"hy":885,"ures":886,"Ġschool":887,"www":888,"Ġany":889,"Ġparty":890,"ars":891,"Ġamerican":892,"Ġhistory":893,"Ġdef":894,"ious":895,"ck":896,"way":897,"Ġthrough":898,"irect":899,"Ġmake":900,"ely":901,"Ġarea":902,"Ġsub":903,"Ġaward":904,"Ġgames":905,"Ġprov":906,"apan":907,"oll":908,"Ġsim":909,"ank":910,"Ġmember":911,"Ġtempl":912,"ms":913,"uss":914,"Ġpolit":915,"air":916,"000":917,"Ġsw":918,"Ġinst":919,"people":920,"ever":921,"Ġchild":922,"eral":923,"iet":924,"ert":925,"angu":926,"Ġback":927,"Ġbeing":928,"Ġget":929,"une":930,"Ġche":931,"omet":932,"ative":933,"ced":934,"ague":935,"Ġlo":936,"ouse":937,"Ġcr":938,"Ġwom":939,"rog":940,"Ġwin":941,"ann":942,"Ġge":943,"Ġmod":944,"Ġsame":945,"Ġair":946,"Ġadd":947,"Ġdepart":948,"Ġwell":949,"Ġnov":950,"ys":951,"ograp":952,"Ġchamp":953,"enn":954,"Ġestablishments":955,"Ġacc":956,"Ġregion":957,"ootball":958,"ried":959,"emb":960,"ating":961,"Ġjanuary":962,"Ġlead":963,"ll":964,"Ġeurope":965,"ower":966,"iel":967,"\",":968,"Ġinv":969,"Ġhigh":970,"ual":971,"ica":972,"Ġdid":973,"pro":974,"Ġold":975,"Ġyork":976,"Ġ17":977,"ss":978,"Ġgerman":979,"Ġrem":980,"Ġem":981,"ublic":982,"Ġ195":983,"ific":984,"Ġ10":985,"Ġfour":986,"Ġboth":987,"ject":988,"Ġseries":989,"ished":990,"eng":991,"Ġset":992,"Ġwhile":993,"Ġdirect":994,"Ġtrans":995,"Ġjapan":996,"Ġent":997,"Ġhowever":998,"ier":999,"levision":1000,"Ġstarted":1001,"gr":1002,"Ġintern":1003,"Ġbrit":1004,"Ġsur":1005,"mun":1006,"Ġagainst":1007,"ble":1008,"ange":1009,"Ġcompan":1010,"Ġdepartment":1011,"Ġever":1012,"gest":1013,"Ġrecord":1014,"Ġoften":1015,"ai":1016,"Ġmil":1017,"iver":1018,"Ġearly":1019,"its":1020,"Ġty":1021,"Ġnamed":1022,"Ġsmall":1023,"ats":1024,"Ġsongs":1025,"ium":1026,"'t":1027,"Ġpopulation":1028,"ds":1029,"living":1030,"âĢĻ":1031,"ws":1032,"Ġ15":1033,"stem":1034,"xt":1035,"fl":1036,"icians":1037,"Ġhelp":1038,"Ġju":1039,"ple":1040,"Ġreleased":1041,"Ġeach":1042,"Ġleague":1043,"Ġ!!":1044,"Ġgovernment":1045,"Ġsoc":1046,"ains":1047,"ants":1048,"Ġown":1049,"Ġalb":1050,"Ġsl":1051,"Ġwater":1052,"Ġcareer":1053,"ister":1054,"Ġmak":1055,"iam":1056,"ful":1057,"Ġlangu":1058,"ash":1059,"Ġmovie":1060,"201":1061,"Ġtown":1062,"ley":1063,"Ġtelevision":1064,"Ġfootball":1065,"ont":1066,"Ġsystem":1067,"Ġcur":1068,"rict":1069,"Ġmovies":1070,"els":1071,"Ġpos":1072,"Ġcentury":1073,"Ġ:":1074,"Ġ.":1075,"Ġarm":1076,"Ġjust":1077,"https":1078,"Ġfamily":1079,"Ġcould":1080,"ution":1081,"Ġsaid":1082,"Ġ-":1083,"edia":1084,"Ġcountry":1085,"ement":1086,"Ġaround":1087,"Ġlived":1088,"Ġ194":1089,"Ġsk":1090,"bo":1091,"hn":1092,"Ġclub":1093,"red":1094,"Ġ16":1095,"ports":1096,"Ġmarch":1097,"Ġnear":1098,"Ġu":1099,"Ġsever":1100,"Ġisland":1101,"Ġplace":1102,"Ġaug":1103,"Ġland":1104,"Ġlaw":1105,"Ġarticle":1106,"Ġhouse":1107,"org":1108,"ning":1109,"ty":1110,"ries":1111,"Ġred":1112,"Ġoct":1113,"Ġgame":1114,"ptember":1115,"min":1116,"arch":1117,"aster":1118,"Ġbook":1119,"bsp":1120,"nbsp":1121,"Ġrom":1122,"cc":1123,"dom":1124,"Ġserv":1125,"Ġaugust":1126,"icip":1127,"ober":1128,"ature":1129,"Ġhum":1130,"ise":1131,"Ġseptember":1132,"pol":1133,"Ġright":1134,"ensus":1135,"Ġsign":1136,"Ġseason":1137,"http":1138,"get":1139,"ollow":1140,"Ġwik":1141,"app":1142,"igin":1143,"Ġla":1144,"Ġmill":1145,"co":1146,"Ġaut":1147,"Ġchampions":1148,"Ġcommun":1149,"Ġdem":1150,"Ġwhat":1151,".[":1152,"ting":1153,"Ġimport":1154,"Ġoctober":1155,"ark":1156,"velop":1157,"Ġaustral":1158,"Ġjuly":1159,"Ġneed":1160,"ute":1161,"ired":1162,"ger":1163,"Ġhome":1164,"Ġ12":1165,"Ġdisc":1166,"Ġfollow":1167,"ology":1168,"ives":1169,"Ġeast":1170,"Ġnow":1171,"Ġusually":1172,"Ġdecember":1173,"ze":1174,"Ġenglish":1175,"Ġwomen":1176,"Ġbest":1177,"Ġval":1178,"Ġjune":1179,"Ġoffic":1180,"sh":1181,"ril":1182,"Ġsum":1183,"Ġkill":1184,"Ġdoes":1185,"aces":1186,"elf":1187,"Ġsomet":1188,"Ġincluding":1189,"Ġalbum":1190,"cent":1191,"Ġmiss":1192,"ove":1193,"Ġnovember":1194,"ural":1195,"Ġdevelop":1196,"Ġleg":1197,"Ġseveral":1198,"Ġorgan":1199,"ax":1200,"cy":1201,"Ġbuild":1202,"Ġriver":1203,"ional":1204,"Ġel":1205,"Ġwent":1206,"ample":1207,"Ġinternational":1208,"Ġorigin":1209,"Ġchang":1210,"Ġint":1211,"rat":1212,"Ġdiv":1213,"hing":1214,"iforn":1215,"Ġbar":1216,"Ġsee":1217,"Ġlive":1218,"Ġcreated":1219,"ifornia":1220,"Ġcov":1221,"Ġann":1222,"Ġke":1223,"Ġday":1224,"Ġfrog":1225,"Ġrun":1226,"Ġappe":1227,"ets":1228,"Ġrepres":1229,"Ġbegan":1230,"Ġeven":1231,"Ġapril":1232,"Ġcalifornia":1233,"pos":1234,"Ġchildren":1235,"urg":1236,"rent":1237,"Ġir":1238,"Ġrev":1239,"Ġshould":1240,"Ġfil":1241,"Ġ'":1242,"ull":1243,"amm":1244,"Ġleft":1245,"Ġinc":1246,"Ġtop":1247,"commun":1248,"Ġgood":1249,"Ġprot":1250,"Ġlast":1251,"son":1252,"Ġchr":1253,"Ġkingdom":1254,"Ġlist":1255,"Ġevery":1256,"ography":1257,"Ġ2010":1258,"ues":1259,"day":1260,"fr":1261,"ized":1262,"ted":1263,"200":1264,"Ġway":1265,"Ġbus":1266,"Ġbritish":1267,"Ġhead":1268,"Ġ[":1269,"Ġband":1270,"bruary":1271,"ung":1272,"ada":1273,"Ġjohn":1274,"Ġ14":1275,"ined":1276,"Ġcensus":1277,"cities":1278,"Ġgl":1279,"Ġhar":1280,"Ġtak":1281,"Ġcro":1282,"Ġimportant":1283,"Ġcompet":1284,"Ġbre":1285,"Ġbas":1286,"Ġanim":1287,"Ġ2019":1288,"Ġang":1289,"Ġfebruary":1290,"eter":1291,"Ġtre":1292,"Ġexample":1293,"Ġ11":1294,"ody":1295,"Ġmy":1296,"Ġbased":1297,"Ġ13":1298,"Ġcor":1299,"str":1300,"ular":1301,"Ġtit":1302,"Ġdistrict":1303,"ought":1304,"ama":1305,"Ġcompany":1306,"Ġcup":1307,"ible":1308,"Ġopen":1309,"ility":1310,"Ġplayers":1311,"Ġmaj":1312,"Ġsen":1313,"con":1314,"ner":1315,"Ġ2021":1316,"Ġrepresent":1317,"Ġdown":1318,"Ġanother":1319,"sp":1320,"ived":1321,"Ġsour":1322,"ideo":1323,"embers":1324,"communes":1325,"Ġmuch":1326,"Ġchampionship":1327,"Ġ2012":1328,"Ġmid":1329,"ondon":1330,"Ġstill":1331,"Ġgreat":1332,"cer":1333,"Ġcommon":1334,"ches":1335,"Ġ193":1336,"Ġbat":1337,"Ġlit":1338,"Ġlarge":1339,"fect":1340,"ilt":1341,"Ġyoun":1342,"Ġmajor":1343,"me":1344,"Ġes":1345,"Ġoly":1346,"cept":1347,"Ġob":1348,"Ġolymp":1349,"Ġfar":1350,"Ġsuc":1351,"Ġminister":1352,"au":1353,"Ġvar":1354,"Ġpage":1355,"Ġ2011":1356,"ared":1357,"Ġoper":1358,"ories":1359,"aly":1360,"Ġcontro":1361,"Ġtimes":1362,"ows":1363,"Ġav":1364,"Ġnort":1365,"Ġindia":1366,"Ġnet":1367,"ode":1368,"Ġsupport":1369,"gin":1370,"Ġmo":1371,"Ġ2018":1372,"rie":1373,"Ġ2017":1374,"Ġcour":1375,"Ġphil":1376,"ites":1377,"Ġamerica":1378,"side":1379,"Ġext":1380,"Ġcurrent":1381,"10":1382,"gy":1383,"Ġmoved":1384,"Ġbig":1385,"Ġje":1386,"Ġtro":1387,"Ġcountries":1388,"Ġpower":1389,"Ġlondon":1390,"Ġmarried":1391,"Ġocc":1392,"Ġpass":1393,"rench":1394,"Ġprof":1395,"ison":1396,"Ġreturn":1397,"Ġcaus":1398,"ret":1399,"Ġdon":1400,"polit":1401,"Ġwant":1402,"ino":1403,"be":1404,"ese":1405,"Ġvers":1406,"Ġson":1407,"Ġtemplate":1408,"ield":1409,"icipal":1410,"Ġlook":1411,"Ġfather":1412,"Ġusing":1413,"hes":1414,"Ġpopular":1415,"Ġport":1416,"ipedia":1417,"Ġcult":1418,"Ġattack":1419,"Ġtook":1420,"Ġsu":1421,"na":1422,"Ġcapital":1423,"Ġ2016":1424,"Ġgeneral":1425,"Ġblack":1426,"ially":1427,"199":1428,"erv":1429,"Ġscient":1430,"omin":1431,"Ġlanguage":1432,"Ġbelie":1433,"21":1434,"Ġ2014":1435,"Ġpublic":1436,"Ġ2022":1437,"ott":1438,"Ġthir":1439,"Ġcontin":1440,"ata":1441,"ided":1442,"Ġevent":1443,"Ġbi":1444,"Ġaustralia":1445,"ales":1446,"Ġmillion":1447,"Ġchrist":1448,"uced":1449,"Ġsol":1450,"iation":1451,"ket":1452,"Ġmembers":1453,"Ġgermany":1454,"Ġste":1455,"Ġsummer":1456,"Ġ2008":1457,"Ġruss":1458,"aced":1459,"Ġii":1460,"par":1461,"Ġlos":1462,"Ġpri":1463,"Ġrock":1464,"ience":1465,"Ġclass":1466,"west":1467,"iness":1468,"urch":1469,"Ġ2007":1470,"ams":1471,"Ġ2013":1472,"Ġpat":1473,"burg":1474,"sc":1475,"iven":1476,"ane":1477,"istan":1478,"Ġengland":1479,"Ġbuilt":1480,"Ġ2015":1481,"Ġdesign":1482,"Ġ2009":1483,"ae":1484,"Ġmount":1485,"uction":1486,"17":1487,"Ġrece":1488,"Ġx":1489,"Ġthink":1490,"Ġhere":1491,"rest":1492,"by":1493,"ides":1494,"Ġexp":1495,"ically":1496,"Ġhapp":1497,"itary":1498,"Ġinclude":1499,"Ġprogr":1500,"ained":1501,"ones":1502,"Ġpark":1503,"Ġworked":1504,"af":1505,"Ġbecome":1506,"ling":1507,"Ġvideo":1508,"led":1509,"uck":1510,"Ġactors":1511,"aut":1512,"Ġcolle":1513,"Ġalong":1514,"adem":1515,"Ġer":1516,"iew":1517,"50":1518,"Ġcamp":1519,"ases":1520,"..":1521,"Ġsometimes":1522,"ke":1523,"Ġmun":1524,"Ġperform":1525,"utc":1526,"Ġsold":1527,"Ġfind":1528,"Ġserved":1529,"Ġshort":1530,"oy":1531,"alth":1532,"vent":1533,"Ġelection":1534,"Ġwhite":1535,"Ġmer":1536,"ico":1537,"ertain":1538,"inc":1539,"Ġorder":1540,"Ġvi":1541,"Ġmen":1542,"ox":1543,"ests":1544,"ction":1545,"Ġcame":1546,"Ġlot":1547,"Ġsix":1548,"Ġsuccess":1549,"Ġgold":1550,"Ġsea":1551,"ised":1552,"Ġfew":1553,"ana":1554,"ator":1555,"Ġplayer":1556,"Ġformer":1557,"aving":1558,"Ġprofess":1559,"ene":1560,"Ġdesc":1561,"aren":1562,"Ġthings":1563,"ster":1564,"ney":1565,"Ġproble":1566,"Ġgod":1567,"ago":1568,"yl":1569,"198":1570,"rican":1571,"Ġlevel":1572,"Ġassoc":1573,"\":":1574,"Ġbody":1575,"que":1576,"Ġline":1577,"osp":1578,"ille":1579,"ices":1580,"yn":1581,"Ġfounded":1582,"Ġ}":1583,"Ġfive":1584,"ĠâĢ":1585,"Ġvol":1586,"Ġ30":1587,"Ġmag":1588,"Ġgrand":1589,"Ġplaces":1590,"riend":1591,"Ġmass":1592,"Ġfamous":1593,"ien":1594,"Ġsal":1595,"Ġda":1596,"Ġarch":1597,"pect":1598,"Ġgiven":1599,"Ġ0":1600,"pes":1601,"Ã¡":1602,"Ġgot":1603,"Ġep":1604,"read":1605,"Ġ2006":1606,"12":1607,"ony":1608,"Ġmeans":1609,"Ġill":1610,"ored":1611,"tt":1612,"ught":1613,"Ġarmy":1614,"Ġvot":1615,"Ġwritten":1616,"oly":1617,"Ġhuman":1618,"Ġfood":1619,"Ġthose":1620,"ham":1621,"chn":1622,"gen":1623,"Ġgroups":1624,"Ġsingle":1625,"Ġliving":1626,"ocrat":1627,"Ġvir":1628,"Ġfem":1629,"Ġsay":1630,"Ġfre":1631,"Ġrad":1632,"Ġlight":1633,".\"":1634,"acter":1635,"Ġtrad":1636,"Ġeduc":1637,"ipp":1638,"Ġide":1639,"ania":1640,"Ġlargest":1641,"Ġtitle":1642,"Ġseat":1643,"uted":1644,"Ġcle":1645,"Ġprom":1646,"itions":1647,"Ġcat":1648,"Ġput":1649,"Ġtoget":1650,"Ġdel":1651,"Ġtogether":1652,"Ġwebs":1653,"bert":1654,"Ġworks":1655,"197":1656,"Ġcanada":1657,"Ġgener":1658,"Ġspecial":1659,"Ġsan":1660,"Ġmanag":1661,"Ġlou":1662,"Ġeff":1663,"Ġ25":1664,"Ġheld":1665,"Ġrul":1666,"Ġ&":1667,"Ġemp":1668,"Ġpal":1669,"Ġant":1670,"Ġstand":1671,"conom":1672,"talk":1673,"Ġsocial":1674,"16":1675,"Ġtake":1676,"Ġlives":1677,"Ġthird":1678,"Ġcenter":1679,"ize":1680,"Ġfrench":1681,"Ġarticles":1682,"Ġexpl":1683,"22":1684,"Ġhy":1685,"Ġparts":1686,"194":1687,"Ġpa":1688,"Ġconst":1689,"epend":1690,"Ġvill":1691,"Ġlab":1692,"ford":1693,"Ġstop":1694,"Ġcollege":1695,"Ġsent":1696,"med":1697,"hen":1698,"Ġnav":1699,"Ġvis":1700,"ilar":1701,"Ġcoun":1702,"set":1703,"Ġchurch":1704,"Ġcond":1705,"Ġtemplates":1706,"ript":1707,"ec":1708,"Ġapp":1709,"Ġseen":1710,"Ġyoung":1711,"Ġ2024":1712,"196":1713,"Ġconn":1714,"Ġknow":1715,"Ġrest":1716,"Ġdue":1717,"tal":1718,"ying":1719,"Ġrequ":1720,"Ġrepl":1721,"Ġacadem":1722,"Ġprovince":1723,"Ġunion":1724,"Ġpress":1725,"Ġmaking":1726,"Ġretrie":1727,"iod":1728,"Ġconf":1729,"pr":1730,"ified":1731,"Ġpain":1732,"193":1733,"orm":1734,"Ġ21":1735,"Ġnext":1736,"ven":1737,"ara":1738,"Ġdeb":1739,"ria":1740,"Ġhand":1741,"Ġled":1742,"Ġtex":1743,"Ġwithout":1744,"ves":1745,"Ġbor":1746,"Ġinform":1747,"umb":1748,"wik":1749,"Ġedit":1750,"Ġmother":1751,"Ġreal":1752,"Ġconsid":1753,"Ġmilitary":1754,"Ġturn":1755,"Ġadmin":1756,"ald":1757,"raft":1758,"Ġpolitical":1759,"Ġcrit":1760,"Ġpoliticians":1761,"Ġsimilar":1762,"Ġscientists":1763,"Ġsqu":1764,"Ġlocal":1765,"Ġannoun":1766,"Ġmex":1767,"Ġwikipedia":1768,"Ġretrieved":1769,"Ġindepend":1770,"not":1771,"Ġ24":1772,"oney":1773,"han":1774,"Ġhig":1775,"Ġkilled":1776,"Ġtur":1777,"htm":1778,"por":1779,"rica":1780,"Ġolympics":1781,"Ġcentral":1782,"Ġstre":1783,"Ġwestern":1784,"arn":1785,"Ġcop":1786,"Ġli":1787,"yal":1788,"Ġchange":1789,"Ġcolor":1790,"ex":1791,"Ġvict":1792,"Ġearth":1793,"rod":1794,"Ġeconom":1795,"Ġmunicipal":1796,"lo":1797,"Ġtechn":1798,"play":1799,"Ġperiod":1800,"ior":1801,"ades":1802,"hern":1803,"Ġequ":1804,"lands":1805,"Ġoffice":1806,"ivil":1807,"ival":1808,"ness":1809,"Ġprotect":1810,"Ġque":1811,"Ġaged":1812,"ule":1813,"Ġfriend":1814,"ids":1815,"Ġspecies":1816,"Ġra":1817,"Ġconnect":1818,"Ġothers":1819,"Ġallow":1820,"Ġmodern":1821,"tern":1822,"yle":1823,"ocratic":1824,"ged":1825,"town":1826,"Ġstation":1827,"rote":1828,"Ġindian":1829,"Ġ2023":1830,"Ġfilm":1831,"Ġbrother":1832,"Ġ2005":1833,"gress":1834,"Ġbooks":1835,"Ġbusiness":1836,"15":1837,"ended":1838,"Ġactiv":1839,"Ġmean":1840,"Ġ23":1841,"lex":1842,"Ġwind":1843,"Ġhal":1844,"Ġnat":1845,"Ġthought":1846,"Ġeuropean":1847,"Ġfight":1848,"amb":1849,"Ġless":1850,"ka":1851,"ped":1852,"raz":1853,"Ġdays":1854,"Ġpoint":1855,"ued":1856,"Ġuk":1857,"Ġadv":1858,"astern":1859,"wh":1860,"Ġ2000":1861,"Ġ22":1862,"Ġ2004":1863,"Ġaccord":1864,"Ġbox":1865,"Ġreceived":1866,"tlements":1867,"ead":1868,"Ġhistor":1869,"idge":1870,"Ġasia":1871,"ron":1872,"ida":1873,"Ġterrit":1874,"Ġwrote":1875,"ract":1876,"Ġaway":1877,"Ġchina":1878,"Ġjoined":1879,"ma":1880,"Ġside":1881,"Ġafrica":1882,"Ġstrong":1883,"aves":1884,"Ġstar":1885,"most":1886,"Ġcy":1887,"Ġstars":1888,"Ġread":1889,"ured":1890,"Ġfollowing":1891,"Ġrelig":1892,"Ġexper":1893,"Ġflor":1894,"aim":1895,"Ġangel":1896,"hor":1897,"Ġpersonal":1898,"go":1899,"Ġsil":1900,"imate":1901,"Ġber":1902,"Ġmakes":1903,"Ġcontrol":1904,"Ġnorthern":1905,"Ġgovernor":1906,"Ġmust":1907,"Ġelected":1908,"ened":1909,"hl":1910,"Ġ2001":1911,"Ġmich":1912,"ways":1913,"Ġinformation":1914,"Ġawards":1915,"Ġnomin":1916,"Ġref":1917,"Ġrepublic":1918,"Ġhard":1919,"Ġpost":1920,"line":1921,"ators":1922,"ief":1923,"Ġphys":1924,"ots":1925,"Ġtotal":1926,"Ġlocated":1927,"Ġmedal":1928,"Ġfun":1929,"Ġhol":1930,"Ġpubl":1931,"nd":1932,"Ġtoday":1933,"lin":1934,"Ġstory":1935,"Ġanc":1936,"Ġ2025":1937,"Ġcourt":1938,"Ġsources":1939,"urs":1940,"14":1941,"ges":1942,"Ġlost":1943,"Ġtexas":1944,"Ġsecret":1945,"Ġmatch":1946,"Ġannounced":1947,"Ġarg":1948,"25":1949,"Ġrese":1950,"Ġroman":1951,"Ġmal":1952,"Ġtype":1953,"Ġaccording":1954,"Ġnon":1955,"Ġhon":1956,"Ġparam":1957,"Ġposs":1958,"writ":1959,"Ġce":1960,"Ġinstead":1961,"Ġprime":1962,"dle":1963,"Ġversion":1964,"Ġgir":1965,"Ġgrow":1966,"Ġterm":1967,"iety":1968,"24":1969,"Ġbur":1970,"Ġfed":1971,"Ġyour":1972,"Ġstruct":1973,"::":1974,"Ġabove":1975,"Ġcharacter":1976,"Ġchic":1977,"Ġplays":1978,"ization":1979,"Ġtoo":1980,"ky":1981,"though":1982,"Ġchem":1983,"wor":1984,"Ġcapt":1985,"Ġlink":1986,"ump":1987,"13":1988,"Ġlat":1989,"Ġlouis":1990,"Ġbill":1991,"Ġ26":1992,"Ġarr":1993,"Ġmur":1994,"asons":1995,"Ġmult":1996,"Ġstat":1997,"Ġdet":1998,"Ġmoney":1999,"Ġpresent":2000,"cil":2001,"of":2002,"Ġrail":2003,"Ġbuilding":2004,"Ġchanged":2005,"Ġze":2006,"Ġofficial":2007,"anish":2008,"Ġcaused":2009,"Ġbeh":2010,"Ġhur":2011,"Ã¶":2012,"Ġcompos":2013,"Ġappear":2014,"ha":2015,"pec":2016,"ells":2017,"Ġtri":2018,"hers":2019,"Ġfif":2020,"Ġthough":2021,"mb":2022,"Ġresult":2023,"Ġevents":2024,"ler":2025,"Ġleader":2026,"Ġmexico":2027,"Ġsuper":2028,"Ġoriginal":2029,"Ġ100":2030,"Ġve":2031,"Ġox":2032,"Ġcivil":2033,"rael":2034,"Ġshows":2035,"ards":2036,"Ġalthough":2037,"settlements":2038,"Ġwashing":2039,"olymp":2040,"century":2041,"Ġitaly":2042,"Ġareas":2043,"Ġbad":2044,"Ġrole":2045,"Ġcancer":2046,"Ġcast":2047,"akistan":2048,"Ġparis":2049,"Ġiss":2050,"Ġmark":2051,"Ã¼":2052,"year":2053,"Ġ,":2054,"Ġfree":2055,"23":2056,"Ġ27":2057,"olution":2058,"Ġadminist":2059,"ta":2060,"Ġteams":2061,"zer":2062,"Ġinfl":2063,"mat":2064,"can":2065,"Ġlim":2066,"rop":2067,"Ġfire":2068,"ability":2069,"Ġempire":2070,"Ġtalk":2071,"Ġdev":2072,"Ġeducation":2073,"atures":2074,"adu":2075,"âĢĿ":2076,"Ġwee":2077,"mon":2078,"Ġchicago":2079,"ape":2080,"Ġclos":2081,"Ġlate":2082,"aining":2083,"Ġhealth":2084,"Ġrich":2085,"Ġ28":2086,"Ġgreen":2087,"acters":2088,"edy":2089,"work":2090,"Ġur":2091,"Ġuser":2092,"Ġresp":2093,"195":2094,"liam":2095,"Ġwashington":2096,"ither":2097,"Ġservice":2098,"Ġgree":2099,"Ġwithin":2100,"Ġtrav":2101,"Ġindust":2102,"Ġdefe":2103,"self":2104,"Ġplaying":2105,"Ġmor":2106,"Ġplan":2107,"Ġ$":2108,"Ġdest":2109,"ĠâĢľ":2110,"Ġdone":2111,"Ġnationality":2112,"Ġsports":2113,"Ġstudied":2114,"acy":2115,"Ġfall":2116,"Ġfinal":2117,"Ġcomput":2118,"Ġword":2119,"Ġfact":2120,"Ġdise":2121,"ross":2122,"ument":2123,"2020":2124,"Ġver":2125,"Ġroad":2126,"Ġwilliam":2127,"Ġroyal":2128,"Ġ2003":2129,"Ġmostly":2130,"Ġ1990":2131,"Ġsound":2132,"thern":2133,"ockey":2134,"liament":2135,"Ġhaving":2136,"km":2137,"Ġnotable":2138,"Ġappro":2139,"Ġcharacters":2140,"html":2141,"state":2142,"Ġnorm":2143,"Ġspace":2144,"Ġbattle":2145,"vers":2146,"Ġrights":2147,"ota":2148,"politicians":2149,"Ġheart":2150,"Ġuses":2151,"Ġdiscov":2152,"towns":2153,"Ġengine":2154,"ached":2155,"Ġkore":2156,"uel":2157,"Ġanimals":2158,"Ġ2002":2159,"ency":2160,"Ġhosp":2161,"Ġprocess":2162,"Ġformed":2163,"Ġproject":2164,"ula":2165,"Ġsex":2166,"Ã³":2167,"Ġmedia":2168,"Ġcouncil":2169,"ring":2170,"Ġsun":2171,"ba":2172,"Ġdi":2173,"Ġsn":2174,"sports":2175,"tr":2176,"Ġbroad":2177,"Ġcommunity":2178,"Ġdam":2179,"Ġvo":2180,"Ġincluded":2181,"ched":2182,"Ġspeak":2183,"mar":2184,"Ġinvol":2185,"Ġnever":2186,"Ġparliament":2187,"aff":2188,"Ġhit":2189,"Ġsepar":2190,"Ġsouthern":2191,"Ġlittle":2192,"Ġfemale":2193,"Ġproblems":2194,"Ġincludes":2195,"Ġtest":2196,"Ġamong":2197,"11":2198,"ention":2199,"Ġangeles":2200,"Ġeas":2201,"Ġjud":2202,"ughter":2203,"razil":2204,"Ġbal":2205,"Ġhockey":2206,"Ġfail":2207,"Ġmiddle":2208,"Ġculture":2209,"iers":2210,"Ġden":2211,"Ġdescrib":2212,"Ġcoast":2213,"cle":2214,"Ġonce":2215,"Ġ{":2216,"Ġsov":2217,"Ġcit":2218,"Ġdemocratic":2219,"Ġbirth":2220,"Ġassociation":2221,"Ġkeep":2222,"Ġgave":2223,"Ġprim":2224,"Ġcome":2225,"Ġwanted":2226,"ya":2227,"ij":2228,"Ġhall":2229,"Ġele":2230,"heast":2231,"Ġlanguages":2232,"Ġreport":2233,"Ġpolice":2234,"Ġmight":2235,"Ġcase":2236,"Ġhold":2237,"Ġlow":2238,"nes":2239,"Ġresearch":2240,"Ġpublished":2241,"orge":2242,"aland":2243,"Ġinf":2244,"united":2245,"Ġ1980":2246,"Ġmot":2247,"ration":2248,"Ġinstit":2249,"Ġkind":2250,"Ġtour":2251,"atives":2252,"Ġrace":2253,"Ġeffect":2254,"Ġconstit":2255,"Ġparen":2256,"30":2257,"Ġwebsites":2258,"omb":2259,"Ġbecom":2260,"ols":2261,"wards":2262,"aths":2263,"Ġclaim":2264,"Ġalmost":2265,"Ġ29":2266,"eth":2267,"ublican":2268,"Ġtrack":2269,"Ġpict":2270,"ÃŃ":2271,"Ġlet":2272,"inese":2273,"Ġisrael":2274,"used":2275,"Ġdav":2276,"Ġscience":2277,"Ġconsidered":2278,"Ġinflu":2279,"Ġhot":2280,"Ġspain":2281,"ults":2282,"Ġpakistan":2283,"here":2284,"hist":2285,"Ġjack":2286,"ances":2287,"Ġcir":2288,"lam":2289,"26":2290,"Ġ190":2291,"Ġepis":2292,"ansas":2293,"Ġsays":2294,"Ġworking":2295,"Ġcollect":2296,"Ġconc":2297,"cast":2298,"Ġbase":2299,"Ġpartic":2300,"Ġren":2301,"Ġball":2302,"olic":2303,"Ġgoals":2304,"Ġislands":2305,"Ġten":2306,"Ġlik":2307,"ament":2308,"Ġaccess":2309,"den":2310,"Ġeastern":2311,"Ġ1999":2312,"hi":2313,"bl":2314,"vious":2315,"Ġsurv":2316,"ems":2317,"Ġsug":2318,"uce":2319,"Ġtradition":2320,"Ġcommit":2321,"Ġadded":2322,"mus":2323,"Ġcities":2324,"ala":2325,"Ġwood":2326,"Ġdate":2327,"Ġproduced":2328,"Ġlake":2329,"Ġenough":2330,"ls":2331,"Ġlin":2332,"Ġmem":2333,"gg":2334,"oms":2335,"count":2336,"Ġhen":2337,"Ġcand":2338,"Ġwife":2339,"Ġexist":2340,"Ġdirector":2341,"Ġground":2342,"ering":2343,"Ġdevelopment":2344,"Ġdistrib":2345,"Ġcurrently":2346,"ops":2347,".,":2348,"mov":2349,"oss":2350,"Ġproper":2351,"Ġsimple":2352,"Ġpromot":2353,"Ġdivision":2354,"Ġvirgin":2355,"ergy":2356,"ius":2357,"oint":2358,"odes":2359,"Ġbetter":2360,"Ġhalf":2361,"28":2362,"Ġable":2363,"ville":2364,"ission":2365,"Ġtext":2366,"Ġacademy":2367,"Ġflorida":2368,"Ġchanges":2369,"Ġmap":2370,"ude":2371,"Ġpur":2372,"Ġeither":2373,"ably":2374,"Ġq":2375,"Ġnames":2376,"anger":2377,"eum":2378,"Ġwat":2379,"hel":2380,"Ġalbums":2381,"Ġhelped":2382,"--":2383,"Ġ50":2384,"Ġauthor":2385,"ners":2386,"pical":2387,"ference":2388,"Ġintrod":2389,"Ġwords":2390,"Ġcath":2391,"sw":2392,"ogn":2393,"Ġforce":2394,"29":2395,"Ġtreat":2396,"Ġask":2397,"Ġnatural":2398,"Ġvarious":2399,"Ġgive":2400,"Ġ1996":2401,"Ġdeveloped":2402,"Ġswed":2403,"Ġended":2404,"Ġaddition":2405,"rain":2406,"Ġran":2407,"Ġcross":2408,"Ġhospital":2409,"stand":2410,"Ġire":2411,"Ġcompeted":2412,"hest":2413,"Ġzealand":2414,"Ġcarol":2415,"Ġfull":2416,"Ġcomb":2417,"Ġarab":2418,"Ġdaughter":2419,"Ġfish":2420,"Ġmic":2421,"Ġmad":2422,"rian":2423,"Ġpages":2424,"Ġhill":2425,"ming":2426,"lant":2427,"Ġbrazil":2428,"Ġcongress":2429,"new":2430,"Ġproduct":2431,"kn":2432,"Ġkey":2433,"akes":2434,"Ġhost":2435,"Ġrecords":2436,"27":2437,"ona":2438,"lished":2439,"Ġmonths":2440,"Ġheav":2441,"Ġpun":2442,"ban":2443,"utes":2444,"Ġ1998":2445,"Ġstyle":2446,"Ġposition":2447,"Ġchristian":2448,"inois":2449,"Ġmary":2450,"Ġdisease":2451,"Ġgeorge":2452,"Ġprize":2453,"outh":2454,"Ġincre":2455,"deaths":2456,"ee":2457,"off":2458,"Ġchann":2459,"Ġpast":2460,"Ġindependent":2461,"ours":2462,"Ġacross":2463,"Ġbank":2464,"Ġjapanese":2465,"Ġcomes":2466,"la":2467,"Ġident":2468,"Ġsigned":2469,"Ġmovement":2470,"Ġnews":2471,"Ġtaken":2472,"Ġfield":2473,"Ġ1970":2474,"itar":2475,"Ġsoviet":2476,"Ġswit":2477,"bu":2478,"Ġprison":2479,"Ġwoman":2480,"Ġopened":2481,"Ġbrown":2482,"Ġfac":2483,"Ġkh":2484,"Ġseven":2485,"Ġmeet":2486,"ourn":2487,"imin":2488,"Ġselect":2489,"aint":2490,"ints":2491,"Ġround":2492,"berg":2493,"Ġblue":2494,"Ġireland":2495,"fa":2496,"Ġqual":2497,"Ġbegin":2498,"Ġterritory":2499,"pecially":2500,"vir":2501,"lete":2502,"Ġma":2503,"Ġviol":2504,"like":2505,"Ġut":2506,"Ġmuseum":2507,"writers":2508,"Ġoce":2509,"Ġdelet":2510,"Ġmove":2511,"adian":2512,"Ġleast":2513,"Ġdou":2514,"Ġtypes":2515,"Ġsubject":2516,"Ġillinois":2517,"Ġvillage":2518,"Ġmainly":2519,"Ġradio":2520,"Ġafrican":2521,"iction":2522,"ground":2523,"row":2524,"less":2525,"Ġtrib":2526,"isc":2527,"Ġmart":2528,"Ġchief":2529,"Ġaustria":2530,"Ġpaul":2531,"Ġforces":2532,"80":2533,"Ġjames":2534,"Ġaver":2535,"Ġbreak":2536,"Ġgeorg":2537,"Ġha":2538,"Ġ1992":2539,"hic":2540,"Ġrussia":2541,"bc":2542,"Ġ}}":2543,"Ġcomplet":2544,"Ġwrest":2545,"Ġrelations":2546,"ror":2547,"60":2548,"my":2549,"Ġfranc":2550,"Ġ1960":2551,"Ġestablished":2552,"bers":2553,"Ġcompanies":2554,"Ġfront":2555,"Ġpet":2556,"Ġblock":2557,"ael":2558,"Ġcertain":2559,"Ġplants":2560,"Ġnight":2561,"herlands":2562,"Ġeat":2563,"Ġdata":2564,"Ġfur":2565,"Ġancient":2566,"Ġalways":2567,"Ġsite":2568,"atic":2569,"Ġcause":2570,"Ġclose":2571,"Ġreturned":2572,"sy":2573,"col":2574,"Ġenergy":2575,"ware":2576,"Ġearl":2577,"mit":2578,"Ġital":2579,"Ġmix":2580,"Ġsit":2581,"Ġliter":2582,"Ġwid":2583,"ending":2584,"att":2585,"ellow":2586,"Ġsuccessful":2587,"Ġstri":2588,"Ġmel":2589,"Ġhor":2590,"Ġtemper":2591,"Ġstudents":2592,"iews":2593,"Ġmale":2594,"ouri":2595,"Ġexec":2596,"Ġquick":2597,"ander":2598,"Ġgradu":2599,"Ġcounties":2600,"Ġ189":2601,"Ġmos":2602,"Ġimage":2603,"Ġsociety":2604,"uit":2605,"Ġsam":2606,"Ġlearn":2607,"Ġ1997":2608,"posed":2609,"Ġmultip":2610,"Ġlib":2611,"Ġ31":2612,"Ġhun":2613,"40":2614,"ently":2615,"Ġmater":2616,"Ġdeg":2617,"Ġstay":2618,"bon":2619,"Ġlove":2620,"Ġsource":2621,"lim":2622,"iff":2623,"ersey":2624,"Ġship":2625,"Ġespecially":2626,"Ġobject":2627,"Ġsymb":2628,"Ġ1994":2629,"Ġbay":2630,"Ġ1995":2631,"Ġsaw":2632,"Ġcho":2633,"cul":2634,"Ġreplaced":2635,"Ġcode":2636,"Ġstage":2637,"Ġfest":2638,"Ġrap":2639,"Ġlocation":2640,"band":2641,"brit":2642,"Ġple":2643,"Ġpen":2644,"Ġrecogn":2645,"Ġnetherlands":2646,"Ġoccup":2647,"Ġrussian":2648,"Ġdead":2649,"Ġchinese":2650,"iles":2651,"ription":2652,"plic":2653,"Ġcandid":2654,"pan":2655,"Ġvirginia":2656,"Ġip":2657,"Ġavail":2658,"Ġins":2659,"iana":2660,"Ġcreate":2661,"no":2662,"itive":2663,"Ġautom":2664,"Ġhom":2665,"Ġegg":2666,"Ġamount":2667,"Ġdecided":2668,"gypt":2669,"des":2670,"Ġinstr":2671,"Ġaverage":2672,"Ġseats":2673,"ively":2674,"Ġstudy":2675,"rel":2676,"Ġwall":2677,"Ġhimself":2678,"Ġreason":2679,"Ġey":2680,"ki":2681,"Ġmaterial":2682,"Ġham":2683,"Ġcut":2684,"Ġeight":2685,"ari":2686,"Ġgoing":2687,"bel":2688,"Ġprofessional":2689,"time":2690,"Ġstorm":2691,"Ġseasons":2692,"ires":2693,"ux":2694,"Ġnetwork":2695,"Ġborder":2696,"Ġminist":2697,"utch":2698,"iger":2699,"Ġpenn":2700,"see":2701,"news":2702,"Ġcard":2703,"net":2704,"Ġturk":2705,"Ġfederal":2706,"sel":2707,"bor":2708,"roy":2709,"Ġmac":2710,"ification":2711,"Ġpap":2712,"Ġfoc":2713,"Ġpossible":2714,"Ġimp":2715,"Ġ1993":2716,"Ġcarolina":2717,"Ġice":2718,"Ġlaun":2719,"elling":2720,"Ġcoll":2721,"Ġidea":2722,"raw":2723,"Ġrepublican":2724,"Ġsecretary":2725,"Ġpolic":2726,"Ġprevious":2727,"ador":2728,"ga":2729,"Ġlower":2730,"ole":2731,"isl":2732,"Ġbud":2733,"Ġservices":2734,"Ġinside":2735,"Ġrelated":2736,"Ġjersey":2737,"Ġdoct":2738,"Ġwriting":2739,"Ġavailable":2740,"ique":2741,"Ġprob":2742,"ples":2743,"wood":2744,"aign":2745,"Ġparents":2746,"craft":2747,"Ġta":2748,"Ġcost":2749,"ters":2750,"Ġinterest":2751,"iate":2752,"ournal":2753,"Ġhighest":2754,"Ġplant":2755,"dr":2756,"ĠâĢĵ":2757,"Ġpract":2758,"Ġimpro":2759,"aust":2760,"reen":2761,"Ġoutside":2762,"Ġtowns":2763,"Ã¤":2764,"Ġcannot":2765,"ii":2766,"field":2767,"Ġmeth":2768,"ivid":2769,"Ġpay":2770,"hol":2771,"Ġtropical":2772,"aries":2773,"ological":2774,"Ġdig":2775,"Ġgoes":2776,"enc":2777,"Ġour":2778,"Ġsenate":2779,"Ġchart":2780,"Ġoriginally":2781,"Ġmatches":2782,"Â°":2783,"Ġdanger":2784,"owa":2785,"Ġmont":2786,"Ġsomething":2787,"70":2788,"Ġfriends":2789,"val":2790,"Ġshown":2791,"rew":2792,"Ġsant":2793,"sportspeople":2794,"ado":2795,"Ġmc":2796,"ush":2797,"Ġca":2798,"Ġremov":2799,"thing":2800,"Ġmunicipality":2801,"Ġleaders":2802,"Ġfinished":2803,"Ġallowed":2804,"Ġspanish":2805,"Ġchair":2806,"Ġok":2807,"Ġsoon":2808,"leg":2809,"Ġhurrican":2810,"Ġdecl":2811,"Ġreact":2812,"Ġ40":2813,"oma":2814,"Ġnumbers":2815,"Ġinvest":2816,"Ġrepresentatives":2817,"Ġphot":2818,"eds":2819,"english":2820,"Ġsomeone":2821,"Ġcentre":2822,"movies":2823,"Ġrange":2824,"Ġchemical":2825,"Ġcomputer":2826,"Ġpot":2827,"Ġcatholic":2828,"Ġcampaign":2829,"Ġbelieve":2830,"Ġath":2831,"Ġpie":2832,"Ġprogram":2833,"Ġassemb":2834,"Ġcases":2835,"Ġcam":2836,"Ġprem":2837,"Ġfore":2838,"Ġgoal":2839,"anch":2840,"Ġactive":2841,"Ġfeatures":2842,"Ġbiography":2843,"Ġtor":2844,"Ġegypt":2845,"letes":2846,"sa":2847,"Ġmayor":2848,"har":2849,"Ġtakes":2850,"Ġfer":2851,"uments":2852,"Ġblood":2853,"Ġmissouri":2854,"Ġcolon":2855,"Ġcover":2856,"Ġislam":2857,"Ġsus":2858,"Ġ1991":2859,"Ã´":2860,"ope":2861,"Ġdiscuss":2862,"Ġexam":2863,"Ġemper":2864,"view":2865,"Ġgun":2866,"Ġdirected":2867,"Ġglob":2868,"erson":2869,"Ġchampion":2870,"Ġscot":2871,"Ġet":2872,"back":2873,"Ġsoft":2874,"ned":2875,"Ġtransport":2876,"ste":2877,"idents":2878,"Ġwinter":2879,"Ġrob":2880,"Ġnavig":2881,"Ġtravel":2882,"Ġbuildings":2883,"Ġgal":2884,"Ġindivid":2885,"Ġbroadcast":2886,"Ġplat":2887,"Ġinj":2888,"Ġnominated":2889,"Ġdebut":2890,"over":2891,"idence":2892,"Ġ186":2893,"Ġdiff":2894,"Ġaccount":2895,"viron":2896,"izations":2897,"Ġchampionships":2898,"Ġsinger":2899,"Ġcou":2900,"Ġsem":2901,"ready":2902,"Ġnorthwest":2903,"pa":2904,"Ġdark":2905,"eg":2906,"Ġmonth":2907,"known":2908,"ements":2909,"Ġcoach":2910,"Ġcontinued":2911,"ylv":2912,"Ġtourn":2913,"Ġreached":2914,"Ġatlant":2915,"Ġconstr":2916,"Ġrain":2917,"Ġtransl":2918,"Ġweek":2919,"Ġpriv":2920,"Ġjew":2921,"Ġliber":2922,"olk":2923,"book":2924,"ense":2925,"Ġmeters":2926,"Ġparticip":2927,"Ġlonger":2928,"ising":2929,"tar":2930,"Ġsand":2931,"ube":2932,"Ġappoint":2933,"elect":2934,"Ġitalian":2935,"Ġfig":2936,"ores":2937,"Ġartists":2938,"Ġiran":2939,"eration":2940,"Ġagre":2941,"Ġwriters":2942,"Ġchannel":2943,"wiki":2944,"Ġmetro":2945,"empt":2946,"Ġpoints":2947,"aged":2948,"Ġaff":2949,"Ġmeas":2950,"Ġsize":2951,"Ġarrest":2952,"Ġproduction":2953,"igan":2954,"Ġalready":2955,"Ġsystems":2956,"Ġdoc":2957,"Ġusers":2958,"Ġthom":2959,"Ġsaf":2960,"ylvania":2961,"wa":2962,"Ġmess":2963,"Ġmountain":2964,"Ġpow":2965,"\"]":2966,"Ġ--":2967,"Ġtv":2968,"Ġben":2969,"Ġdavid":2970,"Ġstad":2971,"rh":2972,"Ġmethod":2973,"Ġmountains":2974,"Ġbab":2975,"Ġiowa":2976,"Ġclear":2977,"Ġflag":2978,"Ġstructures":2979,"Ġbul":2980,"ny":2981,"Ġnative":2982,"Ġmach":2983,"asc":2984,"Ġprofessor":2985,"Ġsilver":2986,"Ġneeded":2987,"Ġparameter":2988,"Ġdyn":2989,"Ġfeature":2990,"Ġboy":2991,"Ġmedic":2992,"Ġrac":2993,"Ġfut":2994,"Ġproduc":2995,"Ġcharles":2996,"Ġboard":2997,"Ġregular":2998,"Ġvan":2999,"Ġrecorded":3000,"Ġstreet":3001,"Ġdestroy":3002,"Ġwil":3003,"Ġnations":3004,"use":3005,"Ġeth":3006,"Ġfeel":3007,"Ġcomedy":3008,"history":3009,"Ġfamil":3010,"Ġboxes":3011,"Ġwhy":3012,"mark":3013,"ental":3014,"Ġelectric":3015,"Ġsmaller":3016,"Ġenviron":3017,"Ġparticular":3018,"Ġmultiple":3019,"face":3020,"Ġkil":3021,"Ġocean":3022,"sylvania":3023,"Ġoh":3024,"Ġgar":3025,"Ġ1989":3026,"Ġhung":3027,"ify":3028,"vin":3029,"Ġfrancis":3030,"Ġhaut":3031,"Ġcontract":3032,"Ġassembly":3033,"Ġrank":3034,"Ġ1988":3035,"Ġgrew":3036,"ani":3037,"Ġquest":3038,"Ġschools":3039,"oph":3040,"Ġcele":3041,"oon":3042,"aps":3043,"Ġsaint":3044,"Ġkorea":3045,"Ġrefer":3046,"Ġperformed":3047,"umn":3048,"Ġmedical":3049,"Ġdrug":3050,"Ġgets":3051,"Ġpictures":3052,"british":3053,"Ġdog":3054,"Ġscored":3055,"adesh":3056,"Ġtar":3057,"ads":3058,"Ġmetal":3059,"Ġunderstand":3060,"Ġtal":3061,"Ġmodel":3062,"Ġvote":3063,"Ġretired":3064,"yr":3065,"arian":3066,"ificant":3067,"Ġmeaning":3068,"Ġsection":3069,"iated":3070,"airs":3071,"2010":3072,"Ġpit":3073,"Ġsuggest":3074,"Ġfort":3075,"itect":3076,"Ġarts":3077,"Ġkar":3078,"Ġhous":3079,"Ġmusical":3080,"Ġintroduced":3081,"Ġhus":3082,"etts":3083,"lor":3084,"men":3085,"Ġmuslim":3086,"Ġlog":3087,"Ġbelieved":3088,"iro":3089,"icult":3090,"Ġrule":3091,"Ġcontrib":3092,"Ġpan":3093,"Ġqueen":3094,"Ġaustralian":3095,"Ġappeared":3096,"Ġder":3097,"Ġtag":3098,"Ġgeorgia":3099,"Ġgreek":3100,"jo":3101,"onia":3102,"achus":3103,"90":3104,"ena":3105,"Ġteac":3106,"Ġemperor":3107,"Ġ188":3108,"Ġpresidential":3109,"Ġview":3110,"Ġeventually":3111,"Ġsat":3112,"Ġjob":3113,"Ġopt":3114,"Ġtenn":3115,"Ġforeign":3116,"bour":3117,"Ġsquare":3118,"Ġpennsylvania":3119,"ucle":3120,"Ġrevolution":3121,"Ġsweden":3122,"Ġcolumb":3123,"Ġvalley":3124,"Ġobs":3125,"Ġsignificant":3126,"dist":3127,"pres":3128,"Ġstadium":3129,"Ġmiles":3130,"Ġtechnology":3131,"Ġairport":3132,"Ġbrand":3133,"Ġowned":3134,"achusetts":3135,"Ġaccept":3136,"ulf":3137,"Ġdistributed":3138,"Ġalex":3139,"uz":3140,"put":3141,"ination":3142,"ends":3143,"Ġfrank":3144,"abit":3145,"Ġmurder":3146,"Ġtax":3147,"Ġvice":3148,"Ġmarket":3149,"ura":3150,"ca":3151,"Ġexcept":3152,"Ġmichael":3153,"Ġcommitte":3154,"Ġaud":3155,"Ġrobert":3156,"Ġcontent":3157,"',":3158,"ression":3159,"Ġwal":3160,"Ġfestival":3161,"Ġconserv":3162,"iding":3163,"Ġfa":3164,"oria":3165,"ights":3166,"Ġnotability":3167,"Ġaction":3168,"Ġoppos":3169,"Ġentertain":3170,"Ġrelease":3171,"categ":3172,"france":3173,"Ġdan":3174,"Ġbron":3175,"Ġgeography":3176,"Ġfourth":3177,"Ġlaws":3178,"Ġstep":3179,"Ġlegisl":3180,"Ġtried":3181,"ston":3182,"Ġban":3183,"Ġartist":3184,"Ġtable":3185,"Ġlarger":3186,"Ġclimate":3187,"Ġhurricane":3188,"Ġmicro":3189,"Ġspok":3190,"Ġvisit":3191,"ricts":3192,"atory":3193,"Ġjournal":3194,"Ġhappened":3195,"Ġbang":3196,"Ġaffect":3197,"Ġitself":3198,"Ġraised":3199,"Ġbott":3200,"hib":3201,"vill":3202,"Ġesc":3203,"uf":3204,"Ġ\\":3205,"Ġprobably":3206,"Ġgas":3207,"Ġmassachusetts":3208,"Ġattempt":3209,"Ã¨":3210,"Ġeggs":3211,"Ġvoice":3212,"Ġfc":3213,"Ġadult":3214,"Ġsoldiers":3215,"aur":3216,"Ġlay":3217,"Ġcontains":3218,"Ġbelow":3219,"Ġreligious":3220,"Ġshar":3221,"Ġoil":3222,"municipal":3223,"Ġdefeated":3224,"Ġinstitute":3225,"Ġhumans":3226,"Ġec":3227,"Ġindustry":3228,"bi":3229,"Ġly":3230,"Ġconstitution":3231,"Ġguitar":3232,"national":3233,"za":3234,"nam":3235,"Ġos":3236,"Ġlibr":3237,"hemat":3238,"Ġ1984":3239,"Ġcitiz":3240,"Ġbrought":3241,"Ġdesigned":3242,"Ġjoin":3243,"Ġthr":3244,"Ġwales":3245,"Ġresults":3246,"ply":3247,"selves":3248,"onom":3249,"Ġcell":3250,"Ġawarded":3251,"Ġarchitect":3252,"former":3253,"Ġthroughout":3254,"Ġscotland":3255,"Ġthemselves":3256,"Ġnhl":3257,"Ġcompetition":3258,"Ġwr":3259,"Ġtraditional":3260,"ensive":3261,"Ġhonor":3262,"ength":3263,"Ġseparate":3264,"Ġrelationship":3265,"Ġdifficult":3266,"Ġentire":3267,"Ġwinning":3268,"Ġreported":3269,"Ġenvironment":3270,"Ġleave":3271,"Ġbelg":3272,"Ġskin":3273,"iable":3274,"Ġorganization":3275,"Ġrather":3276,"oor":3277,"anned":3278,"Ġforest":3279,"Ġweb":3280,"Ġjun":3281,"Ġbc":3282,"box":3283,"Ġmusicians":3284,"municipalities":3285,"Ġtheory":3286,"Ġven":3287,"Ġcab":3288,"Ġbeginning":3289,"Ġprinc":3290,"Ġtim":3291,"upt":3292,"da":3293,"Ġnar":3294,"Ġforms":3295,"Ġhigher":3296,"Ġlad":3297,"iga":3298,"Ġhind":3299,"pose":3300,"Ġdegree":3301,"Ġhyd":3302,"Ġdrama":3303,"Ġnick":3304,"Ġconduct":3305,"olf":3306,"Ġkansas":3307,"Ġcovid":3308,"Ġdisplay":3309,"Ġamb":3310,"Ġinit":3311,"hood":3312,"Ġbeat":3313,"Ġstations":3314,"Ġ187":3315,"Ġhenry":3316,"Ġpac":3317,"utions":3318,"Ġelections":3319,"Ġfly":3320,"Ġburn":3321,"Ġpeter":3322,"Ġsouthwest":3323,"Ġfuture":3324,"Ġtrue":3325,"Ġscott":3326,"reat":3327,"Ġusage":3328,"Ġdescribed":3329,"Ġfurther":3330,"uries":3331,"Ġappointed":3332,"Ġcommittee":3333,"Ġid":3334,"ua":3335,"Ġtry":3336,"Ġshoot":3337,"riage":3338,"Ġrules":3339,"zerland":3340,"Ġspread":3341,"Ġ1950":3342,"urity":3343,"igned":3344,"Ġsom":3345,"Ġstandard":3346,"Ġukrain":3347,"Ġnavigational":3348,"Ġohio":3349,"Ġsport":3350,"Ġdiscovered":3351,"Ġnortheast":3352,"Ġphilos":3353,"Ġcirc":3354,"Ġproblem":3355,"Ġquickly":3356,"2021":3357,"hire":3358,"Ġpsy":3359,"Ġemer":3360,"Ġstudies":3361,"Ġbow":3362,"Ġbritain":3363,"win":3364,"Ġtom":3365,"Ġminor":3366,"Ġkr":3367,"Ġtold":3368,"Ġfamilies":3369,"Ġrailway":3370,"inet":3371,"Ġtournament":3372,"35":3373,"Ġ1987":3374,"Ġdie":3375,"Ġtrade":3376,"Ġcelebr":3377,"met":3378,"enced":3379,"Ġjose":3380,"Ġcauses":3381,"Ġbridge":3382,"Ġolder":3383,"ios":3384,"ploy":3385,"reg":3386,"hold":3387,"Ġcorn":3388,"Ġjer":3389,"Ġassist":3390,"Ġphilipp":3391,"Ġfrogs":3392,"oo":3393,"Ġkent":3394,"Ġprince":3395,"ketball":3396,"Ġoffer":3397,"Ġlinks":3398,"Ġdeal":3399,"Ġol":3400,"Ġpoland":3401,"Ġsister":3402,"iences":3403,"Ġnucle":3404,"ini":3405,"Ġcommission":3406,"Ġic":3407,"Ġach":3408,"Ġinvolved":3409,"Ġwalk":3410,"Ġsout":3411,"Ġideas":3412,"shire":3413,"Ġdraft":3414,"Ġtheat":3415,"Ġhaw":3416,"Ġasian":3417,"Ġimm":3418,"Ġrichard":3419,"Ġreally":3420,"Ġ1986":3421,"Ġprimary":3422,"Ġselected":3423,"ev":3424,"ipur":3425,"Ġtrump":3426,"don":3427,"Ġ;":3428,"build":3429,"Ġactor":3430,"Ġgenerally":3431,"Ġroll":3432,"45":3433,"Ġ185":3434,"Ġvalue":3435,"Ġdom":3436,"Ġswitzerland":3437,"wikipedia":3438,"ails":3439,"awa":3440,"Ġbecoming":3441,"Ġsupported":3442,"ffer":3443,"Ġmax":3444,"ograph":3445,"ving":3446,"Ġkept":3447,"organ":3448,"37":3449,"Ġmathemat":3450,"Ġfifa":3451,"Ġprivate":3452,"nesota":3453,"Ġpeace":3454,"}}":3455,"igr":3456,"board":3457,"Ġepisode":3458,"Ġtrain":3459,"Ġprefect":3460,"ishop":3461,"Ġwild":3462,"Ġ1972":3463,"Ġoldest":3464,"Ġheavy":3465,"Ġcommer":3466,"Ġ1979":3467,"Ġfollowed":3468,"Ġways":3469,"Ġdecade":3470,"Ġportug":3471,"Ġprograms":3472,"Ġaircraft":3473,"Ġfair":3474,"ential":3475,"Ġmichigan":3476,"ano":3477,"Ġhusband":3478,"Ġneeds":3479,"uge":3480,"ises":3481,"utive":3482,"ils":3483,"Ġcycl":3484,"Ġwars":3485,"bus":3486,"Ġfast":3487,"Ġ:::":3488,"gu":3489,"reme":3490,"Ġargent":3491,"Ġeconomic":3492,"ilities":3493,"Ġflow":3494,"Ġexamples":3495,"Ġpick":3496,"ali":3497,"Ġshr":3498,"Ġneg":3499,"Ġ1976":3500,"ream":3501,"Ġmr":3502,"ima":3503,"Ġyellow":3504,"ogle":3505,"Ġlie":3506,"uty":3507,"Ġcritic":3508,"Ġrh":3509,"andal":3510,"Ġwebsite":3511,"ray":3512,"Ġconfl":3513,"Ġnote":3514,"Ġdynast":3515,"Ġsearch":3516,"Ġtemperature":3517,"Ġspl":3518,"ricket":3519,"Ġlikely":3520,"ounds":3521,"villages":3522,"Ġcrime":3523,"Ġissues":3524,"langu":3525,"Ġnotes":3526,"ask":3527,"Ġlee":3528,"Ġago":3529,"Ġbehind":3530,"rect":3531,"Ġstories":3532,"sol":3533,"Ġpoor":3534,"Ġgives":3535,"Ġfox":3536,"Ġpsych":3537,"Ġwinners":3538,"Ġwindows":3539,"Ġterms":3540,"wan":3541,"orial":3542,"Ġhours":3543,"Ġ1981":3544,"Ġdesp":3545,"rd":3546,"wide":3547,"orders":3548,"Ġgirl":3549,"Ġgh":3550,"Ġforests":3551,"Ġolympic":3552,"Ġreach":3553,"Ġshot":3554,"uke":3555,"Ġsingers":3556,"Ġwrite":3557,"bit":3558,"Ġlegal":3559,"county":3560,"Ġspent":3561,"Ġfeet":3562,"Ġstarting":3563,"Ġbasketball":3564,"war":3565,"aska":3566,"Ġcomplex":3567,"Ġneigh":3568,"âĢĶ":3569,"estab":3570,"vert":3571,"Ġcultural":3572,"Ġbelong":3573,"Ġrespons":3574,"Ġ1983":3575,"Ġmah":3576,"Ġcer":3577,"Ġrepresented":3578,"Ġbackground":3579,"Ġdoesn":3580,"Ġbottom":3581,"03":3582,"oral":3583,"Ġpas":3584,"Ġgard":3585,"Ġself":3586,"Ġmention":3587,"gar":3588,"oid":3589,"Ġcovered":3590,"Ġrespect":3591,"Ġasked":3592,"Ġlength":3593,"Ġremoved":3594,"apt":3595,"ita":3596,"cont":3597,"Ġleading":3598,"Ġthomas":3599,"fin":3600,"Ġjewish":3601,"'m":3602,"Ġtrees":3603,"Ġteach":3604,"Ġreligion":3605,"ping":3606,"Ġoccur":3607,"aded":3608,"39":3609,"Ġ1985":3610,"Ġrang":3611,"anded":3612,"Ġmanager":3613,"Ġsure":3614,"athletes":3615,"Ġkm":3616,"ousand":3617,"Ġplease":3618,"Ġprogramm":3619,"Ġdeep":3620,"Ġweap":3621,"Ġsett":3622,"48":3623,"Ġsmith":3624,"Ġhappen":3625,"df":3626,"Ġho":3627,"Ġspring":3628,"47":3629,"Ġfocus":3630,"Ġ1982":3631,"Ġactually":3632,"Ġspeed":3633,"Ġsurround":3634,"Ġ1974":3635,"Ġdomin":3636,"].":3637,"Ġmarriage":3638,"Ġphilosop":3639,"Ġlatin":3640,"Ġdance":3641,"Ġrunning":3642,"Ġminnesota":3643,"Ġthousand":3644,"sec":3645,"Ġdoing":3646,"Ġruns":3647,"Ġcells":3648,"Ġrome":3649,"Ġplaced":3650,"Ġsecurity":3651,"Ġtaking":3652,"Ġlines":3653,"2022":3654,"Ġcanadian":3655,"Ġnine":3656,"Ġ60":3657,"istics":3658,"geography":3659,"Ġsurface":3660,"rem":3661,"Ġfal":3662,"Ġface":3663,"ields":3664,"ume":3665,"Ġwhole":3666,"Ġsuffer":3667,"Ġfame":3668,"actors":3669,"Ġtall":3670,"Ġkilomet":3671,"Ġfle":3672,"Ġleaves":3673,"Ġtells":3674,"Ġwear":3675,"Ġstan":3676,"uff":3677,"sing":3678,"wer":3679,"Ġindependence":3680,"Ġacting":3681,"ucky":3682,"Ġlisted":3683,"38":3684,"bre":3685,"Ġsyn":3686,"Ġcook":3687,"Ġsar":3688,"Ġrivers":3689,"Ġstopped":3690,"Ġenc":3691,"stein":3692,"agn":3693,"Ġswim":3694,"Ġ::":3695,"erve":3696,"Ġsquad":3697,"bro":3698,"Ġpolicy":3699,"2000":3700,"Ġentertainment":3701,"law":3702,"isions":3703,"Ġ1968":3704,"alymp":3705,"agon":3706,"Ġetc":3707,"Ġanti":3708,"Ġbehav":3709,"Ġsexual":3710,"Ġliterature":3711,"Ġtell":3712,"ett":3713,"Ġdutch":3714,"riz":3715,"Ġcheck":3716,"Ġcontest":3717,"Ġwrestling":3718,"Ġdespite":3719,"Ġspir":3720,"oston":3721,"born":3722,"Ġaccident":3723,"Ġvehic":3724,"Ġjackson":3725,"Ġcolumbia":3726,"li":3727,"Ġtree":3728,"je":3729,"Ġwide":3730,"iter":3731,"Ġgetting":3732,"ctions":3733,"Ġpassed":3734,"Ġnaz":3735,"Ġearlier":3736,"Ġnation":3737,"Ġgramm":3738,"Ġ80":3739,"Ġconfir":3740,"36":3741,"Ġcust":3742,"Ġlouisiana":3743,"ris":3744,"Ġwhether":3745,"Ġtun":3746,"Ġnature":3747,"Ġcandidate":3748,"Ġbiggest":3749,"Ġclubs":3750,"Ġlabor":3751,"Ġhauts":3752,"ola":3753,"aka":3754,"Ġenem":3755,"zech":3756,"Ġlibrary":3757,"Ġviet":3758,",\"":3759,"gov":3760,"pal":3761,"bt":3762,"lav":3763,"Ġmaster":3764,"hr":3765,"Ġsingles":3766,"Ġconv":3767,"Ġcarbon":3768,"Ġspecific":3769,"Ġapps":3770,"46":3771,"Ġdestroyed":3772,"jan":3773,"Ġfailure":3774,"din":3775,"Ġlord":3776,"Ġcold":3777,"Ġcart":3778,"Ġonline":3779,"uation":3780,"Ġbit":3781,"anda":3782,"Ġfarm":3783,"Ġanimal":3784,"french":3785,"iy":3786,"world":3787,"aker":3788,"Ġcub":3789,"Ġministers":3790,"ault":3791,"Ġnormal":3792,"Ġlaunched":3793,"Ġ1978":3794,"Ġjustice":3795,"ounder":3796,"eters":3797,"Ġbrain":3798,"sex":3799,"ja":3800,"cel":3801,"Ġforced":3802,"Ġpred":3803,"chester":3804,"Ġfought":3805,"Ġpolitics":3806,"Ġyouth":3807,"Ġdivided":3808,"...":3809,"german":3810,"ken":3811,"football":3812,"Ġhistorical":3813,"Ġplot":3814,"teen":3815,"Ġdocument":3816,"ician":3817,"Ġfund":3818,"Ġgall":3819,"Ġperformance":3820,"Ġturned":3821,"mir":3822,"ourg":3823,"elled":3824,"Ġachie":3825,"Ġapart":3826,"Ġdynasty":3827,"Ġwiki":3828,"Ġ1964":3829,"Ġdamage":3830,"rial":3831,"where":3832,"Ġger":3833,"Ġmanipur":3834,"Ġprin":3835,"Ġ1975":3836,"Ġcricket":3837,"Ġfix":3838,"Ġupper":3839,"Ġslow":3840,"Ġott":3841,"Ã³n":3842,"Ġprefecture":3843,"Ġreviews":3844,"ties":3845,"Ġbronze":3846,"Ġelev":3847,"Ġstock":3848,"tÃ©":3849,"Ġmunicipalities":3850,"Ġpacific":3851,"Ġfighting":3852,"Ġsoftware":3853,"adel":3854,"Ġtowards":3855,"Ġinvent":3856,"Ġsubst":3857,"Ġmu":3858,"lah":3859,"ero":3860,"artic":3861,"Ġclosed":3862,"ati":3863,"Ġsav":3864,"odies":3865,"aking":3866,"Ġplatform":3867,"Ġroute":3868,"Ġchap":3869,"Ġevidence":3870,"99":3871,"fs":3872,"heim":3873,"ceed":3874,"head":3875,"Ġmir":3876,"07":3877,"any":3878,"Ġorche":3879,"Ġbecomes":3880,"Ġscreen":3881,"tic":3882,"Ġess":3883,"Ġmedicine":3884,"Ġhop":3885,"Ġsymbol":3886,"Ġ1973":3887,"tit":3888,"Ġstone":3889,"akh":3890,"aches":3891,"imb":3892,"ders":3893,"Â²":3894,"bridge":3895,"Ġnearby":3896,"Ġmerged":3897,"Ġboston":3898,"Ġmeant":3899,"Ġpowerful":3900,"ship":3901,"Ġchairman":3902,"Ġbirds":3903,"Ġ90":3904,"Ġbaseball":3905,"Ġelse":3906,"Ġphilippines":3907,"Åį":3908,"Ġloss":3909,"Ġprevent":3910,"Ġgolden":3911,"enna":3912,"Ġpian":3913,"Ġfunction":3914,"establishments":3915,"Ġinvestig":3916,"yers":3917,"Ġfav":3918,"Ġ1971":3919,"rick":3920,"Ġbring":3921,"inct":3922,"Ġcitizens":3923,"Ġatlantic":3924,"Ġcommunic":3925,"33":3926,"Ġinternet":3927,"Ġoxford":3928,"cher":3929,"Ġadministration":3930,"Ġfoot":3931,"istry":3932,"sen":3933,"politan":3934,"Ġram":3935,"Ġdoctor":3936,"Ġhund":3937,"Ġcamer":3938,"asion":3939,"Ġpand":3940,"ift":3941,"Ġchall":3942,"Ġweather":3943,"Ġformat":3944,"chan":3945,"Ġparties":3946,"Ġruled":3947,"Ġstructure":3948,"Ġofficer":3949,"lahoma":3950,"nor":3951,"ictional":3952,"Ġattract":3953,"Ġfrancisco":3954,"ote":3955,"Ġjews":3956,"Ġdar":3957,"bar":3958,"Ġsplit":3959,"Ġschol":3960,"Ġprotest":3961,"49":3962,"Ġba":3963,"Ġheadqu":3964,"Ġprincip":3965,"Ġberlin":3966,"Ġdirectors":3967,"Ġ1977":3968,"Ġtemple":3969,"Ġcontroll":3970,"Ġadop":3971,"Ġelectron":3972,"obile":3973,"Ġemploy":3974,"car":3975,"Ġtraining":3976,"Ġfoundation":3977,"Ġstatus":3978,"do":3979,"Ġregions":3980,"Ġ1969":3981,"Ġcritics":3982,"Ġrecent":3983,"Ġstudio":3984,"stra":3985,"Ġstaff":3986,"Ġdu":3987,"Ġbillion":3988,"Ġeconomy":3989,"55":3990,"ng":3991,"Ġactress":3992,"Ġgraduated":3993,"Ġunits":3994,"name":3995,"compan":3996,"govern":3997,"Ġyet":3998,"Ġbelgium":3999,"itz":4000,"Ġmajority":4001,"Ġjes":4002,"lab":4003,"Ġbomb":4004,"Ġpoet":4005,"Ġkid":4006,"Ġindividual":4007,"Ġcommerc":4008,"Ġweeks":4009,"Ġofficially":4010,"Ġmole":4011,"iant":4012,"Ġmagaz":4013,"Ġrare":4014,"Ġmoving":4015,"Ġiv":4016,"Ġfreed":4017,"Ġturkey":4018,"uefa":4019,"Ġhat":4020,"Ġbeg":4021,"Ġstra":4022,"last":4023,"Ġtwent":4024,"],":4025,"Ġrat":4026,"change":4027,"01":4028,"Ġ1967":4029,"abama":4030,"Ġkenn":4031,"pre":4032,"Ġhelps":4033,"Ġargentina":4034,"rid":4035,"Ġvoc":4036,"Ġpaint":4037,"ippi":4038,"Ġniger":4039,"Ġrequest":4040,"Ġtherefore":4041,"sk":4042,"Ġelements":4043,"Ġwa":4044,"emic":4045,"Ġdisney":4046,"Ġmartin":4047,"Ġproducts":4048,"euro":4049,"zo":4050,"Ġcommunities":4051,"video":4052,"Ġak":4053,"Ġreference":4054,"cycl":4055,"Ġcarry":4056,"2019":4057,"Ġconference":4058,"ills":4059,"Ġnearly":4060,"ims":4061,"Ġcharge":4062,"type":4063,"Ġinh":4064,"iment":4065,"Ġamericans":4066,"Ġcorpor":4067,"gal":4068,"Ġfinally":4069,"Ġreve":4070,"istic":4071,"Ġaustrian":4072,"Ġoccupation":4073,"Ã´ne":4074,"Ġorganizations":4075,"Ġformula":4076,"ias":4077,"Ġinfect":4078,"arters":4079,"Ġstudent":4080,"Ġpil":4081,"Ġelectr":4082,"Ġlimited":4083,"Ġrot":4084,"Ġ35":4085,"Ġsoutheast":4086,"Ġdidn":4087,"Ġexecutive":4088,"Ġherit":4089,"Ġpositive":4090,"Ġraj":4091,"Ġtrying":4092,"onic":4093,"ocr":4094,"Ġnewsp":4095},"merges":["Ġ t","h e","Ġ a","i n","Ġt he","e r","Ġ c","o r","Ġ s","a t","o n","r e","Ġ w","a n","i s","Ġ b","e s","e n","Ġ o","e d","i t","Ġ in","Ġ f","Ġ p","Ġ m","a r","a l","Ġa n","Ġo f","a s","Ġ d","i c","Ġ h","r o","Ġan d","l e","in g","Ġt o","at e","Ġ n","o u","i on","Ġ l","or y","ate g","Ġc ateg","Ġcateg ory","Ġ g","Ġ re","a m","en t","Ġ is","i l","u s","Ġt h","Ġ he","Ġ e","o m","Ġ 1","Ġw as","u n","Ġ it","2 0","Ġb e","Ġ on","o l","a d","s t","Ġs t","a c","Ġf or","o t","i r","i v","e l","i d","u r","er s","e t","i m","a y","Ġ 20","l y","c t","u t","at ion","i g","o p","o w","t h","e m","Ġa l","Ġa s","ro m","is t","Ġ r","Ġ j","c h","Ġ k","Ġ v","Ġ1 9","Ġd e","a g","Ġf rom","an d","c e","es t","it h","Ġc h","u l","he r","Ġ (","Ġa t","o v","Ġb y","i es","t er","Ġs e","Ġw ith","Ġa re","Ġ un","i a","a v","ou n","u m","i f","Ġth at","ar t","Ġw h","c es","o s","a in","a p","Ġ y","Ġc on","f er","Ġp l","i an","Ġ or","Ġc om","a b","b er","o d","a k","Ġn e","h t","it y","l d","al l","il l","u p","re s","p e","Ġ us","' s","Ġh is","Ġp ro","r i","Ġ le","Ġth is","op le","o c","v er","Ġ \"","Ġp e","am e","Ġ20 1","or t","m ent","Ġthe y","Ġa r","Ġn ot","i p","is h","fer en","Ġs h","s e","Ġw or","an t","u d","Ġpe ople","Ġre feren","g e","s o","on g","q u","Ġreferen ces","u b","ar d","Ġs he","av e","Ġh as","Ġ en","or e","ic h","i e","Ġal so","Ġt e","er e","ar y","Ġe x","Ġ 2","Ġc an","t her","as t","oun t","iv e","Ġa b","us t","Ġa f","o st","u g","Ġt r","1 9","at ed","Ġw ere","i k","Ġm an","ou r","Ġ ro","Ġ20 0","Ġbe c","Ġw he","o g","Ġpl ay","p l","om e","i re","Ġh ave","at es","0 0","Ġp art","ag e","ou t","i al","r it","u re","ig ht","e ar","at h","an g","Ġc l","ac k","Ġthe re","el l","Ġne w","Ġf ir","m er","ion s","o k","Ġo ther","a re","ic al","Ġon e","or n","Ġfir st","em ber","Ġm ar","in e","p ort","id e","d er","it ed","Ġ i","Ġb ut","u c","Ġcom p","Ġwh ich","ation al","ic an","l and","ow n","Ġaf ter","p t","â Ģ","c l","Ġc ount","Ġa d","i ed","er n","es s","e ct","im e","r a","Ġhe r","r y","Ġm ov","an s","Ġh ad","ou ld","Ġthe ir","Ġal l","u e","Ġs c","Ġy ear","en d","an ce","Ġa p","ad e","Ġs p","Ġa g","at er","as s","ou s","Ġit s","Ġm e","or s","ic e","Ġt w","a us","i z","Ġ 3","t s","Ġs er",") .","or d","Ġa c","Ġab out","Ġ !","Ġb ir","t o","re n","am p","on d","oun d","Ġun ited","Ġin d","ac e","Ġc ol","Ġcon t","Ġwhe n","al ly","Ġp r","Ġman y","n e","Ġd is","Ġf r","le ct","Ġwh o","k s","un d","ac h","Ġ19 9","ac t","p er","m an","Ġw e","re e","en s","Ġst ates","Ġs ome","Ġd o","Ġ20 2","on e","r ic","ig n","th s","in d","w n","Ġa ct","Ġm ost","ul t","o od","Ġp res","t e","Ġf e","Ġp ar","Ġus ed","Ġ im","Ġg ro","Ġcom m","il d","a w","Ġp ol","c om","Ġn or","l es","l ish","w w","Ġtw o","Ġm ay","Ġ1 8","Ġde ath","ak e","Ġk n","Ġb o","Ġe v","i b","Ġc ent","ation s","u ch","w e","ic s","ing s","Ġm ade","Ġwor ld","Ġm us","Ġar t","id ent","Ġm ore","it ies","Ġn ational","ment s","iv ers","Ġbir ths","Ġ up","Ġb l","Ġs o","Ġbe en","Ġc ity","ist s","Ġt ime","Ġp er","al s","cl ud","aus e","Ġf l","Ġb orn","he d","ur ing","Ġs ou","Ġre s","Ġc all","ou g","Ġg r","Ġwor k","Ġb r","b s","ik e","f or","er y","it e","ol d","Ġj o","Ġ 4","Ġp op","p s","Ġte am","Ġl iv","Ġin clud","Ġs pe","as ed","i le","Ġre g","ian s","Ġd ied","a il","Ġthe m","Ġo ver","Ġo ut","Ġp h","Ġf ound","Ġw ar","Ġin ter","t en","am es","Ġm in","Ġe ar","Ġ qu","in ce","Ġs y","Ġin to","Ġen g","en ce","m p","it ion","w ard","Ġ19 8","Ġd uring","Ġbec ame","Ġbe t","Ġre c","Ġc o","on s","Ġse c","Ġp re","Ġde c","Ġn um","Ġ est","Ġa mer","Ġw ill","Ġ 5","/ /","a h","v ed","ub l","u ary","Ġ ed","Ġon ly",": //","Ġc ar","g an","Ġc re","ay s","Ġbec ause","as e","Ġg o","u ct","os e","Ġof f","f f","Ġyear s","Ġcall ed","is s","Ġh ow","Ġe lect","f t","Ġg en","Ġs ong",") ,","ug h","Ġun ivers","ht t","ab le","Ġ if","Ġde p","ent s","Ġnor th","Ġn o","Ġa m","Ġth an","Ġplay ed","ur n","i o","Ġb ro","Ġthe se","Ġh im","Ġpop ul","Ġb u","Ġre p","if e","r al","ov ern","Ġs ch","Ġt em","v el","Ġ19 7","ur y","Ġl ike","Ġsou th","is ion","Ġf am","Ġd if","b r","Ġw ould","e y","Ġbe l","Ġd es","Ġst art","Ġs up","c he","Ġh ist","Ġre t","ic t","h ip","Ġg re","Ġkn own","e p","b all","ces s","Ġthe n","ic k","Ġg overn","Ġfor m","Ġm ed","Ġag ain","ig h","o ot","Ġdeath s","Ġat t","Ġs a","Ġ 6","Ġd ist","u ro","Ġgro up","Ġl ar","Ġ 8","we en","Ġm et","Ġ z","Ġy ou","Ġ 7","Ġnum ber","Ġs m","Ġst ate","Ġbet ween","Ġm on","Ġwhe re","o ol","Ġch ar","Ġcount y","in t","for m","Ġd r","or k","Ġl ater","Ġw on","Ġp ers","Ġst ud","am er","Ġn ame","Ġre l","p h","Ġk ing","Ġus e","Ġunivers ity","Ġest ab","res s","v e","Ġc ap","Ġ19 6","im es","f ore","t le","âĢ ĵ","Ġun der","Ġ20 20","in k","Ġhe l","t he","Ġv ery","ol og","t il","Ġmus ic","t on","Ġs ing","Ġpres ident","1 8","ot h","Ġas s","ro und","il y","oc k","Ġm ain","Ġf in","d e","ag es","Ġart ic","Ġfr ance","Ġen d","r ap","u ally","i x","Ġo p","u k","\" .","Ġun til","Ġt er","Ġth ro","Ġp o","Ġs uch","Ġw est","o b","Ġc al","Ġl ong","Ġre le","Ġw rit","ri b","i ent","Ġst r","Ġsh ow","Ġa ust","oug h","le t","in es","iv ing","in a","Ġl oc","Ġm at","Ġdif fer","is m","Ġspe c","Ġj an","a z","Ã ©","le v","ot her","it al","Ġth ree","Ġ 9","Ġbe fore","Ġg u","er ed","a j","at her","er man","Ġe uro","Ġdiffer ent","in s","amer ican","Ġsec ond","Ġl ife","an c","Ġa ge","Ġcon s","as on","al e","Ġc are","Ġs ince","am ed","lish ments","Ġpro d","Ġpers on","al k","h y","u res","Ġsch ool","ww w","Ġan y","Ġpart y","ar s","Ġamer ican","Ġhist ory","Ġde f","i ous","c k","w ay","Ġthro ugh","ire ct","Ġm ake","el y","Ġare a","Ġs ub","Ġa ward","Ġg ames","Ġpro v","ap an","ol l","Ġs im","an k","Ġm ember","Ġtem pl","m s","us s","Ġpol it","a ir","00 0","Ġs w","Ġin st","pe ople","e ver","Ġch ild","er al","i et","er t","ang u","Ġb ack","Ġbe ing","Ġg et","un e","Ġc he","om et","at ive","c ed","ag ue","Ġl o","ou se","Ġc r","Ġw om","ro g","Ġw in","an n","Ġg e","Ġm od","Ġs ame","Ġa ir","Ġad d","Ġdep art","Ġw ell","Ġn ov","y s","og rap","Ġch amp","en n","Ġestab lishments","Ġac c","Ġreg ion","oot ball","ri ed","em b","at ing","Ġjan uary","Ġle ad","l l","Ġeuro pe","ow er","i el","\" ,","Ġin v","Ġh igh","u al","ic a","Ġd id","p ro","Ġo ld","Ġy ork","Ġ1 7","s s","Ġg erman","Ġre m","Ġe m","ubl ic","Ġ19 5","if ic","Ġ1 0","Ġf our","Ġb oth","j ect","Ġser ies","is hed","en g","Ġs et","Ġwh ile","Ġd irect","Ġtr ans","Ġj apan","Ġ ent","Ġhow ever","i er","lev ision","Ġstart ed","g r","Ġinter n","Ġb rit","Ġs ur","m un","Ġagain st","b le","an ge","Ġcomp an","Ġdepart ment","Ġe ver","g est","Ġrec ord","Ġof ten","a i","Ġm il","iv er","Ġear ly","it s","Ġt y","Ġn amed","Ġsm all","at s","Ġsong s","i um","' t","Ġpopul ation","d s","l iving","âĢ Ļ","w s","Ġ1 5","st em","x t","f l","ic ians","Ġhel p","Ġj u","p le","Ġrele ased","Ġe ach","Ġle ague","Ġ! !","Ġgovern ment","Ġs oc","ain s","ant s","Ġo wn","Ġal b","Ġs l","Ġw ater","Ġcare er","ist er","Ġm ak","i am","f ul","Ġl angu","as h","Ġmov ie","20 1","Ġto wn","le y","Ġte levision","Ġf ootball","on t","Ġsy stem","Ġc ur","ric t","Ġmov ies","el s","Ġp os","Ġcent ury","Ġ :","Ġ .","Ġar m","Ġj ust","htt ps","Ġfam ily","Ġc ould","ut ion","Ġsa id","Ġ -","ed ia","Ġcount ry","em ent","Ġa round","Ġliv ed","Ġ19 4","Ġs k","b o","h n","Ġcl ub","re d","Ġ1 6","port s","Ġmar ch","Ġne ar","Ġ u","Ġse ver","Ġis land","Ġpl ace","Ġa ug","Ġl and","Ġl aw","Ġartic le","Ġh ouse","or g","n ing","t y","r ies","Ġre d","Ġo ct","Ġg ame","pt ember","m in","ar ch","as ter","Ġbo ok","bs p","n bsp","Ġ rom","c c","d om","Ġser v","Ġaug ust","ic ip","o ber","at ure","Ġh um","is e","Ġse ptember","p ol","Ġr ight","ens us","Ġs ign","Ġse ason","htt p","g et","oll ow","Ġw ik","ap p","ig in","Ġl a","Ġm ill","c o","Ġa ut","Ġchamp ions","Ġcomm un","Ġd em","Ġwh at",". [","t ing","Ġim port","Ġoct ober","ar k","vel op","Ġaust ral","Ġju ly","Ġne ed","ut e","ire d","g er","Ġh ome","Ġ1 2","Ġdis c","Ġf ollow","olog y","iv es","Ġe ast","Ġn ow","Ġus ually","Ġdec ember","z e","Ġeng lish","Ġwom en","Ġb est","Ġv al","Ġj une","Ġoff ic","s h","r il","Ġs um","Ġk ill","Ġdo es","ac es","el f","Ġs omet","Ġinclud ing","Ġalb um","c ent","Ġm iss","ov e","Ġnov ember","ur al","Ġde velop","Ġle g","Ġsever al","Ġor gan","a x","c y","Ġbu ild","Ġr iver","ion al","Ġe l","Ġw ent","amp le","Ġintern ational","Ġor igin","Ġch ang","Ġin t","r at","Ġd iv","h ing","if orn","Ġb ar","Ġse e","Ġl ive","Ġcre ated","iforn ia","Ġc ov","Ġan n","Ġk e","Ġd ay","Ġf rog","Ġr un","Ġap pe","et s","Ġrep res","Ġbe gan","Ġev en","Ġap ril","Ġcal ifornia","p os","Ġchild ren","ur g","ren t","Ġ ir","Ġre v","Ġsh ould","Ġf il","Ġ '","ul l","am m","Ġle ft","Ġin c","Ġto p","com mun","Ġg ood","Ġpro t","Ġl ast","s on","Ġch r","Ġking dom","Ġl ist","Ġever y","ograp hy","Ġ201 0","u es","d ay","f r","iz ed","t ed","20 0","Ġw ay","Ġb us","Ġbrit ish","Ġhe ad","Ġ [","Ġb and","br uary","un g","ad a","Ġjo hn","Ġ1 4","in ed","Ġc ensus","c ities","Ġg l","Ġh ar","Ġt ak","Ġc ro","Ġimport ant","Ġcomp et","Ġb re","Ġb as","Ġan im","Ġ201 9","Ġan g","Ġfe bruary","et er","Ġt re","Ġex ample","Ġ1 1","od y","Ġm y","Ġb ased","Ġ1 3","Ġc or","st r","ul ar","Ġt it","Ġdist rict","oug ht","am a","Ġcompan y","Ġc up","ib le","Ġop en","il ity","Ġplay ers","Ġm aj","Ġs en","c on","n er","Ġ202 1","Ġrepres ent","Ġd own","Ġan other","s p","iv ed","Ġs our","ide o","emb ers","commun es","Ġm uch","Ġchampions hip","Ġ201 2","Ġm id","ond on","Ġst ill","Ġgre at","c er","Ġcomm on","che s","Ġ19 3","Ġb at","Ġl it","Ġlar ge","f ect","il t","Ġy oun","Ġmaj or","m e","Ġ es","Ġo ly","ce pt","Ġo b","Ġoly mp","Ġf ar","Ġs uc","Ġmin ister","a u","Ġv ar","Ġp age","Ġ201 1","are d","Ġo per","or ies","al y","Ġcont ro","Ġt imes","ow s","Ġa v","Ġn ort","Ġind ia","Ġn et","od e","Ġsup port","g in","Ġm o","Ġ201 8","ri e","Ġ201 7","Ġc our","Ġph il","it es","Ġamer ica","s ide","Ġex t","Ġcur rent","1 0","g y","Ġmov ed","Ġb ig","Ġj e","Ġt ro","Ġcount ries","Ġp ower","Ġl ondon","Ġmar ried","Ġo cc","Ġp ass","ren ch","Ġpro f","is on","Ġret urn","Ġc aus","re t","Ġd on","pol it","Ġw ant","in o","b e","es e","Ġv ers","Ġs on","Ġtempl ate","iel d","icip al","Ġlo ok","Ġf ather","Ġus ing","he s","Ġpopul ar","Ġp ort","ip edia","Ġc ult","Ġatt ack","Ġto ok","Ġs u","n a","Ġcap ital","Ġ201 6","Ġgen eral","Ġbl ack","ial ly","19 9","er v","Ġsc ient","om in","Ġlangu age","Ġbel ie","2 1","Ġ201 4","Ġp ublic","Ġ202 2","ot t","Ġth ir","Ġcont in","at a","id ed","Ġev ent","Ġb i","Ġaustral ia","al es","Ġmill ion","Ġchr ist","uc ed","Ġs ol","i ation","k et","Ġm embers","Ġgerman y","Ġst e","Ġsum mer","Ġ200 8","Ġr uss","ac ed","Ġi i","p ar","Ġl os","Ġp ri","Ġro ck","i ence","Ġcl ass","w est","in ess","ur ch","Ġ200 7","am s","Ġ201 3","Ġp at","b urg","s c","iv en","an e","ist an","Ġeng land","Ġbu ilt","Ġ201 5","Ġdes ign","Ġ200 9","a e","Ġm ount","uct ion","1 7","Ġre ce","Ġ x","Ġth ink","Ġhe re","re st","b y","id es","Ġex p","ical ly","Ġh app","it ary","Ġinclud e","Ġpro gr","ain ed","on es","Ġpar k","Ġwork ed","a f","Ġbec ome","l ing","Ġv ideo","l ed","uc k","Ġact ors","a ut","Ġcol le","Ġal ong","ad em","Ġ er","ie w","5 0","Ġc amp","as es",". .","Ġsomet imes","k e","Ġm un","Ġper form","ut c","Ġs old","Ġf ind","Ġser ved","Ġsh ort","o y","al th","v ent","Ġelect ion","Ġwh ite","Ġm er","ic o","ert ain","in c","Ġor der","Ġv i","Ġm en","o x","est s","ct ion","Ġc ame","Ġl ot","Ġs ix","Ġsuc cess","Ġg old","Ġse a","is ed","Ġfe w","an a","at or","Ġplay er","Ġfor mer","av ing","Ġprof ess","en e","Ġdes c","are n","Ġth ings","st er","ne y","Ġpro ble","Ġg od","ag o","y l","19 8","r ican","Ġle vel","Ġass oc","\" :","Ġb ody","qu e","Ġl ine","os p","il le","ic es","y n","Ġfound ed","Ġ }","Ġf ive","Ġ âĢ","Ġv ol","Ġ3 0","Ġm ag","Ġgr and","Ġpl aces","ri end","Ġm ass","Ġfam ous","i en","Ġs al","Ġd a","Ġar ch","pe ct","Ġg iven","Ġ 0","p es","Ã ¡","Ġg ot","Ġe p","re ad","Ġ200 6","1 2","on y","Ġme ans","Ġ ill","or ed","t t","ug ht","Ġarm y","Ġv ot","Ġwrit ten","ol y","Ġhum an","Ġf ood","Ġth ose","h am","ch n","g en","Ġgroup s","Ġsing le","Ġliv ing","oc rat","Ġv ir","Ġf em","Ġs ay","Ġf re","Ġr ad","Ġl ight",". \"","ac ter","Ġtr ad","Ġed uc","ip p","Ġ ide","an ia","Ġlar gest","Ġtit le","Ġse at","ut ed","Ġc le","Ġp rom","it ions","Ġc at","Ġp ut","Ġto get","Ġd el","Ġtoget her","Ġwe bs","ber t","Ġwor ks","19 7","Ġcan ada","Ġgen er","Ġspec ial","Ġs an","Ġman ag","Ġl ou","Ġe ff","Ġ2 5","Ġhe ld","Ġr ul","Ġ &","Ġe mp","Ġp al","Ġan t","Ġst and","con om","t alk","Ġsoc ial","1 6","Ġt ake","Ġliv es","Ġthir d","Ġcent er","iz e","Ġf rench","Ġartic les","Ġex pl","2 2","Ġh y","Ġpart s","19 4","Ġp a","Ġcon st","ep end","Ġv ill","Ġl ab","f ord","Ġst op","Ġcolle ge","Ġs ent","m ed","he n","Ġn av","Ġv is","il ar","Ġc oun","s et","Ġch urch","Ġcon d","Ġtempl ates","ri pt","e c","Ġap p","Ġse en","Ġyoun g","Ġ202 4","19 6","Ġcon n","Ġkn ow","Ġre st","Ġd ue","t al","y ing","Ġre qu","Ġre pl","Ġac adem","Ġprov ince","Ġun ion","Ġpres s","Ġmak ing","Ġret rie","i od","Ġcon f","p r","if ied","Ġp ain","19 3","or m","Ġ2 1","Ġne xt","v en","ar a","Ġde b","r ia","Ġh and","Ġl ed","Ġte x","Ġwith out","v es","Ġb or","Ġin form","um b","w ik","Ġed it","Ġm other","Ġre al","Ġcons id","Ġmil itary","Ġt urn","Ġad min","al d","ra ft","Ġpolit ical","Ġc rit","Ġpolit icians","Ġsim ilar","Ġscient ists","Ġs qu","Ġloc al","Ġann oun","Ġme x","Ġwik ipedia","Ġretrie ved","Ġind epend","n ot","Ġ2 4","one y","h an","Ġh ig","Ġkill ed","Ġt ur","ht m","p or","ric a","Ġolymp ics","Ġcent ral","Ġst re","Ġwest ern","ar n","Ġc op","Ġl i","y al","Ġch ange","Ġcol or","e x","Ġv ict","Ġear th","ro d","Ġe conom","Ġmun icipal","l o","Ġte chn","pl ay","Ġper iod","i or","ad es","her n","Ġe qu","land s","Ġoff ice","iv il","iv al","n ess","Ġprot ect","Ġqu e","Ġag ed","u le","Ġf riend","id s","Ġspec ies","Ġr a","Ġconn ect","Ġother s","Ġall ow","Ġmod ern","ter n","y le","ocrat ic","g ed","t own","Ġst ation","ro te","Ġind ian","Ġ202 3","Ġfil m","Ġbro ther","Ġ200 5","g ress","Ġbook s","Ġbus iness","1 5","end ed","Ġact iv","Ġme an","Ġ2 3","le x","Ġw ind","Ġh al","Ġn at","Ġth ought","Ġeurope an","Ġf ight","am b","Ġl ess","k a","p ed","ra z","Ġd ays","Ġpo int","u ed","Ġ uk","Ġad v","aster n","w h","Ġ200 0","Ġ2 2","Ġ200 4","Ġacc ord","Ġbo x","Ġrece ived","tle ments","e ad","Ġhist or","id ge","Ġas ia","r on","id a","Ġter rit","Ġw rote","r act","Ġa way","Ġch ina","Ġjo ined","m a","Ġs ide","Ġaf rica","Ġstr ong","av es","Ġst ar","m ost","Ġc y","Ġst ars","Ġre ad","ure d","Ġfollow ing","Ġrel ig","Ġex per","Ġfl or","a im","Ġang el","h or","Ġperson al","g o","Ġs il","im ate","Ġb er","Ġmak es","Ġcontro l","Ġnort hern","Ġgovern or","Ġm ust","Ġelect ed","en ed","h l","Ġ200 1","Ġm ich","w ays","Ġinform ation","Ġaward s","Ġn omin","Ġre f","Ġrep ublic","Ġh ard","Ġp ost","l ine","at ors","ie f","Ġph ys","ot s","Ġto tal","Ġloc ated","Ġmed al","Ġf un","Ġh ol","Ġp ubl","n d","Ġto day","l in","Ġst ory","Ġan c","Ġ202 5","Ġcour t","Ġsour ces","ur s","1 4","g es","Ġl ost","Ġtex as","Ġsec ret","Ġmat ch","Ġannoun ced","Ġar g","2 5","Ġre se","Ġrom an","Ġm al","Ġty pe","Ġaccord ing","Ġn on","Ġh on","Ġpar am","Ġpos s","w rit","Ġc e","Ġinst ead","Ġpr ime","d le","Ġvers ion","Ġg ir","Ġgro w","Ġter m","iet y","2 4","Ġb ur","Ġf ed","Ġy our","Ġstr uct",": :","Ġab ove","Ġchar acter","Ġch ic","Ġplay s","iz ation","Ġto o","k y","th ough","Ġche m","w or","Ġcap t","Ġl ink","um p","1 3","Ġl at","Ġlou is","Ġb ill","Ġ2 6","Ġar r","Ġm ur","as ons","Ġm ult","Ġst at","Ġd et","Ġm oney","Ġpres ent","c il","o f","Ġr ail","Ġbuild ing","Ġchang ed","Ġz e","Ġoffic ial","an ish","Ġcaus ed","Ġbe h","Ġh ur","Ã ¶","Ġcomp os","Ġappe ar","h a","pe c","ell s","Ġt ri","her s","Ġf if","Ġth ough","m b","Ġres ult","Ġev ents","l er","Ġlead er","Ġmex ico","Ġsup er","Ġorigin al","Ġ1 00","Ġv e","Ġo x","Ġc ivil","ra el","Ġshow s","ard s","Ġal though","set tlements","Ġwas hing","oly mp","cent ury","Ġit aly","Ġare as","Ġb ad","Ġro le","Ġcan cer","Ġc ast","ak istan","Ġpar is","Ġis s","Ġmar k","Ã ¼","y ear","Ġ ,","Ġf ree","2 3","Ġ2 7","ol ution","Ġadmin ist","t a","Ġteam s","z er","Ġin fl","m at","c an","Ġl im","ro p","Ġf ire","ab ility","Ġemp ire","Ġt alk","Ġde v","Ġeduc ation","at ures","ad u","âĢ Ŀ","Ġwe e","m on","Ġchic ago","ap e","Ġcl os","Ġl ate","ain ing","Ġhe alth","Ġr ich","Ġ2 8","Ġgre en","act ers","ed y","w ork","Ġ ur","Ġus er","Ġres p","19 5","l iam","Ġwashing ton","it her","Ġserv ice","Ġg ree","Ġwith in","Ġtr av","Ġind ust","Ġdef e","s elf","Ġplay ing","Ġm or","Ġpl an","Ġ $","Ġd est","ĠâĢ ľ","Ġd one","Ġnational ity","Ġs ports","Ġstud ied","ac y","Ġf all","Ġfin al","Ġcomp ut","Ġwor d","Ġf act","Ġdis e","ro ss","um ent","20 20","Ġv er","Ġro ad","Ġwill iam","Ġro yal","Ġ200 3","Ġmost ly","Ġ199 0","Ġs ound","ther n","ock ey","liam ent","Ġh aving","k m","Ġnot able","Ġap pro","Ġchar acters","htm l","st ate","Ġnor m","Ġsp ace","Ġbat tle","v ers","Ġright s","ot a","polit icians","Ġhe art","Ġus es","Ġdisc ov","town s","Ġeng ine","ac hed","Ġk ore","u el","Ġanim als","Ġ200 2","en cy","Ġh osp","Ġpro cess","Ġform ed","Ġpro ject","ul a","Ġse x","Ã ³","Ġmed ia","Ġcoun cil","r ing","Ġs un","b a","Ġd i","Ġs n","s ports","t r","Ġbro ad","Ġcommun ity","Ġd am","Ġv o","Ġinclud ed","c hed","Ġspe ak","m ar","Ġinv ol","Ġne ver","Ġpar liament","a ff","Ġh it","Ġse par","Ġsou thern","Ġlit tle","Ġfem ale","Ġproble ms","Ġinclud es","Ġt est","Ġam ong","1 1","ent ion","Ġangel es","Ġe as","Ġj ud","ugh ter","raz il","Ġb al","Ġh ockey","Ġf ail","Ġmid dle","Ġcult ure","i ers","Ġd en","Ġdesc rib","Ġco ast","c le","Ġon ce","Ġ {","Ġs ov","Ġc it","Ġdem ocratic","Ġbir th","Ġassoc iation","Ġke ep","Ġg ave","Ġpr im","Ġcom e","Ġwant ed","y a","i j","Ġh all","Ġe le","he ast","Ġlangu ages","Ġre port","Ġpol ice","Ġm ight","Ġc ase","Ġh old","Ġl ow","n es","Ġrese arch","Ġpubl ished","or ge","al and","Ġin f","un ited","Ġ198 0","Ġm ot","r ation","Ġinst it","Ġk ind","Ġto ur","at ives","Ġr ace","Ġeff ect","Ġconst it","Ġp aren","3 0","Ġwebs ites","om b","Ġbec om","ol s","ward s","ath s","Ġcl aim","Ġal most","Ġ2 9","et h","ubl ican","Ġtr ack","Ġp ict","Ã Ń","Ġle t","ines e","Ġis rael","us ed","Ġd av","Ġsc ience","Ġconsid ered","Ġinfl u","Ġh ot","Ġsp ain","ul ts","Ġp akistan","he re","h ist","Ġj ack","an ces","Ġc ir","l am","2 6","Ġ19 0","Ġep is","ans as","Ġs ays","Ġwork ing","Ġcol lect","Ġcon c","c ast","Ġb ase","Ġpart ic","Ġre n","Ġb all","ol ic","Ġgo als","Ġisland s","Ġt en","Ġl ik","am ent","Ġac cess","d en","Ġe astern","Ġ199 9","h i","b l","v ious","Ġsur v","em s","Ġs ug","u ce","Ġtrad ition","Ġcomm it","Ġadd ed","m us","Ġc ities","al a","Ġw ood","Ġd ate","Ġprod uced","Ġl ake","Ġen ough","l s","Ġl in","Ġm em","g g","om s","c ount","Ġhe n","Ġc and","Ġw ife","Ġex ist","Ġdirect or","Ġgro und","er ing","Ġdevelop ment","Ġdist rib","Ġcurrent ly","op s",". ,","m ov","os s","Ġpro per","Ġsim ple","Ġprom ot","Ġdiv ision","Ġvir gin","er gy","i us","o int","od es","Ġbet ter","Ġhal f","2 8","Ġab le","v ille","iss ion","Ġte xt","Ġacadem y","Ġflor ida","Ġchang es","Ġm ap","ud e","Ġp ur","Ġe ither","ab ly","Ġ q","Ġn ames","ang er","e um","Ġw at","he l","Ġalbum s","Ġhelp ed","- -","Ġ5 0","Ġaut hor","n ers","p ical","feren ce","Ġint rod","Ġwor ds","Ġc ath","s w","og n","Ġfor ce","2 9","Ġtre at","Ġas k","Ġnat ural","Ġvar ious","Ġg ive","Ġ199 6","Ġdevelop ed","Ġsw ed","Ġend ed","Ġadd ition","r ain","Ġr an","Ġcro ss","Ġhosp ital","st and","Ġ ire","Ġcompet ed","he st","Ġze aland","Ġcar ol","Ġf ull","Ġcom b","Ġar ab","Ġda ughter","Ġf ish","Ġm ic","Ġm ad","r ian","Ġp ages","Ġh ill","m ing","l ant","Ġb razil","Ġcon gress","ne w","Ġprod uct","k n","Ġk ey","ak es","Ġh ost","Ġrecord s","2 7","on a","l ished","Ġmon ths","Ġhe av","Ġp un","b an","ut es","Ġ199 8","Ġst yle","Ġpos ition","Ġchrist ian","ino is","Ġm ary","Ġdise ase","Ġge orge","Ġpri ze","ou th","Ġinc re","de aths","e e","o ff","Ġch ann","Ġp ast","Ġindepend ent","our s","Ġac ross","Ġb ank","Ġjapan ese","Ġcom es","l a","Ġ ident","Ġsign ed","Ġmov ement","Ġnew s","Ġtak en","Ġf ield","Ġ197 0","it ar","Ġsov iet","Ġsw it","b u","Ġpr ison","Ġwom an","Ġopen ed","Ġbro wn","Ġf ac","Ġk h","Ġse ven","Ġme et","our n","im in","Ġse lect","ain t","in ts","Ġro und","ber g","Ġbl ue","Ġire land","f a","Ġqu al","Ġbe gin","Ġterrit ory","pec ially","v ir","le te","Ġm a","Ġvi ol","l ike","Ġ ut","Ġmus eum","writ ers","Ġo ce","Ġde let","Ġmov e","ad ian","Ġle ast","Ġd ou","Ġty pes","Ġsub ject","Ġill inois","Ġvill age","Ġmain ly","Ġrad io","Ġaf rican","ict ion","g round","ro w","l ess","Ġt rib","is c","Ġm art","Ġch ief","Ġaust ria","Ġpa ul","Ġfor ces","8 0","Ġj ames","Ġa ver","Ġbre ak","Ġge org","Ġh a","Ġ199 2","h ic","Ġruss ia","b c","Ġ} }","Ġcomp let","Ġw rest","Ġrel ations","r or","6 0","m y","Ġfr anc","Ġ196 0","Ġestab lished","b ers","Ġcompan ies","Ġfr ont","Ġp et","Ġbl ock","a el","Ġc ertain","Ġpl ants","Ġn ight","her lands","Ġe at","Ġd ata","Ġf ur","Ġanc ient","Ġal ways","Ġs ite","at ic","Ġc ause","Ġcl ose","Ġreturn ed","s y","c ol","Ġen ergy","w are","Ġear l","m it","Ġit al","Ġm ix","Ġs it","Ġlit er","Ġw id","end ing","at t","ell ow","Ġsuccess ful","Ġst ri","Ġm el","Ġh or","Ġtem per","Ġstud ents","ie ws","Ġm ale","ou ri","Ġex ec","Ġqu ick","and er","Ġgr adu","Ġcount ies","Ġ18 9","Ġm os","Ġim age","Ġsoc iety","u it","Ġs am","Ġle arn","Ġ199 7","pos ed","Ġmult ip","Ġl ib","Ġ3 1","Ġh un","4 0","ent ly","Ġm ater","Ġde g","Ġst ay","b on","Ġl ove","Ġsour ce","l im","if f","ers ey","Ġsh ip","Ġes pecially","Ġob ject","Ġsy mb","Ġ199 4","Ġb ay","Ġ199 5","Ġs aw","Ġch o","c ul","Ġrepl aced","Ġc ode","Ġst age","Ġf est","Ġr ap","Ġloc ation","b and","b rit","Ġp le","Ġp en","Ġrec ogn","Ġnet herlands","Ġocc up","Ġruss ian","Ġde ad","Ġch inese","il es","ript ion","pl ic","Ġcand id","p an","Ġvirgin ia","Ġ ip","Ġav ail","Ġin s","ian a","Ġcre ate","n o","it ive","Ġaut om","Ġh om","Ġe gg","Ġam ount","Ġdec ided","gy pt","d es","Ġinst r","Ġaver age","Ġse ats","iv ely","Ġstud y","re l","Ġw all","Ġhim self","Ġre ason","Ġe y","k i","Ġmater ial","Ġh am","Ġc ut","Ġe ight","ar i","Ġgo ing","b el","Ġprofess ional","t ime","Ġst orm","Ġse asons","i res","u x","Ġnet work","Ġbor der","Ġmin ist","ut ch","ig er","Ġp enn","se e","ne ws","Ġc ard","n et","Ġtur k","Ġfed eral","s el","b or","ro y","Ġm ac","ific ation","Ġp ap","Ġf oc","Ġposs ible","Ġim p","Ġ199 3","Ġcarol ina","Ġ ice","Ġla un","ell ing","Ġcol l","Ġide a","ra w","Ġrep ublican","Ġsecret ary","Ġpol ic","Ġpre vious","ad or","g a","Ġl ower","o le","is l","Ġb ud","Ġserv ices","Ġin side","Ġrel ated","Ġj ersey","Ġdo ct","Ġwrit ing","Ġavail able","i que","Ġpro b","pl es","w ood","a ign","Ġparen ts","c raft","Ġt a","Ġc ost","t ers","Ġinter est","i ate","ourn al","Ġhig hest","Ġpl ant","d r","Ġ âĢĵ","Ġpr act","Ġim pro","a ust","re en","Ġout side","Ġtown s","Ã ¤","Ġcan not","i i","f ield","Ġmet h","iv id","Ġp ay","h ol","Ġtro pical","ar ies","olog ical","Ġd ig","Ġgo es","en c","Ġo ur","Ġsen ate","Ġch art","Ġorigin ally","Ġmat ches","Â °","Ġd anger","ow a","Ġmon t","Ġsomet hing","7 0","Ġfriend s","v al","Ġsh own","re w","Ġs ant","sports people","ad o","Ġm c","us h","Ġc a","Ġrem ov","th ing","Ġmunicipal ity","Ġlead ers","Ġfin ished","Ġallow ed","Ġsp anish","Ġch air","Ġo k","Ġso on","le g","Ġhur rican","Ġde cl","Ġre act","Ġ4 0","om a","Ġnum bers","Ġinv est","Ġrepresent atives","Ġph ot","ed s","eng lish","Ġsome one","Ġcent re","mov ies","Ġr ange","Ġchem ical","Ġcomput er","Ġp ot","Ġcath olic","Ġcamp aign","Ġbelie ve","Ġa th","Ġp ie","Ġprogr am","Ġass emb","Ġc ases","Ġc am","Ġpre m","Ġfor e","Ġgo al","an ch","Ġact ive","Ġfe atures","Ġbi ography","Ġt or","Ġe gypt","let es","s a","Ġmay or","h ar","Ġtak es","Ġf er","um ents","Ġbl ood","Ġmiss ouri","Ġcol on","Ġcov er","Ġis lam","Ġs us","Ġ199 1","Ã ´","op e","Ġdisc uss","Ġex am","Ġem per","v iew","Ġg un","Ġdirect ed","Ġgl ob","ers on","Ġchamp ion","Ġsc ot","Ġe t","b ack","Ġso ft","n ed","Ġtrans port","st e","ident s","Ġwin ter","Ġro b","Ġnav ig","Ġtrav el","Ġbuild ings","Ġg al","Ġind ivid","Ġbroad cast","Ġpl at","Ġin j","Ġnomin ated","Ġdeb ut","ov er","id ence","Ġ18 6","Ġdif f","Ġacc ount","vir on","iz ations","Ġchampionship s","Ġsing er","Ġc ou","Ġs em","read y","Ġnorth west","p a","Ġd ark","e g","Ġmon th","kn own","em ents","Ġco ach","Ġcontin ued","yl v","Ġto urn","Ġre ached","Ġat lant","Ġcon str","Ġr ain","Ġtrans l","Ġwee k","Ġpr iv","Ġje w","Ġli ber","ol k","bo ok","en se","Ġmet ers","Ġpart icip","Ġlong er","is ing","t ar","Ġs and","ub e","Ġapp oint","e lect","Ġital ian","Ġf ig","or es","Ġart ists","Ġir an","er ation","Ġag re","Ġwrit ers","Ġchann el","wik i","Ġmet ro","em pt","Ġpo ints","ag ed","Ġaf f","Ġme as","Ġs ize","Ġar rest","Ġprod uction","ig an","Ġal ready","Ġsystem s","Ġd oc","Ġus ers","Ġth om","Ġsa f","ylv ania","w a","Ġm ess","Ġmount ain","Ġp ow","\" ]","Ġ- -","Ġt v","Ġb en","Ġdav id","Ġst ad","r h","Ġmeth od","Ġmount ains","Ġb ab","Ġi owa","Ġcle ar","Ġfl ag","Ġstruct ures","Ġb ul","n y","Ġn ative","Ġm ach","as c","Ġprofess or","Ġsil ver","Ġneed ed","Ġparam eter","Ġd yn","Ġfe ature","Ġbo y","Ġmed ic","Ġr ac","Ġf ut","Ġprod uc","Ġchar les","Ġbo ard","Ġreg ular","Ġv an","Ġrecord ed","Ġstre et","Ġdest roy","Ġw il","Ġn ations","us e","Ġe th","Ġfe el","Ġcom edy","hist ory","Ġfam il","Ġbox es","Ġwh y","m ark","ent al","Ġelect ric","Ġsmall er","Ġen viron","Ġpartic ular","Ġmultip le","f ace","Ġk il","Ġoce an","s ylvania","Ġo h","Ġg ar","Ġ198 9","Ġh ung","if y","v in","Ġfranc is","Ġh aut","Ġcont ract","Ġassemb ly","Ġr ank","Ġ198 8","Ġgre w","an i","Ġqu est","Ġschool s","op h","Ġce le","o on","ap s","Ġs aint","Ġkore a","Ġre fer","Ġperform ed","um n","Ġmed ical","Ġdr ug","Ġget s","Ġpict ures","brit ish","Ġd og","Ġsc ored","ades h","Ġt ar","ad s","Ġmet al","Ġunder stand","Ġt al","Ġmod el","Ġvot e","Ġret ired","y r","ar ian","ific ant","Ġmean ing","Ġse ction","i ated","air s","201 0","Ġp it","Ġsug gest","Ġfor t","it ect","Ġar ts","Ġk ar","Ġh ous","Ġmus ical","Ġintrod uced","Ġh us","et ts","l or","m en","Ġmus lim","Ġl og","Ġbelie ved","i ro","ic ult","Ġr ule","Ġcont rib","Ġp an","Ġque en","Ġaustral ian","Ġappe ared","Ġd er","Ġt ag","Ġgeorg ia","Ġgree k","j o","on ia","ach us","9 0","en a","Ġte ac","Ġemper or","Ġ18 8","Ġpresident ial","Ġv iew","Ġevent ually","Ġs at","Ġjo b","Ġo pt","Ġt enn","Ġfore ign","b our","Ġsqu are","Ġpenn sylvania","uc le","Ġrev olution","Ġswed en","Ġcol umb","Ġval ley","Ġo bs","Ġsign ificant","d ist","p res","Ġstad ium","Ġmil es","Ġtechn ology","Ġair port","Ġbr and","Ġown ed","achus etts","Ġac cept","ul f","Ġdistrib uted","Ġa lex","u z","p ut","in ation","end s","Ġfr ank","ab it","Ġmur der","Ġt ax","Ġv ice","Ġmar ket","ur a","c a","Ġex cept","Ġmich ael","Ġcommit te","Ġa ud","Ġro bert","Ġcont ent","' ,","ress ion","Ġw al","Ġfest ival","Ġcons erv","id ing","Ġf a","or ia","ight s","Ġnot ability","Ġact ion","Ġop pos","Ġent ertain","Ġrele ase","c ateg","fr ance","Ġd an","Ġbr on","Ġge ography","Ġfour th","Ġlaw s","Ġst ep","Ġleg isl","Ġt ried","st on","Ġb an","Ġart ist","Ġt able","Ġlar ger","Ġcl imate","Ġhurrican e","Ġmic ro","Ġsp ok","Ġvis it","ric ts","at ory","Ġj ournal","Ġhapp ened","Ġb ang","Ġaf fect","Ġits elf","Ġra ised","Ġb ott","h ib","v ill","Ġes c","u f","Ġ \\","Ġprob ably","Ġg as","Ġmass achusetts","Ġatt empt","Ã ¨","Ġegg s","Ġvo ice","Ġf c","Ġad ult","Ġsold iers","a ur","Ġl ay","Ġcont ains","Ġbel ow","Ġrelig ious","Ġsh ar","Ġo il","mun icipal","Ġdefe ated","Ġinstit ute","Ġhum ans","Ġe c","Ġindust ry","b i","Ġl y","Ġconstit ution","Ġgu itar","n ational","z a","n am","Ġo s","Ġlib r","he mat","Ġ198 4","Ġcit iz","Ġbro ught","Ġdesign ed","Ġjo in","Ġth r","Ġw ales","Ġres ults","p ly","sel ves","on om","Ġc ell","Ġaward ed","Ġarch itect","for mer","Ġthrough out","Ġscot land","Ġthem selves","Ġn hl","Ġcompet ition","Ġw r","Ġtradition al","ens ive","Ġhon or","eng th","Ġsepar ate","Ġrelations hip","Ġdiff icult","Ġent ire","Ġwin ning","Ġreport ed","Ġenviron ment","Ġle ave","Ġbel g","Ġsk in","ia ble","Ġorgan ization","Ġr ather","o or","ann ed","Ġfor est","Ġwe b","Ġj un","Ġb c","bo x","Ġmusic ians","municipal ities","Ġthe ory","Ġv en","Ġc ab","Ġbegin ning","Ġpr inc","Ġt im","up t","d a","Ġn ar","Ġform s","Ġhig her","Ġl ad","ig a","Ġh ind","p ose","Ġdeg ree","Ġhy d","Ġdr ama","Ġn ick","Ġcond uct","ol f","Ġk ansas","Ġcov id","Ġdis play","Ġam b","Ġin it","h ood","Ġbe at","Ġst ations","Ġ18 7","Ġhen ry","Ġp ac","ut ions","Ġelect ions","Ġf ly","Ġb urn","Ġp eter","Ġsouth west","Ġfut ure","Ġtr ue","Ġsc ott","re at","Ġus age","Ġdescrib ed","Ġfur ther","ur ies","Ġappoint ed","Ġcommitte e","Ġ id","u a","Ġtr y","Ġsh oot","ri age","Ġrul es","zer land","Ġsp read","Ġ195 0","ur ity","ign ed","Ġs om","Ġstand ard","Ġuk rain","Ġnavig ational","Ġoh io","Ġs port","Ġdiscov ered","Ġnort heast","Ġphil os","Ġcir c","Ġproble m","Ġquick ly","20 21","h ire","Ġp sy","Ġe mer","Ġstud ies","Ġb ow","Ġbrit ain","w in","Ġto m","Ġmin or","Ġk r","Ġto ld","Ġfamil ies","Ġrail way","in et","Ġtourn ament","3 5","Ġ198 7","Ġd ie","Ġtr ade","Ġcele br","m et","en ced","Ġj ose","Ġcaus es","Ġbr idge","Ġold er","i os","pl oy","re g","h old","Ġc orn","Ġj er","Ġass ist","Ġphil ipp","Ġfrog s","o o","Ġk ent","Ġpr ince","ket ball","Ġof fer","Ġlin ks","Ġde al","Ġo l","Ġpol and","Ġs ister","ien ces","Ġn ucle","in i","Ġcomm ission","Ġ ic","Ġa ch","Ġinvol ved","Ġw alk","Ġs out","Ġide as","sh ire","Ġd raft","Ġthe at","Ġh aw","Ġas ian","Ġim m","Ġrich ard","Ġre ally","Ġ198 6","Ġprim ary","Ġselect ed","e v","ip ur","Ġtr ump","d on","Ġ ;","bu ild","Ġact or","Ġgener ally","Ġro ll","4 5","Ġ18 5","Ġval ue","Ġd om","Ġswit zerland","wik ipedia","ail s","aw a","Ġbecom ing","Ġsupport ed","f fer","Ġm ax","ograp h","v ing","Ġke pt","or gan","3 7","Ġmat hemat","Ġfif a","Ġpriv ate","nes ota","Ġpe ace","} }","ig r","bo ard","Ġepis ode","Ġtr ain","Ġpre fect","ish op","Ġw ild","Ġ197 2","Ġold est","Ġheav y","Ġcom mer","Ġ197 9","Ġfollow ed","Ġw ays","Ġdec ade","Ġport ug","Ġprogr ams","Ġair craft","Ġf air","ent ial","Ġmich igan","an o","Ġhus band","Ġneed s","u ge","is es","ut ive","il s","Ġcy cl","Ġwar s","b us","Ġf ast","Ġ: ::","g u","re me","Ġarg ent","Ġeconom ic","il ities","Ġfl ow","Ġexam ples","Ġp ick","al i","Ġsh r","Ġne g","Ġ197 6","re am","Ġm r","im a","Ġy ellow","og le","Ġl ie","ut y","Ġcrit ic","Ġr h","and al","Ġwebs ite","r ay","Ġcon fl","Ġnot e","Ġdyn ast","Ġse arch","Ġtemper ature","Ġs pl","ric ket","Ġlik ely","ound s","vill ages","Ġcr ime","Ġiss ues","l angu","Ġnot es","as k","Ġle e","Ġag o","Ġbeh ind","re ct","Ġst ories","s ol","Ġpo or","Ġg ives","Ġf ox","Ġpsy ch","Ġwin ners","Ġwind ows","Ġter ms","w an","or ial","Ġh ours","Ġ198 1","Ġdes p","r d","w ide","ord ers","Ġgir l","Ġg h","Ġfor ests","Ġolymp ic","Ġre ach","Ġsh ot","uk e","Ġsing ers","Ġwrit e","b it","Ġleg al","count y","Ġsp ent","Ġfe et","Ġstart ing","Ġbas ketball","w ar","as ka","Ġcomp lex","Ġne igh","âĢ Ķ","est ab","ver t","Ġcult ural","Ġbel ong","Ġresp ons","Ġ198 3","Ġm ah","Ġc er","Ġrepresent ed","Ġback ground","Ġdoes n","Ġbott om","0 3","or al","Ġp as","Ġg ard","Ġs elf","Ġm ention","g ar","o id","Ġcov ered","Ġres pect","Ġask ed","Ġl ength","Ġremov ed","ap t","it a","c ont","Ġlead ing","Ġthom as","f in","Ġjew ish","' m","Ġtre es","Ġte ach","Ġrelig ion","p ing","Ġocc ur","ad ed","3 9","Ġ198 5","Ġr ang","and ed","Ġmanag er","Ġs ure","ath letes","Ġk m","ous and","Ġple ase","Ġprogr amm","Ġde ep","Ġwe ap","Ġset t","4 8","Ġsm ith","Ġhapp en","d f","Ġh o","Ġsp ring","4 7","Ġfoc us","Ġ198 2","Ġact ually","Ġspe ed","Ġsur round","Ġ197 4","Ġd omin","] .","Ġmar riage","Ġphilos op","Ġlat in","Ġd ance","Ġrun ning","Ġmin nesota","Ġth ousand","se c","Ġdo ing","Ġrun s","Ġc ells","Ġrom e","Ġpl aced","Ġsec urity","Ġtak ing","Ġl ines","20 22","Ġcan adian","Ġn ine","Ġ6 0","ist ics","ge ography","Ġsur face","re m","Ġf al","Ġf ace","iel ds","um e","Ġwho le","Ġsu ffer","Ġf ame","act ors","Ġt all","Ġkil omet","Ġf le","Ġle aves","Ġt ells","Ġw ear","Ġst an","u ff","s ing","w er","Ġindepend ence","Ġact ing","uck y","Ġlist ed","3 8","b re","Ġsy n","Ġco ok","Ġs ar","Ġr ivers","Ġstop ped","Ġen c","ste in","ag n","Ġsw im","Ġ: :","er ve","Ġsqu ad","b ro","Ġpolic y","20 00","Ġentertain ment","l aw","is ions","Ġ196 8","aly mp","ag on","Ġet c","Ġant i","Ġbeh av","Ġsex ual","Ġliter ature","Ġt ell","et t","Ġd utch","ri z","Ġche ck","Ġcont est","Ġwrest ling","Ġdesp ite","Ġsp ir","ost on","b orn","Ġacc ident","Ġve hic","Ġjack son","Ġcolumb ia","l i","Ġt ree","j e","Ġw ide","it er","Ġget ting","ct ions","Ġpass ed","Ġn az","Ġearl ier","Ġn ation","Ġgr amm","Ġ8 0","Ġconf ir","3 6","Ġc ust","Ġlouis iana","r is","Ġwhe ther","Ġt un","Ġn ature","Ġcandid ate","Ġbig gest","Ġclub s","Ġlab or","Ġhaut s","ol a","ak a","Ġen em","ze ch","Ġlibr ary","Ġv iet",", \"","g ov","p al","b t","l av","Ġm aster","h r","Ġsing les","Ġcon v","Ġcar bon","Ġspec ific","Ġap ps","4 6","Ġdestroy ed","j an","Ġfail ure","d in","Ġl ord","Ġcol d","Ġc art","Ġon line","u ation","Ġb it","and a","Ġfar m","Ġanim al","f rench","i y","wor ld","ak er","Ġc ub","Ġminist ers","a ult","Ġnorm al","Ġlaun ched","Ġ197 8","Ġjust ice","oun der","et ers","Ġbr ain","se x","j a","c el","Ġfor ced","Ġpre d","che ster","Ġf ought","Ġpolit ics","Ġyou th","Ġdiv ided",".. .","g erman","k en","f ootball","Ġhistor ical","Ġpl ot","te en","Ġdoc ument","ic ian","Ġf und","Ġg all","Ġperform ance","Ġturn ed","m ir","our g","ell ed","Ġach ie","Ġap art","Ġdynast y","Ġwik i","Ġ196 4","Ġdam age","ri al","w here","Ġg er","Ġman ipur","Ġpr in","Ġ197 5","Ġc ricket","Ġf ix","Ġup per","Ġsl ow","Ġo tt","Ã³ n","Ġprefect ure","Ġrev iews","t ies","Ġbron ze","Ġe lev","Ġst ock","t Ã©","Ġmunicipal ities","Ġpac ific","Ġfight ing","Ġsoft ware","ad el","Ġto wards","Ġinv ent","Ġsub st","Ġm u","l ah","er o","art ic","Ġclos ed","at i","Ġs av","od ies","ak ing","Ġplat form","Ġro ute","Ġch ap","Ġev idence","9 9","f s","he im","ce ed","he ad","Ġm ir","0 7","an y","Ġor che","Ġbecom es","Ġsc reen","t ic","Ġ ess","Ġmedic ine","Ġh op","Ġsymb ol","Ġ197 3","t it","Ġst one","ak h","ac hes","im b","d ers","Â ²","br idge","Ġnear by","Ġmer ged","Ġb oston","Ġme ant","Ġpower ful","s hip","Ġchair man","Ġbir ds","Ġ9 0","Ġbase ball","Ġel se","Ġphilipp ines","Å į","Ġlos s","Ġpre vent","Ġgold en","enn a","Ġp ian","Ġfun ction","estab lishments","Ġinvest ig","y ers","Ġf av","Ġ197 1","ric k","Ġbr ing","in ct","Ġcitiz ens","Ġatlant ic","Ġcommun ic","3 3","Ġintern et","Ġox ford","c her","Ġadminist ration","Ġf oot","ist ry","s en","polit an","Ġr am","Ġdoct or","Ġh und","Ġc amer","as ion","Ġp and","if t","Ġch all","Ġwe ather","Ġform at","ch an","Ġpart ies","Ġrul ed","Ġstruct ure","Ġoffic er","lah oma","n or","ict ional","Ġatt ract","Ġfrancis co","ot e","Ġje ws","Ġd ar","b ar","Ġspl it","Ġsch ol","Ġprot est","4 9","Ġb a","Ġhead qu","Ġprinc ip","Ġber lin","Ġdirect ors","Ġ197 7","Ġtem ple","Ġcontro ll","Ġad op","Ġelect ron","ob ile","Ġem ploy","c ar","Ġtr aining","Ġfound ation","Ġstat us","d o","Ġreg ions","Ġ196 9","Ġcrit ics","Ġrec ent","Ġstud io","st ra","Ġst aff","Ġd u","Ġbill ion","Ġeconom y","5 5","n g","Ġact ress","Ġgradu ated","Ġun its","n ame","com pan","g overn","Ġy et","Ġbelg ium","it z","Ġmajor ity","Ġj es","l ab","Ġb omb","Ġpo et","Ġk id","Ġindivid ual","Ġcommer c","Ġwee ks","Ġoffic ially","Ġmo le","ian t","Ġmag az","Ġr are","Ġmov ing","Ġ iv","Ġfre ed","Ġturk ey","ue fa","Ġh at","Ġbe g","Ġst ra","l ast","Ġtw ent","] ,","Ġr at","ch ange","0 1","Ġ196 7","ab ama","Ġk enn","p re","Ġhel ps","Ġargent ina","r id","Ġv oc","Ġpain t","ipp i","Ġn iger","Ġrequ est","Ġthere fore","s k","Ġele ments","Ġw a","em ic","Ġdis ney","Ġmart in","Ġproduct s","e uro","z o","Ġcommun ities","v ideo","Ġa k","Ġreferen ce","cy cl","Ġcar ry","20 19","Ġcon ference","ill s","Ġnear ly","im s","Ġchar ge","ty pe","Ġin h","im ent","Ġamerican s","Ġcor por","g al","Ġfin ally","Ġre ve","ist ic","Ġaust rian","Ġoccup ation","Ã´ ne","Ġorgan izations","Ġform ula","i as","Ġin fect","art ers","Ġstud ent","Ġp il","Ġelect r","Ġlim ited","Ġro t","Ġ3 5","Ġsout heast","Ġdid n","Ġexec utive","Ġhe rit","Ġpos itive","Ġr aj","Ġtr ying","on ic","oc r","Ġnew sp"]}}