{"version":"1.0","truncation":null,"padding":null,"added_tokens":[{"id":0,"content":"<PAD>","single_word":false,"lstrip":false,"rstrip":false,"normalized":false,"special":true},{"id":1,"content":"<BOS>","single_word":false,"lstrip":false,"rstrip":false,"normalized":false,"special":true},{"id":2,"content":"<EOS>","single_word":false,"lstrip":false,"rstrip":false,"normalized":false,"special":true},{"id":3,"content":"<UNK>","single_word":false,"lstrip":false,"rstrip":false,"normalized":false,"special":true}],"normalizer":{"type":"Sequence","normalizers":[{"type":"NFC"},{"type":"Lowercase"}]},"pre_tokenizer":{"type":"ByteLevel","add_prefix_space":true,"trim_offsets":true,"use_regex":true},"post_processor":{"type":"TemplateProcessing","single":[{"SpecialToken":{"id":"<BOS>","type_id":0}},{"Sequence":{"id":"A","type_id":0}},{"SpecialToken":{"id":"<EOS>","type_id":0}}],"pair":[{"SpecialToken":{"id":"<BOS>","type_id":0}},{"Sequence":{"id":"A","type_id":0}},{"SpecialToken":{"id":"<EOS>","type_id":0}},{"Sequence":{"id":"B","type_id":1}},{"SpecialToken":{"id":"<EOS>","type_id":1}}],"special_tokens":{"<BOS>":{"id":"<BOS>","ids":[1],"tokens":["<BOS>"]},"<EOS>":{"id":"<EOS>","ids":[2],"tokens":["<EOS>"]}}},"decoder":{"type":"ByteLevel","add_prefix_space":true,"trim_offsets":true,"use_regex":true},"model":{"type":"BPE","dropout":null,"unk_token":null,"continuing_subword_prefix":null,"end_of_word_suffix":null,"fuse_unk":false,"byte_fallback":false,"ignore_merges":false,"vocab":{"<PAD>":0,"<BOS>":1,"<EOS>":2,"<UNK>":3,"!":4,"\"":5,"$":6,"%":7,"&":8,"'":9,"(":10,")":11,"*":12,"+":13,",":14,"-":15,".":16,"/":17,"0":18,"1":19,"2":20,"3":21,"4":22,"5":23,"6":24,"7":25,"8":26,"9":27,":":28,";":29,"<":30,"=":31,">":32,"?":33,"@":34,"_":35,"`":36,"a":37,"b":38,"c":39,"d":40,"e":41,"f":42,"g":43,"h":44,"i":45,"j":46,"k":47,"l":48,"m":49,"n":50,"o":51,"p":52,"q":53,"r":54,"s":55,"t":56,"u":57,"v":58,"w":59,"x":60,"y":61,"z":62,"¢":63,"¦":64,"µ":65,"¶":66,"¼":67,"¿":68,"Â":69,"Ã":70,"Ï":71,"â":72,"Ċ":73,"Ġ":74,"Ģ":75,"Ħ":76,"Ĩ":77,"ī":78,"Ĵ":79,"ĵ":80,"Ķ":81,"Ĺ":82,"ĺ":83,"Ļ":84,"ľ":85,"Ŀ":86,"ł":87,"Ġt":88,"he":89,"Ġa":90,"Ġthe":91,"Ġo":92,"nd":93,"Ġw":94,"in":95,"Ġs":96,"Ġand":97,"re":98,"Ġb":99,"Ġh":100,"Ġof":101,"ou":102,"Ġf":103,"Ġto":104,"Ġm":105,"or":106,"er":107,"Ġi":108,"Ġc":109,"ing":110,"Ġy":111,"at":112,"Ġl":113,"on":114,"Ġg":115,"Ġp":116,"en":117,"Ġyou":118,"es":119,"Ġd":120,"ll":121,"is":122,"Ġin":123,"ar":124,"Ġn":125,"it":126,"Ġbe":127,"Ġth":128,"om":129,"an":130,"as":131,"Ġhe":132,"ve":133,"le":134,"Ġe":135,"ut":136,"Ġis":137,"id":138,"Ġfor":139,"Ġsa":140,"Ġon":141,"se":142,"Ġha":143,"Ġwh":144,"ent":145,"Ġno":146,"am":147,"ke":148,"ord":149,"Ġgo":150,"im":151,"ill":152,"Ġyour":153,"ay":154,"Ġu":155,"ac":156,"Ġit":157,"ed":158,"Ġhis":159,"ith":160,"ir":161,"et":162,"Ġ-":163,"il":164,"ic":165,"Ġwill":166,"Ġwith":167,"Ġlord":168,"ion":169,"ver":170,"ad":171,"Ġse":172,"el":173,"ra":174,"Ġwe":175,"Ġsaid":176,"st":177,"Ġre":178,"ro":179,"her":180,"gh":181,"Ġj":182,"al":183,"Ġfr":184,"Ġall":185,"th":186,"Ġan":187,"Ġwas":188,"Ġthat":189,"Ġhim":190,"ake":191,"Ġare":192,"Ġgi":193,"Ġnot":194,"Ġfrom":195,"Ġso":196,"Ġhave":197,"Ġas":198,"ur":199,"Ġthem":200,"Ġcom":201,"king":202,"Ġthey":203,"Ġdo":204,"and":205,"ame":206,"Ġst":207,"Ġor":208,"Ġme":209,"Ġput":210,"od":211,"Ġtheir":212,"ri":213,"Ġch":214,"ght":215,"ct":216,"ple":217,"Ġthis":218,"ly":219,"Ġmo":220,"Ġli":221,"Ġde":222,"Ġwhe":223,"ath":224,"ers":225,"Ġby":226,"ah":227,"ow":228,"ich":229,"Ġbut":230,"Ġwho":231,"âĢ":232,"Ġpe":233,"Ġup":234,"Ġisra":235,"Ġisrael":236,"Ġson":237,"ven":238,"Ġmy":239,"Ġthen":240,"ain":241,"Ġwhich":242,"Ġout":243,"Ġgod":244,"Ġhad":245,"est":246,"ok":247,"ace":248,"Ġking":249,"Ġwent":250,"ild":251,"ter":252,"ch":253,"ther":254,"Ġman":255,"Ġpeo":256,"Ġne":257,"ren":258,"Ġhas":259,"Ġland":260,"Ġpeople":261,"Ġlet":262,"ant":263,"Ġfi":264,"wn":265,"ade":266,"Ġgive":267,"'s":268,"ge":269,"Ġat":270,"Ġwhen":271,"Ġmade":272,"Ġtake":273,"ep":274,"au":275,"ld":276,"Ġwere":277,"Ġchild":278,"ab":279,"ru":280,"Ġoff":281,"ore":282,"Ġcame":283,"Ġab":284,"Ġone":285,"Ġar":286,"Ġher":287,"ering":288,"Ġv":289,"ation":290,"Ġpl":291,"Ġif":292,"Ġam":293,"ack":294,"Ġmay":295,"Ġcome":296,"Ġthere":297,"one":298,"pt":299,"ses":300,"Ġnow":301,"Ġmake":302,"Ġint":303,"very":304,"ave":305,"Ġshe":306,"Ġchildren":307,"ear":308,"fe":309,"âĢĻ":310,"Ġag":311,"ong":312,"Ġfat":313,"all":314,"Ġbec":315,"art":316,"Ġpro":317,"Ġgave":318,"ving":319,"Ġover":320,"fore":321,"Ġbefore":322,"ide":323,"ose":324,"Ġday":325,"ul":326,"Ġsay":327,"red":328,"reat":329,"Ġus":330,"ak":331,"Ġal":332,"Ġke":333,"ment":334,"Ġ(":335,"Ġlo":336,"Ġtook":337,"ess":338,"Ġwhat":339,"lo":340,"Ġfather":341,"Ġinto":342,"vant":343,"Ġtw":344,"Ġser":345,"Ġevery":346,"ction":347,"Ġoffering":348,"Ġsh":349,"Ġear":350,"pp":351,"ist":352,"Ġdeath":353,"Ġwor":354,"rou":355,"Ġagain":356,"Ġmen":357,"Ġcan":358,"ph":359,"av":360,"Ġsee":361,"qu":362,"ime":363,"way":364,"um":365,"sel":366,"Ġhou":367,"Ġcon":368,"ce":369,"ree":370,"ight":371,"Ġhand":372,"Ġback":373,"Ġservant":374,"os":375,"age":376,"urn":377,"Ġmoses":378,"nt":379,"ry":380,"Ġany":381,"out":382,"Ġsu":383,"Ġour":384,"Ġdav":385,"Ġdavid":386,"Ġfo":387,"ause":388,"Ġplace":389,"Ġhouse":390,"ud":391,"Ġaf":392,"Ġthese":393,"Ġk":394,"ort":395,"ome":396,"Ġtown":397,"Ġco":398,"Ġget":399,"Ġafter":400,"Ġho":401,"ount":402,"Ġsp":403,"Ġaway":404,"Ġgiven":405,"us":406,"un":407,"Ġtent":408,"te":409,"Ġbo":410,"ig":411,"Ġord":412,"Ġyear":413,"Ġtime":414,"Ġfe":415,"ine":416,"Ġph":417,"Ġtwo":418,"Ġother":419,"ie":420,"ard":421,"ites":422,"Ġpr":423,"Ġgreat":424,"be":425,"ves":426,"Ġdid":427,"Ġex":428,"Ġbecause":429,"Ġsons":430,"Ġway":431,"ite":432,"our":433,"Ġle":434,"Ġagainst":435,"ould":436,"ate":437,"Ġword":438,"ast":439,"Ġun":440,"Ġliving":441,"Ġpri":442,"Ġwr":443,"Ġtak":444,"ty":445,"Ġad":446,"Ġsent":447,"Ġkeep":448,"gy":449,"ure":450,"irst":451,"Ġwat":452,"ting":453,"Ġbro":454,"ies":455,"Ġro":456,"Ġdown":457,"ble":458,"thing":459,"Ġpriest":460,"Ġbeen":461,"Ġits":462,"ings":463,"les":464,"ive":465,"Ġsin":466,"Ġsam":467,"Ġuse":468,"ag":469,"Ġlike":470,"Ġ/":471,"Ġgood":472,"Ġfam":473,"Ġegy":474,"Ġegypt":475,"Ġwork":476,"br":477,"Ġholy":478,"ous":479,"Ġearth":480,"Ġfamil":481,"Ġfirst":482,"ale":483,"Ġthose":484,"ations":485,"Ġqu":486,"Ġfood":487,"Ġen":488,"Ġwi":489,"Ġ1":490,"Ġru":491,"Ġburn":492,"pe":493,"Ġdi":494,"Ġte":495,"ase":496,"Ġim":497,"Ġhow":498,"nder":499,"Ġpart":500,"ol":501,"ust":502,"ws":503,"ice":504,"Ġz":505,"are":506,"right":507,"Ġnum":508,"arch":509,"mon":510,"Ġamong":511,"Ġwhere":512,"ile":513,"Ġev":514,"Ġrest":515,"ub":516,"ish":517,"ach":518,"self":519,"pl":520,"ob":521,"Ġarm":522,"Ġpo":523,"Ġorders":524,"Ġed":525,"Ġsaul":526,"Ġmore":527,"ts":528,"Ġdone":529,"Ġjud":530,"Ġbrother":531,"Ġfl":532,"Ġapp":533,"Ġname":534,"lean":535,"Ġbl":536,"ity":537,"Ġabout":538,"Ġtaken":539,"Ġhere":540,"Ġr":541,"Ġsome":542,"Ġmar":543,"Ġneed":544,"able":545,"per":546,"Ġwould":547,"rough":548,"Ġhu":549,"get":550,"sh":551,"ull":552,"Ġwom":553,"Ġonly":554,"Ġservants":555,"Ġgot":556,"em":557,"Ġwater":558,"Ġthrough":559,"Ġyears":560,"ĠâĢ":561,"ne":562,"Ġeven":563,"ign":564,"ndred":565,"Ġsearch":566,"Ġhundred":567,"ff":568,"aron":569,"Ġaaron":570,"Ġunder":571,"Ġdes":572,"aught":573,"aking":574,"igh":575,"we":576,"Ġ<":577,"ck":578,"Ġcreat":579,"Ġstr":580,"iz":581,"oh":582,"Ġdaught":583,"Ġhead":584,"Ġhands":585,"Ġ/>":586,"ial":587,"Ġthan":588,"Ġel":589,"Ġgra":590,"Ġgen":591,"Ġsaw":592,"ber":593,"tar":594,"Ġtill":595,"ans":596,"Ġevil":597,"Ġbet":598,"ind":599,"xt":600,"ass":601,"Ġside":602,"Ġsaying":603,"Ġright":604,"hed":605,"Ġac":606,"Ġfun":607,"ked":608,"Ġlife":609,"Ġburned":610,"Ġbu":611,"ions":612,"Ġheart":613,"ory":614,"Ġey":615,"Ġsec":616,"Ġaltar":617,"Ġwar":618,"now":619,"ot":620,"Ġdis":621,"Ġgener":622,"ines":623,"Ġwithout":624,"Ġread":625,"Ġje":626,"ap":627,"hu":628,"ning":629,"Ġsend":630,"Ġherit":631,"Ġfunction":632,"Ġheritage":633,"tain":634,"Ġthings":635,"Ġres":636,"Ġwife":637,"ue":638,"Ġend":639,"Ġfamily":640,"res":641,"Ġjo":642,"ng":643,"read":644,"Ġcur":645,"Ġadd":646,"ick":647,"ret":648,"Ġcut":649,"Ġbook":650,"Ġeyes":651,"gether":652,"Ġtogether":653,"for":654,"Ġbecame":655,"Ġunc":656,"so":657,"Ġdays":658,"Ġinc":659,"Ġmeet":660,"its":661,"ara":662,"ally":663,"Ġknow":664,"ip":665,"Ġtri":666,"ated":667,"Ġox":668,"Ġcomp":669,"Ġblo":670,"ary":671,"iting":672,"Ġdat":673,"ition":674,"Ġtowns":675,"Ġold":676,"Ġturn":677,"Ġcont":678,"Ġfear":679,"ountry":680,"az":681,"Ġfull":682,"Ġyoung":683,"Ġmeeting":684,"Ġbir":685,"Ġthree":686,"round":687,"ix":688,"act":689,"Ġwords":690,"Ġlist":691,"ilist":692,"Ġphilist":693,"du":694,"Ġwoman":695,"Ġface":696,"Ġthous":697,"Ġcommon":698,"Ġthousand":699,"Ġlong":700,"Ġseven":701,"Ġfire":702,"if":703,"ever":704,"Ġjer":705,"other":706,"Ġbas":707,"Ġjudah":708,"00":709,"ink":710,"Ġsm":711,"Ġsou":712,"Ġgold":713,"Ġkept":714,"Ġper":715,"Ġwell":716,"Ġanother":717,"Ġphara":718,"Ġpharaoh":719,"ible":720,"side":721,"Ġah":722,"Ġwhy":723,"Ġsame":724,"Ġmeal":725,"selves":726,"tle":727,"Ġjac":728,"Ġans":729,"ray":730,"Ġele":731,"Ġsheep":732,"aven":733,"Ġtru":734,"Ġop":735,"Ġhigh":736,"Ġunclean":737,"Ġdata":738,"Ġjacob":739,"Ġhor":740,"Ġhel":741,"Ġtents":742,"Ġsol":743,"Ġatt":744,"Ġansw":745,"Ġsim":746,"Ġmount":747,"ons":748,"ief":749,"ond":750,"Ġthir":751,"ang":752,"Ġwhom":753,"Ġacc":754,"Ġsc":755,"Ġwaste":756,"Ġ2":757,"Ġben":758,"Ġwhile":759,"row":760,"Ġfathers":761,"Ġjos":762,"Ġimp":763,"Ġnumber":764,"ft":765,"Ġbod":766,"Ġnear":767,"hua":768,"Ġjoshua":769,"Ġpos":770,"essing":771,"Ġrec":772,"ower":773,"Ġdest":774,"enty":775,"aces":776,"ffe":777,"Ġoil":778,"Ġphilistines":779,"ds":780,"Ġoath":781,"ms":782,"Ġcl":783,"ari":784,"ruction":785,"âĢĿ":786,"Ġjose":787,"Ġspe":788,"Ġjoseph":789,"Ġfiel":790,"Ġfight":791,"Ġbest":792,"Ġcall":793,"Ġchief":794,"cts":795,"Ġsupp":796,"Ġblood":797,"Ġhelp":798,"off":799,"Ġround":800,"Ġla":801,"Ġnews":802,"ĠâĢľ":803,"ween":804,"Ġbetween":805,"Ġdestruction":806,"word":807,"ors":808,"Ġarray":809,"Ġloo":810,"Ġblessing":811,"Ġsort":812,"Ġbr":813,"Ġmat":814,"rah":815,"Ġnew":816,"ments":817,"Ġbuild":818,"Ġbread":819,"Ġfour":820,"Ġgone":821,"Ġhimself":822,"Ġstill":823,"Ġalso":824,"Ġvery":825,"de":826,"Ġdaughter":827,"Ġopen":828,"Ġtim":829,"ertain":830,"gor":831,"Ġind":832,"Ġnam":833,"Ġgr":834,"Ġgoing":835,"Ġpeace":836,"Ġbody":837,"Ġdire":838,"Ġbeth":839,"Ġrel":840,"Ġstart":841,"ode":842,"Ġanswer":843,"offering":844,"ough":845,"Ġfar":846,"Ġcertain":847,"Ġpur":848,"Ġofferings":849,"Ġang":850,"Ġcomes":851,"Ġark":852,"place":853,"Ġstrong":854,"Ġcare":855,"Ġthing":856,"ai":857,"phe":858,"Ġmale":859,"ail":860,"ence":861,"Ġ3":862,"Ġpers":863,"ordan":864,"Ġjust":865,"Ġjordan":866,"Ġdead":867,"Ġalgor":868,"Ġalgorith":869,"Ġclo":870,"led":871,"Ġseen":872,"Ġty":873,"Ġdec":874,"oth":875,"Ġhard":876,"Ġmon":877,"Ġcountry":878,"aring":879,"ages":880,"Ġfamilies":881,"form":882,"Ġlove":883,"aan":884,"Ġmid":885,"Ġeph":886,"Ġval":887,"uel":888,"Ġtr":889,"Ġprodu":890,"Ġbirth":891,"Ġfive":892,"ward":893,"ise":894,"Ġagree":895,"ance":896,"Ġdoes":897,"Ġused":898,"Ġtext":899,"Ġdesign":900,"omon":901,"Ġeach":902,"Ġhash":903,"Ġsuch":904,"Ġsolomon":905,"Ġwo":906,"Ġdr":907,"Ġnight":908,"Ġdoor":909,"Ġorder":910,"day":911,"esh":912,"Ġfif":913,"Ġgrain":914,"Ġsix":915,"Ġoverc":916,"Ġarmy":917,"Ġflight":918,"Ġ\"":919,"Ġset":920,"Ġever":921,"Ġcover":922,"ledge":923,"Ġagreement":924,"ision":925,"Ġmother":926,"Ġable":927,"Ġwrong":928,"ire":929,"Ġmor":930,"Ġmonth":931,"Ġfree":932,"Ġheaven":933,"Ġbrothers":934,"bs":935,"Ġlin":936,"oney":937,"Ġwant":938,"Ġpower":939,"Ġwhose":940,"rent":941,"Ġlev":942,"Ġknowledge":943,"Ġabrah":944,"Ġfield":945,"Ġtimes":946,"Ġabraham":947,"Ġquick":948,"Ġplaces":949,"Ġsword":950,"lear":951,"ely":952,"Ġcomple":953,"Ġcanaan":954,"Ġtakes":955,"hem":956,"Ġsil":957,"ont":958,"els":959,"Ġrun":960,"Ġmod":961,"Ġmorning":962,"dom":963,"Ġlight":964,"Ġtribe":965,"wor":966,"Ġgu":967,"Ġsev":968,"Ġfind":969,"Ġvo":970,"Ġvide":971,"Ġcons":972,"Ġsilver":973,"je":974,"athan":975,"Ġsecond":976,"Ġresp":977,"ps":978,"Ġact":979,"Ġclean":980,"Ġinst":981,"Ġmost":982,"Ġedit":983,"Ġeli":984,"Ġmountain":985,"cess":986,"ered":987,"ls":988,"ream":989,"Ġtoday":990,"Ġass":991,"Ġston":992,"ound":993,"Ġclear":994,"Ġperson":995,"apt":996,"uch":997,"akes":998,"Ġlooking":999,"Ġpre":1000,"Ġinte":1001,"Ġpurp":1002,"Ġtal":1003,"Ġai":1004,"oud":1005,"ange":1006,"ash":1007,"aster":1008,"Ġseed":1009,"Ġtwenty":1010,"Ġeverything":1011,"Ġworsh":1012,"Ġfeed":1013,"ures":1014,"Ġcry":1015,"Ġmany":1016,"bes":1017,"back":1018,"lf":1019,"Ġmight":1020,"Ġmaking":1021,"Ġpray":1022,"Ġ+":1023,"Ġhearing":1024,"Ġgiving":1025,"Ġstore":1026,"Ġexam":1027,"Ġsmall":1028,"__":1029,"Ġsign":1030,"Ġbeast":1031,"Ġgods":1032,"Ġsamuel":1033,"Ġeng":1034,"Ġsecret":1035,"Ġtool":1036,"Ġsafe":1037,"rain":1038,"Ġconne":1039,"jam":1040,"Ġmuch":1041,"Ġem":1042,"Ġgoes":1043,"Ġprophe":1044,"Ġpriests":1045,"Ġrespons":1046,"ba":1047,"ss":1048,"Ġten":1049,"Ġmer":1050,"irc":1051,"Ġlook":1052,"Ġdaughters":1053,"Ġrequ":1054,"Ġbecome":1055,"lud":1056,"uth":1057,"sed":1058,"eth":1059,"ices":1060,"Ġcreate":1061,"Ġdise":1062,"Ġdrink":1063,"Ġresponsible":1064,"Ġple":1065,"Ġnothing":1066,"Ġitem":1067,"Ġkings":1068,"Ġthirty":1069,"Ġalgorithm":1070,"cy":1071,"ia":1072,"Ġhill":1073,"Ġche":1074,"Ġbenjam":1075,"Ġimport":1076,"bo":1077,"Ġpay":1078,"ize":1079,"Ġspec":1080,"ience":1081,"Ġcub":1082,"ands":1083,"Ġdiffe":1084,"Ġjoab":1085,"Ġclothing":1086,"Ġvoice":1087,"ram":1088,"Ġver":1089,"Ġcode":1090,"Ġform":1091,"ents":1092,"Ġthemselves":1093,"ows":1094,"Ġfile":1095,"aac":1096,"aph":1097,"jah":1098,"ner":1099,"Ġlim":1100,"ical":1101,"Ġinclud":1102,"ful":1103,"go":1104,"Ġhon":1105,"essel":1106,"Ġvessel":1107,"Ġready":1108,"ken":1109,"Ġmoney":1110,"ket":1111,"Ġsea":1112,"Ġusing":1113,"Ġexper":1114,"int":1115,"Ġcapt":1116,"Ġprice":1117,"Ġvideo":1118,"Ġfeedback":1119,"ched":1120,"Ġsk":1121,"Ġmoab":1122,"ress":1123,"ns":1124,"Ġmind":1125,"Ġcat":1126,"ased":1127,"Ġrul":1128,"ces":1129,"Ġbal":1130,"ching":1131,"Ġnever":1132,"Ġsays":1133,"bered":1134,"Ġways":1135,"Ġburning":1136,"Ġbenjamin":1137,"sal":1138,"Ġtree":1139,"Ġtable":1140,"rees":1141,"Ġflo":1142,"Ġpill":1143,"Ġjon":1144,"ult":1145,"Ġwhatever":1146,"Ġwriting":1147,"Ġnumbered":1148,"Ġjeh":1149,"Ġturned":1150,"Ġsimple":1151,"Ġstones":1152,"ness":1153,"pr":1154,"enth":1155,"Ġdef":1156,"Ġproper":1157,"ular":1158,"Ġquest":1159,"Ġgraph":1160,"Ġcontent":1161,"Ġpillar":1162,"mo":1163,"Ġfles":1164,"Ġtop":1165,"Ġcase":1166,"work":1167,"Ġworship":1168,"Ġflesh":1169,"Ġlit":1170,"eping":1171,"ĠâĢ¢":1172,"Ġbuilding":1173,"men":1174,"Ġtaking":1175,"Ġown":1176,"Ġcause":1177,"Ġlaw":1178,"iah":1179,"Ġsy":1180,"Ġcru":1181,"Ġinside":1182,"Ġsheke":1183,"Ġturning":1184,"Ġattack":1185,"Ġpurpose":1186,"gth":1187,"ib":1188,"ron":1189,"vie":1190,"Ġtrou":1191,"Ġba":1192,"ney":1193,"Ġchiefs":1194,"Ġsupport":1195,"Ġwa":1196,"Ġanyone":1197,"Ġcoll":1198,"Ġmark":1199,"Ġfifty":1200,"Ġcattle":1201,"Ġjonathan":1202,"ey":1203,"Ġcar":1204,"ates":1205,"ative":1206,"Ġgl":1207,"Ġpun":1208,"Ġeas":1209,"Ġabsal":1210,"Ġflow":1211,"Ġoxen":1212,"Ġwood":1213,"Ġexample":1214,"Ġdifferent":1215,"Ġabsalom":1216,"bb":1217,"oam":1218,"ual":1219,"Ġstret":1220,"Ġvall":1221,"Ġothers":1222,"Ġtrue":1223,"Ġtruly":1224,"Ġaccount":1225,"Ġdisease":1226,"Ġvalley":1227,"ex":1228,"ians":1229,"ser":1230,"Ġcould":1231,"Ġlear":1232,"Ġfru":1233,"Ġart":1234,"Ġwomen":1235,"Ġcaptain":1236,"lic":1237,"ved":1238,"Ġisaac":1239,"Ġhalf":1240,"Ġanything":1241,"Ġincre":1242,"Ġlittle":1243,"Ġhus":1244,"Ġfa":1245,"Ġevening":1246,"Ġnamed":1247,"Ġimportant":1248,"ced":1249,"up":1250,"Ġnations":1251,"Ġfrie":1252,"Ġwrath":1253,"Ġwaters":1254,"Ġpunish":1255,"Ġfriend":1256,"cri":1257,"Ġes":1258,"Ġgrow":1259,"Ġcoming":1260,"Ġkey":1261,"Ġimage":1262,"Ġbetter":1263,"Ġaram":1264,"Ġuser":1265,"Ġjerus":1266,"Ġcubits":1267,"la":1268,"Ġred":1269,"Ġmem":1270,"Ġfeet":1271,"alem":1272,"Ġovercome":1273,"Ġprayer":1274,"Ġflock":1275,"Ġjerusalem":1276,"Ġwall":1277,"Ġdon":1278,"lech":1279,"gin":1280,"ian":1281,"Ġforty":1282,"ics":1283,"Ġbroken":1284,"Ġ10":1285,"Ġposition":1286,"Ġquickly":1287,"Ġeditor":1288,"pes":1289,"sing":1290,"Ġ4":1291,"erial":1292,"Ġpub":1293,"Ġyourself":1294,"Ġyourselves":1295,"Ġjour":1296,"Ġspir":1297,"oboam":1298,"Ġmarked":1299,"Ġengine":1300,"the":1301,"hes":1302,"inary":1303,"ats":1304,"ison":1305,"asse":1306,"Ġeast":1307,"Ġgives":1308,"Ġnext":1309,"pect":1310,"Ġparts":1311,"Ġgeneration":1312,"Ġfighting":1313,"Ġmaterial":1314,"Ġdirection":1315,"Ġshekels":1316,"do":1317,"Ġ5":1318,"Ġdri":1319,"Ġinter":1320,"Ġbeing":1321,"Ġones":1322,"Ġdoing":1323,"Ġprov":1324,"Ġresting":1325,"Ġdirect":1326,"Ġpunishment":1327,"ef":1328,"to":1329,"Ġtou":1330,"Ġmou":1331,"Ġmaster":1332,"raim":1333,"Ġmanasse":1334,"Ġcloud":1335,"Ġmanasseh":1336,"but":1337,"gs":1338,"ought":1339,"ather":1340,"Ġdist":1341,"Ġthought":1342,"lead":1343,"Ġreg":1344,"Ġvari":1345,"Ġshould":1346,"imelech":1347,"Ġwrit":1348,"Ġenough":1349,"Ġlevites":1350,"Ġpleas":1351,"Ġjourney":1352,"eb":1353,"ating":1354,"ides":1355,"ention":1356,"Ġweeping":1357,"Ġproperty":1358,"Ġbinary":1359,"Ġrem":1360,"Ġgilead":1361,"Ġfeast":1362,"Ġephraim":1363,"Ġwaiting":1364,"iv":1365,"Ġbase":1366,"Ġmult":1367,"Ġlab":1368,"ality":1369,"Ġspace":1370,"Ġtech":1371,"Ġposs":1372,"Ġpayment":1373,"Ġlimit":1374,"ross":1375,"Ġcutting":1376,"Ġbrass":1377,"Ġvalue":1378,"Ġbaal":1379,"cus":1380,"li":1381,"sion":1382,"Ġauth":1383,"orrow":1384,"Ġpass":1385,"Ġdet":1386,"Ġcomm":1387,"Ġstren":1388,"Ġproje":1389,"Ġfeat":1390,"Ġaddition":1391,"Ġtype":1392,"Ġfruit":1393,"Ġhusb":1394,"Ġgame":1395,"isions":1396,"Ġhair":1397,"Ġoutside":1398,"Ġwrite":1399,"Ġapps":1400,"Ġstrange":1401,"Ġthird":1402,"Ġrecord":1403,"aam":1404,"gr":1405,"Ġtrees":1406,"Ġwine":1407,"iness":1408,"Ġsis":1409,"Ġhonour":1410,"Ġesau":1411,"Ġmouth":1412,"Ġbig":1413,"let":1414,"Ġsound":1415,"Ġrelations":1416,"Ġcertainly":1417,"Ġconnection":1418,"Ġmercy":1419,"ura":1420,"Ġ0":1421,"Ġbit":1422,"Ġdan":1423,"vered":1424,"Ġamor":1425,"Ġsouth":1426,"Ġlinked":1427,"Ġconsid":1428,"Ġtrouble":1429,"Ġspirit":1430,"country":1431,"no":1432,"par":1433,"Ġmakes":1434,"Ġstone":1435,"Ġkingdom":1436,"Ġproble":1437,"Ġkind":1438,"apter":1439,"Ġsuppose":1440,"Ġstrength":1441,"?)":1442,"ks":1443,"Ġent":1444,"Ġra":1445,"Ġsl":1446,"Ġband":1447,"Ġide":1448,"ens":1449,"Ġhaving":1450,"Ġlot":1451,"Ġrock":1452,"Ġegyptians":1453,"Ġlaws":1454,"Ġhusband":1455,"ci":1456,"Ġri":1457,"Ġbus":1458,"Ġma":1459,"Ġdam":1460,"Ġmeas":1461,"Ġbox":1462,"Ġprison":1463,"Ġtribes":1464,"Ġahab":1465,"Ġproduct":1466,"Ġskin":1467,"cu":1468,"wo":1469,"Ġopt":1470,"Ġswe":1471,"Ġfal":1472,"Ġlow":1473,"Ġinv":1474,"Ġeffe":1475,"Ġreub":1476,"Ġfront":1477,"Ġcurse":1478,"Ġseventh":1479,"Ġtools":1480,"Ġreuben":1481,"vi":1482,"Ġpath":1483,"Ġsal":1484,"alth":1485,"Ġloc":1486,"Ġwind":1487,"Ġwives":1488,"Ġarms":1489,"ighb":1490,"Ġelements":1491,"Ġcalled":1492,"Ġvessels":1493,"Ġmulti":1494,"ell":1495,"Ġcam":1496,"Ġlam":1497,"ames":1498,"Ġcho":1499,"Ġchapter":1500,"Ġammon":1501,"que":1502,"Ġangry":1503,"Ġmidd":1504,"Ġprophet":1505,"Ġpillars":1506,"Ġlearn":1507,"Ġsweet":1508,"Ġfalse":1509,"bers":1510,"Ġgri":1511,"Ġdry":1512,"stand":1513,"Ġgibe":1514,"Ġstru":1515,"Ġgoods":1516,"Ġedge":1517,"Ġelish":1518,"Ġhearts":1519,"Ġjeroboam":1520,"Ġnames":1521,"Ġelijah":1522,"Ġfaith":1523,"Ġmemory":1524,"Ġauthor":1525,"Ġmiddle":1526,"man":1527,"og":1528,"op":1529,"Ġter":1530,"Ġcau":1531,"Ġgad":1532,"Ġgrou":1533,"Ġdra":1534,"Ġweight":1535,"Ġbutt":1536,"ables":1537,"Ġprocess":1538,"Ġtwel":1539,"Ġshut":1540,"Ġcol":1541,"Ġgetting":1542,"Ġacross":1543,"Ġcontro":1544,"law":1545,"Ġmaterials":1546,"Ġforward":1547,"Ġhouses":1548,"Ġjudg":1549,"Ġtexture":1550,"Ġrequest":1551,"aut":1552,"com":1553,"hel":1554,"Ġwit":1555,"Ġfact":1556,"ense":1557,"Ġonce":1558,"Ġsell":1559,"Ġsepar":1560,"Ġputting":1561,"Ġlands":1562,"Ġabimelech":1563,"Ġeveryone":1564,"ways":1565,"Ġdesire":1566,"resent":1567,"fted":1568,"Ġcheck":1569,"Ġconsider":1570,"ually":1571,"ware":1572,"Ġsom":1573,"Ġslo":1574,"Ġbre":1575,"Ġfil":1576,"Ġcr":1577,"itt":1578,"Ġeight":1579,"Ġrese":1580,"Ġjes":1581,"Ġlifted":1582,"Ġovert":1583,"Ġcovered":1584,"Ġtenth":1585,"Ġneeds":1586,"Ġjez":1587,"Ġrecur":1588,"Ġriver":1589,"hon":1590,"ples":1591,"spr":1592,"Ġach":1593,"Ġob":1594,"Ġhat":1595,"Ġpain":1596,"Ġdream":1597,"Ġbed":1598,"velo":1599,"ility":1600,"Ġstream":1601,"Ġdeep":1602,"Ġsub":1603,"Ġdiv":1604,"Ġedom":1605,"Ġjudge":1606,"Ġangel":1607,"Ġrunning":1608,"Ġspecif":1609,"Ġdriving":1610,"Ġpossible":1611,"Ġtwelve":1612,"ared":1613,"lands":1614,"she":1615,"Ġ$":1616,"Ġaud":1617,"Ġsur":1618,"Ġmet":1619,"Ġline":1620,"ribut":1621,"Ġears":1622,"Ġearly":1623,"Ġsure":1624,"Ġboard":1625,"Ġprom":1626,"Ġgenerations":1627,"Ġjoin":1628,"Ġattention":1629,"Ġgrass":1630,"Ġcrying":1631,"Ġamorites":1632,"first":1633,"Ġtry":1634,"Ġwide":1635,"Ġsize":1636,"Ġhum":1637,"Ġmus":1638,"Ġcirc":1639,"Ġpar":1640,"Ġnor":1641,"Ġforce":1642,"ional":1643,"Ġsex":1644,"Ġdevelo":1645,"rence":1646,"Ġvis":1647,"Ġusers":1648,"Ġroom":1649,"Ġunderstand":1650,"Ġheads":1651,"Ġfall":1652,"vel":1653,"Ġstep":1654,"riages":1655,"Ġabner":1656,"Ġshare":1657,"Ġexp":1658,"Ġmarke":1659,"Ġcreative":1660,"Ġmidian":1661,"Ġintegr":1662,"Ġelisha":1663,"chem":1664,"Ġfin":1665,"Ġfon":1666,"Ġforg":1667,"Ġreward":1668,"Ġnumbers":1669,"Ġpost":1670,"Ġsister":1671,"Ġfonts":1672,"cial":1673,"han":1674,"ply":1675,"xed":1676,"ys":1677,"Ġtra":1678,"Ġtest":1679,"Ġav":1680,"Ġsales":1681,"Ġham":1682,"Ġyours":1683,"als":1684,"Ġstack":1685,"Ġneighb":1686,"Ġoffered":1687,"Ġshechem":1688,"pping":1689,"Ġworld":1690,"Ġfoot":1691,"Ġgreater":1692,"Ġleft":1693,"bron":1694,"offerings":1695,"Ġseventy":1696,"Ġinclude":1697,"Ġbalaam":1698,"Ġstretched":1699,"Ġcausing":1700,"ael":1701,"Ġve":1702,"llow":1703,"Ġnation":1704,"Ġhebron":1705,"Ġchar":1706,"Ġshow":1707,"Ġfeel":1708,"Ġsamari":1709,"Ġlinen":1710,"Ġcomplet":1711,"Ġmodel":1712,"spring":1713,"Ġsamaria":1714,"..":1715,"iath":1716,"put":1717,"Ġpage":1718,"Ġwealth":1719,"stem":1720,"Ġalways":1721,"Ġzi":1722,"Ġarmies":1723,"Ġcomput":1724,"servant":1725,"Ġpublic":1726,"Ġbusiness":1727,"autif":1728,"Ġmarketing":1729,"Ġer":1730,"Ġsense":1731,"reen":1732,"Ġbag":1733,"ason":1734,"Ġchang":1735,"Ġfixed":1736,"Ġabram":1737,"Ġprof":1738,"Ġhorns":1739,"Ġvalu":1740,"Ġtrans":1741,"Ġjeho":1742,"Ġgrowth":1743,"Ġregular":1744,"Ġvarious":1745,"Ġdraw":1746,"aim":1747,"oke":1748,"pu":1749,"Ġwis":1750,"Ġless":1751,"Ġpull":1752,"Ġthink":1753,"verage":1754,"Ġwashed":1755,"Ġlog":1756,"Ġboth":1757,"Ġrods":1758,"Ġram":1759,"Ġcompon":1760,"Ġelement":1761,"Ġprophets":1762,"Ġexperience":1763,"Ġruler":1764,"Ġquestion":1765,"Ġlaban":1766,"Ġstruct":1767,"Ġresearch":1768,"Ġmusic":1769,"Ġneighbour":1770,"autiful":1771,"circ":1772,"Ġmix":1773,"Ġnet":1774,"Ġthough":1775,"ict":1776,"Ġseat":1777,"Ġlibr":1778,"Ġconc":1779,"Ġdisg":1780,"Ġcommonplace":1781,"Ġsoul":1782,"Ġsimply":1783,"Ġarrays":1784,"Ġdecisions":1785,"view":1786,"Ġeasy":1787,"Ġeffect":1788,"Ġwitness":1789,"Ġfiles":1790,"Ġhaters":1791,"Ġdevelop":1792,"Ġanim":1793,"Ġupd":1794,"Ġupright":1795,"ept":1796,"Ġmarket":1797,"azar":1798,"Ġeleazar":1799,"Ġcomplete":1800,"Ġproblem":1801,"Ġauthority":1802,"Ġdisgust":1803,"ae":1804,"kah":1805,"over":1806,"ten":1807,"tal":1808,"vation":1809,"zer":1810,"Ġ`":1811,"Ġinform":1812,"Ġsele":1813,"Ġmeans":1814,"Ġque":1815,"Ġcurtain":1816,"Ġbases":1817,"Ġaccess":1818,"Ġnewslet":1819,"book":1820,"ural":1821,"Ġseparate":1822,"'t":1823,"),":1824,"iel":1825,"nam":1826,"son":1827,"Ġmil":1828,"ater":1829,"Ġlang":1830,"Ġpa":1831,"ities":1832,"Ġbeh":1833,"ases":1834,"Ġsabb":1835,"ently":1836,"Ġnode":1837,"Ġrele":1838,"Ġroad":1839,"Ġrobes":1840,"Ġworks":1841,"ustom":1842,"Ġzeb":1843,"ember":1844,"Ġsmell":1845,"ails":1846,"Ġovercame":1847,"Ġtalk":1848,"Ġbeasts":1849,"cript":1850,"Ġbitter":1851,"Ġlangu":1852,"Ġsabbath":1853,"car":1854,"po":1855,"Ġap":1856,"Ġsle":1857,"rest":1858,"Ġcustom":1859,"ark":1860,"Ġseated":1861,"Ġweb":1862,"Ġret":1863,"Ġreason":1864,"Ġasses":1865,"Ġchat":1866,"Ġmoving":1867,"Ġplant":1868,"Ġshame":1869,"teen":1870,"Ġrod":1871,"Ġappro":1872,"Ġjehu":1873,"000":1874,"Ġsystem":1875,"Ġcaptains":1876,"Ġfriends":1877,"Ġproject":1878,"Ġfeatures":1879,"Ġbutton":1880,"Ġtar":1881,"Ġwest":1882,"Ġtoo":1883,"Ġcap":1884,"Ġlast":1885,"Ġet":1886,"ically":1887,"Ġmoved":1888,"osh":1889,"Ġwatch":1890,"Ġimages":1891,"Ġarmed":1892,"Ġcursed":1893,"Ġtypes":1894,"Ġcovering":1895,"Ġmodels":1896,"Ġinterest":1897,"ething":1898,"Ġspecial":1899,"Ġcolle":1900,"Ġprovide":1901,"Ġgrief":1902,"Ġgroup":1903,"Ġnorth":1904,"Ġcompletely":1905,"circle":1906,"ape":1907,"gan":1908,"lam":1909,"non":1910,"nah":1911,"py":1912,"ters":1913,"wh":1914,"Ġ6":1915,"Ġlay":1916,"Ġreal":1917,"Ġsoft":1918,"Ġamale":1919,"Ġbirds":1920,"Ġ20":1921,"Ġalgorithms":1922,"Ġdecision":1923,"Ġremember":1924,"Ġcommun":1925,"Ġcontrol":1926,"Ġsomething":1927,"Ġfalling":1928,"Ġmixed":1929,"Ġinformation":1930,"Ġamalek":1931,"of":1932,"Ġhang":1933,"Ġdel":1934,"Ġhaz":1935,"achel":1936,"Ġrep":1937,"Ġrend":1938,"Ġask":1939,"Ġstate":1940,"icho":1941,"ists":1942,"Ġpoor":1943,"Ġrachel":1944,"Ġjericho":1945,"Ġperform":1946,"avened":1947,"Ġrelation":1948,"Ġdoorway":1949,"Ġconnect":1950,"Ġitems":1951,"Ġquestions":1952,"Ġglory":1953,"Ġtouching":1954,"ches":1955,"ique":1956,"sort":1957,"Ġtables":1958,"Ġwound":1959,"Ġbad":1960,"Ġfut":1961,"Ġyet":1962,"Ġpast":1963,"Ġbegin":1964,"Ġish":1965,"Ġstory":1966,"Ġmyself":1967,"Ġplat":1968,"Ġworking":1969,"Ġhowever":1970,"aching":1971,"ized":1972,"Ġquicksort":1973,"Ġcanaanites":1974,"cessary":1975,"Ġdistribut":1976,"Ġlandsc":1977,"Ġdisgusting":1978,"):":1979,"fting":1980,"heth":1981,"Ġacts":1982,"ints":1983,"orah":1984,"Ġcord":1985,"Ġgil":1986,"Ġgide":1987,"Ġpra":1988,"Ġinit":1989,"Ġbel":1990,"Ġnote":1991,"Ġsocial":1992,"Ġmanage":1993,"eph":1994,"Ġvine":1995,"Ġshort":1996,"Ġfold":1997,"Ġgets":1998,"Ġkeeping":1999,"Ġrule":2000,"Ġrather":2001,"Ġrespect":2002,"Ġcompan":2003,"Ġperf":2004,"Ġfields":2005,"doing":2006,"Ġtechn":2007,"Ġrecorded":2008,"Ġidea":2009,"Ġovertake":2010,"Ġgideon":2011,"ek":2012,"gal":2013,"ives":2014,"Ġtas":2015,"reel":2016,"Ġcakes":2017,"Ġpresent":2018,"Ġnab":2019,"Ġoffspring":2020,"pped":2021,"Ġrobe":2022,"Ġenc":2023,"Ġzer":2024,"Ġpot":2025,"Ġneeded":2026,"ready":2027,"Ġlists":2028,"Ġcommonos":2029,"Ġlonger":2030,"Ġgrace":2031,"Ġephod":2032,"aphat":2033,"Ġdefin":2034,"Ġflowing":2035,"Ġaramae":2036,"Ġwriters":2037,"Ġmultiple":2038,"Ġcomputer":2039,"Ġtarget":2040,"Ġperfum":2041,"ijah":2042,"Ġopp":2043,"Ġsorrow":2044,"Ġhitt":2045,"Ġfont":2046,"Ġtom":2047,"Ġmed":2048,"Ġhapp":2049,"ential":2050,"Ġgoat":2051,"acing":2052,"Ġsubs":2053,"Ġfew":2054,"Ġexc":2055,"Ġsins":2056,"Ġpoet":2057,"Ġblue":2058,"Ġinstru":2059,"Ġtalking":2060,"Ġincreased":2061,"Ġlamb":2062,"Ġaudience":2063,"Ġforgi":2064,"Ġwisdom":2065,"Ġselection":2066,"Ġreturn":2067,"Ġetc":2068,"\",":2069,"bon":2070,"end":2071,"ead":2072,"ground":2073,"gpu":2074,"Ġ8":2075,"Ġ=":2076,"Ġoper":2077,"Ġwgpu":2078,"inking":2079,"reation":2080,"Ġhar":2081,"era":2082,"Ġloud":2083,"Ġlater":2084,"Ġdro":2085,"Ġbeautiful":2086,"acking":2087,"Ġjeph":2088,"Ġdocu":2089,"Ġnecessary":2090,"abor":2091,"ference":2092,"Ġsun":2093,"arden":2094,"Ġunw":2095,"aps":2096,"Ġbooks":2097,"Ġhorse":2098,"Ġbalak":2099,"Ġboards":2100,"carriages":2101,"hip":2102,"ied":2103,"ted":2104,"Ġrain":2105,"Ġwid":2106,"ins":2107,"Ġfast":2108,"Ġlep":2109,"Ġge":2110,"Ġnah":2111,"Ġdeb":2112,"Ġdev":2113,"Ġwhoever":2114,"âĢĶ":2115,"Ġvie":2116,"Ġseem":2117,"Ġconf":2118,"tex":2119,"Ġordered":2120,"ateg":2121,"aged":2122,"Ġrules":2123,"Ġpoint":2124,"Ġhorses":2125,"Ġimpro":2126,"Ġguid":2127,"views":2128,"Ġflocks":2129,"Ġpleasing":2130,"Ġpleasure":2131,"Ġjezreel":2132,"Ġerr":2133,"Ġnetwork":2134,"Ġqueue":2135,"Ġfuture":2136,"Ġforgiven":2137,"10":2138,"ired":2139,"sive":2140,"shed":2141,"Ġwave":2142,"Ġhate":2143,"Ġfaster":2144,"Ġcor":2145,"Ġcreation":2146,"Ġinf":2147,"Ġnaph":2148,"Ġnoah":2149,"ilt":2150,"ily":2151,"Ġseo":2152,"Ġstra":2153,"Ġlifting":2154,"Ġdep":2155,"Ġvi":2156,"Ġplay":2157,"alled":2158,"Ġalready":2159,"Ġseek":2160,"Ġcoo":2161,"text":2162,"Ġfunctions":2163,"Ġbreadth":2164,"Ġstarting":2165,"Ġsetting":2166,"Ġlevi":2167,"Ġinstead":2168,"Ġsigns":2169,"Ġsalvation":2170,"Ġnewsletter":2171,"Ġzebul":2172,"cision":2173,"eous":2174,"ho":2175,"hing":2176,"ier":2177,"less":2178,"line":2179,"mer":2180,"tt":2181,"tion":2182,"two":2183,"Ġsides":2184,"Ġbar":2185,"oram":2186,"Ġdark":2187,"leavened":2188,"Ġwhite":2189,"Ġunt":2190,"Ġjab":2191,"Ġvia":2192,"load":2193,"Ġseems":2194,"Ġfocus":2195,"Ġspear":2196,"ieve":2197,"Ġunleavened":2198,"Ġpriv":2199,"Ġsamson":2200,"Ġquality":2201,"Ġpop":2202,"Ġcreator":2203,"Ġreaders":2204,"aziah":2205,"Ġphilistine":2206,"Ġwrongdoing":2207,"Ġjehosh":2208,"Ġcolor":2209,"Ġsoftware":2210,"Ġperformance":2211,"Ġstraight":2212,"Ġjehoshaphat":2213,"had":2214,"io":2215,"pro":2216,"Ġsar":2217,"Ġbands":2218,"Ġoften":2219,"Ġmic":2220,"Ġmine":2221,"iram":2222,"adab":2223,"Ġasa":2224,"Ġstick":2225,"Ġorgan":2226,"Ġmeat":2227,"Ġpeoples":2228,"Ġprog":2229,"Ġbackground":2230,"Ġfollow":2231,"Ġprint":2232,"play":2233,"Ġblow":2234,"Ġrings":2235,"Ġreading":2236,"Ġbashan":2237,"Ġhorn":2238,"Ġloop":2239,"Ġlights":2240,"Ġmeasure":2241,"Ġgibeah":2242,"Ġrecursive":2243,"tali":2244,"Ġlanguage":2245,"Ġleper":2246,"Ġforgiveness":2247,"cut":2248,"mi":2249,"ners":2250,"not":2251,"Ġwise":2252,"Ġhig":2253,"Ġdust":2254,"Ġbeer":2255,"Ġsavi":2256,"Ġreally":2257,"Ġmotion":2258,"Ġmango":2259,"Ġletter":2260,"umcision":2261,"Ġ100":2262,"Ġbuff":2263,"Ġblog":2264,"Ġbased":2265,"Ġscen":2266,"Ġactually":2267,"most":2268,"Ġcruel":2269,"Ġcrushed":2270,"Ġmaj":2271,"Ġcircumcision":2272,"Ġsteps":2273,"Ġnaphtali":2274,"con":2275,"ient":2276,"ured":2277,"Ġaut":2278,"Ġcale":2279,"amar":2280,"Ġgoats":2281,"Ġgoog":2282,"aced":2283,"rows":2284,"uring":2285,"Ġmove":2286,"Ġload":2287,"Ġshad":2288,"avi":2289,"Ġboy":2290,"Ġads":2291,"Ġteam":2292,"shing":2293,"ffic":2294,"Ġrighteous":2295,"Ġfacebook":2296,"Ġbran":2297,"Ġtextures":2298,"Ġsecretly":2299,"Ġformat":2300,"Ġsyn":2301,"Ġincrease":2302,"Ġkeyword":2303,"Ġdirectory":2304,"Ġchoose":2305,"Ġbehavi":2306,"Ġrelevant":2307,"Ġinitial":2308,"Ġmanagement":2309,"Ġaramaeans":2310,"Ġsarah":2311,".)":2312,"cing":2313,"des":2314,"gest":2315,"lah":2316,"min":2317,"whe":2318,"Ġ7":2319,"Ġsime":2320,"Ġbat":2321,"Ġfound":2322,"Ġmah":2323,"Ġmesh":2324,"omes":2325,"Ġitself":2326,"irl":2327,"Ġwashing":2328,"Ġasher":2329,"Ġsto":2330,"plement":2331,"Ġplan":2332,"Ġseeing":2333,"Ġunique":2334,"Ġgenerate":2335,"Ġcurrent":2336,"Ġthousands":2337,"Ġscale":2338,"Ġsetup":2339,"Ġvertex":2340,"Ġruling":2341,"Ġgilgal":2342,"Ġunwalled":2343,"Ġview":2344,"Ġerror":2345,"Ġmajor":2346,"Ġgoogle":2347,"Ġsimeon":2348,"bus":2349,"eed":2350,"ges":2351,"ien":2352,"mf":2353,"mar":2354,"Ġwing":2355,"Ġwal":2356,"Ġwand":2357,"Ġbra":2358,"Ġmak":2359,"Ġdang":2360,"lehem":2361,"Ġiss":2362,"Ġrender":2363,"Ġframe":2364,"Ġalong":2365,"Ġearli":2366,"osheth":2367,"Ġsuc":2368,"Ġtell":2369,"Ġsorts":2370,"Ġproduce":2371,"Ġglad":2372,"Ġstretching":2373,"Ġdirections":2374,"Ġjesse":2375,"Ġobje":2376,"sheba":2377,"Ġmetal":2378,"Ġveil":2379,"Ġlandscape":2380,"Ġpraise":2381,"Ġtomorrow":2382,"Ġoperations":2383,"Ġviol":2384,"Ġsaviour":2385,".\"":2386,".âĢĿ":2387,"face":2388,"fort":2389,"pah":2390,"Ġbru":2391,"Ġhoney":2392,"Ġmach":2393,"Ġlink":2394,"Ġuri":2395,"Ġsees":2396,"Ġreference":2397,"Ġash":2398,"Ġwhenever":2399,"Ġvir":2400,"Ġintro":2401,"Ġloose":2402,"Ġphone":2403,"Ġprim":2404,"Ġext":2405,"Ġleg":2406,"Ġleah":2407,"Ġimplement":2408,"Ġsearching":2409,"Ġjebus":2410,"Ġjoy":2411,"Ġbenef":2412,"Ġindeed":2413,"aiah":2414,"Ġtrack":2415,"Ġdesigns":2416,"Ġcollabor":2417,"Ġpubl":2418,"wood":2419,"Ġinvol":2420,"Ġlibrary":2421,"Ġdistribution":2422,"Ġbrand":2423,"Ġdanger":2424,"bre":2425,"five":2426,"ihon":2427,"sp":2428,"Ġsihon":2429,"Ġfre":2430,"Ġmin":2431,"Ġmode":2432,"ern":2433,"atural":2434,"Ġlar":2435,"Ġuses":2436,"Ġhist":2437,"vers":2438,"Ġstor":2439,"tern":2440,"Ġoverse":2441,"Ġshall":2442,"Ġkir":2443,"Ġhole":2444,"Ġcreating":2445,"oted":2446,"Ġcalls":2447,"Ġfourth":2448,"Ġgrid":2449,"Ġslow":2450,"Ġlocal":2451,"Ġjesus":2452,"Ġdivision":2453,"Ġprofess":2454,"Ġupdate":2455,"Ġapi":2456,"Ġzebulun":2457,"Ġwinged":2458,"//":2459,"://":2460,"ban":2461,"hou":2462,"lt":2463,"ÃĹ":2464,"Ġtrain":2465,"Ġsqu":2466,"Ġbud":2467,"Ġhtt":2468,"Ġmiz":2469,"Ġmass":2470,"Ġiron":2471,"Ġced":2472,"Ġgath":2473,"iss":2474,"ilar":2475,"add":2476,"Ġsection":2477,"eline":2478,"rable":2479,"Ġreh":2480,"Ġrebe":2481,"Ġdoors":2482,"Ġstand":2483,"Ġputs":2484,"ribe":2485,"Ġloss":2486,"Ġshil":2487,"Ġshaking":2488,"Ġconst":2489,"Ġhandl":2490,"Ġcost":2491,"ush":2492,"Ġadon":2493,"Ġsinai":2494,"Ġrust":2495,"Ġwherever":2496,"Ġsomeone":2497,"Ġsimilar":2498,"Ġpurple":2499,"Ġstronger":2500,"Ġdrinking":2501,"Ġprep":2502,"Ġexpert":2503,"ivot":2504,"Ġboxes":2505,"Ġcamels":2506,"Ġfactor":2507,"Ġseller":2508,"Ġcrit":2509,"Ġspecify":2510,"Ġstructure":2511,"Ġmilk":2512,"Ġprofessional":2513,"Ġcedar":2514,"fer":2515,"ires":2516,"mah":2517,"ring":2518,"ract":2519,"ups":2520,"zah":2521,"Ġta":2522,"Ġtv":2523,"Ġara":2524,"Ġsing":2525,"Ġbow":2526,"Ġbind":2527,"oured":2528,"Ġpivot":2529,"aries":2530,"Ġhebre":2531,"ution":2532,"Ġur":2533,"Ġself":2534,"Ġallow":2535,"ctive":2536,"Ġlives":2537,"Ġoutc":2538,"oks":2539,"Ġherds":2540,"Ġvision":2541,"log":2542,"Ġsho":2543,"Ġken":2544,"Ġfee":2545,"Ġexpl":2546,"Ġlead":2547,"Ġteaching":2548,"Ġevent":2549,"Ġbuilt":2550,"durable":2551,"Ġanswering":2552,"Ġproducts":2553,"Ġsixty":2554,"Ġemail":2555,"Ġgraphics":2556,"Ġwriter":2557,"Ġdeter":2558,"Ġwindow":2559,"Ġgibeon":2560,"Ġbreast":2561,"Ġjoined":2562,"Ġvisual":2563,"Ġchanges":2564,"Ġcomponent":2565,"Ġdevelopment":2566,"lambs":2567,"Ġpoetry":2568,"Ġhistory":2569,"Ġkiriath":2570,"Ġrebekah":2571,"Ġsingle":2572,"lon":2573,"na":2574,"oses":2575,"Âł":2576,"Ġ9":2577,"Ġhome":2578,"Ġmess":2579,"Ġcal":2580,"ished":2581,"Ġnun":2582,"itions":2583,"Ġnodes":2584,"Ġui":2585,"ilah":2586,"ada":2587,"thah":2588,"Ġnotation":2589,"Ġcomb":2590,"riage":2591,"Ġdepe":2592,"Ġabish":2593,"Ġaround":2594,"logy":2595,"Ġ16":2596,"Ġtem":2597,"achar":2598,"Ġapplic":2599,"Ġdisc":2600,"Ġjoash":2601,"Ġadded":2602,"ailable":2603,"Ġwonder":2604,"Ġeditors":2605,"Ġdamaged":2606,"vious":2607,"Ġjudges":2608,"Ġprompt":2609,"point":2610,"Ġplatform":2611,"Ġperfume":2612,"Ġhittite":2613,"Ġjephthah":2614,"Ġpopular":2615,"Ġhigher":2616,"Ġcaleb":2617,"Ġissachar":2618,"Ġhttps":2619,"Ġdepend":2620,"col":2621,"tree":2622,"ww":2623,"Ġ__":2624,"Ġsw":2625,"Ġcou":2626,"Ġcateg":2627,"Ġgames":2628,"ength":2629,"Ġinput":2630,"Ġnathan":2631,"Ġhesh":2632,"acter":2633,"Ġwithin":2634,"Ġseir":2635,"Ġreviews":2636,"Ġcomfort":2637,"Ġornam":2638,"oding":2639,"ried":2640,"Ġchance":2641,"ability":2642,"Ġarch":2643,"Ġmaybe":2644,"Ġfate":2645,"Ġkad":2646,"Ġcond":2647,"Ġcopy":2648,"Ġpride":2649,"Ġpract":2650,"Ġleather":2651,"Ġleverage":2652,"Ġsince":2653,"Ġediting":2654,"Ġundert":2655,"Ġdisplay":2656,"Ġoldest":2657,"Ġcontin":2658,"ify":2659,"Ġhighly":2660,"Ġattacking":2661,"Ġscreen":2662,"Ġindia":2663,"Ġindex":2664,"Ġfifth":2665,"Ġmountains":2666,"Ġrequire":2667,"Ġvert":2668,"Ġlimits":2669,"Ġincluding":2670,"Ġartic":2671,"Ġoptions":2672,"Ġlambs":2673,"Ġterms":2674,"Ġavailable":2675,"Ġcharacter":2676,"...":2677,"Ġsleep":2678,"Ġlayout":2679,"Ġhanging":2680,"Ġcompany":2681,"Ġoppos":2682,"Ġmedia":2683,"Ġcooked":2684,"where":2685,"Ġmesha":2686,"house":2687,"Ġstandard":2688,"Ġcategory":2689,"bar":2690,"bah":2691,"based":2692,"cher":2693,"fl":2694,"ling":2695,"ophe":2696,"trees":2697,"Ġair":2698,"Ġhan":2699,"Ġmich":2700,"Ġmain":2701,"Ġill":2702,"Ġcro":2703,"ately":2704,"Ġlion":2705,"Ġgers":2706,"Ġgirl":2707,"Ġpip":2708,"enc":2709,"Ġnatural":2710,"Ġequ":2711,"Ġforces":2712,"Ġforced":2713,"adok":2714,"Ġsong":2715,"ains":2716,"Ġabiath":2717,"Ġbecomes":2718,"Ġshime":2719,"Ġworked":2720,"Ġkoh":2721,"Ġspices":2722,"Ġfem":2723,"Ġgreatly":2724,"Ġexpect":2725,"Ġadv":2726,"Ġzadok":2727,"Ġpoints":2728,"Ġflat":2729,"Ġgrapes":2730,"Ġgeneral":2731,"Ġbird":2732,"Ġmatthe":2733,"Ġtyp":2734,"Ġvalid":2735,"Ġcomplex":2736,"Ġvideos":2737,"Ġacting":2738,"Ġinstant":2739,"Ġsmaller":2740,"Ġlearning":2741,"Ġintern":2742,"Ġrelationship":2743,"Ġtroubled":2744,"Ġslot":2745,"Ġrecursion":2746,"Ġcommunity":2747,"Ġimprove":2748,"Ġcorre":2749,"Ġdepth":2750,"Ġprogram":2751,"Ġwalking":2752,"Ġearlier":2753,"Ġsquare":2754,"Ġfeeble":2755,"Ġheshbon":2756,"Ġkadesh":2757,"Ġabiathar":2758,"Ġkohath":2759,"Ġmatthew":2760,"full":2761,"jo":2762,"land":2763,"ma":2764,"tribe":2765,"Ġ>":2766,"Ġaz":2767,"Ġaction":2768,"reet":2769,"Ġlu":2770,"Ġlau":2771,"Ġdrain":2772,"ries":2773,"Ġwhether":2774,"Ġplaced":2775,"Ġsham":2776,"Ġworst":2777,"Ġfocu":2778,"type":2779,"Ġenable":2780,"Ġmarried":2781,"Ġhundreds":2782,"Ġeye":2783,"Ġaddress":2784,"Ġopin":2785,"Ġbodies":2786,"Ġsorted":2787,"Ġopening":2788,"Ġdoesn":2789,"Ġworshi":2790,"Ġstored":2791,"Ġexamples":2792,"Ġversion":2793,"Ġtechno":2794,"Ġdetails":2795,"Ġconnections":2796,"Ġramah":2797,"Ġcomponents":2798,"Ġshortest":2799,"Ġdocument":2800,"Ġprivate":2801,"Ġbranches":2802,"Ġkeywords":2803,"Ġvirgin":2804,"Ġshiloh":2805,"Ġconstant":2806,"Ġopposite":2807,"20":2808,"air":2809,"bed":2810,"cl":2811,"ere":2812,"fru":2813,"ially":2814,"iada":2815,"port":2816,"time":2817,"Ġaverage":2818,"Ġsn":2819,"Ġbon":2820,"Ġbath":2821,"Ġmal":2822,"Ġmust":2823,"Ġlines":2824,"Ġlower":2825,"Ġport":2826,"lling":2827,"ither":2828,"omi":2829,"Ġisn":2830,"iring":2831,"ication":2832,"raph":2833,"Ġreven":2834,"Ġreph":2835,"Ġallows":2836,"Ġanal":2837,"Ġnotice":2838,"Ġstar":2839,"Ġwhole":2840,"Ġoutput":2841,"Ġfig":2842,"ably":2843,"Ġamnon":2844,"fect":2845,"Ġhooks":2846,"Ġlegs":2847,"aging":2848,"izz":2849,"Ġbuy":2850,"Ġsending":2851,"ips":2852,"Ġwool":2853,"Ġactive":2854,"Ġstoned":2855,"Ġprevious":2856,"Ġpurposes":2857,"board":2858,"Ġowner":2859,"Ġfair":2860,"cribe":2861,"took":2862,"Ġpassover":2863,"Ġhumans":2864,"Ġunderstanding":2865,"Ġavo":2866,"Ġvaluable":2867,"Ġjehoiada":2868,"which":2869,"Ġamalekites":2870,"Ġrendering":2871,"Ġinstruments":2872,"Ġhorsemen":2873,"Ġwidow":2874,"hadad":2875,"Ġrighteousness":2876,"Ġwandering":2877,"Ġuriah":2878,"Ġprimary":2879,").":2880,"den":2881,"ger":2882,"ged":2883,"gment":2884,"gree":2885,"gile":2886,"live":2887,"ming":2888,"mel":2889,"mael":2890,"tow":2891,"yle":2892,"Ġx":2893,"head":2894,"Ġwond":2895,"Ġbright":2896,"Ġhiv":2897,"Ġfing":2898,"Ġfit":2899,"Ġfaces":2900,"Ġmeth":2901,"Ġduring":2902,"Ġnile":2903,"Ġthin":2904,"Ġsave":2905,"Ġwebs":2906,"stor":2907,"Ġreach":2908,"Ġjoram":2909,"Ġwasted":2910,"Ġasse":2911,"Ġstud":2912,"Ġoffer":2913,"Ġkorah":2914,"Ġcoat":2915,"Ġlevel":2916,"Ġleban":2917,"ilee":2918,"izing":2919,"Ġadding":2920,"Ġbasic":2921,"Ġahaziah":2922,"Ġmonthly":2923,"Ġconsist":2924,"Ġpleased":2925,"Ġcubit":2926,"Ġprojects":2927,"Ġdamage":2928,"Ġposts":2929,"servants":2930,"Ġishmael":2931,"Ġuntil":2932,"Ġcrown":2933,"Ġgershon":2934,"Ġfemale":2935,"fully":2936,"Ġfocused":2937,"gilead":2938,"Ġlebanon":2939,"oah":2940,"pa":2941,"Ġess":2942,"Ġaw":2943,"Ġolive":2944,"ndom":2945,"Ġbill":2946,"Ġcent":2947,"Ġyoke":2948,"Ġgain":2949,"Ġgreen":2950,"Ġpen":2951,"esses":2952,"Ġinner":2953,"Ġna":2954,"Ġnine":2955,"itors":2956,"Ġthread":2957,"ann":2958,"idon":2959,"Ġonline":2960,"ilities":2961,"icate":2962,"Ġreview":2963,"alm":2964,"uri":2965,"Ġchange":2966,"ctor":2967,"Ġdear":2968,"Ġneb":2969,"Ġarnon":2970,"pty":2971,"Ġserv":2972,"Ġexch":2973,"Ġexist":2974,"ource":2975,"Ġ15":2976,"Ġevents":2977,"ems":2978,"ization":2979,"Ġpersons":2980,"Ġmonths":2981,"Ġpowerful":2982,"Ġlevite":2983,"world":2984,"asha":2985,"Ġempty":2986,"Ġincludes":2987,"goats":2988,"Ġgraphs":2989,"Ġtroub":2990,"Ġcarriage":2991,"Ġproblems":2992,"Ġrandom":2993,"Ġsalt":2994,"Ġspecific":2995,"Ġintegrations":2996,"Ġvalues":2997,"Ġconcept":2998,"Ġcapac":2999,"Ġcollection":3000,"Ġrepresent":3001,"Ġcords":3002,"Ġnaboth":3003,"Ġshader":3004,"Ġlinks":3005,"Ġadonijah":3006,"Ġtauri":3007,"Ġvertices":3008,"Ġshimei":3009,"erer":3010,"fruits":3011,"awn":3012,"fo":3013,"gu":3014,"garden":3015,"me":3016,"shem":3017,"ues":3018,"ype":3019,"Ġtamar":3020,"hest":3021,"Ġog":3022,"Ġhit":3023,"Ġfer":3024,"Ġmap":3025,"Ġcart":3026,"Ġcount":3027,"Ġlength":3028,"Ġpret":3029,"Ġded":3030,"Ġdig":3031,"lled":3032,"Ġinser":3033,"itor":3034,"ited":3035,"asing":3036,"Ġheight":3037,"ided":3038,"Ġref":3039,"Ġsodom":3040,"Ġplated":3041,"Ġtwist":3042,"Ġserver":3043,"Ġkit":3044,"Ġboaz":3045,"Ġenv":3046,"Ġenjo":3047,"Ġparted":3048,"Ġzidon":3049,"Ġedges":3050,"Ġthank":3051,"Ġresul":3052,"soci":3053,"Ġcloth":3054,"Ġtrad":3055,"Ġpersonal":3056,"baal":3057,"Ġexperien":3058,"Ġrulers":3059,"Ġbaasha":3060,"Ġeasily":3061,"Ġeasier":3062,"Ġwalls":3063,"Ġwalled":3064,"Ġinteract":3065,"Ġtouched":3066,"Ġthoughts":3067,"ebel":3068,"Ġfeature":3069,"Ġjezebel":3070,"Ġachish":3071,"Ġpulling":3072,"Ġsystems":3073,"Ġcollect":3074,"Ġnabal":3075,"Ġpotential":3076,"Ġjabesh":3077,"Ġmicah":3078,"Ġscene":3079,"Ġintrodu":3080,"Ġoverseers":3081,"Ġoutcry":3082,"Ġabishai":3083,"Ġtechnology":3084,"Ġrevenue":3085,"Ġfinger":3086,"Ġmethod":3087,"Ġnaomi":3088,"iet":3089,"pher":3090,"pers":3091,"uctive":3092,"ination":3093,"Ġsum":3094,"Ġbits":3095,"Ġhiram":3096,"Ġfacing":3097,"Ġtoken":3098,"Ġgarden":3099,"Ġpi":3100,"Ġpict":3101,"Ġdou":3102,"Ġinno":3103,"array":3104,"Ġnative":3105,"itive":3106,"anced":3107,"Ġeither":3108,"Ġsaf":3109,"Ġux":3110,"Ġweek":3111,"ropy":3112,"Ġjub":3113,"Ġassoci":3114,"Ġstop":3115,"Ġlive":3116,"Ġneck":3117,"Ġplate":3118,"Ġshar":3119,"Ġworth":3120,"Ġcontain":3121,"Ġhollow":3122,"Ġspo":3123,"tem":3124,"teenth":3125,"ategy":3126,"Ġtaker":3127,"Ġquiet":3128,"Ġblind":3129,"ighth":3130,"Ġstrategy":3131,"Ġdiscus":3132,"Ġgenerative":3133,"Ġended":3134,"Ġperfect":3135,"Ġperizz":3136,"Ġbenaiah":3137,"Ġspeed":3138,"degree":3139,"Ġrelated":3140,"Ġstarted":3141,"Ġmidpoint":3142,"Ġcrushing":3143,"Ġcarmel":3144,"Ġ50":3145,"like":3146,"Ġentropy":3147,"cious":3148,"Ġmeasures":3149,"Ġprisoners":3150,"Ġslots":3151,"Ġbreak":3152,"Ġhamm":3153,"Ġsleeping":3154,"Ġhazael":3155,"Ġfolder":3156,"Ġtechnical":3157,"Ġsettings":3158,"Ġobjects":3159,"Ġbenefits":3160,"Ġrehoboam":3161,"Ġcritical":3162,"Ġpretty":3163,"Ġenjoy":3164,"'re":3165,"11":3166,"40":3167,"ew":3168,"gard":3169,"ggest":3170,"iver":3171,"ious":3172,"oking":3173,"sc":3174,"val":3175,"wer":3176,"yri":3177,"Ïī":3178,"Ġ...":3179,"Ġahead":3180,"Ġwon":3181,"ining":3182,"Ġhin":3183,"Ġhore":3184,"Ġfur":3185,"Ġfount":3186,"Ġmas":3187,"Ġcy":3188,"Ġcows":3189,"Ġyew":3190,"atives":3191,"Ġpat":3192,"Ġpol":3193,"Ġpick":3194,"Ġnaam":3195,"Ġthor":3196,"Ġiso":3197,"Ġsand":3198,"Ġsaved":3199,"Ġhag":3200,"immon":3201,"Ġuz":3202,"Ġith":3203,"vert":3204,"Ġframes":3205,"Ġtheirs":3206,"Ġmoon":3207,"ahaz":3208,"epts":3209,"Ġarrows":3210,"Ġherd":3211,"Ġshem":3212,"Ġovertook":3213,"Ġsuggest":3214,"Ġaff":3215,"Ġkid":3216,"Ġkiss":3217,"ources":3218,"Ġadvant":3219,"Ġpartic":3220,"Ġblows":3221,"index":3222,"apes":3223,"forms":3224,"arai":3225,"Ġbasket":3226,"Ġsolve":3227,"Ġbring":3228,"Ġstartup":3229,"Ġguide":3230,"Ġfinding":3231,"Ġassyri":3232,"Ġemp":3233,"Ġlooks":3234,"Ġskill":3235,"prise":3236,"Ġcarriages":3237,"Ġdirectly":3238,"Ġdistance":3239,"Ġoptim":3240,"Ġinvest":3241,"Ġpaths":3242,"Ġgroups":3243,"Ġjudged":3244,"Ġtesting":3245,"Ġchanged":3246,"Ġcurtains":3247,"Ġ202":3248,"Ġhangings":3249,"Ġwounded":3250,"Ġzeru":3251,"Ġorganic":3252,"context":3253,"Ġbrush":3254,"Ġmizpah":3255,"Ġarabah":3256,"Ġ____":3257,"flow":3258,"Ġpipeline":3259,"Ġrephaim":3260,"towns":3261,"Ġwonders":3262,"Ġnebat":3263,"shemesh":3264,"Ġjubilee":3265,"Ġfurther":3266,"Ġassyria":3267,"59":3268,"859":3269,"bd":3270,"by":3271,"cm":3272,"cket":3273,"flo":3274,"kron":3275,"mend":3276,"tile":3277,"wise":3278,"ynam":3279,"Ġesh":3280,"Ġtir":3281,"Ġos":3282,"inite":3283,"Ġbmf":3284,"Ġmill":3285,"Ġcred":3286,"Ġyum":3287,"ator":3288,"atype":3289,"Ġgaz":3290,"Ġpc":3291,"Ġpas":3292,"Ġpity":3293,"Ġpres":3294,"ency":3295,"Ġdawn":3296,"Ġdynam":3297,"ommend":3298,"ascus":3299,"Ġeighth":3300,"Ġekron":3301,"aling":3302,"though":3303,"Ġanak":3304,"Ġorig":3305,"Ġmean":3306,"ody":3307,"Ġabel":3308,"Ġarts":3309,"Ġalthough":3310,"Ġtwice":3311,"Ġhope":3312,"Ġhobb":3313,"Ġsport":3314,"tend":3315,"vessel":3316,"Ġleast":3317,"Ġegyptian":3318,"Ġfunctionality":3319,"Ġolder":3320,"Ġyoungest":3321,"acters":3322,"ified":3323,"Ġsmoke":3324,"Ġahijah":3325,"Ġ25":3326,"Ġrecommend":3327,"Ġindices":3328,"Ġdesigned":3329,"Ġmerari":3330,"Ġartists":3331,"Ġprovides":3332,"Ġpossib":3333,"Ġsisera":3334,"Ġsounded":3335,"Ġdamascus":3336,"Ġlowlands":3337,"Ġeffects":3338,"Ġbuttons":3339,"Ġjudging":3340,"Ġeighty":3341,"Ġachieve":3342,"Ġsurve":3343,"Ġpromot":3344,"Ġjoining":3345,"Ġhuman":3346,"Ġfinally":3347,"Ġcharacters":3348,"Ġlibraries":3349,"Ġpaid":3350,"Ġcustomer":3351,"Ġstatement":3352,"Ġtaste":3353,"Ġhappy":3354,"Ġinstrument":3355,"Ġguiding":3356,"Ġbathed":3357,"Ġstopped":3358,"Ġhandler":3359,"Ġornaments":3360,"Ġcorrect":3361,"Ġavoid":3362,"storm":3363,"Ġsharp":3364,"Ġzeruiah":3365,"Ġyumon":3366,"?âĢĿ":3367,"cul":3368,"has":3369,"hud":3370,"hol":3371,"hai":3372,"map":3373,"och":3374,"yth":3375,"ĠÃĹ":3376,"Ġtbd":3377,"Ġale":3378,"Ġbone":3379,"Ġfill":3380,"Ġml":3381,"Ġice":3382,"Ġcra":3383,"Ġcour":3384,"Ġinsp":3385,"Ġthum":3386,"omat":3387,"Ġeg":3388,"Ġeffic":3389,"ithophe":3390,"icated":3391,"Ġrece":3392,"Ġmeph":3393,"Ġdece":3394,"âĢľ":3395,"Ġupload":3396,"Ġmanoah":3397,"Ġarrow":3398,"Ġplacing":3399,"Ġusage":3400,"Ġseries":3401,"Ġcanv":3402,"inehas":3403,"Ġphinehas":3404,"Ġends":3405,"Ġyounger":3406,"Ġahithophe":3407,"Ġhelps":3408,"Ġephah":3409,"ontro":3410,"Ġmodern":3411,"Ġguest":3412,"Ġprayers":3413,"box":3414,"goat":3415,"ression":3416,"Ġartist":3417,"urable":3418,"Ġshutting":3419,"Ġpainting":3420,"Ġdeeper":3421,"Ġintegrated":3422,"Ġjehoash":3423,"Ġeffective":3424,"Ġanimations":3425,"Ġpaper":3426,"Ġapproach":3427,"Ġrenderer":3428,"Ġplatforms":3429,"Ġnahor":3430,"Ġseemed":3431,"Ġconfig":3432,"Ġinfinite":3433,"Ġbuffer":3434,"Ġbuffers":3435,"Ġsync":3436,"market":3437,"Ġviolent":3438,"Ġmachir":3439,"Ġfreely":3440,"ternal":3441,"Ġhebrews":3442,"Ġdeterm":3443,"Ġcouple":3444,"Ġundertaking":3445,"Ġcontinue":3446,"Ġarticle":3447,"chers":3448,"Ġlaun":3449,"Ġbones":3450,"Ġmales":3451,"Ġoutputs":3452,"Ġfertile":3453,"Ġtwisted":3454,"Ġdoub":3455,"floor":3456,"Ġtirzah":3457,"Ġorigin":3458,"Ġahithophel":3459,"app":3460,"bu":3461,"cast":3462,"dress":3463,"dden":3464,"fit":3465,"ging":3466,"haps":3467,"mak":3468,"ni":3469,"night":3470,"oc":3471,"pos":3472,"ties":3473,"âĨ":3474,"Ġwings":3475,"Ġsarai":3476,"Ġbes":3477,"Ġbent":3478,"Ġtower":3479,"Ġmir":3480,"ery":3481,"Ġcain":3482,"Ġcup":3483,"Ġger":3484,"ller":3485,"ised":3486,"level":3487,"idge":3488,"seven":3489,"aming":3490,"Ġgoshe":3491,"acy":3492,"eds":3493,"ety":3494,"Ġsear":3495,"Ġdemo":3496,"Ġneare":3497,"Ġabi":3498,"Ġsheba":3499,"Ġalmost":3500,"loy":3501,"Ġsharing":3502,"Ġshared":3503,"Ġcannot":3504,"aves":3505,"Ġseeking":3506,"Ġcontext":3507,"Ġhandle":3508,"Ġsudden":3509,"Ġfool":3510,"Ġspring":3511,"Ġlikely":3512,"Ġflag":3513,"Ġundergo":3514,"Ġcreated":3515,"Ġending":3516,"ific":3517,"Ġbasin":3518,"Ġtrust":3519,"Ġspend":3520,"Ġsorting":3521,"Ġcountrymen":3522,"Ġloved":3523,"Ġdesigner":3524,"Ġrequires":3525,"Ġdifference":3526,"neys":3527,"Ġflowers":3528,"Ġfruits":3529,"Ġlinkedin":3530,"nothing":3531,"Ġentire":3532,"Ġprisoner":3533,"Ġcamera":3534,"Ġstreams":3535,"Ġdivide":3536,"Ġtrying":3537,"Ġziba":3538,"lamb":3539,"Ġdelight":3540,"Ġsubscript":3541,"Ġdocuments":3542,"Ġdevice":3543,"Ġcollaboration":3544,"Ġcalcul":3545,"Ġapplication":3546,"Ġarchite":3547,"Ġopinion":3548,"Ġexchange":3549,"Ġresults":3550,"Ġexperiences":3551,"person":3552,"Ġsafely":3553,"Ġassociated":3554,"Ġkidneys":3555,"Ġcourse":3556,"âĨĴ":3557,"Ġgoshen":3558,"25":3559,"8859":3560,"bosheth":3561,"cah":3562,"een":3563,"hor":3564,"hah":3565,"just":3566,"list":3567,"ric":3568,"sk":3569,"und":3570,"you":3571,"µf":3572,"Âµf":3573,"Ġ&":3574,"Ġtail":3575,"Ġaro":3576,"Ġwel":3577,"Ġwra":3578,"Ġsource":3579,"Ġhated":3580,"Ġhire":3581,"Ġmis":3582,"Ġcake":3583,"Ġcush":3584,"Ġcups":3585,"Ġyes":3586,"llig":3587,"Ġnin":3588,"Ġnon":3589,"itely":3590,"anah":3591,"imes":3592,"ets":3593,"verse":3594,"state":3595,"Ġreve":3596,"Ġjob":3597,"aliah":3598,"tham":3599,"three":3600,"Ġarea":3601,"Ġstay":3602,"Ġstyle":3603,"Ġchos":3604,"Ġmanag":3605,"ault":3606,"Ġherself":3607,"Ġamount":3608,"Ġamaziah":3609,"aken":3610,"Ġked":3611,"Ġshun":3612,"Ġshows":3613,"Ġearn":3614,"Ġours":3615,"Ġspice":3616,"Ġleaven":3617,"Ġuseful":3618,"Ġ18":3619,"Ġzo":3620,"ubbaal":3621,"Ġrimmon":3622,"Ġneedle":3623,"Ġdesiring":3624,"weight":3625,"Ġthanks":3626,"Ġaltars":3627,"ressed":3628,"Ġcursing":3629,"Ġjerubbaal":3630,"Ġahim":3631,"Ġahaz":3632,"Ġelect":3633,"Ġsolution":3634,"Ġsimpl":3635,"Ġspeak":3636,"Ġbridge":3637,"Ġbuilder":3638,"Ġangles":3639,"Ġhardware":3640,"eshur":3641,"Ġswords":3642,"Ġlightweight":3643,"Ġconsum":3644,"ject":3645,"Ġseconds":3646,"Ġassure":3647,"Ġtalents":3648,"Ġengage":3649,"Ġengines":3650,"Ġshekel":3651,"ibosheth":3652,"Ġcollisions":3653,"cedural":3654,"Ġmemor":3655,"Ġkinds":3656,"Ġcoloured":3657,"Ġstreaming":3658,"Ġsurface":3659,"Ġhumble":3660,"Ġtravel":3661,"Ġvector":3662,"Ġtransform":3663,"Ġramoth":3664,"Ġplants":3665,"Ġinterested":3666,"Ġbelieve":3667,"Ġencou":3668,"Ġzerah":3669,"Ġdefinitely":3670,"Ġperfumes":3671,"hole":3672,"Ġbehavior":3673,"Ġbehaviors":3674,"Ġjebusites":3675,"Ġjebusite":3676,"Ġtraining":3677,"Ġpractice":3678,"Ġmichal":3679,"Ġstars":3680,"Ġfigure":3681,"Ġcenter":3682,"gardens":3683,"Ġfountain":3684,"Ġdynamic":3685,"Ġmephibosheth":3686,"Ġfoolish":3687,"Ġchosen":3688,"24":3689,"aal":3690,"cked":3691,"coth":3692,"dat":3693,"haz":3694,"las":3695,"nesses":3696,"ote":3697,"ta":3698,"tes":3699,"ĠĠ":3700,"Ġrou":3701,"ĠâĨĴ":3702,"Ġtit":3703,"Ġom":3704,"Ġwin":3705,"Ġbur":3706,"Ġhy":3707,"ounder":3708,"Ġtoward":3709,"Ġmag":3710,"Ġmaac":3711,"Ġcow":3712,"Ġcore":3713,"Ġcases":3714,"Ġll":3715,"Ġgreet":3716,"Ġpack":3717,"ising":3718,"aram":3719,"oming":3720,"asa":3721,"Ġeternal":3722,"Ġsad":3723,"set":3724,"ented":3725,"entially":3726,"Ġnoise":3727,"amp":3728,"kets":3729,"ithub":3730,"etimes":3731,"Ġsequ":3732,"Ġstu":3733,"Ġstat":3734,"Ġstems":3735,"oded":3736,"Ġchin":3737,"lying":3738,"Ġdew":3739,"âĢ¦":3740,"Ġabig":3741,"pting":3742,"Ġprote":3743,"Ġkeilah":3744,"essings":3745,"Ġtwists":3746,"Ġworse":3747,"Ġsuite":3748,"Ġourselves":3749,"Ġkish":3750,"Ġkne":3751,"Ġbob":3752,"Ġprints":3753,"Ġkeeps":3754,"Ġbrow":3755,"agon":3756,"Ġquant":3757,"Ġ12":3758,"olution":3759,"Ġze":3760,"Ġappear":3761,"Ġblessings":3762,"neh":3763,"Ġcreators":3764,"Ġendless":3765,"Ġcurses":3766,"Ġtownsmen":3767,"Ġbasins":3768,"Ġpositions":3769,"Ġoaths":3770,"Ġfourteen":3771,"Ġnaming":3772,"Ġtruth":3773,"Ġheavens":3774,"Ġgui":3775,"Ġguess":3776,"Ġclearly":3777,"Ġpreview":3778,"Ġemails":3779,"Ġembed":3780,"Ġvers":3781,"Ġminds":3782,"Ġdefine":3783,"Ġdefault":3784,"Ġproperties":3785,"ibility":3786,"Ġinterface":3787,"Ġtouch":3788,"Ġpassion":3789,"Ġenter":3790,"Ġideas":3791,"Ġcampa":3792,"Ġterrain":3793,"Ġrequesting":3794,"Ġfactors":3795,"Ġsometimes":3796,"Ġexpand":3797,"Ġforgive":3798,"Ġfeeling":3799,"Ġbags":3800,"Ġhazor":3801,"Ġconnecting":3802,"Ġhittites":3803,"Ġdropped":3804,"Ġguided":3805,"Ġbarak":3806,"cutting":3807,"Ġmahan":3808,"Ġsuccess":3809,"Ġsuccoth":3810,"Ġtells":3811,"Ġpublish":3812,"Ġpublished":3813,"Ġinvolves":3814,"color":3815,"Ġadvanced":3816,"Ġtypical":3817,"Ġsnake":3818,"Ġanaly":3819,"Ġwebsite":3820,"Ġassets":3821,"Ġservice":3822,"Ġtradition":3823,"Ġhammered":3824,"Ġhoreb":3825,"Ġnaaman":3826,"Ġhobby":3827,"Ġalex":3828,"Ġdeceit":3829,"Ġrendererstate":3830,"Ġdetermine":3831,"Ġneedlework":3832,"Ġabigail":3833,"Ġcampaign":3834,"\":":3835,",)":3836,"100":3837,"49":3838,"bably":3839,"come":3840,"cover":3841,"iam":3842,"iving":3843,"ios":3844,"mant":3845,"rings":3846,"six":3847,"uah":3848,"Ġest":3849,"Ġtre":3850,"Ġtall":3851,"Ġaim":3852,"ined":3853,"Ġsens":3854,"Ġhur":3855,"Ġfart":3856,"Ġtops":3857,"Ġtotal":3858,"Ġmaps":3859,"Ġcoding":3860,"Ġgom":3861,"Ġgpu":3862,"Ġgithub":3863,"Ġpages":3864,"Ġdue":3865,"Ġdurable":3866,"llows":3867,"ism":3868,"Ġner":3869,"Ġnadab":3870,"Ġheat":3871,"Ġheth":3872,"Ġforms":3873,"Ġsaving":3874,"ordin":3875,"imum":3876,"Ġlords":3877,"Ġwear":3878,"thites":3879,"Ġsoon":3880,"uration":3881,"Ġstation":3882,"Ġmech":3883,"Ġchains":3884,"cture":3885,"Ġlib":3886,"Ġdem":3887,"Ġattem":3888,"Ġatlas":3889,"Ġargu":3890,"Ġvs":3891,"Ġamasa":3892,"Ġshelah":3893,"Ġbacks":3894,"ortun":3895,"Ġhold":3896,"Ġspot":3897,"unneh":3898,"Ġphys":3899,"Ġotherwise":3900,"beautiful":3901,"Ġexact":3902,"Ġadvert":3903,"Ġkeeper":3904,"Ġwatching":3905,"Ġbrows":3906,"Ġroof":3907,"agraph":3908,"pects":3909,"Ġpartners":3910,"iled":3911,"Ġappe":3912,"Ġran":3913,"Ġruth":3914,"Ġcreates":3915,"Ġstrateg":3916,"izes":3917,"Ġelim":3918,"Ġjew":3919,"Ġresist":3920,"icks":3921,"Ġknowing":3922,"Ġfearing":3923,"Ġahimelech":3924,"Ġaccept":3925,"Ġscience":3926,"Ġclose":3927,"ariah":3928,"Ġmatter":3929,"Ġindust":3930,"Ġproduction":3931,"Ġdesigners":3932,"Ġfifteen":3933,"Ġsixteen":3934,"Ġcanaanite":3935,"Ġconscious":3936,"Ġactual":3937,"Ġeliab":3938,"Ġprefer":3939,"Ġintellig":3940,"Ġdiseased":3941,"Ġhills":3942,"workers":3943,"Ġwaving":3944,"Ġcarry":3945,"Ġregard":3946,"Ġlimited":3947,"Ġamorite":3948,"Ġmax":3949,"Ġmapping":3950,"Ġmeasured":3951,"Ġoption":3952,"Ġlowland":3953,"Ġlocust":3954,"queue":3955,"Ġlearned":3956,"Ġgrip":3957,"coming":3958,"common":3959,"Ġselling":3960,"Ġdreams":3961,"Ġsubm":3962,"Ġaudio":3963,"Ġparam":3964,"Ġparagraph":3965,"Ġsexual":3966,"Ġfinish":3967,"Ġlogic":3968,"Ġlanguages":3969,"Ġplanted":3970,"Ġtasks":3971,"Ġopportun":3972,"Ġsubscribe":3973,"Ġexcept":3974,"Ġharan":3975,"Ġjephunneh":3976,"Ġdebir":3977,"Ġwaved":3978,"Ġsticks":3979,"Ġfollowing":3980,"Ġscenari":3981,"Ġinitialize":3982,"Ġmaker":3983,"Ġalongside":3984,"Ġextra":3985,"Ġlarge":3986,"Ġstorage":3987,"Ġprepared":3988,"www":3989,"Ġhannah":3990,"Ġequal":3991,"Ġworshipping":3992,"Ġbillion":3993,"Ġexisting":3994,"Ġcyc":3995,"Ġadvantage":3996,"Ġeglon":3997,"Ġcanvas":3998,"Ġwelcome":3999,"Ġwrap":4000,"Ġmanager":4001,"Ġencoura":4002,"Ġknees":4003,"mantic":4004,"Ġfarthest":4005,"Ġmechan":4006,"!âĢĿ":4007,"aaz":4008,"cking":4009,"case":4010,"fr":4011,"four":4012,"fram":4013,"how":4014,"ik":4015,"iqu":4016,"iff":4017,"kl":4018,"met":4019,"rite":4020,"tr":4021,"ug":4022,"use":4023,"vative":4024,"yond":4025,"Ġut":4026,"Ġrough":4027,"Ġoph":4028,"Ġohol":4029,"Ġsat":4030,"rez":4031,"Ġfra":4032,"Ġtong":4033,"Ġtonight":4034,"erate":4035,"Ġlach":4036,"Ġgro":4037,"Ġgeshur":4038,"Ġpmf":4039,"Ġinmost":4040,"Ġbeyond":4041,"Ġthick":4042,"omach":4043,"anel":4044,"ances":4045,"Ġhez":4046,"Ġecom":4047,"iding":4048,"Ġgoals":4049,"Ġult":4050,"iration":4051,"ades":4052,"Ġsegment":4053,"Ġsemantic":4054,"Ġredu":4055,"Ġreuel":4056,"Ġjok":4057,"Ġjoh":4058,"Ġjap":4059,"this":4060,"Ġaren":4061,"Ġcomment":4062,"Ġstomach":4063,"odes":4064,"Ġchall":4065,"Ġchann":4066,"cted":4067,"Ġdeeds":4068,"Ġbytes":4069,"own":4070,"Ġpekah":4071,"Ġhadade":4072,"term":4073,"Ġletting":4074,"abilities":4075,"Ġability":4076,"Ġvines":4077,"Ġprobably":4078,"redict":4079,"loth":4080,"looking":4081,"istic":4082,"Ġworry":4083,"ump":4084,"Ġconver":4085,"osing":4086,"Ġkar":4087,"Ġcoordin":4088,"Ġbot":4089,"Ġadam":4090,"Ġadjust":4091,"Ġrushing":4092,"Ġdiffic":4093,"Ġzel":4094,"Ġpoem":4095},"merges":["Ġ t","h e","Ġ a","Ġt he","Ġ o","n d","Ġ w","i n","Ġ s","Ġa nd","r e","Ġ b","Ġ h","Ġo f","o u","Ġ f","Ġt o","Ġ m","o r","e r","Ġ i","Ġ c","in g","Ġ y","a t","Ġ l","o n","Ġ g","Ġ p","e n","Ġy ou","e s","Ġ d","l l","i s","Ġ in","a r","Ġ n","i t","Ġb e","Ġt h","o m","a n","a s","Ġ he","v e","l e","Ġ e","u t","Ġi s","i d","Ġf or","Ġs a","Ġo n","s e","Ġh a","Ġw h","en t","Ġn o","a m","k e","or d","Ġg o","i m","i ll","Ġyou r","a y","Ġ u","a c","Ġi t","e d","Ġh is","it h","i r","e t","Ġ -","i l","i c","Ġw ill","Ġw ith","Ġl ord","i on","v er","a d","Ġs e","e l","r a","Ġw e","Ġsa id","s t","Ġ re","r o","he r","g h","Ġ j","a l","Ġf r","Ġa ll","t h","Ġa n","Ġw as","Ġth at","Ġh im","a ke","Ġa re","Ġg i","Ġno t","Ġfr om","Ġs o","Ġha ve","Ġa s","u r","Ġthe m","Ġc om","k ing","Ġthe y","Ġd o","a nd","am e","Ġs t","Ġo r","Ġm e","Ġp ut","o d","Ġthe ir","r i","Ġc h","gh t","c t","p le","Ġth is","l y","Ġm o","Ġl i","Ġd e","Ġw he","at h","er s","Ġb y","a h","o w","ic h","Ġb ut","Ġwh o","â Ģ","Ġp e","Ġu p","Ġis ra","Ġisra el","Ġs on","v en","Ġm y","Ġthe n","a in","Ġwh ich","Ġo ut","Ġgo d","Ġha d","es t","o k","ac e","Ġ king","Ġw ent","il d","t er","c h","t her","Ġm an","Ġpe o","Ġn e","re n","Ġh as","Ġl and","Ġpeo ple","Ġl et","an t","Ġf i","w n","ad e","Ġgi ve","' s","g e","Ġa t","Ġwhe n","Ġm ade","Ġt ake","e p","a u","l d","Ġwe re","Ġch ild","a b","r u","Ġof f","o re","Ġc ame","Ġa b","Ġon e","Ġa r","Ġhe r","er ing","Ġ v","at ion","Ġp l","Ġi f","Ġa m","ac k","Ġm ay","Ġcom e","Ġthe re","on e","p t","s es","Ġno w","Ġm ake","Ġin t","ver y","a ve","Ġs he","Ġchild ren","e ar","f e","âĢ Ļ","Ġa g","on g","Ġf at","a ll","Ġbe c","ar t","Ġp ro","Ġg ave","v ing","Ġo ver","f ore","Ġbe fore","id e","o se","Ġd ay","u l","Ġsa y","re d","re at","Ġu s","a k","Ġa l","Ġ ke","m ent","Ġ (","Ġl o","Ġto ok","es s","Ġwh at","l o","Ġfat her","Ġint o","v ant","Ġt w","Ġs er","Ġe very","ct ion","Ġoff ering","Ġs h","Ġe ar","p p","is t","Ġde ath","Ġw or","r ou","Ġag ain","Ġm en","Ġc an","p h","a v","Ġse e","q u","im e","w ay","u m","se l","Ġh ou","Ġc on","c e","re e","i ght","Ġha nd","Ġb ack","Ġser vant","o s","a ge","ur n","Ġmo ses","n t","r y","Ġan y","ou t","Ġs u","Ġo ur","Ġd av","Ġdav id","Ġf o","au se","Ġpl ace","Ġhou se","u d","Ġa f","Ġthe se","Ġ k","or t","om e","Ġto wn","Ġc o","Ġg et","Ġaf ter","Ġh o","ou nt","Ġs p","Ġa way","Ġgi ven","u s","u n","Ġt ent","t e","Ġb o","i g","Ġor d","Ġy ear","Ġt ime","Ġf e","in e","Ġp h","Ġtw o","Ġo ther","i e","ar d","it es","Ġp r","Ġg reat","b e","v es","Ġd id","Ġe x","Ġbec ause","Ġson s","Ġw ay","it e","ou r","Ġl e","Ġagain st","ou ld","at e","Ġw ord","as t","Ġu n","Ġli ving","Ġp ri","Ġw r","Ġt ak","t y","Ġa d","Ġs ent","Ġke ep","g y","u re","ir st","Ġw at","t ing","Ġb ro","i es","Ġ ro","Ġdo wn","b le","th ing","Ġpri est","Ġbe en","Ġit s","ing s","l es","i ve","Ġs in","Ġsa m","Ġu se","a g","Ġli ke","Ġ /","Ġgo od","Ġf am","Ġe gy","Ġegy pt","Ġwor k","b r","Ġho ly","ou s","Ġear th","Ġfam il","Ġf irst","a le","Ġth ose","ation s","Ġ qu","Ġfo od","Ġ en","Ġw i","Ġ 1","Ġ ru","Ġb urn","p e","Ġd i","Ġt e","as e","Ġi m","Ġh ow","nd er","Ġp art","o l","u st","w s","ic e","Ġ z","a re","ri ght","Ġn um","ar ch","m on","Ġam ong","Ġwhe re","i le","Ġe v","Ġre st","u b","is h","ac h","sel f","p l","o b","Ġar m","Ġp o","Ġord ers","Ġe d","Ġsa ul","Ġmo re","t s","Ġd one","Ġj ud","Ġbro ther","Ġf l","Ġa pp","Ġn ame","le an","Ġb l","it y","Ġab out","Ġtak en","Ġhe re","Ġ r","Ġs ome","Ġm ar","Ġne ed","ab le","p er","Ġw ould","rou gh","Ġh u","g et","s h","u ll","Ġw om","Ġon ly","Ġservant s","Ġgo t","e m","Ġwat er","Ġth rough","Ġyear s","Ġ âĢ","n e","Ġe ven","ig n","nd red","Ġse arch","Ġhu ndred","f f","ar on","Ġa aron","Ġu nder","Ġd es","au ght","a king","i gh","w e","Ġ <","c k","Ġc reat","Ġst r","i z","o h","Ġd aught","Ġhe ad","Ġhand s","Ġ/ >","i al","Ġth an","Ġe l","Ġg ra","Ġg en","Ġsa w","b er","t ar","Ġt ill","an s","Ġev il","Ġbe t","i nd","x t","as s","Ġs ide","Ġsay ing","Ġ right","he d","Ġa c","Ġf un","ke d","Ġli fe","Ġburn ed","Ġb u","ion s","Ġhe art","or y","Ġe y","Ġse c","Ġal tar","Ġw ar","n ow","o t","Ġd is","Ġgen er","in es","Ġwith out","Ġre ad","Ġj e","a p","h u","n ing","Ġse nd","Ġher it","Ġfun ction","Ġherit age","t ain","Ġth ings","Ġre s","Ġwi fe","u e","Ġe nd","Ġfamil y","re s","Ġj o","n g","re ad","Ġc ur","Ġad d","ic k","re t","Ġc ut","Ġbo ok","Ġey es","get her","Ġto gether","f or","Ġbec ame","Ġun c","s o","Ġday s","Ġin c","Ġme et","it s","ar a","all y","Ġk now","i p","Ġt ri","at ed","Ġo x","Ġcom p","Ġb lo","ar y","it ing","Ġd at","it ion","Ġtown s","Ġo ld","Ġt urn","Ġcon t","Ġf ear","ount ry","a z","Ġf ull","Ġyou ng","Ġmeet ing","Ġb ir","Ġth ree","rou nd","i x","ac t","Ġword s","Ġl ist","il ist","Ġph ilist","d u","Ġwom an","Ġf ace","Ġth ous","Ġcom mon","Ġthous and","Ġl ong","Ġse ven","Ġfi re","i f","e ver","Ġj er","o ther","Ġb as","Ġjud ah","0 0","in k","Ġs m","Ġs ou","Ġgo ld","Ġke pt","Ġp er","Ġwe ll","Ġan other","Ġph ara","Ġphara oh","i ble","s ide","Ġa h","Ġwh y","Ġsam e","Ġme al","sel ves","t le","Ġj ac","Ġan s","r ay","Ġe le","Ġshe ep","a ven","Ġt ru","Ġo p","Ġh igh","Ġunc lean","Ġdat a","Ġjac ob","Ġh or","Ġhe l","Ġtent s","Ġso l","Ġat t","Ġans w","Ġs im","Ġm ount","on s","ie f","o nd","Ġth ir","an g","Ġwh om","Ġac c","Ġs c","Ġwas te","Ġ 2","Ġb en","Ġwh ile","ro w","Ġfather s","Ġj os","Ġim p","Ġnum ber","f t","Ġb od","Ġne ar","hu a","Ġjos hua","Ġp os","ess ing","Ġre c","ow er","Ġd est","ent y","ac es","f fe","Ġo il","Ġphilist ines","d s","Ġo ath","m s","Ġc l","ar i","ru ction","âĢ Ŀ","Ġj ose","Ġsp e","Ġjose ph","Ġfi el","Ġfi ght","Ġb est","Ġc all","Ġch ief","ct s","Ġsu pp","Ġblo od","Ġhel p","o ff","Ġ round","Ġl a","Ġne ws","ĠâĢ ľ","we en","Ġbet ween","Ġdest ruction","w ord","or s","Ġar ray","Ġlo o","Ġbl essing","Ġs ort","Ġb r","Ġm at","ra h","Ġne w","ment s","Ġbu ild","Ġb read","Ġf our","Ġg one","Ġhim self","Ġst ill","Ġal so","Ġ very","d e","Ġdaught er","Ġop en","Ġt im","er tain","g or","Ġi nd","Ġn am","Ġg r","Ġgo ing","Ġpe ace","Ġbod y","Ġdi re","Ġbe th","Ġre l","Ġst art","od e","Ġansw er","off ering","ou gh","Ġf ar","Ġc ertain","Ġp ur","Ġoffering s","Ġan g","Ġcom es","Ġar k","pl ace","Ġstr ong","Ġc are","Ġth ing","a i","p he","Ġm ale","a il","en ce","Ġ 3","Ġp ers","ord an","Ġj ust","Ġj ordan","Ġde ad","Ġal gor","Ġalgor ith","Ġc lo","le d","Ġse en","Ġt y","Ġde c","o th","Ġh ard","Ġm on","Ġc ountry","ar ing","ag es","Ġfamil ies","for m","Ġlo ve","a an","Ġm id","Ġe ph","Ġv al","u el","Ġt r","Ġpro du","Ġbir th","Ġfi ve","w ard","is e","Ġag ree","an ce","Ġdo es","Ġuse d","Ġte xt","Ġdes ign","om on","Ġe ach","Ġhas h","Ġsu ch","Ġsol omon","Ġw o","Ġd r","Ġn ight","Ġdo or","Ġord er","d ay","es h","Ġfi f","Ġgra in","Ġs ix","Ġover c","Ġarm y","Ġfl ight","Ġ \"","Ġs et","Ġe ver","Ġco ver","led ge","Ġagree ment","is ion","Ġmo ther","Ġab le","Ġwr ong","i re","Ġm or","Ġmon th","Ġf ree","Ġhe aven","Ġbrother s","b s","Ġl in","one y","Ġw ant","Ġp ower","Ġwho se","ren t","Ġle v","Ġknow ledge","Ġab rah","Ġfiel d","Ġtim es","Ġabrah am","Ġqu ick","Ġpl aces","Ġs word","le ar","el y","Ġcom ple","Ġcan aan","Ġtak es","he m","Ġs il","on t","el s","Ġru n","Ġm od","Ġmor ning","d om","Ġli ght","Ġtri be","w or","Ġg u","Ġse v","Ġfi nd","Ġv o","Ġv ide","Ġcon s","Ġsil ver","j e","ath an","Ġsec ond","Ġres p","p s","Ġa ct","Ġc lean","Ġin st","Ġmo st","Ġed it","Ġel i","Ġmount ain","c ess","e red","l s","re am","Ġto day","Ġas s","Ġst on","ou nd","Ġc lear","Ġpers on","a pt","u ch","ak es","Ġloo king","Ġp re","Ġint e","Ġpur p","Ġt al","Ġa i","ou d","an ge","as h","as ter","Ġse ed","Ġtw enty","Ġevery thing","Ġwor sh","Ġfe ed","ure s","Ġc ry","Ġman y","b es","b ack","l f","Ġm ight","Ġm aking","Ġpr ay","Ġ +","Ġhe aring","Ġgi ving","Ġst ore","Ġex am","Ġsm all","_ _","Ġs ign","Ġbe ast","Ġgod s","Ġsam uel","Ġen g","Ġsec ret","Ġto ol","Ġsa fe","ra in","Ġcon ne","j am","Ġm uch","Ġe m","Ġgo es","Ġpro phe","Ġpriest s","Ġresp ons","b a","s s","Ġt en","Ġm er","ir c","Ġlo ok","Ġdaught ers","Ġre qu","Ġbec ome","l ud","ut h","se d","et h","ic es","Ġcreat e","Ġdis e","Ġdr ink","Ġrespons ible","Ġp le","Ġno thing","Ġit em","Ġking s","Ġthir ty","Ġalgorith m","c y","i a","Ġh ill","Ġc he","Ġben jam","Ġimp ort","b o","Ġp ay","iz e","Ġspe c","i ence","Ġc ub","and s","Ġdi ffe","Ġjo ab","Ġclo thing","Ġvo ice","r am","Ġ ver","Ġc ode","Ġfor m","ent s","Ġthem selves","ow s","Ġfi le","a ac","a ph","j ah","n er","Ġl im","ic al","Ġinc lud","f ul","g o","Ġh on","es sel","Ġv essel","Ġread y","k en","Ġm oney","ke t","Ġse a","Ġus ing","Ġex per","in t","Ġc apt","Ġpr ice","Ġvide o","Ġfeed back","c hed","Ġs k","Ġmo ab","res s","n s","Ġm ind","Ġc at","as ed","Ġru l","c es","Ġb al","ch ing","Ġne ver","Ġsay s","be red","Ġway s","Ġburn ing","Ġbenjam in","s al","Ġt ree","Ġt able","re es","Ġf lo","Ġp ill","Ġj on","ul t","Ġwhat ever","Ġwr iting","Ġnum bered","Ġje h","Ġturn ed","Ġsim ple","Ġston es","n ess","p r","ent h","Ġde f","Ġpro per","ul ar","Ġqu est","Ġgra ph","Ġcont ent","Ġpill ar","m o","Ġf les","Ġto p","Ġc ase","wor k","Ġworsh ip","Ġfles h","Ġl it","ep ing","ĠâĢ ¢","Ġbuild ing","m en","Ġt aking","Ġo wn","Ġc ause","Ġla w","i ah","Ġs y","Ġc ru","Ġin side","Ġshe ke","Ġturn ing","Ġatt ack","Ġpurp ose","g th","i b","r on","v ie","Ġt rou","Ġb a","ne y","Ġchief s","Ġsupp ort","Ġw a","Ġany one","Ġco ll","Ġmar k","Ġfif ty","Ġcat tle","Ġjon athan","e y","Ġc ar","at es","at ive","Ġg l","Ġp un","Ġe as","Ġab sal","Ġfl ow","Ġox en","Ġwo od","Ġexam ple","Ġdiffe rent","Ġabsal om","b b","o am","u al","Ġst ret","Ġv all","Ġother s","Ġtru e","Ġtru ly","Ġacc ount","Ġdise ase","Ġvall ey","e x","i ans","s er","Ġc ould","Ġl ear","Ġfr u","Ġar t","Ġwom en","Ġcapt ain","l ic","ve d","Ġis aac","Ġha lf","Ġany thing","Ġinc re","Ġlit tle","Ġh us","Ġf a","Ġeven ing","Ġnam ed","Ġimport ant","c ed","u p","Ġn ations","Ġfr ie","Ġwr ath","Ġwat ers","Ġpun ish","Ġfrie nd","c ri","Ġ es","Ġg row","Ġcom ing","Ġke y","Ġim age","Ġbet ter","Ġar am","Ġus er","Ġjer us","Ġcub its","l a","Ġre d","Ġme m","Ġfe et","ale m","Ġoverc ome","Ġpray er","Ġflo ck","Ġjerus alem","Ġw all","Ġd on","le ch","g in","i an","Ġfor ty","ic s","Ġbro ken","Ġ1 0","Ġpos ition","Ġquick ly","Ġedit or","p es","s ing","Ġ 4","er ial","Ġp ub","Ġyour self","Ġyour selves","Ġj our","Ġsp ir","ob oam","Ġmar ked","Ġeng ine","t he","he s","in ary","at s","is on","as se","Ġe ast","Ġgi ves","Ġne xt","pe ct","Ġpart s","Ġgener ation","Ġfight ing","Ġmat erial","Ġdire ction","Ġsheke ls","d o","Ġ 5","Ġd ri","Ġin ter","Ġbe ing","Ġon es","Ġdo ing","Ġpro v","Ġrest ing","Ġdire ct","Ġpunish ment","e f","t o","Ġt ou","Ġm ou","Ġm aster","ra im","Ġman asse","Ġcl oud","Ġmanasse h","b ut","g s","ou ght","at her","Ġd ist","Ġth ought","le ad","Ġre g","Ġv ari","Ġsh ould","ime lech","Ġwr it","Ġen ough","Ġlev ites","Ġple as","Ġjour ney","e b","at ing","id es","ent ion","Ġwe eping","Ġproper ty","Ġb inary","Ġre m","Ġgi lead","Ġfe ast","Ġeph raim","Ġwa iting","i v","Ġb ase","Ġm ult","Ġl ab","al ity","Ġsp ace","Ġte ch","Ġpos s","Ġpay ment","Ġlim it","ro ss","Ġcut ting","Ġbr ass","Ġval ue","Ġba al","c us","l i","s ion","Ġa uth","or row","Ġp ass","Ġd et","Ġcom m","Ġst ren","Ġpro je","Ġfe at","Ġadd ition","Ġty pe","Ġfru it","Ġhus b","Ġg ame","is ions","Ġha ir","Ġout side","Ġwr ite","Ġapp s","Ġstr ange","Ġthir d","Ġrec ord","a am","g r","Ġt rees","Ġw ine","in ess","Ġs is","Ġhon our","Ġes au","Ġmou th","Ġb ig","le t","Ġsou nd","Ġrel ations","Ġcertain ly","Ġconne ction","Ġmer cy","u ra","Ġ 0","Ġb it","Ġd an","ve red","Ġam or","Ġsou th","Ġlin ked","Ġcons id","Ġtrou ble","Ġspir it","c ountry","n o","p ar","Ġm akes","Ġst one","Ġking dom","Ġpro ble","Ġk ind","ap ter","Ġsupp ose","Ġstren gth","? )","k s","Ġ ent","Ġ ra","Ġs l","Ġb and","Ġi de","en s","Ġha ving","Ġlo t","Ġro ck","Ġegypt ians","Ġla ws","Ġhusb and","c i","Ġ ri","Ġb us","Ġm a","Ġd am","Ġme as","Ġbo x","Ġpr ison","Ġtri bes","Ġah ab","Ġprodu ct","Ġsk in","c u","w o","Ġo pt","Ġs we","Ġf al","Ġl ow","Ġin v","Ġe ffe","Ġre ub","Ġfr ont","Ġcur se","Ġsev enth","Ġtool s","Ġreub en","v i","Ġp ath","Ġsa l","al th","Ġlo c","Ġwi nd","Ġwi ves","Ġarm s","igh b","Ġele ments","Ġcall ed","Ġvessel s","Ġmult i","e ll","Ġc am","Ġl am","am es","Ġch o","Ġch apter","Ġam mon","qu e","Ġang ry","Ġmid d","Ġprophe t","Ġpillar s","Ġlear n","Ġswe et","Ġfal se","b ers","Ġg ri","Ġd ry","st and","Ġgi be","Ġst ru","Ġgood s","Ġed ge","Ġel ish","Ġheart s","Ġjer oboam","Ġnam es","Ġeli jah","Ġfa ith","Ġmem ory","Ġauth or","Ġmidd le","m an","o g","o p","Ġt er","Ġc au","Ġg ad","Ġg rou","Ġd ra","Ġwe ight","Ġbut t","ab les","Ġpro cess","Ġtw el","Ġsh ut","Ġco l","Ġget ting","Ġac ross","Ġcont ro","la w","Ġmaterial s","Ġfor ward","Ġhou ses","Ġjud g","Ġtext ure","Ġrequ est","a ut","c om","he l","Ġw it","Ġf act","en se","Ġon ce","Ġse ll","Ġse par","Ġput ting","Ġland s","Ġab imelech","Ġevery one","way s","Ġdes ire","res ent","ft ed","Ġche ck","Ġconsid er","u ally","w are","Ġs om","Ġs lo","Ġb re","Ġf il","Ġc r","it t","Ġe ight","Ġre se","Ġj es","Ġli fted","Ġover t","Ġco vered","Ġtent h","Ġneed s","Ġje z","Ġrec ur","Ġri ver","h on","p les","s pr","Ġa ch","Ġo b","Ġh at","Ġp ain","Ġd ream","Ġbe d","ve lo","il ity","Ġst ream","Ġde ep","Ġsu b","Ġdi v","Ġed om","Ġjud ge","Ġang el","Ġrun ning","Ġspec if","Ġdri ving","Ġposs ible","Ġtwel ve","a red","l ands","s he","Ġ $","Ġa ud","Ġs ur","Ġm et","Ġl ine","ri but","Ġear s","Ġear ly","Ġsu re","Ġbo ard","Ġpr om","Ġgener ations","Ġjo in","Ġatt ention","Ġgr ass","Ġcry ing","Ġamor ites","f irst","Ġt ry","Ġw ide","Ġs ize","Ġh um","Ġm us","Ġc irc","Ġp ar","Ġn or","Ġfor ce","ion al","Ġse x","Ġde velo","ren ce","Ġv is","Ġus ers","Ġro om","Ġunder stand","Ġhead s","Ġf all","ve l","Ġst ep","ri ages","Ġab ner","Ġsh are","Ġex p","Ġmar ke","Ġcreat ive","Ġmid ian","Ġinte gr","Ġelish a","c hem","Ġf in","Ġf on","Ġfor g","Ġre ward","Ġnum bers","Ġpo st","Ġsis ter","Ġfon ts","c ial","h an","p ly","x ed","y s","Ġt ra","Ġt est","Ġa v","Ġsa les","Ġha m","Ġyour s","al s","Ġst ack","Ġne ighb","Ġoff ered","Ġshe chem","pp ing","Ġwor ld","Ġfo ot","Ġgreat er","Ġle ft","br on","offering s","Ġsev enty","Ġinclud e","Ġbal aam","Ġstret ched","Ġcau sing","a el","Ġ ve","ll ow","Ġn ation","Ġhe bron","Ġch ar","Ġsh ow","Ġfe el","Ġsam ari","Ġlin en","Ġcomple t","Ġmod el","spr ing","Ġsamari a",". .","i ath","p ut","Ġp age","Ġwe alth","st em","Ġal ways","Ġz i","Ġarm ies","Ġcomp ut","ser vant","Ġpub lic","Ġbus iness","aut if","Ġmarke ting","Ġ er","Ġs ense","re en","Ġb ag","as on","Ġch ang","Ġfi xed","Ġab ram","Ġpro f","Ġhor ns","Ġval u","Ġtr ans","Ġjeh o","Ġgrow th","Ġreg ular","Ġvari ous","Ġdra w","a im","o ke","p u","Ġw is","Ġl ess","Ġp ull","Ġth ink","ver age","Ġwas hed","Ġlo g","Ġbo th","Ġro ds","Ġr am","Ġcomp on","Ġele ment","Ġprophe ts","Ġexper ience","Ġrul er","Ġquest ion","Ġlab an","Ġstru ct","Ġrese arch","Ġmus ic","Ġneighb our","autif ul","c irc","Ġm ix","Ġn et","Ġth ough","ic t","Ġse at","Ġli br","Ġcon c","Ġdis g","Ġcommon place","Ġsou l","Ġsim ply","Ġarray s","Ġdec isions","vie w","Ġeas y","Ġeffe ct","Ġwit ness","Ġfil es","Ġhat ers","Ġdevelo p","Ġan im","Ġup d","Ġup right","ep t","Ġmar ket","az ar","Ġele azar","Ġcomple te","Ġproble m","Ġauthor ity","Ġdisg ust","a e","k ah","o ver","t en","t al","v ation","z er","Ġ `","Ġin form","Ġse le","Ġme ans","Ġqu e","Ġcur tain","Ġbas es","Ġacc ess","Ġnews let","bo ok","ura l","Ġsepar ate","' t",") ,","i el","n am","s on","Ġm il","at er","Ġl ang","Ġp a","it ies","Ġbe h","as es","Ġsa bb","ent ly","Ġno de","Ġre le","Ġro ad","Ġro bes","Ġwork s","ust om","Ġz eb","em ber","Ġsm ell","ail s","Ġoverc ame","Ġtal k","Ġbeast s","cri pt","Ġbit ter","Ġlang u","Ġsabb ath","c ar","p o","Ġa p","Ġs le","re st","Ġc ustom","ar k","Ġse ated","Ġwe b","Ġre t","Ġre ason","Ġas ses","Ġch at","Ġmo ving","Ġpl ant","Ġsh ame","te en","Ġro d","Ġapp ro","Ġje hu","00 0","Ġsy stem","Ġcaptain s","Ġfriend s","Ġproje ct","Ġfeat ures","Ġbutt on","Ġt ar","Ġw est","Ġto o","Ġc ap","Ġl ast","Ġe t","ic ally","Ġmo ved","os h","Ġwat ch","Ġim ages","Ġarm ed","Ġcur sed","Ġty pes","Ġcover ing","Ġmod els","Ġinte rest","eth ing","Ġspec ial","Ġcoll e","Ġprov ide","Ġgri ef","Ġgrou p","Ġnor th","Ġcomplet ely","circ le","a pe","g an","l am","n on","n ah","p y","t ers","w h","Ġ 6","Ġl ay","Ġre al","Ġso ft","Ġam ale","Ġbir ds","Ġ2 0","Ġalgorith ms","Ġdec ision","Ġrem ember","Ġcomm un","Ġcontro l","Ġsom ething","Ġfall ing","Ġmix ed","Ġinform ation","Ġamale k","o f","Ġh ang","Ġd el","Ġha z","ac hel","Ġre p","Ġre nd","Ġas k","Ġst ate","ich o","ist s","Ġpo or","Ġr achel","Ġjer icho","Ġper form","aven ed","Ġrel ation","Ġdoor way","Ġconne ct","Ġitem s","Ġquest ions","Ġgl ory","Ġtou ching","c hes","i que","s ort","Ġt ables","Ġw ound","Ġb ad","Ġf ut","Ġy et","Ġp ast","Ġbe gin","Ġis h","Ġst ory","Ġmy self","Ġpl at","Ġwor king","Ġhow ever","ach ing","iz ed","Ġquick sort","Ġcanaan ites","cess ary","Ġdist ribut","Ġlands c","Ġdisgust ing",") :","f ting","he th","Ġa cts","in ts","or ah","Ġc ord","Ġg il","Ġg ide","Ġp ra","Ġin it","Ġbe l","Ġnot e","Ġso cial","Ġman age","ep h","Ġv ine","Ġsh ort","Ġfo ld","Ġget s","Ġkeep ing","Ġru le","Ġr ather","Ġres pect","Ġcomp an","Ġper f","Ġfiel ds","do ing","Ġtech n","Ġrecord ed","Ġide a","Ġovert ake","Ġgide on","e k","g al","i ves","Ġt as","re el","Ġc akes","Ġp resent","Ġn ab","Ġoff spring","pp ed","Ġro be","Ġen c","Ġz er","Ġpo t","Ġneed ed","read y","Ġlist s","Ġcommon os","Ġlong er","Ġgr ace","Ġeph od","aph at","Ġdef in","Ġflow ing","Ġaram ae","Ġwrit ers","Ġmulti ple","Ġcomput er","Ġtar get","Ġperf um","i jah","Ġo pp","Ġs orrow","Ġh itt","Ġf ont","Ġto m","Ġm ed","Ġha pp","ent ial","Ġgo at","ac ing","Ġsu bs","Ġfe w","Ġex c","Ġsin s","Ġpo et","Ġbl ue","Ġinst ru","Ġtal king","Ġincre ased","Ġlam b","Ġaud ience","Ġforg i","Ġwis dom","Ġsele ction","Ġret urn","Ġet c","\" ,","b on","e nd","e ad","g round","g pu","Ġ 8","Ġ =","Ġo per","Ġw gpu","in king","re ation","Ġh ar","er a","Ġl oud","Ġl ater","Ġd ro","Ġbe autiful","ac king","Ġj eph","Ġdo cu","Ġne cessary","ab or","fe rence","Ġsu n","ard en","Ġun w","ap s","Ġbook s","Ġhor se","Ġbal ak","Ġboard s","car riages","h ip","i ed","t ed","Ġ rain","Ġw id","in s","Ġf ast","Ġl ep","Ġg e","Ġn ah","Ġde b","Ġde v","Ġwho ever","âĢ Ķ","Ġv ie","Ġsee m","Ġcon f","te x","Ġord ered","ate g","ag ed","Ġru les","Ġpo int","Ġhor ses","Ġimp ro","Ġgu id","vie ws","Ġflock s","Ġpleas ing","Ġpleas ure","Ġjez reel","Ġer r","Ġnet work","Ġque ue","Ġfut ure","Ġforgi ven","1 0","i red","s ive","s hed","Ġw ave","Ġh ate","Ġf aster","Ġc or","Ġc reation","Ġin f","Ġn aph","Ġno ah","il t","il y","Ġse o","Ġst ra","Ġli fting","Ġde p","Ġv i","Ġpl ay","all ed","Ġal ready","Ġsee k","Ġco o","te xt","Ġfunction s","Ġbread th","Ġstart ing","Ġset ting","Ġlev i","Ġinst ead","Ġsign s","Ġsal vation","Ġnewslet ter","Ġzeb ul","c ision","e ous","h o","h ing","i er","l ess","l ine","m er","t t","t ion","t wo","Ġs ides","Ġb ar","or am","Ġd ark","le avened","Ġwh ite","Ġu nt","Ġj ab","Ġv ia","lo ad","Ġsee ms","Ġfo cus","Ġsp ear","ie ve","Ġun leavened","Ġpri v","Ġsam son","Ġqu ality","Ġpo p","Ġcreat or","Ġread ers","az iah","Ġphilist ine","Ġwrong doing","Ġjeh osh","Ġcol or","Ġsoft ware","Ġperform ance","Ġstra ight","Ġjehosh aphat","h ad","i o","p ro","Ġs ar","Ġb ands","Ġof ten","Ġm ic","Ġm ine","ir am","ad ab","Ġas a","Ġst ick","Ġor gan","Ġme at","Ġpeo ples","Ġpro g","Ġback ground","Ġfo llow","Ġpr int","pl ay","Ġbl ow","Ġr ings","Ġread ing","Ġbas han","Ġhor n","Ġloo p","Ġlight s","Ġmeas ure","Ġgibe ah","Ġrecur sive","tal i","Ġlangu age","Ġlep er","Ġforgiven ess","c ut","m i","n ers","n ot","Ġw ise","Ġh ig","Ġd ust","Ġbe er","Ġsa vi","Ġre ally","Ġmo tion","Ġman go","Ġlet ter","um cision","Ġ1 00","Ġbu ff","Ġblo g","Ġbas ed","Ġsc en","Ġact ually","mo st","Ġcru el","Ġcru shed","Ġma j","Ġcirc umcision","Ġstep s","Ġnaph tali","c on","i ent","u red","Ġa ut","Ġc ale","am ar","Ġgo ats","Ġgo og","ac ed","ro ws","ur ing","Ġmo ve","Ġlo ad","Ġsh ad","av i","Ġbo y","Ġad s","Ġte am","sh ing","ff ic","Ġright eous","Ġface book","Ġbr an","Ġtext ures","Ġsecret ly","Ġform at","Ġsy n","Ġincre ase","Ġkey word","Ġdirect ory","Ġcho ose","Ġbeh avi","Ġrele vant","Ġinit ial","Ġmanage ment","Ġaramae ans","Ġsar ah",". )","c ing","d es","g est","l ah","m in","w he","Ġ 7","Ġs ime","Ġb at","Ġf ound","Ġm ah","Ġm esh","om es","Ġit self","ir l","Ġwas hing","Ġas her","Ġst o","ple ment","Ġpl an","Ġsee ing","Ġun ique","Ġgener ate","Ġcur rent","Ġthousand s","Ġsc ale","Ġset up","Ġver tex","Ġrul ing","Ġgil gal","Ġunw alled","Ġvie w","Ġerr or","Ġmaj or","Ġgoog le","Ġsime on","b us","e ed","g es","i en","m f","m ar","Ġw ing","Ġw al","Ġw and","Ġb ra","Ġm ak","Ġd ang","le hem","Ġis s","Ġre nder","Ġfr ame","Ġal ong","Ġear li","os heth","Ġsu c","Ġte ll","Ġsort s","Ġprodu ce","Ġgl ad","Ġstret ching","Ġdirection s","Ġjes se","Ġob je","she ba","Ġmet al","Ġve il","Ġlandsc ape","Ġpra ise","Ġtom orrow","Ġoper ations","Ġvi ol","Ġsavi our",". \"",". âĢĿ","f ace","f ort","p ah","Ġb ru","Ġh oney","Ġm ach","Ġl ink","Ġu ri","Ġse es","Ġre ference","Ġas h","Ġwhen ever","Ġv ir","Ġint ro","Ġlo ose","Ġph one","Ġpr im","Ġex t","Ġle g","Ġle ah","Ġim plement","Ġsearch ing","Ġje bus","Ġjo y","Ġben ef","Ġind eed","ai ah","Ġtr ack","Ġdesign s","Ġcoll abor","Ġpub l","wo od","Ġinv ol","Ġlibr ary","Ġdistribut ion","Ġbra nd","Ġdang er","b re","f ive","i hon","s p","Ġs ihon","Ġf re","Ġm in","Ġm ode","er n","at ural","Ġl ar","Ġu ses","Ġhis t","ver s","Ġst or","ter n","Ġover se","Ġsh all","Ġk ir","Ġho le","Ġcreat ing","ot ed","Ġcall s","Ġfour th","Ġgr id","Ġsl ow","Ġloc al","Ġjes us","Ġdiv ision","Ġprof ess","Ġupd ate","Ġap i","Ġzebul un","Ġwing ed","/ /",": //","b an","h ou","l t","Ã Ĺ","Ġt rain","Ġs qu","Ġb ud","Ġh tt","Ġm iz","Ġm ass","Ġi ron","Ġc ed","Ġg ath","is s","il ar","ad d","Ġse ction","el ine","ra ble","Ġre h","Ġre be","Ġdo ors","Ġst and","Ġput s","ri be","Ġlo ss","Ġsh il","Ġsh aking","Ġcon st","Ġhand l","Ġco st","us h","Ġad on","Ġsin ai","Ġru st","Ġwhere ver","Ġsome one","Ġsim ilar","Ġpur ple","Ġstrong er","Ġdr inking","Ġpre p","Ġexper t","iv ot","Ġbox es","Ġcam els","Ġfact or","Ġsell er","Ġcr it","Ġspecif y","Ġstruct ure","Ġmil k","Ġprofess ional","Ġced ar","f er","i res","m ah","r ing","r act","u ps","z ah","Ġt a","Ġt v","Ġa ra","Ġs ing","Ġb ow","Ġb ind","ou red","Ġp ivot","ar ies","Ġhe bre","ut ion","Ġu r","Ġse lf","Ġall ow","ct ive","Ġli ves","Ġout c","ok s","Ġher ds","Ġv ision","lo g","Ġsh o","Ġk en","Ġfe e","Ġex pl","Ġle ad","Ġte aching","Ġev ent","Ġbu ilt","du rable","Ġansw ering","Ġprodu cts","Ġsix ty","Ġem ail","Ġgraph ics","Ġwrit er","Ġdet er","Ġwind ow","Ġgibe on","Ġbre ast","Ġjoin ed","Ġvis ual","Ġchang es","Ġcompon ent","Ġdevelop ment","lam bs","Ġpoet ry","Ġhist ory","Ġkir iath","Ġrebe kah","Ġsing le","l on","n a","o ses","Â ł","Ġ 9","Ġh ome","Ġm ess","Ġc al","is hed","Ġn un","it ions","Ġno des","Ġu i","il ah","ad a","th ah","Ġnot ation","Ġcom b","ri age","Ġde pe","Ġab ish","Ġar ound","lo gy","Ġ1 6","Ġte m","ach ar","Ġapp lic","Ġdis c","Ġjo ash","Ġadd ed","ail able","Ġwo nder","Ġedit ors","Ġdam aged","vi ous","Ġjudg es","Ġprom pt","po int","Ġplat form","Ġperfum e","Ġhitt ite","Ġjeph thah","Ġpop ular","Ġhig her","Ġcale b","Ġiss achar","Ġhtt ps","Ġdepe nd","c ol","t ree","w w","Ġ __","Ġs w","Ġc ou","Ġc ateg","Ġg ames","en gth","Ġin put","Ġn athan","Ġhe sh","ac ter","Ġwith in","Ġse ir","Ġre views","Ġcom fort","Ġor nam","od ing","ri ed","Ġch ance","ab ility","Ġar ch","Ġmay be","Ġfat e","Ġk ad","Ġco nd","Ġco py","Ġpr ide","Ġpr act","Ġle ather","Ġle verage","Ġsin ce","Ġed iting","Ġunder t","Ġdis play","Ġold est","Ġcont in","if y","Ġhigh ly","Ġatt acking","Ġsc reen","Ġind ia","Ġind ex","Ġfif th","Ġmountain s","Ġrequ ire","Ġver t","Ġlim its","Ġinclud ing","Ġart ic","Ġopt ions","Ġlam bs","Ġter ms","Ġav ailable","Ġchar acter",".. .","Ġsle ep","Ġlay out","Ġhang ing","Ġcompan y","Ġopp os","Ġmed ia","Ġcoo ked","whe re","Ġmesh a","hou se","Ġstand ard","Ġcateg ory","b ar","b ah","b ased","c her","f l","l ing","o phe","t rees","Ġa ir","Ġh an","Ġm ich","Ġm ain","Ġi ll","Ġc ro","at ely","Ġl ion","Ġg ers","Ġg irl","Ġp ip","en c","Ġn atural","Ġe qu","Ġfor ces","Ġfor ced","ad ok","Ġson g","ain s","Ġab iath","Ġbec omes","Ġsh ime","Ġwor ked","Ġk oh","Ġsp ices","Ġfe m","Ġgreat ly","Ġex pect","Ġad v","Ġz adok","Ġpo ints","Ġfl at","Ġgra pes","Ġgener al","Ġbir d","Ġmat the","Ġty p","Ġval id","Ġcomple x","Ġvide os","Ġact ing","Ġinst ant","Ġsmall er","Ġlear ning","Ġinter n","Ġrelations hip","Ġtrouble d","Ġslo t","Ġrecur sion","Ġcommun ity","Ġimpro ve","Ġcor re","Ġdep th","Ġprog ram","Ġwal king","Ġearli er","Ġsqu are","Ġfee ble","Ġhesh bon","Ġkad esh","Ġabiath ar","Ġkoh ath","Ġmatthe w","f ull","j o","l and","m a","t ribe","Ġ >","Ġa z","Ġa ction","re et","Ġl u","Ġl au","Ġd rain","ri es","Ġwhe ther","Ġpl aced","Ġsh am","Ġwor st","Ġfo cu","ty pe","Ġen able","Ġmar ried","Ġhundred s","Ġey e","Ġadd ress","Ġop in","Ġbod ies","Ġsort ed","Ġopen ing","Ġdoes n","Ġworsh i","Ġstore d","Ġexam ples","Ġver sion","Ġtech no","Ġdet ails","Ġconnection s","Ġram ah","Ġcompon ents","Ġshort est","Ġdocu ment","Ġpriv ate","Ġbran ches","Ġkeyword s","Ġvir gin","Ġshil oh","Ġconst ant","Ġoppos ite","2 0","a ir","b ed","c l","e re","f ru","i ally","i ada","p ort","t ime","Ġa verage","Ġs n","Ġb on","Ġb ath","Ġm al","Ġm ust","Ġl ines","Ġl ower","Ġp ort","ll ing","it her","om i","Ġis n","ir ing","ic ation","ra ph","Ġre ven","Ġre ph","Ġall ows","Ġan al","Ġnot ice","Ġst ar","Ġwho le","Ġout put","Ġfi g","ab ly","Ġam non","fe ct","Ġho oks","Ġle gs","ag ing","iz z","Ġbu y","Ġsend ing","ip s","Ġwo ol","Ġact ive","Ġston ed","Ġpre vious","Ġpurp oses","bo ard","Ġown er","Ġfa ir","cri be","to ok","Ġpass over","Ġhum ans","Ġunderstand ing","Ġav o","Ġvalu able","Ġjeho iada","wh ich","Ġamalek ites","Ġrend ering","Ġinstru ments","Ġhorse men","Ġwid ow","had ad","Ġrighteous ness","Ġwand ering","Ġuri ah","Ġprim ary",") .","d en","g er","g ed","g ment","g ree","g ile","l ive","m ing","m el","m ael","t ow","y le","Ġ x","he ad","Ġw ond","Ġb right","Ġh iv","Ġf ing","Ġf it","Ġf aces","Ġm eth","Ġd uring","Ġn ile","Ġth in","Ġsa ve","Ġwe bs","st or","Ġre ach","Ġj oram","Ġwas ted","Ġas se","Ġst ud","Ġoff er","Ġk orah","Ġco at","Ġle vel","Ġle ban","ile e","iz ing","Ġadd ing","Ġbas ic","Ġah aziah","Ġmonth ly","Ġcons ist","Ġple ased","Ġcub it","Ġproje cts","Ġdam age","Ġpost s","servant s","Ġish mael","Ġunt il","Ġcro wn","Ġgers hon","Ġfem ale","full y","Ġfocu sed","gile ad","Ġleban on","o ah","p a","Ġ ess","Ġa w","Ġo live","nd om","Ġb ill","Ġc ent","Ġy oke","Ġg ain","Ġg reen","Ġp en","es ses","Ġin ner","Ġn a","Ġn ine","it ors","Ġth read","an n","id on","Ġon line","il ities","ic ate","Ġre view","al m","ur i","Ġch ange","ct or","Ġde ar","Ġne b","Ġar non","pt y","Ġser v","Ġex ch","Ġex ist","our ce","Ġ1 5","Ġev ents","em s","iz ation","Ġpers ons","Ġmonth s","Ġpower ful","Ġlev ite","wor ld","ash a","Ġem pty","Ġinclud es","go ats","Ġgraph s","Ġtrou b","Ġcar riage","Ġproble ms","Ġra ndom","Ġsal t","Ġspecif ic","Ġintegr ations","Ġvalu es","Ġconc ept","Ġcap ac","Ġcolle ction","Ġrep resent","Ġcord s","Ġnab oth","Ġshad er","Ġlink s","Ġadon ijah","Ġta uri","Ġvert ices","Ġshime i","ere r","fru its","a wn","f o","g u","g arden","m e","s hem","u es","y pe","Ġt amar","he st","Ġo g","Ġh it","Ġf er","Ġm ap","Ġc art","Ġc ount","Ġl ength","Ġp ret","Ġd ed","Ġd ig","ll ed","Ġin ser","it or","it ed","as ing","Ġhe ight","id ed","Ġre f","Ġso dom","Ġpl ated","Ġtw ist","Ġser ver","Ġk it","Ġbo az","Ġen v","Ġen jo","Ġpart ed","Ġz idon","Ġed ges","Ġthan k","Ġres ul","so ci","Ġclo th","Ġtr ad","Ġperson al","ba al","Ġexper ien","Ġrul ers","Ġba asha","Ġeas ily","Ġeas ier","Ġwall s","Ġwall ed","Ġinter act","Ġtou ched","Ġthought s","eb el","Ġfeat ure","Ġjez ebel","Ġach ish","Ġpull ing","Ġsystem s","Ġcolle ct","Ġnab al","Ġpot ential","Ġjab esh","Ġmic ah","Ġscen e","Ġintro du","Ġoverse ers","Ġoutc ry","Ġabish ai","Ġtechno logy","Ġreven ue","Ġfing er","Ġmeth od","Ġna omi","i et","p her","p ers","u ctive","in ation","Ġs um","Ġb its","Ġh iram","Ġf acing","Ġto ken","Ġg arden","Ġp i","Ġp ict","Ġd ou","Ġin no","ar ray","Ġn ative","it ive","an ced","Ġe ither","Ġsa f","Ġu x","Ġwe ek","ro py","Ġj ub","Ġas soci","Ġst op","Ġli ve","Ġne ck","Ġpl ate","Ġsh ar","Ġwor th","Ġcon tain","Ġho llow","Ġsp o","te m","te enth","ate gy","Ġtak er","Ġqu iet","Ġbl ind","igh th","Ġstr ategy","Ġdis cus","Ġgener ative","Ġend ed","Ġper fect","Ġper izz","Ġben aiah","Ġspe ed","de gree","Ġrel ated","Ġstart ed","Ġmid point","Ġcru shing","Ġcar mel","Ġ5 0","li ke","Ġent ropy","ci ous","Ġmeas ures","Ġprison ers","Ġslo ts","Ġbre ak","Ġham m","Ġsle eping","Ġhaz ael","Ġfold er","Ġtechn ical","Ġsetting s","Ġobje cts","Ġbenef its","Ġreh oboam","Ġcrit ical","Ġpret ty","Ġenjo y","' re","1 1","4 0","e w","g ard","g gest","i ver","i ous","o king","s c","v al","w er","y ri","Ï ī","Ġ ...","Ġa head","Ġw on","in ing","Ġh in","Ġh ore","Ġf ur","Ġf ount","Ġm as","Ġc y","Ġc ows","Ġy ew","at ives","Ġp at","Ġp ol","Ġp ick","Ġn aam","Ġth or","Ġis o","Ġsa nd","Ġsa ved","Ġha g","im mon","Ġu z","Ġit h","ver t","Ġfr ames","Ġtheir s","Ġmo on","ah az","ep ts","Ġar rows","Ġher d","Ġshe m","Ġover took","Ġsu ggest","Ġaf f","Ġk id","Ġk iss","our ces","Ġad vant","Ġpart ic","Ġbl ows","ind ex","ap es","for ms","ara i","Ġbas ket","Ġsol ve","Ġbr ing","Ġstart up","Ġgu ide","Ġfind ing","Ġass yri","Ġem p","Ġlook s","Ġsk ill","pr ise","Ġcar riages","Ġdirect ly","Ġdist ance","Ġopt im","Ġinv est","Ġpath s","Ġgrou ps","Ġjudg ed","Ġtest ing","Ġchang ed","Ġcurtain s","Ġ20 2","Ġhang ings","Ġwound ed","Ġzer u","Ġorgan ic","con text","Ġbru sh","Ġmiz pah","Ġara bah","Ġ__ __","fl ow","Ġpip eline","Ġreph aim","tow ns","Ġwond ers","Ġneb at","shem esh","Ġjub ilee","Ġfur ther","Ġassyri a","5 9","8 59","b d","b y","c m","c ket","f lo","k ron","m end","t ile","w ise","y nam","Ġ esh","Ġt ir","Ġo s","in ite","Ġb mf","Ġm ill","Ġc red","Ġy um","at or","at ype","Ġg az","Ġp c","Ġp as","Ġp ity","Ġp res","en cy","Ġd awn","Ġd ynam","om mend","as cus","Ġe ighth","Ġe kron","al ing","th ough","Ġan ak","Ġor ig","Ġme an","od y","Ġab el","Ġar ts","Ġal though","Ġtw ice","Ġho pe","Ġho bb","Ġsp ort","te nd","ves sel","Ġle ast","Ġegypt ian","Ġfunction ality","Ġold er","Ġyoung est","act ers","if ied","Ġsm oke","Ġah ijah","Ġ2 5","Ġrec ommend","Ġind ices","Ġdesign ed","Ġmer ari","Ġart ists","Ġprov ides","Ġposs ib","Ġsis era","Ġsound ed","Ġdam ascus","Ġlow lands","Ġeffe cts","Ġbutt ons","Ġjudg ing","Ġeight y","Ġach ieve","Ġsur ve","Ġprom ot","Ġjoin ing","Ġhum an","Ġfin ally","Ġchar acters","Ġlibr aries","Ġpa id","Ġcustom er","Ġstate ment","Ġtas te","Ġhapp y","Ġinstru ment","Ġguid ing","Ġbat hed","Ġsto pped","Ġhandl er","Ġornam ents","Ġcorre ct","Ġavo id","stor m","Ġshar p","Ġzeru iah","Ġyum on","? âĢĿ","c ul","h as","h ud","h ol","h ai","m ap","o ch","y th","Ġ ÃĹ","Ġt bd","Ġa le","Ġb one","Ġf ill","Ġm l","Ġi ce","Ġc ra","Ġc our","Ġin sp","Ġth um","om at","Ġe g","Ġe ffic","ith ophe","ic ated","Ġre ce","Ġme ph","Ġde ce","âĢ ľ","Ġup load","Ġman oah","Ġar row","Ġpl acing","Ġus age","Ġser ies","Ġcan v","ine has","Ġph inehas","Ġend s","Ġyoung er","Ġah ithophe","Ġhelp s","Ġeph ah","ont ro","Ġmod ern","Ġgu est","Ġpray ers","bo x","go at","ress ion","Ġart ist","ura ble","Ġshut ting","Ġpain ting","Ġdeep er","Ġintegr ated","Ġjeho ash","Ġeffect ive","Ġanim ations","Ġpa per","Ġappro ach","Ġrend erer","Ġplat forms","Ġnah or","Ġseem ed","Ġconf ig","Ġinf inite","Ġbuff er","Ġbuff ers","Ġsyn c","mar ket","Ġviol ent","Ġmach ir","Ġfre ely","tern al","Ġhebre ws","Ġdeter m","Ġcou ple","Ġundert aking","Ġcontin ue","Ġartic le","cher s","Ġlau n","Ġbon es","Ġmal es","Ġoutput s","Ġfer tile","Ġtwist ed","Ġdou b","flo or","Ġtir zah","Ġorig in","Ġahithophe l","a pp","b u","c ast","d ress","d den","f it","g ing","h aps","m ak","n i","n ight","o c","p os","t ies","â Ĩ","Ġw ings","Ġs arai","Ġb es","Ġb ent","Ġto wer","Ġm ir","er y","Ġc ain","Ġc up","Ġg er","ll er","is ed","le vel","id ge","se ven","am ing","Ġgo she","ac y","ed s","et y","Ġse ar","Ġde mo","Ġne are","Ġab i","Ġshe ba","Ġal most","lo y","Ġsh aring","Ġsh ared","Ġcan not","av es","Ġsee king","Ġcon text","Ġhand le","Ġsu dden","Ġfo ol","Ġsp ring","Ġlike ly","Ġfl ag","Ġunder go","Ġcreat ed","Ġend ing","if ic","Ġbas in","Ġtru st","Ġspe nd","Ġsort ing","Ġcountry men","Ġlove d","Ġdesign er","Ġrequ ires","Ġdiffe rence","ney s","Ġflow ers","Ġfru its","Ġlinked in","no thing","Ġent ire","Ġprison er","Ġcam era","Ġstream s","Ġdiv ide","Ġtry ing","Ġzi ba","lam b","Ġdel ight","Ġsubs cript","Ġdocu ments","Ġdev ice","Ġcollabor ation","Ġcal cul","Ġapplic ation","Ġarch ite","Ġopin ion","Ġexch ange","Ġresul ts","Ġexperien ces","pers on","Ġsaf ely","Ġassoci ated","Ġkid neys","Ġcour se","âĨ Ĵ","Ġgoshe n","2 5","8 859","b osheth","c ah","e en","h or","h ah","j ust","l ist","r ic","s k","u nd","y ou","µ f","Â µf","Ġ &","Ġt ail","Ġa ro","Ġw el","Ġw ra","Ġs ource","Ġh ated","Ġh ire","Ġm is","Ġc ake","Ġc ush","Ġc ups","Ġy es","ll ig","Ġn in","Ġn on","it ely","an ah","im es","et s","ver se","st ate","Ġre ve","Ġj ob","al iah","th am","th ree","Ġare a","Ġst ay","Ġst yle","Ġch os","Ġman ag","au lt","Ġher self","Ġam ount","Ġam aziah","ak en","Ġke d","Ġsh un","Ġsh ows","Ġear n","Ġour s","Ġsp ice","Ġle aven","Ġuse ful","Ġ1 8","Ġz o","ub baal","Ġr immon","Ġneed le","Ġdes iring","we ight","Ġthan ks","Ġaltar s","res sed","Ġcur sing","Ġjer ubbaal","Ġah im","Ġah az","Ġele ct","Ġsol ution","Ġsim pl","Ġspe ak","Ġbr idge","Ġbuild er","Ġang les","Ġhard ware","esh ur","Ġsword s","Ġlight weight","Ġcons um","je ct","Ġsecond s","Ġass ure","Ġtal ents","Ġeng age","Ġeng ines","Ġsheke l","ib osheth","Ġcoll isions","ced ural","Ġmem or","Ġkind s","Ġcol oured","Ġstream ing","Ġsur face","Ġhum ble","Ġtra vel","Ġve ctor","Ġtrans form","Ġram oth","Ġplant s","Ġinterest ed","Ġbel ieve","Ġenc ou","Ġzer ah","Ġdefin itely","Ġperfum es","ho le","Ġbehavi or","Ġbehavi ors","Ġjebus ites","Ġjebus ite","Ġtrain ing","Ġpract ice","Ġmich al","Ġstar s","Ġfig ure","Ġcent er","gard ens","Ġfount ain","Ġdynam ic","Ġmeph ibosheth","Ġfool ish","Ġchos en","2 4","a al","c ked","c oth","d at","h az","l as","n esses","o te","t a","t es","Ġ Ġ","Ġ rou","Ġ âĨĴ","Ġt it","Ġo m","Ġw in","Ġb ur","Ġh y","ou nder","Ġto ward","Ġm ag","Ġm aac","Ġc ow","Ġc ore","Ġc ases","Ġl l","Ġg reet","Ġp ack","is ing","ar am","om ing","as a","Ġe ternal","Ġsa d","se t","ent ed","ent ially","Ġno ise","am p","ke ts","ith ub","et imes","Ġse qu","Ġst u","Ġst at","Ġst ems","od ed","Ġch in","ly ing","Ġde w","âĢ ¦","Ġab ig","pt ing","Ġpro te","Ġke ilah","ess ings","Ġtw ists","Ġwor se","Ġsu ite","Ġour selves","Ġk ish","Ġk ne","Ġbo b","Ġpr ints","Ġkeep s","Ġbro w","ag on","Ġqu ant","Ġ1 2","ol ution","Ġz e","Ġapp ear","Ġbl essings","ne h","Ġcreat ors","Ġend less","Ġcur ses","Ġtowns men","Ġbas ins","Ġpos itions","Ġoath s","Ġfour teen","Ġnam ing","Ġtr uth","Ġheaven s","Ġgu i","Ġgu ess","Ġclear ly","Ġpre view","Ġem ails","Ġem bed","Ġver s","Ġmind s","Ġdef ine","Ġdef ault","Ġproper ties","ib ility","Ġinter face","Ġtou ch","Ġpass ion","Ġent er","Ġide as","Ġcam pa","Ġter rain","Ġrequest ing","Ġfact ors","Ġsom etimes","Ġexp and","Ġforg ive","Ġfeel ing","Ġbag s","Ġhaz or","Ġconnect ing","Ġhitt ites","Ġdro pped","Ġguid ed","Ġbar ak","cut ting","Ġmah an","Ġsuc cess","Ġsuc coth","Ġtell s","Ġpubl ish","Ġpubl ished","Ġinvol ves","col or","Ġadv anced","Ġtyp ical","Ġsn ake","Ġanal y","Ġwebs ite","Ġasse ts","Ġserv ice","Ġtrad ition","Ġhamm ered","Ġhore b","Ġnaam an","Ġhobb y","Ġale x","Ġdece it","Ġrenderer state","Ġdeterm ine","Ġneedle work","Ġabig ail","Ġcampa ign","\" :",", )","1 00","4 9","b ably","c ome","c over","i am","i ving","i os","m ant","r ings","s ix","u ah","Ġ est","Ġt re","Ġt all","Ġa im","in ed","Ġs ens","Ġh ur","Ġf art","Ġto ps","Ġto tal","Ġm aps","Ġc oding","Ġg om","Ġg pu","Ġg ithub","Ġp ages","Ġd ue","Ġd urable","ll ows","is m","Ġn er","Ġn adab","Ġhe at","Ġhe th","Ġfor ms","Ġsa ving","ord in","im um","Ġlord s","Ġwe ar","th ites","Ġso on","ur ation","Ġst ation","Ġme ch","Ġch ains","ct ure","Ġli b","Ġde m","Ġat tem","Ġat las","Ġar gu","Ġv s","Ġam asa","Ġshe lah","Ġback s","ort un","Ġho ld","Ġsp ot","un neh","Ġph ys","Ġother wise","be autiful","Ġex act","Ġad vert","Ġkeep er","Ġwat ching","Ġbro ws","Ġro of","ag raph","pe cts","Ġpart ners","ile d","Ġapp e","Ġr an","Ġr uth","Ġcreat es","Ġstr ateg","iz es","Ġel im","Ġje w","Ġres ist","ick s","Ġknow ing","Ġfear ing","Ġah imelech","Ġacc ept","Ġsc ience","Ġcl ose","ari ah","Ġmat ter","Ġind ust","Ġprodu ction","Ġdesign ers","Ġfif teen","Ġsix teen","Ġcanaan ite","Ġcons cious","Ġact ual","Ġeli ab","Ġpre fer","Ġinte llig","Ġdise ased","Ġhill s","work ers","Ġwa ving","Ġcar ry","Ġreg ard","Ġlimit ed","Ġamor ite","Ġma x","Ġma pping","Ġmeas ured","Ġopt ion","Ġlow land","Ġloc ust","que ue","Ġlearn ed","Ġgri p","com ing","com mon","Ġsell ing","Ġdream s","Ġsub m","Ġaud io","Ġpar am","Ġpar agraph","Ġsex ual","Ġfin ish","Ġlog ic","Ġlangu ages","Ġplant ed","Ġtas ks","Ġopp ortun","Ġsubs cribe","Ġexc ept","Ġhar an","Ġjeph unneh","Ġdeb ir","Ġwave d","Ġstick s","Ġfollow ing","Ġscen ari","Ġinitial ize","Ġmak er","Ġalong side","Ġext ra","Ġlar ge","Ġstor age","Ġprep ared","ww w","Ġhan nah","Ġequ al","Ġworshi pping","Ġbill ion","Ġexist ing","Ġcy c","Ġadvant age","Ġeg lon","Ġcanv as","Ġwel come","Ġwra p","Ġmanag er","Ġencou ra","Ġkne es","mant ic","Ġfart hest","Ġmech an","! âĢĿ","a az","c king","c ase","f r","f our","f ram","h ow","i k","i qu","i ff","k l","m et","r ite","t r","u g","u se","v ative","y ond","Ġ ut","Ġ rough","Ġo ph","Ġo hol","Ġs at","re z","Ġf ra","Ġto ng","Ġto night","er ate","Ġl ach","Ġg ro","Ġg eshur","Ġp mf","Ġin most","Ġbe yond","Ġth ick","om ach","an el","an ces","Ġhe z","Ġe com","id ing","Ġgo als","Ġu lt","ir ation","ad es","Ġse gment","Ġse mantic","Ġre du","Ġre uel","Ġj ok","Ġj oh","Ġj ap","th is","Ġare n","Ġcom ment","Ġst omach","od es","Ġch all","Ġch ann","ct ed","Ġde eds","Ġby tes","ow n","Ġpe kah","Ġhad ade","ter m","Ġlet ting","ab ilities","Ġab ility","Ġv ines","Ġpro bably","red ict","lo th","lo oking","ist ic","Ġwor ry","um p","Ġcon ver","os ing","Ġk ar","Ġco ordin","Ġbo t","Ġad am","Ġad just","Ġru shing","Ġdi ffic","Ġz el","Ġpo em"]}}