{"version":"1.0","truncation":null,"padding":null,"added_tokens":[{"id":0,"content":"<PAD>","single_word":false,"lstrip":false,"rstrip":false,"normalized":false,"special":true},{"id":1,"content":"<BOS>","single_word":false,"lstrip":false,"rstrip":false,"normalized":false,"special":true},{"id":2,"content":"<EOS>","single_word":false,"lstrip":false,"rstrip":false,"normalized":false,"special":true},{"id":3,"content":"<UNK>","single_word":false,"lstrip":false,"rstrip":false,"normalized":false,"special":true},{"id":4,"content":"{","single_word":false,"lstrip":false,"rstrip":false,"normalized":false,"special":true},{"id":5,"content":"}","single_word":false,"lstrip":false,"rstrip":false,"normalized":false,"special":true},{"id":6,"content":"[","single_word":false,"lstrip":false,"rstrip":false,"normalized":false,"special":true},{"id":7,"content":"]","single_word":false,"lstrip":false,"rstrip":false,"normalized":false,"special":true},{"id":8,"content":":","single_word":false,"lstrip":false,"rstrip":false,"normalized":false,"special":true},{"id":9,"content":",","single_word":false,"lstrip":false,"rstrip":false,"normalized":false,"special":true},{"id":10,"content":"\"","single_word":false,"lstrip":false,"rstrip":false,"normalized":false,"special":true},{"id":11,"content":"\n","single_word":false,"lstrip":false,"rstrip":false,"normalized":false,"special":true}],"normalizer":{"type":"Sequence","normalizers":[{"type":"NFC"},{"type":"Lowercase"}]},"pre_tokenizer":{"type":"ByteLevel","add_prefix_space":true,"trim_offsets":true,"use_regex":true},"post_processor":{"type":"TemplateProcessing","single":[{"SpecialToken":{"id":"<BOS>","type_id":0}},{"Sequence":{"id":"A","type_id":0}},{"SpecialToken":{"id":"<EOS>","type_id":0}}],"pair":[{"SpecialToken":{"id":"<BOS>","type_id":0}},{"Sequence":{"id":"A","type_id":0}},{"SpecialToken":{"id":"<EOS>","type_id":0}},{"Sequence":{"id":"B","type_id":1}},{"SpecialToken":{"id":"<EOS>","type_id":1}}],"special_tokens":{"<BOS>":{"id":"<BOS>","ids":[1],"tokens":["<BOS>"]},"<EOS>":{"id":"<EOS>","ids":[2],"tokens":["<EOS>"]}}},"decoder":{"type":"ByteLevel","add_prefix_space":true,"trim_offsets":true,"use_regex":true},"model":{"type":"BPE","dropout":null,"unk_token":null,"continuing_subword_prefix":null,"end_of_word_suffix":null,"fuse_unk":false,"byte_fallback":false,"ignore_merges":false,"vocab":{"<PAD>":0,"<BOS>":1,"<EOS>":2,"<UNK>":3,"{":4,"}":5,"[":6,"]":7,":":8,",":9,"\"":10,"\n":11,"!":12,"#":13,"'":14,"(":15,")":16,"*":17,"-":18,".":19,"/":20,"0":21,"1":22,"2":23,"3":24,"4":25,"5":26,"6":27,"7":28,"8":29,"9":30,";":31,">":32,"?":33,"_":34,"a":35,"b":36,"c":37,"d":38,"e":39,"f":40,"g":41,"h":42,"i":43,"j":44,"k":45,"l":46,"m":47,"n":48,"o":49,"p":50,"q":51,"r":52,"s":53,"t":54,"u":55,"v":56,"w":57,"x":58,"y":59,"z":60,"Â":61,"â":62,"Ċ":63,"Ġ":64,"Ģ":65,"Ķ":66,"ĺ":67,"Ļ":68,"ľ":69,"Ŀ":70,"ł":71,"Ġt":72,"Ġa":73,"he":74,"Ġi":75,"Ġw":76,"Ġthe":77,"Ġo":78,"Ġs":79,"in":80,"re":81,"Ġf":82,"Ġb":83,"Ġm":84,"ha":85,"ou":86,"Ġis":87,"es":88,"ing":89,"nd":90,"er":91,"or":92,"Ġp":93,"Ġof":94,"Ġc":95,"Ġd":96,"Ġg":97,"Ġto":98,"on":99,"Ġl":100,"an":101,"en":102,"Ġand":103,"ll":104,"Ġh":105,"Ġy":106,"is":107,"th":108,"Ġn":109,"Ġyou":110,"om":111,"ea":112,"Ġin":113,"ed":114,"Ġbe":115,"Ġhe":116,"Ġwi":117,"hat":118,"ve":119,"at":120,"se":121,"Ġe":122,"ut":123,"ho":124,"ay":125,"Ġha":126,"le":127,"ot":128,"Ġfor":129,"gh":130,"ar":131,"ow":132,"od":133,"Ġu":134,"ke":135,"ion":136,"ri":137,"Ġwho":138,"Ġare":139,"ct":140,"Ġwill":141,"ght":142,"ce":143,"st":144,"et":145,"Ġli":146,"Ġon":147,"al":148,"im":149,"Ġre":150,"Ġwhat":151,"Ġit":152,"Ġdo":153,"Ġyour":154,"ver":155,"Ġnot":156,"Ġgo":157,"Ġst":158,"il":159,"Ġhis":160,"Ġth":161,"Ġan":162,"Ġbut":163,"her":164,"Ġman":165,"ent":166,"Ġwor":167,"ear":168,"ro":169,"Ġthat":170,"it":171,"Ġwhe":172,"ch":173,"ome":174,"Ġwith":175,"Ġor":176,"ra":177,"Ġma":178,"ur":179,"ir":180,"Ġev":181,"ru":182,"Ġgi":183,"op":184,"ly":185,"um":186,"Ġhave":187,"ess":188,"ge":189,"Ġk":190,"ol":191,"Ġpl":192,"Ġse":193,"ers":194,"id":195,"Ġfr":196,"art":197,"Ġwhen":198,"Ġfo":199,"Ġfrom":200,"ic":201,"ep":202,"right":203,"Ġlo":204,"ings":205,"fe":206,"Ġme":207,"Ġne":208,"eop":209,"Ġpeop":210,"Ġmo":211,"Ġby":212,"Ġpeople":213,"thing":214,"Ġhim":215,"ant":216,"ld":217,"Ġthey":218,"Ġup":219,"Ġall":220,"us":221,"Ġde":222,"Ġno":223,"ves":224,"Ġta":225,"Ġcom":226,"Ġevil":227,"pp":228,"Ġca":229,"Ġdes":230,"Ġsome":231,"Ġgood":232,"ain":233,"Ġmy":234,"Ġcan":235,"ad":236,"Ġtheir":237,"Ġwis":238,"am":239,"ter":240,"Ġhas":241,"Ġway":242,"Ġone":243,"ds":244,"reat":245,"Ġsp":246,"han":247,"now":248,"Ġpro":249,"ble":250,"Ġsu":251,"ans":252,"Ġat":253,"res":254,"Ġfa":255,"Ġgive":256,"Ġhum":257,"Ġknow":258,"Ġthem":259,"el":260,"ect":261,"Ġso":262,"ong":263,"Ġex":264,"one":265,"Ġlike":266,"âĢ":267,"Ġj":268,"ight":269,"rou":270,"ther":271,"Ġwork":272,"as":273,"kes":274,"Ġtim":275,"ul":276,"ind":277,"Ġas":278,"Ġwh":279,"Ġke":280,"ation":281,"ace":282,"Ġv":283,"Ġsha":284,"Ġfe":285,"Ġear":286,"Ġother":287,"Ġgod":288,"Ġus":289,"Ġkeep":290,"out":291,"ish":292,"Ġheart":293,"and":294,"Ġpo":295,"ist":296,"Ġher":297,"Ġ-":298,"Ġcon":299,"Ġthings":300,"ort":301,"Ġtime":302,"led":303,"ord":304,"de":305,"est":306,"Ġun":307,"ck":308,"qu":309,"use":310,"Ġout":311,"Ġget":312,"sel":313,"ction":314,"Ġsomething":315,"Ġright":316,"eas":317,"ment":318,"ps":319,"Ġtru":320,"red":321,"Ġover":322,"ren":323,"hose":324,"Ġlife":325,"king":326,"way":327,"Ġthose":328,"Ġthere":329,"'s":330,"Ġhel":331,"ledge":332,"ie":333,"Ġlord":334,"ving":335,"Ġsay":336,"ather":337,"Ġknowledge":338,"ous":339,"Ġdoes":340,"very":341,"ide":342,"our":343,"Ġpr":344,"ig":345,"Ġif":346,"Ġupright":347,"Ġen":348,"Ġmay":349,"Ġhapp":350,"Ġlet":351,"Ġfool":352,"Ġfeel":353,"mp":354,"ure":355,"Ġwise":356,"Ġfoolish":357,"Ġthan":358,"Ġab":359,"Ġwe":360,"Ġwhi":361,"ire":362,"ness":363,"Ġam":364,"Ġfood":365,"Ġlove":366,"ame":367,"all":368,"Ġsin":369,"ning":370,"Ġfu":371,"if":372,"ore":373,"nds":374,"Ġput":375,"each":376,"Ġmakes":377,"Ġhumans":378,"ven":379,"Ġhow":380,"Ġint":381,"ild":382,"Ġwords":383,"Ġmake":384,"Ġtake":385,"Ġal":386,"Ġfather":387,"Ġco":388,"Ġcreat":389,"ity":390,"Ġcomp":391,"Ġwat":392,"self":393,"row":394,"Ġwant":395,"Ġsa":396,"nder":397,"Ġothers":398,"Ġcome":399,"Ġsee":400,"for":401,"Ġour":402,"eal":403,"Ġbec":404,"ate":405,"ies":406,"Ġgives":407,"Ġhat":408,"dom":409,"Ġneed":410,"do":411,"ful":412,"ue":413,"Ġunder":414,"urn":415,"other":416,"Ġwhere":417,"Ġmore":418,"Ġexp":419,"ry":420,"Ġaf":421,"ence":422,"ack":423,"ust":424,"ard":425,"Ġsou":426,"Ġbl":427,"Ġpers":428,"Ġinto":429,"form":430,"ject":431,"Ġtra":432,"ould":433,"Ġcl":434,"eat":435,"Ġearth":436,"Ġabout":437,"Ġag":438,"Ġbef":439,"Ġmade":440,"Ġperson":441,"ive":442,"Ġbu":443,"Ġres":444,"Ġplace":445,"Ġwisdom":446,"Ġhappen":447,"ill":448,"rong":449,"Ġaway":450,"Ġsm":451,"Ġday":452,"Ġgreat":453,"ions":454,"Ġthou":455,"Ġeven":456,"Ġwhich":457,"Ġact":458,"Ġlear":459,"Ġevery":460,"Ġcause":461,"Ġpoor":462,"Ġfull":463,"Ġbefore":464,"Ġte":465,"Ġimp":466,"Ġbet":467,"Ġhelp":468,"ks":469,"tain":470,"Ġro":471,"Ġru":472,"Ġson":473,"ree":474,"rie":475,"Ġweal":476,"Ġsh":477,"Ġwealth":478,"igh":479,"Ġteach":480,"wn":481,"Ġob":482,"ink":483,"Ġmat":484,"rit":485,"Ġlight":486,"ms":487,"ses":488,"ory":489,"Ġchan":490,"Ġonly":491,"Ġread":492,"Ġworld":493,"un":494,"Ġid":495,"Ġmen":496,"Ġits":497,"Ġmany":498,"Ġagain":499,"cre":500,"ud":501,"Ġshe":502,"Ġmou":503,"ense":504,"eous":505,"ss":506,"ty":507,"Ġbo":508,"Ġmind":509,"Ġch":510,"Ġwhose":511,"Ġafter":512,"Ġpri":513,"Ġdis":514,"Ġyum":515,"Ġhar":516,"Ġany":517,"Ġways":518,"Ġthought":519,"Ġyumon":520,"##":521,"ast":522,"ward":523,"ĠâĢ":524,"Ġqu":525,"Ġwas":526,"Ġwithout":527,"Ġrighteous":528,"ign":529,"get":530,"Ġr":531,"Ġop":532,"Ġsense":533,"iness":534,"ody":535,"Ġmeans":536,"Ġnew":537,"ces":538,"ith":539,"me":540,"Ġmouth":541,"ause":542,"Ġsol":543,"Ġplay":544,"Ġdec":545,"Ġused":546,"Ġunderst":547,"Ġwin":548,"als":549,"Ġmean":550,"Ġfaith":551,"Ġtrue":552,"Ġbecause":553,"Ġunderstand":554,"ice":555,"Ġfrie":556,"ouse":557,"Ġpart":558,"Ġdea":559,"Ġdif":560,"Ġhouse":561,"Ġinform":562,"own":563,"Ġhuman":564,"Ġkeeps":565,"Ġteaching":566,"Ġobject":567,"oy":568,"Ġ\"":569,"Ġper":570,"Ġey":571,"Ġdest":572,"Ġwater":573,"Ġinformation":574,"ts":575,"Ġturn":576,"Ġsl":577,"Ġfal":578,"Ġfear":579,"Ġdown":580,"Ġgrow":581,"Ġla":582,"Ġhon":583,"Ġcomes":584,"ress":585,"Ġfalse":586,"po":587,"Ġind":588,"Ġser":589,"Ġbody":590,"Ġgoes":591,"Ġword":592,"ruction":593,"the":594,"ten":595,"Ġback":596,"Ġgu":597,"Ġgra":598,"Ġlips":599,"Ġthing":600,"Ġloo":601,"Ġcomm":602,"Ġbuild":603,"ci":604,"uch":605,"we":606,"Ġar":607,"Ġfl":608,"Ġbre":609,"Ġmuch":610,"Ġbel":611,"Ġend":612,"odu":613,"Ġplan":614,"Ġgets":615,"age":616,"ting":617,"Ġtrou":618,"Ġmus":619,"esus":620,"Ġgl":621,"Ġtakes":622,"Ġatt":623,"oney":624,"Ġhelps":625,"Ġprodu":626,"Ġbetter":627,"Ġchild":628,"Ġrighteousness":629,"Ġdeath":630,"eed":631,"Ġown":632,"Ġbr":633,"ise":634,"ows":635,"Ġspace":636,"rough":637,"rent":638,"Ġfeeling":639,"Ġsmall":640,"Ġmusic":641,"gy":642,"ng":643,"Ġpow":644,"Ġtoget":645,"Ġthis":646,"Ġthrough":647,"ents":648,"ick":649,"âĢĻ":650,"Ġhard":651,"Ġopen":652,"Ġtogether":653,"'t":654,"ges":655,"ken":656,"pl":657,"side":658,"Ġthink":659,"pport":660,"Ġdesign":661,"Ġprog":662,"Ġproble":663,"âĢĿ":664,"ways":665,"Ġsinn":666,"Ġdestruction":667,"os":668,"Ġtw":669,"Ġfree":670,"Ġgame":671,"Ġlea":672,"vel":673,"Ġanother":674,"Ġking":675,"Ġdesire":676,"Ġsupport":677,"Ġval":678,"Ġsoul":679,"Ġimport":680,"able":681,"ple":682,"Ġra":683,"Ġcho":684,"Ġdon":685,"lled":686,"Ġstart":687,"Ġstrong":688,"ract":689,"Ġmov":690,"Ġhimself":691,"Ġjesus":692,"round":693,"Ġpray":694,"doer":695,"Ġdiffe":696,"Ġpower":697,"Ġimportant":698,"em":699,"les":700,"Ġac":701,"Ġyet":702,"Ġang":703,"Ġnothing":704,"Ġalways":705,"Ġeyes":706,"Ġtrouble":707,".\"":708,"vi":709,"Âł":710,"Ġapp":711,"Ġwom":712,"Ġsim":713,"Ġmoney":714,"ertain":715,"Ġpur":716,"Ġlong":717,"ance":718,"Ġanim":719,"Ġjud":720,"Ġwhy":721,"Ġsays":722,"Ġhappens":723,"Ġshould":724,"Ġboo":725,"ĠâĢľ":726,"cess":727,"pt":728,"Ġvery":729,"Ġsho":730,"Ġbus":731,"ergy":732,"Ġpea":733,"Ġcha":734,"Ġlar":735,"Ġinst":736,"Ġbeing":737,"Ġreal":738,"Ġsun":739,"Ġenergy":740,"Ġsafe":741,"Ġresp":742,"Ġlearning":743,"Ġbelie":744,"Ġdifferent":745,"Ġpurpo":746,"Ġpeace":747,"so":748,"Ġeat":749,"hed":750,"Ġthen":751,"Ġoff":752,"Ġoften":753,"Ġreward":754,"Ġstren":755,"Ġpleas":756,"Ġsecre":757,"Ġdel":758,"Ġspe":759,"ally":760,"Ġlearn":761,"Ġpride":762,"Ġindeed":763,"Ġbusiness":764,"Ġstreng":765,"cri":766,"ft":767,"Ġsur":768,"Ġfind":769,"Ġhigh":770,"Ġforg":771,"ark":772,"Ġsomeone":773,"Ġtell":774,"Ġagainst":775,"Ġdecis":776,"Ġshow":777,"Ġver":778,"Ġwrong":779,"Ġsame":780,"oun":781,"Ġyes":782,"Ġhea":783,"Ġuse":784,"Ġyourself":785,"ention":786,"Ġmove":787,"Ġdescri":788,"Ġshar":789,"Ġshall":790,"Ġcons":791,"Ġwatch":792,"Ġthoughts":793,"Ġfriend":794,"cy":795,"iver":796,"ience":797,"tle":798,"ures":799,"Ġrest":800,"Ġans":801,"Ġneigh":802,"Ġmost":803,"Ġexist":804,"selves":805,"Ġmatthe":806,"Ġturned":807,"Ġattention":808,"Ġchildren":809,"Ġvalue":810,"Ġwoman":811,"Ġneighb":812,"Ġmatthew":813,"ging":814,"Ġpu":815,"Ġpres":816,"Ġhop":817,"Ġrequ":818,"Ġnever":819,"Ġcare":820,"Ġshame":821,"Ġwhile":822,"Ġputs":823,"Ġbless":824,"Ġideas":825,"Ġserv":826,"Ġlarge":827,"Ġsecret":828,"Ġstrength":829,"ff":830,"iv":831,"iz":832,"nect":833,"wer":834,"Ġeach":835,"Ġ##":836,"Ġaction":837,"Ġwould":838,"ine":839,"Ġfar":840,"Ġfight":841,"ering":842,"Ġpain":843,"Ġdr":844,"Ġgam":845,"Ġtong":846,"Ġlow":847,"ang":848,"Ġhands":849,"otion":850,"Ġform":851,"Ġgiven":852,"umb":853,"old":854,"Ġdece":855,"Ġthemselves":856,"Ġjoy":857,"Ġamong":858,"Ġseek":859,"Ġhater":860,"Ġsupporting":861,"Ġverses":862,"Ġheaven":863,"Ġdescrib":864,"Ġneighbour":865,"Ġ###":866,"Ġtongue":867,".âĢĿ":868,"Ġ1":869,"Ġtoo":870,"Ġho":871,"Ġprov":872,"Ġvi":873,"Ġconnect":874,"Ġsimple":875,"Ġgames":876,"ave":877,"ever":878,"ix":879,"tro":880,"ttle":881,"ual":882,"Ġad":883,"Ġsk":884,"Ġsle":885,"Ġfir":886,"ons":887,"Ġyear":888,"Ġnow":889,"Ġhand":890,"Ġrel":891,"Ġrep":892,"Ġstr":893,"Ġstep":894,"Ġseen":895,"Ġfast":896,"Ġtruth":897,"Ġcreate":898,"Ġcreator":899,"Ġslow":900,"Ġproduct":901,"Ġbooks":902,"Ġsharp":903,"Ġsleep":904,"hy":905,"Ġeas":906,"hes":907,"Ġsy":908,"Ġdone":909,"Ġnumb":910,"Ġem":911,"Ġliving":912,"Ġgoal":913,"Ġstar":914,"ition":915,"ices":916,"Ġdeep":917,"Ġworking":918,"ult":919,"Ġuniver":920,"doers":921,"Ġeverything":922,"Ġidea":923,"Ġlaw":924,"Ġguid":925,"Ġbuilding":926,"Ġplanet":927,"Ġuniverse":928,"ires":929,"irit":930,"wor":931,"Ġthese":932,"Ġold":933,"Ġmeas":934,"Ġpast":935,"Ġinside":936,"lex":937,"Ġlittle":938,"Ġstre":939,"Ġstory":940,"Ġmaking":941,"Ġfall":942,"Ġalso":943,"Ġimpro":944,"Ġbetwe":945,"Ġobjects":946,"Ġhonour":947,"Ġproblem":948,"Ġanswer":949,"Ġhope":950,"Ġservant":951,"Ġfirst":952,"Ġbetween":953,"fit":954,"less":955,"up":956,"Ġent":957,"Ġwra":958,"Ġset":959,"inds":960,"Ġpun":961,"Ġdist":962,"Ġdark":963,"Ġgrou":964,"Ġle":965,"Ġland":966,"Ġnight":967,"lect":968,"Ġstor":969,"Ġplant":970,"ical":971,"Ġcalled":972,"Ġspirit":973,"Ġsuc":974,"ased":975,"Ġenj":976,"Ġsound":977,"Ġclo":978,"Ġclear":979,"Ġacts":980,"Ġquick":981,"Ġperform":982,"Ġlooking":983,"Ġprogress":984,"Ġangry":985,"Ġanimals":986,"Ġdeceit":987,"Ġwrath":988,"ible":989,"Ġ>":990,"Ġair":991,"Ġsc":992,"Ġfil":993,"Ġmer":994,"Ġmom":995,"Ġgen":996,"Ġname":997,"eak":998,"Ġincre":999,"Ġbeha":1000,"Ġstra":1001,"Ġevents":1002,"Ġkind":1003,"Ġmem":1004,"Ġallows":1005,"Ġtaken":1006,"Ġcaus":1007,"ass":1008,"ishment":1009,"Ġhearts":1010,"isten":1011,"Ġconf":1012,"Ġunc":1013,"Ġoverc":1014,"Ġwell":1015,"Ġfun":1016,"Ġbecome":1017,"Ġglad":1018,"Ġsinner":1019,"Ġtwo":1020,"Ġdelight":1021,"Ġdrink":1022,"Ġviol":1023,"Ġpunishment":1024,"Ġenjoy":1025,"ath":1026,"ach":1027,"hi":1028,"ler":1029,"ror":1030,"te":1031,"Ġfru":1032,"Ġfire":1033,"Ġmust":1034,"Ġpre":1035,"Ġcar":1036,"Ġcur":1037,"Ġcertain":1038,"Ġtool":1039,"Ġstill":1040,"Ġjo":1041,"Ġtimes":1042,"ations":1043,"Ġtrust":1044,"Ġhappy":1045,"Ġfeelings":1046,"Ġwere":1047,"Ġcomput":1048,"Ġexpl":1049,"Ġexper":1050,"Ġtrain":1051,"Ġchange":1052,"Ġchanges":1053,"Ġreading":1054,"Ġdisg":1055,"Ġbread":1056,"Ġbrother":1057,"Ġrain":1058,"viour":1059,"Ġsyst":1060,"Ġgroup":1061,"ged":1062,"lf":1063,"li":1064,"ma":1065,"not":1066,"sp":1067,"uth":1068,"ually":1069,"ved":1070,"Ġauth":1071,"Ġwar":1072,"Ġfut":1073,"Ġbit":1074,"Ġmight":1075,"ough":1076,"Ġdire":1077,"ange":1078,"Ġhome":1079,"Ġnet":1080,"Ġinter":1081,"Ġstay":1082,"Ġgiving":1083,"Ġdev":1084,"Ġvide":1085,"Ġhate":1086,"Ġtravel":1087,"Ġrob":1088,"Ġready":1089,"Ġfriends":1090,"Ġsinners":1091,"Ġpurpose":1092,"Ġyears":1093,"Ġstrange":1094,"Ġsteps":1095,"Ġmercy":1096,"Ġstraight":1097,"Ġviolent":1098,"Ġfruit":1099,"Ġdisgust":1100,"Ġauthor":1101,"Ġvideo":1102,"ake":1103,"cus":1104,"turn":1105,"Ġsil":1106,"Ġsear":1107,"Ġmor":1108,"orrow":1109,"omes":1110,"Ġinc":1111,"Ġinv":1112,"eds":1113,"Ġever":1114,"ode":1115,"Ġwhoever":1116,"alk":1117,"Ġrem":1118,"Ġcannot":1119,"Ġface":1120,"Ġunderstanding":1121,"Ġbrea":1122,"Ġprogra":1123,"Ġmovies":1124,"Ġjudge":1125,"Ġrespect":1126,"Ġmeasure":1127,"Ġfuture":1128,"Ġdisgusting":1129,"aces":1130,"bb":1131,"ches":1132,"ner":1133,"Ġtea":1134,"Ġaround":1135,"Ġwrit":1136,"inking":1137,"Ġbir":1138,"Ġpat":1139,"Ġpract":1140,"Ġcru":1141,"Ġtown":1142,"Ġnear":1143,"Ġheal":1144,"ated":1145,"Ġlive":1146,"Ġones":1147,"Ġsto":1148,"Ġorg":1149,"Ġkinds":1150,"Ġself":1151,"Ġfocus":1152,"Ġprofit":1153,"Ġatom":1154,"Ġjust":1155,"Ġfeet":1156,"Ġposs":1157,"Ġtruly":1158,"Ġprot":1159,"Ġenough":1160,"Ġcompan":1161,"Ġgreater":1162,"Ġquest":1163,"Ġmeaning":1164,"Ġcommun":1165,"Ġglory":1166,"Ġdesigns":1167,"Ġproblems":1168,"Ġtwist":1169,"Ġbelief":1170,"Ġdecision":1171,"Ġblessing":1172,"Ġsuccess":1173,"Ġquickly":1174,"Ġfilm":1175,"Ġmemory":1176,"Ġprogram":1177,"ap":1178,"are":1179,"but":1180,"ffe":1181,"gg":1182,"oo":1183,"ove":1184,"xt":1185,"Ġ6":1186,"Ġalex":1187,"Ġwa":1188,"Ġwast":1189,"Ġsad":1190,"Ġswe":1191,"ines":1192,"Ġbro":1193,"Ġbig":1194,"Ġmar":1195,"Ġmother":1196,"ound":1197,"Ġcor":1198,"Ġcry":1199,"Ġcode":1200,"Ġgent":1201,"Ġtoward":1202,"Ġlisten":1203,"lling":1204,"east":1205,"Ġheat":1206,"Ġhear":1207,"Ġeff":1208,"Ġelect":1209,"Ġhad":1210,"Ġgold":1211,"ite":1212,"Ġwithin":1213,"Ġkings":1214,"Ġsex":1215,"Ġmoving":1216,"Ġtas":1217,"Ġsure":1218,"Ġask":1219,"Ġshare":1220,"Ġpos":1221,"Ġcomple":1222,"Ġrun":1223,"Ġboth":1224,"Ġanything":1225,"Ġrather":1226,"Ġsolve":1227,"Ġsurf":1228,"Ġforgive":1229,"Ġdecisions":1230,"Ġemotion":1231,"Ġmoment":1232,"Ġbehaviour":1233,"Ġovercome":1234,"Ġtraining":1235,"Ġsystem":1236,"Ġbitter":1237,"Ġauthority":1238,"Ġsilver":1239,"Ġtwisted":1240,"ab":1241,"ac":1242,"bit":1243,"den":1244,"ier":1245,"ired":1246,"mb":1247,"ood":1248,"Ġer":1249,"Ġtry":1250,"here":1251,"Ġside":1252,"Ġsign":1253,"Ġfix":1254,"Ġbad":1255,"Ġbest":1256,"Ġcold":1257,"Ġtop":1258,"lls":1259,"Ġhead":1260,"cts":1261,"Ġrec":1262,"Ġgoing":1263,"Ġstore":1264,"ily":1265,"iting":1266,"Ġmoves":1267,"Ġspeak":1268,"Ġsub":1269,"Ġhumble":1270,"Ġexc":1271,"Ġusers":1272,"ands":1273,"Ġoutside":1274,"ieve":1275,"ific":1276,"Ġcoll":1277,"Ġcreated":1278,"Ġblows":1279,"Ġeveryone":1280,"Ġplayed":1281,"Ġwine":1282,"Ġcommon":1283,"place":1284,"Ġacce":1285,"Ġappro":1286,"Ġpleasing":1287,"Ġforgi":1288,"Ġpresent":1289,"Ġdescribe":1290,"Ġimprove":1291,"Ġplants":1292,"Ġrobot":1293,"Ġsearch":1294,"Ġpractice":1295,"Ġsweet":1296,"Ġerror":1297,"go":1298,"mer":1299,"oice":1300,"uke":1301,"Ġtest":1302,"Ġai":1303,"Ġima":1304,"Ġsci":1305,"ors":1306,"Ġcut":1307,"Ġdep":1308,"Ġdang":1309,"Ġgr":1310,"ontro":1311,"Ġluke":1312,"ease":1313,"Ġwide":1314,"ates":1315,"Ġforce":1316,"ary":1317,"Ġreas":1318,"vers":1319,"ities":1320,"Ġfoll":1321,"Ġnext":1322,"Ġdeeds":1323,"Ġprocess":1324,"Ġfail":1325,"Ġworks":1326,"Ġshap":1327,"Ġearly":1328,"Ġsayings":1329,"Ġenv":1330,"Ġweight":1331,"Ġhated":1332,"Ġexpect":1333,"Ġroad":1334,"Ġruler":1335,"Ġrod":1336,"Ġparts":1337,"Ġslave":1338,"Ġgrace":1339,"cial":1340,"Ġart":1341,"Ġlead":1342,"Ġchoices":1343,"Ġprayer":1344,"Ġcharact":1345,"Ġpurposes":1346,"ize":1347,"Ġactions":1348,"Ġprovide":1349,"Ġadd":1350,"Ġeasier":1351,"Ġentertain":1352,"Ġstories":1353,"Ġgener":1354,"Ġincreased":1355,"Ġatoms":1356,"Ġgentle":1357,"Ġeffort":1358,"Ġsurface":1359,"ax":1360,"cur":1361,"day":1362,"fic":1363,"mos":1364,"no":1365,"tness":1366,"Ġsat":1367,"Ġsal":1368,"Ġsorrow":1369,"Ġbur":1370,"Ġpen":1371,"Ġpra":1372,"Ġpie":1373,"Ġpass":1374,"Ġdet":1375,"Ġdig":1376,"Ġgave":1377,"llen":1378,"Ġbeen":1379,"Ġherit":1380,"Ġwitness":1381,"vered":1382,"ater":1383,"lean":1384,"owing":1385,"ric":1386,"ster":1387,"Ġonce":1388,"Ġreg":1389,"Ġdoing":1390,"verty":1391,"Ġstate":1392,"ital":1393,"Ġplaces":1394,"Ġloves":1395,"Ġloss":1396,"Ġallow":1397,"Ġtaking":1398,"Ġsport":1399,"Ġproject":1400,"Ġfair":1401,"Ġvoice":1402,"Ġshared":1403,"Ġpoverty":1404,"Ġcont":1405,"Ġunt":1406,"Ġinte":1407,"Ġcovered":1408,"Ġsaid":1409,"doing":1410,"Ġexpress":1411,"Ġdays":1412,"Ġthough":1413,"Ġtemp":1414,"Ġrules":1415,"Ġmatter":1416,"Ġdiffic":1417,"Ġeye":1418,"Ġhonor":1419,"Ġgrain":1420,"Ġbrings":1421,"Ġstartup":1422,"Ġmovie":1423,"Ġchallen":1424,"Ġpleasure":1425,"Ġfighting":1426,"hip":1427,"Ġexperience":1428,"Ġorgan":1429,"Ġwaiting":1430,"Ġsexual":1431,"Ġcomplete":1432,"Ġdanger":1433,"Ġentertainment":1434,"Ġheritage":1435,"bt":1436,"cut":1437,"gs":1438,"gin":1439,"hn":1440,"ming":1441,"par":1442,"sing":1443,"sical":1444,"ured":1445,"val":1446,"wise":1447,"Ġri":1448,"Ġround":1449,"Ġtri":1450,"Ġtalk":1451,"Ġwind":1452,"Ġsing":1453,"Ġseat":1454,"Ġfin":1455,"Ġfam":1456,"Ġfill":1457,"Ġfoun":1458,"Ġbed":1459,"Ġbright":1460,"esc":1461,"Ġpay":1462,"Ġphy":1463,"Ġclean":1464,"Ġdra":1465,"Ġdid":1466,"Ġgot":1467,"Ġgrie":1468,"Ġtoday":1469,"Ġless":1470,"ances":1471,"ison":1472,"thy":1473,"ead":1474,"Ġemp":1475,"ket":1476,"alking":1477,"Ġreme":1478,"Ġreach":1479,"ility":1480,"ross":1481,"raid":1482,"rument":1483,"iding":1484,"Ġlose":1485,"Ġlover":1486,"Ġdesires":1487,"Ġknowing":1488,"Ġfeed":1489,"Ġusing":1490,"ief":1491,"Ġhappiness":1492,"Ġseems":1493,"Ġunderwor":1494,"Ġafraid":1495,"Ġbuil":1496,"Ġresul":1497,"Ġsmoo":1498,"Ġroom":1499,"Ġrock":1500,"Ġshort":1501,"ĠâĢĺ":1502,"Ġopin":1503,"Ġgrowth":1504,"Ġleads":1505,"Ġanger":1506,"Ġinstrument":1507,"Ġtells":1508,"ount":1509,"Ġconsid":1510,"Ġwatching":1511,"Ġdescribes":1512,"Ġhobb":1513,"Ġfaster":1514,"Ġnumber":1515,"Ġstars":1516,"Ġguiding":1517,"Ġperformance":1518,"Ġcauses":1519,"Ġjohn":1520,"Ġcomputer":1521,"Ġmorning":1522,"Ġstored":1523,"Ġbroken":1524,"Ġcorre":1525,"Ġposition":1526,"Ġcollect":1527,"Ġreason":1528,"Ġdigital":1529,"Ġfountain":1530,"Ġphysical":1531,"Ġrememb":1532,"Ġunderworld":1533,"Ġsmooth":1534,"br":1535,"bs":1536,"back":1537,"cher":1538,"cific":1539,"ger":1540,"hind":1541,"ile":1542,"iet":1543,"ial":1544,"iction":1545,"net":1546,"ond":1547,"ron":1548,"ups":1549,"vation":1550,"vity":1551,"Ġve":1552,"Ġach":1553,"Ġwea":1554,"Ġsent":1555,"Ġsick":1556,"Ġfie":1557,"Ġmess":1558,"Ġmotion":1559,"oud":1560,"oubt":1561,"Ġcal":1562,"Ġcrow":1563,"Ġdri":1564,"Ġdear":1565,"Ġgal":1566,"Ġlater":1567,"Ġinner":1568,"Ġbehind":1569,"Ġwife":1570,"Ġliqu":1571,"Ġreturn":1572,"Ġgosp":1573,"Ġstop":1574,"Ġthinking":1575,"Ġorbit":1576,"Ġmass":1577,"Ġmaster":1578,"ument":1579,"Ġsends":1580,"Ġsepar":1581,"ides":1582,"Ġfoot":1583,"Ġlost":1584,"Ġloving":1585,"Ġmoon":1586,"antly":1587,"ush":1588,"Ġcapt":1589,"Ġsugg":1590,"Ġfact":1591,"Ġusually":1592,"Ġcontain":1593,"Ġcontro":1594,"Ġsaying":1595,"Ġlets":1596,"Ġsave":1597,"Ġbecomes":1598,"Ġchanged":1599,"Ġmindful":1600,"Ġprice":1601,"Ġquiet":1602,"Ġnews":1603,"Ġgravity":1604,"Ġlook":1605,"Ġstartups":1606,"Ġappear":1607,"Ġjudging":1608,"Ġbook":1609,"Ġrespons":1610,"Ġoffering":1611,"Ġspecific":1612,"Ġshows":1613,"Ġrequire":1614,"Ġrequires":1615,"Ġ15":1616,"Ġsky":1617,"Ġskill":1618,"Ġnumbers":1619,"Ġstream":1620,"Ġclothing":1621,"Ġconfus":1622,"Ġuncontro":1623,"Ġtools":1624,"Ġexplain":1625,"Ġbrothers":1626,"Ġdirection":1627,"Ġpatience":1628,"Ġtasks":1629,"Ġrunning":1630,"Ġfixed":1631,"Ġtopic":1632,"Ġforgiven":1633,"Ġsalvation":1634,"Ġpenal":1635,"Ġsingle":1636,"Ġfeedback":1637,"Ġresults":1638,"Ġconsider":1639,"Ġcorrect":1640,"Ġfield":1641,"Ġgalax":1642,"Ġliquid":1643,"Ġgospel":1644,"Ġsuggest":1645,"az":1646,"action":1647,"fl":1648,"ious":1649,"ls":1650,"lse":1651,"ted":1652,"ters":1653,"ught":1654,"war":1655,"ware":1656,"heart":1657,"Ġwand":1658,"Ġsong":1659,"Ġfour":1660,"Ġbon":1661,"Ġbra":1662,"Ġbased":1663,"Ġmin":1664,"Ġmil":1665,"Ġmist":1666,"Ġmeat":1667,"oured":1668,"nding":1669,"orn":1670,"Ġcould":1671,"Ġdro":1672,"Ġdoubt":1673,"Ġlion":1674,"Ġhold":1675,"Ġyoung":1676,"Ġeffe":1677,"Ġelse":1678,"otions":1679,"etition":1680,"Ġlie":1681,"Ġlives":1682,"Ġlift":1683,"Ġitself":1684,"Ġdoor":1685,"Ġthree":1686,"urt":1687,"irt":1688,"Ġsees":1689,"Ġsend":1690,"Ġsequ":1691,"ication":1692,"Ġgoodness":1693,"tern":1694,"Ġprop":1695,"Ġknown":1696,"Ġsoft":1697,"âĢľ":1698,"ular":1699,"Ġvis":1700,"Ġvie":1701,"Ġpoin":1702,"ists":1703,"cked":1704,"Ġsins":1705,"Ġalone":1706,"Ġcond":1707,"Ġcost":1708,"Ġcover":1709,"Ġclos":1710,"Ġagree":1711,"Ġhappened":1712,"Ġsmart":1713,"Ġacting":1714,"Ġanyone":1715,"ĠâĢĶ":1716,"Ġsolving":1717,"Ġplayers":1718,"Ġwinning":1719,"then":1720,"Ġproduce":1721,"Ġbring":1722,"Ġsmaller":1723,"Ġkingdom":1724,"Ġchoo":1725,"emn":1726,"Ġacross":1727,"Ġanimal":1728,"Ġbelieve":1729,"Ġmovement":1730,"Ġresting":1731,"Ġexists":1732,"Ġpresence":1733,"Ġsecretly":1734,"Ġeasy":1735,"Ġemotions":1736,"Ġstreet":1737,"Ġcomputers":1738,"Ġinvol":1739,"Ġbreak":1740,"Ġcruel":1741,"Ġcompany":1742,"Ġquestions":1743,"Ġwaste":1744,"Ġsadness":1745,"Ġmarket":1746,"Ġelectric":1747,"Ġsubject":1748,"Ġapproval":1749,"Ġimages":1750,"Ġdepe":1751,"Ġfollow":1752,"Ġenvy":1753,"Ġfamily":1754,"Ġopinion":1755,"Ġremember":1756,"Ġachieve":1757,"Ġuncontrolled":1758,"wards":1759,"hearted":1760,"Ġbones":1761,"Ġmilk":1762,"Ġlifted":1763,"ag":1764,"ase":1765,"ared":1766,"bl":1767,"cle":1768,"ched":1769,"ccur":1770,"ems":1771,"ied":1772,"ient":1773,"med":1774,"og":1775,"ues":1776,"und":1777,"uri":1778,"Ġ5":1779,"Ġesc":1780,"Ġtreat":1781,"Ġable":1782,"Ġaud":1783,"Ġice":1784,"Ġox":1785,"Ġoccur":1786,"Ġsw":1787,"Ġsom":1788,"Ġsize":1789,"rest":1790,"read":1791,"Ġfeat":1792,"Ġbreat":1793,"Ġbas":1794,"Ġbill":1795,"Ġmod":1796,"Ġpush":1797,"Ġce":1798,"Ġche":1799,"Ġcred":1800,"Ġcust":1801,"Ġcuri":1802,"Ġdat":1803,"Ġgre":1804,"Ġgain":1805,"Ġground":1806,"Ġlack":1807,"Ġloud":1808,"ene":1809,"ens":1810,"Ġhor":1811,"Ġhig":1812,"Ġhoney":1813,"ises":1814,"ised":1815,"Ġnor":1816,"Ġnurt":1817,"Ġbegin":1818,"Ġhere":1819,"ative":1820,"Ġforms":1821,"step":1822,"etim":1823,"Ġred":1824,"Ġref":1825,"Ġstru":1826,"Ġmath":1827,"uring":1828,"urning":1829,"Ġevent":1830,"Ġplans":1831,"Ġseven":1832,"Ġdevel":1833,"vest":1834,"pping":1835,"Ġdesp":1836,"Ġmyself":1837,"Ġspo":1838,"Ġspeed":1839,"Ġsuch":1840,"Ġsuff":1841,"els":1842,"Ġexal":1843,"Ġwhom":1844,"Ġfew":1845,"Ġuses":1846,"Ġune":1847,"ments":1848,"Ġoverturn":1849,"Ġwisely":1850,"Ġabove":1851,"Ġcomplex":1852,"Ġsounds":1853,"Ġhappening":1854,"Ġhelpful":1855,"Ġshut":1856,"Ġmatters":1857,"Ġpriv":1858,"Ġhards":1859,"Ġrhy":1860,"Ġdecide":1861,"Ġguide":1862,"Ġloose":1863,"Ġflat":1864,"Ġbelong":1865,"play":1866,"Ġleave":1867,"Ġmoved":1868,"vior":1869,"Ġinstead":1870,"Ġuseful":1871,"Ġpull":1872,"Ġrequest":1873,"ivity":1874,"ized":1875,"Ġheavenly":1876,"Ġconnects":1877,"Ġsleeping":1878,"Ġguides":1879,"Ġdistance":1880,"Ġlevel":1881,"Ġleft":1882,"Ġcausing":1883,"Ġprep":1884,"Ġinternet":1885,"Ġincl":1886,"Ġteacher":1887,"Ġwritten":1888,"Ġpossible":1889,"Ġprotect":1890,"Ġquestion":1891,"Ġprogramming":1892,"Ġhearing":1893,"Ġemotional":1894,"Ġexchan":1895,"Ġaccep":1896,"Ġsearching":1897,"Ġgrant":1898,"Ġcharacter":1899,"Ġburden":1900,"Ġpraise":1901,"Ġpiece":1902,"Ġdraw":1903,"Ġgrief":1904,"Ġbuilt":1905,"Ġhobby":1906,"Ġcrown":1907,"Ġresponsible":1908,"Ġpenalty":1909,"Ġwandering":1910,"Ġview":1911,"Ġcondemn":1912,"Ġinvolves":1913,"Ġelectricity":1914,"Ġdepends":1915,"Ġescap":1916,"Ġaudience":1917,"Ġcredit":1918,"Ġcustom":1919,"Ġdata":1920,"Ġdevelop":1921,"Ġsuffering":1922,"Ġoverturned":1923,"19":1924,"ah":1925,"av":1926,"ail":1927,"air":1928,"akes":1929,"band":1930,"bled":1931,"der":1932,"fall":1933,"hing":1934,"hic":1935,"ib":1936,"ict":1937,"light":1938,"ock":1939,"phere":1940,"ser":1941,"ued":1942,"vo":1943,"vive":1944,"where":1945,"Ġ(":1946,"Ġ2":1947,"Ġ7":1948,"Ġtre":1949,"Ġtou":1950,"Ġtree":1951,"Ġtired":1952,"Ġaw":1953,"Ġill":1954,"Ġwear":1955,"Ġweak":1956,"Ġwalk":1957,"Ġwound":1958,"Ġwalking":1959,"Ġsix":1960,"inous":1961,"Ġfat":1962,"Ġfeast":1963,"Ġbea":1964,"Ġbeast":1965,"Ġmis":1966,"Ġmet":1967,"Ġmeal":1968,"ounds":1969,"nded":1970,"erm":1971,"Ġpar":1972,"Ġpress":1973,"Ġpath":1974,"Ġcri":1975,"Ġdue":1976,"Ġgas":1977,"Ġtold":1978,"ences":1979,"Ġhy":1980,"Ġhot":1981,"Ġhus":1982,"Ġhund":1983,"Ġinvest":1984,"Ġheinous":1985,"Ġequ":1986,"utif":1987,"lebr":1988,"ctor":1989,"ceed":1990,"eting":1991,"ales":1992,"Ġrev":1993,"Ġdog":1994,"Ġstone":1995,"Ġstud":1996,"Ġthir":1997,"Ġworry":1998,"roy":1999,"Ġwhether":2000,"chn":2001,"Ġmach":2002,"oper":2003,"ume":2004,"Ġplease":2005,"Ġseed":2006,"idence":2007,"Ġneg":2008,"Ġupon":2009,"Ġdef":2010,"Ġcall":2011,"Ġcalls":2012,"Ġdesired":2013,"Ġatmos":2014,"Ġsocial":2015,"Ġass":2016,"Ġearn":2017,"Ġears":2018,"Ġunwise":2019,"ouses":2020,"ource":2021,"Ġeng":2022,"Ġenem":2023,"Ġfeels":2024,"Ġcoo":2025,"Ġcoffe":2026,"Ġcooper":2027,"Ġcreates":2028,"Ġcompetition":2029,"Ġwants":2030,"Ġseeks":2031,"Ġhates":2032,"Ġhating":2033,"Ġhaters":2034,"Ġneeds":2035,"Ġblood":2036,"Ġbuy":2037,"Ġresult":2038,"Ġactive":2039,"Ġtechn":2040,"Ġrule":2041,"Ġsons":2042,"Ġchanging":2043,"Ġsolut":2044,"Ġsolar":2045,"Ġplaying":2046,"Ġplayer":2047,"Ġdead":2048,"Ġdestroy":2049,"Ġgrowing":2050,"Ġserve":2051,"Ġarg":2052,"Ġflow":2053,"Ġproduces":2054,"Ġchoice":2055,"Ġacc":2056,"Ġinstruction":2057,"Ġinstantly":2058,"Ġsunlight":2059,"Ġrespon":2060,"Ġpeaceful":2061,"Ġeaten":2062,"Ġspecial":2063,"Ġsurvive":2064,"Ġpubl":2065,"Ġholy":2066,"Ġrepres":2067,"Ġrepeat":2068,"Ġplanets":2069,"work":2070,"Ġstorm":2071,"Ġincrease":2072,"Ġenjoyable":2073,"Ġcurse":2074,"Ġcurrent":2075,"Ġwarm":2076,"Ġremain":2077,"Ġjudgement":2078,"Ġbirth":2079,"Ġcrus":2080,"Ġpossess":2081,"Ġcompanion":2082,"Ġcommunication":2083,"Ġbeliefs":2084,"Ġcrying":2085,"Ġsurely":2086,"Ġrobots":2087,"Ġscient":2088,"Ġscience":2089,"Ġfailure":2090,"Ġshape":2091,"Ġsatan":2092,"Ġregular":2093,"Ġunto":2094,"Ġdifficult":2095,"Ġorganized":2096,"Ġcollection":2097,"Ġweather":2098,"Ġcalm":2099,"Ġmassive":2100,"Ġfootstep":2101,"Ġforgiveness":2102,"Ġbrain":2103,"Ġeffect":2104,"Ġsequence":2105,"Ġchoose":2106,"Ġsometim":2107,"Ġfeatures":2108,"Ġcelebr":2109,"Ġrhyth":2110,"Ġescape":2111,"Ġbeautif":2112,"Ġhusband":2113,"Ġatmosphere":2114,"Ġcoffee":2115,"Ġpublic":2116,"Ġfootsteps":2117,"Ġsometimes":2118,"Ġbeautiful":2119,",âĢĻ":2120,"'d":2121,"by":2122,"crit":2123,"cise":2124,"cument":2125,"ding":2126,"dle":2127,"dden":2128,"ew":2129,"ey":2130,"emp":2131,"fu":2132,"gard":2133,"iah":2134,"jesus":2135,"lers":2136,"nings":2137,"ntain":2138,"pis":2139,"pable":2140,"rist":2141,"rons":2142,"sen":2143,"smos":2144,"ship":2145,"ta":2146,"ugh":2147,"uals":2148,"uage":2149,"yond":2150,"Ġty":2151,"Ġtin":2152,"Ġturning":2153,"hest":2154,"Ġwo":2155,"Ġwall":2156,"Ġwood":2157,"Ġwounds":2158,"Ġsea":2159,"Ġsit":2160,"Ġsnow":2161,"Ġsist":2162,"Ġsource":2163,"ined":2164,"Ġfound":2165,"Ġfiction":2166,"Ġburn":2167,"Ġbang":2168,"Ġmon":2169,"Ġmot":2170,"Ġmark":2171,"Ġmult":2172,"erat":2173,"Ġcount":2174,"Ġdam":2175,"Ġdust":2176,"Ġduring":2177,"Ġgone":2178,"Ġlay":2179,"Ġlot":2180,"Ġlast":2181,"Ġlang":2182,"lly":2183,"Ġhol":2184,"ision":2185,"ished":2186,"Ġnam":2187,"omach":2188,"Ġbeyond":2189,"Ġhell":2190,"secut":2191,"Ġepis":2192,"hold":2193,"Ġhaving":2194,"oted":2195,"Ġwhole":2196,"Ġarea":2197,"ctim":2198,"cept":2199,"Ġreven":2200,"Ġdocument":2201,"verbs":2202,"Ġgoals":2203,"Ġstomach":2204,"ilar":2205,"ilty":2206,"Ġange":2207,"Ġworth":2208,"Ġworship":2209,"Ġorder":2210,"Ġsec":2211,"Ġloc":2212,"Ġlosing":2213,"Ġcame":2214,"Ġcapable":2215,"Ġgoods":2216,"Ġspea":2217,"Ġproverbs":2218,"Ġsudden":2219,"resses":2220,"Ġknows":2221,"Ġext":2222,"Ġexam":2223,"âĢĶ":2224,"Ġjew":2225,"Ġworker":2226,"ulty":2227,"Ġvirt":2228,"Ġconc":2229,"Ġunp":2230,"Ġgetting":2231,"rence":2232,"Ġability":2233,"Ġamaz":2234,"Ġcosmos":2235,"Ġcompar":2236,"Ġundergo":2237,"Ġblock":2238,"Ġtrack":2239,"Ġrespo":2240,"Ġgreatest":2241,"Ġactually":2242,"Ġrulers":2243,"unch":2244,"uding":2245,"Ġmountain":2246,"Ġchrist":2247,"Ġdisplay":2248,"Ġanywhere":2249,"Ġsolid":2250,"Ġperf":2251,"Ġperfe":2252,"Ġdownfall":2253,"Ġlaugh":2254,"pocrit":2255,"Ġindiv":2256,"Ġserious":2257,"Ġguilty":2258,"Ġlooks":2259,"Ġcommit":2260,"cious":2261,"Ġflight":2262,"Ġattemp":2263,"Ġsmallest":2264,"osity":2265,"Ġleaves":2266,"Ġchosen":2267,"Ġwomen":2268,"Ġsimilar":2269,"Ġrewarded":2270,"Ġdeliver":2271,"Ġspend":2272,"Ġfinding":2273,"Ġwrongdoing":2274,"Ġsharing":2275,"Ġconsist":2276,"Ġdrinking":2277,"Ġhole":2278,"Ġprovides":2279,"Ġvictim":2280,"Ġconnection":2281,"Ġslowly":2282,"Ġproducts":2283,"Ġfalling":2284,"Ġsucceed":2285,"Ġclose":2286,"Ġscore":2287,"Ġscales":2288,"Ġmoments":2289,"Ġconfli":2290,"hips":2291,"Ġcarry":2292,"Ġcertainly":2293,"Ġexperi":2294,"like":2295,"Ġdirect":2296,"Ġinteraction":2297,"Ġdevice":2298,"Ġdevices":2299,"Ġtravels":2300,"Ġmornings":2301,"Ġbreathing":2302,"Ġbirds":2303,"Ġhealth":2304,"Ġprotest":2305,"Ġcommunity":2306,"Ġtask":2307,"ables":2308,"Ġcharacters":2309,"nothing":2310,"Ġdeterm":2311,"Ġprojects":2312,"Ġcontin":2313,"Ġinterest":2314,"Ġtempt":2315,"Ġtemperat":2316,"Ġdifficulty":2317,"Ġchallenge":2318,"Ġempty":2319,"Ġvehic":2320,"Ġorbits":2321,"Ġgalaxies":2322,"Ġsuggestions":2323,"Ġmistakes":2324,"Ġdropping":2325,"Ġpoint":2326,"Ġagreement":2327,"Ġsubjects":2328,"Ġbreathe":2329,"Ġbillions":2330,"Ġhigher":2331,"Ġprivate":2332,"Ġexchange":2333,"Ġtreas":2334,"Ġawake":2335,"Ġhypocrit":2336,"Ġenemies":2337,"Ġcooking":2338,"Ġresponse":2339,"Ġrhythm":2340,"Ġtiny":2341,"Ġsisters":2342,"Ġmotiv":2343,"Ġlanguage":2344,"Ġnamed":2345,"Ġangels":2346,"Ġrespond":2347,"Ġindivid":2348,"Ġconflict":2349,"**":2350,"..":2351,".âĢĻ":2352,"10":2353,"app":2354,"acy":2355,"body":2356,"cing":2357,"ech":2358,"ered":2359,"fort":2360,"fting":2361,"ip":2362,"ker":2363,"kers":2364,"mo":2365,"morrow":2366,"ored":2367,"pr":2368,"pre":2369,"part":2370,"pect":2371,"ring":2372,"rot":2373,"tong":2374,"uence":2375,"ucle":2376,"vant":2377,"what":2378,"wers":2379,"you":2380,"yal":2381,"Ġea":2382,"Ġves":2383,"Ġtill":2384,"Ġtalking":2385,"Ġast":2386,"Ġavo":2387,"Ġapart":2388,"hets":2389,"Ġim":2390,"Ġoil":2391,"Ġopp":2392,"Ġoath":2393,"Ġsum":2394,"Ġseas":2395,"rer":2396,"Ġfit":2397,"Ġfra":2398,"Ġfate":2399,"Ġbene":2400,"Ġment":2401,"Ġmid":2402,"Ġmix":2403,"ouds":2404,"ester":2405,"ern":2406,"erty":2407,"ercise":2408,"Ġpa":2409,"Ġcol":2410,"Ġcour":2411,"Ġdir":2412,"Ġdru":2413,"Ġdies":2414,"Ġdry":2415,"Ġtowards":2416,"Ġtomorrow":2417,"ont":2418,"onment":2419,"Ġlin":2420,"Ġhouses":2421,"ister":2422,"ths":2423,"Ġnon":2424,"Ġnat":2425,"Ġnar":2426,"Ġnone":2427,"Ġnucle":2428,"omon":2429,"Ġinfl":2430,"athe":2431,"ating":2432,"Ġele":2433,"Ġeight":2434,"Ġetern":2435,"Ġforget":2436,"ars":2437,"odes":2438,"Ġur":2439,"ries":2440,"ceive":2441,"stain":2442,"stac":2443,"Ġreally":2444,"Ġdoctor":2445,"Ġyours":2446,"verse":2447,"Ġnote":2448,"Ġstri":2449,"Ġstand":2450,"Ġstage":2451,"Ġstands":2452,"Ġthorn":2453,"ently":2454,"Ġworthy":2455,"iter":2456,"rap":2457,"ironment":2458,"Ġevidence":2459,"rud":2460,"Ġgift":2461,"Ġkn":2462,"Ġsell":2463,"Ġfront":2464,"icate":2465,"Ġloyal":2466,"Ġmel":2467,"Ġmeeting":2468,"Ġneck":2469,"Ġnecess":2470,"Ġdem":2471,"Ġnose":2472,"Ġnoise":2473,"Ġtable":2474,"Ġtaught":2475,"Ġcoming":2476,"Ġcomfort":2477,"Ġcared":2478,"Ġwish":2479,"Ġwishes":2480,"Ġspot":2481,"Ġproven":2482,"Ġsustain":2483,"Ġfacts":2484,"elf":2485,"Ġexcept":2486,"Ġexercise":2487,"Ġjup":2488,"ashed":2489,"inded":2490,"Ġasks":2491,"Ġkey":2492,"Ġearli":2493,"Ġkeeping":2494,"Ġconst":2495,"orts":2496,"Ġunw":2497,"Ġoutc":2498,"ctions":2499,"Ġovert":2500,"Ġoverfl":2501,"ources":2502,"Ġprison":2503,"igning":2504,"Ġcompass":2505,"Ġsaviour":2506,"Ġseem":2507,"ateful":2508,"Ġaffe":2509,"Ġblack":2510,"Ġtraps":2511,"Ġclouds":2512,"Ġresources":2513,"Ġevening":2514,"Ġobstac":2515,"Ġchance":2516,"Ġidle":2517,"Ġchur":2518,"Ġdisc":2519,"Ġdisci":2520,"Ġdisease":2521,"Ġdisapp":2522,"Ġharm":2523,"Ġrot":2524,"Ġsolomon":2525,"Ġwins":2526,"Ġwinds":2527,"Ġfaithful":2528,"Ġgrows":2529,"Ġlaunch":2530,"Ġhonest":2531,"Ġhonoured":2532,"Ġgrass":2533,"Ġcommand":2534,"Ġcommands":2535,"Ġflo":2536,"Ġflowing":2537,"Ġbreast":2538,"Ġattract":2539,"Ġthroughout":2540,"pline":2541,"Ġdesigned":2542,"ption":2543,"Ġsecrets":2544,"Ġspeech":2545,"Ġlearned":2546,"Ġstrengthen":2547,"Ġconsisten":2548,"Ġanswers":2549,"Ġpulls":2550,"Ġpreser":2551,"Ġhopes":2552,"Ġblessed":2553,"Ġblessings":2554,"ived":2555,"Ġheavens":2556,"Ġconnected":2557,"Ġconnections":2558,"Ġrelations":2559,"Ġrelieve":2560,"Ġrelief":2561,"Ġrepent":2562,"Ġlaws":2563,"Ġolder":2564,"Ġoldest":2565,"Ġdarkness":2566,"Ġfilms":2567,"Ġbehavior":2568,"Ġcarries":2569,"Ġjob":2570,"Ġtrained":2571,"Ġsystems":2572,"Ġincur":2573,"Ġremove":2574,"Ġteams":2575,"Ġwriting":2576,"Ġbird":2577,"Ġstores":2578,"Ġorgans":2579,"Ġselfless":2580,"Ġcommunities":2581,"Ġposit":2582,"ached":2583,"Ġsignal":2584,"Ġrecord":2585,"Ġsubst":2586,"Ġaccept":2587,"Ġerrors":2588,"Ġtesting":2589,"Ġgrateful":2590,"Ġenvironment":2591,"Ġexpected":2592,"Ġgeneration":2593,"Ġpraised":2594,"Ġpieces":2595,"Ġdetail":2596,"Ġregion":2597,"Ġuntil":2598,"Ġhonorable":2599,"Ġcompletely":2600,"Ġdangerous":2601,"Ġtrials":2602,"Ġfinish":2603,"Ġfilled":2604,"Ġbrighter":2605,"Ġpayment":2606,"ronic":2607,"Ġveget":2608,"Ġmessage":2609,"Ġseparate":2610,"Ġconfused":2611,"Ġconfusion":2612,"Ġtopics":2613,"Ġfields":2614,"Ġgalaxy":2615,"Ġsongs":2616,"Ġminut":2617,"Ġprophets":2618,"Ġproperty":2619,"Ġsoftware":2620,"Ġstreets":2621,"Ġmilky":2622,"ograp":2623,"Ġoccurs":2624,"Ġcuriosity":2625,"Ġgreen":2626,"Ġhorror":2627,"Ġnorth":2628,"Ġnurture":2629,"Ġbeginning":2630,"Ġstruct":2631,"Ġspoke":2632,"Ġhardships":2633,"Ġincluding":2634,"Ġaccepting":2635,"Ġburdens":2636,"Ġdrawing":2637,"Ġcustomers":2638,"Ġdevelopment":2639,"Ġtouch":2640,"Ġweariness":2641,"Ġsixty":2642,"Ġstudy":2643,"Ġnegative":2644,"Ġcooperation":2645,"Ġtechnol":2646,"Ġargument":2647,"Ġinstructions":2648,"Ġrepresent":2649,"Ġcurrently":2650,"Ġcrushed":2651,"Ġscientists":2652,"Ġcelebrate":2653,"fully":2654,"Ġdamage":2655,"Ġholds":2656,"Ġepisodes":2657,"Ġexample":2658,"Ġjewels":2659,"Ġvirtue":2660,"Ġamazing":2661,"Ġcomparison":2662,"Ġperfume":2663,"Ġexperiences":2664,"Ġdetermines":2665,"Ġtemperature":2666,"Ġvehicle":2667,"Ġtreasures":2668,"Ġhypocrites":2669,"tongued":2670,"Ġvessel":2671,"Ġsummer":2672,"Ġbenefit":2673,"Ġmental":2674,"Ġmiddle":2675,"Ġmixed":2676,"Ġnucleus":2677,"Ġinfluence":2678,"Ġeternal":2679,"Ġjupiter":2680,"Ġconsistency":2681,",âĢĿ":2682,"'re":2683,"'ve":2684,"11":2685,"18":2686,"20":2687,"21":2688,"22":2689,"25":2690,"37":2691,"44":2692,"45":2693,"?âĢĻ":2694,"act":2695,"aid":2696,"ares":2697,"aging":2698,"be":2699,"bles":2700,"bless":2701,"ced":2702,"contro":2703,"dow":2704,"ek":2705,"eor":2706,"eth":2707,"fire":2708,"fiction":2709,"fair":2710,"gi":2711,"gen":2712,"gir":2713,"gest":2714,"gory":2715,"iable":2716,"kind":2717,"lear":2718,"loo":2719,"my":2720,"mes":2721,"man":2722,"mmer":2723,"minded":2724,"nam":2725,"nake":2726,"oc":2727,"of":2728,"over":2729,"oid":2730,"ores":2731,"onds":2732,"ogy":2733,"per":2734,"put":2735,"rge":2736,"rant":2737,"rans":2738,"sed":2739,"sion":2740,"sure":2741,"tru":2742,"tched":2743,"uel":2744,"ude":2745,"uine":2746,"vor":2747,"vent":2748,"vances":2749,"whe":2750,"ycle":2751,"ygen":2752,"zz":2753,"Ġtester":2754,"Ġtrans":2755,"Ġaut":2756,"Ġage":2757,"head":2758,"Ġsight":2759,"Ġsand":2760,"Ġscre":2761,"Ġsorts":2762,"ining":2763,"inet":2764,"inite":2765,"rely":2766,"ream":2767,"reds":2768,"regard":2769,"Ġfou":2770,"Ġfing":2771,"Ġfly":2772,"Ġfol":2773,"Ġfart":2774,"Ġfant":2775,"Ġfish":2776,"Ġfurn":2777,"Ġfold":2778,"Ġbear":2779,"Ġband":2780,"Ġborn":2781,"Ġbag":2782,"Ġmill":2783,"Ġminds":2784,"oura":2785,"esh":2786,"ert":2787,"erings":2788,"erate":2789,"orit":2790,"ories":2791,"Ġpit":2792,"Ġpop":2793,"Ġprou":2794,"Ġpas":2795,"Ġpity":2796,"Ġpack":2797,"Ġpill":2798,"Ġpick":2799,"Ġpoured":2800,"Ġpict":2801,"Ġcent":2802,"Ġcate":2803,"Ġcup":2804,"Ġcoura":2805,"Ġda":2806,"Ġdeal":2807,"Ġdiv":2808,"Ġdirt":2809,"Ġdream":2810,"Ġtower":2811,"Ġtoler":2812,"onel":2813,"Ġlate":2814,"Ġlem":2815,"Ġlists":2816,"Ġlonel":2817,"ane":2818,"Ġhur":2819,"Ġhour":2820,"oming":2821,"Ġins":2822,"edu":2823,"edy":2824,"Ġheed":2825,"Ġwicked":2826,"Ġhaun":2827,"Ġhang":2828,"Ġhammer":2829,"ctors":2830,"ceived":2831,"ste":2832,"ality":2833,"Ġrej":2834,"Ġrewards":2835,"Ġreceive":2836,"Ġreached":2837,"Ġwhatever":2838,"Ġdoors":2839,"vern":2840,"Ġgoings":2841,"Ġgovern":2842,"Ġstu":2843,"Ġsteal":2844,"iles":2845,"Ġthreat":2846,"Ġthief":2847,"Ġants":2848,"enty":2849,"ential":2850,"Ġworn":2851,"room":2852,"ither":2853,"iture":2854,"Ġmag":2855,"Ġmain":2856,"Ġmaker":2857,"ural":2858,"Ġkis":2859,"Ġkill":2860,"Ġselling":2861,"Ġfore":2862,"Ġfores":2863,"Ġloved":2864,"Ġmeant":2865,"Ġneut":2866,"Ġpeoples":2867,"Ġuphold":2868,"usion":2869,"Ġcomedy":2870,"Ġevils":2871,"Ġcares":2872,"Ġcamer":2873,"Ġdesigning":2874,"adise":2875,"term":2876,"tery":2877,"Ġspread":2878,"Ġhumbled":2879,"Ġlikewise":2880,"Ġworkers":2881,"Ġworkplace":2882,"Ġasking":2883,"Ġkept":2884,"Ġvar":2885,"Ġvast":2886,"Ġpoems":2887,"order":2888,"ests":2889,"Ġunit":2890,"Ġunlike":2891,"qual":2892,"quick":2893,"Ġoutput":2894,"Ġrightly":2895,"rents":2896,"Ġletting":2897,"Ġfoods":2898,"Ġsince":2899,"ify":2900,"ified":2901,"Ġalong":2902,"Ġalread":2903,"Ġfathers":2904,"Ġcoals":2905,"Ġcovers":2906,"Ġcreating":2907,"Ġcreatures":2908,"Ġcreativity":2909,"Ġwaters":2910,"Ġwatches":2911,"Ġsaf":2912,"Ġsaw":2913,"Ġsake":2914,"Ġsaved":2915,"Ġsabb":2916,"Ġsavior":2917,"Ġseeing":2918,"Ġneedy":2919,"Ġunderta":2920,"Ġexpense":2921,"Ġexpresses":2922,"acks":2923,"Ġblame":2924,"Ġtrap":2925,"Ġtrading":2926,"Ġtraverse":2927,"Ġclot":2928,"Ġpersons":2929,"Ġpersonal":2930,"Ġsmo":2931,"Ġactivity":2932,"Ġtend":2933,"Ġtele":2934,"Ġtends":2935,"Ġteeth":2936,"Ġhelping":2937,"Ġhelpless":2938,"Ġruled":2939,"riend":2940,"Ġteachings":2941,"Ġobey":2942,"Ġmater":2943,"Ġmatches":2944,"Ġworlds":2945,"Ġshel":2946,"Ġchief":2947,"Ġdisregard":2948,"Ġdisorder":2949,"Ġanybody":2950,"Ġwashed":2951,"Ġwashing":2952,"Ġrises":2953,"Ġdecl":2954,"Ġdeciding":2955,"Ġpartic":2956,"Ġpersecut":2957,"Ġlab":2958,"Ġlaz":2959,"Ġhonored":2960,"Ġseries":2961,"Ġarrow":2962,"Ġarms":2963,"Ġflesh":2964,"Ġendure":2965,"Ġendless":2966,"Ġplanning":2967,"Ġtroubled":2968,"Ġattacks":2969,"Ġopening":2970,"Ġdesigner":2971,"Ġdesigners":2972,"osion":2973,"Ġfreely":2974,"Ġvalid":2975,"Ġsouls":2976,"Ġstarted":2977,"Ġdifference":2978,"Ġapply":2979,"Ġlonger":2980,"Ġjudges":2981,"Ġcharge":2982,"Ġlargest":2983,"Ġreality":2984,"Ġsafely":2985,"Ġbelievers":2986,"Ġeating":2987,"Ġspending":2988,"Ġbusinesses":2989,"Ġsurvi":2990,"Ġwrongs":2991,"Ġwrongly":2992,"Ġconscious":2993,"Ġpulling":2994,"Ġpuzz":2995,"Ġcareful":2996,"Ġcarefully":2997,"Ġblesses":2998,"Ġservice":2999,"izing":3000,"Ġjoys":3001,".âĢĿ\"":3002,".âĢĿâĢĿ":3003,"Ġ10":3004,"Ġ16":3005,"Ġdeeper":3006,"Ġdeepest":3007,"Ġguidance":3008,"worthy":3009,"Ġmeasures":3010,"Ġfalls":3011,"Ġimproves":3012,"Ġservants":3013,"Ġenters":3014,"Ġdistances":3015,"Ġlegs":3016,"Ġcloth":3017,"Ġperformed":3018,"Ġgenre":3019,"Ġgenuine":3020,"Ġmemories":3021,"Ġunchan":3022,"Ġunclear":3023,"Ġovercomes":3024,"Ġdelights":3025,"Ġenjoyment":3026,"Ġcursed":3027,"Ġexplosion":3028,"Ġnets":3029,"Ġnetwork":3030,"Ġinterpre":3031,"Ġrobe":3032,"Ġfruits":3033,"Ġinvent":3034,"Ġteam":3035,"Ġpattern":3036,"Ġpatient":3037,"Ġhealthy":3038,"Ġoneself":3039,"Ġfocusing":3040,"Ġwasted":3041,"Ġbigger":3042,"Ġmars":3043,"Ġlistening":3044,"Ġelectrons":3045,"Ġelectronic":3046,"ably":3047,"ability":3048,"aced":3049,"Ġtrying":3050,"Ġsigns":3051,"Ġrecover":3052,"Ġapproach":3053,"Ġforgiving":3054,"Ġimag":3055,"Ġshapes":3056,"Ġweights":3057,"Ġexpectations":3058,"Ġroads":3059,"Ġleaders":3060,"Ġadding":3061,"Ġgenerous":3062,"Ġsaturn":3063,"Ġburning":3064,"Ġpassion":3065,"Ġintended":3066,"Ġchallenges":3067,"Ġchallenging":3068,"cutting":3069,"Ġrich":3070,"Ġriches":3071,"Ġbuilds":3072,"Ġinstruments":3073,"Ġhobbies":3074,"Ġsentence":3075,"Ġdriving":3076,"Ġstops":3077,"Ġcaptures":3078,"Ġcontains":3079,"Ġcontainer":3080,"Ġcontrol":3081,"Ġcontrolled":3082,"Ġsuggestion":3083,"Ġvisual":3084,"Ġpoints":3085,"Ġcosts":3086,"Ġcloser":3087,"Ġmarketplace":3088,"Ġoxygen":3089,"Ġsword":3090,"Ġchecked":3091,"Ġcurious":3092,"Ġgaining":3093,"Ġnurtures":3094,"Ġreflect":3095,"Ġdespite":3096,"Ġexalted":3097,"Ġunequal":3098,"Ġhardship":3099,"Ġprepared":3100,"Ġprotects":3101,"Ġaccepts":3102,"Ġdrawings":3103,"Ġcondemned":3104,"Ġcustomer":3105,"ibly":3106,"Ġmeteor":3107,"Ġparadise":3108,"Ġhundred":3109,"Ġhundreds":3110,"Ġinvestment":3111,"Ġequally":3112,"Ġmachine":3113,"Ġmachines":3114,"Ġdefile":3115,"Ġactively":3116,"Ġsolution":3117,"Ġsolutions":3118,"Ġdeadl":3119,"Ġaccount":3120,"Ġrepeated":3121,"Ġwarmth":3122,"Ġpossessions":3123,"Ġregularly":3124,"Ġtyrant":3125,"Ġmonth":3126,"Ġmulti":3127,"Ġrevenue":3128,"Ġlocated":3129,"Ġspeaks":3130,"Ġextre":3131,"Ġblocks":3132,"Ġdisplays":3133,"Ġperfection":3134,"Ġlaughing":3135,"Ġcommitment":3136,"Ġconsistent":3137,"Ġtemptations":3138,"Ġmotivation":3139,"Ġindividual":3140,"Ġeag":3141,"Ġavoiding":3142,"Ġoaths":3143,"Ġseason":3144,"Ġparents":3145,"Ġcourse":3146,"Ġlinen":3147,"Ġnatural":3148,"Ġnarrow":3149,"Ġforgetful":3150,"Ġthorns":3151,"Ġkni":3152,"Ġmelody":3153,"Ġnecessary":3154,"Ġkeys":3155,"Ġovertake":3156,"Ġoverflowing":3157,"Ġcompassion":3158,"Ġchurch":3159,"Ġdiscipline":3160,"Ġrotates":3161,"Ġpreserves":3162,"Ġrelationship":3163,"Ġrecorded":3164,"Ġdetailed":3165,"ography":3166,"Ġtechnology":3167,"blessed":3168,"control":3169,"truly":3170,"Ġfounder":3171,"Ġfingers":3172,"Ġfantas":3173,"Ġfurniture":3174,"Ġproud":3175,"Ġpasses":3176,"Ġcenter":3177,"Ġcategory":3178,"Ġcourage":3179,"Ġlemuel":3180,"Ġloneliness":3181,"Ġhanging":3182,"Ġforesight":3183,"Ġcamera":3184,"Ġalready":3185,"Ġsabbath":3186,"'m":3187,"),":3188,"14":3189,"15":3190,"17":3191,"28":3192,"31":3193,"33":3194,"36":3195,"ak":3196,"aw":3197,"ale":3198,"aves":3199,"ago":3200,"aware":3201,"bu":3202,"bear":3203,"bur":3204,"bly":3205,"bel":3206,"cho":3207,"cue":3208,"cles":3209,"chest":3210,"des":3211,"dir":3212,"done":3213,"five":3214,"fts":3215,"faction":3216,"finite":3217,"gn":3218,"gor":3219,"gan":3220,"gea":3221,"gic":3222,"give":3223,"gues":3224,"gths":3225,"hor":3226,"houses":3227,"iar":3228,"iod":3229,"ike":3230,"ium":3231,"ians":3232,"iqu":3233,"ipping":3234,"iography":3235,"jured":3236,"know":3237,"lt":3238,"ling":3239,"lord":3240,"love":3241,"lmed":3242,"law":3243,"min":3244,"mal":3245,"mit":3246,"might":3247,"mark":3248,"nication":3249,"nago":3250,"oic":3251,"overy":3252,"off":3253,"oved":3254,"pe":3255,"ph":3256,"ped":3257,"pot":3258,"rom":3259,"ray":3260,"rang":3261,"rary":3262,"sh":3263,"sal":3264,"said":3265,"that":3266,"top":3267,"tic":3268,"ties":3269,"tun":3270,"turning":3271,"uce":3272,"uous":3273,"uable":3274,"va":3275,"vy":3276,"vision":3277,"yle":3278,"yric":3279,"Ġ8":3280,"Ġz":3281,"Ġest":3282,"Ġrit":3283,"Ġeast":3284,"Ġ**":3285,"Ġ..":3286,"Ġtent":3287,"Ġtel":3288,"Ġtight":3289,"Ġtort":3290,"Ġaim":3291,"Ġack":3292,"Ġaster":3293,"Ġaware":3294,"Ġahead":3295,"hend":3296,"Ġiron":3297,"Ġign":3298,"Ġwent":3299,"Ġwings":3300,"Ġwest":3301,"Ġwrot":3302,"Ġtheater":3303,"Ġoven":3304,"Ġsens":3305,"Ġsnake":3306,"Ġsedu":3307,"int":3308,"inks":3309,"rel":3310,"reci":3311,"rehend":3312,"Ġfre":3313,"Ġfea":3314,"Ġfle":3315,"Ġfri":3316,"Ġfright":3317,"Ġfel":3318,"Ġfig":3319,"Ġfires":3320,"Ġben":3321,"Ġbow":3322,"Ġbent":3323,"Ġball":3324,"Ġbeat":3325,"Ġbible":3326,"Ġbands":3327,"Ġmed":3328,"Ġmut":3329,"Ġmine":3330,"hand":3331,"haps":3332,"inged":3333,"ndar":3334,"ords":3335,"orify":3336,"Ġpho":3337,"Ġpot":3338,"Ġpet":3339,"Ġpace":3340,"Ġpure":3341,"Ġpag":3342,"Ġprud":3343,"Ġpsal":3344,"Ġcat":3345,"Ġcord":3346,"Ġcore":3347,"Ġcity":3348,"Ġcoun":3349,"Ġcult":3350,"Ġcross":3351,"Ġcush":3352,"Ġcycle":3353,"Ġdi":3354,"Ġded":3355,"Ġdwe":3356,"Ġdance":3357,"Ġdumb":3358,"Ġdens":3359,"Ġdav":3360,"Ġgather":3361,"Ġgathe":3362,"Ġgrud":3363,"Ġlen":3364,"Ġlam":3365,"Ġlun":3366,"Ġlines":3367,"Ġlyric":3368,"ano":3369,"anus":3370,"anket":3371,"enus":3372,"enses":3373,"ller":3374,"llig":3375,"Ġhide":3376,"Ġhun":3377,"Ġhomes":3378,"isure":3379,"isible":3380,"isfaction":3381,"this":3382,"Ġnea":3383,"Ġnay":3384,"Ġnep":3385,"Ġnice":3386,"Ġnav":3387,"omin":3388,"omat":3389,"eath":3390,"Ġinse":3391,"Ġinsp":3392,"Ġinno":3393,"Ġinfinite":3394,"Ġinjured":3395,"Ġbees":3396,"Ġbeget":3397,"Ġbegan":3398,"Ġhero":3399,"Ġheld":3400,"Ġheard":3401,"Ġheals":3402,"Ġwild":3403,"Ġwires":3404,"Ġwidow":3405,"vere":3406,"ats":3407,"atial":3408,"settle":3409,"Ġeld":3410,"Ġends":3411,"Ġegg":3412,"Ġeither":3413,"Ġecho":3414,"Ġhair":3415,"Ġhalf":3416,"Ġhabit":3417,"lework":3418,"lendar":3419,"otten":3420,"Ġforward":3421,"Ġforcing":3422,"Ġfornication":3423,"aring":3424,"odle":3425,"ried":3426,"rive":3427,"ribut":3428,"Ġwhoso":3429,"ctive":3430,"Ġwilling":3431,"sts":3432,"ety":3433,"Ġlies":3434,"Ġlikes":3435,"Ġlived":3436,"Ġlibr":3437,"Ġlifting":3438,"imate":3439,"imens":3440,"Ġrepl":3441,"Ġretro":3442,"Ġreact":3443,"Ġreturning":3444,"Ġdoings":3445,"Ġdoctors":3446,"Ġyourselves":3447,"Ġnotes":3448,"Ġstic":3449,"Ġstead":3450,"Ġstyle":3451,"ilities":3452,"iliar":3453,"Ġhist":3454,"Ġthie":3455,"Ġthous":3456,"Ġthick":3457,"Ġmanif":3458,"Ġmankind":3459,"earch":3460,"rooted":3461,"ited":3462,"Ġwheel":3463,"Ġornam":3464,"Ġorchest":3465,"ractions":3466,"iring":3467,"irmed":3468,"Ġevol":3469,"rust":3470,"Ġgiant":3471,"Ġgifts":3472,"umed":3473,"uments":3474,"Ġkinet":3475,"ols":3476,"Ġplough":3477,"Ġplenty":3478,"Ġsection":3479,"Ġseeds":3480,"ided":3481,"idst":3482,"ics":3483,"iced":3484,"ically":3485,"icates":3486,"icient":3487,"righteous":3488,"Ġmere":3489,"Ġmeet":3490,"Ġmoth":3491,"Ġmood":3492,"Ġuprooted":3493,"Ġdew":3494,"Ġnoon":3495,"Ġnoble":3496,"Ġnovel":3497,"Ġtaste":3498,"Ġcomb":3499,"pped":3500,"Ġcalling":3501,"Ġcalendar":3502,"Ġdesiring":3503,"Ġgoodby":3504,"ade":3505,"Ġwiser":3506,"amity":3507,"Ġwayward":3508,"Ġspared":3509,"Ġspring":3510,"Ġspatial":3511,"nowledge":3512,"Ġpros":3513,"Ġsuper":3514,"Ġattain":3515,"Ġfavor":3516,"Ġhumbly":3517,"Ġexte":3518,"âĢĺ":3519,"Ġjaz":3520,"ash":3521,"ulner":3522,"ultery":3523,"Ġasso":3524,"Ġvill":3525,"Ġvine":3526,"Ġvenus":3527,"Ġvulner":3528,"Ġshaking":3529,"Ġshades":3530,"Ġearning":3531,"Ġheartb":3532,"Ġpoison":3533,"Ġpoodle":3534,"Ġconvers":3535,"Ġunless":3536,"Ġunfair":3537,"Ġunsure":3538,"Ġunknow":3539,"Ġunrighteous":3540,"Ġoutbur":3541,"Ġoutlaw":3542,"eases":3543,"easing":3544,"Ġtrump":3545,"Ġoverloo":3546,"Ġoverwhe":3547,"Ġthereby":3548,"Ġdoesn":3549,"Ġprin":3550,"Ġfoolishly":3551,"Ġthank":3552,"Ġthanks":3553,"nesses":3554,"Ġamount":3555,"Ġamidst":3556,"Ġputting":3557,"Ġalmo":3558,"Ġalgor":3559,"Ġalike":3560,"Ġalmight":3561,"Ġcool":3562,"Ġcreation":3563,"Ġcreature":3564,"Ġcompet":3565,"Ġcompos":3566,"Ġcomprehend":3567,"Ġwanted":3568,"Ġsaves":3569,"Ġours":3570,"ategy":3571,"Ġneeded":3572,"Ġneedlework":3573,"Ġwherever":3574,"Ġexpand":3575,"ustry":3576,"Ġsouth":3577,"Ġblind":3578,"Ġblanket":3579,"Ġtrad":3580,"Ġtraum":3581,"Ġtrade":3582,"Ġclea":3583,"Ġclass":3584,"Ġclashed":3585,"Ġearthly":3586,"Ġbefriend":3587,"ively":3588,"Ġbugs":3589,"Ġrescue":3590,"Ġresearch":3591,"Ġsmile":3592,"Ġactors":3593,"Ġfully":3594,"Ġtext":3595,"Ġroe":3596,"Ġroot":3597,"Ġroam":3598,"Ġrub":3599,"Ġruin":3600,"Ġrust":3601,"Ġshif":3602,"Ġshine":3603,"Ġshining":3604,"Ġobser":3605,"Ġmatch":3606,"Ġlights":3607,"Ġlightly":3608,"Ġlightning":3609,"Ġreaders":3610,"unished":3611,"Ġident":3612,"udes":3613,"Ġbond":3614,"Ġboard":3615,"Ġprivi":3616,"Ġpriorit":3617,"Ġharsh":3618,"Ġquality":3619,"Ġrate":3620,"Ġrise":3621,"Ġrates":3622,"Ġsolves":3623,"Ġdecay":3624,"Ġparted":3625,"owner":3626,"Ġ\"âĢľ":3627,"Ġperse":3628,"Ġperceived":3629,"Ġperiod":3630,"Ġperhaps":3631,"Ġturns":3632,"Ġslaves":3633,"Ġslipping":3634,"Ġgrown":3635,"ression":3636,"Ġfalsely":3637,"Ġindicates":3638,"Ġindustry":3639,"Ġserving":3640,"Ġguit":3641,"Ġguard":3642,"Ġguests":3643,"Ġgrad":3644,"wered":3645,"Ġarts":3646,"Ġarise":3647,"Ġarcher":3648,"Ġarmed":3649,"Ġarmy":3650,"Ġflows":3651,"Ġflav":3652,"Ġbreath":3653,"Ġended":3654,"Ġplank":3655,"Ġtroubles":3656,"Ġglass":3657,"Ġglorify":3658,"Ġowners":3659,"Ġmusical":3660,"Ġmusicians":3661,"Ġpowers":3662,"Ġhardest":3663,"Ġopenly":3664,"plate":3665,"pleasing":3666,"osing":3667,"osers":3668,"Ġfreez":3669,"Ġvalues":3670,"Ġvaluable":3671,"Ġraises":3672,"Ġraised":3673,"Ġrarely":3674,"Ġchoosing":3675,"Ġstronger":3676,"Ġprayers":3677,"Ġacid":3678,"Ġaccur":3679,"Ġangle":3680,"vious":3681,"Ġappreci":3682,"Ġsimpl":3683,"Ġanimation":3684,"Ġjudged":3685,"pture":3686,"Ġchair":3687,"Ġlarger":3688,"Ġbelieves":3689,"Ġbelieving":3690,"Ġpurposing":3691,"Ġpeacema":3692,"Ġofferings":3693,"Ġpleases":3694,"Ġpleased":3695,"Ġdelicate":3696,"Ġspeck":3697,"Ġsurpr":3698,"Ġhighway":3699,"Ġforgotten":3700,"Ġtelling":3701,"Ġshowing":3702,"Ġvers":3703,"ounts":3704,"Ġheavy":3705,"Ġdescription":3706,"Ġconsumed":3707,"Ġfriendly":3708,"Ġanswered":3709,"Ġexisted":3710,"Ġexistence":3711,"Ġpulled":3712,"Ġservices":3713,"Ġpains":3714,"Ġpainful":3715,"Ġlower":3716,"Ġforming":3717,"Ġformed":3718,"Ġdeception":3719,"Ġdescribed":3720,"Ġ12":3721,"Ġ14":3722,"Ġ18":3723,"Ġ19":3724,"Ġtook":3725,"Ġhost":3726,"Ġproviding":3727,"Ġprovoc":3728,"Ġprovided":3729,"Ġadvers":3730,"Ġadvances":3731,"Ġadultery":3732,"Ġskin":3733,"Ġskies":3734,"Ġfirm":3735,"Ġhandle":3736,"Ġrelax":3737,"Ġreliable":3738,"Ġreply":3739,"Ġrepents":3740,"Ġrepetition":3741,"Ġstringed":3742,"Ġstrategy":3743,"Ġproductive":3744,"Ġsleepy":3745,"Ġeasily":3746,"Ġsymb":3747,"Ġsynago":3748,"itional":3749,"Ġguided":3750,"Ġmeasured":3751,"Ġstretched":3752,"Ġstoryte":3753,"Ġimproving":3754,"Ġimproved":3755,"Ġentire":3756,"Ġdistract":3757,"Ġdistractions":3758,"Ġdistrust":3759,"Ġgroups":3760,"Ġleisure":3761,"Ġlandmark":3762,"Ġstoring":3763,"Ġplanting":3764,"Ġsounding":3765,"Ġclock":3766,"Ġclearly":3767,"Ġperformer":3768,"Ġscene":3769,"Ġscale":3770,"Ġmercur":3771,"Ġkindness":3772,"Ġcaused":3773,"Ġconfidence":3774,"Ġconfirmed":3775,"Ġuncertain":3776,"athy":3777,"leration":3778,"Ġprevent":3779,"Ġcards":3780,"Ġcarrot":3781,"Ġcertainty":3782,"Ġjoke":3783,"Ġtrusting":3784,"Ġtrustworthy":3785,"Ġexplan":3786,"Ġexplores":3787,"Ġexpert":3788,"Ġrains":3789,"life":3790,"spect":3791,"Ġwars":3792,"Ġdirects":3793,"Ġhomeowner":3794,"Ġstays":3795,"Ġstaying":3796,"Ġdevotion":3797,"Ġdevoted":3798,"Ġauthorities":3799,"Ġsearched":3800,"Ġinvisible":3801,"Ġbreaking":3802,"Ġwrite":3803,"Ġwrites":3804,"Ġhealed":3805,"Ġjustified":3806,"Ġpossibly":3807,"Ġprotons":3808,"Ġmeaningful":3809,"Ġsuccessful":3810,"apor":3811,"Ġwaves":3812,"Ġwasting":3813,"Ġbroke":3814,"Ġmarke":3815,"Ġlistens":3816,"Ġheating":3817,"Ġefficient":3818,"itement":3819,"Ġcompleting":3820,"Ġsurfaces":3821,"Ġmomentum":3822,"Ġsignals":3823,"Ġfixing":3824,"Ġrecog":3825,"Ġrecords":3826,"Ġexcl":3827,"Ġexcitement":3828,"ification":3829,"Ġacceleration":3830,"Ġimprovement":3831,"Ġimprovements":3832,"Ġtests":3833,"Ġtested":3834,"Ġreasons":3835,"Ġfollows":3836,"Ġprocessing":3837,"Ġshaped":3838,"Ġweighty":3839,"Ġgenerally":3840,"Ġgenerations":3841,"nova":3842,"Ġsatisfaction":3843,"Ġsalt":3844,"Ġpassing":3845,"Ġpassage":3846,"Ġsports":3847,"Ġcontent":3848,"Ġcontrary":3849,"Ġcontribut":3850,"Ġintellig":3851,"Ġorganic":3852,"Ġriver":3853,"Ġtrial":3854,"Ġwindow":3855,"Ġseated":3856,"Ġfinal":3857,"Ġfinished":3858,"Ġfamiliar":3859,"escop":3860,"Ġpaying":3861,"Ġcleaning":3862,"Ġdrama":3863,"Ġdidn":3864,"Ġlesson":3865,"Ġempathe":3866,"Ġempathy":3867,"Ġrooms":3868,"Ġrocky":3869,"Ġopinions":3870,"Ġcollected":3871,"Ġfountains":3872,"ronom":3873,"Ġweaken":3874,"Ġmessiah":3875,"Ġcalamity":3876,"Ġdrive":3877,"Ġstopped":3878,"Ġmassa":3879,"Ġseparation":3880,"Ġseparated":3881,"Ġcaptured":3882,"Ġfactual":3883,"Ġlooked":3884,"Ġresponsib":3885,"Ġskills":3886,"Ġstreams":3887,"Ġexplains":3888,"Ġpenalties":3889,"Ġliquids":3890,"Ġminister":3891,"Ġmistake":3892,"Ġeffects":3893,"Ġdoorways":3894,"Ġvision":3895,"Ġcovering":3896,"Ġclosed":3897,"Ġsmarter":3898,"Ġchooses":3899,"Ġachievement":3900,"Ġtreating":3901,"Ġswim":3902,"Ġbreather":3903,"Ġbasin":3904,"Ġbases":3905,"Ġbasic":3906,"Ġbillion":3907,"Ġmodel":3908,"Ġmodern":3909,"Ġmoderate":3910,"Ġgrey":3911,"Ġhorse":3912,"Ġhighest":3913,"Ġnormal":3914,"Ġreduce":3915,"Ġstrugg":3916,"Ġdespise":3917,"Ġdespair":3918,"Ġspoken":3919,"Ġexalt":3920,"Ġexalts":3921,"Ġunex":3922,"Ġunending":3923,"Ġprivacy":3924,"Ġbelongs":3925,"Ġbelonged":3926,"Ġrequests":3927,"Ġprepare":3928,"Ġprotection":3929,"Ġexchanged":3930,"Ġcreditor":3931,"servant":3932,"Ġ22":3933,"Ġillness":3934,"Ġwalked":3935,"Ġwounded":3936,"Ġfeasting":3937,"Ġbeasts":3938,"Ġmissing":3939,"Ġmission":3940,"Ġparables":3941,"Ġpressure":3942,"Ġcries":3943,"Ġcrimin":3944,"Ġequal":3945,"Ġreveal":3946,"Ġthird":3947,"Ġthirty":3948,"Ġneglect":3949,"Ġassure":3950,"Ġengage":3951,"Ġengine":3952,"Ġcooperate":3953,"Ġtechniqu":3954,"Ġarguments":3955,"Ġflowers":3956,"Ġrepresents":3957,"Ġrepeating":3958,"Ġcrushing":3959,"Ġscientist":3960,"garden":3961,"Ġwoe":3962,"Ġwonder":3963,"Ġsitting":3964,"Ġburns":3965,"Ġcountless":3966,"Ġlayer":3967,"Ġhello":3968,"Ġrevenge":3969,"Ġdocumentation":3970,"Ġdocumentary":3971,"Ġsecond":3972,"Ġseconds":3973,"Ġspeaking":3974,"Ġsuddenly":3975,"Ġextra":3976,"Ġunpunished":3977,"Ġundergoes":3978,"Ġblocking":3979,"Ġtracks":3980,"Ġperfect":3981,"Ġattempt":3982,"Ġattempting":3983,"Ġdelivers":3984,"Ġvictims":3985,"Ġclosely":3986,"Ġcontinuous":3987,"Ġinterested":3988,"Ġmotivated":3989,"Ġindividuals":3990,"Ġastronom":3991,"Ġopposers":3992,"Ġframe":3993,"Ġcolor":3994,"Ġdirty":3995,"Ġdrugs":3996,"Ġelement":3997,"Ġelements":3998,"Ġurg":3999,"Ġuranus":4000,"Ġstrikes":4001,"Ġstanding":4002,"Ġdemand":4003,"Ġdemons":4004,"Ġearlier":4005,"Ġearliest":4006,"Ġunwashed":4007,"Ġoutcome":4008,"Ġoutcomes":4009,"Ġprisoner":4010,"Ġaffect":4011,"Ġobstacle":4012,"Ġobstacles":4013,"Ġdiscovery":4014,"Ġdisappear":4015,"Ġharmful":4016,"Ġlaunching":4017,"Ġcommandment":4018,"Ġfloor":4019,"Ġfloating":4020,"Ġbreastplate":4021,"Ġattractive":4022,"Ġpositive":4023,"Ġpositions":4024,"Ġsubstance":4025,"Ġsubstances":4026,"Ġfinishing":4027,"Ġvegetable":4028,"Ġvegetables":4029,"Ġminute":4030,"Ġminutes":4031,"Ġstructure":4032,"giving":4033,"girls":4034,"Ġautomat":4035,"Ġscreen":4036,"Ġfolk":4037,"Ġfarther":4038,"Ġfolding":4039,"Ġmillions":4040,"Ġpitch":4041,"Ġpacked":4042,"Ġpillars":4043,"Ġpicture":4044,"Ġdealings":4045,"Ġdreams":4046,"Ġhours":4047,"Ġinsult":4048,"Ġrejoic":4049,"Ġgovernment":4050,"Ġstuff":4051,"Ġmagnet":4052,"Ġforever":4053,"Ġneutrons":4054,"Ġsafety":4055,"Ġundertaking":4056,"Ġclothed":4057,"Ġsmoke":4058,"Ġtelevision":4059,"Ġmaterial":4060,"Ġshelter":4061,"Ġdisregarding":4062,"Ġparticip":4063,"Ġpersecute":4064,"Ġlabor":4065,"Ġlazy":4066,"Ġapplying":4067,"Ġconsciousness":4068,"Ġpuzzles":4069,"Ġinterpret":4070,"Ġinvented":4071,"Ġpatterns":4072,"Ġimagine":4073,"Ġreflects":4074,"Ġdeadlines":4075,"Ġtyrants":4076,"Ġmultiple":4077,"Ġextremes":4078,"Ġeagle":4079,"Ġknife":4080,"Ġcompassionate":4081,"Ġfantasies":4082,"geable":4083,"ranged":4084,"tune":4085,"Ġrituals":4086,"Ġ...":4087,"Ġtelescop":4088,"Ġtorture":4089,"Ġacknowledge":4090,"Ġasteroid":4091,"Ġignor":4092,"Ġwrote":4093,"Ġsensation":4094,"Ġfriction":4095},"merges":["Ġ t","Ġ a","h e","Ġ i","Ġ w","Ġt he","Ġ o","Ġ s","i n","r e","Ġ f","Ġ b","Ġ m","h a","o u","Ġi s","e s","in g","n d","e r","o r","Ġ p","Ġo f","Ġ c","Ġ d","Ġ g","Ġt o","o n","Ġ l","a n","e n","Ġa nd","l l","Ġ h","Ġ y","i s","t h","Ġ n","Ġy ou","o m","e a","Ġi n","e d","Ġb e","Ġ he","Ġw i","ha t","v e","a t","s e","Ġ e","u t","h o","a y","Ġ ha","l e","o t","Ġf or","g h","a r","o w","o d","Ġ u","k e","i on","r i","Ġw ho","Ġa re","c t","Ġwi ll","gh t","c e","s t","e t","Ġl i","Ġo n","a l","i m","Ġ re","Ġw hat","Ġi t","Ġd o","Ġyou r","v er","Ġn ot","Ġg o","Ġs t","i l","Ġh is","Ġt h","Ġa n","Ġb ut","he r","Ġm an","en t","Ġw or","ea r","r o","Ġt hat","i t","Ġw he","c h","om e","Ġwi th","Ġo r","r a","Ġm a","u r","i r","Ġe v","r u","Ġg i","o p","l y","u m","Ġha ve","es s","g e","Ġ k","o l","Ġp l","Ġs e","er s","i d","Ġf r","ar t","Ġwhe n","Ġf o","Ġfr om","i c","e p","ri ght","Ġl o","ing s","f e","Ġm e","Ġn e","e op","Ġp eop","Ġm o","Ġb y","Ġpeop le","th ing","Ġh im","an t","l d","Ġthe y","Ġu p","Ġa ll","u s","Ġd e","Ġn o","v es","Ġt a","Ġc om","Ġev il","p p","Ġc a","Ġd es","Ġs ome","Ġgo od","a in","Ġm y","Ġc an","a d","Ġthe ir","Ġw is","a m","t er","Ġha s","Ġw ay","Ġon e","d s","re at","Ġs p","ha n","n ow","Ġp ro","b le","Ġs u","an s","Ġa t","re s","Ġf a","Ġgi ve","Ġh um","Ġk now","Ġthe m","e l","e ct","Ġs o","on g","Ġe x","on e","Ġli ke","â Ģ","Ġ j","i ght","r ou","t her","Ġwor k","a s","k es","Ġt im","u l","in d","Ġa s","Ġw h","Ġ ke","at ion","a ce","Ġ v","Ġs ha","Ġf e","Ġ ear","Ġo ther","Ġg od","Ġu s","Ġke ep","ou t","is h","Ġhe art","a nd","Ġp o","is t","Ġhe r","Ġ -","Ġc on","Ġth ings","or t","Ġtim e","l ed","or d","d e","es t","Ġu n","c k","q u","u se","Ġo ut","Ġg et","se l","ct ion","Ġsome thing","Ġ right","ea s","m ent","p s","Ġt ru","re d","Ġo ver","re n","ho se","Ġli fe","k ing","w ay","Ġt hose","Ġthe re","' s","Ġhe l","led ge","i e","Ġl ord","v ing","Ġs ay","at her","Ġknow ledge","ou s","Ġdo es","ver y","id e","ou r","Ġp r","i g","Ġi f","Ġup right","Ġ en","Ġm ay","Ġha pp","Ġl et","Ġfo ol","Ġfe el","m p","u re","Ġwis e","Ġfool ish","Ġt han","Ġa b","Ġw e","Ġwh i","i re","n ess","Ġa m","Ġfo od","Ġlo ve","am e","a ll","Ġs in","n ing","Ġf u","i f","o re","nd s","Ġp ut","ea ch","Ġma kes","Ġhum ans","v en","Ġh ow","Ġin t","il d","Ġwor ds","Ġma ke","Ġta ke","Ġa l","Ġf ather","Ġc o","Ġc reat","it y","Ġcom p","Ġw at","sel f","r ow","Ġw ant","Ġs a","nd er","Ġother s","Ġc ome","Ġse e","f or","Ġo ur","ea l","Ġbe c","at e","i es","Ġgi ves","Ġ hat","d om","Ġne ed","d o","f ul","u e","Ġu nder","ur n","ot her","Ġwhe re","Ġmo re","Ġex p","r y","Ġa f","en ce","a ck","u st","ar d","Ġs ou","Ġb l","Ġp ers","Ġint o","for m","j ect","Ġt ra","ou ld","Ġc l","ea t","Ġear th","Ġab out","Ġa g","Ġbe f","Ġma de","Ġpers on","i ve","Ġb u","Ġre s","Ġpl ace","Ġwis dom","Ġhapp en","i ll","r ong","Ġa way","Ġs m","Ġd ay","Ġg reat","ion s","Ġth ou","Ġev en","Ġwhi ch","Ġa ct","Ġl ear","Ġe very","Ġca use","Ġpo or","Ġfu ll","Ġbef ore","Ġt e","Ġi mp","Ġbe t","Ġhel p","k s","t ain","Ġ ro","Ġ ru","Ġs on","re e","ri e","Ġw eal","Ġs h","Ġweal th","i gh","Ġt each","w n","Ġo b","in k","Ġm at","ri t","Ġli ght","m s","s es","or y","Ġc han","Ġon ly","Ġre ad","Ġwor ld","u n","Ġi d","Ġm en","Ġit s","Ġman y","Ġag ain","c re","u d","Ġs he","Ġm ou","en se","e ous","s s","t y","Ġb o","Ġm ind","Ġc h","Ġwho se","Ġaf ter","Ġp ri","Ġd is","Ġy um","Ġha r","Ġan y","Ġway s","Ġthou ght","Ġyum on","# #","a st","w ard","Ġ âĢ","Ġ qu","Ġw as","Ġwith out","Ġright eous","ig n","g et","Ġ r","Ġo p","Ġs ense","in ess","od y","Ġme ans","Ġne w","c es","i th","m e","Ġmou th","a use","Ġs ol","Ġpl ay","Ġde c","Ġus ed","Ġunder st","Ġw in","al s","Ġme an","Ġfa ith","Ġtru e","Ġbec ause","Ġunderst and","i ce","Ġf rie","ou se","Ġp art","Ġd ea","Ġd if","Ġh ouse","Ġin form","ow n","Ġhum an","Ġkeep s","Ġteach ing","Ġob ject","o y","Ġ \"","Ġp er","Ġe y","Ġdes t","Ġwat er","Ġinform ation","t s","Ġt urn","Ġs l","Ġf al","Ġf ear","Ġd own","Ġg row","Ġl a","Ġh on","Ġcom es","res s","Ġfal se","p o","Ġi nd","Ġs er","Ġb ody","Ġgo es","Ġwor d","ru ction","t he","t en","Ġb ack","Ġg u","Ġg ra","Ġli ps","Ġth ing","Ġlo o","Ġcom m","Ġbu ild","c i","u ch","w e","Ġa r","Ġf l","Ġb re","Ġm uch","Ġbe l","Ġe nd","od u","Ġpl an","Ġget s","a ge","t ing","Ġt rou","Ġm us","es us","Ġg l","Ġta kes","Ġat t","one y","Ġhel ps","Ġpr odu","Ġbet ter","Ġch ild","Ġrighteous ness","Ġdea th","e ed","Ġo wn","Ġb r","is e","ow s","Ġsp ace","rou gh","ren t","Ġfeel ing","Ġsm all","Ġmus ic","g y","n g","Ġp ow","Ġto get","Ġth is","Ġth rough","ent s","ic k","âĢ Ļ","Ġhar d","Ġop en","Ġtoget her","' t","g es","k en","p l","s ide","Ġth ink","pp ort","Ġdes ign","Ġpro g","Ġpro ble","âĢ Ŀ","way s","Ġsin n","Ġdest ruction","o s","Ġt w","Ġf ree","Ġg ame","Ġl ea","ve l","Ġan other","Ġk ing","Ġdes ire","Ġsu pport","Ġv al","Ġsou l","Ġimp ort","a ble","p le","Ġ ra","Ġc ho","Ġd on","ll ed","Ġst art","Ġst rong","ra ct","Ġmo v","Ġhim self","Ġj esus","rou nd","Ġpr ay","do er","Ġdif fe","Ġpow er","Ġimport ant","e m","l es","Ġa c","Ġy et","Ġan g","Ġno thing","Ġal ways","Ġey es","Ġtrou ble",". \"","v i","Â ł","Ġa pp","Ġw om","Ġs im","Ġm oney","er tain","Ġp ur","Ġl ong","an ce","Ġan im","Ġj ud","Ġwh y","Ġsay s","Ġhappen s","Ġsh ould","Ġbo o","ĠâĢ ľ","c ess","p t","Ġ very","Ġs ho","Ġb us","er gy","Ġp ea","Ġc ha","Ġl ar","Ġin st","Ġbe ing","Ġre al","Ġsu n","Ġen ergy","Ġsa fe","Ġres p","Ġlear ning","Ġbel ie","Ġdiffe rent","Ġpur po","Ġpea ce","s o","Ġ eat","he d","Ġthe n","Ġof f","Ġof ten","Ġre ward","Ġst ren","Ġpl eas","Ġse cre","Ġde l","Ġsp e","all y","Ġlear n","Ġpri de","Ġind eed","Ġbus iness","Ġstren g","c ri","f t","Ġs ur","Ġf ind","Ġh igh","Ġfor g","ar k","Ġsome one","Ġte ll","Ġagain st","Ġdec is","Ġsho w","Ġ ver","Ġw rong","Ġs ame","ou n","Ġy es","Ġhe a","Ġu se","Ġyour self","ent ion","Ġmo ve","Ġdes cri","Ġsha r","Ġsha ll","Ġcon s","Ġwat ch","Ġthought s","Ġfrie nd","c y","i ver","i ence","t le","u res","Ġre st","Ġan s","Ġne igh","Ġmo st","Ġex ist","sel ves","Ġmat the","Ġturn ed","Ġatt ention","Ġchild ren","Ġval ue","Ġwom an","Ġneigh b","Ġmatthe w","g ing","Ġp u","Ġp res","Ġh op","Ġre qu","Ġne ver","Ġca re","Ġsha me","Ġwhi le","Ġput s","Ġbl ess","Ġid eas","Ġser v","Ġlar ge","Ġsecre t","Ġstreng th","f f","i v","i z","n ect","w er","Ġ each","Ġ ##","Ġa ction","Ġw ould","in e","Ġf ar","Ġf ight","er ing","Ġp ain","Ġd r","Ġg am","Ġto ng","Ġl ow","an g","Ġha nds","ot ion","Ġfor m","Ġgi ven","um b","ol d","Ġde ce","Ġthem selves","Ġj oy","Ġam ong","Ġsee k","Ġhat er","Ġsupport ing","Ġver ses","Ġhea ven","Ġdescri b","Ġneighb our","Ġ## #","Ġtong ue",". âĢĿ","Ġ 1","Ġto o","Ġh o","Ġpro v","Ġv i","Ġcon nect","Ġsim ple","Ġgam es","a ve","e ver","i x","t ro","t tle","u al","Ġa d","Ġs k","Ġs le","Ġf ir","on s","Ġy ear","Ġn ow","Ġha nd","Ġre l","Ġre p","Ġst r","Ġst ep","Ġse en","Ġfa st","Ġtru th","Ġcreat e","Ġcreat or","Ġsl ow","Ġprodu ct","Ġboo ks","Ġshar p","Ġsle ep","h y","Ġ eas","he s","Ġs y","Ġd one","Ġn umb","Ġe m","Ġli ving","Ġgo al","Ġst ar","it ion","ic es","Ġde ep","Ġwork ing","ul t","Ġun iver","do ers","Ġevery thing","Ġid ea","Ġla w","Ġgu id","Ġbuild ing","Ġplan et","Ġuniver se","i res","i rit","w or","Ġthe se","Ġo ld","Ġm eas","Ġp ast","Ġin side","le x","Ġli ttle","Ġst re","Ġst ory","Ġma king","Ġfa ll","Ġal so","Ġimp ro","Ġbet we","Ġobject s","Ġhon our","Ġproble m","Ġans wer","Ġhop e","Ġserv ant","Ġfir st","Ġbetwe en","f it","l ess","u p","Ġ ent","Ġw ra","Ġs et","in ds","Ġp un","Ġd ist","Ġd ark","Ġg rou","Ġl e","Ġl and","Ġn ight","le ct","Ġst or","Ġpl ant","ic al","Ġca lled","Ġsp irit","Ġsu c","as ed","Ġen j","Ġsou nd","Ġcl o","Ġcl ear","Ġact s","Ġqu ick","Ġper form","Ġloo king","Ġprog ress","Ġang ry","Ġanim als","Ġdece it","Ġwra th","i ble","Ġ >","Ġa ir","Ġs c","Ġf il","Ġm er","Ġm om","Ġg en","Ġn ame","ea k","Ġin cre","Ġbe ha","Ġst ra","Ġev ents","Ġk ind","Ġme m","Ġall ows","Ġta ken","Ġca us","as s","ish ment","Ġheart s","ist en","Ġcon f","Ġun c","Ġover c","Ġwe ll","Ġfu n","Ġbec ome","Ġgl ad","Ġsinn er","Ġtw o","Ġdel ight","Ġdr ink","Ġvi ol","Ġpun ishment","Ġenj oy","a th","a ch","h i","l er","r or","t e","Ġf ru","Ġf ire","Ġm ust","Ġp re","Ġc ar","Ġc ur","Ġc ertain","Ġto ol","Ġst ill","Ġj o","Ġtim es","ation s","Ġtru st","Ġhapp y","Ġfeel ings","Ġwe re","Ġcomp ut","Ġexp l","Ġexp er","Ġtra in","Ġchan ge","Ġchan ges","Ġread ing","Ġdis g","Ġbre ad","Ġbr other","Ġra in","vi our","Ġsy st","Ġgrou p","g ed","l f","l i","m a","n ot","s p","u th","u ally","v ed","Ġa uth","Ġw ar","Ġf ut","Ġb it","Ġm ight","ou gh","Ġd ire","an ge","Ġh ome","Ġn et","Ġin ter","Ġst ay","Ġgi ving","Ġde v","Ġv ide","Ġhat e","Ġtra vel","Ġro b","Ġread y","Ġfrie nds","Ġsinn ers","Ġpurpo se","Ġyear s","Ġstr ange","Ġstep s","Ġmer cy","Ġstra ight","Ġviol ent","Ġfru it","Ġdisg ust","Ġauth or","Ġvide o","a ke","c us","t urn","Ġs il","Ġs ear","Ġm or","or row","om es","Ġin c","Ġin v","ed s","Ġe ver","od e","Ġwho ever","al k","Ġre m","Ġcan not","Ġfa ce","Ġunderstand ing","Ġbre a","Ġprog ra","Ġmov ies","Ġjud ge","Ġresp ect","Ġmeas ure","Ġfut ure","Ġdisgust ing","a ces","b b","c hes","n er","Ġt ea","Ġa round","Ġw rit","in king","Ġb ir","Ġp at","Ġp ract","Ġc ru","Ġto wn","Ġn ear","Ġhe al","at ed","Ġli ve","Ġon es","Ġst o","Ġor g","Ġk inds","Ġse lf","Ġfo cus","Ġpro fit","Ġat om","Ġj ust","Ġfe et","Ġpo ss","Ġtru ly","Ġpr ot","Ġen ough","Ġcomp an","Ġgreat er","Ġqu est","Ġmean ing","Ġcomm un","Ġgl ory","Ġdesign s","Ġproble ms","Ġtw ist","Ġbelie f","Ġdecis ion","Ġbless ing","Ġsuc cess","Ġquick ly","Ġfil m","Ġmem ory","Ġprogra m","a p","a re","b ut","f fe","g g","o o","o ve","x t","Ġ 6","Ġa lex","Ġw a","Ġw ast","Ġs ad","Ġs we","in es","Ġb ro","Ġb ig","Ġm ar","Ġm other","ou nd","Ġc or","Ġc ry","Ġc ode","Ġg ent","Ġto ward","Ġl isten","ll ing","ea st","Ġhe at","Ġhe ar","Ġe ff","Ġe lect","Ġha d","Ġgo ld","it e","Ġwith in","Ġk ings","Ġse x","Ġmo ving","Ġta s","Ġsu re","Ġas k","Ġsha re","Ġpo s","Ġcomp le","Ġru n","Ġbo th","Ġany thing","Ġr ather","Ġsol ve","Ġsur f","Ġforg ive","Ġdecis ions","Ġem otion","Ġmom ent","Ġbeha viour","Ġoverc ome","Ġtrain ing","Ġsyst em","Ġbit ter","Ġauthor ity","Ġsil ver","Ġtwist ed","a b","a c","b it","d en","i er","i red","m b","o od","Ġ er","Ġt ry","he re","Ġs ide","Ġs ign","Ġf ix","Ġb ad","Ġb est","Ġc old","Ġto p","ll s","Ġhe ad","ct s","Ġre c","Ġgo ing","Ġst ore","il y","it ing","Ġmo ves","Ġsp eak","Ġsu b","Ġhum ble","Ġex c","Ġus ers","and s","Ġout side","ie ve","if ic","Ġco ll","Ġcreat ed","Ġbl ows","Ġevery one","Ġplay ed","Ġwin e","Ġcomm on","pl ace","Ġac ce","Ġapp ro","Ġpleas ing","Ġforg i","Ġpres ent","Ġdescrib e","Ġimpro ve","Ġplant s","Ġrob ot","Ġsear ch","Ġpract ice","Ġswe et","Ġer ror","g o","m er","o ice","u ke","Ġt est","Ġa i","Ġi ma","Ġs ci","or s","Ġc ut","Ġd ep","Ġd ang","Ġg r","on tro","Ġl uke","ea se","Ġwi de","at es","Ġfor ce","ar y","Ġre as","ver s","it ies","Ġfo ll","Ġne xt","Ġde eds","Ġpro cess","Ġfa il","Ġwork s","Ġsha p","Ġear ly","Ġsay ings","Ġen v","Ġwe ight","Ġhat ed","Ġexp ect","Ġro ad","Ġru ler","Ġr od","Ġpart s","Ġsl ave","Ġgra ce","ci al","Ġar t","Ġlea d","Ġcho ices","Ġpray er","Ġcha ract","Ġpurpo ses","iz e","Ġaction s","Ġprov ide","Ġad d","Ġeas ier","Ġent ertain","Ġstor ies","Ġgen er","Ġincre ased","Ġatom s","Ġgent le","Ġeff ort","Ġsurf ace","a x","c ur","d ay","f ic","m os","n o","t ness","Ġs at","Ġs al","Ġs orrow","Ġb ur","Ġp en","Ġp ra","Ġp ie","Ġp ass","Ġd et","Ġd ig","Ġg ave","ll en","Ġbe en","Ġhe rit","Ġwi tness","ve red","at er","le an","ow ing","ri c","st er","Ġon ce","Ġre g","Ġdo ing","ver ty","Ġst ate","it al","Ġpl aces","Ġlo ves","Ġlo ss","Ġall ow","Ġta king","Ġsp ort","Ġpro ject","Ġfa ir","Ġv oice","Ġsha red","Ġpo verty","Ġcon t","Ġun t","Ġint e","Ġco vered","Ġsa id","do ing","Ġexp ress","Ġday s","Ġthou gh","Ġte mp","Ġru les","Ġmat ter","Ġdif fic","Ġey e","Ġhon or","Ġgra in","Ġbr ings","Ġstart up","Ġmov ie","Ġcha llen","Ġpleas ure","Ġfight ing","hi p","Ġexper ience","Ġorg an","Ġwa iting","Ġsex ual","Ġcomple te","Ġdang er","Ġentertain ment","Ġherit age","b t","c ut","g s","g in","h n","m ing","p ar","s ing","s ical","u red","v al","w ise","Ġ ri","Ġ round","Ġt ri","Ġt alk","Ġw ind","Ġs ing","Ġs eat","Ġf in","Ġf am","Ġf ill","Ġf oun","Ġb ed","Ġb right","es c","Ġp ay","Ġp hy","Ġc lean","Ġd ra","Ġd id","Ġg ot","Ġg rie","Ġto day","Ġl ess","an ces","is on","th y","ea d","Ġe mp","ke t","al king","Ġre me","Ġre ach","il ity","ro ss","ra id","ru ment","id ing","Ġlo se","Ġlo ver","Ġdes ires","Ġknow ing","Ġfe ed","Ġus ing","ie f","Ġhapp iness","Ġsee ms","Ġunder wor","Ġaf raid","Ġbu il","Ġres ul","Ġsm oo","Ġro om","Ġro ck","Ġsh ort","ĠâĢ ĺ","Ġop in","Ġgrow th","Ġlea ds","Ġang er","Ġinst rument","Ġtell s","oun t","Ġcons id","Ġwatch ing","Ġdescrib es","Ġho bb","Ġfast er","Ġnumb er","Ġstar s","Ġguid ing","Ġperform ance","Ġcaus es","Ġjo hn","Ġcomput er","Ġmor ning","Ġsto red","Ġbro ken","Ġcor re","Ġpos ition","Ġcoll ect","Ġreas on","Ġdig ital","Ġfoun tain","Ġphy sical","Ġreme mb","Ġunderwor ld","Ġsmoo th","b r","b s","b ack","c her","c ific","g er","h ind","i le","i et","i al","i ction","n et","o nd","r on","u ps","v ation","v ity","Ġ ve","Ġa ch","Ġw ea","Ġs ent","Ġs ick","Ġf ie","Ġm ess","Ġm otion","ou d","ou bt","Ġc al","Ġc row","Ġd ri","Ġd ear","Ġg al","Ġl ater","Ġin ner","Ġbe hind","Ġwi fe","Ġli qu","Ġre turn","Ġgo sp","Ġst op","Ġth inking","Ġor bit","Ġma ss","Ġma ster","um ent","Ġse nds","Ġse par","id es","Ġfo ot","Ġlo st","Ġlo ving","Ġmo on","ant ly","us h","Ġca pt","Ġsu gg","Ġfa ct","Ġus ually","Ġcon tain","Ġcon tro","Ġsay ing","Ġlet s","Ġsa ve","Ġbec omes","Ġchan ged","Ġmind ful","Ġpri ce","Ġqu iet","Ġnew s","Ġgra vity","Ġloo k","Ġstart ups","Ġapp ear","Ġjud ging","Ġboo k","Ġresp ons","Ġoff ering","Ġspe cific","Ġshow s","Ġrequ ire","Ġrequ ires","Ġ1 5","Ġsk y","Ġsk ill","Ġnumb ers","Ġstre am","Ġclo thing","Ġconf us","Ġunc ontro","Ġtool s","Ġexpl ain","Ġbrother s","Ġdire ction","Ġpat ience","Ġtas ks","Ġrun ning","Ġfix ed","Ġtop ic","Ġforgi ven","Ġsal vation","Ġpen al","Ġsing le","Ġfeed back","Ġresul ts","Ġconsid er","Ġcorre ct","Ġfie ld","Ġgal ax","Ġliqu id","Ġgosp el","Ġsugg est","a z","a ction","f l","i ous","l s","l se","t ed","t ers","u ght","w ar","w are","he art","Ġw and","Ġs ong","Ġf our","Ġb on","Ġb ra","Ġb ased","Ġm in","Ġm il","Ġm ist","Ġm eat","ou red","nd ing","or n","Ġc ould","Ġd ro","Ġd oubt","Ġl ion","Ġh old","Ġyou ng","Ġe ffe","Ġe lse","ot ions","et ition","Ġli e","Ġli ves","Ġli ft","Ġit self","Ġdo or","Ġth ree","ur t","ir t","Ġse es","Ġse nd","Ġse qu","ic ation","Ġgood ness","ter n","Ġpro p","Ġknow n","Ġso ft","âĢ ľ","ul ar","Ġv is","Ġv ie","Ġpo in","ist s","ck ed","Ġsin s","Ġal one","Ġco nd","Ġco st","Ġco ver","Ġcl os","Ġag ree","Ġhappen ed","Ġsm art","Ġact ing","Ġany one","ĠâĢ Ķ","Ġsol ving","Ġplay ers","Ġwin ning","the n","Ġprodu ce","Ġbr ing","Ġsmall er","Ġking dom","Ġcho o","em n","Ġac ross","Ġanim al","Ġbelie ve","Ġmove ment","Ġrest ing","Ġexist s","Ġpres ence","Ġsecret ly","Ġeas y","Ġem otions","Ġstre et","Ġcomput ers","Ġinv ol","Ġbrea k","Ġcru el","Ġcompan y","Ġquest ions","Ġwast e","Ġsad ness","Ġmar ket","Ġelect ric","Ġsub ject","Ġappro val","Ġima ges","Ġdep e","Ġfoll ow","Ġenv y","Ġfam ily","Ġopin ion","Ġrememb er","Ġach ieve","Ġuncontro lled","war ds","heart ed","Ġbon es","Ġmil k","Ġlift ed","a g","a se","a red","b l","c le","c hed","c cur","e ms","i ed","i ent","m ed","o g","u es","u nd","u ri","Ġ 5","Ġ esc","Ġt reat","Ġa ble","Ġa ud","Ġi ce","Ġo x","Ġo ccur","Ġs w","Ġs om","Ġs ize","re st","re ad","Ġf eat","Ġb reat","Ġb as","Ġb ill","Ġm od","Ġp ush","Ġc e","Ġc he","Ġc red","Ġc ust","Ġc uri","Ġd at","Ġg re","Ġg ain","Ġg round","Ġl ack","Ġl oud","en e","en s","Ġh or","Ġh ig","Ġh oney","is es","is ed","Ġn or","Ġn urt","Ġbe gin","Ġhe re","at ive","Ġfor ms","st ep","et im","Ġre d","Ġre f","Ġst ru","Ġma th","ur ing","ur ning","Ġev ent","Ġpl ans","Ġse ven","Ġde vel","ves t","pp ing","Ġdes p","Ġmy self","Ġsp o","Ġsp eed","Ġsu ch","Ġsu ff","el s","Ġex al","Ġwh om","Ġfe w","Ġus es","Ġun e","ment s","Ġover turn","Ġwise ly","Ġab ove","Ġcomp lex","Ġsou nds","Ġhappen ing","Ġhelp ful","Ġsh ut","Ġmat ters","Ġpri v","Ġhar ds","Ġr hy","Ġdec ide","Ġgu ide","Ġloo se","Ġfl at","Ġbel ong","pl ay","Ġlea ve","Ġmov ed","vi or","Ġinst ead","Ġuse ful","Ġpu ll","Ġrequ est","iv ity","iz ed","Ġheaven ly","Ġconnect s","Ġsleep ing","Ġguid es","Ġdist ance","Ġle vel","Ġle ft","Ġcaus ing","Ġpre p","Ġinter net","Ġinc l","Ġtea cher","Ġwrit ten","Ġposs ible","Ġprot ect","Ġquest ion","Ġprogram ming","Ġhear ing","Ġemotion al","Ġexc han","Ġacce p","Ġsearch ing","Ġgr ant","Ġcharact er","Ġbur den","Ġpra ise","Ġpie ce","Ġdra w","Ġgrie f","Ġbuil t","Ġhobb y","Ġcrow n","Ġrespons ible","Ġpenal ty","Ġwand ering","Ġvie w","Ġcond emn","Ġinvol ves","Ġelectric ity","Ġdepe nds","Ġesc ap","Ġaud ience","Ġcred it","Ġcust om","Ġdat a","Ġdevel op","Ġsuff ering","Ġoverturn ed","1 9","a h","a v","a il","a ir","a kes","b and","b led","d er","f all","h ing","h ic","i b","i ct","l ight","o ck","p here","s er","u ed","v o","v ive","w here","Ġ (","Ġ 2","Ġ 7","Ġt re","Ġt ou","Ġt ree","Ġt ired","Ġa w","Ġi ll","Ġw ear","Ġw eak","Ġw alk","Ġw ound","Ġw alking","Ġs ix","in ous","Ġf at","Ġf east","Ġb ea","Ġb east","Ġm is","Ġm et","Ġm eal","ou nds","nd ed","er m","Ġp ar","Ġp ress","Ġp ath","Ġc ri","Ġd ue","Ġg as","Ġto ld","en ces","Ġh y","Ġh ot","Ġh us","Ġh und","Ġin vest","Ġhe inous","Ġe qu","ut if","le br","ct or","ce ed","et ing","al es","Ġre v","Ġdo g","Ġst one","Ġst ud","Ġth ir","Ġwor ry","ro y","Ġwhe ther","ch n","Ġma ch","op er","um e","Ġpl ease","Ġse ed","id ence","Ġne g","Ġup on","Ġde f","Ġca ll","Ġca lls","Ġdes ired","Ġat mos","Ġso cial","Ġas s","Ġear n","Ġear s","Ġun wise","ous es","our ce","Ġen g","Ġen em","Ġfeel s","Ġco o","Ġco ffe","Ġco oper","Ġcreat es","Ġcomp etition","Ġwant s","Ġsee ks","Ġhat es","Ġhat ing","Ġhat ers","Ġneed s","Ġbl ood","Ġbu y","Ġres ult","Ġact ive","Ġte chn","Ġru le","Ġson s","Ġchan ging","Ġsol ut","Ġsol ar","Ġplay ing","Ġplay er","Ġdea d","Ġdest roy","Ġgrow ing","Ġser ve","Ġar g","Ġfl ow","Ġprodu ces","Ġcho ice","Ġac c","Ġinst ruction","Ġinst antly","Ġsun light","Ġresp on","Ġpeace ful","Ġeat en","Ġspe cial","Ġsur vive","Ġpu bl","Ġho ly","Ġrep res","Ġrep eat","Ġplanet s","wor k","Ġstor m","Ġincre ase","Ġenjoy able","Ġcur se","Ġcur rent","Ġwar m","Ġrem ain","Ġjudge ment","Ġbir th","Ġcru s","Ġposs ess","Ġcompan ion","Ġcommun ication","Ġbelief s","Ġcry ing","Ġsure ly","Ġrobot s","Ġsci ent","Ġsci ence","Ġfail ure","Ġshap e","Ġsat an","Ġreg ular","Ġunt o","Ġdiffic ult","Ġorgan ized","Ġcollect ion","Ġwea ther","Ġcal m","Ġmass ive","Ġfoot step","Ġforgiven ess","Ġbra in","Ġeffe ct","Ġsequ ence","Ġchoo se","Ġsom etim","Ġfeat ures","Ġce lebr","Ġrhy th","Ġescap e","Ġbea utif","Ġhus band","Ġatmos phere","Ġcoffe e","Ġpubl ic","Ġfootstep s","Ġsometim es","Ġbeautif ul",", âĢĻ","' d","b y","c rit","c ise","c ument","d ing","d le","d den","e w","e y","e mp","f u","g ard","i ah","j esus","l ers","n ings","n tain","p is","p able","r ist","r ons","s en","s mos","s hip","t a","u gh","u als","u age","y ond","Ġt y","Ġt in","Ġt urning","he st","Ġw o","Ġw all","Ġw ood","Ġw ounds","Ġs ea","Ġs it","Ġs now","Ġs ist","Ġs ource","in ed","Ġf ound","Ġf iction","Ġb urn","Ġb ang","Ġm on","Ġm ot","Ġm ark","Ġm ult","er at","Ġc ount","Ġd am","Ġd ust","Ġd uring","Ġg one","Ġl ay","Ġl ot","Ġl ast","Ġl ang","ll y","Ġh ol","is ion","is hed","Ġn am","om ach","Ġbe yond","Ġhe ll","se cut","Ġe pis","ho ld","Ġha ving","ot ed","Ġwho le","Ġare a","ct im","ce pt","Ġre ven","Ġdo cument","ver bs","Ġgo als","Ġst omach","il ar","il ty","Ġan ge","Ġwor th","Ġwor ship","Ġor der","Ġse c","Ġlo c","Ġlo sing","Ġca me","Ġca pable","Ġgood s","Ġsp ea","Ġpro verbs","Ġsu dden","res ses","Ġknow s","Ġex t","Ġex am","âĢ Ķ","Ġj ew","Ġwork er","ul ty","Ġv irt","Ġcon c","Ġun p","Ġget ting","ren ce","Ġab ility","Ġam az","Ġco smos","Ġcomp ar","Ġunder go","Ġbl ock","Ġtra ck","Ġres po","Ġgreat est","Ġact ually","Ġru lers","un ch","ud ing","Ġmou ntain","Ġch rist","Ġdis play","Ġany where","Ġsol id","Ġper f","Ġper fe","Ġdown fall","Ġla ugh","po crit","Ġind iv","Ġser ious","Ġgu ilty","Ġloo ks","Ġcomm it","ci ous","Ġfl ight","Ġatt emp","Ġsmall est","os ity","Ġlea ves","Ġcho sen","Ġwom en","Ġsim ilar","Ġreward ed","Ġdel iver","Ġspe nd","Ġfind ing","Ġwrong doing","Ġshar ing","Ġcons ist","Ġdr inking","Ġho le","Ġprov ides","Ġvi ctim","Ġconnect ion","Ġslow ly","Ġproduct s","Ġfall ing","Ġsuc ceed","Ġclo se","Ġsc ore","Ġsc ales","Ġmom ents","Ġconf li","hi ps","Ġcar ry","Ġcertain ly","Ġexper i","li ke","Ġdire ct","Ġinter action","Ġdev ice","Ġdev ices","Ġtravel s","Ġmor nings","Ġbrea thing","Ġbir ds","Ġheal th","Ġprot est","Ġcommun ity","Ġtas k","ab les","Ġcharact ers","no thing","Ġdet erm","Ġproject s","Ġcont in","Ġinte rest","Ġtemp t","Ġtemp erat","Ġdiffic ulty","Ġchallen ge","Ġemp ty","Ġve hic","Ġorbit s","Ġgalax ies","Ġsuggest ions","Ġmist akes","Ġdro pping","Ġpoin t","Ġagree ment","Ġsubject s","Ġbreat he","Ġbill ions","Ġhig her","Ġpriv ate","Ġexchan ge","Ġtre as","Ġaw ake","Ġhy pocrit","Ġenem ies","Ġcoo king","Ġrespon se","Ġrhyth m","Ġtin y","Ġsist ers","Ġmot iv","Ġlang uage","Ġnam ed","Ġange ls","Ġrespo nd","Ġindiv id","Ġconfli ct","* *",". .",". âĢĻ","1 0","a pp","a cy","b ody","c ing","e ch","e red","f ort","f ting","i p","k er","k ers","m o","m orrow","o red","p r","p re","p art","p ect","r ing","r ot","t ong","u ence","u cle","v ant","w hat","w ers","y ou","y al","Ġ ea","Ġ ves","Ġt ill","Ġt alking","Ġa st","Ġa vo","Ġa part","he ts","Ġi m","Ġo il","Ġo pp","Ġo ath","Ġs um","Ġs eas","re r","Ġf it","Ġf ra","Ġf ate","Ġb ene","Ġm ent","Ġm id","Ġm ix","ou ds","es ter","er n","er ty","er cise","Ġp a","Ġc ol","Ġc our","Ġd ir","Ġd ru","Ġd ies","Ġd ry","Ġto wards","Ġto morrow","on t","on ment","Ġl in","Ġh ouses","is ter","th s","Ġn on","Ġn at","Ġn ar","Ġn one","Ġn ucle","om on","Ġin fl","at he","at ing","Ġe le","Ġe ight","Ġe tern","Ġfor get","ar s","od es","Ġu r","ri es","ce ive","st ain","st ac","Ġre ally","Ġdo ctor","Ġyour s","ver se","Ġnot e","Ġst ri","Ġst and","Ġst age","Ġst ands","Ġth orn","ent ly","Ġwor thy","it er","ra p","ir onment","Ġev idence","ru d","Ġgi ft","Ġk n","Ġse ll","Ġfr ont","ic ate","Ġlo yal","Ġme l","Ġme eting","Ġne ck","Ġne cess","Ġde m","Ġno se","Ġno ise","Ġta ble","Ġta ught","Ġcom ing","Ġcom fort","Ġca red","Ġwis h","Ġwis hes","Ġsp ot","Ġpro ven","Ġsu stain","Ġfa cts","el f","Ġex cept","Ġex ercise","Ġj up","as hed","ind ed","Ġas ks","Ġke y","Ġear li","Ġkeep ing","Ġcon st","ort s","Ġun w","Ġout c","ction s","Ġover t","Ġover fl","our ces","Ġpr ison","ig ning","Ġcomp ass","Ġsa viour","Ġsee m","ate ful","Ġaf fe","Ġbl ack","Ġtra ps","Ġcl ouds","Ġres ources","Ġeven ing","Ġob stac","Ġchan ce","Ġid le","Ġch ur","Ġdis c","Ġdis ci","Ġdis ease","Ġdis app","Ġhar m","Ġr ot","Ġsol omon","Ġwin s","Ġwin ds","Ġfaith ful","Ġgrow s","Ġla unch","Ġhon est","Ġhon oured","Ġgra ss","Ġcomm and","Ġcomm ands","Ġfl o","Ġfl owing","Ġbre ast","Ġatt ract","Ġthrough out","pl ine","Ġdesign ed","pt ion","Ġsecre ts","Ġspe ech","Ġlearn ed","Ġstreng then","Ġcons isten","Ġans wers","Ġpu lls","Ġpres er","Ġhop es","Ġbless ed","Ġbless ings","iv ed","Ġheaven s","Ġconnect ed","Ġconnect ions","Ġrel ations","Ġrel ieve","Ġrel ief","Ġrep ent","Ġlaw s","Ġold er","Ġold est","Ġdark ness","Ġfil ms","Ġbeha vior","Ġcar ries","Ġjo b","Ġtrain ed","Ġsyst ems","Ġinc ur","Ġrem ove","Ġtea ms","Ġwrit ing","Ġbir d","Ġsto res","Ġorg ans","Ġself less","Ġcommun ities","Ġpos it","ac hed","Ġsign al","Ġrec ord","Ġsub st","Ġacce pt","Ġerror s","Ġtest ing","Ġgr ateful","Ġenv ironment","Ġexpect ed","Ġgener ation","Ġpra ised","Ġpie ces","Ġdet ail","Ġreg ion","Ġunt il","Ġhonor able","Ġcomplete ly","Ġdanger ous","Ġtri als","Ġfin ish","Ġfill ed","Ġbright er","Ġpay ment","ron ic","Ġve get","Ġmess age","Ġsepar ate","Ġconfus ed","Ġconfus ion","Ġtopic s","Ġfield s","Ġgalax y","Ġsong s","Ġmin ut","Ġprop hets","Ġprop erty","Ġsoft ware","Ġstreet s","Ġmilk y","og rap","Ġoccur s","Ġcuri osity","Ġgre en","Ġhor ror","Ġnor th","Ġnurt ure","Ġbegin ning","Ġstru ct","Ġspo ke","Ġhards hips","Ġincl uding","Ġaccep ting","Ġburden s","Ġdraw ing","Ġcustom ers","Ġdevelop ment","Ġtou ch","Ġwear iness","Ġsix ty","Ġstud y","Ġneg ative","Ġcooper ation","Ġtechn ol","Ġarg ument","Ġinstruction s","Ġrepres ent","Ġcurrent ly","Ġcrus hed","Ġscient ists","Ġcelebr ate","fu lly","Ġdam age","Ġhol ds","Ġepis odes","Ġexam ple","Ġjew els","Ġvirt ue","Ġamaz ing","Ġcompar ison","Ġperf ume","Ġexperi ences","Ġdeterm ines","Ġtemperat ure","Ġvehic le","Ġtreas ures","Ġhypocrit es","tong ued","Ġves sel","Ġsum mer","Ġbene fit","Ġment al","Ġmid dle","Ġmix ed","Ġnucle us","Ġinfl uence","Ġetern al","Ġjup iter","Ġconsisten cy",", âĢĿ","' re","' ve","1 1","1 8","2 0","2 1","2 2","2 5","3 7","4 4","4 5","? âĢĻ","a ct","a id","a res","a ging","b e","b les","b less","c ed","c ontro","d ow","e k","e or","e th","f ire","f iction","f air","g i","g en","g ir","g est","g ory","i able","k ind","l ear","l oo","m y","m es","m an","m mer","m inded","n am","n ake","o c","o f","o ver","o id","o res","o nds","o gy","p er","p ut","r ge","r ant","r ans","s ed","s ion","s ure","t ru","t ched","u el","u de","u ine","v or","v ent","v ances","w he","y cle","y gen","z z","Ġt ester","Ġt rans","Ġa ut","Ġa ge","he ad","Ġs ight","Ġs and","Ġs cre","Ġs orts","in ing","in et","in ite","re ly","re am","re ds","re gard","Ġf ou","Ġf ing","Ġf ly","Ġf ol","Ġf art","Ġf ant","Ġf ish","Ġf urn","Ġf old","Ġb ear","Ġb and","Ġb orn","Ġb ag","Ġm ill","Ġm inds","ou ra","es h","er t","er ings","er ate","or it","or ies","Ġp it","Ġp op","Ġp rou","Ġp as","Ġp ity","Ġp ack","Ġp ill","Ġp ick","Ġp oured","Ġp ict","Ġc ent","Ġc ate","Ġc up","Ġc oura","Ġd a","Ġd eal","Ġd iv","Ġd irt","Ġd ream","Ġto wer","Ġto ler","on el","Ġl ate","Ġl em","Ġl ists","Ġl onel","an e","Ġh ur","Ġh our","om ing","Ġin s","ed u","ed y","Ġhe ed","Ġwi cked","Ġha un","Ġha ng","Ġha mmer","ct ors","ce ived","st e","al ity","Ġre j","Ġre wards","Ġre ceive","Ġre ached","Ġwhat ever","Ġdo ors","ver n","Ġgo ings","Ġgo vern","Ġst u","Ġst eal","il es","Ġth reat","Ġth ief","Ġan ts","ent y","ent ial","Ġwor n","ro om","it her","it ure","Ġma g","Ġma in","Ġma ker","ur al","Ġk is","Ġk ill","Ġse lling","Ġfo re","Ġfo res","Ġlo ved","Ġme ant","Ġne ut","Ġpeop les","Ġup hold","us ion","Ġcom edy","Ġevil s","Ġca res","Ġca mer","Ġdes igning","ad ise","ter m","ter y","Ġsp read","Ġhum bled","Ġlike wise","Ġwork ers","Ġwork place","Ġas king","Ġke pt","Ġv ar","Ġv ast","Ġpo ems","ord er","est s","Ġun it","Ġun like","qu al","qu ick","Ġout put","Ġright ly","ren ts","Ġlet ting","Ġfood s","Ġsin ce","if y","if ied","Ġal ong","Ġal read","Ġfather s","Ġco als","Ġco vers","Ġcreat ing","Ġcreat ures","Ġcreat ivity","Ġwat ers","Ġwat ches","Ġsa f","Ġsa w","Ġsa ke","Ġsa ved","Ġsa bb","Ġsa vior","Ġsee ing","Ġneed y","Ġunder ta","Ġexp ense","Ġexp resses","ack s","Ġbl ame","Ġtra p","Ġtra ding","Ġtra verse","Ġcl ot","Ġperson s","Ġperson al","Ġsm o","Ġact ivity","Ġte nd","Ġte le","Ġte nds","Ġte eth","Ġhelp ing","Ġhelp less","Ġru led","rie nd","Ġteach ings","Ġob ey","Ġmat er","Ġmat ches","Ġworld s","Ġshe l","Ġch ief","Ġdis regard","Ġdis order","Ġany body","Ġwas hed","Ġwas hing","Ġr ises","Ġdec l","Ġdec iding","Ġpart ic","Ġper secut","Ġla b","Ġla z","Ġhon ored","Ġser ies","Ġar row","Ġar ms","Ġfl esh","Ġend ure","Ġend less","Ġplan ning","Ġtrou bled","Ġatt acks","Ġopen ing","Ġdesign er","Ġdesign ers","os ion","Ġfree ly","Ġval id","Ġsoul s","Ġstart ed","Ġdiffe rence","Ġapp ly","Ġlong er","Ġjud ges","Ġcha rge","Ġlar gest","Ġreal ity","Ġsafe ly","Ġbelie vers","Ġeat ing","Ġspe nding","Ġbusiness es","Ġsur vi","Ġwrong s","Ġwrong ly","Ġcons cious","Ġpu lling","Ġpu zz","Ġcare ful","Ġcare fully","Ġbless es","Ġserv ice","iz ing","Ġjoy s",".âĢĿ \"",".âĢĿ âĢĿ","Ġ1 0","Ġ1 6","Ġdeep er","Ġdeep est","Ġguid ance","wor thy","Ġmeas ures","Ġfall s","Ġimpro ves","Ġservant s","Ġent ers","Ġdist ances","Ġle gs","Ġclo th","Ġperform ed","Ġgen re","Ġgen uine","Ġmem ories","Ġunc han","Ġunc lear","Ġoverc omes","Ġdelight s","Ġenjoy ment","Ġcur sed","Ġexpl osion","Ġnet s","Ġnet work","Ġinter pre","Ġrob e","Ġfruit s","Ġinv ent","Ġtea m","Ġpat tern","Ġpat ient","Ġheal thy","Ġones elf","Ġfocus ing","Ġwast ed","Ġbig ger","Ġmar s","Ġlisten ing","Ġelect rons","Ġelect ronic","ab ly","ab ility","ac ed","Ġtry ing","Ġsign s","Ġrec over","Ġappro ach","Ġforgi ving","Ġima g","Ġshap es","Ġweight s","Ġexpect ations","Ġroad s","Ġlead ers","Ġadd ing","Ġgener ous","Ġsat urn","Ġbur ning","Ġpass ion","Ġinte nded","Ġchallen ges","Ġchallen ging","cut ting","Ġri ch","Ġri ches","Ġbuil ds","Ġinstrument s","Ġhobb ies","Ġsent ence","Ġdri ving","Ġstop s","Ġcapt ures","Ġcontain s","Ġcontain er","Ġcontro l","Ġcontro lled","Ġsuggest ion","Ġvis ual","Ġpoin ts","Ġcost s","Ġclos er","Ġmarket place","Ġox ygen","Ġsw ord","Ġche cked","Ġcuri ous","Ġgain ing","Ġnurt ures","Ġref lect","Ġdesp ite","Ġexal ted","Ġune qual","Ġhards hip","Ġprep ared","Ġprotect s","Ġaccep ts","Ġdraw ings","Ġcondemn ed","Ġcustom er","ib ly","Ġmet eor","Ġpar adise","Ġhund red","Ġhund reds","Ġinvest ment","Ġequ ally","Ġmach ine","Ġmach ines","Ġdef ile","Ġactive ly","Ġsolut ion","Ġsolut ions","Ġdead l","Ġacc ount","Ġrepeat ed","Ġwarm th","Ġpossess ions","Ġregular ly","Ġty rant","Ġmon th","Ġmult i","Ġreven ue","Ġloc ated","Ġspea ks","Ġext re","Ġblock s","Ġdisplay s","Ġperfe ction","Ġlaugh ing","Ġcommit ment","Ġconsist ent","Ġtempt ations","Ġmotiv ation","Ġindivid ual","Ġea g","Ġavo iding","Ġoath s","Ġseas on","Ġpa rents","Ġcour se","Ġlin en","Ġnat ural","Ġnar row","Ġforget ful","Ġthorn s","Ġkn i","Ġmel ody","Ġnecess ary","Ġkey s","Ġovert ake","Ġoverfl owing","Ġcompass ion","Ġchur ch","Ġdisci pline","Ġrot ates","Ġpreser ves","Ġrelations hip","Ġrecord ed","Ġdetail ed","ograp hy","Ġtechnol ogy","bless ed","contro l","tru ly","Ġfou nder","Ġfing ers","Ġfant as","Ġfurn iture","Ġprou d","Ġpas ses","Ġcent er","Ġcate gory","Ġcoura ge","Ġlem uel","Ġlonel iness","Ġhang ing","Ġfores ight","Ġcamer a","Ġalread y","Ġsabb ath","' m",") ,","1 4","1 5","1 7","2 8","3 1","3 3","3 6","a k","a w","a le","a ves","a go","a ware","b u","b ear","b ur","b ly","b el","c ho","c ue","c les","c hest","d es","d ir","d one","f ive","f ts","f action","f inite","g n","g or","g an","g ea","g ic","g ive","g ues","g ths","h or","h ouses","i ar","i od","i ke","i um","i ans","i qu","i pping","i ography","j ured","k now","l t","l ing","l ord","l ove","l med","l aw","m in","m al","m it","m ight","m ark","n ication","n ago","o ic","o very","o ff","o ved","p e","p h","p ed","p ot","r om","r ay","r ang","r ary","s h","s al","s aid","t hat","t op","t ic","t ies","t un","t urning","u ce","u ous","u able","v a","v y","v ision","y le","y ric","Ġ 8","Ġ z","Ġ est","Ġ rit","Ġ east","Ġ **","Ġ ..","Ġt ent","Ġt el","Ġt ight","Ġt ort","Ġa im","Ġa ck","Ġa ster","Ġa ware","Ġa head","he nd","Ġi ron","Ġi gn","Ġw ent","Ġw ings","Ġw est","Ġw rot","Ġthe ater","Ġo ven","Ġs ens","Ġs nake","Ġs edu","in t","in ks","re l","re ci","re hend","Ġf re","Ġf ea","Ġf le","Ġf ri","Ġf right","Ġf el","Ġf ig","Ġf ires","Ġb en","Ġb ow","Ġb ent","Ġb all","Ġb eat","Ġb ible","Ġb ands","Ġm ed","Ġm ut","Ġm ine","ha nd","ha ps","ing ed","nd ar","or ds","or ify","Ġp ho","Ġp ot","Ġp et","Ġp ace","Ġp ure","Ġp ag","Ġp rud","Ġp sal","Ġc at","Ġc ord","Ġc ore","Ġc ity","Ġc oun","Ġc ult","Ġc ross","Ġc ush","Ġc ycle","Ġd i","Ġd ed","Ġd we","Ġd ance","Ġd umb","Ġd ens","Ġd av","Ġg ather","Ġg athe","Ġg rud","Ġl en","Ġl am","Ġl un","Ġl ines","Ġl yric","an o","an us","an ket","en us","en ses","ll er","ll ig","Ġh ide","Ġh un","Ġh omes","is ure","is ible","is faction","th is","Ġn ea","Ġn ay","Ġn ep","Ġn ice","Ġn av","om in","om at","ea th","Ġin se","Ġin sp","Ġin no","Ġin finite","Ġin jured","Ġbe es","Ġbe get","Ġbe gan","Ġhe ro","Ġhe ld","Ġhe ard","Ġhe als","Ġwi ld","Ġwi res","Ġwi dow","ve re","at s","at ial","se ttle","Ġe ld","Ġe nds","Ġe gg","Ġe ither","Ġe cho","Ġha ir","Ġha lf","Ġha bit","le work","le ndar","ot ten","Ġfor ward","Ġfor cing","Ġfor nication","ar ing","od le","ri ed","ri ve","ri but","Ġwho so","ct ive","Ġwill ing","st s","et y","Ġli es","Ġli kes","Ġli ved","Ġli br","Ġli fting","im ate","im ens","Ġre pl","Ġre tro","Ġre act","Ġre turning","Ġdo ings","Ġdo ctors","Ġyour selves","Ġnot es","Ġst ic","Ġst ead","Ġst yle","il ities","il iar","Ġhis t","Ġth ie","Ġth ous","Ġth ick","Ġman if","Ġman kind","ear ch","ro oted","it ed","Ġwhe el","Ġor nam","Ġor chest","ra ctions","ir ing","ir med","Ġev ol","ru st","Ġgi ant","Ġgi fts","um ed","um ents","Ġk inet","ol s","Ġpl ough","Ġpl enty","Ġse ction","Ġse eds","id ed","id st","ic s","ic ed","ic ally","ic ates","ic ient","right eous","Ġme re","Ġme et","Ġmo th","Ġmo od","Ġup rooted","Ġde w","Ġno on","Ġno ble","Ġno vel","Ġta ste","Ġcom b","pp ed","Ġca lling","Ġca lendar","Ġdes iring","Ġgood by","ad e","Ġwis er","am ity","Ġway ward","Ġsp ared","Ġsp ring","Ġsp atial","now ledge","Ġpro s","Ġsu per","Ġat tain","Ġfa vor","Ġhum bly","Ġex te","âĢ ĺ","Ġj az","as h","ul ner","ul tery","Ġas so","Ġv ill","Ġv ine","Ġv enus","Ġv ulner","Ġsha king","Ġsha des","Ġear ning","Ġheart b","Ġpo ison","Ġpo odle","Ġcon vers","Ġun less","Ġun fair","Ġun sure","Ġun know","Ġun righteous","Ġout bur","Ġout law","eas es","eas ing","Ġtru mp","Ġover loo","Ġover whe","Ġthere by","Ġdoes n","Ġpr in","Ġfoolish ly","Ġthan k","Ġthan ks","ness es","Ġam ount","Ġam idst","Ġput ting","Ġal mo","Ġal gor","Ġal ike","Ġal might","Ġco ol","Ġcreat ion","Ġcreat ure","Ġcomp et","Ġcomp os","Ġcomp rehend","Ġwant ed","Ġsa ves","Ġour s","ate gy","Ġneed ed","Ġneed lework","Ġwhere ver","Ġexp and","ust ry","Ġsou th","Ġbl ind","Ġbl anket","Ġtra d","Ġtra um","Ġtra de","Ġcl ea","Ġcl ass","Ġcl ashed","Ġearth ly","Ġbef riend","ive ly","Ġbu gs","Ġres cue","Ġres earch","Ġsm ile","Ġact ors","Ġfull y","Ġte xt","Ġro e","Ġro ot","Ġro am","Ġru b","Ġru in","Ġru st","Ġsh if","Ġsh ine","Ġsh ining","Ġob ser","Ġmat ch","Ġlight s","Ġlight ly","Ġlight ning","Ġread ers","un ished","Ġid ent","ud es","Ġbo nd","Ġbo ard","Ġpri vi","Ġpri orit","Ġhar sh","Ġqu ality","Ġr ate","Ġr ise","Ġr ates","Ġsol ves","Ġdec ay","Ġpart ed","own er","Ġ\" âĢľ","Ġper se","Ġper ceived","Ġper iod","Ġper haps","Ġturn s","Ġsl aves","Ġsl ipping","Ġgrow n","ress ion","Ġfalse ly","Ġind icates","Ġind ustry","Ġser ving","Ġgu it","Ġgu ard","Ġgu ests","Ġgra d","we red","Ġar ts","Ġar ise","Ġar cher","Ġar med","Ġar my","Ġfl ows","Ġfl av","Ġbre ath","Ġend ed","Ġplan k","Ġtrou bles","Ġgl ass","Ġgl orify","Ġown ers","Ġmusic al","Ġmusic ians","Ġpow ers","Ġhard est","Ġopen ly","pl ate","pl easing","os ing","os ers","Ġfree z","Ġval ues","Ġval uable","Ġra ises","Ġra ised","Ġra rely","Ġcho osing","Ġstrong er","Ġpray ers","Ġac id","Ġac cur","Ġang le","vi ous","Ġapp reci","Ġsim pl","Ġanim ation","Ġjud ged","pt ure","Ġcha ir","Ġlar ger","Ġbelie ves","Ġbelie ving","Ġpurpo sing","Ġpeace ma","Ġoff erings","Ġpleas es","Ġpleas ed","Ġdel icate","Ġspe ck","Ġsur pr","Ġhigh way","Ġforg otten","Ġtell ing","Ġshow ing","Ġver s","oun ts","Ġhea vy","Ġdescri ption","Ġcons umed","Ġfriend ly","Ġans wered","Ġexist ed","Ġexist ence","Ġpu lled","Ġserv ices","Ġpain s","Ġpain ful","Ġlow er","Ġform ing","Ġform ed","Ġdece ption","Ġdescrib ed","Ġ1 2","Ġ1 4","Ġ1 8","Ġ1 9","Ġtoo k","Ġho st","Ġprov iding","Ġprov oc","Ġprov ided","Ġad vers","Ġad vances","Ġad ultery","Ġsk in","Ġsk ies","Ġfir m","Ġhand le","Ġrel ax","Ġrel iable","Ġrep ly","Ġrep ents","Ġrep etition","Ġstr inged","Ġstr ategy","Ġproduct ive","Ġsleep y","Ġeas ily","Ġsy mb","Ġsy nago","ition al","Ġguid ed","Ġmeas ured","Ġstre tched","Ġstory te","Ġimpro ving","Ġimpro ved","Ġent ire","Ġdist ract","Ġdist ractions","Ġdist rust","Ġgrou ps","Ġle isure","Ġland mark","Ġstor ing","Ġplant ing","Ġsound ing","Ġclo ck","Ġclear ly","Ġperform er","Ġsc ene","Ġsc ale","Ġmer cur","Ġkind ness","Ġcaus ed","Ġconf idence","Ġconf irmed","Ġunc ertain","ath y","ler ation","Ġpre vent","Ġcar ds","Ġcar rot","Ġcertain ty","Ġjo ke","Ġtrust ing","Ġtrust worthy","Ġexpl an","Ġexpl ores","Ġexper t","Ġrain s","li fe","sp ect","Ġwar s","Ġdire cts","Ġhome owner","Ġstay s","Ġstay ing","Ġdev otion","Ġdev oted","Ġauthor ities","Ġsear ched","Ġinv isible","Ġbrea king","Ġwrit e","Ġwrit es","Ġheal ed","Ġjust ified","Ġposs ibly","Ġprot ons","Ġmeaning ful","Ġsuccess ful","ap or","Ġwa ves","Ġwast ing","Ġbro ke","Ġmar ke","Ġlisten s","Ġheat ing","Ġeff icient","ite ment","Ġcomple ting","Ġsurf aces","Ġmoment um","Ġsign als","Ġfix ing","Ġrec og","Ġrec ords","Ġexc l","Ġexc itement","ific ation","Ġacce leration","Ġimprove ment","Ġimprove ments","Ġtest s","Ġtest ed","Ġreas ons","Ġfoll ows","Ġprocess ing","Ġshap ed","Ġweight y","Ġgener ally","Ġgener ations","no va","Ġsat isfaction","Ġsal t","Ġpass ing","Ġpass age","Ġsport s","Ġcont ent","Ġcont rary","Ġcont ribut","Ġinte llig","Ġorgan ic","Ġri ver","Ġtri al","Ġwind ow","Ġseat ed","Ġfin al","Ġfin ished","Ġfam iliar","esc op","Ġpay ing","Ġclean ing","Ġdra ma","Ġdid n","Ġless on","Ġemp athe","Ġemp athy","Ġroom s","Ġrock y","Ġopin ions","Ġcollect ed","Ġfountain s","ron om","Ġwea ken","Ġmess iah","Ġcal amity","Ġdri ve","Ġstop ped","Ġmass a","Ġsepar ation","Ġsepar ated","Ġcapt ured","Ġfact ual","Ġlook ed","Ġrespons ib","Ġskill s","Ġstream s","Ġexplain s","Ġpenal ties","Ġliquid s","Ġmin ister","Ġmist ake","Ġeffe cts","Ġdoor ways","Ġvis ion","Ġcover ing","Ġclos ed","Ġsmart er","Ġchoo ses","Ġachieve ment","Ġtreat ing","Ġsw im","Ġbreat her","Ġbas in","Ġbas es","Ġbas ic","Ġbill ion","Ġmod el","Ġmod ern","Ġmod erate","Ġgre y","Ġhor se","Ġhig hest","Ġnor mal","Ġred uce","Ġstru gg","Ġdesp ise","Ġdesp air","Ġspo ken","Ġexal t","Ġexal ts","Ġune x","Ġune nding","Ġpriv acy","Ġbelong s","Ġbelong ed","Ġrequest s","Ġprep are","Ġprotect ion","Ġexchan ged","Ġcredit or","ser vant","Ġ2 2","Ġill ness","Ġwalk ed","Ġwound ed","Ġfeast ing","Ġbeast s","Ġmis sing","Ġmis sion","Ġpar ables","Ġpress ure","Ġcri es","Ġcri min","Ġequ al","Ġrev eal","Ġthir d","Ġthir ty","Ġneg lect","Ġass ure","Ġeng age","Ġeng ine","Ġcooper ate","Ġtechn iqu","Ġarg uments","Ġflow ers","Ġrepres ents","Ġrepeat ing","Ġcrus hing","Ġscient ist","gard en","Ġwo e","Ġwo nder","Ġsit ting","Ġburn s","Ġcount less","Ġlay er","Ġhell o","Ġreven ge","Ġdocument ation","Ġdocument ary","Ġsec ond","Ġsec onds","Ġspea king","Ġsudden ly","Ġext ra","Ġunp unished","Ġundergo es","Ġblock ing","Ġtrack s","Ġperfe ct","Ġattemp t","Ġattemp ting","Ġdeliver s","Ġvictim s","Ġclose ly","Ġcontin uous","Ġinterest ed","Ġmotiv ated","Ġindivid uals","Ġast ronom","Ġopp osers","Ġfra me","Ġcol or","Ġdir ty","Ġdru gs","Ġele ment","Ġele ments","Ġur g","Ġur anus","Ġstri kes","Ġstand ing","Ġdem and","Ġdem ons","Ġearli er","Ġearli est","Ġunw ashed","Ġoutc ome","Ġoutc omes","Ġprison er","Ġaffe ct","Ġobstac le","Ġobstac les","Ġdisc overy","Ġdisapp ear","Ġharm ful","Ġlaunch ing","Ġcommand ment","Ġflo or","Ġflo ating","Ġbreast plate","Ġattract ive","Ġposit ive","Ġposit ions","Ġsubst ance","Ġsubst ances","Ġfinish ing","Ġveget able","Ġveget ables","Ġminut e","Ġminut es","Ġstruct ure","gi ving","gir ls","Ġaut omat","Ġscre en","Ġfol k","Ġfart her","Ġfold ing","Ġmill ions","Ġpit ch","Ġpack ed","Ġpill ars","Ġpict ure","Ġdeal ings","Ġdream s","Ġhour s","Ġins ult","Ġrej oic","Ġgovern ment","Ġstu ff","Ġmag net","Ġfore ver","Ġneut rons","Ġsaf ety","Ġunderta king","Ġclot hed","Ġsmo ke","Ġtele vision","Ġmater ial","Ġshel ter","Ġdisregard ing","Ġpartic ip","Ġpersecut e","Ġlab or","Ġlaz y","Ġapply ing","Ġconscious ness","Ġpuzz les","Ġinterpre t","Ġinvent ed","Ġpattern s","Ġimag ine","Ġreflect s","Ġdeadl ines","Ġtyrant s","Ġmulti ple","Ġextre mes","Ġeag le","Ġkni fe","Ġcompassion ate","Ġfantas ies","gea ble","rang ed","tun e","Ġrit uals","Ġ.. .","Ġtel escop","Ġtort ure","Ġack nowledge","Ġaster oid","Ġign or","Ġwrot e","Ġsens ation","Ġfri ction"]}}