{"version":"1.0","truncation":null,"padding":null,"added_tokens":[{"id":0,"content":"<PAD>","single_word":false,"lstrip":false,"rstrip":false,"normalized":false,"special":true},{"id":1,"content":"<BOS>","single_word":false,"lstrip":false,"rstrip":false,"normalized":false,"special":true},{"id":2,"content":"<EOS>","single_word":false,"lstrip":false,"rstrip":false,"normalized":false,"special":true},{"id":3,"content":"<UNK>","single_word":false,"lstrip":false,"rstrip":false,"normalized":false,"special":true},{"id":4,"content":"{","single_word":false,"lstrip":false,"rstrip":false,"normalized":false,"special":true},{"id":5,"content":"}","single_word":false,"lstrip":false,"rstrip":false,"normalized":false,"special":true},{"id":6,"content":"[","single_word":false,"lstrip":false,"rstrip":false,"normalized":false,"special":true},{"id":7,"content":"]","single_word":false,"lstrip":false,"rstrip":false,"normalized":false,"special":true},{"id":8,"content":":","single_word":false,"lstrip":false,"rstrip":false,"normalized":false,"special":true},{"id":9,"content":",","single_word":false,"lstrip":false,"rstrip":false,"normalized":false,"special":true},{"id":10,"content":"\"","single_word":false,"lstrip":false,"rstrip":false,"normalized":false,"special":true},{"id":11,"content":"\n","single_word":false,"lstrip":false,"rstrip":false,"normalized":false,"special":true}],"normalizer":{"type":"Sequence","normalizers":[{"type":"NFC"},{"type":"Lowercase"}]},"pre_tokenizer":{"type":"ByteLevel","add_prefix_space":true,"trim_offsets":true,"use_regex":true},"post_processor":{"type":"TemplateProcessing","single":[{"SpecialToken":{"id":"<BOS>","type_id":0}},{"Sequence":{"id":"A","type_id":0}},{"SpecialToken":{"id":"<EOS>","type_id":0}}],"pair":[{"SpecialToken":{"id":"<BOS>","type_id":0}},{"Sequence":{"id":"A","type_id":0}},{"SpecialToken":{"id":"<EOS>","type_id":0}},{"Sequence":{"id":"B","type_id":1}},{"SpecialToken":{"id":"<EOS>","type_id":1}}],"special_tokens":{"<BOS>":{"id":"<BOS>","ids":[1],"tokens":["<BOS>"]},"<EOS>":{"id":"<EOS>","ids":[2],"tokens":["<EOS>"]}}},"decoder":{"type":"ByteLevel","add_prefix_space":true,"trim_offsets":true,"use_regex":true},"model":{"type":"BPE","dropout":null,"unk_token":null,"continuing_subword_prefix":null,"end_of_word_suffix":null,"fuse_unk":false,"byte_fallback":false,"ignore_merges":false,"vocab":{"<PAD>":0,"<BOS>":1,"<EOS>":2,"<UNK>":3,"{":4,"}":5,"[":6,"]":7,":":8,",":9,"\"":10,"\n":11,"!":12,"#":13,"$":14,"%":15,"&":16,"'":17,"(":18,")":19,"*":20,"+":21,"-":22,"/":23,"0":24,"1":25,"2":26,"3":27,"4":28,"5":29,"6":30,"7":31,"8":32,"9":33,";":34,"<":35,"=":36,">":37,"?":38,"@":39,"\\":40,"^":41,"_":42,"`":43,"a":44,"b":45,"c":46,"d":47,"e":48,"f":49,"g":50,"h":51,"i":52,"j":53,"k":54,"l":55,"m":56,"n":57,"o":58,"p":59,"q":60,"r":61,"s":62,"t":63,"u":64,"v":65,"w":66,"x":67,"y":68,"z":69,"|":70,"~":71,"¡":72,"¢":73,"£":74,"¤":75,"¥":76,"¦":77,"§":78,"¨":79,"©":80,"ª":81,"«":82,"¬":83,"®":84,"¯":85,"°":86,"±":87,"²":88,"³":89,"´":90,"µ":91,"¶":92,"·":93,"¸":94,"¹":95,"º":96,"»":97,"¼":98,"½":99,"¾":100,"¿":101,"Â":102,"Ã":103,"Ä":104,"Å":105,"Æ":106,"Ç":107,"È":108,"É":109,"Ê":110,"Ë":111,"Ì":112,"Í":113,"Î":114,"Ï":115,"Ð":116,"Ñ":117,"Ò":118,"Ó":119,"Ô":120,"Õ":121,"Ö":122,"×":123,"Ø":124,"Ù":125,"Ú":126,"Û":127,"Ü":128,"Ý":129,"Þ":130,"ß":131,"à":132,"á":133,"â":134,"ã":135,"ä":136,"å":137,"æ":138,"ç":139,"è":140,"é":141,"ê":142,"ë":143,"ì":144,"í":145,"î":146,"ï":147,"ð":148,"ó":149,"ô":150,"Ċ":151,"Ġ":152,"ġ":153,"Ģ":154,"ģ":155,"Ĥ":156,"ĥ":157,"Ħ":158,"ħ":159,"Ĩ":160,"ĩ":161,"Ī":162,"ī":163,"Ĭ":164,"ĭ":165,"Į":166,"į":167,"İ":168,"ı":169,"Ĳ":170,"ĳ":171,"Ĵ":172,"ĵ":173,"Ķ":174,"ķ":175,"ĸ":176,"Ĺ":177,"ĺ":178,"Ļ":179,"ļ":180,"Ľ":181,"ľ":182,"Ŀ":183,"ŀ":184,"Ł":185,"ł":186,"Ń":187,"Ġt":188,"Ġa":189,"er":190,"in":191,"he":192,"on":193,"or":194,"Ġc":195,"Ġ|":196,"at":197,"Ġs":198,"an":199,"''":200,"Ġthe":201,"es":202,"en":203,"is":204,"ar":205,"al":206,"it":207,"Ġb":208,"Ġp":209,"Ġw":210,"Ġm":211,"Ġo":212,"ed":213,"Ġf":214,"re":215,"le":216,"Ġd":217,"ic":218,"Ġin":219,"as":220,"Ġof":221,"Ġan":222,"ro":223,"ion":224,"Ġh":225,"ing":226,"Ġn":227,"Ġ1":228,"ou":229,"Ġ*":230,"ate":231,"Ġand":232,"Ġ(":233,"20":234,"am":235,"Ġl":236,"ent":237,"Ġg":238,"us":239,"'''":240,"Ġto":241,"th":242,"ol":243,"il":244,"Ġth":245,"ory":246,"om":247,"un":248,"el":249,"ateg":250,"ategory":251,"Ġcategory":252,"ac":253,"Ġre":254,"Ġis":255,"Ġst":256,"Ġe":257,"ot":258,"Ġ20":259,"ad":260,"ig":261,"st":262,"ation":263,"id":264,"ir":265,"ur":266,"ut":267,"iv":268,"im":269,"Ġr":270,"et":271,"ag":272,"ay":273,"ch":274,"ct":275,"Ġ19":276,"em":277,"ers":278,"op":279,"Ġj":280,"Ġ''":281,"ist":282,"Ġon":283,"Ġfor":284,"ul":285,"Ġbe":286,"Ġk":287,"Ġv":288,"ov":289,"ow":290,"est":291,"um":292,"Ġal":293,"Ġwas":294,"Ġde":295,"Ġit":296,"and":297,"Ġas":298,"ap":299,"}}":300,"âĢ":301,"ab":302,"Ġ\"":303,"ly":304,"Ġhe":305,"Ġ'''":306,"19":307,"rom":308,"ian":309,"ce":310,"Ġch":311,"ia":312,"os":313,"ies":314,"ber":315,"od":316,"ht":317,"Ġy":318,"Ġcom":319,"ter":320,"art":321,"ub":322,"Ġse":323,"av":324,"if":325,"Ġ2":326,"Ġun":327,"âĢĵ":328,"ith":329,"Ġfrom":330,"sp":331,"Ġwh":332,"Ġ|-":333,"00":334,"oun":335,"ip":336,"Ġor":337,"ity":338,"up":339,"Ġthat":340,"ess":341,"Ġby":342,"ere":343,"oc":344,"Ġare":345,"ain":346,"Ġat":347,"pe":348,"ame":349,"Ġar":350,"ak":351,"all":352,"Ġwith":353,"ill":354,"Ġne":355,"ld":356,"ish":357,"se":358,"ther":359,"Ġ201":360,"age":361,"Ġpro":362,"--":363,"Ġsh":364,"ie":365,"qu":366,"Ġcon":367,"'s":368,"Ġle":369,"pl":370,"ik":371,"ign":372,"ort":373,"ary":374,"Ġpl":375,"ican":376,"Ġro":377,"ight":378,"ard":379,"tr":380,"Ġpr":381,"ear":382,"ath":383,"span":384,"Ġus":385,"Ġen":386,"ment":387,"ang":388,"te":389,"Ġ200":390,"fer":391,"Ġthis":392,"mer":393,"Ġcl":394,"ver":395,"Ġnot":396,"ant":397,"Ġ}}":398,"our":399,"eb":400,"ud":401,"ff":402,"olor":403,"Ġte":404,"Ġi":405,"og":406,"ive":407,"Ġ!":408,"ces":409,"Ġtr":410,"ug":411,"Ġ&":412,"ack":413,"ated":414,"ember":415,"ich":416,"yle":417,"Ġ3":418,"rit":419,"ord":420,"ty":421,"ong":422,"ial":423,"utc":424,"ost":425,"pr":426,"the":427,"ates":428,"ash":429,"ore":430,"cl":431,"Ġdis":432,"ople":433,"ass":434,"Ġex":435,"ast":436,"ine":437,"ont":438,"ace":439,"uc":440,"ue":441,"Ġstyle":442,"end":443,"Ġpe":444,"ell":445,"man":446,"ational":447,"Ġsc":448,"ge":449,"Ġfr":450,"Ġhis":451,"Ġab":452,"alk":453,"Ġcan":454,"Ġmar":455,"ne":456,"iz":457,"ave":458,"Ġman":459,"ision":460,"nd":461,"ok":462,"Ġmov":463,"ould":464,"Ġwor":465,"tion":466,"feren":467,"Ġact":468,"ww":469,"Ġother":470,"lev":471,"land":472,"color":473,"Ġ:":474,"de":475,"ib":476,"opul":477,"ra":478,"ure":479,"so":480,"Ġ202":481,"Ġad":482,"ite":483,"Ġcoun":484,"ust":485,"ire":486,"ited":487,"Ġnew":488,"ime":489,"ern":490,"ome":491,"Ġpeople":492,"Ġsp":493,"ical":494,"Ġreferen":495,"Ġamer":496,"oot":497,"Ġ-":498,"</":499,"ĠâĢĵ":500,"Ġpart":501,"Ġthey":502,"ndash":503,"ide":504,"one":505,"enter":506,"Ġ18":507,"ank":508,"sh":509,"Ġreferences":510,"),":511,"Ġmay":512,"umb":513,"und":514,"Ġyear":515,"orn":516,"ice":517,"pt":518,"Ġ4":519,"own":520,"Ġ[":521,"Ġaf":522,"irth":523,"opulation":524,"=\"":525,"uss":526,"Ġme":527,"ors":528,"out":529,"Ġhave":530,"\"|":531,"Ġser":532,"Ġ199":533,"\">":534,"irst":535,"als":536,"Ġbo":537,"201":538,"Ġplay":539,"Ġbut":540,"Ġalso":541,"Ġbl":542,"Ġ#":543,"Ġhas":544,"px":545,"ft":546,"//":547,"Ġamerican":548,"ction":549,"uary":550,"Ġart":551,"ade":552,"talk":553,"lish":554,"les":555,"ind":556,"Ġ0":557,"able":558,"hen":559,"Ġdeath":560,"Ġgo":561,"ode":562,"xt":563,"Ġbirth":564,"per":565,"200":566,"ond":567,"Ġ5":568,"Ġcomp":569,"tp":570,"://":571,"ans":572,"ens":573,"ric":574,"Ġpar":575,"Ġed":576,"Ġbec":577,"Ġpol":578,"Ġone":579,"to":580,"amp":581,"ach":582,"Ġwhich":583,"Ġim":584,"Ġdisc":585,"ied":586,"Ġunited":587,"Ġall":588,"Ġfirst":589,"ebs":590,"ance":591,"row":592,"Ġcol":593,"Ġstates":594,"are":595,"Ġyou":596,"cc":597,"act":598,"ult":599,"aw":600,"http":601,"Ġwere":602,"der":603,"Ġcomm":604,"Ġsub":605,"ink":606,"align":607,"Ġeng":608,"Ġshe":609,"not":610,"Ġ--":611,"io":612,"Ġnational":613,"Ġap":614,"ous":615,"aus":616,"Ġdo":617,"for":618,"ater":619,"Ġ7":620,"Ġthere":621,"name":622,"Ġ8":623,"ry":624,"Ġ6":625,"Ġph":626,"Ġher":627,"Ġafter":628,"itle":629,"ah":630,"Ġ198":631,"font":632,"\",":633,"Ġwebs":634,"Ġbr":635,"ition":636,"uch":637,"Ġkn":638,"Ġnor":639,"Ġ}":640,"port":641,"ree":642,"hed":643,"ob":644,"ild":645,"Ġag":646,"18":647,"center":648,"Ġthumb":649,"Ġmus":650,"Ġwe":651,"ep":652,"Ġwho":653,"Ġfl":654,"amer":655,"Ġpres":656,"Ġtw":657,"Ã©":658,"Ġ9":659,"Ġsome":660,"ile":661,"ments":662,"ames":663,"date":664,"Ġtheir":665,"Ġmade":666,"Ġper":667,"ivers":668,"Ġpage":669,"'',":670,"tern":671,"Ġyears":672,"we":673,"ally":674,"Ġdec":675,"Ġgr":676,"Ġif":677,"ward":678,"Ġcity":679,"ics":680,"Ġ197":681,"ake":682,"Ġind":683,"ence":684,"Ġabout":685,"ound":686,"une":687,"199":688,"Ġres":689,"ings":690,"Ġco":691,"ect":692,"old":693,"Ġtime":694,"ase":695,"Ġoff":696,"ke":697,"Ġmin":698,"round":699,"Ġdiscuss":700,"ident":701,"Ġarea":702,"iss":703,"ician":704,"ery":705,"oug":706,"pro":707,"Ġz":708,"ail":709,"bl":710,"Ġpopulation":711,"Ġest":712,"ose":713,"Ġ**":714,"american":715,"oh":716,"Ġ{":717,"Ġqu":718,"Ġev":719,"Ġrel":720,"cess":721,"10":722,"levision":723,"Ġwhen":724,"gr":725,"roup":726,"::":727,"Ġreg":728,"ations":729,"ages":730,"ubl":731,"Ġsou":732,"ick":733,"Ġcap":734,"type":735,"50":736,"Ġartic":737,"Ġhad":738,"Ġso":739,"ike":740,"Ġsing":741,"www":742,"Ġworld":743,"ts":744,"eng":745,"Ġwill":746,"Ġrec":747,"Ġbirths":748,"ince":749,"Ġup":750,"ph":751,"Ġshould":752,"Ġspe":753,"Ġpre":754,"ball":755,"Ġgen":756,"ays":757,"Ġ196":758,"Ġwork":759,"ork":760,"Ġjan":761,"ivision":762,"rap":763,"Ġtelevision":764,"Ġcar":765,"ton":766,"Ġwar":767,"ms":768,"notes":769,"Ġsy":770,"Ġfoot":771,"place":772,"Ġits":773,"az":774,"Ġused":775,"min":776,"Ġcont":777,"ents":778,"Ġno":779,"Ġ17":780,"ason":781,"Ġdr":782,"ix":783,"ustr":784,"'t":785,"ader":786,"ased":787,"ope":788,"Ġnov":789,"Ġam":790,"wn":791,"ck":792,"ier":793,"Ġdiscussion":794,"Ġ10":795,"Ġmost":796,"Ġcolor":797,"ubs":798,"erman":799,"Ġseries":800,"Ġmore":801,"Ġter":802,"12":803,"empl":804,"Ġwrit":805,"ists":806,"ood":807,"Ġname":808,"year":809,"Ġmovies":810,"son":811,"che":812,"Ġunivers":813,"Ġloc":814,"code":815,"ve":816,"Ġpolit":817,"overn":818,"Ġmany":819,"Ġele":820,"part":821,"clud":822,"Ġfe":823,"uk":824,"fr":825,"Ġbel":826,"ple":827,"title":828,"Ġcall":829,"Ġgroup":830,"right":831,"Ġtwo":832,"irect":833,"ities":834,"ause":835,"Ġestab":836,"angu":837,"Ġear":838,"urr":839,"Ġstate":840,"Ġsch":841,"Ġknown":842,"levation":843,"ina":844,"amil":845,"Ġout":846,"Ġjanuary":847,"ouse":848,"ites":849,"Ġbeen":850,"Ġsec":851,"Ġem":852,"Ġop":853,"Ġjul":854,"edia":855,"igh":856,"Ġgu":857,"Ġ15":858,"Ġcent":859,"Ġlist":860,"Ġteam":861,"ished":862,"int":863,"Ġdist":864,"Ġ16":865,"iel":866,"ax":867,"Ġcounty":868,"Ġhist":869,"of":870,"Ġstr":871,"ober":872,"Ġend":873,"Ġsong":874,"Ġcre":875,":#":876,"ten":877,"ata":878,"Ġsuch":879,"\":":880,"Ġdes":881,"198":882,"bo":883,"ugust":884,"olog":885,"foot":886,"Ġprod":887,"Ġcountr":888,"Ġsup":889,"ved":890,"erson":891,"ann":892,"Ġgre":893,"raph":894,"umber":895,"Ġmovie":896,"att":897,"Ġinclud":898,"division":899,"ions":900,"ize":901,"sc":902,"urn":903,"----":904,"Ġ194":905,"Ġover":906,"ock":907,"Ġenglish":908,"Ġwik":909,"anc":910,"ss":911,"Ġchar":912,"ctober":913,"rat":914,"com":915,"uring":916,"ptember":917,"Ġ12":918,"ograph":919,"Ġwould":920,"fl":921,"air":922,"Ġgovern":923,"Ġbet":924,"Ġthan":925,"Ġaward":926,"Ġrow":927,"iving":928,"Ġonly":929,"aj":930,"Ġmarch":931,"ale":932,"Ġ'":933,"str":934,"Ġpo":935,"wik":936,"Ġalb":937,"Ġhow":938,"Ġaugust":939,"Ġht":940,"cap":941,"ines":942,"ury":943,"ll":944,"Ġjuly":945,"Ġinto":946,"Ġlike":947,"uro":948,"Ġsouth":949,"ough":950,"Ġking":951,"Ġdeaths":952,"text":953,"abel":954,"11":955,"br":956,"Ġclass":957,"ĠâĢ":958,"population":959,"Ġke":960,"Ġshow":961,"Ġnorth":962,"Ġuniversity":963,"Ġaustr":964,"22":965,"Ġgerman":966,"enn":967,"Ġ13":968,"Ġfil":969,"Ġthen":970,"gan":971,"ebr":972,"go":973,"Ġalign":974,"Ġ2020":975,"co":976,"ove":977,"Ġ14":978,"Ġoctober":979,"Ġass":980,"ship":981,"000":982,"Ġedit":983,"apan":984,"tain":985,"oll":986,"Ġcalled":987,"Ġseptember":988,"ark":989,"Ġsw":990,"Ġdecember":991,"idd":992,"ons":993,"Ġrequ":994,"17":995,"Ġsim":996,"inn":997,"Ġnovember":998,"ebruary":999,"Ġstud":1000,"Ġdirect":1001,"Ġbecause":1002,"ys":1003,"footnotes":1004,"Ġcr":1005,"16":1006,"Ġtempl":1007,"Ġthem":1008,"let":1009,"Ġ195":1010,"Ġfootball":1011,"Ġwebsites":1012,"Ġfound":1013,"Ġjune":1014,"Ġarticle":1015,"197":1016,"ohn":1017,"Ġapr":1018,"Ġmon":1019,"iet":1020,"au":1021,"ife":1022,"iver":1023,"born":1024,"cr":1025,"Ġbrit":1026,"30":1027,"Ġsm":1028,"Ġ<":1029,"Ġspec":1030,"form":1031,"ict":1032,"Ġacc":1033,"Ġapril":1034,"Ġrowspan":1035,"><":1036,"'''''":1037,"Ġparty":1038,"Ġprov":1039,"ister":1040,"vel":1041,"Ġpresident":1042,"ren":1043,"ins":1044,"alt":1045,"pres":1046,"ium":1047,"Ġcal":1048,"Ġuse":1049,"Ġair":1050,"21":1051,"ool":1052,"ism":1053,"Ġany":1054,"ai":1055,"Ġbu":1056,"Ġbro":1057,"Ġduring":1058,"icip":1059,"Ġright":1060,"Ġfebruary":1061,"iam":1062,"Ġdif":1063,"anguage":1064,"15":1065,"Ġalbum":1066,"Ġac":1067,"enc":1068,"Ġbar":1069,"Ġmat":1070,"Ġel":1071,"eral":1072,"ange":1073,"Ġwest":1074,"Ġwebsite":1075,"my":1076,"way":1077,"amily":1078,"left":1079,"ama":1080,"arg":1081,"Ġge":1082,"Ġform":1083,"Ġunder":1084,"Ġhtm":1085,"ublic":1086,"col":1087,"rict":1088,"Ġadd":1089,"imes":1090,"13":1091,"inal":1092,"Ġchild":1093,"Ġret":1094,"Ġsa":1095,"ley":1096,"Ġatt":1097,"Ġever":1098,"14":1099,"ica":1100,"Ġdef":1101,"Ġdem":1102,"other":1103,"off":1104,"Ġhim":1105,"Ġnumber":1106,"Ġmed":1107,"ely":1108,"me":1109,"''',":1110,"Ġmusic":1111,"Ġthese":1112,"Ġleader":1113,"Ġyork":1114,"Ġpolitician":1115,"Ġ2021":1116,"ground":1117,"ient":1118,"Ġche":1119,"Ġperson":1120,"Ġwhere":1121,"Ġscope":1122,"Ġmod":1123,"alian":1124,"Ġoffic":1125,"Ġ2009":1126,"fore":1127,"con":1128,"ious":1129,"Ġmain":1130,"Ġrom":1131,"ugh":1132,"Ġrele":1133,"emb":1134,"ality":1135,"Ġjapan":1136,"iew":1137,"Ġ193":1138,"Ġhigh":1139,"eter":1140,"be":1141,"Ġty":1142,"Ġmanag":1143,"Ġstart":1144,"ject":1145,"Ġhel":1146,"Ġhistory":1147,"Ġcountry":1148,"urrent":1149,"Ġarch":1150,"Ġsubdivision":1151,"Ġget":1152,"Ġback":1153,"Ġmy":1154,"Ġregion":1155,"23":1156,"Ġfrance":1157,"196":1158,"ures":1159,"gcolor":1160,"24":1161,"Ġred":1162,"ars":1163,"ese":1164,"Ġ11":1165,"ative":1166,"thing":1167,"Ġset":1168,"Ġchamp":1169,"Ġagain":1170,"ower":1171,"unicip":1172,"urg":1173,"pos":1174,"ement":1175,"Ġmet":1176,"Ġbest":1177,"Ġrecord":1178,"ween":1179,"Ġrequest":1180,"ature":1181,"ives":1182,"lete":1183,"uct":1184,"ise":1185,"Ġjohn":1186,"Ġ2010":1187,"Ġlo":1188,"par":1189,"Ġgames":1190,"Ġeuro":1191,"Ġ2008":1192,"Ġjust":1193,"back":1194,"Ġsecond":1195,"Ġla":1196,"Ġu":1197,"Ġbetween":1198,"Ã¼":1199,"Ġbritish":1200,"ench":1201,"Ġactors":1202,"omin":1203,"Ġrep":1204,"ather":1205,"Ġintern":1206,"ull":1207,"Ġpos":1208,"ield":1209,"km":1210,"Ġval":1211,"Ġcons":1212,"Ġinter":1213,"lishments":1214,"ital":1215,"ual":1216,"Ġrem":1217,"Ġbecame":1218,"Ġpost":1219,"Ġdied":1220,"ony":1221,"ague":1222,"https":1223,"wh":1224,"ven":1225,"ma":1226,"Ġlong":1227,"Ġtown":1228,"elevation":1229,"erg":1230,"ution":1231,"itt":1232,"Ġpages":1233,"lished":1234,"Ġ2022":1235,"vent":1236,"arch":1237,"arr":1238,"present":1239,"25":1240,"over":1241,"{{":1242,"ually":1243,"rist":1244,"Ġcurrent":1245,"Ġ'''''":1246,"Ġvery":1247,"Ġschool":1248,"ky":1249,"Ġbook":1250,"Ġ*''":1251,"its":1252,"cent":1253,"Ġmake":1254,"26":1255,"Ġadmin":1256,"Ġgoals":1257,"amed":1258,"ating":1259,"Ġlink":1260,"Ġbefore":1261,"ott":1262,"Ġbas":1263,"Ġ2011":1264,"ific":1265,"Ġwhat":1266,"Ġdiffer":1267,"ae":1268,"area":1269,"ats":1270,"ipedia":1271,"ung":1272,"Ġ21":1273,"Ġmil":1274,"Ġsoc":1275,"Ġimage":1276,"Ġ22":1277,"}|":1278,"Ġdistrict":1279,"ress":1280,"Ġhtml":1281,"Ġdon":1282,"set":1283,"mp":1284,"tot":1285,"Ġbeing":1286,"Ġ23":1287,"Ġdifferent":1288,"Ġanim":1289,"Ġwom":1290,"Ġsl":1291,"ec":1292,";\"":1293,"rough":1294,"Ġplayer":1295,"Ġocc":1296,"Ġgovernment":1297,"Ġchampion":1298,"any":1299,"Ġsame":1300,"ien":1301,"rop":1302,"new":1303,"stem":1304,"Ġep":1305,"Ġneed":1306,"Ġevery":1307,"Ġ2017":1308,"Ġii":1309,"Ġ2019":1310,"Ġtitle":1311,"Ġcanad":1312,"}}}}":1313,"Ġthree":1314,"Ġcommun":1315,"Ġchildren":1316,"ator":1317,"Ġ25":1318,"Ġ|}":1319,"living":1320,"Ġsee":1321,"Ġir":1322,"Ġlife":1323,"Ġsince":1324,"ody":1325,"Ġelect":1326,"ollow":1327,"\"]":1328,"Ã¡":1329,"Ġlater":1330,"Ġ|''":1331,"til":1332,"Ġrelated":1333,"ross":1334,"Ġsign":1335,"Ġcolle":1336,"Ġ2018":1337,"Ġeurope":1338,"stit":1339,"Ġappro":1340,"Ġestablishments":1341,"total":1342,"Ġ2014":1343,"by":1344,"Ġclubs":1345,"'')":1346,"ute":1347,"midd":1348,"Ġofficial":1349,"Ġ(''":1350,"Ġtemplate":1351,"Ġ2024":1352,"ology":1353,"Ġgl":1354,"ession":1355,"app":1356,"80":1357,"fo":1358,"Ġdepart":1359,"elf":1360,"Ġorig":1361,"Ġwell":1362,"Ġterm":1363,"Ġang":1364,"years":1365,"af":1366,"Ġhelp":1367,"iate":1368,"Ġproduc":1369,"Ġthrough":1370,"Ġriver":1371,"bert":1372,"Ġlaw":1373,"ird":1374,"Ġisland":1375,"Ġactor":1376,"aint":1377,"ks":1378,"Ġfollow":1379,"writ":1380,"ald":1381,"Ġpat":1382,"Ġgame":1383,"Ġ2012":1384,"dom":1385,"idth":1386,"Ġ{|":1387,"res":1388,"Ġold":1389,"Ġtop":1390,"Ġhouse":1391,"Ġx":1392,"orts":1393,"clubs":1394,"Ã¶":1395,"Ġseason":1396,"Ġ24":1397,"Ġmunicip":1398,"ger":1399,"Ġday":1400,"Ġ2015":1401,"Ġ30":1402,"ideo":1403,"Ġjo":1404,"194":1405,"death":1406,"Ġlanguage":1407,"ral":1408,"Ġrev":1409,"pg":1410,"Ġer":1411,"99":1412,"Ġtalk":1413,"Ġsystem":1414,"list":1415,"cer":1416,"Ġ2013":1417,"Ġprof":1418,"ri":1419,"Ġ2016":1420,"\"#":1421,"Ġleague":1422,"ret":1423,"ref":1424,"Ġnow":1425,"Ġcor":1426,"ana":1427,"Ġtrans":1428,"ever":1429,"ced":1430,"Ġlast":1431,"yn":1432,"Ġ2023":1433,"middot":1434,"ural":1435,"Ġreleased":1436,"Ġuntil":1437,"Ġ2007":1438,"ets":1439,"ney":1440,"Ġsur":1441,"33":1442,"pend":1443,"Ġdid":1444,"ography":1445,"Ġrock":1446,"ful":1447,"Ġformer":1448,"Ġrun":1449,"ner":1450,"ength":1451,"ush":1452,"iforn":1453,"goals":1454,"ino":1455,"ants":1456,"Ġdepartment":1457,"ble":1458,"Ġcould":1459,"Ġdata":1460,"Ġdoes":1461,"Ġlocal":1462,"ene":1463,"Ġgood":1464,"27":1465,"ste":1466,"uccess":1467,"uth":1468,"Ġinternational":1469,"Ġplayed":1470,"lo":1471,"Ġland":1472,"els":1473,"ifornia":1474,"Ġserv":1475,"Ġphil":1476,"Ġmak":1477,"order":1478,"28":1479,"thern":1480,"Ġleg":1481,"red":1482,"Ġthink":1483,"Ġdate":1484,"90":1485,"Ġcare":1486,"Ġruss":1487,"Ġblank":1488,"Ġappe":1489,"Ġob":1490,"Ġmember":1491,"ample":1492,"Ġ,":1493,"Ġfour":1494,"Ġfrench":1495,"Ġfamily":1496,"Ġwikipedia":1497,"Ġcaps":1498,"Ġwon":1499,"Ġplace":1500,"action":1501,"Ġsol":1502,"ham":1503,"Ġfilm":1504,"Ġhere":1505,"atch":1506,"gre":1507,"Ġvot":1508,"itable":1509,"edy":1510,"Ġ26":1511,"key":1512,"âĢĻ":1513,"ling":1514,"Ġown":1515,"mov":1516,"Ġwhile":1517,"ane":1518,"uction":1519,"Ġste":1520,"Ġestablished":1521,"Ġway":1522,"Ġinv":1523,"Ġcalifornia":1524,"rest":1525,"Ġsongs":1526,"alia":1527,"Ġengland":1528,"Ġsmall":1529,"burg":1530,"Ġann":1531,"ible":1532,"Ġcode":1533,"erv":1534,"sy":1535,"Ġband":1536,"Ġlabel":1537,"Ġtext":1538,"oph":1539,"Ġsour":1540,"Ġage":1541,"ster":1542,"Ġwriter":1543,"Ġborn":1544,"sub":1545,"29":1546,"195":1547,"Ġclose":1548,"day":1549,"Ġje":1550,"Ġkingdom":1551,"team":1552,"ille":1553,"background":1554,"Ġchrist":1555,"--------":1556,"Ġmiss":1557,"Ġbased":1558,"Ġmill":1559,"Ġword":1560,"Ġmap":1561,"Ġchang":1562,"Ġnear":1563,"play":1564,"ĠÐ":1565,"ox":1566,"Ġ:::":1567,"Ġprogr":1568,"Ġaut":1569,"ility":1570,"mar":1571,"Ġboth":1572,"time":1573,"Ġarticles":1574,"bgcolor":1575,"Ġ27":1576,"la":1577,"Ġport":1578,"Ġhar":1579,"ized":1580,"line":1581,"ians":1582,"ondon":1583,"ues":1584,"ze":1585,"Ġchampionship":1586,"Ġsk":1587,"Ġsaid":1588,"velop":1589,"Ġkill":1590,"Ġvers":1591,"Ġelevation":1592,"Ġcentury":1593,"aly":1594,"ex":1595,"Ġ2006":1596,"work":1597,"Ġfin":1598,"Ġsinger":1599,"Ġnomin":1600,"ison":1601,"Ġstat":1602,"iation":1603,"gen":1604,"Ġinc":1605,"Ġreturn":1606,"ensity":1607,"ived":1608,"Ġ----":1609,"Ġhum":1610,"Ġreason":1611,"quent":1612,"Ġvar":1613,"ount":1614,"wikitable":1615,"Ġminister":1616,"oy":1617,"Ġactress":1618,"Ġplayers":1619,"ency":1620,"med":1621,"Ġuser":1622,"Ġ::":1623,"Ġwater":1624,"size":1625,"aces":1626,"=\"#":1627,"Ġleft":1628,"ĠâĢĶ":1629,"ara":1630,"Ġorgan":1631,"ajor":1632,"Ġ28":1633,"Ġagainst":1634,"Ġprovince":1635,"val":1636,"Ġabove":1637,"Ġorg":1638,"blank":1639,"Ġcomments":1640,"Ġclub":1641,"pol":1642,"embers":1643,"Ġgermany":1644,"Ġjpg":1645,"ired":1646,"Ġsupport":1647,"Ġgeor":1648,"Ġbus":1649,"Ġbre":1650,"Ġsu":1651,"Ġdevelop":1652,"people":1653,"que":1654,"na":1655,"Ġgreat":1656,"Ġroman":1657,"40":1658,"ourn":1659,"Ġ;":1660,"Ġeach":1661,"Ġint":1662,"priate":1663,"Ġuk":1664,"Ġeast":1665,"Ġwomen":1666,"Ġgeneral":1667,"Ġhowever":1668,"ience":1669,"info":1670,"ular":1671,"Ġhead":1672,"Ġnamed":1673,"Ġ*'''":1674,"Ġtak":1675,"zone":1676,"Ġepis":1677,"Ġdel":1678,"Ġes":1679,"Ġkeep":1680,"Ġav":1681,"ches":1682,"Ġdays":1683,"Ġoper":1684,"Ġsuccess":1685,"Ġlook":1686,"Ġadminist":1687,"Ġvideo":1688,"Ġoften":1689,"Ġmo":1690,"istan":1691,"Ġline":1692,"Ġcup":1693,"Ġappropriate":1694,"Ġyour":1695,"crip":1696,"Ġdue":1697,"Ġearly":1698,"Ġmag":1699,"Ġtre":1700,"aul":1701,"sec":1702,"ico":1703,"ÃŃ":1704,"Ġarg":1705,"label":1706,"ron":1707,"des":1708,"Ġpass":1709,"ief":1710,"35":1711,"Ġincluding":1712,"Ġexample":1713,"Ġblack":1714,"Ġinde":1715,"ows":1716,"ler":1717,"Ġlead":1718,"Ð°":1719,"Ġlondon":1720,"Ġeven":1721,"ĠĊ":1722,"west":1723,"ee":1724,"Ġbi":1725,"Ġ29":1726,"ule":1727,"Ġhome":1728,"Ġsen":1729,"caps":1730,"ket":1731,"no":1732,"Ġcour":1733,"Ġaround":1734,"ider":1735,"ago":1736,"map":1737,"Ġimport":1738,"Ġoccup":1739,"Ġ/":1740,"hes":1741,"ocrat":1742,"Ġpark":1743,"Ã³":1744,"inc":1745,"sequent":1746,"Ġsingle":1747,"Ġnext":1748,"Ġvol":1749,"may":1750,"fc":1751,"Ġeas":1752,"Ġsv":1753,"raz":1754,"Ġcreated":1755,"ales":1756,"Ġsum":1757,"ones":1758,"offset":1759,"Ġclos":1760,"Ġwant":1761,"density":1762,"Ġlar":1763,"icians":1764,"delete":1765,"omet":1766,"Ġsubsequent":1767,"Ġanother":1768,"ka":1769,"Ġtimes":1770,"Ġusing":1771,"Ġbuild":1772,"Ġindia":1773,"Ġvo":1774,"Ġsever":1775,"ories":1776,"Ġnet":1777,"2010":1778,"Ġ2005":1779,"Ġcommon":1780,"Ġprogram":1781,"ordin":1782,"36":1783,"odes":1784,"can":1785,"Ġflag":1786,"Ġmunicipality":1787,"por":1788,"put":1789,"national":1790,"sup":1791,"Ġawards":1792,"ele":1793,"Ġcenter":1794,"Ġdown":1795,"ught":1796,"Ġpop":1797,"Ġlos":1798,"Ġrepublic":1799,"outh":1800,"fff":1801,"Ġparam":1802,"Ġdesign":1803,"Ġ100":1804,"Ġpostal":1805,"ting":1806,"movies":1807,"ford":1808,"Ġmajor":1809,";\"|":1810,"ipp":1811,"though":1812,"Ġcompany":1813,"Ġwinn":1814,"iction":1815,"Ġassoc":1816,"sport":1817,"mi":1818,"rown":1819,"mon":1820,"Ġnav":1821,"Ġvi":1822,"Ġ2004":1823,"Ġappear":1824,"ady":1825,"lin":1826,"style":1827,"Ġent":1828,"ba":1829,"Ġstarted":1830,"uck":1831,"Ġcolspan":1832,"cted":1833,"Ġpublic":1834,"Ġgrand":1835,"aut":1836,"itary":1837,"urch":1838,"Ġshort":1839,"Ġfar":1840,"itz":1841,"Ġâ":1842,"Ġsan":1843,"Ġauth":1844,"dst":1845,"Ġhol":1846,"urb":1847,"adem":1848,"Ġmuch":1849,"ington":1850,"ior":1851,"party":1852,"60":1853,"led":1854,"lex":1855,"Ġaustralia":1856,"Ġcamp":1857,"2020":1858,"Ġcareer":1859,"fa":1860,"Ġseveral":1861,"ena":1862,"cription":1863,"Ġeduc":1864,"Ġpopul":1865,"Ġbig":1866,"Ġmayor":1867,"Ġpal":1868,"Ġorder":1869,"ought":1870,"Ð¾":1871,"Ġrad":1872,"Ġindian":1873,"Ġfun":1874,"ains":1875,"Ġ)":1876,"ps":1877,"attle":1878,"',":1879,"Ġpower":1880,"ias":1881,"Ġoffice":1882,"Ġelection":1883,"aur":1884,"Ġamerica":1885,"Ġknow":1886,"Ġmanager":1887,"Ġalthough":1888,"side":1889,"Ġopen":1890,"mat":1891,"01":1892,"han":1893,"37":1894,"34":1895,"39":1896,"Ġlive":1897,"raft":1898,"spe":1899,"iven":1900,"gin":1901,"Ġlarg":1902,"Ġstill":1903,"ument":1904,"Ġwhite":1905,"Ġattack":1906,"ert":1907,"letion":1908,"thers":1909,"Ġstand":1910,"Ġvill":1911,"Ġcompos":1912,"Ġcomedy":1913,"Ġmich":1914,"Ġtot":1915,"Ġprev":1916,"Ġtype":1917,"Ġbody":1918,"Ġgold":1919,"Ġnotable":1920,"Ġ2000":1921,"Ġlength":1922,"Ġrepresent":1923,"Ġvir":1924,"Ġ[\"":1925,"Ġspecial":1926,"esh":1927,"ida":1928,"top":1929,"post":1930,"Ġref":1931,"po":1932,"Ġyoun":1933,"Ġcult":1934,"Ġoccupation":1935,"Ġresult":1936,"Ġdrama":1937,"Ġmor":1938,"fe":1939,"Ġwilliam":1940,"Ġadministrat":1941,"inter":1942,"sw":1943,"rog":1944,"Ġfollowing":1945,"Ġbelow":1946,"Ġalbums":1947,"link":1948,"Ġ+":1949,"amb":1950,"0000":1951,"Ġunion":1952,"Ġauthor":1953,"rol":1954,"formation":1955,"Ġearl":1956,"Ġusually":1957,"arn":1958,"Ġli":1959,"Ġ31":1960,"Ġdirector":1961,"acter":1962,"Ġimportant":1963,"aster":1964,"Ġangel":1965,"Ġmean":1966,"ordinates":1967,"Ġill":1968,"ya":1969,"Ġdav":1970,"Ġenter":1971,"mus":1972,"ices":1973,"ij":1974,"Ġcontr":1975,"Ġproble":1976,"ocratic":1977,"cept":1978,"Ġmax":1979,"Ðµ":1980,"Ġ2001":1981,"ael":1982,"Ġmass":1983,"ek":1984,"Ġoly":1985,"Ġsay":1986,"Ð¸":1987,"aa":1988,"chn":1989,"met":1990,"Ġfind":1991,"Ġda":1992,"adium":1993,"Ġolymp":1994,"df":1995,"Ġcentral":1996,"Ġitalian":1997,"berg":1998,"orm":1999,"Ã¤":2000,"Ġmembers":2001,"Ġdirected":2002,"Ġcaus":2003,"ined":2004,"Ġversion":2005,"ii":2006,"Ġindepend":2007,"Ġmac":2008,"Ġdeletion":2009,"Ġlou":2010,"08":2011,"Ġsvg":2012,"Ġsal":2013,"alities":2014,"ta":2015,"Ġlight":2016,"Ġfur":2017,"Ġthings":2018,"Ġposition":2019,"Ġrest":2020,"state":2021,"Ġpopular":2022,"Ġhistor":2023,"Ġfre":2024,"ically":2025,"ander":2026,"38":2027,"Ġproducer":2028,"active":2029,"Ġlarge":2030,"Ġcast":2031,"iend":2032,"Ġkm":2033,"Ġ()":2034,"ivil":2035,"uel":2036,"05":2037,"Ġblock":2038,"dr":2039,"2000":2040,"cy":2041,"Ġoption":2042,"family":2043,"Ġcollege":2044,"Ġgod":2045,"ius":2046,"ump":2047,"hel":2048,"Ġseven":2049,"Ġdeb":2050,"Ġemp":2051,"Ġvote":2052,"erved":2053,"ibut":2054,"isc":2055,"Ġ2003":2056,"ards":2057,"66":2058,"Ġyouth":2059,"Ġconf":2060,"Ġdi":2061,"ides":2062,"idge":2063,"07":2064,"caption":2065,"Ġq":2066,"ensus":2067,"yal":2068,"ified":2069,"Ġhand":2070,"Ġcanada":2071,"Ġmen":2072,"45":2073,"ases":2074,"tt":2075,"Ġhapp":2076,"Ġprofession":2077,"Ġcommune":2078,"iness":2079,"Ġid":2080,"Ġgener":2081,"Ġnominated":2082,"Ġexpl":2083,"don":2084,"Ġrole":2085,"comm":2086,"Ġmonth":2087,"Ġnon":2088,"Ġcop":2089,"start":2090,"Ġsocial":2091,"lands":2092,"Ġmer":2093,"rowspan":2094,"ey":2095,"ears":2096,"Ġcle":2097,"Ġcat":2098,"Ġcountries":2099,"Ġcy":2100,"31":2101,"Ġsil":2102,"Ġacadem":2103,"wiki":2104,"Ġinclude":2105,"ided":2106,"conom":2107,"Ġwrest":2108,"aving":2109,"Ġant":2110,"omb":2111,"Ġarmy":2112,"Ġfootnotes":2113,"Ġmillion":2114,"Ġgroups":2115,"Ġson":2116,"Ġjapanese":2117,"44":2118,"gest":2119,"cial":2120,"iod":2121,"Ġfield":2122,"ville":2123,"Ġchurch":2124,"Ġcrit":2125,"iter":2126,"Ġphys":2127,"Ġinformation":2128,"ror":2129,"ania":2130,"Ġext":2131,"ha":2132,"ki":2133,"Ġprote":2134,"alth":2135,"Ġtotal":2136,"ede":2137,"09":2138,"Ġscient":2139,"gy":2140,"Ġcontin":2141,"Ġsimple":2142,"Ġ2002":2143,"Ġver":2144,"Ġthose":2145,"Ġhy":2146,"Ġwritten":2147,"Ġarchive":2148,"Ġgiven":2149,"Ġwidth":2150,"coun":2151,"Ġiss":2152,"Ġactiv":2153,"ilt":2154,"Ġide":2155,"webs":2156,"Ġpoint":2157,"Ġstre":2158,"Ġreport":2159,"men":2160,"language":2161,";\">":2162,"Ġfile":2163,"url":2164,"Ġmatch":2165,"Ġlat":2166,"ival":2167,"Ġmark":2168,"her":2169,"Ġevent":2170,"Ġtur":2171,"Ġthird":2172,"ots":2173,"Ġhon":2174,"class":2175,"Ġmind":2176,"Ġmex":2177,"bor":2178,"Ġ*[":2179,"Ġtag":2180,"Ġswed":2181,"ittle":2182,"Ġspecies":2183,"Ġprom":2184,"Ġmerg":2185,"Ġtem":2186,"Ġput":2187,"Ġrece":2188,"cil":2189,"Ġpolitical":2190,"jan":2191,"Ġfam":2192,"Ġphp":2193,"Ġvict":2194,"view":2195,"06":2196,"Ġlog":2197,"ountain":2198,"ÑĢ":2199,"48":2200,"Ġwithout":2201,"Ġtemplates":2202,"Ġchange":2203,"Ġlocation":2204,"ips":2205,"ability":2206,"Ġoriginal":2207,"Ġmal":2208,"ming":2209,"Ġmilitary":2210,"Ġbox":2211,"razil":2212,"32":2213,"Ġ|'''":2214,"Ġrich":2215,"ffect":2216,"irl":2217,"anish":2218,"Ġstudio":2219,"Ġpaul":2220,"Ġdu":2221,"polit":2222,"rica":2223,"united":2224,"je":2225,"ids":2226,"Ġstation":2227,"Ġbay":2228,"Ġfew":2229,"Ġhuman":2230,"oviet":2231,"Ġcommunity":2232,"now":2233,"Ġ:''":2234,"Ġstory":2235,"pre":2236,"04":2237,"add":2238,"Ġfed":2239,"rank":2240,"Ġtake":2241,"Ġmot":2242,"Ġcapital":2243,"Ġlove":2244,"Ġflor":2245,"Ġ}|":2246,"itar":2247,"loc":2248,"Ġjack":2249,"olution":2250,"ournal":2251,"mb":2252,"Ġgovernor":2253,"Ġedits":2254,"Ġber":2255,"Ġ1999":2256,"Ġbooks":2257,"Ġeducation":2258,"Ġchart":2259,"Ġrelig":2260,"Ġprime":2261,"wor":2262,"Ġcivil":2263,"Ġfurther":2264,"Ġutc":2265,"icago":2266,"Ġmeans":2267,"term":2268,"Ġbill":2269,"ness":2270,"Ġlu":2271,"ude":2272,"Ġfather":2273,"keep":2274,"55":2275,"Ġclosed":2276,"Ġfrog":2277,"02":2278,"aim":2279,"oss":2280,"47":2281,"Ġrul":2282,"Ġbelie":2283,"Ġwestern":2284,"Ġbad":2285,"ying":2286,"Ġeconom":2287,"ured":2288,"Åį":2289,"vers":2290,"Ġque":2291,"Ġparts":2292,"english":2293,"'''</":2294,"ari":2295,"website":2296,"ves":2297,"leader":2298,"Ġcompet":2299,"Ġchina":2300,"Ġwent":2301,"aff":2302,"Ġplaces":2303,"Ġearth":2304,"Ġvis":2305,"Ġcond":2306,"green":2307,"Ġnat":2308,"Ġinf":2309,"Ġgreen":2310,"Ġmart":2311,"cle":2312,"Ġequ":2313,"Ġperiod":2314,"ometimes":2315,"ga":2316,"Ġpict":2317,"Ġwind":2318,"hist":2319,"96":2320,"03":2321,"Ġhall":2322,"Ġcer":2323,"rel":2324,"ams":2325,"Ġtour":2326,"Ġheart":2327,"Ġbegan":2328,"Ġread":2329,"leg":2330,"Ġcharacter":2331,"imate":2332,"ockey":2333,"Ġbgcolor":2334,"bc":2335,"Ġkore":2336,"Ġtechn":2337,"width":2338,"Ġblue":2339,"Ġworks":2340,"Ġmult":2341,"Ġrussian":2342,"anguages":2343,"Ġsources":2344,"],":2345,"Ġproject":2346,"Ñģ":2347,"Ð½":2348,"ily":2349,"Ġitaly":2350,"Ġtrack":2351,"57":2352,"Ġengine":2353,"Ġtv":2354,"Ġtest":2355,"eryears":2356,"Ġstar":2357,"rael":2358,"Ġsea":2359,"Ġbusiness":2360,"Ġrail":2361,"ization":2362,"Ġhard":2363,"aced":2364,"ised":2365,"100":2366,"iff":2367,"Ġdet":2368,"Ġjames":2369,"250":2370,"Ã¨":2371,"Ġscience":2372,"car":2373,"Ġgot":2374,"estab":2375,"Ġsuper":2376,"2021":2377,"Ġyoung":2378,"Ġfive":2379,"ctor":2380,"iety":2381,"Ġfem":2382,"Ġhen":2383,"ula":2384,"Ġsold":2385,"Ġ1990":2386,"Ġfunction":2387,"vert":2388,"Ġfont":2389,"Ġpreserved":2390,"Ġsaint":2391,"Ġcanadian":2392,"Ġze":2393,"Ġdivision":2394,"Ġcell":2395,"ways":2396,"Ġnorthern":2397,"description":2398,"lim":2399,"Ġspouse":2400,":''":2401,"xas":2402,"Ġreal":2403,"Ġeverything":2404,"anks":2405,"get":2406,"image":2407,"Ġalong":2408,"Ġfamous":2409,"ona":2410,"Ġsix":2411,"ny":2412,"tra":2413,"2017":2414,"akistan":2415,"Ġpress":2416,"Ġfeat":2417,"sm":2418,"oney":2419,"Ġgree":2420,"bre":2421,"Ġshows":2422,"stand":2423,"Ġmc":2424,"Ġmont":2425,"Ġtoo":2426,"cessor":2427,"tle":2428,"Ġbur":2429,"Ġorigin":2430,"Ġbecome":2431,"Ġangeles":2432,"rain":2433,"Ã¼r":2434,"utch":2435,"Ġturn":2436,"Ġden":2437,"ried":2438,"Ġearlier":2439,"ilar":2440,"Ġ},":2441,"ansas":2442,"Ġhockey":2443,"Ġnews":2444,"Ġsometimes":2445,"speople":2446,"Ġpresent":2447,"2019":2448,"Ġanimated":2449,"Ġsam":2450,"har":2451,"subdivision":2452,"Ġcit":2453,"56":2454,"Ġprofessional":2455,"cast":2456,"Ġ[|":2457,"Ġposs":2458,"Ġcomput":2459,"59":2460,"writer":2461,"pin":2462,"46":2463,"Ġ$":2464,"Ġtro":2465,"anch":2466,"Ġsent":2467,"2014":2468,"do":2469,"58":2470,"Ġfriend":2471,"atives":2472,"Ġterrit":2473,"has":2474,"Ġstop":2475,"Ġcouncil":2476,"77":2477,"postal":2478,"Ġspace":2479,"Ġbattle":2480,"ublican":2481,"reg":2482,"âĢĶ":2483,"Ġnames":2484,"Ġaustralian":2485,"Ġmountain":2486,"Ġ1998":2487,"Ġsecret":2488,"Ġconstit":2489,"ning":2490,"sing":2491,"Ġeuropean":2492,"news":2493,"Ġservice":2494,"Ġder":2495,"Ġlargest":2496,"Ġvoice":2497,"Ġfree":2498,"Ġafrica":2499,"gu":2500,"2018":2501,"Ġmic":2502,"ped":2503,"Ġfact":2504,"blue":2505,"Ġtook":2506,"sim":2507,"Ġartist":2508,"Ġour":2509,"box":2510,"Ġmur":2511,"Ġmaking":2512,"head":2513,"Ġempire":2514,"Ġnetwork":2515,"Ġlab":2516,"Ġcount":2517,"Ġheight":2518,"dem":2519,"Ġmedal":2520,"lam":2521,"ender":2522,"inese":2523,"hi":2524,"Ġcover":2525,"Ġmust":2526,"Ġlittle":2527,"urban":2528,"kn":2529,"Ġsun":2530,"Ġtrad":2531,"Ġbrazil":2532,"Ġdemocratic":2533,"Ġgeorge":2534,"mal":2535,"Ġadv":2536,"Ġroad":2537,"Ġhor":2538,"field":2539,"Ġlevel":2540,"Ġmedia":2541,"2011":2542,"49":2543,"sq":2544,"à¸":2545,"birth":2546,"ither":2547,"Ġ1996":2548,"Ġdev":2549,"Ġmodern":2550,"Ġfight":2551,"Ġtimezone":2552,"Ġfire":2553,"Ġhal":2554,"Ġra":2555,"ev":2556,"Ġcourt":2557,"eth":2558,"hy":2559,"edecessor":2560,"ublished":2561,"Ġsummer":2562,"wood":2563,"Ġanc":2564,"group":2565,"pes":2566,"Ġsqu":2567,"Ġlim":2568,"Ġroyal":2569,"gar":2570,"Ġcancer":2571,"'m":2572,"Ġarms":2573,"Ġ1997":2574,"aland":2575,"ris":2576,"itional":2577,"Ġothers":2578,"Ġexper":2579,"Ġve":2580,"Ġchem":2581,"Ġepisode":2582,"Ġlot":2583,"pa":2584,"Ġstage":2585,"Ġhot":2586,"Ġsound":2587,"fcfff":2588,"Ġthought":2589,"osp":2590,"ng":2591,"Ġborder":2592,"Ġtexas":2593,"Ġplan":2594,"earch":2595,"Ġlet":2596,"Ġview":2597,"Ġcame":2598,"Ġdavid":2599,"Ġ1980":2600,"Ġcase":2601,"Ġple":2602,"shire":2603,"ada":2604,"Ġfranc":2605,"Ġwash":2606,"book":2607,"Ġsimilar":2608,"\")":2609,"Ġfood":2610,"87":2611,"2016":2612,"Ġadministrator":2613,"Ġbroad":2614,"Ġrights":2615,"Ġjos":2616,"acy":2617,"ano":2618,"Ġevents":2619,"Ġbuilt":2620,"Ġstruct":2621,"reen":2622,"ĠÂ":2623,"Ġlouis":2624,"stead":2625,"olic":2626,"Ġsoviet":2627,"Ġpur":2628,"Ġconne":2629,"page":2630,"Ġconsider":2631,"à¤":2632,"ini":2633,"Ġtoge":2634,"rote":2635,"Ġjournal":2636,"Ġtogether":2637,"Ġmid":2638,"2015":2639,"Ġfif":2640,"Ġwhe":2641,"mark":2642,"bs":2643,"ances":2644,"Ġpet":2645,"ota":2646,"Ġgirl":2647,"Ġallow":2648,"1990":2649,"Ġmad":2650,"Ġlinks":2651,"please":2652,"},":2653,"Ġfail":2654,"antic":2655,"nor":2656,"Ġ1995":2657,"Ġchicago":2658,"li":2659,"ems":2660,"Ġnight":2661,"Ġoptions":2662,"ÑĤ":2663,"most":2664,"first":2665,"Ġannoun":2666,"ests":2667,"Ġliving":2668,"deaths":2669,"Ġseat":2670,"position":2671,"Ġmother":2672,"eum":2673,":'''":2674,"Ġaway":2675,"Ġhill":2676,"Ġparis":2677,"liam":2678,"pop":2679,"Ġassociation":2680,"rod":2681,"writers":2682,"uz":2683,"ita":2684,"Ġseen":2685,"Ġpublished":2686,"flu":2687,"Ġheld":2688,"Ġstadium":2689,"Ġfall":2690,"Ġet":2691,"Ġdiv":2692,"Ġ1992":2693,"stat":2694,"Ġlanguages":2695,"ols":2696,"Ġcir":2697,"hl":2698,"club":2699,"brit":2700,"Ġinstit":2701,"idence":2702,"Ġmoved":2703,"Ġpakistan":2704,"Ġ1994":2705,"Ġsports":2706,"ared":2707,"Ġrecords":2708,"Ġrap":2709,"Ġsection":2710,"Ġdone":2711,"Ġmem":2712,"2008":2713,"Ġjud":2714,"ogn":2715,"Ġnationality":2716,"Ġprim":2717,"yes":2718,"press":2719,"Ġpoliticians":2720,"Ġbackground":2721,"ators":2722,"raw":2723,"Ġradio":2724,"Ġspain":2725,"gian":2726,"ura":2727,"Ġmanageryears":2728,"mary":2729,"Ġfootballer":2730,"oon":2731,"ges":2732,"liament":2733,"Ġshouldn":2734,"Ġarr":2735,"Ġvirgin":2736,"Ġsant":2737,"Ġmight":2738,"ission":2739,"Ġcross":2740,"Ġasia":2741,"Ġless":2742,"yl":2743,"2006":2744,"2007":2745,"Ġip":2746,"98":2747,"Ġbetter":2748,"Ġmidd":2749,"itch":2750,"fect":2751,"Ġ1993":2752,"Ġresearch":2753,"ours":2754,"Ġben":2755,"Ġstars":2756,"nes":2757,"century":2758,"Ġspanish":2759,"sch":2760,"Ġtrue":2761,"Ġkilled":2762,"Ġaccord":2763,"Ġchanges":2764,"onym":2765,"Ġwithin":2766,"Ġbeh":2767,"2009":2768,"sk":2769,"Ġchann":2770,"Ġside":2771,"Ġmichael":2772,"Ġinstead":2773,"''''":2774,"ration":2775,"Ġbud":2776,"Ġsouthern":2777,"avy":2778,"Ġisrael":2779,"Ġwashington":2780,"Ġwrote":2781,"Ġdefe":2782,"bab":2783,"Ġdebut":2784,"acters":2785,"Ġmanagerclubs":2786,"pecial":2787,"leted":2788,"Ġfull":2789,"oper":2790,"Ġkar":2791,"95":2792,"Ġcarol":2793,"Ġphot":2794,"iple":2795,"Ġcath":2796,"ained":2797,"thumb":2798,"Ġalex":2799,"Ġthom":2800,"Ġresp":2801,"less":2802,"----------------":2803,"70":2804,"Ġcontrol":2805,"2013":2806,"ended":2807,"Ġindependent":2808,"board":2809,"commun":2810,"Ġfinal":2811,"actors":2812,"ference":2813,"aker":2814,"Ġprize":2815,"Ġfal":2816,"Ġaustria":2817,"ca":2818,"Ġproduction":2819,"2012":2820,"dist":2821,"rd":2822,"itzer":2823,"aun":2824,"ani":2825,"umn":2826,"ser":2827,"Ġdies":2828,"Ġforce":2829,"water":2830,"Ġparameter":2831,"Ġsite":2832,"Ġcensus":2833,"Ġeastern":2834,"Ġislands":2835,"Ġment":2836,"Ġcharacters":2837,"ification":2838,"pect":2839,"lad":2840,"Ġsex":2841,"2022":2842,"Ġdise":2843,"self":2844,"Ġtransl":2845,"Ġcoll":2846,"Ġpun":2847,"iana":2848,"Ġmexico":2849,"}}}":2850,"za":2851,"Ġbor":2852,"Ġ1970":2853,"alon":2854,"mont":2855,"Ġ1991":2856,"Ġenough":2857,"tv":2858,"Ġparliament":2859,"Ġbeg":2860,"Ġaction":2861,"ply":2862,"Ġmuseum":2863,"54":2864,"iro":2865,"aves":2866,"ortable":2867,"''':":2868,"Ġzealand":2869,"Ġcoach":2870,"Ġ00":2871,"Ġball":2872,"Ġeither":2873,"Ġchristian":2874,"Ġguitar":2875,"2005":2876,"Ġnote":2877,"tof":2878,">'''":2879,"Ġexec":2880,"black":2881,"value":2882,"roll":2883,"Ġsug":2884,"Ġfounded":2885,"']":2886,"icle":2887,"ux":2888,"Ġ\\":2889,"Ġrob":2890,"Ġrobert":2891,"rip":2892,"bu":2893,"wa":2894,"mad":2895,"Ġbecom":2896,"itions":2897,"Ġvillage":2898,"Ġfer":2899,"utes":2900,"Ġbuilding":2901,"iers":2902,"ado":2903,"acing":2904,"vir":2905,"Ġsubject":2906,"location":2907,"Ġmel":2908,"Ġfiled":2909,"note":2910,"Ġsomething":2911,"try":2912,"ffff":2913,"Ġ186":2914,"with":2915,"Ġmakes":2916,"Ġvan":2917,"Ġsource":2918,"ued":2919,"therlands":2920,"Ġmerging":2921,"Ġly":2922,"crib":2923,"Ġperform":2924,"Ġdam":2925,"Ġmess":2926,"edit":2927,"Ġscott":2928,"vin":2929,"Ġkind":2930,"Ġprocess":2931,"Ġworked":2932,"Ġhaving":2933,"Ġwil":2934,"Ġma":2935,"Ġserved":2936,"Ġwords":2937,"Ġround":2938,"Ġwin":2939,"anton":2940,"uf":2941,"Ġkey":2942,"arm":2943,"lv":2944,"Ġthough":2945,"Ġadded":2946,"Ġwood":2947,"Ġkh":2948,"75":2949,"Ġho":2950,"Ġaccording":2951,"Ġexp":2952,"Ġled":2953,"Ġdest":2954,"Ġmiddle":2955,"43":2956,"ibr":2957,"Ġ50":2958,"Ġdan":2959,"aries":2960,"Ġtable":2961,"2004":2962,"Ġmary":2963,"Ġarab":2964,"Ġhost":2965,"den":2966,"Ġpeter":2967,"rew":2968,"Ð¾Ð":2969,"Ġfrank":2970,"olf":2971,"Ġreview":2972,"Ġten":2973,"Ġ1989":2974,"Ġtor":2975,"Ġclaim":2976,"Ġcoordinates":2977,"Ġafr":2978,"Ġsport":2979,"oo":2980,"austr":2981,"ored":2982,"Ġtell":2983,"Ġchinese":2984,"Ġcov":2985,"Ġcongr":2986,"2001":2987,"ĠâĢľ":2988,"Ġham":2989,"Ġpattern":2990,"isl":2991,"Ġindustr":2992,"Ġjew":2993,"Ġelse":2994,"Ġcharles":2995,"Ġmos":2996,"Ġcoast":2997,"41":2998,"itan":2999,"ergy":3000,"light":3001,"anger":3002,"Ġ***":3003,"Ġunit":3004,"Ġusers":3005,"Ġice":3006,"âĢĿ":3007,"Ġcand":3008,"war":3009,"cities":3010,"Ġpaint":3011,"Ġfiction":3012,"Ġatl":3013,"known":3014,"Ġproblems":3015,"Ġrepl":3016,"ala":3017,")''":3018,"88":3019,"sa":3020,"Ġwiki":3021,"ream":3022,"Ġacademy":3023,"Ġpast":3024,"hol":3025,"ellow":3026,"42":3027,"Ġ1960":3028,"british":3029,"Ġchanged":3030,"ened":3031,"ett":3032,"Ġflorida":3033,"Ġtoday":3034,"Ġinstr":3035,"Ġnever":3036,"wards":3037,"uce":3038,"Ġvoc":3039,"Ġmovement":3040,"hip":3041,"thod":3042,"Ġstrong":3043,"Ġcaused":3044,"1999":3045,"Ġfish":3046,"Ġcities":3047,"mater":3048,"Ġstep":3049,"53":3050,"ense":3051,"Ġchief":3052,"Ġca":3053,"Ġepisodes":3054,"Ġhealth":3055,"Ġentertain":3056,"Ġspr":3057,"gypt":3058,"Ġaz":3059,"Ġask":3060,"Ġtrain":3061,"former":3062,"andal":3063,"Ġrussia":3064,"Ġproper":3065,"oria":3066,"iger":3067,"Ġlate":3068,"Ġsweden":3069,"Ġdig":3070,"ift":3071,"Ġnob":3072,"ye":3073,"Ġmarried":3074,"da":3075,"ios":3076,"Ġsepar":3077,"Ġafrican":3078,"Ġsuccessor":3079,"Ġlake":3080,"eder":3081,"Ġol":3082,"mayor":3083,"Ġtran":3084,"user":3085,"iated":3086,"agn":3087,"86":3088,"Ġpush":3089,"sur":3090,"Ġtom":3091,"89":3092,"number":3093,"Ġpolic":3094,"Ġeffect":3095,"atic":3096,"bel":3097,"retion":3098,"Ġcome":3099,"ote":3100,"Ġaff":3101,"Ġareas":3102,"Ġdescrib":3103,"Ġnick":3104,"Ġculture":3105,"Ġdark":3106,"2003":3107,"su":3108,"Ġalt":3109,"aper":3110,"Ġdead":3111,"dis":3112,"ador":3113,"Ġ1988":3114,"Ġ_":3115,"town":3116,"Ġsociety":3117,"Ġwhy":3118,"Ġeditor":3119,"dd":3120,"bar":3121,")''',":3122,"Ġgrow":3123,"aps":3124,"ram":3125,"Ø§":3126,"Ġsand":3127,"Ġox":3128,"Ġtrav":3129,"bon":3130,"ault":3131,"sen":3132,"inois":3133,"history":3134,"category":3135,"clop":3136,"border":3137,"flag":3138,"Ġemper":3139,"Ġdevelopment":3140,"Ġlost":3141,"93":3142,"olk":3143,"Ġlearn":3144,"Ġglob":3145,"''')":3146,"itzerland":3147,"Ġscreen":3148,"Ġinflu":3149,"ume":3150,"Ġweek":3151,"Ġrank":3152,"ware":3153,"Ġteams":3154,"rick":3155,"Ġchannel":3156,"Ġuses":3157,"Ġstreet":3158,"Ġsomeone":3159,"Ġbrown":3160,"Ġelected":3161,"prod":3162,"Ġdoc":3163,"Ġ1987":3164,"Ġlow":3165,"Ġut":3166,"Ġstarr":3167,"Ġdiscretion":3168,"pal":3169,"Ġrange":3170,"Ġnetherlands":3171,"Ġexist":3172,"Ġire":3173,"gb":3174,"Ġpan":3175,"ples":3176,"Ġcomb":3177,"cont":3178,"Ġextra":3179,"Ġmoney":3180,"jo":3181,"Ġliber":3182,"Ġcard":3183,"Ġpredecessor":3184,"simple":3185,"Ġhold":3186,"Ġok":3187,"Ġbreak":3188,"Ġcomputer":3189,"2002":3190,"Ġ'''<":3191,"Ġmix":3192,"Ġ09":3193,"politicians":3194,"see":3195,"point":3196,"posed":3197,"lor":3198,"Ġireland":3199,"Ġpolice":3200,"ops":3201,"Ġnovel":3202,"Ġwrestling":3203,"Ġgenre":3204,"Ġeth":3205,"Ġfemale":3206,"Ġcheck":3207,"Ġgive":3208,"Ġcomposer":3209,"ched":3210,"akes":3211,"ston":3212,"Ġvirginia":3213,"Ġforces":3214,"ola":3215,"|{{":3216,"Ġexecut":3217,"Ġsat":3218,"data":3219,"Ġrichard":3220,"plic":3221,"access":3222,"Ġos":3223,"Ġbank":3224,"cu":3225,"Ġboy":3226,"Ġwall":3227,"Ġfc":3228,"51":3229,"char":3230,"Ġ1986":3231,"Ġpoet":3232,"Ġrace":3233,"metro":3234,"Ġaccess":3235,"pose":3236,"john":3237,"Ġnotes":3238,"Ġfront":3239,"onom":3240,"use":3241,"Ġplease":3242,"craft":3243,"Ġvalue":3244,"Ġquest":3245,"Ġinvol":3246,"Ġteach":3247,"Ġgoing":3248,"gia":3249,"itect":3250,"Ġplat":3251,"52":3252,"Ġident":3253,"used":3254,"eland":3255,"ique":3256,"Ġrefer":3257,"Ġ1984":3258,"municip":3259,"itles":3260,"Ġiran":3261,"Ġlin":3262,"Ġkansas":3263,"97":3264,"Ġseats":3265,"Ġsele":3266,"Ġwoman":3267,"ja":3268,"ĠâĢ¢":3269,"Ã³n":3270,"Ġfrancis":3271,"Ġha":3272,"eree":3273,"ua":3274,"Ġmodel":3275,"Ġillinois":3276,"urt":3277,"Ġsays":3278,"Ġsize":3279,"chen":3280,"Ġincluded":3281,"Ġscientists":3282,"japan":3283,"Ġdisease":3284,"ko":3285,"Ġcho":3286,"Ġnatural":3287,"Ġannounced":3288,"ptalon":3289,"Ġgar":3290,"oma":3291,"song":3292,"Ġcatholic":3293,"Ġsymb":3294,"Ġhun":3295,"Ġstatist":3296,"Ġbow":3297,"Ġscot":3298,"##":3299,"ersey":3300,"scope":3301,"Ġmeet":3302,"Ġleast":3303,"vo":3304,"Ġairport":3305,"Ġcam":3306,"endance":3307,"300":3308,"Ġnum":3309,"Ġath":3310,"urs":3311,"german":3312,"Ġolympics":3313,"ographics":3314,"Ġcontent":3315,"Ġrepublican":3316,"Ġtreat":3317,"Ġaged":3318,"Ġdistr":3319,"Ġcreate":3320,"Ġ40":3321,"ready":3322,"cul":3323,"win":3324,"Ġonce":3325,"Ġswitzerland":3326,"airs":3327,"Ġdutch":3328,"ketball":3329,"Ġreceived":3330,"ional":3331,"anda":3332,"85":3333,"established":3334,"Ġbab":3335,"Ġpenn":3336,"Ġdisplay":3337,"Ġamong":3338,"Ġsolid":3339,"uments":3340,"serv":3341,"Ġliter":3342,"Ġhit":3343,"osoph":3344,"Ġfederal":3345,"pat":3346,"govern":3347,"iy":3348,"eme":3349,"Ġoce":3350,"icles":3351,"Ġlik":3352,"Ġgal":3353,"timezone":3354,"world":3355,"Ġ|}}":3356,"ological":3357,"colspan":3358,"Ġtim":3359,"eters":3360,"Ġ1979":3361,"Ġcarolina":3362,"Ġnative":3363,"Ġemperor":3364,"adian":3365,"Ġnationalteam":3366,"ella":3367,"ask":3368,"Ġancient":3369,"ament":3370,"ints":3371,"Ġgreek":3372,"ira":3373,"anies":3374,"awa":3375,"Ġ1983":3376,"Ġ1985":3377,"oul":3378,"Ġbal":3379,"bi":3380,"Ġwien":3381,"Ġrelease":3382,"templ":3383,"Ġcertain":3384,"Ġ1981":3385,"Ġmusician":3386,"Ġren":3387,"len":3388,"Ġ:::::":3389,"ughter":3390,"Ġworking":3391,"Ġlocated":3392,"di":3393,"zo":3394,"ube":3395,"Ġincludes":3396,"hemat":3397,"ounder":3398,"Ġram":3399,"Ġrecogn":3400,"obox":3401,"Ġegypt":3402,"ape":3403,"):":3404,"ria":3405,"Ġdyn":3406,"Ġbul":3407,"Ġconc":3408,"76":3409,"Ġdemographics":3410,"></":3411,"gg":3412,"yer":3413,"Ġdelete":3414,"ropical":3415,"Ġdou":3416,"ify":3417,"oms":3418,"Ġremov":3419,"Ã§":3420,"band":3421,"ima":3422,"hest":3423,"Ġexam":3424,"Ġtaken":3425,"uan":3426,"Ġnotability":3427,"names":3428,"Ġ1976":3429,"under":3430,"Ġprevious":3431,"Ġtenn":3432,"ublish":3433,"Ġsignature":3434,"Ġviol":3435,"Ġjer":3436,"Ð»":3437,"Ġprot":3438,"Ġpossible":3439,"Ġlower":3440,"Ġpictures":3441,"Ġsem":3442,"Ġsit":3443,"igan":3444,"Ġjersey":3445,"Ġven":3446,"Ġauto":3447,"Ġiv":3448,"Ġautom":3449,"coat":3450,"tar":3451,"Ġpen":3452,"arian":3453,"\">'''":3454,"Ġhttp":3455,"Ġterritory":3456,"Ġfut":3457,"sl":3458,"nam":3459,"Ġhosp":3460,"Ġweb":3461,"Ġfest":3462,"Ġable":3463,"Ġmusical":3464,"ho":3465,"Ġperfor":3466,"Ġquick":3467,"Ġproduced":3468,"Ġengineer":3469,"bro":3470,"like":3471,"Ġthomas":3472,"asso":3473,"mod":3474,"pet":3475,"91":3476,"Ġvarious":3477,"Ġalready":3478,"Ġintrod":3479,"apt":3480,"Ġrecorded":3481,"ged":3482,"heim":3483,"Ġhalf":3484,"Ġbat":3485,"Ġgun":3486,"Ġbird":3487,"string":3488,"Ġislam":3489,"Ġsus":3490,"Ġidea":3491,"Ġanimals":3492,"bill":3493,"ieved":3494,"ements":3495,"Ġmodule":3496,"Ġnationalyears":3497,"Ġhenry":3498,"stein":3499,"Ġmove":3500,"ĨĴ":3501,"eph":3502,"Ġiii":3503,"ugu":3504,"aligncenter":3505,"Ġhig":3506,"Ġboard":3507,"white":3508,"Ġwanted":3509,"down":3510,"onia":3511,"Ġqueen":3512,"81":3513,"Ġprince":3514,"Ġ1982":3515,"Ġcentre":3516,"Ġreally":3517,"weight":3518,"ination":3519,"Ġmater":3520,"requ":3521,"Ġground":3522,"eball":3523,"this":3524,"Ġwife":3525,"istry":3526,"Ġarchitect":3527,"Äģ":3528,"Ġcomment":3529,"Ġargent":3530,"pref":3531,"Ġbasketball":3532,"donald":3533,"Ġsoft":3534,"Ġ1950":3535,"js":3536,"roy":3537,"aign":3538,"Ġcomes":3539,"gl":3540,"Ġ*\"":3541,"Ġincre":3542,"ivid":3543,"Ġ1972":3544,"orf":3545,"Ðº":3546,"Ġfac":3547,"umbers":3548,"height":3549,"Ġ1975":3550,"osaur":3551,"Ġthr":3552,"Ġic":3553,"star":3554,"Ġcandid":3555,"Ġfeel":3556,"Ġimpro":3557,"era":3558,"1980":3559,"Ġfeature":3560,"Ġsecretary":3561,"Ġ2025":3562,"}}}|":3563,"')":3564,"agon":3565,"urrican":3566,"Ġpot":3567,"municipalities":3568,"ros":3569,"Ġukrain":3570,"Ġalways":3571,"Ġentertainment":3572,"Ġlee":3573,"Ġcd":3574,"Ġ1974":3575,"ero":3576,"rich":3577,"inning":3578,"oly":3579,"Ġclear":3580,"Ġcas":3581,"Ġwinners":3582,"Ġsyn":3583,"Ġphilosoph":3584,"aria":3585,"adu":3586,"ached":3587,"Ġbc":3588,"Ġenergy":3589,"Ġsmith":3590,"Ġhung":3591,"Ġplaying":3592,"Ġwp":3593,"Ġjun":3594,"va":3595,"Ġlives":3596,"pp":3597,"well":3598,"Ġbelieve":3599,"Ġmonths":3600,"Ġconsidered":3601,"Ġbroadcast":3602,"french":3603,"Ġpers":3604,"Ġnationalcaps":3605,"Ġta":3606,"Ġnationalgoals":3607,"ategories":3608,"jul":3609,"Ġdie":3610,"Ġfig":3611,"uced":3612,"Ġdeveloped":3613,"Ġtax":3614,"itte":3615,"Ġlived":3616,"Ġpromot":3617,"Ġalmost":3618,"bably":3619,"1998":3620,"Ġrecent":3621,"ji":3622,"face":3623,"Ġformed":3624,"1996":3625,"78":3626,"Ġperforman":3627,"ager":3628,"Ġsingles":3629,"mas":3630,"ively":3631,"Ġprison":3632,"umbia":3633,"Ġwatch":3634,"Ġhimself":3635,"Ġess":3636,"Ġtypes":3637,"Ġdoesn":3638,"Ġcurrently":3639,"Ġadvent":3640,"hr":3641,"Ġpushpin":3642,"bus":3643,"coordinates":3644,"cd":3645,"itive":3646,"Ġmathemat":3647,"iest":3648,"canadian":3649,"'ve":3650,"sylv":3651,"inct":3652,"Ġcongress":3653,"Ġbang":3654,"embly":3655,"Ġfalse":3656,"cel":3657,"94":3658,"Ġmeaning":3659,"Ġwriting":3660,"ette":3661,"Ġmu":3662,"Ġcrime":3663,"Ġneigh":3664,"Ġur":3665,"sych":3666,"ole":3667,"Ġalias":3668,"Ġretr":3669,"Ġdeleted":3670,"Ġcost":3671,"sportspeople":3672,"1997":3673,"Ġhom":3674,"aking":3675,"Ġdog":3676,"read":3677,"Ġobject":3678,"Ġ\"'''":3679,"ken":3680,"Ġkorea":3681,"Ġ1978":3682,"Ġpersonal":3683,"Ġsuggest":3684,"nic":3685,"Ġrh":3686,"Ġinterest":3687,"Ġalma":3688,"Ġactive":3689,"Ġnavy":3690,"Ġjoined":3691,"ummary":3692,"Ġdecl":3693,"Ġparameters":3694,"Ġinstitute":3695,"Ġservices":3696,"nov":3697,"Ġmostly":3698,"Ġjim":3699,"Ġmaterial":3700,"ĠâĨĴ":3701,"Ġchair":3702,"ĠĠ":3703,"&#":3704,"Ġ1977":3705,"ctions":3706,"Ġrevolution":3707,"Ġ1973":3708,"house":3709,"Ġavail":3710,"Ġcitiz":3711,"Ġ01":3712,"Ġprobably":3713,"Ġru":3714,"ali":3715,"ipl":3716,"bour":3717,"pecially":3718,"bb":3719,"Ġ1971":3720,"zech":3721,"Ġpain":3722,"Ġmagaz":3723,"Ġacross":3724,"Ġbrother":3725,"Ġfore":3726,"president":3727,"Ġnumbers":3728,"Ġunderstand":3729,"aka":3730,"Ġproblem":3731,"Ġoh":3732,"120":3733,"Ġsn":3734,"Ġreligion":3735,"1995":3736,"Ġmach":3737,"district":3738,"Ġassembly":3739,"aph":3740,"illa":3741,"Ġrepresentatives":3742,"Ġtransport":3743,"Ġmetal":3744,"yr":3745,"itude":3746,"Ġwriters":3747,"Ġtrib":3748,"books":3749,"wan":3750,"aven":3751,"Ġ08":3752,"Ġ02":3753,"Ġappeared":3754,"perial":3755,"Ġmultiple":3756,"Ġgave":3757,"Ġtree":3758,"iles":3759,"Ġbaseball":3760,");":3761,"Ġstandard":3762,"}}|":3763,"Ġbrand":3764,"Ġ1968":3765,"cal":3766,"ption":3767,"Ã±":3768,"Ġins":3769,"Ġ-->":3770,"etts":3771,"Ġpie":3772,"ondiss":3773,"Ġyes":3774,"Ġ1964":3775,"achus":3776,"Ġmartin":3777,"sylvania":3778,"din":3779,"owa":3780,"Ġlibr":3781,"Ġfix":3782,"kh":3783,"Ġheavy":3784,"Ġ80":3785,"Ġparents":3786,"Ġmedic":3787,"from":3788,"orpor":3789,"icular":3790,"ato":3791,"Ġcolon":3792,"Ġproduct":3793,"Ġcampaign":3794,"oke":3795,"cyclop":3796,"Ġsure":3797,"Ġpa":3798,"Ġwales":3799,"Ġbridge":3800,"Ġ1969":3801,"country":3802,"jsasso":3803,"Ġdraft":3804,"Ġpriv":3805,"82":3806,"Ġroll":3807,"Ġneeded":3808,"south":3809,"Ġgall":3810,"Ġjob":3811,"chester":3812,"Ġplant":3813,"ifican":3814,"auntof":3815,"ript":3816,"Ġvalley":3817,"Ġstudy":3818,"mo":3819,"mond":3820,"Ġmir":3821,"eld":3822,"Ġgh":3823,"viron":3824,"Ġcannot":3825,"Ġ1967":3826,"fd":3827,"Ġpay":3828,"wer":3829,"Ġstatus":3830,"rad":3831,"alignleft":3832,"sky":3833,"Ġ''''":3834,"eds":3835,"1991":3836,"Ġblood":3837,"Ġonline":3838,"Ġcause":3839,"Ġlegisl":3840,"ortsummary":3841,"Ġdom":3842,"Ġstorm":3843,"iano":3844,"sol":3845,"Ġshown":3846,"rey":3847,"Ġdisney":3848,"'''\"":3849,"Ġencyclop":3850,"achusetts":3851,"Ġplays":3852,"Ġkr":3853,"vi":3854,"inger":3855,"Ġface":3856,"Ġscotland":3857,"1994":3858,"Ġdocument":3859,"azz":3860,"cat":3861,"Ġpresidential":3862,"dy":3863,"Ġwalk":3864,"uation":3865,"log":3866,"Ġdaughter":3867,"Ġavailable":3868,"Ġfair":3869,"Ġmah":3870,"Ġshoot":3871,"uge":3872,"chan":3873,"isters":3874,"sort":3875,"1992":3876,"Ġjackson":3877,"orial":3878,"aged":3879,"Ġindivid":3880,"Ġaccount":3881,"Ġphilipp":3882,"Ġminutes":3883,"idae":3884,"Ġnavig":3885,"Ġcro":3886,"Ġwal":3887,"puty":3888,"Ġconstitution":3889,"Ġnar":3890,"à¦":3891,"ishop":3892,"Ġconserv":3893,"Ġaud":3894,"Ġsenate":3895,"Ġhospital":3896,"Ġtheat":3897,"Ġbiography":3898,"Ġhurrican":3899,"agen":3900,"Ġcorn":3901,"Ġsilver":3902,"Ġ(\"":3903,"92":3904,"ising":3905,"Ġexamples":3906,"Ġocean":3907,"Ġdefeated":3908,"Ġarm":3909,"etic":3910,"essor":3911,"Ġnations":3912,"Ġsortable":3913,"1970":3914,"Ġespecially":3915,"iga":3916,"Ġarts":3917,"Ñĥ":3918,"ottom":3919,"efcfff":3920,"hab":3921,"Ġvice":3922,"Ġleaders":3923,"aya":3924,"dec":3925,"atory":3926,"ati":3927,"Ġrailway":3928,"Ġlaun":3929,"Ġfuture":3930,"enced":3931,"83":3932,"Ġluc":3933,"Ġprefect":3934,"parent":3935,"Ġsurv":3936,"Ġtakes":3937,"Ġcab":3938,"season":3939,"empt":3940,"dark":3941,"Ġpennsylvania":3942,"ails":3943,"Ġthanks":3944,"Ġinvest":3945,"Ġpract":3946,"Ġ||":3947,"Ġlie":3948,"Ġwinter":3949,"Ġissue":3950,"''),":3951,"Ġgard":3952,"Ġcases":3953,"auth":3954,"Ġediting":3955,"Ġpolicy":3956,"law":3957,"spec":3958,"Ġpac":3959,"Ġretrieved":3960,"erb":3961,"stant":3962,"Ġwat":3963,"Ġdiff":3964,"ential":3965,"Ġformat":3966,"Ġneeds":3967,"1993":3968,"Ġimperial":3969,"Ġexecutive":3970,"Ġhighest":3971,"Ġcart":3972,"Ġresults":3973,"Ġwid":3974,"Ġhonor":3975,"Ġ06":3976,"Ġmethod":3977,"elling":3978,"Ġgeorgia":3979,"Ã´":3980,"Ġhaw":3981,"eg":3982,"nis":3983,"Ġconstr":3984,"inem":3985,"ila":3986,"Ġfestival":3987,"Ġoutside":3988,"Ġfourth":3989,"Ġ&#":3990,"Ġpdf":3991,"euro":3992,"asty":3993,"ores":3994,"Ġ1965":3995,"Ġ05":3996,"rh":3997,"Ġmassachusetts":3998,"Ġrain":3999,"Ġ60":4000,"Ġlatin":4001,"video":4002,"**":4003,"abeth":4004,"Ġredirect":4005,"Ġmicro":4006,"Ġcommitte":4007,"Ġinside":4008,"univers":4009,"watch":4010,"Ġaccept":4011,"Ġsuccessful":4012,"150":4013,"Ġ1966":4014,"gold":4015,"Ġplants":4016,"los":4017,"web":4018,"Ġfort":4019,"Ġflight":4020,"ropol":4021,"Ġsignifican":4022,"Ġcovid":4023,"tw":4024,"Ġfounder":4025,"Ġconnect":4026,"template":4027,"also":4028,"Ġfly":4029,"Ġelectric":4030,"Ġ03":4031,"2023":4032,"Ġnort":4033,"Ġbot":4034,"Ġeditors":4035,"Ġwild":4036,"Ġstudents":4037,"Ġ90":4038,"mann":4039,"Ġbern":4040,"akh":4041,"Ġgoes":4042,"Ġ75":4043,"ucle":4044,"Ġ1945":4045,";\">'''":4046,"iable":4047,"84":4048,"rect":4049,"Ġcut":4050,"reme":4051,"ques":4052,"Ġweight":4053,"Ġforeign":4054,"ouri":4055,"67":4056,"Ġsar":4057,"Ġdiscover":4058,"ova":4059,"Ġ07":4060,"Ġbecomes":4061,"Ġfa":4062,"Ġtowns":4063,"{{{":4064,"Ġ(;":4065,"ades":4066,"city":4067,"ora":4068,"vironment":4069,"Ġ04":4070,"ih":4071,"fil":4072,"Ġrules":4073,"Ġ1963":4074,"])":4075,"Ġparticular":4076,"Ġdoctor":4077,"Ġtry":4078,"Ġprem":4079,"Ġshr":4080,"bit":4081,"Ġcou":4082,"Ġcur":4083,"Ġself":4084,"Ġsearch":4085,"result":4086,"incess":4087,"rem":4088,"Ġvandal":4089,"mir":4090,"iding":4091,"Ġbass":4092,"Ġorganization":4093,"Ġ1961":4094,"Ġwars":4095},"merges":["Ġ t","Ġ a","e r","i n","h e","o n","o r","Ġ c","Ġ |","a t","Ġ s","a n","' '","Ġt he","e s","e n","i s","a r","a l","i t","Ġ b","Ġ p","Ġ w","Ġ m","Ġ o","e d","Ġ f","r e","l e","Ġ d","i c","Ġ in","a s","Ġo f","Ġa n","r o","i on","Ġ h","in g","Ġ n","Ġ 1","o u","Ġ *","at e","Ġan d","Ġ (","2 0","a m","Ġ l","en t","Ġ g","u s","'' '","Ġt o","t h","o l","i l","Ġt h","or y","o m","u n","e l","ate g","ateg ory","Ġc ategory","a c","Ġ re","Ġ is","Ġs t","Ġ e","o t","Ġ 20","a d","i g","s t","at ion","i d","i r","u r","u t","i v","i m","Ġ r","e t","a g","a y","c h","c t","Ġ1 9","e m","er s","o p","Ġ j","Ġ ''","is t","Ġ on","Ġf or","u l","Ġb e","Ġ k","Ġ v","o v","o w","es t","u m","Ġa l","Ġw as","Ġd e","Ġ it","an d","Ġa s","a p","} }","â Ģ","a b","Ġ \"","l y","Ġ he","Ġ '''","1 9","ro m","i an","c e","Ġc h","i a","o s","i es","b er","o d","h t","Ġ y","Ġc om","t er","ar t","u b","Ġs e","a v","i f","Ġ 2","Ġ un","âĢ ĵ","it h","Ġf rom","s p","Ġw h","Ġ| -","0 0","ou n","i p","Ġ or","it y","u p","Ġth at","es s","Ġb y","er e","o c","Ġa re","a in","Ġa t","p e","am e","Ġa r","a k","al l","Ġw ith","il l","Ġn e","l d","is h","s e","th er","Ġ20 1","ag e","Ġp ro","- -","Ġs h","i e","q u","Ġc on","' s","Ġ le","p l","i k","ig n","or t","ar y","Ġp l","ic an","Ġ ro","ig ht","ar d","t r","Ġp r","e ar","at h","sp an","Ġ us","Ġ en","m ent","an g","t e","Ġ20 0","f er","Ġth is","m er","Ġc l","v er","Ġn ot","an t","Ġ }}","ou r","e b","u d","f f","ol or","Ġt e","Ġ i","o g","iv e","Ġ !","c es","Ġt r","u g","Ġ &","ac k","at ed","em ber","ic h","y le","Ġ 3","r it","or d","t y","on g","i al","ut c","o st","p r","t he","at es","as h","or e","c l","Ġd is","op le","as s","Ġe x","as t","in e","on t","ac e","u c","u e","Ġst yle","en d","Ġp e","el l","m an","ation al","Ġs c","g e","Ġf r","Ġh is","Ġa b","al k","Ġc an","Ġm ar","n e","i z","av e","Ġm an","is ion","n d","o k","Ġm ov","ou ld","Ġw or","t ion","fer en","Ġa ct","w w","Ġo ther","le v","l and","c olor","Ġ :","d e","i b","op ul","r a","u re","s o","Ġ20 2","Ġa d","it e","Ġc oun","us t","i re","it ed","Ġne w","im e","er n","om e","Ġpe ople","Ġs p","ic al","Ġre feren","Ġa mer","o ot","Ġ -","< /","Ġ âĢĵ","Ġp art","Ġthe y","nd ash","id e","on e","ent er","Ġ1 8","an k","s h","Ġreferen ces",") ,","Ġm ay","um b","un d","Ġy ear","or n","ic e","p t","Ġ 4","ow n","Ġ [","Ġa f","ir th","opul ation","= \"","us s","Ġm e","or s","ou t","Ġh ave","\" |","Ġs er","Ġ19 9","\" >","ir st","al s","Ġb o","20 1","Ġpl ay","Ġb ut","Ġal so","Ġb l","Ġ #","Ġh as","p x","f t","/ /","Ġamer ican","ct ion","u ary","Ġar t","ad e","t alk","l ish","l es","in d","Ġ 0","ab le","he n","Ġde ath","Ġg o","od e","x t","Ġb irth","p er","20 0","on d","Ġ 5","Ġcom p","t p",": //","an s","en s","r ic","Ġp ar","Ġ ed","Ġbe c","Ġp ol","Ġon e","t o","am p","ac h","Ġwh ich","Ġ im","Ġdis c","i ed","Ġun ited","Ġal l","Ġf irst","eb s","an ce","ro w","Ġc ol","Ġst ates","ar e","Ġy ou","c c","ac t","ul t","a w","ht tp","Ġw ere","d er","Ġcom m","Ġs ub","in k","al ign","Ġen g","Ġs he","n ot","Ġ --","i o","Ġn ational","Ġa p","ou s","a us","Ġd o","f or","at er","Ġ 7","Ġth ere","n ame","Ġ 8","r y","Ġ 6","Ġp h","Ġh er","Ġaf ter","it le","a h","Ġ19 8","f ont","\" ,","Ġw ebs","Ġb r","it ion","u ch","Ġk n","Ġn or","Ġ }","p ort","re e","he d","o b","il d","Ġa g","1 8","c enter","Ġth umb","Ġm us","Ġw e","e p","Ġwh o","Ġf l","am er","Ġpr es","Ġt w","Ã ©","Ġ 9","Ġs ome","i le","ment s","am es","d ate","Ġthe ir","Ġm ade","Ġp er","iv ers","Ġp age","'' ,","ter n","Ġyear s","w e","al ly","Ġde c","Ġg r","Ġ if","w ard","Ġc ity","ic s","Ġ19 7","ak e","Ġin d","en ce","Ġab out","oun d","un e","19 9","Ġr es","ing s","Ġc o","e ct","ol d","Ġt ime","as e","Ġof f","k e","Ġm in","ro und","Ġdisc uss","id ent","Ġare a","is s","ic ian","er y","ou g","p ro","Ġ z","a il","b l","Ġp opulation","Ġ est","os e","Ġ* *","amer ican","o h","Ġ {","Ġ qu","Ġe v","Ġre l","c ess","1 0","lev ision","Ġw hen","g r","ro up",": :","Ġre g","ation s","ag es","ub l","Ġs ou","ic k","Ġc ap","ty pe","5 0","Ġart ic","Ġh ad","Ġs o","ik e","Ġs ing","ww w","Ġwor ld","t s","en g","Ġw ill","Ġre c","Ġbirth s","in ce","Ġ up","p h","Ġsh ould","Ġs pe","Ġp re","b all","Ġg en","ay s","Ġ19 6","Ġwor k","or k","Ġj an","iv ision","r ap","Ġte levision","Ġc ar","t on","Ġw ar","m s","not es","Ġs y","Ġf oot","pl ace","Ġit s","a z","Ġus ed","m in","Ġcon t","ent s","Ġn o","Ġ1 7","as on","Ġd r","i x","us tr","' t","ad er","as ed","op e","Ġn ov","Ġa m","w n","c k","i er","Ġdiscuss ion","Ġ1 0","Ġm ost","Ġc olor","ub s","er man","Ġser ies","Ġm ore","Ġt er","1 2","em pl","Ġw rit","ist s","o od","Ġn ame","y ear","Ġmov ies","s on","c he","Ġun ivers","Ġl oc","c ode","v e","Ġpol it","ov ern","Ġman y","Ġe le","p art","cl ud","Ġf e","u k","f r","Ġb el","p le","t itle","Ġc all","Ġg roup","r ight","Ġtw o","ire ct","it ies","aus e","Ġest ab","ang u","Ġe ar","ur r","Ġst ate","Ġs ch","Ġkn own","lev ation","in a","am il","Ġo ut","Ġjan uary","ou se","it es","Ġbe en","Ġse c","Ġe m","Ġo p","Ġj ul","ed ia","ig h","Ġg u","Ġ1 5","Ġc ent","Ġl ist","Ġte am","is hed","in t","Ġd ist","Ġ1 6","i el","a x","Ġcoun ty","Ġh ist","o f","Ġst r","o ber","Ġen d","Ġs ong","Ġc re",": #","t en","at a","Ġs uch","\" :","Ġd es","19 8","b o","ug ust","ol og","f oot","Ġpro d","Ġcoun tr","Ġs up","v ed","ers on","an n","Ġg re","rap h","um ber","Ġmov ie","at t","Ġin clud","d ivision","ion s","iz e","s c","ur n","-- --","Ġ19 4","Ġo ver","oc k","Ġeng lish","Ġw ik","an c","s s","Ġch ar","ct ober","r at","c om","ur ing","pt ember","Ġ1 2","og raph","Ġw ould","f l","a ir","Ġg overn","Ġb et","Ġth an","Ġa ward","Ġro w","iv ing","Ġon ly","a j","Ġmar ch","al e","Ġ '","st r","Ġp o","w ik","Ġal b","Ġh ow","Ġa ugust","Ġh t","c ap","in es","ur y","l l","Ġjul y","Ġin to","Ġl ike","u ro","Ġsou th","oug h","Ġk ing","Ġdeath s","te xt","ab el","1 1","b r","Ġcl ass","Ġ âĢ","p opulation","Ġk e","Ġsh ow","Ġnor th","Ġunivers ity","Ġa ustr","2 2","Ġg erman","en n","Ġ1 3","Ġf il","Ġthe n","g an","eb r","g o","Ġal ign","Ġ20 20","c o","ov e","Ġ1 4","Ġo ctober","Ġas s","sh ip","00 0","Ġed it","ap an","t ain","ol l","Ġcall ed","Ġse ptember","ar k","Ġs w","Ġdec ember","id d","on s","Ġre qu","1 7","Ġs im","in n","Ġnov ember","ebr uary","Ġst ud","Ġd irect","Ġbec ause","y s","foot notes","Ġc r","1 6","Ġt empl","Ġthe m","le t","Ġ19 5","Ġfoot ball","Ġwebs ites","Ġf ound","Ġj une","Ġartic le","19 7","oh n","Ġa pr","Ġm on","i et","a u","if e","iv er","b orn","c r","Ġb rit","3 0","Ġs m","Ġ <","Ġspe c","for m","ic t","Ġa cc","Ġapr il","Ġrow span","> <","'' '''","Ġpart y","Ġpro v","ist er","v el","Ġpres ident","r en","in s","al t","pr es","i um","Ġc al","Ġus e","Ġa ir","2 1","o ol","is m","Ġan y","a i","Ġb u","Ġb ro","Ġd uring","ic ip","Ġr ight","Ġf ebruary","i am","Ġd if","angu age","1 5","Ġalb um","Ġa c","en c","Ġb ar","Ġm at","Ġ el","er al","ang e","Ġw est","Ġwebs ite","m y","w ay","amil y","le ft","am a","ar g","Ġg e","Ġfor m","Ġun der","Ġht m","ubl ic","c ol","ric t","Ġad d","im es","1 3","in al","Ġch ild","Ġre t","Ġs a","le y","Ġat t","Ġe ver","1 4","ic a","Ġde f","Ġd em","o ther","o ff","Ġh im","Ġn umber","Ġm ed","el y","m e","''' ,","Ġmus ic","Ġthe se","Ġle ader","Ġy ork","Ġpolit ician","Ġ202 1","g round","i ent","Ġc he","Ġp erson","Ġwh ere","Ġsc ope","Ġm od","al ian","Ġoff ic","Ġ200 9","f ore","c on","i ous","Ġm ain","Ġ rom","ug h","Ġre le","em b","al ity","Ġj apan","ie w","Ġ19 3","Ġh igh","et er","b e","Ġt y","Ġman ag","Ġst art","j ect","Ġhe l","Ġhist ory","Ġcountr y","urr ent","Ġar ch","Ġsub division","Ġg et","Ġb ack","Ġm y","Ġreg ion","2 3","Ġfr ance","19 6","ur es","g color","2 4","Ġr ed","ar s","es e","Ġ1 1","at ive","th ing","Ġs et","Ġch amp","Ġag ain","ow er","un icip","ur g","p os","em ent","Ġm et","Ġb est","Ġrec ord","we en","Ġrequ est","at ure","iv es","le te","u ct","is e","Ġj ohn","Ġ201 0","Ġl o","p ar","Ġg ames","Ġe uro","Ġ200 8","Ġj ust","b ack","Ġsec ond","Ġl a","Ġ u","Ġbet ween","Ã ¼","Ġbrit ish","en ch","Ġact ors","om in","Ġre p","ath er","Ġin tern","ul l","Ġp os","iel d","k m","Ġv al","Ġcon s","Ġin ter","lish ments","it al","u al","Ġre m","Ġbec ame","Ġp ost","Ġd ied","on y","ag ue","http s","w h","v en","m a","Ġl ong","Ġto wn","e levation","er g","ut ion","it t","Ġp ages","l ished","Ġ202 2","v ent","ar ch","ar r","pres ent","2 5","ov er","{ {","u ally","r ist","Ġc urrent","Ġ'' '''","Ġv ery","Ġsch ool","k y","Ġbo ok","Ġ* ''","it s","c ent","Ġm ake","2 6","Ġad min","Ġgo als","am ed","at ing","Ġl ink","Ġbe fore","ot t","Ġb as","Ġ201 1","if ic","Ġwh at","Ġdif fer","a e","are a","at s","ip edia","un g","Ġ2 1","Ġm il","Ġs oc","Ġim age","Ġ2 2","} |","Ġdist rict","r ess","Ġhtm l","Ġd on","s et","m p","t ot","Ġbe ing","Ġ2 3","Ġdiffer ent","Ġan im","Ġw om","Ġs l","e c","; \"","ro ugh","Ġplay er","Ġo cc","Ġgovern ment","Ġchamp ion","an y","Ġs ame","i en","ro p","ne w","st em","Ġe p","Ġne ed","Ġever y","Ġ201 7","Ġi i","Ġ20 19","Ġt itle","Ġcan ad","}} }}","Ġth ree","Ġcomm un","Ġchild ren","at or","Ġ2 5","Ġ| }","l iving","Ġse e","Ġ ir","Ġl ife","Ġs ince","od y","Ġele ct","oll ow","\" ]","Ã ¡","Ġl ater","Ġ| ''","t il","Ġrel ated","ro ss","Ġs ign","Ġcol le","Ġ201 8","Ġeuro pe","st it","Ġap pro","Ġestab lishments","tot al","Ġ201 4","b y","Ġcl ubs","'' )","ut e","m idd","Ġoffic ial","Ġ( ''","Ġtempl ate","Ġ202 4","olog y","Ġg l","ess ion","ap p","8 0","f o","Ġde part","el f","Ġor ig","Ġw ell","Ġter m","Ġan g","year s","a f","Ġhel p","i ate","Ġprod uc","Ġth rough","Ġr iver","ber t","Ġl aw","ir d","Ġis land","Ġact or","ain t","k s","Ġf ollow","w rit","al d","Ġp at","Ġg ame","Ġ201 2","d om","id th","Ġ{ |","r es","Ġo ld","Ġto p","Ġh ouse","Ġ x","ort s","cl ubs","Ã ¶","Ġse ason","Ġ2 4","Ġm unicip","g er","Ġd ay","Ġ201 5","Ġ3 0","ide o","Ġj o","19 4","de ath","Ġl anguage","r al","Ġre v","p g","Ġ er","9 9","Ġt alk","Ġsy stem","l ist","c er","Ġ201 3","Ġpro f","r i","Ġ201 6","\" #","Ġle ague","re t","re f","Ġn ow","Ġc or","an a","Ġtr ans","e ver","c ed","Ġl ast","y n","Ġ202 3","midd ot","ur al","Ġrele ased","Ġun til","Ġ200 7","et s","ne y","Ġs ur","3 3","p end","Ġd id","ograph y","Ġro ck","f ul","Ġfor mer","Ġr un","n er","eng th","us h","if orn","go als","in o","ant s","Ġdepart ment","b le","Ġc ould","Ġd ata","Ġdo es","Ġloc al","en e","Ġgo od","2 7","st e","uc cess","u th","Ġintern ational","Ġplay ed","l o","Ġl and","el s","iforn ia","Ġser v","Ġph il","Ġm ak","ord er","2 8","ther n","Ġle g","r ed","Ġth ink","Ġd ate","9 0","Ġc are","Ġr uss","Ġbl ank","Ġap pe","Ġo b","Ġm ember","amp le","Ġ ,","Ġf our","Ġfr ench","Ġf amily","Ġwik ipedia","Ġcap s","Ġw on","Ġpl ace","ac tion","Ġs ol","h am","Ġfil m","Ġh ere","at ch","g re","Ġv ot","it able","ed y","Ġ2 6","ke y","âĢ Ļ","l ing","Ġo wn","m ov","Ġwh ile","an e","u ction","Ġst e","Ġestab lished","Ġw ay","Ġin v","Ġcal ifornia","r est","Ġsong s","al ia","Ġeng land","Ġsm all","b urg","Ġan n","ib le","Ġc ode","er v","s y","Ġb and","Ġl abel","Ġte xt","op h","Ġs our","Ġa ge","st er","Ġwrit er","Ġb orn","s ub","2 9","19 5","Ġcl ose","d ay","Ġj e","Ġking dom","te am","il le","back ground","Ġch rist","---- ----","Ġm iss","Ġb ased","Ġm ill","Ġw ord","Ġm ap","Ġch ang","Ġne ar","pl ay","Ġ Ð","o x","Ġ: ::","Ġpro gr","Ġa ut","il ity","m ar","Ġbo th","t ime","Ġartic les","b gcolor","Ġ2 7","l a","Ġp ort","Ġh ar","iz ed","l ine","ian s","ond on","u es","z e","Ġchampion ship","Ġs k","Ġsa id","vel op","Ġk ill","Ġv ers","Ġe levation","Ġcent ury","al y","e x","Ġ200 6","w ork","Ġf in","Ġsing er","Ġn omin","is on","Ġst at","i ation","g en","Ġin c","Ġret urn","ens ity","iv ed","Ġ-- --","Ġh um","Ġre ason","qu ent","Ġv ar","oun t","wik itable","Ġmin ister","o y","Ġact ress","Ġplay ers","enc y","m ed","Ġus er","Ġ: :","Ġw ater","s ize","ac es","=\" #","Ġle ft","ĠâĢ Ķ","ar a","Ġor gan","aj or","Ġ2 8","Ġagain st","Ġprov ince","v al","Ġab ove","Ġor g","bl ank","Ġcom ments","Ġcl ub","p ol","emb ers","Ġgerman y","Ġj pg","ir ed","Ġsup port","Ġge or","Ġb us","Ġb re","Ġs u","Ġde velop","pe ople","qu e","n a","Ġgre at","Ġrom an","4 0","our n","Ġ ;","Ġe ach","Ġin t","pr iate","Ġ uk","Ġe ast","Ġwom en","Ġgen eral","Ġhow ever","i ence","in fo","ul ar","Ġhe ad","Ġn amed","Ġ* '''","Ġt ak","z one","Ġep is","Ġd el","Ġ es","Ġke ep","Ġa v","che s","Ġd ays","Ġo per","Ġs uccess","Ġlo ok","Ġadmin ist","Ġv ideo","Ġof ten","Ġm o","ist an","Ġl ine","Ġc up","Ġappro priate","Ġy our","cr ip","Ġd ue","Ġear ly","Ġm ag","Ġt re","a ul","se c","ic o","Ã Ń","Ġar g","l abel","r on","d es","Ġp ass","ie f","3 5","Ġinclud ing","Ġex ample","Ġbl ack","Ġin de","ow s","l er","Ġle ad","Ð °","Ġl ondon","Ġev en","Ġ Ċ","w est","e e","Ġb i","Ġ2 9","u le","Ġh ome","Ġs en","cap s","k et","n o","Ġc our","Ġa round","id er","ag o","m ap","Ġim port","Ġocc up","Ġ /","he s","oc rat","Ġpar k","Ã ³","in c","se quent","Ġsing le","Ġne xt","Ġv ol","m ay","f c","Ġe as","Ġs v","ra z","Ġcre ated","al es","Ġs um","on es","off set","Ġcl os","Ġw ant","d ensity","Ġl ar","ician s","de lete","om et","Ġsub sequent","Ġan other","k a","Ġt imes","Ġus ing","Ġbu ild","Ġind ia","Ġv o","Ġse ver","or ies","Ġn et","201 0","Ġ200 5","Ġcomm on","Ġprogr am","ord in","3 6","od es","c an","Ġfl ag","Ġmunicip ality","p or","p ut","n ational","s up","Ġaward s","e le","Ġc enter","Ġd own","ug ht","Ġp op","Ġl os","Ġrep ublic","ou th","ff f","Ġpar am","Ġdes ign","Ġ1 00","Ġpost al","t ing","mov ies","f ord","Ġm ajor","; \"|","ip p","th ough","Ġcomp any","Ġw inn","ic tion","Ġass oc","sp ort","m i","row n","m on","Ġn av","Ġv i","Ġ200 4","Ġappe ar","ad y","l in","st yle","Ġ ent","b a","Ġstart ed","uc k","Ġcol span","ct ed","Ġp ublic","Ġgr and","a ut","it ary","ur ch","Ġsh ort","Ġf ar","it z","Ġ â","Ġs an","Ġa uth","d st","Ġh ol","ur b","ad em","Ġm uch","ing ton","i or","part y","6 0","l ed","le x","Ġaustr alia","Ġc amp","20 20","Ġcare er","f a","Ġsever al","en a","crip tion","Ġed uc","Ġp opul","Ġb ig","Ġmay or","Ġp al","Ġor der","oug ht","Ð ¾","Ġr ad","Ġind ian","Ġf un","ain s","Ġ )","p s","att le","' ,","Ġp ower","i as","Ġoff ice","Ġele ction","a ur","Ġamer ica","Ġkn ow","Ġmanag er","Ġal though","s ide","Ġop en","m at","0 1","h an","3 7","3 4","3 9","Ġl ive","ra ft","sp e","iv en","g in","Ġl arg","Ġst ill","um ent","Ġwh ite","Ġatt ack","er t","le tion","th ers","Ġst and","Ġv ill","Ġcomp os","Ġcom edy","Ġm ich","Ġto t","Ġpre v","Ġty pe","Ġb ody","Ġg old","Ġnot able","Ġ20 00","Ġl ength","Ġre present","Ġv ir","Ġ[ \"","Ġspec ial","es h","id a","t op","p ost","Ġre f","p o","Ġy oun","Ġc ult","Ġoccup ation","Ġres ult","Ġdr ama","Ġm or","f e","Ġwill iam","Ġadminist rat","in ter","s w","ro g","Ġfollow ing","Ġbel ow","Ġalbum s","l ink","Ġ +","am b","00 00","Ġun ion","Ġauth or","ro l","form ation","Ġear l","Ġus ually","ar n","Ġl i","Ġ3 1","Ġdirect or","ac ter","Ġimport ant","as ter","Ġang el","Ġme an","ordin ates","Ġ ill","y a","Ġd av","Ġ enter","m us","ic es","i j","Ġcon tr","Ġpro ble","ocrat ic","ce pt","Ġm ax","Ð µ","Ġ200 1","a el","Ġm ass","e k","Ġo ly","Ġs ay","Ð ¸","a a","ch n","m et","Ġf ind","Ġd a","ad ium","Ġoly mp","d f","Ġcent ral","Ġit alian","ber g","or m","Ã ¤","Ġm embers","Ġdirect ed","Ġc aus","in ed","Ġvers ion","i i","Ġinde pend","Ġm ac","Ġde letion","Ġl ou","0 8","Ġsv g","Ġs al","al ities","t a","Ġl ight","Ġf ur","Ġth ings","Ġpos ition","Ġr est","st ate","Ġpopul ar","Ġhist or","Ġf re","ical ly","and er","3 8","Ġproduc er","act ive","Ġlar ge","Ġc ast","i end","Ġk m","Ġ( )","iv il","u el","0 5","Ġbl ock","d r","20 00","c y","Ġop tion","f amily","Ġcolle ge","Ġg od","i us","um p","he l","Ġse ven","Ġde b","Ġem p","Ġvot e","er ved","ib ut","is c","Ġ200 3","ard s","6 6","Ġyou th","Ġcon f","Ġd i","id es","id ge","0 7","cap tion","Ġ q","ens us","y al","if ied","Ġh and","Ġcanad a","Ġm en","4 5","as es","t t","Ġh app","Ġprof ession","Ġcomm une","in ess","Ġ id","Ġgen er","Ġnomin ated","Ġex pl","d on","Ġro le","com m","Ġmon th","Ġn on","Ġc op","st art","Ġsoc ial","land s","Ġm er","row span","e y","ear s","Ġc le","Ġc at","Ġcountr ies","Ġc y","3 1","Ġs il","Ġac adem","wik i","Ġinclud e","id ed","con om","Ġw rest","av ing","Ġan t","om b","Ġar my","Ġfoot notes","Ġmill ion","Ġgroup s","Ġs on","Ġjapan ese","4 4","g est","c ial","i od","Ġf ield","v ille","Ġch urch","Ġc rit","it er","Ġph ys","Ġin formation","r or","an ia","Ġex t","h a","k i","Ġpro te","al th","Ġtot al","ed e","0 9","Ġsc ient","g y","Ġcont in","Ġsim ple","Ġ200 2","Ġv er","Ġth ose","Ġh y","Ġwrit ten","Ġarch ive","Ġg iven","Ġw idth","c oun","Ġis s","Ġact iv","il t","Ġ ide","w ebs","Ġpo int","Ġst re","Ġre port","m en","l anguage","; \">","Ġf ile","ur l","Ġmat ch","Ġl at","iv al","Ġmar k","h er","Ġev ent","Ġt ur","Ġth ird","ot s","Ġh on","cl ass","Ġm ind","Ġme x","b or","Ġ* [","Ġt ag","Ġsw ed","itt le","Ġspec ies","Ġp rom","Ġm erg","Ġt em","Ġp ut","Ġre ce","c il","Ġpolit ical","j an","Ġf am","Ġph p","Ġv ict","v iew","0 6","Ġl og","oun tain","Ñ Ģ","4 8","Ġwith out","Ġtempl ates","Ġch ange","Ġloc ation","ip s","ab ility","Ġorig inal","Ġm al","m ing","Ġmil itary","Ġbo x","raz il","3 2","Ġ| '''","Ġr ich","ff ect","ir l","an ish","Ġstud io","Ġp aul","Ġd u","pol it","ric a","un ited","j e","id s","Ġst ation","Ġb ay","Ġfe w","Ġhum an","ov iet","Ġcommun ity","n ow","Ġ: ''","Ġst ory","p re","0 4","ad d","Ġf ed","r ank","Ġt ake","Ġm ot","Ġcap ital","Ġl ove","Ġfl or","Ġ} |","it ar","l oc","Ġj ack","ol ution","ourn al","m b","Ġgovern or","Ġedit s","Ġb er","Ġ199 9","Ġbook s","Ġeduc ation","Ġch art","Ġrel ig","Ġpr ime","w or","Ġc ivil","Ġfur ther","Ġ utc","ic ago","Ġme ans","ter m","Ġb ill","n ess","Ġl u","ud e","Ġf ather","ke ep","5 5","Ġclos ed","Ġf rog","0 2","a im","os s","4 7","Ġr ul","Ġbel ie","Ġwest ern","Ġb ad","y ing","Ġe conom","ur ed","Å į","v ers","Ġqu e","Ġpart s","eng lish","''' </","ar i","webs ite","v es","le ader","Ġcomp et","Ġch ina","Ġw ent","a ff","Ġpl aces","Ġear th","Ġv is","Ġcon d","gre en","Ġn at","Ġin f","Ġgre en","Ġm art","c le","Ġe qu","Ġper iod","omet imes","g a","Ġp ict","Ġw ind","h ist","9 6","0 3","Ġh all","Ġc er","re l","am s","Ġt our","Ġhe art","Ġbe gan","Ġre ad","le g","Ġchar acter","im ate","oc key","Ġb gcolor","b c","Ġk ore","Ġte chn","w idth","Ġbl ue","Ġwork s","Ġm ult","Ġruss ian","angu ages","Ġsour ces","] ,","Ġpro ject","Ñ ģ","Ð ½","il y","Ġit aly","Ġtr ack","5 7","Ġeng ine","Ġt v","Ġt est","ery ears","Ġst ar","ra el","Ġse a","Ġbus iness","Ġr ail","iz ation","Ġh ard","ac ed","is ed","1 00","if f","Ġd et","Ġj ames","2 50","Ã ¨","Ġsc ience","c ar","Ġg ot","est ab","Ġsup er","20 21","Ġyoun g","Ġf ive","ct or","iet y","Ġf em","Ġhe n","ul a","Ġs old","Ġ199 0","Ġfun ction","ver t","Ġf ont","Ġpres erved","Ġs aint","Ġcanad ian","Ġz e","Ġd ivision","Ġc ell","w ays","Ġnor thern","des cription","l im","Ġsp ouse",": ''","x as","Ġre al","Ġevery thing","ank s","g et","im age","Ġal ong","Ġfam ous","on a","Ġs ix","n y","tr a","201 7","ak istan","Ġpr ess","Ġfe at","s m","one y","Ġg ree","b re","Ġshow s","st and","Ġm c","Ġm ont","Ġto o","cess or","t le","Ġb ur","Ġorig in","Ġbec ome","Ġangel es","r ain","Ã¼ r","ut ch","Ġt urn","Ġd en","r ied","Ġearl ier","il ar","Ġ} ,","ans as","Ġh ockey","Ġnew s","Ġs ometimes","spe ople","Ġpres ent","20 19","Ġanim ated","Ġs am","h ar","sub division","Ġc it","5 6","Ġprofession al","c ast","Ġ[ |","Ġpos s","Ġcomp ut","5 9","writ er","p in","4 6","Ġ $","Ġt ro","an ch","Ġs ent","201 4","d o","5 8","Ġfr iend","at ives","Ġter rit","h as","Ġst op","Ġcoun cil","7 7","post al","Ġsp ace","Ġb attle","ubl ican","re g","âĢ Ķ","Ġn ames","Ġaustr alian","Ġm ountain","Ġ199 8","Ġsec ret","Ġcon stit","n ing","s ing","Ġeurope an","new s","Ġserv ice","Ġd er","Ġlarg est","Ġvo ice","Ġf ree","Ġaf rica","g u","201 8","Ġm ic","p ed","Ġf act","bl ue","Ġto ok","s im","Ġart ist","Ġo ur","bo x","Ġm ur","Ġmak ing","he ad","Ġemp ire","Ġnet work","Ġl ab","Ġcoun t","Ġhe ight","d em","Ġmed al","l am","end er","ines e","h i","Ġc over","Ġm ust","Ġl ittle","urb an","k n","Ġs un","Ġtr ad","Ġb razil","Ġdem ocratic","Ġgeor ge","m al","Ġad v","Ġro ad","Ġh or","f ield","Ġle vel","Ġm edia","201 1","4 9","s q","à ¸","b irth","ith er","Ġ199 6","Ġde v","Ġmod ern","Ġf ight","Ġtime zone","Ġf ire","Ġh al","Ġr a","e v","Ġcour t","e th","h y","ede cessor","ubl ished","Ġsum mer","w ood","Ġan c","g roup","p es","Ġs qu","Ġl im","Ġro yal","g ar","Ġcan cer","' m","Ġar ms","Ġ199 7","al and","r is","ition al","Ġo thers","Ġex per","Ġv e","Ġche m","Ġepis ode","Ġl ot","p a","Ġst age","Ġh ot","Ġs ound","fc fff","Ġth ought","os p","n g","Ġb order","Ġte xas","Ġpl an","ear ch","Ġle t","Ġv iew","Ġc ame","Ġdav id","Ġ198 0","Ġc ase","Ġp le","sh ire","ad a","Ġfr anc","Ġwas h","bo ok","Ġsim ilar","\" )","Ġf ood","8 7","201 6","Ġadministrat or","Ġbro ad","Ġright s","Ġj os","ac y","an o","Ġev ents","Ġbu ilt","Ġstr uct","re en","Ġ Â","Ġlou is","ste ad","ol ic","Ġs oviet","Ġp ur","Ġcon ne","p age","Ġcons ider","à ¤","in i","Ġto ge","ro te","Ġj ournal","Ġtoge ther","Ġm id","201 5","Ġf if","Ġw he","m ark","b s","an ces","Ġp et","ot a","Ġg irl","Ġall ow","199 0","Ġm ad","Ġlink s","ple ase","} ,","Ġf ail","ant ic","n or","Ġ199 5","Ġch icago","l i","em s","Ġn ight","Ġoption s","Ñ Ĥ","m ost","f irst","Ġann oun","est s","Ġl iving","death s","Ġse at","pos ition","Ġm other","e um",": '''","Ġa way","Ġh ill","Ġpar is","l iam","p op","Ġassoc iation","ro d","writ ers","u z","it a","Ġse en","Ġp ublished","fl u","Ġhe ld","Ġst adium","Ġf all","Ġe t","Ġd iv","Ġ199 2","st at","Ġl anguages","ol s","Ġc ir","h l","cl ub","b rit","Ġin stit","id ence","Ġmov ed","Ġp akistan","Ġ199 4","Ġsp orts","ar ed","Ġrecord s","Ġr ap","Ġse ction","Ġd one","Ġm em","200 8","Ġj ud","og n","Ġnational ity","Ġpr im","y es","pr ess","Ġpolitician s","Ġback ground","at ors","ra w","Ġrad io","Ġsp ain","g ian","ur a","Ġmanag eryears","m ary","Ġfootball er","o on","g es","liam ent","Ġshould n","Ġar r","Ġvir gin","Ġs ant","Ġm ight","iss ion","Ġc ross","Ġas ia","Ġl ess","y l","200 6","200 7","Ġ ip","9 8","Ġbet ter","Ġm idd","it ch","f ect","Ġ199 3","Ġres earch","our s","Ġb en","Ġst ars","n es","cent ury","Ġsp anish","s ch","Ġtr ue","Ġkill ed","Ġacc ord","Ġchang es","ony m","Ġwith in","Ġbe h","200 9","s k","Ġch ann","Ġs ide","Ġmich ael","Ġin stead","'' ''","r ation","Ġb ud","Ġsou thern","av y","Ġis rael","Ġwash ington","Ġw rote","Ġdef e","b ab","Ġdeb ut","act ers","Ġmanager clubs","pe cial","let ed","Ġf ull","op er","Ġk ar","9 5","Ġcar ol","Ġph ot","ip le","Ġc ath","ain ed","th umb","Ġa lex","Ġth om","Ġres p","l ess","-------- --------","7 0","Ġcont rol","201 3","end ed","Ġindepend ent","bo ard","comm un","Ġf inal","act ors","feren ce","ak er","Ġpr ize","Ġf al","Ġaustr ia","c a","Ġprod uction","201 2","d ist","r d","itz er","a un","an i","um n","s er","Ġd ies","Ġfor ce","w ater","Ġparam eter","Ġs ite","Ġc ensus","Ġeas tern","Ġisland s","Ġm ent","Ġchar acters","ific ation","pe ct","l ad","Ġse x","20 22","Ġdis e","s elf","Ġtrans l","Ġcol l","Ġp un","ian a","Ġmex ico","}} }","z a","Ġb or","Ġ197 0","al on","m ont","Ġ199 1","Ġen ough","t v","Ġpar liament","Ġbe g","Ġact ion","p ly","Ġmus eum","5 4","i ro","av es","ort able","''' :","Ġze aland","Ġco ach","Ġ 00","Ġb all","Ġe ither","Ġchrist ian","Ġgu itar","200 5","Ġnot e","to f","> '''","Ġex ec","bl ack","val ue","ro ll","Ġs ug","Ġfound ed","' ]","ic le","u x","Ġ \\","Ġro b","Ġro bert","r ip","b u","w a","m ad","Ġbec om","ition s","Ġvill age","Ġf er","ut es","Ġbuild ing","i ers","ad o","ac ing","v ir","Ġsub ject","loc ation","Ġm el","Ġfil ed","not e","Ġsome thing","tr y","ff ff","Ġ18 6","w ith","Ġmak es","Ġv an","Ġsour ce","u ed","ther lands","Ġmerg ing","Ġl y","cr ib","Ġper form","Ġd am","Ġm ess","ed it","Ġsc ott","v in","Ġk ind","Ġpro cess","Ġwork ed","Ġh aving","Ġw il","Ġm a","Ġser ved","Ġword s","Ġro und","Ġw in","ant on","u f","Ġke y","ar m","l v","Ġth ough","Ġadd ed","Ġw ood","Ġk h","7 5","Ġh o","Ġaccord ing","Ġex p","Ġl ed","Ġd est","Ġmidd le","4 3","ib r","Ġ5 0","Ġd an","ar ies","Ġt able","200 4","Ġm ary","Ġar ab","Ġh ost","d en","Ġp eter","re w","Ð¾ Ð","Ġfr ank","ol f","Ġrev iew","Ġt en","Ġ198 9","Ġt or","Ġcl aim","Ġco ordinates","Ġaf r","Ġsp ort","o o","aus tr","or ed","Ġt ell","Ġch inese","Ġc ov","Ġcon gr","200 1","ĠâĢ ľ","Ġh am","Ġpat tern","is l","Ġind ustr","Ġje w","Ġel se","Ġchar les","Ġm os","Ġco ast","4 1","it an","erg y","l ight","ang er","Ġ** *","Ġun it","Ġus ers","Ġ ice","âĢ Ŀ","Ġc and","w ar","c ities","Ġp aint","Ġf iction","Ġat l","kn own","Ġproble ms","Ġre pl","al a",") ''","8 8","s a","Ġwik i","re am","Ġacadem y","Ġp ast","h ol","ell ow","4 2","Ġ196 0","brit ish","Ġchang ed","en ed","et t","Ġflor ida","Ġto day","Ġin str","Ġne ver","ward s","u ce","Ġv oc","Ġmov ement","h ip","th od","Ġstr ong","Ġcaus ed","199 9","Ġf ish","Ġc ities","m ater","Ġst ep","5 3","en se","Ġch ief","Ġc a","Ġepis odes","Ġhe alth","Ġenter tain","Ġs pr","gy pt","Ġa z","Ġas k","Ġtr ain","for mer","and al","Ġruss ia","Ġpro per","or ia","ig er","Ġl ate","Ġswed en","Ġd ig","if t","Ġn ob","y e","Ġmar ried","d a","i os","Ġse par","Ġafr ican","Ġsuccess or","Ġl ake","ed er","Ġo l","may or","Ġtr an","us er","i ated","ag n","8 6","Ġp ush","s ur","Ġto m","8 9","n umber","Ġpol ic","Ġe ffect","at ic","b el","re tion","Ġcom e","ot e","Ġa ff","Ġare as","Ġdes crib","Ġn ick","Ġcult ure","Ġd ark","200 3","s u","Ġal t","ap er","Ġde ad","d is","ad or","Ġ198 8","Ġ _","t own","Ġsoc iety","Ġwh y","Ġedit or","d d","b ar",") ''',","Ġg row","ap s","r am","Ø §","Ġs and","Ġo x","Ġtr av","b on","a ult","s en","ino is","hist ory","c ategory","cl op","b order","fl ag","Ġem per","Ġdevelop ment","Ġl ost","9 3","ol k","Ġle arn","Ġgl ob","''' )","itzer land","Ġsc reen","Ġin flu","um e","Ġwe ek","Ġr ank","w are","Ġteam s","ric k","Ġchann el","Ġus es","Ġstre et","Ġsome one","Ġb rown","Ġelect ed","pro d","Ġd oc","Ġ198 7","Ġl ow","Ġ ut","Ġst arr","Ġdisc retion","p al","Ġr ange","Ġne therlands","Ġex ist","Ġi re","g b","Ġp an","pl es","Ġcom b","c ont","Ġex tra","Ġm oney","j o","Ġli ber","Ġc ard","Ġpr edecessor","sim ple","Ġh old","Ġo k","Ġbre ak","Ġcomput er","200 2","Ġ''' <","Ġm ix","Ġ0 9","polit icians","se e","po int","pos ed","l or","Ġire land","Ġpol ice","op s","Ġnov el","Ġwrest ling","Ġgen re","Ġe th","Ġfem ale","Ġche ck","Ġg ive","Ġcompos er","c hed","ak es","st on","Ġvirgin ia","Ġfor ces","ol a","| {{","Ġexec ut","Ġs at","d ata","Ġrich ard","pl ic","ac cess","Ġo s","Ġb ank","c u","Ġbo y","Ġw all","Ġf c","5 1","ch ar","Ġ198 6","Ġpo et","Ġr ace","met ro","Ġacc ess","p ose","j ohn","Ġnot es","Ġfr ont","on om","us e","Ġple ase","c raft","Ġval ue","Ġqu est","Ġinv ol","Ġte ach","Ġgo ing","g ia","ite ct","Ġpl at","5 2","Ġ ident","us ed","el and","i que","Ġre fer","Ġ198 4","m unicip","it les","Ġir an","Ġl in","Ġk ansas","9 7","Ġse ats","Ġse le","Ġwom an","j a","ĠâĢ ¢","Ã³ n","Ġfranc is","Ġh a","ere e","u a","Ġmod el","Ġill inois","ur t","Ġs ays","Ġs ize","c hen","Ġinclud ed","Ġscient ists","j apan","Ġdise ase","k o","Ġch o","Ġnat ural","Ġannoun ced","pt alon","Ġg ar","om a","s ong","Ġcath olic","Ġsy mb","Ġh un","Ġstat ist","Ġb ow","Ġsc ot","# #","ers ey","sc ope","Ġme et","Ġle ast","v o","Ġair port","Ġc am","end ance","3 00","Ġn um","Ġa th","ur s","g erman","Ġolymp ics","ograph ics","Ġcont ent","Ġrep ublican","Ġtre at","Ġag ed","Ġdist r","Ġcre ate","Ġ4 0","re ady","c ul","w in","Ġon ce","Ġsw itzerland","air s","Ġd utch","ket ball","Ġrece ived","ion al","and a","8 5","estab lished","Ġb ab","Ġp enn","Ġdis play","Ġam ong","Ġsol id","um ents","s erv","Ġl iter","Ġh it","os oph","Ġfed eral","p at","g overn","i y","em e","Ġo ce","ic les","Ġl ik","Ġg al","time zone","wor ld","Ġ| }}","olog ical","col span","Ġt im","et ers","Ġ197 9","Ġcarol ina","Ġn ative","Ġemper or","ad ian","Ġnational team","ell a","as k","Ġanc ient","am ent","in ts","Ġgree k","ir a","an ies","aw a","Ġ198 3","Ġ198 5","ou l","Ġb al","b i","Ġw ien","Ġrele ase","t empl","Ġcer tain","Ġ198 1","Ġmus ician","Ġr en","l en","Ġ::: ::","ught er","Ġwork ing","Ġloc ated","d i","z o","ub e","Ġinclud es","he mat","oun der","Ġr am","Ġrec ogn","ob ox","Ġe gypt","ap e",") :","r ia","Ġd yn","Ġb ul","Ġcon c","7 6","Ġdem ographics","> </","g g","y er","Ġde lete","rop ical","Ġd ou","if y","om s","Ġrem ov","Ã §","b and","im a","he st","Ġex am","Ġtak en","u an","Ġnot ability","n ames","Ġ197 6","und er","Ġprev ious","Ġt enn","ub lish","Ġsign ature","Ġvi ol","Ġj er","Ð »","Ġpro t","Ġposs ible","Ġl ower","Ġpict ures","Ġs em","Ġs it","ig an","Ġj ersey","Ġv en","Ġaut o","Ġ iv","Ġaut om","co at","t ar","Ġp en","ar ian","\"> '''","Ġht tp","Ġterrit ory","Ġf ut","s l","n am","Ġh osp","Ġw eb","Ġf est","Ġab le","Ġmus ical","h o","Ġper for","Ġqu ick","Ġproduc ed","Ġengine er","b ro","l ike","Ġthom as","ass o","m od","p et","9 1","Ġvar ious","Ġal ready","Ġint rod","ap t","Ġrecord ed","g ed","he im","Ġhal f","Ġb at","Ġg un","Ġb ird","str ing","Ġis lam","Ġs us","Ġide a","Ġanim als","b ill","ie ved","em ents","Ġmod ule","Ġnational years","Ġhen ry","ste in","Ġmov e","Ĩ Ĵ","ep h","Ġii i","ug u","align center","Ġh ig","Ġbo ard","wh ite","Ġwant ed","d own","on ia","Ġque en","8 1","Ġpr ince","Ġ198 2","Ġcent re","Ġre ally","we ight","in ation","Ġm ater","re qu","Ġg round","eb all","th is","Ġw ife","ist ry","Ġarch itect","Ä ģ","Ġcom ment","Ġarg ent","p ref","Ġbas ketball","don ald","Ġso ft","Ġ19 50","j s","ro y","a ign","Ġcom es","g l","Ġ* \"","Ġinc re","iv id","Ġ197 2","or f","Ð º","Ġf ac","umb ers","he ight","Ġ197 5","os aur","Ġth r","Ġ ic","st ar","Ġcand id","Ġfe el","Ġim pro","er a","198 0","Ġfe ature","Ġsecret ary","Ġ202 5","}} }|","' )","ag on","urr ican","Ġp ot","municip alities","ro s","Ġuk rain","Ġal ways","Ġentertain ment","Ġle e","Ġc d","Ġ197 4","er o","r ich","inn ing","ol y","Ġcle ar","Ġc as","Ġwinn ers","Ġsy n","Ġphil osoph","ar ia","ad u","ac hed","Ġb c","Ġen ergy","Ġsm ith","Ġh ung","Ġplay ing","Ġw p","Ġj un","v a","Ġl ives","p p","w ell","Ġbelie ve","Ġmonth s","Ġconsider ed","Ġbroad cast","fr ench","Ġp ers","Ġnational caps","Ġt a","Ġnational goals","ateg ories","j ul","Ġd ie","Ġf ig","uc ed","Ġdevelop ed","Ġt ax","it te","Ġl ived","Ġprom ot","Ġal most","bab ly","199 8","Ġrec ent","j i","f ace","Ġform ed","199 6","7 8","Ġperfor man","ag er","Ġsing les","m as","iv ely","Ġpr ison","umb ia","Ġw atch","Ġhim self","Ġ ess","Ġty pes","Ġdoes n","Ġcurrent ly","Ġad vent","h r","Ġpush pin","b us","co ordinates","c d","it ive","Ġmat hemat","i est","can adian","' ve","sy lv","in ct","Ġcongr ess","Ġb ang","emb ly","Ġfal se","c el","9 4","Ġmean ing","Ġwrit ing","et te","Ġm u","Ġcr ime","Ġne igh","Ġ ur","sy ch","o le","Ġal ias","Ġre tr","Ġde leted","Ġc ost","sport speople","199 7","Ġh om","ak ing","Ġd og","re ad","Ġob ject","Ġ\" '''","k en","Ġkore a","Ġ197 8","Ġperson al","Ġsug gest","n ic","Ġr h","Ġinter est","Ġal ma","Ġact ive","Ġnav y","Ġjo ined","um mary","Ġde cl","Ġparam eters","Ġinstit ute","Ġserv ices","n ov","Ġmost ly","Ġj im","Ġmater ial","Ġâ ĨĴ","Ġch air","Ġ Ġ","& #","Ġ197 7","ction s","Ġrev olution","Ġ197 3","h ouse","Ġav ail","Ġcit iz","Ġ0 1","Ġpro bably","Ġr u","al i","ip l","b our","pecial ly","b b","Ġ197 1","ze ch","Ġp ain","Ġmag az","Ġac ross","Ġbro ther","Ġfor e","pres ident","Ġn umbers","Ġunder stand","ak a","Ġproble m","Ġo h","1 20","Ġs n","Ġrelig ion","199 5","Ġm ach","dist rict","Ġass embly","ap h","ill a","Ġrepresent atives","Ġtran sport","Ġmet al","y r","it ude","Ġwrit ers","Ġtr ib","book s","w an","av en","Ġ0 8","Ġ0 2","Ġappear ed","per ial","Ġmult iple","Ġg ave","Ġt ree","il es","Ġbas eball",") ;","Ġstand ard","}} |","Ġbr and","Ġ196 8","c al","p tion","Ã ±","Ġin s","Ġ-- >","et ts","Ġp ie","ond iss","Ġy es","Ġ196 4","ach us","Ġmart in","sylv ania","d in","ow a","Ġl ibr","Ġf ix","k h","Ġhe avy","Ġ8 0","Ġpar ents","Ġmed ic","f rom","or por","ic ular","at o","Ġcol on","Ġprod uct","Ġcamp aign","ok e","cy clop","Ġs ure","Ġp a","Ġw ales","Ġbr idge","Ġ196 9","coun try","js asso","Ġd raft","Ġpr iv","8 2","Ġro ll","Ġneed ed","s outh","Ġg all","Ġj ob","che ster","Ġpl ant","if ican","aun tof","rip t","Ġval ley","Ġstud y","m o","m ond","Ġm ir","el d","Ġg h","vir on","Ġcan not","Ġ196 7","f d","Ġp ay","w er","Ġstat us","r ad","align left","s ky","Ġ'' ''","ed s","199 1","Ġbl ood","Ġon line","Ġc ause","Ġleg isl","orts ummary","Ġd om","Ġst orm","ian o","s ol","Ġsh own","re y","Ġdis ney","''' \"","Ġen cyclop","achus etts","Ġplay s","Ġk r","v i","ing er","Ġf ace","Ġscot land","199 4","Ġdoc ument","az z","c at","Ġpresident ial","d y","Ġw alk","u ation","l og","Ġda ughter","Ġavail able","Ġf air","Ġm ah","Ġsh oot","ug e","ch an","ist ers","s ort","199 2","Ġjack son","or ial","ag ed","Ġind ivid","Ġacc ount","Ġphil ipp","Ġmin utes","id ae","Ġnav ig","Ġc ro","Ġw al","put y","Ġconstit ution","Ġn ar","à ¦","ish op","Ġcons erv","Ġa ud","Ġsen ate","Ġhosp ital","Ġthe at","Ġbi ography","Ġh urrican","ag en","Ġc orn","Ġsil ver","Ġ( \"","9 2","is ing","Ġexam ples","Ġoce an","Ġdefe ated","Ġar m","et ic","ess or","Ġn ations","Ġs ortable","197 0","Ġes pecially","ig a","Ġart s","Ñ ĥ","ott om","e fcfff","h ab","Ġv ice","Ġlead ers","ay a","de c","at ory","at i","Ġrail way","Ġla un","Ġfut ure","enc ed","8 3","Ġl uc","Ġpre fect","par ent","Ġsur v","Ġtak es","Ġc ab","se ason","em pt","d ark","Ġpenn sylvania","ail s","Ġth anks","Ġinv est","Ġpr act","Ġ| |","Ġl ie","Ġw inter","Ġiss ue","'' ),","Ġg ard","Ġc ases","au th","Ġedit ing","Ġpolic y","l aw","sp ec","Ġp ac","Ġretr ieved","er b","st ant","Ġw at","Ġdif f","ent ial","Ġform at","Ġneed s","199 3","Ġim perial","Ġexecut ive","Ġhig hest","Ġc art","Ġresult s","Ġw id","Ġhon or","Ġ0 6","Ġme thod","ell ing","Ġgeor gia","Ã ´","Ġh aw","e g","n is","Ġcon str","in em","il a","Ġfest ival","Ġout side","Ġfour th","Ġ& #","Ġp df","e uro","as ty","or es","Ġ196 5","Ġ0 5","r h","Ġmass achusetts","Ġr ain","Ġ6 0","Ġlat in","v ideo","* *","ab eth","Ġred irect","Ġmic ro","Ġcomm itte","Ġin side","un ivers","w atch","Ġac cept","Ġsuccess ful","1 50","Ġ196 6","g old","Ġpl ants","l os","w eb","Ġfor t","Ġfl ight","rop ol","Ġsign ifican","Ġcov id","t w","Ġf ounder","Ġconne ct","templ ate","al so","Ġf ly","Ġelect ric","Ġ0 3","20 23","Ġn ort","Ġb ot","Ġedit ors","Ġw ild","Ġstud ents","Ġ9 0","man n","Ġb ern","ak h","Ġgo es","Ġ7 5","uc le","Ġ194 5",";\"> '''","i able","8 4","re ct","Ġc ut","re me","qu es","Ġwe ight","Ġfore ign","our i","6 7","Ġs ar","Ġdisc over","ov a","Ġ0 7","Ġbecom es","Ġf a","Ġtown s","{{ {","Ġ( ;","ad es","c ity","or a","viron ment","Ġ0 4","i h","f il","Ġrul es","Ġ196 3","] )","Ġpart icular","Ġdo ctor","Ġtr y","Ġpre m","Ġsh r","b it","Ġc ou","Ġc ur","Ġs elf","Ġse arch","res ult","in cess","re m","Ġv andal","m ir","id ing","Ġb ass","Ġorgan ization","Ġ196 1","Ġwar s"]}}