{"version":"1.0","truncation":null,"padding":null,"added_tokens":[{"id":0,"content":"<PAD>","single_word":false,"lstrip":false,"rstrip":false,"normalized":false,"special":true},{"id":1,"content":"<BOS>","single_word":false,"lstrip":false,"rstrip":false,"normalized":false,"special":true},{"id":2,"content":"<EOS>","single_word":false,"lstrip":false,"rstrip":false,"normalized":false,"special":true},{"id":3,"content":"<UNK>","single_word":false,"lstrip":false,"rstrip":false,"normalized":false,"special":true},{"id":4,"content":"{","single_word":false,"lstrip":false,"rstrip":false,"normalized":false,"special":true},{"id":5,"content":"}","single_word":false,"lstrip":false,"rstrip":false,"normalized":false,"special":true},{"id":6,"content":"[","single_word":false,"lstrip":false,"rstrip":false,"normalized":false,"special":true},{"id":7,"content":"]","single_word":false,"lstrip":false,"rstrip":false,"normalized":false,"special":true},{"id":8,"content":":","single_word":false,"lstrip":false,"rstrip":false,"normalized":false,"special":true},{"id":9,"content":",","single_word":false,"lstrip":false,"rstrip":false,"normalized":false,"special":true},{"id":10,"content":"\"","single_word":false,"lstrip":false,"rstrip":false,"normalized":false,"special":true},{"id":11,"content":"\n","single_word":false,"lstrip":false,"rstrip":false,"normalized":false,"special":true}],"normalizer":{"type":"Sequence","normalizers":[{"type":"NFC"},{"type":"Lowercase"}]},"pre_tokenizer":{"type":"ByteLevel","add_prefix_space":true,"trim_offsets":true,"use_regex":true},"post_processor":{"type":"TemplateProcessing","single":[{"SpecialToken":{"id":"<BOS>","type_id":0}},{"Sequence":{"id":"A","type_id":0}},{"SpecialToken":{"id":"<EOS>","type_id":0}}],"pair":[{"SpecialToken":{"id":"<BOS>","type_id":0}},{"Sequence":{"id":"A","type_id":0}},{"SpecialToken":{"id":"<EOS>","type_id":0}},{"Sequence":{"id":"B","type_id":1}},{"SpecialToken":{"id":"<EOS>","type_id":1}}],"special_tokens":{"<BOS>":{"id":"<BOS>","ids":[1],"tokens":["<BOS>"]},"<EOS>":{"id":"<EOS>","ids":[2],"tokens":["<EOS>"]}}},"decoder":{"type":"ByteLevel","add_prefix_space":true,"trim_offsets":true,"use_regex":true},"model":{"type":"BPE","dropout":null,"unk_token":null,"continuing_subword_prefix":null,"end_of_word_suffix":null,"fuse_unk":false,"byte_fallback":false,"ignore_merges":false,"vocab":{"<PAD>":0,"<BOS>":1,"<EOS>":2,"<UNK>":3,"{":4,"}":5,"[":6,"]":7,":":8,",":9,"\"":10,"\n":11,"!":12,"#":13,"&":14,"'":15,"(":16,")":17,"*":18,"+":19,"-":20,".":21,"/":22,"0":23,"1":24,"2":25,"3":26,"4":27,"5":28,"6":29,"7":30,"8":31,"9":32,";":33,"<":34,"=":35,">":36,"?":37,"@":38,"_":39,"a":40,"b":41,"c":42,"d":43,"e":44,"f":45,"g":46,"h":47,"i":48,"j":49,"k":50,"l":51,"m":52,"n":53,"o":54,"p":55,"q":56,"r":57,"s":58,"t":59,"u":60,"v":61,"w":62,"x":63,"y":64,"z":65,"¢":66,"§":67,"©":68,"¬":69,"°":70,"±":71,"Â":72,"Ã":73,"Ë":74,"â":75,"ï":76,"Ċ":77,"Ġ":78,"Ģ":79,"ģ":80,"Ĥ":81,"ĵ":82,"Ķ":83,"ĺ":84,"Ļ":85,"ļ":86,"ľ":87,"Ŀ":88,"ł":89,"Ġt":90,"Ġa":91,"he":92,"in":93,"Ġs":94,"Ġthe":95,"Ġo":96,"re":97,"Ġw":98,"Ġi":99,"Ġb":100,"nd":101,"er":102,"ou":103,"Ġc":104,"Ġf":105,"at":106,"ing":107,"Ġp":108,"Ġm":109,"Ġto":110,"le":111,"Ġth":112,"Ġe":113,"Ġand":114,"Ġh":115,"Ġd":116,"on":117,"Ġin":118,"or":119,"es":120,"Ġof":121,"an":122,"Ġy":123,"it":124,"ar":125,"ll":126,"Ġis":127,"Ġyou":128,"ed":129,"Ġl":130,"Ġn":131,"en":132,"Ġbe":133,"ro":134,"Ġg":135,"ot":136,"al":137,"st":138,"ve":139,"Ġit":140,"Ġon":141,"ow":142,"Ġst":143,"Ġu":144,"Ġre":145,"ic":146,"as":147,"Ġor":148,"ac":149,"et":150,"ut":151,"ion":152,"id":153,"om":154,"ith":155,"se":156,"Ġfor":157,"Ġwith":158,"gh":159,"Ġare":160,"oo":161,"Ġthat":162,"âĢ":163,"ay":164,"ly":165,"Ġfi":166,"Ġha":167,"Ġyour":168,"ur":169,"Ġwh":170,"ld":171,"her":172,"ke":173,"Ġr":174,"ill":175,"Ġan":176,"is":177,"Ġcan":178,"ch":179,"im":180,"Ġle":181,"Ġas":182,"ent":183,"ct":184,"ver":185,"Ġsh":186,"Ġhe":187,"ap":188,"ter":189,"Ġnot":190,"ad":191,"Ġsp":192,"ide":193,"Ġmo":194,"ght":195,"all":196,"ce":197,"rou":198,"il":199,"Ġwill":200,"Ġwhe":201,"am":202,"ood":203,"ge":204,"Ġne":205,"ir":206,"rom":207,"Ġse":208,"ight":209,"ain":210,"Ġat":211,"Ġsu":212,"Ġpl":213,"ater":214,"th":215,"Ġfrom":216,"Ġwe":217,"Ġif":218,"nt":219,"ble":220,"ss":221,"Ġde":222,"qu":223,"Ġhave":224,"Ġso":225,"ks":226,"ri":227,"Ġone":228,"Ġdo":229,"Ġco":230,"Ġpo":231,"Ġen":232,"ation":233,"Ġli":234,"Ġcon":235,"Ġdi":236,"ther":237,"Ġal":238,"ome":239,"Ġpro":240,"Ġwhen":241,"Ġex":242,"Ġout":243,"ak":244,"um":245,"Ġ(":246,"ers":247,"ard":248,"Ġv":249,"Ġall":250,"ake":251,"pp":252,"Ġwor":253,"Ġk":254,"ick":255,"od":256,"Ġme":257,"ul":258,"Ġtr":259,"ind":260,"ure":261,"Ġfe":262,"ace":263,"Ġother":264,"Ġpre":265,"ate":266,"ess":267,"Ġcom":268,"Ġch":269,"Ġwhat":270,"Ġro":271,"Ġbut":272,"Ġby":273,"Ġint":274,"Ġcl":275,"Ġup":276,"Ġus":277,"br":278,"ft":279,"ould":280,"ant":281,"ep":282,"ust":283,"Ġdr":284,"Ġshe":285,"Ġwater":286,"ves":287,"ĠâĢ":288,"one":289,"Ġab":290,"and":291,"Ġfl":292,"Ġthem":293,"ack":294,"us":295,"ck":296,"âĢĻ":297,"ong":298,"Ġsur":299,"round":300,"out":301,"ie":302,"Ġlo":303,"Ġtw":304,"Ġthis":305,"Ġj":306,"ive":307,"ple":308,"Ġthey":309,"art":310,"are":311,"ff":312,"Ġte":313,"Ġsome":314,"Ġshel":315,"ast":316,"Ġ1":317,"Ġhand":318,"Ġho":319,"un":320,"ile":321,"Ġmore":322,"ally":323,"che":324,"Ġtim":325,"Ġad":326,"iv":327,"Ġ/":328,"Ġinto":329,"Ġneed":330,"Ġ<":331,"Ġ/>":332,"ass":333,"our":334,"Ġsm":335,"ree":336,"est":337,"now":338,"hing":339,"ort":340,"Ġshelter":341,"Ġpe":342,"ect":343,"ine":344,"ough":345,"mp":346,"Ġbu":347,"int":348,"ild":349,"reat":350,"ore":351,"ook":352,"Ġstr":353,"Ġmake":354,"able":355,"Ġmy":356,"Ġover":357,"Ġlea":358,"ound":359,"Ġthan":360,"ving":361,"Ġbl":362,"row":363,"Ġrem":364,"Ġtwo":365,"age":366,"ark":367,"own":368,"Ġtime":369,"Ġbr":370,"Ġev":371,"ches":372,"Ġbec":373,"Ġuse":374,"ich":375,"Ġshould":376,"Ġany":377,"Ġwood":378,"Ġmay":379,"Ġend":380,"Ġlike":381,"au":382,"Ġtoo":383,"ig":384,"ue":385,"ial":386,"ip":387,"red":388,"Ġman":389,"Ġno":390,"Ġcont":391,"Ġdown":392,"Ġwork":393,"ather":394,"Ġwho":395,"rough":396,"Ġpr":397,"Ġqu":398,"Ġsl":399,"Ġun":400,"act":401,"Ġgood":402,"Ġthrough":403,"Ġsurv":404,"end":405,"Ġhide":406,"ity":407,"ĠĠ":408,"Ġfo":409,"Ġpoint":410,"Ġway":411,"ag":412,"ove":413,"led":414,"Ġgr":415,"Ġwhich":416,"ings":417,"Ġwas":418,"ction":419,"Ġhow":420,"Ġhas":421,"Ġplace":422,"Ġke":423,"Ġar":424,"ame":425,"Ġabout":426,"urn":427,"Ġadd":428,"aw":429,"Ġtheir":430,"ans":431,"ause":432,"ear":433,"very":434,"Ġthen":435,"Ġget":436,"Ġsk":437,"ist":438,"Ġused":439,"if":440,"ach":441,"Ġgo":442,"el":443,"Ġsc":444,"ting":445,"Ġbet":446,"so":447,"âĢĿ":448,"Ġdry":449,"ull":450,"Ġcor":451,"ĠâĢľ":452,"cc":453,"side":454,"ous":455,"les":456,"de":457,"em":458,"Ġam":459,"Ġlong":460,"Ġexp":461,"Ġcomp":462,"ade":463,"Ġdes":464,"Ġwhile":465,"Ġwhere":466,"we":467,"Ġback":468,"Ġeas":469,"Ġop":470,"way":471,"Ġer":472,"Ġheat":473,"Ġbot":474,"Ġground":475,"ice":476,"ople":477,"tle":478,"Ġoff":479,"ies":480,"Ġing":481,"aking":482,"ment":483,"ward":484,"nder":485,"Ġed":486,"Ġpeople":487,"Ġbow":488,"Ġstick":489,"Ġnd":490,"Ġthere":491,"os":492,"Ġkeep":493,"Ġwell":494,"ĠâĢ¢":495,"av":496,"ng":497,"Ġapp":498,"Ġsmall":499,"ail":500,"âĢĶ":501,"Ġbecause":502,"Ġmany":503,"ang":504,"ite":505,"Ġcut":506,"Ġpit":507,"Ġhum":508,"Ġonly":509,"Ġarea":510,"Ġpie":511,"Ġalso":512,"ps":513,"get":514,"ire":515,"ible":516,"Ġper":517,"omet":518,"ival":519,"Ġunt":520,"iz":521,"Ġknow":522,"ces":523,"ave":524,"Ġmap":525,"Ġsurvival":526,"Ġ2":527,"Ġside":528,"Ġmu":529,"Ġlar":530,"ose":531,"Ġaround":532,"Ġcr":533,"Ġdire":534,"Ġsomet":535,"Ġbas":536,"Ġinches":537,"other":538,"Ġres":539,"cks":540,"Ġunder":541,"Ġhel":542,"Ġeven":543,"Ġfew":544,"te":545,"Ġimp":546,"Ġsee":547,"Ġallow":548,"Ġclay":549,"Ġcar":550,"Ġdoes":551,"ful":552,"Ġpot":553,"Ġsuch":554,"pe":555,"Ġmater":556,"Ġhard":557,"ab":558,"cl":559,"Ġset":560,"Ġbuild":561,"Ġuntil":562,"ry":563,"ions":564,"sel":565,"Ġ-":566,"Ġtip":567,"ink":568,"Ġpart":569,"ance":570,"Ġmaterial":571,"ness":572,"Ġbo":573,"Ġthree":574,"ber":575,"fore":576,"Ġonce":577,"imal":578,"ittle":579,"Ġrequ":580,"Ġits":581,"Ġag":582,"Ġanother":583,"Ġenough":584,"ody":585,"Ġleaves":586,"Ġsnow":587,"Ġbel":588,"ning":589,"Ġwar":590,"Ġmat":591,"Ġmade":592,"Ġoft":593,"Ġjust":594,"Ġcord":595,"Ġsim":596,"Ġgreat":597,"Ġanimal":598,"Ġtake":599,"Ġour":600,"Ġbody":601,"Ġday":602,"Ġbran":603,"ated":604,"Ġrst":605,"ger":606,"Ġav":607,"Ġwant":608,"Ġhold":609,"Ġbetwe":610,"Ġeasi":611,"Ġmuch":612,"Ġbetween":613,").":614,"unt":615,"Ġob":616,"Ġmust":617,"Ġfeet":618,"hed":619,"Ġbark":620,"Ġfood":621,"Ġlittle":622,"Ġgod":623,"Ġloc":624,"fe":625,"ise":626,"ject":627,"Ġmet":628,"Ġmove":629,"cess":630,"ond":631,"ru":632,"Ġvery":633,"Ġcle":634,"Ġsomething":635,"Ġcordage":636,"ty":637,"Ġsit":638,"ix":639,"sh":640,"Ġburn":641,"Ġlet":642,"ngth":643,"Ġboth":644,"),":645,"ence":646,"Ġatt":647,"Ġwould":648,"Ġdri":649,"Ġopen":650,"rap":651,"Ġcare":652,"llow":653,"Ġleft":654,"Ġothers":655,"ating":656,"Ġtop":657,"Ġspind":658,"Ġcontain":659,"Ġhelp":660,"for":661,"Ġfound":662,"Ġinside":663,"Ġspindle":664,"Ġeach":665,"Ġhead":666,"Ġthese":667,"ical":668,"Ġhis":669,"Ġstill":670,"Ġcompass":671,"ount":672,"ary":673,"Ġnor":674,"ens":675,"ool":676,"âĢ¢":677,"Ġdiff":678,"Ġhole":679,"Ġagain":680,"du":681,"ï¬":682,"Ġmaking":683,"Ġstone":684,"Ġprov":685,"Ġkn":686,"li":687,"Ġear":688,"ition":689,"Ġspe":690,"Ġpiece":691,"hod":692,"Ġbefore":693,"akes":694,"Ġaway":695,"Ġdis":696,"Ġlay":697,"Ġgre":698,"Ġarrow":699,"Ġmethod":700,"Ġwild":701,"Ġhar":702,"amp":703,"Ġplac":704,"Ġplant":705,"Ġlarge":706,"fi":707,"mer":708,"Ġere":709,"Ġhunt":710,"Ġread":711,"Ġmost":712,"ved":713,"Ġlook":714,"Ġweight":715,"Ġcold":716,"ult":717,"Ġchap":718,"Ġusing":719,"Ġsame":720,"ert":721,"Ġcook":722,"Ġlight":723,"Ġfollow":724,"self":725,"ud":726,"Ġac":727,"Ġwithout":728,"ents":729,"Ġter":730,"Ġstre":731,"ict":732,"ides":733,"Ġmeat":734,"Ġabove":735,"Ġrequire":736,"ling":737,"Ġacc":738,"Ġpers":739,"Ġsun":740,"Ġtemp":741,"Ġow":742,"Ġfar":743,"ots":744,"eter":745,"Ġcol":746,"Ġpress":747,"Ġact":748,"Ġbre":749,"Ġyet":750,"Ġlength":751,"Ġrock":752,"Ġaft":753,"atch":754,"Ġless":755,"Ġhands":756,"gether":757,"Ġ#":758,"Ġthose":759,"Ġhot":760,"Ġloo":761,"als":762,"Ġright":763,"Ġfeel":764,"Ġclot":765,"Ġsurf":766,"form":767,"ress":768,"Ġmin":769,"Ġeff":770,"Ġevery":771,"ither":772,"Ġform":773,"Ġareas":774,"Ġsec":775,"Ġty":776,"Ġsle":777,"Ġdon":778,"Ġsupp":779,"Ġrocks":780,"der":781,"Ġï¬":782,"Ġthings":783,"Ġlow":784,"ase":785,"Ġplan":786,"Ġsmo":787,"aft":788,"gg":789,"ls":790,"pt":791,"the":792,"Ġfour":793,"Ġline":794,"alk":795,"Ġedge":796,"Ġsurface":797,"ious":798,"ner":799,"ock":800,"less":801,"Ġrun":802,"Ġbelow":803,"Ġperson":804,"Ġcreat":805,"Ġtogether":806,"Ġposs":807,"Ġskin":808,"Ġey":809,"ills":810,"ations":811,"Ġprep":812,"Ġdirection":813,"Ġtri":814,"read":815,"Ġfr":816,"Ġeither":817,"Ġland":818,"Ġbeing":819,"Ġbeen":820,"Ġgive":821,"Ġhapp":822,"Ġsure":823,"igh":824,"ually":825,"Â°":826,"inch":827,"rees":828,"lect":829,"Ġthick":830,"alf":831,"Ġlove":832,"Ġquick":833,"Ġslow":834,"Ġnorth":835,"Ġsleep":836,"Ġair":837,"Ġwet":838,"Ġbest":839,"ath":840,"Ġyo":841,"its":842,"ish":843,"Ġdep":844,"Ġremove":845,"Ġhumans":846,"Ġbranch":847,"ns":848,"Ġ.":849,"Ġtree":850,"Ġfall":851,"ature":852,"Ġstart":853,"âĢĵ":854,"Ġlear":855,"Ġspace":856,"Ġprev":857,"Ġharves":858,"Ġtemper":859,"aight":860,"ever":861,"ient":862,"ines":863,"ross":864,"ention":865,"Ġspl":866,"Ġnew":867,"Ġstraight":868,"Ġgrass":869,"Ġbetter":870,"xt":871,"ates":872,"alle":873,"Ġspear":874,"Ġcover":875,"ize":876,"ol":877,"Ġsap":878,"Ġput":879,"Ġhad":880,"though":881,"Ġprocess":882,"Ġremo":883,"Ġ6":884,"Ġmind":885,"aring":886,"ape":887,"Ġsub":888,"Ġwere":889,"Ġext":890,"Ġprim":891,"Ġeasily":892,"Ġve":893,"Ġtrou":894,"Ġstep":895,"Ġlife":896,"Ġcons":897,"Ġalong":898,"Ġmaterials":899,"Ġobject":900,"gy":901,"ired":902,"ket":903,"Ġser":904,"Ġple":905,"itive":906,"Ġnow":907,"Ġpract":908,"Ġchapter":909,"Ġide":910,"Ġche":911,"Ġect":912,"icks":913,"Ġtrap":914,"Ġshelters":915,"ait":916,"bed":917,"ring":918,"Ġsa":919,"Ġwind":920,"Ġim":921,"Ġpull":922,"Ġwithin":923,"Ġnext":924,"Ġword":925,"Ġsupport":926,"bs":927,"ted":928,"up":929,"Ġver":930,"Ġbone":931,"Ġfa":932,"Ġmid":933,"Ġhour":934,"ors":935,"Ġlater":936,"Ġalthough":937,"Ġwarm":938,"Ġsitu":939,"of":940,"op":941,"Ġcre":942,"Ġnum":943,"ching":944,"Ġash":945,"ways":946,"hes":947,"Ġent":948,"Ġgiv":949,"Ġnear":950,"Ġoutside":951,"Ġmeans":952,"Ġcontainer":953,"Ġtion":954,"Ġtind":955,"Ġmark":956,"Ġhim":957,"Ġste":958,"Ġsticks":959,"Ġfire":960,"ular":961,"Ġleave":962,"Ġhowever":963,"ully":964,"Ġpitch":965,"Ġagainst":966,"Ġï¬ģ":967,"Ġpossible":968,".)":969,"ination":970,"Ġpur":971,"Ġinc":972,"Ġinst":973,"Ġlas":974,"Ġshort":975,"thing":976,"Ġdist":977,"Ġprot":978,"ifi":979,"Ġhunting":980,"dle":981,"gin":982,"ially":983,"ub":984,"Ġig":985,"Ġrain":986,"Ġshaft":987,"Ġcomm":988,"Ġtimes":989,"ĠĠĠ":990,"ems":991,"Ġdirect":992,"Ġplaced":993,"Ġtrout":994,"Ġtinder":995,"bo":996,"not":997,"wood":998,"Ġdone":999,"enc":1000,"Ġrec":1001,"Ġdead":1002,"Ġtech":1003,"Ġneeds":1004,"Ġopt":1005,"Ġearth":1006,"day":1007,"iver":1008,"val":1009,"Ġeat":1010,"Ġins":1011,"Ġincl":1012,"Ġyear":1013,"Ġshow":1014,"Ġalways":1015,"Ġexper":1016,"avel":1017,"Ġbreak":1018,"ib":1019,"oid":1020,"ts":1021,"tom":1022,"tain":1023,"Ġsix":1024,"ons":1025,"Ġind":1026,"Ġgl":1027,"Ġgu":1028,"Ġdraw":1029,"Ġjo":1030,"ared":1031,"Ġbund":1032,"Ġhuman":1033,"Ġclear":1034,"cri":1035,"gs":1036,"Ġfather":1037,"Ġmus":1038,"Ġsol":1039,"Ġworld":1040,"Ġpres":1041,"ign":1042,"Ġskills":1043,"Ġpieces":1044,"Ġgreen":1045,"ience":1046,"Ġhigh":1047,"arp":1048,"Ġgame":1049,"Ġmoving":1050,"Ġpoints":1051,"Ġdescri":1052,"Ġpressure":1053,"Ġquickly":1054,"fl":1055,"ges":1056,"pl":1057,"Ġtrees":1058,"Ġable":1059,"Ġsn":1060,"Ġsy":1061,"Ġsand":1062,"ergy":1063,"Ġcool":1064,"ones":1065,"Ġgen":1066,"Ġgrow":1067,"Ġrest":1068,"Ġbottom":1069,"Ġca":1070,"ont":1071,"Ġinde":1072,"Ġinform":1073,"see":1074,"Ġenergy":1075,"Ġvis":1076,"Ġdrill":1077,"ife":1078,"Ġ5":1079,"Ġturn":1080,"Ġcamp":1081,"Ġdue":1082,"vel":1083,"Ġheart":1084,"ility":1085,"Ġweather":1086,"Ġscrap":1087,"Ġsecond":1088,"Ġsplit":1089,"Ġtechn":1090,"fer":1091,"rent":1092,"Ġpass":1093,"Ġthrow":1094,"ari":1095,"Ġbegin":1096,"Ġstand":1097,"Ġred":1098,"Ġyourself":1099,"Ġraw":1100,"Ġdecl":1101,"Ġsoft":1102,"Ġprodu":1103,"Ġtry":1104,"Ġdrink":1105,"ush":1106,"ched":1107,"Ġbecome":1108,"Ġgoal":1109,"Ġbase":1110,"Ġimport":1111,"Ġbuilding":1112,"Ġplants":1113,"to":1114,"ren":1115,"Ġcould":1116,"Ġpow":1117,"Ġthin":1118,"Ġeight":1119,"Ġhalf":1120,"stand":1121,"Ġstay":1122,"Ġdoor":1123,"Ġval":1124,"Ġmean":1125,"Ġcomple":1126,"Ġprovide":1127,"Ġpractice":1128,"Ġnumber":1129,"Ġinformation":1130,"Ġsqu":1131,"Ġbend":1132,"Ġreal":1133,"Ġhair":1134,"uring":1135,"Ġrather":1136,"ently":1137,"Ġsection":1138,"Ġcoal":1139,"Ġpos":1140,"Ġremem":1141,"Ġbasket":1142,"Ġavail":1143,"Ġlocation":1144,"Ġcooking":1145,"Ġfollowing":1146,"Ġcreate":1147,"iqu":1148,"ual":1149,"Ġ3":1150,"Ġtar":1151,"iness":1152,"Ġbag":1153,"ought":1154,"Ġcur":1155,"Ġcome":1156,"Ġpine":1157,"Ġtoward":1158,"Ġthink":1159,"Ġes":1160,"Ġinter":1161,"ory":1162,"ange":1163,"Ġrel":1164,"Ġring":1165,"Ġhere":1166,"Ġspot":1167,"cket":1168,"Ġlonger":1169,"Ġresult":1170,"Ġclean":1171,"Ġlayer":1172,"Ġlearn":1173,".âĢĿ":1174,"mo":1175,"Ġ4":1176,"Ġtou":1177,"Ġwide":1178,"Ġwall":1179,"Ġcal":1180,"Ġfast":1181,"Ġfull":1182,"Ġpar":1183,"ities":1184,"Ġnight":1185,"ooks":1186,"blem":1187,"Ġrot":1188,"Ġdesert":1189,"Ġallows":1190,"Ġknife":1191,"Ġspec":1192,"Ġwilder":1193,"Ġcollect":1194,"Ġslowly":1195,"Ġidea":1196,"Ġimportant":1197,"ude":1198,"ins":1199,"Ġber":1200,"Ġbro":1201,"Ġbers":1202,"Ġthir":1203,"Ġhun":1204,"Ġng":1205,"ached":1206,"Ġfir":1207,"Ġwhite":1208,"ters":1209,"ameter":1210,"Ġproblem":1211,"Ġcontin":1212,"Ġdried":1213,"Ġprevent":1214,"Ġprimitive":1215,"Ġhours":1216,"fort":1217,"fully":1218,"Ġ\"":1219,"Ġsaw":1220,"Ġwalk":1221,"Ġcent":1222,"Ġfat":1223,"Ġmain":1224,"Ġmix":1225,"Ġel":1226,"Ġreg":1227,"Ġmoist":1228,"Ġliving":1229,"Ġconst":1230,"Ġworking":1231,"Ġunderstand":1232,"Ġbranches":1233,"Ġavoid":1234,"Ġown":1235,"Ġavailable":1236,"ho":1237,"ply":1238,"Ġocc":1239,"Ġpat":1240,"Ġese":1241,"omm":1242,"Ġsharp":1243,"Ġremain":1244,"Ġfoot":1245,"Ġdays":1246,"Ġrequires":1247,"Ġminut":1248,"Ġsleeping":1249,"Ġtemperature":1250,"Ġremoved":1251,"board":1252,"Ġtarget":1253,"hy":1254,"loo":1255,"ven":1256,"Ġ8":1257,"Ġtie":1258,"Ġsw":1259,"Ġfree":1260,"Ġthing":1261,"Ġinch":1262,"eds":1263,"Ġnat":1264,"Ġgro":1265,"acks":1266,"Ġshall":1267,"Ġworks":1268,"Ġadv":1269,"Ġstru":1270,"Ġstrong":1271,"Ġtools":1272,"ledge":1273,"Ġlarger":1274,"Ġseek":1275,"Ġsimple":1276,"Ġloose":1277,"Ġdepend":1278,"Ġprotect":1279,"Ġigloo":1280,"Ġ7":1281,"Ġ9":1282,"Ġsize":1283,"Ġcross":1284,"Ġfre":1285,"Ġfore":1286,"Ġthought":1287,"Ġlines":1288,"iding":1289,"Ġround":1290,"Ġheav":1291,"Ġspread":1292,"Ġcho":1293,"bris":1294,"Ġstring":1295,"Ġsimply":1296,"Ġanimals":1297,"Ġhappen":1298,"Ġmiddle":1299,"Ġdeclination":1300,"ced":1301,"ives":1302,"iff":1303,"po":1304,"Ġival":1305,"Ġpile":1306,"Ġdeter":1307,"ank":1308,"Ġreally":1309,"Ġleast":1310,"Ġplay":1311,"Ġdeep":1312,"Ġdebris":1313,"Ġcond":1314,"Ġkind":1315,"Ġtell":1316,"Ġwhole":1317,"Ġeasy":1318,"Ġsmaller":1319,"Ġcutting":1320,"Ġready":1321,"Ġsmoke":1322,"Ġcheck":1323,"Ġgiven":1324,"Ġgener":1325,"Ġtechniqu":1326,"Ġremember":1327,"ale":1328,"kes":1329,"Ġher":1330,"Ġaf":1331,"Ġwound":1332,"Ġpast":1333,"esus":1334,"Ġstri":1335,"uts":1336,"Ġhaving":1337,"Ġdec":1338,"ended":1339,"Ġgoing":1340,"Ġknowledge":1341,"Ġfeeling":1342,"Ġharvest":1343,"Ġgrasses":1344,"Ġwilderness":1345,"00":1346,"med":1347,"Ġsour":1348,"Ġopp":1349,"Ġbir":1350,"outh":1351,"Ġmight":1352,"Ġinj":1353,"Ġnger":1354,"ene":1355,"Ġgrou":1356,"Ġsep":1357,"Ġdeer":1358,"ump":1359,"Ġtravel":1360,"iew":1361,"Ġblock":1362,"Ġends":1363,"Ġways":1364,"Ġgetting":1365,"Ġappro":1366,"Ġeasier":1367,"Ġcomplete":1368,"'s":1369,"aks":1370,"be":1371,"sp":1372,"wise":1373,"here":1374,"Ġbait":1375,"ering":1376,"Ġpri":1377,"Ġpack":1378,"Ġmakes":1379,"Ġstones":1380,"oose":1381,"Ġspring":1382,"riend":1383,"umb":1384,"Ġtrue":1385,"Ġchar":1386,"Ġusually":1387,"Ġamount":1388,"ments":1389,"Ġcareful":1390,"like":1391,"Ġerent":1392,"Ġclothing":1393,"Ġtype":1394,"Ġfirst":1395,"ead":1396,"ia":1397,"king":1398,"ture":1399,"yond":1400,"Ġaw":1401,"Ġaid":1402,"Ġbooks":1403,"Ġcause":1404,"Ġfact":1405,"Ġdro":1406,"Ġdark":1407,"Ġbearing":1408,"Ġbeyond":1409,"Ġret":1410,"ider":1411,"tern":1412,"ilt":1413,"Ġnever":1414,"Ġatl":1415,"ries":1416,"Ġtrick":1417,"Ġcomes":1418,"Ġclose":1419,"ored":1420,"Ġedges":1421,"osed":1422,"Ġpots":1423,"Ġbelie":1424,"Ġlower":1425,"Ġminutes":1426,"Ġsepar":1427,"cle":1428,"og":1429,"pro":1430,"ses":1431,"Ġap":1432,"Ġsay":1433,"Ġbur":1434,"Ġcour":1435,"Ġcatch":1436,"Ġfind":1437,"att":1438,"Ġpul":1439,"Ġmed":1440,"Ġlast":1441,"oth":1442,"Ġredu":1443,"asure":1444,"Ġcannot":1445,"ample":1446,"irt":1447,"Ġdig":1448,"Ġexc":1449,"Ġprefer":1450,"Ġholes":1451,"Ġleaf":1452,"ccess":1453,"abb":1454,"Ġobjects":1455,"Ġoption":1456,"most":1457,"ocks":1458,"per":1459,"ug":1460,"head":1461,"Ġbit":1462,"Ġbig":1463,"Ġfru":1464,"Ġhome":1465,"Ġhook":1466,"ord":1467,"uth":1468,"ightly":1469,"Ġsoil":1470,"Ġdiameter":1471,"Ġexample":1472,"Ġvict":1473,"Ġview":1474,"Ġkil":1475,"Ġlost":1476,"Ġjesus":1477,"Ġtend":1478,"Ġneedle":1479,"Ġarm":1480,"Ġtips":1481,"Ġcarefully":1482,"Ġtyp":1483,"Ġsituation":1484,"ency":1485,"Ġyears":1486,"Ġposition":1487,"Ġcalled":1488,"Ġdeterm":1489,"Ġvictim":1490,"ax":1491,"co":1492,"nect":1493,"Ġtakes":1494,"Ġaction":1495,"Ġwatch":1496,"Ġbar":1497,"Ġce":1498,"Ġeld":1499,"Ġhang":1500,"Ġdust":1501,"ited":1502,"vered":1503,"Ġreboard":1504,"ically":1505,"imes":1506,"Ġnotch":1507,"Ġwee":1508,"Ġcoals":1509,"aken":1510,"pped":1511,"ately":1512,"Ġblocks":1513,"Ġevil":1514,"Ġaddition":1515,"Ġhelps":1516,"Ġplent":1517,"Ġmaintain":1518,"Ġnatur":1519,".\"":1520,"aid":1521,"ne":1522,"ping":1523,"ped":1524,"sure":1525,"ton":1526,"Âł":1527,"Ġill":1528,"Ġbene":1529,"Ġcam":1530,"Ġfun":1531,"Ġfriend":1532,"atl":1533,"Ġmar":1534,"Ġhor":1535,"ances":1536,"Ġlim":1537,"Ġstar":1538,"ases":1539,"Ġorder":1540,"ety":1541,"Ġforg":1542,"Ġru":1543,"Ġleg":1544,"Ġcovered":1545,"Ġkill":1546,"Ġcomfort":1547,"Ġclim":1548,"Ġanything":1549,"Ġwoods":1550,"Ġtool":1551,"Ġdownward":1552,"Ġfold":1553,"Ġdrying":1554,"Ġapply":1555,"Ġsometimes":1556,"Ġinsul":1557,"Ġindeed":1558,"Ġconstru":1559,"Ġgroup":1560,"cass":1561,"dom":1562,"ract":1563,"Ġten":1564,"Ġtreat":1565,"Ġage":1566,"Ġsine":1567,"Ġware":1568,"Ġwrap":1569,"Ġinner":1570,"Ġyum":1571,"Ġstalk":1572,"ices":1573,"Ġheal":1574,"Ġsuff":1575,"Ġsuccess":1576,"Ġdeg":1577,"Ġlive":1578,"Ġconnect":1579,"Ġchild":1580,"Ġroof":1581,"ands":1582,"Ġ15":1583,"Ġbring":1584,"Ġpray":1585,"Ġquite":1586,"Ġcorre":1587,"avig":1588,"selves":1589,"Ġoften":1590,"Ġopening":1591,"Ġacross":1592,"Ġtrip":1593,"Ġsapling":1594,"Ġsafe":1595,"Ġincre":1596,"Ġcommon":1597,"Ġdirectly":1598,"Ġpower":1599,"Ġngers":1600,"Ġmoisture":1601,"Ġatlatl":1602,"Ġyumon":1603,"by":1604,"cially":1605,"mmer":1606,"net":1607,"oy":1608,"Ġ,":1609,"Ġtan":1610,"Ġtur":1611,"inal":1612,"Ġsign":1613,"Ġcap":1614,"Ġcir":1615,"Ġcase":1616,"Ġmag":1617,"Ġthus":1618,"Ġthumb":1619,"Ġdid":1620,"Ġlot":1621,"Ġnavig":1622,"Ġgently":1623,"Ġorg":1624,"Ġorient":1625,"Ġforce":1626,"enty":1627,"Ġupon":1628,"Ġ12":1629,"Ġhandle":1630,"Ġleaving":1631,"Ġbecom":1632,"Ġcarcass":1633,"Ġboil":1634,"Ġrequired":1635,"Ġattention":1636,"Ġstream":1637,"Ġsmooth":1638,"Ġlandm":1639,"Ġimag":1640,"Ġfaith":1641,"Ġinclud":1642,"Ġbundle":1643,"Ġdescribed":1644,"Ġcaus":1645,"Ġvalue":1646,"Ġcontinue":1647,"Ġcenter":1648,"Ġplenty":1649,"ds":1650,"ee":1651,"ied":1652,"rest":1653,"Ġwr":1654,"Ġcall":1655,"Ġpen":1656,"Ġpain":1657,"Ġduring":1658,"otion":1659,"iss":1660,"cept":1661,"Ġdigg":1662,"Ġvari":1663,"pping":1664,"Ġtrail":1665,"Ġchang":1666,"Ġsurround":1667,"Ġkeeping":1668,"Ġimpro":1669,"pecially":1670,"Ġburns":1671,"Ġexperience":1672,"Ġoccur":1673,"Ġstruct":1674,"Ġreturn":1675,"'t":1676,"ily":1677,"lic":1678,"rain":1679,"Ġsin":1680,"Ġbus":1681,"Ġmor":1682,"Ġdang":1683,"Ġbeh":1684,"Ġitems":1685,"Ġstop":1686,"Ġreas":1687,"Ġris":1688,"Ġshape":1689,"Ġmoder":1690,"Ġnecess":1691,"Ġseen":1692,"Ġthemselves":1693,"Ġtwenty":1694,"aste":1695,"Ġ16":1696,"Ġlikely":1697,"Ġart":1698,"ify":1699,"Ġtherefore":1700,"Ġcarry":1701,"Ġmatter":1702,"Ġattached":1703,"Ġdisc":1704,"Ġacor":1705,"Ġsupporting":1706,"Ġeaten":1707,"hold":1708,"Ġafter":1709,"Ġprior":1710,"Ġnatural":1711,",âĢĿ":1712,"cent":1713,"eous":1714,"fect":1715,"half":1716,"wh":1717,"Ġaff":1718,"ined":1719,"Ġswe":1720,"Ġsides":1721,"Ġbook":1722,"Ġcount":1723,"Ġet":1724,"Ġeast":1725,"Ġesh":1726,"Ġlu":1727,"Ġnon":1728,"ening":1729,"Ġstor":1730,"ution":1731,"Ġforward":1732,"Ġlevel":1733,"Ġnote":1734,"Ġnothing":1735,"Ġspots":1736,"Ġplate":1737,"Ġsocket":1738,"Ġenv":1739,"Ġexist":1740,"Ġworth":1741,"Ġ17":1742,"ivity":1743,"Ġneeded":1744,"Ġexpl":1745,"Ġappear":1746,"Ġcrack":1747,"Ġmatthe":1748,"Ġholding":1749,"Ġweights":1750,"Ġstret":1751,"Ġlearning":1752,"allel":1753,"Ġsteps":1754,"Ġentry":1755,"Ġparallel":1756,"Ġchoice":1757,"Ġmatthew":1758,"just":1759,"ned":1760,"Ġwin":1761,"Ġbed":1762,"Ġcatt":1763,"Ġmom":1764,"Ġhy":1765,"edge":1766,"Ġgather":1767,"Ġut":1768,"Ġwhy":1769,"Ġriver":1770,"Ġang":1771,"ison":1772,"Ġass":1773,"Ġmod":1774,"Ġenter":1775,"Ġensure":1776,"Ġalmost":1777,"Ġproject":1778,"Ġtrans":1779,"Ġtwig":1780,"Ġ19":1781,"unk":1782,"Ġbuilt":1783,"Ġcontact":1784,"Ġamong":1785,"Ġexpect":1786,"ized":1787,"temp":1788,"Ġmovement":1789,"Ġarrows":1790,"merg":1791,"Ġcloth":1792,"Ġeverything":1793,"Ġplanet":1794,"Ġeye":1795,"Ġwords":1796,"Ġfair":1797,"Ġinstead":1798,"Ġlashing":1799,"Ġdistance":1800,"Ġmusic":1801,"Ġespecially":1802,"Ġgroove":1803,"Ġsinew":1804,"Ġdigging":1805,"Ġbehind":1806,"##":1807,"air":1808,"hide":1809,"ift":1810,"Ġtain":1811,"Ġold":1812,"Ġmouth":1813,"Ġinv":1814,"Ġstro":1815,"Ġreach":1816,"Ġfil":1817,"ished":1818,"Ġlead":1819,"ards":1820,"Ġmem":1821,"Ġchange":1822,"Ġability":1823,"astic":1824,"Ġ10":1825,"iled":1826,"Ġneedles":1827,"Ġquar":1828,"Ġuniver":1829,"Ġadding":1830,"avity":1831,"Ġmaps":1832,"Ġparts":1833,"iction":1834,"Ġ###":1835,"Ġprepare":1836,"Ġective":1837,"Ġverses":1838,"Ġlash":1839,"Ġrecomm":1840,"Ġsource":1841,"Ġoppos":1842,"Ġinjur":1843,"Ġcourse":1844,"Ġbusiness":1845,"Ġdanger":1846,"Ġcattail":1847,"do":1848,"ior":1849,"iod":1850,"right":1851,"vice":1852,"Ġtas":1853,"Ġtaken":1854,"Ġabr":1855,"rel":1856,"Ġpool":1857,"Ġmon":1858,"Ġever":1859,"ork":1860,"itions":1861,"lly":1862,"ense":1863,"ality":1864,"Ġrep":1865,"idge":1866,"Ġrabb":1867,"Ġdeal":1868,"Ġsoon":1869,"Ġpoor":1870,"Ġlie":1871,"Ġexible":1872,"Ġsomeone":1873,"Ġpeace":1874,"Ġperiod":1875,"Ġknown":1876,"Ġ25":1877,"Ġlocal":1878,"Ġburning":1879,"Ġdiffe":1880,"Ġgreater":1881,"Ġhappens":1882,"Ġinclude":1883,"Ġtouch":1884,"Ġfresh":1885,"medi":1886,"Ġkiln":1887,"Ġstructure":1888,".,":1889,"aving":1890,"four":1891,"pie":1892,"ror":1893,"sc":1894,"ten":1895,"Ġtest":1896,"Ġtaking":1897,"Ġsou":1898,"Ġwis":1899,"Ġwish":1900,"Ġwait":1901,"ouse":1902,"Ġpick":1903,"Ġhing":1904,"lling":1905,"Ġlack":1906,"Ġgives":1907,"icular":1908,"ash":1909,"aching":1910,"Ġthatch":1911,"cted":1912,"Ġshing":1913,"iron":1914,"Ġattemp":1915,"Ġkit":1916,"Ġmeasure":1917,"Ġroots":1918,"Ġintention":1919,"Ġclos":1920,"ustr":1921,"Ġblood":1922,"Ġscore":1923,"Ġdesired":1924,"Ġtipi":1925,"Ġprovides":1926,"lied":1927,"Ġstrength":1928,"Ġaccess":1929,"Ġactivity":1930,"Ġimmedi":1931,"Ġbundles":1932,"Ġsyst":1933,"Ġdepending":1934,"Ġtricky":1935,"Ġexcav":1936,"Ġtypes":1937,"Ġhealth":1938,"Ġnavigation":1939,"Ġnecessary":1940,"Ġacorns":1941,"Ġenviron":1942,"Ġfairly":1943,"Ġdifferent":1944,"-âĢ¢":1945,"az":1946,"Ġsat":1947,"Ġsound":1948,"Ġft":1949,"Ġpage":1950,"Ġment":1951,"Ġem":1952,"Ġemerg":1953,"Ġhon":1954,"Ġhut":1955,"Ġdart":1956,"Ġlled":1957,"Ġgri":1958,"Ġitself":1959,"Ġstake":1960,"Ġrout":1961,"Ġlegs":1962,"cts":1963,"aps":1964,"tery":1965,"Ġplow":1966,"Ġenj":1967,"Ġvent":1968,"Ġrow":1969,"ants":1970,"Ġloss":1971,"Ġhandhold":1972,"iles":1973,"Ġadjust":1974,"Ġblack":1975,"Ġsurvive":1976,"Ġame":1977,"Ġperform":1978,"Ġmud":1979,"Ġbasic":1980,"ably":1981,"Ġheading":1982,"Ġplaces":1983,"Ġcolor":1984,"Ġcreator":1985,"ready":1986,"Ġgiving":1987,"Ġindic":1988,"Ġresults":1989,"Ġtechnique":1990,"Ġfruit":1991,"Ġhoriz":1992,"Ġchildren":1993,"what":1994,"aut":1995,"but":1996,"oot":1997,"pect":1998,"tr":1999,"Ġod":2000,"res":2001,"Ġbreat":2002,"Ġfam":2003,"Ġport":2004,"Ġpinch":2005,"Ġmil":2006,"Ġthough":2007,"oring":2008,"alm":2009,"sts":2010,"Ġreward":2011,"Ġrepe":2012,"aper":2013,"Ġspend":2014,"Ġsel":2015,"Ġweap":2016,"Ġweak":2017,"quid":2018,"Ġsoak":2019,"Ġdoing":2020,"Ġlist":2021,"Ġliquid":2022,"Ġalready":2023,"pper":2024,"Ġtruth":2025,"ips":2026,"Ġgrain":2027,"Ġcuts":2028,"Ġterrain":2029,"Ġï¬Ĥ":2030,"Ġprepared":2031,"Ġsubst":2032,"Ġsituations":2033,"Ġsteam":2034,"Ġfaster":2035,"Ġthoughts":2036,"Ġapart":2037,"coal":2038,"Ġclimates":2039,"Ġdegrees":2040,"Ġmagnet":2041,"Ġmodern":2042,"Ġmoment":2043,"Ġrabbit":2044,"Ġenjoy":2045,"dy":2046,"Ġ0":2047,"Ġers":2048,"Ġsing":2049,"Ġwick":2050,"Ġir":2051,"Ġble":2052,"Ġbad":2053,"Ġcou":2054,"Ġpay":2055,"Ġprom":2056,"Ġphy":2057,"ened":2058,"Ġones":2059,"Ġonto":2060,"Ġstory":2061,"Ġstiff":2062,"Ġrele":2063,"ided":2064,"Ġhammer":2065,"Ġcante":2066,"Ġlean":2067,"apor":2068,"aped":2069,"term":2070,"Ġmov":2071,"Ġneck":2072,"Ġseeds":2073,"Ġchalle":2074,"cking":2075,"Ġtwist":2076,"Ġjud":2077,"Ġ18":2078,"Ġblow":2079,"Ġblank":2080,"Ġevent":2081,"Ġquest":2082,"Ġslightly":2083,"Ġunless":2084,"Ġkey":2085,"Ġadded":2086,"Ġdesire":2087,"tered":2088,"Ġcontainers":2089,"Ġdirections":2090,"Ġthickness":2091,"Ġsaid":2092,"Ġpurp":2093,"Ġpresent":2094,"Ġproduce":2095,"Ġcompletely":2096,"Ġcharcoal":2097,"Ġseparate":2098,"Ġpulled":2099,"Ġreduce":2100,"Ġweeks":2101,"Ġorgan":2102,"Ġfilm":2103,"Ġintentionally":2104,"Ġphys":2105,"bar":2106,"ci":2107,"ra":2108,"uff":2109,"ze":2110,"Ġ>":2111,"Ġtin":2112,"Ġtough":2113,"rem":2114,"rely":2115,"Ġwest":2116,"erc":2117,"Ġpump":2118,"Ġmiss":2119,"Ġegg":2120,"Ġinit":2121,"Ġiss":2122,"eding":2123,"ased":2124,"Ġrack":2125,"Ġridge":2126,"ised":2127,"iment":2128,"Ġask":2129,"Ġplastic":2130,"rist":2131,"Ġpop":2132,"Ġouter":2133,"Ġvit":2134,"Ġfeather":2135,"Ġpret":2136,"Ġroot":2137,"Ġupright":2138,"oney":2139,"Ġlog":2140,"Ġtea":2141,"Ġ11":2142,"ung":2143,"Ġworked":2144,"isters":2145,"Ġexposed":2146,"Ġapplied":2147,"Ġ21":2148,"Ġallowing":2149,"Ġpottery":2150,"Ġmatch":2151,"ertain":2152,"Ġcooked":2153,"Ġloop":2154,"Ġrighteous":2155,"Ġclothes":2156,"Ġframe":2157,"Ġfront":2158,"Ġharvested":2159,"Ġconsider":2160,"Ġentire":2161,"Ġpreser":2162,"Ġvisible":2163,"Ġthrowing":2164,"Ġcurrent":2165,"Ġunderstanding":2166,"Ġcrosspie":2167,"Ġbirch":2168,"Ġmedical":2169,"Ġbecomes":2170,"Ġchanges":2171,"Ġimprove":2172,"Ġangle":2173,"Ġuniverse":2174,"Ġrecommend":2175,"Ġopposite":2176,"Ġroute":2177,"Ġmilk":2178,"ding":2179,"gr":2180,"gress":2181,"over":2182,"tical":2183,"yle":2184,"zel":2185,"Ġtail":2186,"Ġson":2187,"Ġcave":2188,"Ġcertain":2189,"Ġfro":2190,"Ġfut":2191,"Ġfue":2192,"ative":2193,"Ġpin":2194,"Ġpour":2195,"Ġpalm":2196,"Ġmotion":2197,"Ġmoney":2198,"Ġhit":2199,"Ġhouse":2200,"Ġyoung":2201,"Ġly":2202,"Ġbezel":2203,"rol":2204,"Ġsto":2205,"Ġur":2206,"Ġort":2207,"Ġra":2208,"Ġrough":2209,"Ġrich":2210,"Ġrub":2211,"ads":2212,"Ġspin":2213,"ilar":2214,"amb":2215,"Ġseas":2216,"Ġdeath":2217,"Ġotherwise":2218,"Ġroom":2219,"Ġshell":2220,"Ġ14":2221,"ivid":2222,"Ġblan":2223,"Ġevents":2224,"Ġevapor":2225,"Ġquality":2226,"Ġslide":2227,"Ġunc":2228,"Ġkept":2229,"Ġskill":2230,"Ġheated":2231,"Ġhumble":2232,"Ġ23":2233,"Ġresc":2234,"Ġharder":2235,"Ġboard":2236,"Ġspeed":2237,"Ġlooking":2238,"Ġterm":2239,"ressed":2240,"Ġcreated":2241,"Ġveget":2242,"Ġtraps":2243,"Ġindivid":2244,"Ġguide":2245,"Ġclearly":2246,"Ġthirty":2247,"Ġheaven":2248,"Ġtechniques":2249,"Ġdetermine":2250,"Ġhanging":2251,"Ġbeneath":2252,"Ġcamou":2253,"Ġinsulation":2254,"Ġboiling":2255,"Ġlandmark":2256,"Ġincluding":2257,"Ġstrokes":2258,"Ġsystem":2259,"Ġhorizont":2260,"Ġmagnetic":2261,"Ġpretty":2262,"ian":2263,"line":2264,"lings":2265,"mm":2266,"ners":2267,"pr":2268,"und":2269,"ues":2270,"uable":2271,"ucc":2272,"Ġoil":2273,"Ġcult":2274,"Ġface":2275,"ats":2276,"Ġpor":2277,"Ġpound":2278,"Ġtong":2279,"let":2280,"Ġele":2281,"Ġhi":2282,"Ġhides":2283,"Ġdet":2284,"Ġdamp":2285,"Ġyucc":2286,"Ġness":2287,"Ġnoose":2288,"vere":2289,"acter":2290,"ute":2291,"Ġanch":2292,"ential":2293,"verse":2294,"Ġheld":2295,"apping":2296,"Ġwhether":2297,"amps":2298,"Ġseem":2299,"Ġseems":2300,"ains":2301,"Ġsuit":2302,"ume":2303,"Ġvary":2304,"Ġmerely":2305,"Ġinte":2306,"Ġjer":2307,"Ġ13":2308,"Ġoverl":2309,"Ġmanner":2310,"Ġgets":2311,"Ġperfect":2312,"Ġ20":2313,"Ġhardwood":2314,"Ġwarmer":2315,"Ġsimilar":2316,"Ġobst":2317,"Ġfoods":2318,"Ġattach":2319,"Ġearly":2320,"Ġlayers":2321,"Ġrunning":2322,"Ġcreating":2323,"Ġconsist":2324,"Ġign":2325,"Ġsolution":2326,"Ġrawhide":2327,"Ġwalls":2328,"Ġspecifi":2329,"Ġmixture":2330,"Ġheavy":2331,"Ġconditions":2332,"Ġdecis":2333,"Ġapproach":2334,"Ġburd":2335,"Ġreasons":2336,"Ġself":2337,"Ġweapon":2338,"Ġphysical":2339,"Ġfuture":2340,"Ġblanket":2341,"Ġyucca":2342,"dr":2343,"een":2344,"light":2345,"man":2346,"uly":2347,"uck":2348,"where":2349,"ys":2350,"Ġtight":2351,"Ġtied":2352,"ret":2353,"Ġwise":2354,"Ġwedge":2355,"Ġbrow":2356,"eric":2357,"Ġpaper":2358,"Ġmount":2359,"Ġmiles":2360,"Ġdou":2361,"Ġdam":2362,"Ġyes":2363,"Ġbelly":2364,"Ġbeaut":2365,"Ġgot":2366,"Ġgear":2367,"Ġstur":2368,"Ġupper":2369,"Ġrece":2370,"ics":2371,"Ġans":2372,"Ġleather":2373,"Ġshade":2374,"Ġshift":2375,"Ġspo":2376,"ceed":2377,"Ġsevere":2378,"Ġpocket":2379,"Ġking":2380,"Ġtrust":2381,"Ġtrave":2382,"ĠâĢĶ":2383,"Ġlose":2384,"Ġtwel":2385,"Ġsomewhat":2386,"Ġmyself":2387,"Ġbrush":2388,"Ġwooden":2389,"ages":2390,"Ġscale":2391,"Ġknowing":2392,"Ġ22":2393,"Ġbox":2394,"berries":2395,"Ġwarp":2396,"Ġspeak":2397,"Ġmethods":2398,"Ġreading":2399,"iously":2400,"Ġsaplings":2401,"Ġsubject":2402,"Ġextend":2403,"Ġideas":2404,"Ġexperi":2405,"Ġtrying":2406,"Ġmeaning":2407,"Ġinterior":2408,"Ġrelie":2409,"Ġproblems":2410,"Ġelse":2411,"Ġtanning":2412,"Ġcircle":2413,"Ġimagine":2414,"Ġinvol":2415,"Ġhinge":2416,"Ġfuel":2417,"Ġobstac":2418,"Ġtwelve":2419,"hand":2420,"iar":2421,"ken":2422,"lt":2423,"nce":2424,"vis":2425,"Ġx":2426,"Ġtions":2427,"Ġsight":2428,"Ġoor":2429,"Ġwid":2430,"Ġbal":2431,"Ġbass":2432,"Ġcient":2433,"Ġcavity":2434,"Ġmir":2435,"Ġeen":2436,"ars":2437,"Ġgain":2438,"otton":2439,"Ġstit":2440,"Ġstore":2441,"Ġund":2442,"Ġref":2443,"acing":2444,"Ġthatching":2445,"Ġcant":2446,"Ġlens":2447,"vers":2448,"Ġmoves":2449,"iliar":2450,"Ġsugg":2451,"Ġdev":2452,"Ġdevel":2453,"quate":2454,"Ġenc":2455,"Ġven":2456,"Ġmeal":2457,"ured":2458,"Ġchance":2459,"Ġroast":2460,"Ġuses":2461,"Ġabs":2462,"Ġlogs":2463,"Ġstrand":2464,"igns":2465,"Ġpointing":2466,"Ġwash":2467,"Ġameric":2468,"Ġdesign":2469,"Ġkeeps":2470,"Ġpercent":2471,"Ġaccomm":2472,"Ġfarther":2473,"Ġpreparing":2474,"Ġharvesting":2475,"Ġremoving":2476,"Ġextended":2477,"Ġextra":2478,"Ġoptions":2479,"Ġvision":2480,"Ġcurve":2481,"Ġrotate":2482,"Ġhunter":2483,"Ġregular":2484,"Ġadvant":2485,"Ġplayed":2486,"Ġkinds":2487,"Ġbelieve":2488,"proof":2489,"Ġcorrect":2490,"Ġsurrounding":2491,"Ġetc":2492,"Ġinjuries":2493,"Ġtask":2494,"Ġabrad":2495,"Ġemergency":2496,"Ġrepeat":2497,"Ġsingle":2498,"Ġseason":2499,"Ġcamoufl":2500,"Ġsturdy":2501,"Ġsuggest":2502,"Ġaccommod":2503,"bers":2504,"cing":2505,"foot":2506,"oss":2507,"ued":2508,"Ġz":2509,"Ġtall":2510,"Ġsal":2511,"Ġood":2512,"Ġbul":2513,"ern":2514,"Ġced":2515,"Ġcame":2516,"Ġcases":2517,"Ġcotton":2518,"Ġfur":2519,"Ġemp":2520,"Ġeating":2521,"Ġdle":2522,"onents":2523,"arks":2524,"ows":2525,"Ġforth":2526,"Ġrap":2527,"Ġheight":2528,"Ġspr":2529,"Ġsex":2530,"Ġsear":2531,"ths":2532,"Ġdef":2533,"Ġdefi":2534,"Ġsoap":2535,"Ġpole":2536,"Ġdiet":2537,"Ġalone":2538,"Ġprogress":2539,"Ġexcept":2540,"ures":2541,"Ġprec":2542,"Ġchoose":2543,"Ġshed":2544,"ushed":2545,"Ġhope":2546,"Ġshoulder":2547,"Ġanyone":2548,"Ġfol":2549,"Ġgrid":2550,"Ġedible":2551,"Ġbowl":2552,"angle":2553,"itely":2554,"Ġcracks":2555,"Ġboiled":2556,"Ġdries":2557,"Ġdiffi":2558,"Ġplacing":2559,"Ġaccord":2560,"Ġforms":2561,"Ġfriction":2562,"Ġservice":2563,"Ġpulling":2564,"Ġvertical":2565,"Ġmuscle":2566,"Ġdescribe":2567,"Ġsnare":2568,"Ġscraper":2569,"Ġpasses":2570,"Ġbegins":2571,"Ġsquir":2572,"Ġberries":2573,"Ġprotection":2574,"Ġwounds":2575,"Ġforgive":2576,"Ġrules":2577,"Ġapplying":2578,"Ġincrease":2579,"Ġstreams":2580,"Ġimmediately":2581,"Ġenvironment":2582,"Ġpurpose":2583,"Ġvitam":2584,"Ġfeathers":2585,"amboo":2586,"Ġansw":2587,"Ġdevelop":2588,"Ġaccommodate":2589,"bing":2590,"cr":2591,"cus":2592,"kin":2593,"ked":2594,"lle":2595,"making":2596,"nel":2597,"ric":2598,"rum":2599,"uss":2600,"water":2601,"Ġting":2602,"Ġtill":2603,"Ġtub":2604,"Ġtightly":2605,"Ġtaste":2606,"Ġauth":2607,"hered":2608,"ining":2609,"Ġsick":2610,"Ġsouth":2611,"Ġol":2612,"Ġoak":2613,"Ġwaste":2614,"Ġwrist":2615,"Ġbrou":2616,"Ġbun":2617,"Ġbless":2618,"Ġbank":2619,"Ġbamboo":2620,"Ġcact":2621,"Ġfail":2622,"Ġfully":2623,"Ġpath":2624,"Ġpub":2625,"Ġmate":2626,"Ġmess":2627,"Ġequ":2628,"Ġelect":2629,"Ġhig":2630,"Ġhuts":2631,"Ġdirt":2632,"Ġdug":2633,"ane":2634,"Ġlit":2635,"Ġnet":2636,"Ġnest":2637,"Ġnice":2638,"rop":2639,"Ġgall":2640,"Ġstem":2641,"icing":2642,"asp":2643,"asing":2644,"aces":2645,"Ġfish":2646,"Ġwhate":2647,"Ġrm":2648,"Ġrial":2649,"Ġaside":2650,"Ġshare":2651,"Ġmoved":2652,"ained":2653,"Ġsuited":2654,"Ġplat":2655,"Ġweft":2656,"Ġpoles":2657,"Ġdiag":2658,"Ġoutdo":2659,"umps":2660,"Ġvar":2661,"Ġtruly":2662,"Ġfeeding":2663,"Ġprey":2664,"Ġcomb":2665,"Ġroad":2666,"Ġintended":2667,"Ġclou":2668,"Ġcliff":2669,"iven":2670,"Ġblisters":2671,"ĠĠĠĠ":2672,"Ġfocus":2673,"Ġcorners":2674,"Ġease":2675,"Ġresp":2676,"Ġcarve":2677,"Ġobs":2678,"Ġdrive":2679,"Ġheads":2680,"ï¬ģ":2681,"Ġkne":2682,"liable":2683,"Ġactually":2684,"Ġbreaks":2685,"Ġfeelings":2686,"Ġprepar":2687,"Ġlandsc":2688,"Ġfalls":2689,"Ġfalling":2690,"Ġstarting":2691,"Ġcovering":2692,"Ġconsum":2693,"Ġserve":2694,"Ġcommun":2695,"Ġshows":2696,"Ġdrawn":2697,"Ġjoh":2698,"Ġjoint":2699,"Ġindex":2700,"Ġscrape":2701,"Ġscraped":2702,"Ġstanding":2703,"Ġdrinking":2704,"rence":2705,"Ġpowder":2706,"Ġvaluable":2707,"Ġsquee":2708,"Ġesc":2709,"Ġcollected":2710,"Ġbroken":2711,"Ġregard":2712,"Ġshallow":2713,"Ġdepends":2714,"pole":2715,"point":2716,"Ġherbs":2717,"Ġsources":2718,"Ġcharacter":2719,"Ġbelief":2720,"ograp":2721,"Ġcomfortable":2722,"Ġsuffi":2723,"Ġcausing":2724,"Ġcauses":2725,"Ġwrit":2726,"Ġvariety":2727,"Ġdangerous":2728,"Ġwisdom":2729,"Ġperformance":2730,"Ġcanteen":2731,"Ġindividual":2732,"Ġhorizontal":2733,"Ġanchor":2734,"Ġbrown":2735,"Ġreceive":2736,"Ġbasswood":2737,"Ġmirror":2738,"Ġaccording":2739,"Ġtillering":2740,"Ġauthor":2741,"Ġwhatever":2742,".âĢ¢":2743,"aled":2744,"bble":2745,"di":2746,"ex":2747,"hic":2748,"mia":2749,"nge":2750,"oves":2751,"ogy":2752,"rate":2753,"ups":2754,"Ġll":2755,"Ġtre":2756,"Ġtap":2757,"Ġtast":2758,"Ġaim":2759,"Ġsave":2760,"Ġsink":2761,"Ġox":2762,"Ġwat":2763,"Ġwes":2764,"Ġwool":2765,"Ġwider":2766,"Ġies":2767,"Ġbones":2768,"Ġcoo":2769,"atter":2770,"inging":2771,"Ġmention":2772,"Ġess":2773,"Ġhur":2774,"Ġhiding":2775,"Ġdest":2776,"Ġyork":2777,"arm":2778,"Ġnish":2779,"Ġge":2780,"Ġgills":2781,"ote":2782,"Ġstate":2783,"Ġstakes":2784,"Ġstuff":2785,"Ġstyle":2786,"Ġreliable":2787,"iced":2788,"aches":2789,"omer":2790,"oop":2791,"Ġfis":2792,"Ġfight":2793,"chan":2794,"Ġlee":2795,"Ġsho":2796,"Ġshad":2797,"Ġnotice":2798,"Ġspine":2799,"ams":2800,"Ġdeeds":2801,"Ġlift":2802,"Ġexh":2803,"Ġmechan":2804,"Ġroll":2805,"antly":2806,"Ġflat":2807,"Ġju":2808,"Ġshelf":2809,"Ġsme":2810,"Ġbucks":2811,"Ġoverc":2812,"Ġuns":2813,"Ġunw":2814,"Ġgrab":2815,"iful":2816,"Ġgoes":2817,"Ġexpos":2818,"Ġexpress":2819,"Ġcomponents":2820,"Ġbows":2821,"avor":2822,"Ġperp":2823,"Ġ24":2824,"Ġimposs":2825,"abor":2826,"Ġwarps":2827,"Ġgreatly":2828,"Ġdisap":2829,"Ġharm":2830,"Ġacqu":2831,"Ġlooks":2832,"Ġeyes":2833,"Ġthicker":2834,"ology":2835,"Ġextrem":2836,"Ġsteep":2837,"Ġshowing":2838,"Ġexperiment":2839,"ibility":2840,"Ġjob":2841,"Ġsolar":2842,"arily":2843,"Ġeighteen":2844,"Ġcollecting":2845,"Ġthird":2846,"Ġremaining":2847,"Ġloosely":2848,"Ġforest":2849,"Ġchoices":2850,"Ġkindling":2851,"Ġdrop":2852,"Ġfruits":2853,"Ġmarks":2854,"Ġcirc":2855,"Ġlandmarks":2856,"Ġmorning":2857,"Ġluke":2858,"Ġhonor":2859,"Ġgrip":2860,"Ġportion":2861,"Ġjudge":2862,"Ġcrosspieces":2863,"Ġtongs":2864,"Ġsuitable":2865,"Ġobstacle":2866,"Ġwidth":2867,"Ġcedar":2868,"Ġrapid":2869,"Ġlandscape":2870,"Ġjohn":2871,"Ġimpossible":2872,"bt":2873,"dent":2874,"ered":2875,"io":2876,"ky":2877,"me":2878,"mos":2879,"no":2880,"nter":2881,"pother":2882,"ron":2883,"ration":2884,"rust":2885,"vation":2886,"Ġ=":2887,"hel":2888,"het":2889,"Ġsad":2890,"Ġident":2891,"Ġbent":2892,"Ġcree":2893,"Ġfin":2894,"atic":2895,"athered":2896,"Ġpush":2897,"Ġpair":2898,"Ġmound":2899,"Ġmist":2900,"Ġmerc":2901,"Ġtor":2902,"Ġtow":2903,"Ġdu":2904,"orn":2905,"anced":2906,"ital":2907,"Ġlid":2908,"Ġlots":2909,"Ġlaid":2910,"Ġnut":2911,"Ġnation":2912,"Ġnature":2913,"aling":2914,"alks":2915,"Ġons":2916,"Ġreached":2917,"aced":2918,"ets":2919,"Ġrate":2920,"Ġrise":2921,"imin":2922,"Ġshards":2923,"Ġspur":2924,"Ġspir":2925,"ames":2926,"Ġseep":2927,"Ġwear":2928,"Ġdiv":2929,"thern":2930,"Ġvide":2931,"Ġtrim":2932,"Ġupward":2933,"Ġloves":2934,"arent":2935,"Ġhob":2936,"unks":2937,"Ġade":2938,"ables":2939,"Ġblunt":2940,"Ġbrings":2941,"Ġbrittle":2942,"Ġuseful":2943,"aught":2944,"ipe":2945,"Ġnock":2946,"Ġquant":2947,"Ġslave":2948,"Ġsliding":2949,"Ġski":2950,"Ġsky":2951,"Ġskirt":2952,"weed":2953,"Ġbackward":2954,"Ġresour":2955,"Ġevenly":2956,"Ġpotential":2957,"ability":2958,"Ġsett":2959,"Ġsettle":2960,"Ġsetup":2961,"Ġbol":2962,"Ġlocate":2963,"ship":2964,"Ġburned":2965,"Ġeveryone":2966,"Ġsecret":2967,"Ġruns":2968,"Ġprimary":2969,"Ġects":2970,"Ġected":2971,"Ġnearby":2972,"Ġinstrum":2973,"Ġinsert":2974,"plate":2975,"Ġcaves":2976,"Ġstands":2977,"Ġspecial":2978,"Ġbroad":2979,"Ġthirst":2980,"Ġhung":2981,"Ġmixed":2982,"Ġelb":2983,"Ġrounded":2984,"Ġdeeper":2985,"Ġtells":2986,"Ġgeneral":2987,"Ġstrip":2988,"Ġbird":2989,"Ġdrops":2990,"heads":2991,"Ġactions":2992,"Ġadditional":2993,"Ġillustr":2994,"Ġlimb":2995,"Ġrule":2996,"Ġturtle":2997,"Ġbecoming":2998,"Ġpenet":2999,"Ġreason":3000,"Ġstorage":3001,"Ġcracking":3002,"Ġhypother":3003,"Ġentertain":3004,"Ġlashings":3005,"Ġquarry":3006,"Ġattempt":3007,"Ġfamiliar":3008,"Ġrelease":3009,"Ġmovie":3010,"Ġchallenge":3011,"Ġrescue":3012,"Ġdecisions":3013,"Ġrelief":3014,"Ġfurther":3015,"Ġsexual":3016,"Ġbrought":3017,"Ġcactus":3018,"Ġvarious":3019,"diameter":3020,"Ġoxy":3021,"Ġfishing":3022,"Ġperpend":3023,"Ġcreek":3024,"bits":3025,"cher":3026,"fr":3027,"fall":3028,"ged":3029,"gen":3030,"haps":3031,"ium":3032,"ki":3033,"lo":3034,"land":3035,"ral":3036,"sing":3037,"xim":3038,"Ġtang":3039,"Ġtape":3040,"Ġach":3041,"Ġari":3042,"inks":3043,"Ġsort":3044,"Ġsiz":3045,"Ġsens":3046,"Ġsigns":3047,"Ġwring":3048,"Ġight":3049,"Ġban":3050,"Ġball":3051,"Ġbough":3052,"Ġcard":3053,"Ġfash":3054,"Ġpun":3055,"Ġpunk":3056,"Ġpads":3057,"Ġmn":3058,"Ġmult":3059,"Ġtom":3060,"Ġtold":3061,"lets":3062,"Ġdome":3063,"Ġinh":3064,"anc":3065,"itude":3066,"Ġlon":3067,"Ġlaw":3068,"Ġlined":3069,"Ġnone":3070,"Ġname":3071,"Ġnitely":3072,"Ġgar":3073,"Ġstir":3074,"Ġstave":3075,"Ġstored":3076,"Ġstalks":3077,"Ġrepl":3078,"ident":3079,"Ġforty":3080,"ghter":3081,"key":3082,"Ġri":3083,"Ġrig":3084,"Ġrib":3085,"Ġanger":3086,"ishing":3087,"Ġshared":3088,"Ġhem":3089,"Ġhear":3090,"apes":3091,"Ġspare":3092,"Ġmold":3093,"iling":3094,"iring":3095,"Ġseven":3096,"Ġsummer":3097,"Ġweigh":3098,"Ġweaving":3099,"Ġconc":3100,"Ġconf":3101,"Ġdie":3102,"Ġaltern":3103,"Ġproceed":3104,"Ġworn":3105,"Ġworry":3106,"Ġtra":3107,"Ġtrack":3108,"Ġfeature":3109,"Ġrob":3110,"bric":3111,"ĠâĢĺ":3112,"Ġflo":3113,"Ġjam":3114,"Ġtender":3115,"Ġanywhere":3116,"Ġtook":3117,"Ġslab":3118,"aged":3119,"Ġgravity":3120,"Ġgrasp":3121,"Ġwashing":3122,"Ġplacement":3123,"ific":3124,"Ġcorner":3125,"Ġcompan":3126,"Ġwhereas":3127,"Ġperhaps":3128,"izing":3129,"Ġcrit":3130,"Ġcrude":3131,"Ġunderne":3132,"Ġcarved":3133,"Ġpartially":3134,"Ġboots":3135,"Ġgreatest":3136,"Ġavor":3137,"Ġholds":3138,"Ġeasiest":3139,"Ġopenings":3140,"ensive":3141,"Ġlengthwise":3142,"Ġlesson":3143,"Ġminim":3144,"Ġcreates":3145,"Ġtrig":3146,"Ġdepth":3147,"Ġprevents":3148,"Ġmindful":3149,"Ġvehic":3150,"Ġvers":3151,"Ġdistances":3152,"Ġguides":3153,"Ġgrowth":3154,"Ġthrown":3155,"Ġproducts":3156,"Ġbaskets":3157,"Ġrelation":3158,"Ġnights":3159,"Ġbrother":3160,"Ġpatience":3161,"Ġpattern":3162,"Ġgrooves":3163,"spond":3164,"Ġamounts":3165,"Ġseparated":3166,"Ġtypically":3167,"Ġweek":3168,"Ġfriends":3169,"Ġlimbs":3170,"Ġforgiven":3171,"Ġkilling":3172,"Ġconstruction":3173,"Ġcorrespond":3174,"Ġsignal":3175,"Ġsignifi":3176,"Ġcapable":3177,"Ġorgans":3178,"Ġorienting":3179,"Ġwrong":3180,"Ġrisk":3181,"ifying":3182,"Ġsweat":3183,"Ġstretch":3184,"Ġwinter":3185,"Ġgathering":3186,"Ġutil":3187,"Ġassess":3188,"Ġtwigs":3189,"Ġmemory":3190,"Ġinjury":3191,"Ġmonths":3192,"Ġcloser":3193,"Ġhealthy":3194,"Ġmental":3195,"travel":3196,"Ġquestions":3197,"Ġinitial":3198,"Ġissue":3199,"Ġmilkweed":3200,"Ġfrost":3201,"Ġinterest":3202,"Ġburdock":3203,"Ġmountain":3204,"Ġdoubt":3205,"Ġdamage":3206,"Ġtraveling":3207,"Ġamerica":3208,"Ġadvantage":3209,"Ġsquirrel":3210,"Ġpreparation":3211,"Ġescape":3212,"Ġresources":3213,"Ġhypothermia":3214,"Ġentertainment":3215,"Ġoxygen":3216,"Ġperpendicular":3217,"Ġboughs":3218,"Ġfashion":3219,"Ġunderneath":3220,"25":3221,"aves":3222,"bu":3223,"bon":3224,"bark":3225,"den":3226,"eve":3227,"eld":3228,"fety":3229,"go":3230,"gree":3231,"hang":3232,"long":3233,"ox":3234,"off":3235,"phere":3236,"ye":3237,"you":3238,"zing":3239,"Ġtired":3240,"Ġsed":3241,"Ġsent":3242,"Ġoat":3243,"Ġwoo":3244,"Ġband":3245,"Ġcate":3246,"Ġpa":3247,"Ġpenc":3248,"Ġmes":3249,"Ġtoday":3250,"lection":3251,"Ġthrust":3252,"Ġep":3253,"Ġdom":3254,"Ġdress":3255,"ories":3256,"Ġlake":3257,"Ġlace":3258,"Ġlate":3259,"Ġlord":3260,"Ġning":3261,"Ġnuts":3262,"Ġnished":3263,"Ġbeam":3264,"roy":3265,"Ġger":3266,"Ġgal":3267,"Ġgut":3268,"Ġgathered":3269,"stone":3270,"Ġster":3271,"Ġstom":3272,"Ġstud":3273,"Ġfort":3274,"Ġfield":3275,"ury":3276,"Ġrange":3277,"ises":3278,"change":3279,"verty":3280,"Ġspac":3281,"Ġmoon":3282,"Ġsend":3283,"Ġselect":3284,"Ġsug":3285,"Ġplus":3286,"Ġdel":3287,"Ġcoll":3288,"Ġcoil":3289,"Ġpods":3290,"Ġpoverty":3291,"Ġlip":3292,"Ġlives":3293,"Ġprob":3294,"Ġprof":3295,"Ġprote":3296,"Ġproper":3297,"Ġexcess":3298,"aked":3299,"Ġkits":3300,"Ġtrunk":3301,"Ġfear":3302,"Ġcoming":3303,"Ġchos":3304,"Ġchunks":3305,"Ġwaterproof":3306,"ushing":3307,"ieve":3308,"Ġje":3309,"ively":3310,"Ġtem":3311,"Ġteaching":3312,"Ġsheltered":3313,"Ġhog":3314,"iving":3315,"Ġpecking":3316,"Ġbuck":3317,"inted":3318,"ooking":3319,"Ġoverhang":3320,"Ġblown":3321,"Ġblade":3322,"Ġbrain":3323,"Ġunf":3324,"Ġgravel":3325,"Ġscent":3326,"degree":3327,"Ġcompet":3328,"Ġheating":3329,"Ġpeoples":3330,"Ġmaple":3331,"Ġcraft":3332,"Ġimpact":3333,"Ġcarbon":3334,"Ġpartic":3335,"Ġparticular":3336,"Ġwanted":3337,"Ġlocated":3338,"Ġlocations":3339,"shaped":3340,"ension":3341,"Ġproviding":3342,"Ġknead":3343,"Ġearli":3344,"Ġerence":3345,"Ġlightly":3346,"Ġaccom":3347,"Ġaccount":3348,"Ġsunlight":3349,"Ġlengths":3350,"Ġtying":3351,"Ġsupply":3352,"Ġskinning":3353,"Ġstarted":3354,"Ġstraightedge":3355,"olog":3356,"Ġremoval":3357,"Ġconsc":3358,"Ġseries":3359,"Ġplease":3360,"Ġsafety":3361,"Ġentr":3362,"Ġinstru":3363,"Ġlashed":3364,"Ġprotru":3365,"ibly":3366,"Ġsixty":3367,"Ġsolve":3368,"Ġsolid":3369,"Ġpresence":3370,"Ġcooler":3371,"Ġresting":3372,"Ġvisit":3373,"Ġturns":3374,"Ġcamping":3375,"Ġhearts":3376,"Ġbends":3377,"Ġlearned":3378,"Ġtouching":3379,"Ġhunters":3380,"Ġwalking":3381,"Ġoccup":3382,"Ġfrequ":3383,"Ġgenerally":3384,"Ġstrike":3385,"Ġopport":3386,"Ġpacking":3387,"Ġaware":3388,"Ġmedic":3389,"Ġbenefi":3390,"Ġconstructed":3391,"Ġwrapped":3392,"Ġdegree":3393,"Ġprayer":3394,"Ġcapture":3395,"Ġpenal":3396,"Ġoccurs":3397,"Ġsweating":3398,"Ġstories":3399,"Ġmodifi":3400,"Ġprojects":3401,"Ġtasks":3402,"Ġrepres":3403,"Ġperiods":3404,"Ġperiodically":3405,"Ġsoup":3406,"Ġimmediate":3407,"Ġemotion":3408,"Ġbreath":3409,"Ġsoaked":3410,"Ġsteamed":3411,"Ġcouple":3412,"Ġcounter":3413,"Ġchalleng":3414,"Ġeventually":3415,"Ġquestion":3416,"Ġtiny":3417,"Ġinitially":3418,"Ġissues":3419,"Ġridgepole":3420,"Ġuprights":3421,"Ġlying":3422,"Ġvegetation":3423,"Ġdetail":3424,"Ġvarying":3425,"Ġjerky":3426,"Ġkingdom":3427,"Ġbalance":3428,"Ġvenison":3429,"Ġabrading":3430,"Ġanswer":3431,"Ġgallon":3432,"Ġobser":3433,"Ġmentioned":3434,"Ġexposure":3435,"Ġadequate":3436,"Ġpunky":3437,"Ġfeatures":3438,"Ġtrigger":3439,"Ġvehicle":3440,"Ġpencil":3441,"Ġgalax":3442,"Ġstomach":3443,"Ġchosen":3444,":âĢ¢":3445,"20":3446,"?âĢ¢":3447,"aust":3448,"bur":3449,"com":3450,"eight":3451,"even":3452,"fact":3453,"hical":3454,"ming":3455,"mit":3456,"mal":3457,"night":3458,"raid":3459,"wear":3460,"work":3461,"ying":3462,"Ġtle":3463,"hest":3464,"inent":3465,"Ġsong":3466,"Ġsag":3467,"Ġsite":3468,"Ġsense":3469,"Ġou":3470,"reg":3471,"Ġwa":3472,"Ġwed":3473,"Ġwal":3474,"erv":3475,"Ġcust":3476,"Ġcial":3477,"Ġcations":3478,"Ġcup":3479,"Ġfred":3480,"Ġfry":3481,"Ġfacing":3482,"Ġfavor":3483,"Ġph":3484,"Ġpou":3485,"Ġpet":3486,"Ġmen":3487,"Ġmast":3488,"Ġthread":3489,"Ġhind":3490,"Ġhate":3491,"Ġhund":3492,"Ġden":3493,"Ġdir":3494,"Ġinfect":3495,"iting":3496,"ites":3497,"Ġlamp":3498,"Ġlabor":3499,"Ġnine":3500,"rodu":3501,"Ġgas":3502,"Ġgent":3503,"Ġgone":3504,"alan":3505,"Ġstage":3506,"Ġstates":3507,"Ġrewood":3508,"Ġrefl":3509,"ican":3510,"ication":3511,"ask":3512,"ashed":3513,"idence":3514,"âĢľ":3515,"Ġfill":3516,"Ġrings":3517,"Ġrhy":3518,"Ġant":3519,"Ġcanad":3520,"Ġheard":3521,"Ġnoted":3522,"illed":3523,"Ġsequ":3524,"Ġsust":3525,"Ġsuper":3526,"this":3527,"thick":3528,"Ġwearing":3529,"Ġdeli":3530,"Ġsoaking":3531,"rial":3532,"Ġcore":3533,"Ġpoison":3534,"Ġpolle":3535,"Ġconif":3536,"Ġprop":3537,"Ġexact":3538,"Ġexerc":3539,"Ġvol":3540,"Ġvoid":3541,"Ġkid":3542,"Ġmeals":3543,"ulting":3544,"Ġtracks":3545,"ession":3546,"Ġchances":3547,"Ġintest":3548,"Ġintrodu":3549,"Ġclosed":3550,"Ġdrain":3551,"vest":3552,"Ġabdom":3553,"Ġabund":3554,"Ġsurpr":3555,"Ġjack":3556,"Ġteach":3557,"asting":3558,"unch":3559,"Ġsmear":3560,"Ġpemm":3561,"Ġpebble":3562,"Ġstrap":3563,"Ġthanks":3564,"Ġwoodch":3565,"iginal":3566,"Ġcontent":3567,"Ġcontrol":3568,"Ġprinted":3569,"Ġgoodness":3570,"Ġpointy":3571,"Ġpointed":3572,"ago":3573,"Ġgrant":3574,"Ġarri":3575,"ister":3576,"Ġgold":3577,"Ġgosp":3578,"els":3579,"ulls":3580,"Ġdesp":3581,"Ġapplic":3582,"Ġpits":3583,"Ġcramps":3584,"Ġrespect":3585,"Ġresulting":3586,"Ġimpress":3587,"Ġboomer":3588,"Ġavalan":3589,"Ġobv":3590,"ference":3591,"rub":3592,"Ġsitting":3593,"Ġlets":3594,"Ġdrift":3595,"Ġhelpful":3596,"Ġnorthern":3597,"Ġdiffic":3598,"Ġprovided":3599,"Ġcolder":3600,"Ġfollows":3601,"Ġaccept":3602,"Ġterrest":3603,"Ġbread":3604,"Ġbreaking":3605,"Ġloos":3606,"Ġsecure":3607,"Ġplanning":3608,"ption":3609,"Ġpersonal":3610,"Ġtried":3611,"Ġsplin":3612,"Ġstraightening":3613,"allest":3614,"Ġspears":3615,"Ġtrouble":3616,"Ġserious":3617,"Ġmarket":3618,"Ġdistur":3619,"Ġrecog":3620,"Ġcooling":3621,"Ġsquare":3622,"Ġbending":3623,"Ġsections":3624,"Ġbags":3625,"Ġthinking":3626,"Ġrelax":3627,"Ġtouches":3628,"Ġwidely":3629,"Ġcalm":3630,"Ġdeserts":3631,"Ġpreventing":3632,"Ġtemperatures":3633,"Ġ90":3634,"Ġhappened":3635,"Ġafraid":3636,"Ġinjured":3637,"Ġbaited":3638,"Ġfinding":3639,"Ġadditionally":3640,"Ġmargin":3641,"Ġstars":3642,"Ġconstruct":3643,"Ġstalking":3644,"Ġconnected":3645,"Ġincreases":3646,"Ġcommonly":3647,"Ġimages":3648,"Ġincluded":3649,"Ġmorn":3650,"Ġrises":3651,"Ġcarrying":3652,"Ġdiscuss":3653,"Ġexplod":3654,"Ġbedding":3655,"Ġtransfer":3656,"Ġquarter":3657,"Ġpools":3658,"fourth":3659,"Ġsoul":3660,"Ġadjusted":3661,"Ġindicat":3662,"Ġfamily":3663,"Ġorganic":3664,"Ġpopular":3665,"Ġraised":3666,"Ġoverlap":3667,"Ġpockets":3668,"Ġlensatic":3669,"Ġabsor":3670,"Ġregularly":3671,"Ġsalt":3672,"Ġsprings":3673,"Ġsearch":3674,"Ġvitamin":3675,"Ġelectric":3676,"Ġhigher":3677,"Ġplatform":3678,"Ġdiagon":3679,"Ġcloud":3680,"Ġwritten":3681,"Ġexhaust":3682,"Ġovercome":3683,"hetic":3684,"Ġnational":3685,"Ġsizes":3686,"Ġbanks":3687,"Ġribs":3688,"Ġwoof":3689,"Ġopportun":3690,"Ġhundred":3691,"Ġsequence":3692,"Ġpollen":3693,"Ġabdominal":3694,"Ġgospel":3695,"Ġboomerang":3696,"Ġterrestrial":3697,"Ġrecogn":3698,"ah":3699,"aj":3700,"ales":3701,"bit":3702,"burn":3703,"cial":3704,"dry":3705,"ech":3706,"ging":3707,"hill":3708,"ipping":3709,"ker":3710,"kins":3711,"lock":3712,"mable":3713,"nins":3714,"oe":3715,"ofi":3716,"pes":3717,"pack":3718,"pound":3719,"shel":3720,"tw":3721,"tract":3722,"uage":3723,"uous":3724,"uals":3725,"wing":3726,"ware":3727,"west":3728,"yer":3729,"zhe":3730,"Ġtn":3731,"Ġtent":3732,"Ġtire":3733,"Ġak":3734,"Ġax":3735,"Ġast":3736,"Ġaud":3737,"inous":3738,"inzhe":3739,"Ġsins":3740,"Ġther":3741,"Ġoating":3742,"Ġoaks":3743,"ream":3744,"Ġwi":3745,"Ġward":3746,"Ġic":3747,"Ġice":3748,"Ġbill":3749,"Ġbare":3750,"ero":3751,"erly":3752,"Ġcess":3753,"Ġcand":3754,"Ġcrow":3755,"Ġcrop":3756,"Ġfing":3757,"Ġpict":3758,"Ġmer":3759,"Ġmass":3760,"Ġmaj":3761,"Ġtoss":3762,"Ġtops":3763,"Ġthor":3764,"Ġthod":3765,"Ġthreat":3766,"Ġell":3767,"Ġest":3768,"Ġhooks":3769,"Ġder":3770,"Ġdur":3771,"Ġinvest":3772,"orter":3773,"orth":3774,"iter":3775,"llr":3776,"Ġlone":3777,"Ġlang":3778,"Ġnar":3779,"Ġned":3780,"Ġnal":3781,"Ġnur":3782,"Ġnally":3783,"enari":3784,"roke":3785,"Ġgure":3786,"Ġgave":3787,"Ġgames":3788,"otions":3789,"although":3790,"Ġstation":3791,"Ġstack":3792,"Ġstinging":3793,"icago":3794,"omfort":3795,"sects":3796,"ays":3797,"ldom":3798,"Ġann":3799,"Ġants":3800,"isable":3801,"imate":3802,"Ġleak":3803,"Ġaspect":3804,"Ġshin":3805,"Ġshoot":3806,"Ġshapes":3807,"Ġhell":3808,"Ġheap":3809,"app":3810,"Ġnoting":3811,"Ġnotches":3812,"ady":3813,"Ġsport":3814,"Ġsphere":3815,"Ġsea":3816,"Ġseal":3817,"Ġsever":3818,"Ġseldom":3819,"thm":3820,"Ġdeb":3821,"Ġsoci":3822,"Ġdog":3823,"Ġcost":3824,"Ġence":3825,"Ġalto":3826,"Ġexal":3827,"Ġexchange":3828,"Ġvig":3829,"Ġvia":3830,"ickly":3831,"Ġmeet":3832,"Ġtrad":3833,"Ġfell":3834,"ateful":3835,"Ġchicago":3836,"Ġclass":3837,"Ġsheet":3838,"usion":3839,"Ġload":3840,"Ġlosing":3841,"Ġhandful":3842,"Ġsmallest":3843,"Ġpean":3844,"Ġpeaks":3845,"Ġbucking":3846,"Ġbullr":3847,"Ġstraw":3848,"Ġstrands":3849,"Ġstrung":3850,"Ġwhose":3851,"Ġprone":3852,"Ġprickly":3853,"Ġquart":3854,"Ġquinzhe":3855,"Ġunlike":3856,"Ġthroughout":3857,"overed":3858,"Ġgrape":3859,"Ġgrateful":3860,"ctions":3861,"Ġscor":3862,"Ġscience":3863,"Ġscoring":3864,"Ġscenari":3865,"sol":3866,"Ġammable":3867,"Ġcomput":3868,"Ġerror":3869,"aved":3870,"anged":3871,"Ġcraw":3872,"Ġcrushed":3873,"teen":3874,"Ġclays":3875,"Ġharden":3876,"Ġbob":3877,"Ġmats":3878,"Ġmatters":3879,"Ġsimult":3880,"Ġmetal":3881,"Ġatten":3882,"Ġtopograp":3883,"Ġcompasses":3884,"Ġknee":3885,"itional":3886,"Ġgrease":3887,"Ġerect":3888,"Ġreadily":3889,"Ġaccur":3890,"Ġtempt":3891,"Ġowers":3892,"Ġeffect":3893,"Ġformed":3894,"Ġsmoking":3895,"then":3896,"Ġhappiness":3897,"Ġsurely":3898,"Ġdepos":3899,"Ġspearhead":3900,"Ġcovers":3901,"Ġ67":3902,"Ġpractical":3903,"Ġchest":3904,"Ġtrapped":3905,"Ġwinds":3906,"Ġpulls":3907,"Ġnumbers":3908,"Ġsteady":3909,"Ġpurch":3910,"Ġpurifi":3911,"Ġincred":3912,"Ġprotract":3913,"Ġglue":3914,"Ġguil":3915,"Ġdrawing":3916,"Ġsnug":3917,"Ġsnapping":3918,"Ġgrows":3919,"Ġgrowing":3920,"Ġscraping":3921,"Ġseconds":3922,"Ġtechnology":3923,"Ġproduct":3924,"Ġhairs":3925,"Ġspecific":3926,"Ġbroke":3927,"Ġwalked":3928,"Ġconstant":3929,"Ġavoided":3930,"Ġminute":3931,"Ġswim":3932,"Ġnative":3933,"Ġadvisable":3934,"Ġprotects":3935,"Ġigloos":3936,"Ġ98":3937,"Ġhappening":3938,"Ġcondem":3939,"Ġgenerated":3940,"Ġpaste":3941,"000":3942,"ternal":3943,"Ġbigger":3944,"Ġhooked":3945,"Ġarms":3946,"Ġbarrel":3947,"Ġcell":3948,"ney":3949,"Ġillness":3950,"Ġstarch":3951,"Ġinsulating":3952,"Ġtreated":3953,"Ġsuffering":3954,"Ġbringing":3955,"Ġtannins":3956,"Ġturkey":3957,"Ġoriented":3958,"Ġcalls":3959,"issue":3960,"Ġchanged":3961,"Ġrising":3962,"Ġcountry":3963,"Ġetching":3964,"Ġexists":3965,"Ġstretching":3966,"Ġhypo":3967,"Ġtransp":3968,"Ġexpected":3969,"Ġplanets":3970,"Ġtainer":3971,"Ġolder":3972,"Ġabrade":3973,"Ġhinges":3974,"Ġexcavated":3975,"Ġenvironments":3976,"azing":3977,"Ġemotions":3978,"Ġemergenc":3979,"Ġodor":3980,"Ġlisten":3981,"Ġsubstrate":3982,"Ġiron":3983,"Ġblend":3984,"Ġprominent":3985,"Ġcanteens":3986,"Ġblowing":3987,"Ġdesires":3988,"Ġrighteousness":3989,"Ġcrosspiece":3990,"Ġstopped":3991,"Ġheavenly":3992,"Ġoils":3993,"Ġbeautiful":3994,"Ġxed":3995,"Ġstitching":3996,"Ġprecise":3997,"Ġserviceable":3998,"Ġtube":3999,"Ġrmly":4000,"Ġoutdoor":4001,"Ġcombination":4002,"Ġtasty":4003,"Ġwestern":4004,"Ġdestroy":4005,"Ġbuckskin":4006,"Ġmistake":4007,"Ġmercy":4008,"Ġspiral":4009,"Ġdivided":4010,"Ġhobby":4011,"Ġbolas":4012,"Ġinstrument":4013,"Ġachieve":4014,"Ġarise":4015,"Ġlongh":4016,"Ġribbing":4017,"Ġfloor":4018,"Ġforgiveness":4019,"oxide":4020,"Ġcateg":4021,"Ġdressing":4022,"Ġpenalty":4023,"Ġmaster":4024,"Ġgentle":4025,"Ġrhythm":4026,"Ġconifer":4027,"Ġexercise":4028,"Ġpemmican":4029,"Ġobvious":4030,"Ġdiagonal":4031,"Ġthorough":4032,"Ġellip":4033,"Ġlanguage":4034,"Ġnurture":4035,"Ġsociety":4036,"Ġaltogether":4037,"Ġprotractor":4038,"14":4039,"15":4040,"19":4041,"32":4042,"60":4043,"aily":4044,"bite":4045,"body":4046,"cles":4047,"count":4048,"fit":4049,"gan":4050,"gest":4051,"iency":4052,"iï¬ģ":4053,"kal":4054,"ler":4055,"lar":4056,"lies":4057,"liness":4058,"ph":4059,"pri":4060,"rated":4061,"rary":4062,"ratch":4063,"some":4064,"sity":4065,"size":4066,"tles":4067,"uit":4068,"vate":4069,"Ġ&":4070,"Ġters":4071,"Ġture":4072,"Ġties":4073,"Ġtance":4074,"Ġtissue":4075,"Ġater":4076,"Ġakes":4077,"Ġaustr":4078,"ina":4079,"inse":4080,"inant":4081,"Ġsion":4082,"Ġske":4083,"Ġsch":4084,"Ġsil":4085,"Ġsisters":4086,"Ġot":4087,"reen":4088,"Ġwent":4089,"Ġwad":4090,"Ġwire":4091,"Ġbou":4092,"Ġbat":4093,"Ġbri":4094,"Ġbits":4095},"merges":["Ġ t","Ġ a","h e","i n","Ġ s","Ġt he","Ġ o","r e","Ġ w","Ġ i","Ġ b","n d","e r","o u","Ġ c","Ġ f","a t","in g","Ġ p","Ġ m","Ġt o","l e","Ġt h","Ġ e","Ġa nd","Ġ h","Ġ d","o n","Ġ in","o r","e s","Ġo f","a n","Ġ y","i t","a r","l l","Ġi s","Ġy ou","e d","Ġ l","Ġ n","e n","Ġb e","r o","Ġ g","o t","a l","s t","v e","Ġi t","Ġo n","o w","Ġs t","Ġ u","Ġ re","i c","a s","Ġo r","a c","e t","u t","i on","i d","o m","it h","s e","Ġf or","Ġw ith","g h","Ġa re","o o","Ġth at","â Ģ","a y","l y","Ġf i","Ġh a","Ġyou r","u r","Ġw h","l d","he r","k e","Ġ r","i ll","Ġa n","i s","Ġc an","c h","i m","Ġ le","Ġa s","en t","c t","v er","Ġs h","Ġ he","a p","t er","Ġn ot","a d","Ġs p","id e","Ġm o","gh t","a ll","c e","r ou","i l","Ġw ill","Ġw he","a m","oo d","g e","Ġn e","i r","ro m","Ġs e","i ght","a in","Ġa t","Ġs u","Ġp l","at er","t h","Ġf rom","Ġw e","Ġi f","n t","b le","s s","Ġd e","q u","Ġha ve","Ġs o","k s","r i","Ġon e","Ġd o","Ġc o","Ġp o","Ġe n","at ion","Ġl i","Ġc on","Ġd i","t her","Ġa l","om e","Ġp ro","Ġwhe n","Ġe x","Ġo ut","a k","u m","Ġ (","er s","ar d","Ġ v","Ġa ll","a ke","p p","Ġw or","Ġ k","ic k","o d","Ġm e","u l","Ġt r","in d","u re","Ġf e","ac e","Ġo ther","Ġp re","at e","es s","Ġc om","Ġc h","Ġwh at","Ġ ro","Ġb ut","Ġb y","Ġin t","Ġc l","Ġu p","Ġu s","b r","f t","ou ld","an t","e p","u st","Ġd r","Ġs he","Ġw ater","v es","Ġ âĢ","on e","Ġa b","a nd","Ġf l","Ġthe m","ac k","u s","c k","âĢ Ļ","on g","Ġs ur","rou nd","ou t","i e","Ġl o","Ġt w","Ġth is","Ġ j","i ve","p le","Ġthe y","ar t","a re","f f","Ġt e","Ġs ome","Ġshe l","a st","Ġ 1","Ġha nd","Ġh o","u n","i le","Ġmo re","all y","c he","Ġt im","Ġa d","i v","Ġ /","Ġint o","Ġne ed","Ġ <","Ġ/ >","as s","ou r","Ġs m","re e","es t","n ow","h ing","or t","Ġshel ter","Ġp e","e ct","in e","ou gh","m p","Ġb u","in t","i ld","re at","o re","oo k","Ġst r","Ġm ake","a ble","Ġm y","Ġo ver","Ġle a","ou nd","Ġth an","v ing","Ġb l","ro w","Ġre m","Ġtw o","a ge","ar k","ow n","Ġtim e","Ġb r","Ġe v","che s","Ġbe c","Ġu se","ic h","Ġsh ould","Ġan y","Ġw ood","Ġm ay","Ġe nd","Ġli ke","a u","Ġto o","i g","u e","i al","i p","re d","Ġm an","Ġn o","Ġcon t","Ġd own","Ġwor k","at her","Ġwh o","rou gh","Ġp r","Ġ qu","Ġs l","Ġu n","ac t","Ġg ood","Ġth rough","Ġsur v","e nd","Ġh ide","it y","Ġ Ġ","Ġf o","Ġpo int","Ġw ay","a g","o ve","le d","Ġg r","Ġwh ich","ing s","Ġw as","ct ion","Ġh ow","Ġh as","Ġpl ace","Ġ ke","Ġa r","am e","Ġab out","ur n","Ġad d","a w","Ġthe ir","an s","au se","e ar","ver y","Ġthe n","Ġg et","Ġs k","i st","Ġus ed","i f","ac h","Ġg o","e l","Ġs c","t ing","Ġbe t","s o","âĢ Ŀ","Ġdr y","u ll","Ġc or","ĠâĢ ľ","c c","s ide","ou s","le s","d e","e m","Ġa m","Ġl ong","Ġex p","Ġcom p","ad e","Ġd es","Ġwh ile","Ġwhe re","w e","Ġb ack","Ġe as","Ġo p","w ay","Ġ er","Ġhe at","Ġb ot","Ġg round","ic e","o ple","t le","Ġof f","i es","Ġ ing","ak ing","m ent","w ard","nd er","Ġe d","Ġpe ople","Ġb ow","Ġst ick","Ġ nd","Ġthe re","o s","Ġke ep","Ġwe ll","ĠâĢ ¢","a v","n g","Ġa pp","Ġsm all","a il","âĢ Ķ","Ġbec ause","Ġman y","an g","it e","Ġc ut","Ġp it","Ġh um","Ġon ly","Ġare a","Ġp ie","Ġal so","p s","g et","i re","i ble","Ġp er","om et","iv al","Ġu nt","i z","Ġk now","c es","a ve","Ġm ap","Ġsurv ival","Ġ 2","Ġs ide","Ġm u","Ġl ar","o se","Ġa round","Ġc r","Ġdi re","Ġs omet","Ġb as","Ġin ches","ot her","Ġre s","c ks","Ġu nder","Ġhe l","Ġev en","Ġfe w","t e","Ġi mp","Ġse e","Ġall ow","Ġcl ay","Ġc ar","Ġdo es","f ul","Ġp ot","Ġsu ch","p e","Ġm ater","Ġh ard","a b","c l","Ġs et","Ġbu ild","Ġunt il","r y","ion s","se l","Ġ -","Ġt ip","in k","Ġp art","an ce","Ġmater ial","n ess","Ġb o","Ġth ree","b er","f ore","Ġon ce","im al","it tle","Ġre qu","Ġit s","Ġa g","Ġan other","Ġen ough","od y","Ġlea ves","Ġs now","Ġbe l","n ing","Ġw ar","Ġm at","Ġm ade","Ġof t","Ġj ust","Ġcor d","Ġs im","Ġg reat","Ġan imal","Ġt ake","Ġo ur","Ġb ody","Ġd ay","Ġbr an","at ed","Ġr st","g er","Ġa v","Ġw ant","Ġho ld","Ġbet we","Ġeas i","Ġmu ch","Ġbetwe en",") .","u nt","Ġo b","Ġm ust","Ġfe et","he d","Ġb ark","Ġf ood","Ġl ittle","Ġg od","Ġlo c","f e","i se","j ect","Ġm et","Ġmo ve","c ess","o nd","r u","Ġ very","Ġc le","Ġsomet hing","Ġcord age","t y","Ġs it","i x","s h","Ġb urn","Ġle t","ng th","Ġbot h",") ,","en ce","Ġat t","Ġw ould","Ġd ri","Ġop en","r ap","Ġc are","ll ow","Ġle ft","Ġother s","at ing","Ġto p","Ġsp ind","Ġcont ain","Ġhel p","f or","Ġf ound","Ġin side","Ġspind le","Ġe ach","Ġhe ad","Ġthe se","ic al","Ġh is","Ġst ill","Ġcomp ass","ou nt","ar y","Ġn or","en s","oo l","âĢ ¢","Ġdi ff","Ġho le","Ġag ain","d u","ï ¬","Ġm aking","Ġst one","Ġpro v","Ġk n","l i","Ġe ar","it ion","Ġsp e","Ġpie ce","h od","Ġbe fore","ak es","Ġa way","Ġd is","Ġl ay","Ġg re","Ġar row","Ġmet hod","Ġw ild","Ġh ar","am p","Ġpl ac","Ġpl ant","Ġlar ge","f i","m er","Ġe re","Ġh unt","Ġre ad","Ġmo st","v ed","Ġl ook","Ġwe ight","Ġco ld","ul t","Ġch ap","Ġus ing","Ġs ame","er t","Ġc ook","Ġl ight","Ġfo llow","sel f","u d","Ġa c","Ġwith out","ent s","Ġt er","Ġst re","ic t","id es","Ġme at","Ġab ove","Ġrequ ire","l ing","Ġa cc","Ġp ers","Ġsu n","Ġte mp","Ġo w","Ġf ar","ot s","et er","Ġco l","Ġpre ss","Ġa ct","Ġb re","Ġy et","Ġle ngth","Ġro ck","Ġa ft","at ch","Ġle ss","Ġhand s","get her","Ġ #","Ġth ose","Ġh ot","Ġl oo","al s","Ġr ight","Ġfe el","Ġcl ot","Ġsur f","for m","re ss","Ġm in","Ġe ff","Ġe very","it her","Ġfor m","Ġare as","Ġse c","Ġt y","Ġs le","Ġd on","Ġsu pp","Ġro cks","d er","Ġ ï¬","Ġth ings","Ġl ow","as e","Ġpl an","Ġsm o","a ft","g g","l s","p t","t he","Ġf our","Ġl ine","al k","Ġed ge","Ġsurf ace","i ous","n er","o ck","le ss","Ġr un","Ġbel ow","Ġpers on","Ġc reat","Ġto gether","Ġpo ss","Ġsk in","Ġe y","ill s","ation s","Ġpre p","Ġdire ction","Ġt ri","re ad","Ġf r","Ġe ither","Ġl and","Ġbe ing","Ġbe en","Ġg ive","Ġha pp","Ġsu re","i gh","u ally","Â °","in ch","re es","le ct","Ġth ick","al f","Ġlo ve","Ġqu ick","Ġsl ow","Ġnor th","Ġsle ep","Ġa ir","Ġw et","Ġb est","at h","Ġy o","it s","is h","Ġde p","Ġrem ove","Ġhum ans","Ġbran ch","n s","Ġ .","Ġt ree","Ġf all","at ure","Ġst art","âĢ ĵ","Ġle ar","Ġsp ace","Ġpre v","Ġhar ves","Ġtemp er","a ight","e ver","i ent","in es","ro ss","ent ion","Ġsp l","Ġne w","Ġstr aight","Ġgr ass","Ġbet ter","x t","at es","al le","Ġsp ear","Ġco ver","iz e","o l","Ġs ap","Ġp ut","Ġha d","th ough","Ġpro cess","Ġrem o","Ġ 6","Ġm ind","ar ing","ap e","Ġsu b","Ġwe re","Ġex t","Ġpr im","Ġeasi ly","Ġ ve","Ġt rou","Ġst ep","Ġli fe","Ġcon s","Ġal ong","Ġmaterial s","Ġob ject","g y","i red","k et","Ġs er","Ġp le","it ive","Ġn ow","Ġpr act","Ġchap ter","Ġi de","Ġc he","Ġe ct","ic ks","Ġtr ap","Ġshelter s","a it","b ed","r ing","Ġs a","Ġw ind","Ġi m","Ġp ull","Ġwith in","Ġne xt","Ġwor d","Ġsupp ort","b s","t ed","u p","Ġ ver","Ġb one","Ġf a","Ġm id","Ġh our","or s","Ġl ater","Ġal though","Ġwar m","Ġsit u","o f","o p","Ġc re","Ġn um","ch ing","Ġas h","way s","he s","Ġe nt","Ġg iv","Ġne ar","Ġout side","Ġme ans","Ġcontain er","Ġt ion","Ġt ind","Ġm ark","Ġh im","Ġst e","Ġst icks","Ġfi re","ul ar","Ġlea ve","Ġhow ever","ull y","Ġpit ch","Ġagain st","Ġï¬ ģ","Ġposs ible",". )","in ation","Ġp ur","Ġin c","Ġin st","Ġl as","Ġsh ort","th ing","Ġdi st","Ġpro t","if i","Ġhunt ing","d le","g in","i ally","u b","Ġi g","Ġr ain","Ġsh aft","Ġcom m","Ġtim es","ĠĠ Ġ","em s","Ġdire ct","Ġplac ed","Ġtrou t","Ġtind er","b o","n ot","w ood","Ġd one","en c","Ġre c","Ġde ad","Ġte ch","Ġneed s","Ġop t","Ġear th","d ay","i ver","v al","Ġe at","Ġin s","Ġin cl","Ġy ear","Ġsh ow","Ġal ways","Ġexp er","ave l","Ġbre ak","i b","o id","t s","t om","t ain","Ġs ix","on s","Ġin d","Ġg l","Ġg u","Ġdr aw","Ġj o","are d","Ġbu nd","Ġhum an","Ġcle ar","c ri","g s","Ġf ather","Ġm us","Ġso l","Ġwor ld","Ġpre s","ig n","Ġsk ills","Ġpie ces","Ġgre en","i ence","Ġh igh","ar p","Ġg ame","Ġmo ving","Ġpoint s","Ġdes cri","Ġpress ure","Ġquick ly","f l","g es","p l","Ġt rees","Ġa ble","Ġs n","Ġs y","Ġs and","er gy","Ġc ool","on es","Ġg en","Ġg row","Ġre st","Ġbot tom","Ġc a","on t","Ġin de","Ġin form","se e","Ġen ergy","Ġv is","Ġdr ill","if e","Ġ 5","Ġt urn","Ġc amp","Ġd ue","ve l","Ġhe art","il ity","Ġwe ather","Ġsc rap","Ġsec ond","Ġspl it","Ġtech n","f er","re nt","Ġp ass","Ġth row","ar i","Ġbe gin","Ġst and","Ġre d","Ġyour self","Ġr aw","Ġde cl","Ġso ft","Ġpro du","Ġtr y","Ġdr ink","us h","che d","Ġbec ome","Ġgo al","Ġbas e","Ġimp ort","Ġbuild ing","Ġplant s","t o","re n","Ġc ould","Ġp ow","Ġth in","Ġe ight","Ġh alf","st and","Ġst ay","Ġdo or","Ġv al","Ġme an","Ġcom ple","Ġprov ide","Ġpract ice","Ġnum ber","Ġinform ation","Ġs qu","Ġbe nd","Ġre al","Ġha ir","ur ing","Ġr ather","ent ly","Ġse ction","Ġco al","Ġpo s","Ġrem em","Ġbas ket","Ġav ail","Ġloc ation","Ġcook ing","Ġfollow ing","Ġcre ate","i qu","u al","Ġ 3","Ġt ar","in ess","Ġb ag","ou ght","Ġc ur","Ġc ome","Ġp ine","Ġto ward","Ġth ink","Ġe s","Ġin ter","or y","an ge","Ġre l","Ġr ing","Ġhe re","Ġsp ot","ck et","Ġlong er","Ġres ult","Ġcle an","Ġlay er","Ġlear n",". âĢĿ","m o","Ġ 4","Ġt ou","Ġw ide","Ġw all","Ġc al","Ġf ast","Ġf ull","Ġp ar","it ies","Ġn ight","oo ks","ble m","Ġro t","Ġdes ert","Ġallow s","Ġkn ife","Ġspe c","Ġwild er","Ġcol lect","Ġslow ly","Ġide a","Ġimport ant","u de","in s","Ġb er","Ġb ro","Ġb ers","Ġth ir","Ġh un","Ġn g","ac hed","Ġfi r","Ġwh ite","ter s","am eter","Ġpro blem","Ġcont in","Ġdri ed","Ġprev ent","Ġprim itive","Ġhour s","f ort","f ully","Ġ \"","Ġs aw","Ġw alk","Ġc ent","Ġf at","Ġm ain","Ġm ix","Ġe l","Ġre g","Ġmo ist","Ġli ving","Ġcon st","Ġwork ing","Ġunder stand","Ġbran ches","Ġav oid","Ġow n","Ġavail able","h o","p ly","Ġo cc","Ġp at","Ġe se","om m","Ġsh arp","Ġrem ain","Ġfo ot","Ġday s","Ġrequire s","Ġmin ut","Ġsleep ing","Ġtemper ature","Ġremo ved","bo ard","Ġtar get","h y","l oo","v en","Ġ 8","Ġt ie","Ġs w","Ġf ree","Ġth ing","Ġin ch","ed s","Ġn at","Ġg ro","ac ks","Ġsh all","Ġwor ks","Ġad v","Ġstr u","Ġstr ong","Ġtoo ls","led ge","Ġlar ger","Ġsee k","Ġsim ple","Ġloo se","Ġdep end","Ġprot ect","Ġig loo","Ġ 7","Ġ 9","Ġs ize","Ġc ross","Ġf re","Ġf ore","Ġth ought","Ġl ines","id ing","Ġr ound","Ġhe av","Ġsp read","Ġch o","br is","Ġstr ing","Ġsim ply","Ġanimal s","Ġhapp en","Ġmid dle","Ġdecl ination","c ed","i ves","i ff","p o","Ġi val","Ġp ile","Ġd eter","an k","Ġre ally","Ġle ast","Ġpl ay","Ġde ep","Ġde bris","Ġco nd","Ġk ind","Ġte ll","Ġwho le","Ġeas y","Ġsmall er","Ġcut ting","Ġread y","Ġsmo ke","Ġche ck","Ġgiv en","Ġgen er","Ġtechn iqu","Ġremem ber","a le","k es","Ġ her","Ġa f","Ġw ound","Ġp ast","es us","Ġst ri","ut s","Ġha ving","Ġde c","end ed","Ġgo ing","Ġknow ledge","Ġfeel ing","Ġharves t","Ġgrass es","Ġwilder ness","0 0","m ed","Ġs our","Ġo pp","Ġb ir","ou th","Ġm ight","Ġin j","Ġn ger","en e","Ġg rou","Ġse p","Ġde er","um p","Ġtr avel","ie w","Ġbl ock","Ġend s","Ġway s","Ġget ting","Ġapp ro","Ġeasi er","Ġcomple te","' s","a ks","b e","s p","w ise","he re","Ġb ait","er ing","Ġp ri","Ġp ack","Ġm akes","Ġst ones","oo se","Ġsp ring","ri end","um b","Ġtr ue","Ġch ar","Ġus ually","Ġam ount","ment s","Ġcare ful","li ke","Ġere nt","Ġclot hing","Ġty pe","Ġfir st","e ad","i a","k ing","t ure","y ond","Ġa w","Ġa id","Ġb ooks","Ġc ause","Ġf act","Ġd ro","Ġd ark","Ġbe aring","Ġbe yond","Ġre t","id er","ter n","il t","Ġne ver","Ġat l","ri es","Ġtr ick","Ġcom es","Ġcl ose","ore d","Ġed ges","os ed","Ġpot s","Ġbel ie","Ġlow er","Ġminut es","Ġsep ar","c le","o g","p ro","s es","Ġa p","Ġs ay","Ġb ur","Ġc our","Ġc atch","Ġf ind","at t","Ġp ul","Ġm ed","Ġl ast","ot h","Ġre du","as ure","Ġcan not","am ple","ir t","Ġdi g","Ġex c","Ġpre fer","Ġho les","Ġlea f","cc ess","ab b","Ġobject s","Ġopt ion","mo st","o cks","p er","u g","he ad","Ġb it","Ġb ig","Ġf ru","Ġh ome","Ġh ook","or d","ut h","ight ly","Ġso il","Ġdi ameter","Ġex ample","Ġv ict","Ġv iew","Ġk il","Ġlo st","Ġj esus","Ġte nd","Ġneed le","Ġar m","Ġtip s","Ġcare fully","Ġty p","Ġsitu ation","enc y","Ġyear s","Ġpos ition","Ġcal led","Ġdeter m","Ġvict im","a x","c o","n ect","Ġt akes","Ġa ction","Ġw atch","Ġb ar","Ġc e","Ġe ld","Ġh ang","Ġd ust","it ed","ve red","Ġre board","ic ally","im es","Ġnot ch","Ġwe e","Ġco als","ak en","pp ed","ate ly","Ġbl ocks","Ġev il","Ġadd ition","Ġhel ps","Ġple nt","Ġmain tain","Ġnat ur",". \"","a id","n e","p ing","p ed","s ure","t on","Â ł","Ġi ll","Ġb ene","Ġc am","Ġf un","Ġf riend","at l","Ġm ar","Ġh or","an ces","Ġl im","Ġst ar","as es","Ġor der","et y","Ġfor g","Ġr u","Ġle g","Ġco vered","Ġk ill","Ġcom fort","Ġcl im","Ġany thing","Ġwood s","Ġtoo l","Ġdown ward","Ġfo ld","Ġdry ing","Ġapp ly","Ġsomet imes","Ġins ul","Ġinde ed","Ġconst ru","Ġgrou p","c ass","d om","r act","Ġt en","Ġt reat","Ġa ge","Ġs ine","Ġw are","Ġw rap","Ġin ner","Ġy um","Ġst alk","ic es","Ġhe al","Ġsu ff","Ġsu ccess","Ġde g","Ġli ve","Ġcon nect","Ġch ild","Ġro of","and s","Ġ1 5","Ġbr ing","Ġpr ay","Ġqu ite","Ġcor re","av ig","sel ves","Ġoft en","Ġopen ing","Ġac ross","Ġtri p","Ġsap ling","Ġsa fe","Ġinc re","Ġcomm on","Ġdirect ly","Ġpow er","Ġng ers","Ġmoist ure","Ġatl atl","Ġyum on","b y","c ially","m mer","n et","o y","Ġ ,","Ġt an","Ġt ur","in al","Ġs ign","Ġc ap","Ġc ir","Ġc ase","Ġm ag","Ġth us","Ġth umb","Ġd id","Ġl ot","Ġn avig","Ġg ently","Ġor g","Ġor ient","Ġfor ce","ent y","Ġup on","Ġ1 2","Ġhand le","Ġlea ving","Ġbec om","Ġcar cass","Ġbo il","Ġrequ ired","Ġatt ention","Ġstre am","Ġsmo oth","Ġland m","Ġim ag","Ġfa ith","Ġincl ud","Ġbund le","Ġdescri bed","Ġca us","Ġval ue","Ġcontin ue","Ġcent er","Ġplent y","d s","e e","i ed","re st","Ġw r","Ġc all","Ġp en","Ġp ain","Ġd uring","ot ion","is s","ce pt","Ġdi gg","Ġv ari","pp ing","Ġtr ail","Ġch ang","Ġsur round","Ġkeep ing","Ġimp ro","pe cially","Ġburn s","Ġexper ience","Ġocc ur","Ġstru ct","Ġret urn","' t","i ly","l ic","r ain","Ġs in","Ġb us","Ġm or","Ġd ang","Ġbe h","Ġit ems","Ġst op","Ġre as","Ġr is","Ġsh ape","Ġmo der","Ġne cess","Ġse en","Ġthem selves","Ġtw enty","ast e","Ġ1 6","Ġlike ly","Ġar t","if y","Ġthere fore","Ġcar ry","Ġmat ter","Ġatt ached","Ġdis c","Ġac or","Ġsupport ing","Ġeat en","ho ld","Ġaf ter","Ġpri or","Ġnatur al",", âĢĿ","c ent","e ous","f ect","h alf","w h","Ġa ff","in ed","Ġs we","Ġs ides","Ġb ook","Ġc ount","Ġe t","Ġe ast","Ġe sh","Ġl u","Ġn on","en ing","Ġst or","ut ion","Ġfor ward","Ġle vel","Ġnot e","Ġnot hing","Ġsp ots","Ġpl ate","Ġso cket","Ġen v","Ġex ist","Ġwor th","Ġ1 7","iv ity","Ġneed ed","Ġexp l","Ġapp ear","Ġcr ack","Ġmat the","Ġhold ing","Ġweight s","Ġstre t","Ġlear ning","alle l","Ġstep s","Ġent ry","Ġpar allel","Ġcho ice","Ġmatthe w","j ust","n ed","Ġw in","Ġb ed","Ġc att","Ġm om","Ġh y","ed ge","Ġg ather","Ġu t","Ġwh y","Ġr iver","Ġan g","is on","Ġas s","Ġmo d","Ġen ter","Ġen sure","Ġal most","Ġpro ject","Ġtr ans","Ġtw ig","Ġ1 9","un k","Ġbu ilt","Ġcont act","Ġam ong","Ġexp ect","iz ed","te mp","Ġmove ment","Ġarrow s","mer g","Ġclot h","Ġevery thing","Ġplan et","Ġey e","Ġword s","Ġfa ir","Ġinst ead","Ġlas hing","Ġdist ance","Ġmus ic","Ġes pecially","Ġgro ove","Ġsine w","Ġdigg ing","Ġbeh ind","# #","a ir","h ide","i ft","Ġt ain","Ġo ld","Ġm outh","Ġin v","Ġst ro","Ġre ach","Ġfi l","is hed","Ġle ad","ard s","Ġme m","Ġch ange","Ġab ility","ast ic","Ġ1 0","ile d","Ġneed les","Ġqu ar","Ġun iver","Ġadd ing","av ity","Ġmap s","Ġpart s","ict ion","Ġ# ##","Ġprep are","Ġect ive","Ġver ses","Ġlas h","Ġrec omm","Ġsour ce","Ġopp os","Ġinj ur","Ġcour se","Ġbus iness","Ġdang er","Ġcatt ail","d o","i or","i od","r ight","v ice","Ġt as","Ġt aken","Ġa br","re l","Ġp ool","Ġm on","Ġe ver","or k","it ions","ll y","en se","al ity","Ġre p","id ge","Ġr abb","Ġde al","Ġso on","Ġpo or","Ġli e","Ġex ible","Ġsome one","Ġpe ace","Ġper iod","Ġknow n","Ġ2 5","Ġloc al","Ġburn ing","Ġdiff e","Ġgre ater","Ġhapp ens","Ġincl ude","Ġtou ch","Ġfre sh","med i","Ġkil n","Ġstruct ure",". ,","a ving","f our","p ie","r or","s c","t en","Ġt est","Ġt aking","Ġs ou","Ġw is","Ġw ish","Ġw ait","ou se","Ġp ick","Ġh ing","ll ing","Ġl ack","Ġg ives","ic ular","as h","ac hing","Ġthat ch","ct ed","Ġsh ing","ir on","Ġat temp","Ġk it","Ġme asure","Ġro ots","Ġint ention","Ġcl os","ust r","Ġbl ood","Ġsc ore","Ġdes ired","Ġtip i","Ġprov ides","li ed","Ġstre ngth","Ġacc ess","Ġact ivity","Ġim medi","Ġbund les","Ġsy st","Ġdepend ing","Ġtrick y","Ġexc av","Ġtyp es","Ġheal th","Ġnavig ation","Ġnecess ary","Ġacor ns","Ġenv iron","Ġfair ly","Ġdiffe rent","- âĢ¢","a z","Ġs at","Ġs ound","Ġf t","Ġp age","Ġm ent","Ġe m","Ġe merg","Ġh on","Ġh ut","Ġd art","Ġl led","Ġg ri","Ġit self","Ġst ake","Ġr out","Ġle gs","ct s","ap s","ter y","Ġpl ow","Ġen j","Ġv ent","Ġro w","ant s","Ġlo ss","Ġhand hold","ile s","Ġad just","Ġbl ack","Ġsurv ive","Ġam e","Ġper form","Ġmu d","Ġbas ic","ab ly","Ġhead ing","Ġplac es","Ġcol or","Ġcreat or","read y","Ġgiv ing","Ġind ic","Ġresult s","Ġtechniqu e","Ġfru it","Ġhor iz","Ġchild ren","wh at","a ut","b ut","o ot","p ect","t r","Ġo d","re s","Ġb reat","Ġf am","Ġp ort","Ġp inch","Ġm il","Ġth ough","or ing","al m","st s","Ġre ward","Ġre pe","ap er","Ġsp end","Ġse l","Ġwe ap","Ġwe ak","qu id","Ġso ak","Ġdo ing","Ġli st","Ġli quid","Ġal ready","pp er","Ġtr uth","ip s","Ġgr ain","Ġcut s","Ġter rain","Ġï¬ Ĥ","Ġprep ared","Ġsub st","Ġsitu ations","Ġste am","Ġfast er","Ġthought s","Ġap art","co al","Ġclim ates","Ġdeg rees","Ġmag net","Ġmoder n","Ġmom ent","Ġrabb it","Ġenj oy","d y","Ġ 0","Ġ ers","Ġs ing","Ġw ick","Ġi r","Ġb le","Ġb ad","Ġc ou","Ġp ay","Ġp rom","Ġp hy","en ed","Ġon es","Ġon to","Ġst ory","Ġst iff","Ġre le","id ed","Ġha mmer","Ġcan te","Ġle an","ap or","ap ed","ter m","Ġmo v","Ġne ck","Ġse eds","Ġch alle","ck ing","Ġtw ist","Ġj ud","Ġ1 8","Ġbl ow","Ġbl ank","Ġev ent","Ġqu est","Ġsl ightly","Ġun less","Ġke y","Ġadd ed","Ġdes ire","te red","Ġcontain ers","Ġdirection s","Ġthick ness","Ġsa id","Ġpur p","Ġpres ent","Ġprodu ce","Ġcomplete ly","Ġchar coal","Ġsepar ate","Ġpul led","Ġredu ce","Ġwee ks","Ġorg an","Ġfil m","Ġintention ally","Ġphy s","b ar","c i","r a","u ff","z e","Ġ >","Ġt in","Ġt ough","re m","re ly","Ġw est","er c","Ġp ump","Ġm iss","Ġe gg","Ġin it","Ġis s","ed ing","as ed","Ġr ack","Ġr idge","is ed","im ent","Ġas k","Ġpl astic","ri st","Ġpo p","Ġout er","Ġv it","Ġfe ather","Ġpre t","Ġro ot","Ġup right","one y","Ġlo g","Ġte a","Ġ1 1","un g","Ġwork ed","ist ers","Ġexp osed","Ġapp lied","Ġ2 1","Ġallow ing","Ġpot tery","Ġmat ch","ert ain","Ġcook ed","Ġloo p","Ġright eous","Ġclot hes","Ġfr ame","Ġfr ont","Ġharves ted","Ġcons ider","Ġent ire","Ġpres er","Ġvis ible","Ġthrow ing","Ġcur rent","Ġunderstand ing","Ġcross pie","Ġbir ch","Ġmed ical","Ġbecom es","Ġchang es","Ġimpro ve","Ġang le","Ġuniver se","Ġrecomm end","Ġoppos ite","Ġrout e","Ġmil k","d ing","g r","g ress","o ver","t ical","y le","z el","Ġt ail","Ġs on","Ġc ave","Ġc ertain","Ġf ro","Ġf ut","Ġf ue","at ive","Ġp in","Ġp our","Ġp alm","Ġm otion","Ġm oney","Ġh it","Ġh ouse","Ġyou ng","Ġl y","Ġbe zel","ro l","Ġst o","Ġu r","Ġor t","Ġr a","Ġr ough","Ġr ich","Ġr ub","ad s","Ġsp in","il ar","am b","Ġse as","Ġde ath","Ġother wise","Ġro om","Ġshe ll","Ġ1 4","iv id","Ġbl an","Ġev ents","Ġev apor","Ġqu ality","Ġsl ide","Ġun c","Ġke pt","Ġsk ill","Ġheat ed","Ġhum ble","Ġ2 3","Ġres c","Ġhard er","Ġbo ard","Ġspe ed","Ġlook ing","Ġter m","ress ed","Ġcreat ed","Ġve get","Ġtrap s","Ġind ivid","Ġgu ide","Ġclear ly","Ġthir ty","Ġheav en","Ġtechniqu es","Ġdeterm ine","Ġhang ing","Ġbene ath","Ġcam ou","Ġinsul ation","Ġboil ing","Ġlandm ark","Ġinclud ing","Ġstro kes","Ġsyst em","Ġhoriz ont","Ġmagnet ic","Ġpret ty","i an","l ine","l ings","m m","n ers","p r","u nd","u es","u able","u cc","Ġo il","Ġc ult","Ġf ace","at s","Ġp or","Ġp ound","Ġto ng","le t","Ġe le","Ġh i","Ġh ides","Ġd et","Ġd amp","Ġy ucc","Ġn ess","Ġn oose","ve re","ac ter","ut e","Ġan ch","ent ial","ver se","Ġhe ld","ap ping","Ġwhe ther","am ps","Ġse em","Ġse ems","ain s","Ġsu it","um e","Ġv ary","Ġme rely","Ġint e","Ġj er","Ġ1 3","Ġover l","Ġman ner","Ġget s","Ġper fect","Ġ2 0","Ġhard wood","Ġwar mer","Ġsim ilar","Ġob st","Ġfood s","Ġatt ach","Ġear ly","Ġlay ers","Ġrun ning","Ġcreat ing","Ġcons ist","Ġig n","Ġsol ution","Ġraw hide","Ġwall s","Ġspec ifi","Ġmix ture","Ġheav y","Ġcond itions","Ġdec is","Ġappro ach","Ġbur d","Ġreas ons","Ġsel f","Ġweap on","Ġphys ical","Ġfut ure","Ġblan ket","Ġyucc a","d r","e en","l ight","m an","u ly","u ck","w here","y s","Ġt ight","Ġt ied","re t","Ġw ise","Ġw edge","Ġb row","er ic","Ġp aper","Ġm ount","Ġm iles","Ġd ou","Ġd am","Ġy es","Ġbe lly","Ġbe aut","Ġg ot","Ġg ear","Ġst ur","Ġu pper","Ġre ce","ic s","Ġan s","Ġle ather","Ġsh ade","Ġsh ift","Ġsp o","ce ed","Ġse vere","Ġpo cket","Ġk ing","Ġtr ust","Ġtr ave","ĠâĢ Ķ","Ġlo se","Ġtw el","Ġsome what","Ġmy self","Ġbr ush","Ġwood en","ag es","Ġsc ale","Ġknow ing","Ġ2 2","Ġbo x","ber ries","Ġwar p","Ġspe ak","Ġmethod s","Ġread ing","ious ly","Ġsap lings","Ġsub ject","Ġext end","Ġide as","Ġexper i","Ġtry ing","Ġmean ing","Ġinter ior","Ġrel ie","Ġproblem s","Ġel se","Ġtan ning","Ġcir cle","Ġimag ine","Ġinv ol","Ġhing e","Ġfue l","Ġobst ac","Ġtwel ve","h and","i ar","k en","l t","n ce","v is","Ġ x","Ġt ions","Ġs ight","Ġo or","Ġw id","Ġb al","Ġb ass","Ġc ient","Ġc avity","Ġm ir","Ġe en","ar s","Ġg ain","ot ton","Ġst it","Ġst ore","Ġu nd","Ġre f","ac ing","Ġthat ching","Ġcan t","Ġle ns","ver s","Ġmo ves","il iar","Ġsu gg","Ġde v","Ġde vel","qu ate","Ġen c","Ġv en","Ġme al","ure d","Ġch ance","Ġro ast","Ġus es","Ġab s","Ġlo gs","Ġstr and","ig ns","Ġpoint ing","Ġwas h","Ġam eric","Ġdes ign","Ġkeep s","Ġper cent","Ġacc omm","Ġfar ther","Ġprep aring","Ġharves ting","Ġremo ving","Ġext ended","Ġext ra","Ġopt ions","Ġvis ion","Ġcur ve","Ġrot ate","Ġhun ter","Ġreg ular","Ġadv ant","Ġplay ed","Ġkind s","Ġbelie ve","pro of","Ġcorre ct","Ġsurround ing","Ġet c","Ġinjur ies","Ġtas k","Ġabr ad","Ġemerg ency","Ġrepe at","Ġsing le","Ġseas on","Ġcamou fl","Ġstur dy","Ġsugg est","Ġaccomm od","b ers","c ing","f oot","o ss","u ed","Ġ z","Ġt all","Ġs al","Ġo od","Ġb ul","er n","Ġc ed","Ġc ame","Ġc ases","Ġc otton","Ġf ur","Ġe mp","Ġe ating","Ġd le","on ents","ar ks","ow s","Ġfor th","Ġr ap","Ġhe ight","Ġsp r","Ġse x","Ġse ar","th s","Ġde f","Ġde fi","Ġso ap","Ġpo le","Ġdi et","Ġal one","Ġpro gress","Ġex cept","ure s","Ġpre c","Ġch oose","Ġshe d","us hed","Ġho pe","Ġshould er","Ġany one","Ġfo l","Ġgr id","Ġed ible","Ġbow l","ang le","ite ly","Ġcr acks","Ġbo iled","Ġdri es","Ġdiff i","Ġplac ing","Ġacc ord","Ġform s","Ġfr iction","Ġser vice","Ġpull ing","Ġver tical","Ġmus cle","Ġdescri be","Ġsn are","Ġscrap er","Ġpass es","Ġbegin s","Ġsqu ir","Ġber ries","Ġprotect ion","Ġwound s","Ġforg ive","Ġru les","Ġapply ing","Ġincre ase","Ġstream s","Ġimmedi ately","Ġenviron ment","Ġpurp ose","Ġvit am","Ġfeather s","amb oo","Ġans w","Ġdevel op","Ġaccommod ate","b ing","c r","c us","k in","k ed","l le","m aking","n el","r ic","r um","u ss","w ater","Ġt ing","Ġt ill","Ġt ub","Ġt ightly","Ġt aste","Ġa uth","he red","in ing","Ġs ick","Ġs outh","Ġo l","Ġo ak","Ġw aste","Ġw rist","Ġb rou","Ġb un","Ġb less","Ġb ank","Ġb amboo","Ġc act","Ġf ail","Ġf ully","Ġp ath","Ġp ub","Ġm ate","Ġm ess","Ġe qu","Ġe lect","Ġh ig","Ġh uts","Ġd irt","Ġd ug","an e","Ġl it","Ġn et","Ġn est","Ġn ice","ro p","Ġg all","Ġst em","ic ing","as p","as ing","ac es","Ġfi sh","Ġwh ate","Ġr m","Ġr ial","Ġas ide","Ġsh are","Ġmo ved","ain ed","Ġsu ited","Ġpl at","Ġwe ft","Ġpo les","Ġdi ag","Ġout do","um ps","Ġv ar","Ġtr uly","Ġfe eding","Ġpre y","Ġcom b","Ġro ad","Ġint ended","Ġcl ou","Ġcl iff","iv en","Ġbl isters","ĠĠ ĠĠ","Ġfo cus","Ġcor ners","Ġeas e","Ġres p","Ġcar ve","Ġob s","Ġdri ve","Ġhead s","ï¬ ģ","Ġkn e","li able","Ġact ually","Ġbre aks","Ġfeel ings","Ġprep ar","Ġland sc","Ġfall s","Ġfall ing","Ġstart ing","Ġcover ing","Ġcons um","Ġser ve","Ġcomm un","Ġshow s","Ġdraw n","Ġjo h","Ġjo int","Ġinde x","Ġscrap e","Ġscrap ed","Ġstand ing","Ġdrink ing","ren ce","Ġpow der","Ġval uable","Ġsqu ee","Ġes c","Ġcollect ed","Ġbro ken","Ġreg ard","Ġshall ow","Ġdepend s","po le","po int","Ġher bs","Ġsour ces","Ġchar acter","Ġbelie f","og rap","Ġcomfort able","Ġsuff i","Ġcaus ing","Ġcaus es","Ġwr it","Ġvari ety","Ġdanger ous","Ġwis dom","Ġperform ance","Ġcante en","Ġindivid ual","Ġhorizont al","Ġanch or","Ġbrow n","Ġrece ive","Ġbass wood","Ġmir ror","Ġaccord ing","Ġtill ering","Ġauth or","Ġwhate ver",". âĢ¢","a led","b ble","d i","e x","h ic","m ia","n ge","o ves","o gy","r ate","u ps","Ġ ll","Ġt re","Ġt ap","Ġt ast","Ġa im","Ġs ave","Ġs ink","Ġo x","Ġw at","Ġw es","Ġw ool","Ġw ider","Ġi es","Ġb ones","Ġc oo","at ter","ing ing","Ġm ention","Ġe ss","Ġh ur","Ġh iding","Ġd est","Ġy ork","ar m","Ġn ish","Ġg e","Ġg ills","ot e","Ġst ate","Ġst akes","Ġst uff","Ġst yle","Ġre liable","ic ed","ac hes","om er","oo p","Ġfi s","Ġfi ght","ch an","Ġle e","Ġsh o","Ġsh ad","Ġnot ice","Ġsp ine","am s","Ġde eds","Ġli ft","Ġex h","Ġme chan","Ġro ll","ant ly","Ġfl at","Ġj u","Ġshel f","Ġsm e","Ġbu cks","Ġover c","Ġun s","Ġun w","Ġgr ab","if ul","Ġgo es","Ġexp os","Ġexp ress","Ġcomp onents","Ġbow s","av or","Ġper p","Ġ2 4","Ġimp oss","ab or","Ġwar ps","Ġgreat ly","Ġdis ap","Ġhar m","Ġac qu","Ġloo ks","Ġey es","Ġthick er","ol ogy","Ġext rem","Ġste ep","Ġshow ing","Ġexper iment","ib ility","Ġjo b","Ġsol ar","ari ly","Ġeight een","Ġcollect ing","Ġthir d","Ġremain ing","Ġloose ly","Ġfore st","Ġcho ices","Ġkind ling","Ġdro p","Ġfru its","Ġmar ks","Ġcir c","Ġlandm arks","Ġmor ning","Ġlu ke","Ġhon or","Ġgri p","Ġport ion","Ġjud ge","Ġcrosspie ces","Ġtong s","Ġsuit able","Ġobstac le","Ġwid th","Ġced ar","Ġrap id","Ġlandsc ape","Ġjoh n","Ġimposs ible","b t","d ent","e red","i o","k y","m e","m os","n o","n ter","p other","r on","r ation","r ust","v ation","Ġ =","he l","he t","Ġs ad","Ġi dent","Ġb ent","Ġc ree","Ġf in","at ic","at hered","Ġp ush","Ġp air","Ġm ound","Ġm ist","Ġm erc","Ġto r","Ġto w","Ġd u","or n","an ced","it al","Ġl id","Ġl ots","Ġl aid","Ġn ut","Ġn ation","Ġn ature","al ing","al ks","Ġon s","Ġre ached","ac ed","et s","Ġr ate","Ġr ise","im in","Ġsh ards","Ġsp ur","Ġsp ir","am es","Ġse ep","Ġwe ar","Ġdi v","ther n","Ġv ide","Ġtr im","Ġup ward","Ġlo ves","are nt","Ġho b","un ks","Ġad e","able s","Ġbl unt","Ġbr ings","Ġbr ittle","Ġuse ful","au ght","ip e","Ġno ck","Ġqu ant","Ġsl ave","Ġsl iding","Ġsk i","Ġsk y","Ġsk irt","we ed","Ġback ward","Ġres our","Ġeven ly","Ġpot ential","ab ility","Ġset t","Ġset tle","Ġset up","Ġbo l","Ġloc ate","sh ip","Ġburn ed","Ġevery one","Ġsec ret","Ġrun s","Ġprim ary","Ġect s","Ġect ed","Ġnear by","Ġinst rum","Ġins ert","pl ate","Ġca ves","Ġstand s","Ġspec ial","Ġbro ad","Ġthir st","Ġhun g","Ġmix ed","Ġel b","Ġround ed","Ġdeep er","Ġtell s","Ġgener al","Ġstri p","Ġbir d","Ġdro ps","head s","Ġaction s","Ġaddition al","Ġill ustr","Ġlim b","Ġru le","Ġtur tle","Ġbecom ing","Ġpen et","Ġreas on","Ġstor age","Ġcrack ing","Ġhy pother","Ġenter tain","Ġlashing s","Ġquar ry","Ġattemp t","Ġfam iliar","Ġrele ase","Ġmov ie","Ġchalle nge","Ġresc ue","Ġdecis ions","Ġrelie f","Ġfur ther","Ġsex ual","Ġbrou ght","Ġcact us","Ġvar ious","di ameter","Ġox y","Ġfis hing","Ġperp end","Ġcree k","b its","c her","f r","f all","g ed","g en","h aps","i um","k i","l o","l and","r al","s ing","x im","Ġt ang","Ġt ape","Ġa ch","Ġa ri","in ks","Ġs ort","Ġs iz","Ġs ens","Ġs igns","Ġw ring","Ġi ght","Ġb an","Ġb all","Ġb ough","Ġc ard","Ġf ash","Ġp un","Ġp unk","Ġp ads","Ġm n","Ġm ult","Ġto m","Ġto ld","le ts","Ġd ome","Ġin h","an c","it ude","Ġl on","Ġl aw","Ġl ined","Ġn one","Ġn ame","Ġn itely","Ġg ar","Ġst ir","Ġst ave","Ġst ored","Ġst alks","Ġre pl","id ent","Ġfor ty","gh ter","ke y","Ġr i","Ġr ig","Ġr ib","Ġan ger","is hing","Ġsh ared","Ġhe m","Ġhe ar","ap es","Ġsp are","Ġmo ld","il ing","ir ing","Ġse ven","Ġsu mmer","Ġwe igh","Ġwe aving","Ġcon c","Ġcon f","Ġdi e","Ġal tern","Ġpro ceed","Ġwor n","Ġwor ry","Ġtr a","Ġtr ack","Ġfe ature","Ġro b","br ic","ĠâĢ ĺ","Ġfl o","Ġj am","Ġte nder","Ġany where","Ġtoo k","Ġsl ab","ag ed","Ġgr avity","Ġgr asp","Ġwas hing","Ġplace ment","if ic","Ġcor ner","Ġcomp an","Ġwhere as","Ġper haps","iz ing","Ġcr it","Ġcr ude","Ġunder ne","Ġcar ved","Ġpart ially","Ġbo ots","Ġgreat est","Ġav or","Ġhold s","Ġeasi est","Ġopen ings","ens ive","Ġlength wise","Ġless on","Ġmin im","Ġcreat es","Ġtri g","Ġdep th","Ġprev ents","Ġmind ful","Ġve hic","Ġver s","Ġdist ances","Ġgu ides","Ġgrow th","Ġthrow n","Ġprodu cts","Ġbasket s","Ġrel ation","Ġnight s","Ġbro ther","Ġpat ience","Ġpat tern","Ġgro oves","sp ond","Ġamount s","Ġsepar ated","Ġtyp ically","Ġwee k","Ġfriend s","Ġlim bs","Ġforg iven","Ġkill ing","Ġconstru ction","Ġcorre spond","Ġsign al","Ġsign ifi","Ġcap able","Ġorg ans","Ġorient ing","Ġwr ong","Ġris k","ify ing","Ġswe at","Ġstret ch","Ġwin ter","Ġgather ing","Ġut il","Ġass ess","Ġtwig s","Ġmem ory","Ġinjur y","Ġmon ths","Ġclos er","Ġhealth y","Ġment al","tr avel","Ġquest ions","Ġinit ial","Ġiss ue","Ġmilk weed","Ġfro st","Ġinte rest","Ġburd ock","Ġmount ain","Ġdou bt","Ġdam age","Ġtrave ling","Ġameric a","Ġadvant age","Ġsquir rel","Ġprepar ation","Ġesc ape","Ġresour ces","Ġhypother mia","Ġentertain ment","Ġoxy gen","Ġperpend icular","Ġbough s","Ġfash ion","Ġunderne ath","2 5","a ves","b u","b on","b ark","d en","e ve","e ld","f ety","g o","g ree","h ang","l ong","o x","o ff","p here","y e","y ou","z ing","Ġt ired","Ġs ed","Ġs ent","Ġo at","Ġw oo","Ġb and","Ġc ate","Ġp a","Ġp enc","Ġm es","Ġto day","le ction","Ġth rust","Ġe p","Ġd om","Ġd ress","or ies","Ġl ake","Ġl ace","Ġl ate","Ġl ord","Ġn ing","Ġn uts","Ġn ished","Ġbe am","ro y","Ġg er","Ġg al","Ġg ut","Ġg athered","st one","Ġst er","Ġst om","Ġst ud","Ġfor t","Ġfi eld","ur y","Ġr ange","is es","ch ange","ver ty","Ġsp ac","Ġmo on","Ġse nd","Ġse lect","Ġsu g","Ġpl us","Ġde l","Ġco ll","Ġco il","Ġpo ds","Ġpo verty","Ġli p","Ġli ves","Ġpro b","Ġpro f","Ġpro te","Ġpro per","Ġex cess","ak ed","Ġk its","Ġtr unk","Ġfe ar","Ġcom ing","Ġch os","Ġch unks","Ġwater proof","us hing","ie ve","Ġj e","ive ly","Ġte m","Ġte aching","Ġshel tered","Ġho g","iv ing","Ġpe cking","Ġbu ck","int ed","ook ing","Ġover hang","Ġbl own","Ġbl ade","Ġbr ain","Ġun f","Ġgr avel","Ġsc ent","de gree","Ġcomp et","Ġheat ing","Ġpeople s","Ġmap le","Ġcr aft","Ġimp act","Ġcar bon","Ġpart ic","Ġpart icular","Ġwant ed","Ġloc ated","Ġloc ations","sh aped","ens ion","Ġprov iding","Ġkn ead","Ġear li","Ġere nce","Ġlight ly","Ġacc om","Ġacc ount","Ġsun light","Ġlength s","Ġty ing","Ġsupp ly","Ġskin ning","Ġstart ed","Ġstraight edge","ol og","Ġremo val","Ġcons c","Ġser ies","Ġple ase","Ġsa fety","Ġent r","Ġinst ru","Ġlas hed","Ġprot ru","ib ly","Ġsix ty","Ġsol ve","Ġsol id","Ġpres ence","Ġcool er","Ġrest ing","Ġvis it","Ġturn s","Ġcamp ing","Ġheart s","Ġbend s","Ġlearn ed","Ġtou ching","Ġhun ters","Ġwalk ing","Ġocc up","Ġfre qu","Ġgener ally","Ġstri ke","Ġopp ort","Ġpack ing","Ġaw are","Ġmed ic","Ġbene fi","Ġconstru cted","Ġwrap ped","Ġdeg ree","Ġpray er","Ġcap ture","Ġpen al","Ġoccur s","Ġswe ating","Ġstor ies","Ġmod ifi","Ġproject s","Ġtas ks","Ġrep res","Ġperiod s","Ġperiod ically","Ġsou p","Ġimmedi ate","Ġem otion","Ġbreat h","Ġsoak ed","Ġsteam ed","Ġcou ple","Ġcou nter","Ġchalle ng","Ġevent ually","Ġquest ion","Ġtin y","Ġinit ially","Ġiss ues","Ġridge pole","Ġupright s","Ġly ing","Ġveget ation","Ġdet ail","Ġvary ing","Ġjer ky","Ġking dom","Ġbal ance","Ġven ison","Ġabrad ing","Ġansw er","Ġgall on","Ġobs er","Ġmention ed","Ġexpos ure","Ġade quate","Ġpunk y","Ġfeature s","Ġtrig ger","Ġvehic le","Ġpenc il","Ġgal ax","Ġstom ach","Ġchos en",": âĢ¢","2 0","? âĢ¢","a ust","b ur","c om","e ight","e ven","f act","h ical","m ing","m it","m al","n ight","r aid","w ear","w ork","y ing","Ġt le","he st","in ent","Ġs ong","Ġs ag","Ġs ite","Ġs ense","Ġo u","re g","Ġw a","Ġw ed","Ġw al","er v","Ġc ust","Ġc ial","Ġc ations","Ġc up","Ġf red","Ġf ry","Ġf acing","Ġf avor","Ġp h","Ġp ou","Ġp et","Ġm en","Ġm ast","Ġth read","Ġh ind","Ġh ate","Ġh und","Ġd en","Ġd ir","Ġin fect","it ing","it es","Ġl amp","Ġl abor","Ġn ine","ro du","Ġg as","Ġg ent","Ġg one","al an","Ġst age","Ġst ates","Ġre wood","Ġre fl","ic an","ic ation","as k","as hed","id ence","âĢ ľ","Ġfi ll","Ġr ings","Ġr hy","Ġan t","Ġcan ad","Ġhe ard","Ġnot ed","il led","Ġse qu","Ġsu st","Ġsu per","th is","th ick","Ġwe aring","Ġde li","Ġso aking","ri al","Ġco re","Ġpo ison","Ġpo lle","Ġcon if","Ġpro p","Ġex act","Ġex erc","Ġv ol","Ġv oid","Ġk id","Ġme als","ul ting","Ġtr acks","ess ion","Ġch ances","Ġint est","Ġint rodu","Ġcl osed","Ġdr ain","ves t","Ġab dom","Ġab und","Ġsur pr","Ġj ack","Ġte ach","ast ing","un ch","Ġsm ear","Ġpe mm","Ġpe bble","Ġstr ap","Ġthan ks","Ġwood ch","ig inal","Ġcont ent","Ġcont rol","Ġpr inted","Ġgood ness","Ġpoint y","Ġpoint ed","ag o","Ġgr ant","Ġar ri","ist er","Ġgo ld","Ġgo sp","el s","ull s","Ġdes p","Ġapp lic","Ġpit s","Ġcr amps","Ġres pect","Ġres ulting","Ġimp ress","Ġbo omer","Ġav alan","Ġob v","fe rence","ru b","Ġsit ting","Ġlet s","Ġdri ft","Ġhelp ful","Ġnor thern","Ġdiff ic","Ġprov ided","Ġcold er","Ġfollow s","Ġac cept","Ġter rest","Ġbre ad","Ġbre aking","Ġloo s","Ġsec ure","Ġplan ning","pt ion","Ġperson al","Ġtri ed","Ġspl in","Ġstraight ening","alle st","Ġspear s","Ġtrou ble","Ġser ious","Ġmark et","Ġdist ur","Ġrec og","Ġcool ing","Ġsqu are","Ġbend ing","Ġsection s","Ġbag s","Ġthink ing","Ġrel ax","Ġtou ches","Ġwide ly","Ġcal m","Ġdesert s","Ġprevent ing","Ġtemperature s","Ġ9 0","Ġhappen ed","Ġaf raid","Ġinj ured","Ġbait ed","Ġfind ing","Ġaddition ally","Ġmar gin","Ġstar s","Ġconstru ct","Ġstalk ing","Ġconnect ed","Ġincre ases","Ġcommon ly","Ġimag es","Ġinclud ed","Ġmor n","Ġris es","Ġcarry ing","Ġdisc uss","Ġexpl od","Ġbed ding","Ġtrans fer","Ġquar ter","Ġpool s","four th","Ġsou l","Ġadjust ed","Ġindic at","Ġfam ily","Ġorgan ic","Ġpop ular","Ġra ised","Ġoverl ap","Ġpocket s","Ġlens atic","Ġabs or","Ġregular ly","Ġsal t","Ġspr ings","Ġsear ch","Ġvitam in","Ġelect ric","Ġhig her","Ġplat form","Ġdiag on","Ġclou d","Ġwrit ten","Ġexh aust","Ġoverc ome","het ic","Ġnation al","Ġsiz es","Ġban ks","Ġri bs","Ġwoo f","Ġopport un","Ġhund red","Ġsequ ence","Ġpolle n","Ġabdom inal","Ġgosp el","Ġboomer ang","Ġterrest rial","Ġrecog n","a h","a j","a les","b it","b urn","c ial","d ry","e ch","g ing","h ill","i pping","k er","k ins","l ock","m able","n ins","o e","o fi","p es","p ack","p ound","s hel","t w","t ract","u age","u ous","u als","w ing","w are","w est","y er","z he","Ġt n","Ġt ent","Ġt ire","Ġa k","Ġa x","Ġa st","Ġa ud","in ous","in zhe","Ġs ins","Ġthe r","Ġo ating","Ġo aks","re am","Ġw i","Ġw ard","Ġi c","Ġi ce","Ġb ill","Ġb are","er o","er ly","Ġc ess","Ġc and","Ġc row","Ġc rop","Ġf ing","Ġp ict","Ġm er","Ġm ass","Ġm aj","Ġto ss","Ġto ps","Ġth or","Ġth od","Ġth reat","Ġe ll","Ġe st","Ġh ooks","Ġd er","Ġd ur","Ġin vest","or ter","or th","it er","ll r","Ġl one","Ġl ang","Ġn ar","Ġn ed","Ġn al","Ġn ur","Ġn ally","en ari","ro ke","Ġg ure","Ġg ave","Ġg ames","ot ions","al though","Ġst ation","Ġst ack","Ġst inging","ic ago","om fort","se cts","ay s","ld om","Ġan n","Ġan ts","is able","im ate","Ġle ak","Ġas pect","Ġsh in","Ġsh oot","Ġsh apes","Ġhe ll","Ġhe ap","ap p","Ġnot ing","Ġnot ches","ad y","Ġsp ort","Ġsp here","Ġse a","Ġse al","Ġse ver","Ġse ldom","th m","Ġde b","Ġso ci","Ġdo g","Ġco st","Ġen ce","Ġal to","Ġex al","Ġex change","Ġv ig","Ġv ia","ick ly","Ġme et","Ġtr ad","Ġfe ll","ate ful","Ġch icago","Ġcl ass","Ġshe et","us ion","Ġlo ad","Ġlo sing","Ġhand ful","Ġsm allest","Ġpe an","Ġpe aks","Ġbu cking","Ġbu llr","Ġstr aw","Ġstr ands","Ġstr ung","Ġwho se","Ġpr one","Ġpr ickly","Ġqu art","Ġqu inzhe","Ġun like","Ġthrough out","ove red","Ġgr ape","Ġgr ateful","ction s","Ġsc or","Ġsc ience","Ġsc oring","Ġsc enari","so l","Ġam mable","Ġcomp ut","Ġer ror","av ed","ang ed","Ġcr aw","Ġcr ushed","te en","Ġclay s","Ġhard en","Ġbo b","Ġmat s","Ġmat ters","Ġsim ult","Ġmet al","Ġatt en","Ġtop ograp","Ġcompass es","Ġkn ee","ition al","Ġgre ase","Ġere ct","Ġread ily","Ġacc ur","Ġtemp t","Ġow ers","Ġeff ect","Ġform ed","Ġsmo king","the n","Ġhapp iness","Ġsure ly","Ġdep os","Ġspear head","Ġcover s","Ġ6 7","Ġpract ical","Ġche st","Ġtrap ped","Ġwind s","Ġpull s","Ġnum bers","Ġste ady","Ġpur ch","Ġpur ifi","Ġinc red","Ġprot ract","Ġgl ue","Ġgu il","Ġdraw ing","Ġsn ug","Ġsn apping","Ġgrow s","Ġgrow ing","Ġscrap ing","Ġsecond s","Ġtechn ology","Ġprodu ct","Ġhair s","Ġspec ific","Ġbro ke","Ġwalk ed","Ġconst ant","Ġavoid ed","Ġminut e","Ġsw im","Ġnat ive","Ġadv isable","Ġprotect s","Ġigloo s","Ġ9 8","Ġhappen ing","Ġcond em","Ġgener ated","Ġpast e","00 0","tern al","Ġbig ger","Ġhook ed","Ġarm s","Ġbar rel","Ġce ll","ne y","Ġill ness","Ġstar ch","Ġinsul ating","Ġtreat ed","Ġsuff ering","Ġbring ing","Ġtan nins","Ġtur key","Ġorient ed","Ġcall s","iss ue","Ġchang ed","Ġris ing","Ġcount ry","Ġet ching","Ġexist s","Ġstret ching","Ġhy po","Ġtrans p","Ġexpect ed","Ġplanet s","Ġtain er","Ġold er","Ġabr ade","Ġhing es","Ġexcav ated","Ġenviron ments","az ing","Ġem otions","Ġemerg enc","Ġod or","Ġlist en","Ġsubst rate","Ġir on","Ġble nd","Ġprom inent","Ġcante ens","Ġblow ing","Ġdesire s","Ġrighteous ness","Ġcrosspie ce","Ġsto pped","Ġheaven ly","Ġoil s","Ġbeaut iful","Ġx ed","Ġstit ching","Ġprec ise","Ġservice able","Ġtub e","Ġrm ly","Ġoutdo or","Ġcomb ination","Ġtast y","Ġwes tern","Ġdest roy","Ġbucks kin","Ġmist ake","Ġmerc y","Ġspir al","Ġdiv ided","Ġhob by","Ġbol as","Ġinstrum ent","Ġach ieve","Ġari se","Ġlon gh","Ġrib bing","Ġflo or","Ġforgiven ess","ox ide","Ġcate g","Ġdress ing","Ġpenal ty","Ġmast er","Ġgent le","Ġrhy thm","Ġconif er","Ġexerc ise","Ġpemm ican","Ġobv ious","Ġdiagon al","Ġthor ough","Ġell ip","Ġlang uage","Ġnur ture","Ġsoci ety","Ġalto gether","Ġprotract or","1 4","1 5","1 9","3 2","6 0","a ily","b ite","b ody","c les","c ount","f it","g an","g est","i ency","i ï¬ģ","k al","l er","l ar","l ies","l iness","p h","p ri","r ated","r ary","r atch","s ome","s ity","s ize","t les","u it","v ate","Ġ &","Ġt ers","Ġt ure","Ġt ies","Ġt ance","Ġt issue","Ġa ter","Ġa kes","Ġa ustr","in a","in se","in ant","Ġs ion","Ġs ke","Ġs ch","Ġs il","Ġs isters","Ġo t","re en","Ġw ent","Ġw ad","Ġw ire","Ġb ou","Ġb at","Ġb ri","Ġb its"]}}