{"version":"1.0","truncation":null,"padding":null,"added_tokens":[{"id":0,"content":"<PAD>","single_word":false,"lstrip":false,"rstrip":false,"normalized":false,"special":true},{"id":1,"content":"<BOS>","single_word":false,"lstrip":false,"rstrip":false,"normalized":false,"special":true},{"id":2,"content":"<EOS>","single_word":false,"lstrip":false,"rstrip":false,"normalized":false,"special":true},{"id":3,"content":"<UNK>","single_word":false,"lstrip":false,"rstrip":false,"normalized":false,"special":true},{"id":4,"content":"{","single_word":false,"lstrip":false,"rstrip":false,"normalized":false,"special":true},{"id":5,"content":"}","single_word":false,"lstrip":false,"rstrip":false,"normalized":false,"special":true},{"id":6,"content":"[","single_word":false,"lstrip":false,"rstrip":false,"normalized":false,"special":true},{"id":7,"content":"]","single_word":false,"lstrip":false,"rstrip":false,"normalized":false,"special":true},{"id":8,"content":":","single_word":false,"lstrip":false,"rstrip":false,"normalized":false,"special":true},{"id":9,"content":",","single_word":false,"lstrip":false,"rstrip":false,"normalized":false,"special":true},{"id":10,"content":"\"","single_word":false,"lstrip":false,"rstrip":false,"normalized":false,"special":true},{"id":11,"content":"\n","single_word":false,"lstrip":false,"rstrip":false,"normalized":false,"special":true}],"normalizer":{"type":"Sequence","normalizers":[{"type":"NFC"},{"type":"Lowercase"}]},"pre_tokenizer":{"type":"ByteLevel","add_prefix_space":true,"trim_offsets":true,"use_regex":true},"post_processor":{"type":"TemplateProcessing","single":[{"SpecialToken":{"id":"<BOS>","type_id":0}},{"Sequence":{"id":"A","type_id":0}},{"SpecialToken":{"id":"<EOS>","type_id":0}}],"pair":[{"SpecialToken":{"id":"<BOS>","type_id":0}},{"Sequence":{"id":"A","type_id":0}},{"SpecialToken":{"id":"<EOS>","type_id":0}},{"Sequence":{"id":"B","type_id":1}},{"SpecialToken":{"id":"<EOS>","type_id":1}}],"special_tokens":{"<BOS>":{"id":"<BOS>","ids":[1],"tokens":["<BOS>"]},"<EOS>":{"id":"<EOS>","ids":[2],"tokens":["<EOS>"]}}},"decoder":{"type":"ByteLevel","add_prefix_space":true,"trim_offsets":true,"use_regex":true},"model":{"type":"BPE","dropout":null,"unk_token":null,"continuing_subword_prefix":null,"end_of_word_suffix":null,"fuse_unk":false,"byte_fallback":false,"ignore_merges":false,"vocab":{"<PAD>":0,"<BOS>":1,"<EOS>":2,"<UNK>":3,"{":4,"}":5,"[":6,"]":7,":":8,",":9,"\"":10,"\n":11,"!":12,"$":13,"%":14,"&":15,"'":16,"(":17,")":18,"*":19,"+":20,"-":21,".":22,"/":23,"0":24,"1":25,"2":26,"3":27,"4":28,"5":29,"6":30,"7":31,"8":32,"9":33,";":34,"<":35,"=":36,">":37,"?":38,"@":39,"_":40,"`":41,"a":42,"b":43,"c":44,"d":45,"e":46,"f":47,"g":48,"h":49,"i":50,"j":51,"k":52,"l":53,"m":54,"n":55,"o":56,"p":57,"q":58,"r":59,"s":60,"t":61,"u":62,"v":63,"w":64,"x":65,"y":66,"z":67,"¢":68,"¦":69,"µ":70,"º":71,"½":72,"¿":73,"Â":74,"Ã":75,"Ï":76,"â":77,"Ċ":78,"Ġ":79,"Ģ":80,"Ħ":81,"Ĩ":82,"ī":83,"Ĵ":84,"ĵ":85,"Ķ":86,"Ĺ":87,"ĺ":88,"Ļ":89,"ľ":90,"Ŀ":91,"ł":92,"Ġt":93,"he":94,"Ġa":95,"Ġthe":96,"Ġo":97,"Ġw":98,"in":99,"nd":100,"Ġs":101,"Ġand":102,"Ġof":103,"Ġh":104,"re":105,"Ġb":106,"Ġm":107,"ou":108,"Ġf":109,"or":110,"is":111,"er":112,"Ġto":113,"ing":114,"Ġg":115,"at":116,"Ġl":117,"on":118,"Ġp":119,"it":120,"Ġc":121,"en":122,"es":123,"Ġy":124,"ll":125,"Ġd":126,"Ġyou":127,"Ġin":128,"ar":129,"Ġn":130,"Ġbe":131,"Ġth":132,"Ġha":133,"ve":134,"om":135,"Ġe":136,"se":137,"an":138,"Ġhe":139,"Ġis":140,"ut":141,"le":142,"Ġfor":143,"Ġwh":144,"ay":145,"ill":146,"Ġno":147,"as":148,"ord":149,"Ġon":150,"id":151,"ke":152,"im":153,"Ġgo":154,"am":155,"Ġu":156,"ed":157,"Ġhis":158,"Ġwill":159,"ac":160,"ent":161,"Ġyour":162,"Ġi":163,"ir":164,"ic":165,"ver":166,"Ġit":167,"Ġlord":168,"et":169,"ion":170,"ith":171,"gh":172,"ad":173,"il":174,"Ġwith":175,"Ġsa":176,"Ġj":177,"Ġwe":178,"Ġse":179,"th":180,"al":181,"el":182,"Ġhave":183,"ro":184,"Ġwas":185,"st":186,"her":187,"Ġfr":188,"Ġgi":189,"Ġthat":190,"ra":191,"Ġall":192,"Ġare":193,"Ġnot":194,"Ġre":195,"king":196,"Ġmy":197,"ght":198,"ur":199,"Ġthey":200,"Ġfrom":201,"Ġan":202,"ow":203,"Ġst":204,"ake":205,"ah":206,"Ġme":207,"Ġhim":208,"Ġwho":209,"Ġthem":210,"Ġtheir":211,"ri":212,"Ġcom":213,"Ġas":214,"Ġli":215,"ame":216,"Ġsaid":217,"Ġso":218,"Ġ-":219,"Ġput":220,"ly":221,"and":222,"od":223,"Ġor":224,"Ġson":225,"ain":226,"Ġby":227,"op":228,"ers":229,"Ġbut":230,"Ġgod":231,"Ġup":232,"ven":233,"Ġch":234,"Ġking":235,"Ġthis":236,"ct":237,"Ġgive":238,"ich":239,"ld":240,"ace":241,"Ġdo":242,"ath":243,"ore":244,"Ġpe":245,"Ġwhe":246,"Ġout":247,"Ġde":248,"Ġwhich":249,"ade":250,"Ġhad":251,"ru":252,"Ġmade":253,"au":254,"Ġhas":255,"est":256,"ep":257,"Ġat":258,"Ġlet":259,"Ġman":260,"Ġwere":261,"Ġne":262,"ch":263,"art":264,"Ġpeop":265,"Ġcome":266,"Ġisra":267,"Ġisrael":268,"ther":269,"ter":270,"os":271,"ation":272,"ren":273,"ge":274,"Ġthen":275,"Ġpeople":276,"Ġpl":277,"ild":278,"Ġthere":279,"Ġag":280,"Ġone":281,"ong":282,"Ġwhen":283,"Ġear":284,"ant":285,"Ġsay":286,"Ġbec":287,"Ġmake":288,"ok":289,"Ġam":290,"Ġv":291,"'s":292,"Ġland":293,"ack":294,"Ġtake":295,"fe":296,"ose":297,"one":298,"ight":299,"Ġsh":300,"Ġab":301,"all":302,"ak":303,"Ġwent":304,"Ġever":305,"ear":306,"Ġar":307,"red":308,"ab":309,"Ġint":310,"Ġmay":311,"Ġchild":312,"Ġke":313,"ave":314,"Ġagain":315,"Ġcame":316,"Ġher":317,"Ġif":318,"Ġun":319,"ause":320,"fore":321,"us":322,"Ġday":323,"reat":324,"ould":325,"ide":326,"Ġoff":327,"Ġfat":328,"pt":329,"Ġover":330,"rou":331,"Ġbefore":332,"ering":333,"Ġhou":334,"Ġgave":335,"Ġfi":336,"way":337,"ess":338,"ime":339,"Ġinto":340,"Ġchildren":341,"ving":342,"Ġsee":343,"um":344,"Ġpro":345,"Ġwhat":346,"Ġwor":347,"Ġnow":348,"Ġmen":349,"Ġshe":350,"ce":351,"qu":352,"ud":353,"urn":354,"sel":355,"av":356,"Ġsp":357,"Ġhand":358,"Ġhouse":359,"Ġword":360,"ul":361,"Ġus":362,"iah":363,"erv":364,"Ġfather":365,"wn":366,"Ġtw":367,"Ġev":368,"Ġour":369,"out":370,"Ġk":371,"Ġevery":372,"ry":373,"Ġlike":374,"Ġaway":375,"Ġback":376,"ood":377,"ies":378,"Ġho":379,"Ġtook":380,"ervant":381,"Ġgreat":382,"Ġplace":383,"âĢ":384,"pp":385,"Ġsu":386,"Ġagainst":387,"Ġdeath":388,"Ġbecause":389,"ment":390,"Ġmo":391,"Ġwould":392,"ree":393,"Ġkeep":394,"right":395,"Ġ(":396,"Ġtime":397,"Ġservant":398,"Ġpr":399,"Ġgiven":400,"Ġway":401,"Ġlo":402,"Ġthose":403,"Ġbl":404,"Ġbeen":405,"Ġsons":406,"20":407,"ction":408,"Ġoffering":409,"Ġtown":410,"our":411,"ome":412,"ph":413,"Ġdav":414,"Ġdavid":415,"ast":416,"Ġearth":417,"Ġthese":418,"ist":419,"own":420,"ves":421,"Ġevil":422,"ous":423,"les":424,"Ġcon":425,"nt":426,"ble":427,"Ġaf":428,"ol":429,"Ġex":430,"ie":431,"ount":432,"ings":433,"Ġal":434,"Ġjud":435,"ard":436,"ory":437,"ure":438,"Ġits":439,"Ġany":440,"Ġafter":441,"Ġget":442,"te":443,"Ġord":444,"ale":445,"Ġtak":446,"Ġro":447,"Ġother":448,"Ġwr":449,"Ġfe":450,"Ġbro":451,"ine":452,"ate":453,"ise":454,"Ġdid":455,"Ġle":456,"Ġdown":457,"Ġwat":458,"Ġpart":459,"ig":460,"ity":461,"Ġcan":462,"Ġyear":463,"age":464,"ind":465,"Ġgood":466,"Ġco":467,"Ġsin":468,"Ġsent":469,"be":470,"Ġz":471,"Ġwork":472,"urned":473,"ort":474,"ites":475,"thing":476,"Ġqu":477,"Ġliving":478,"ish":479,"oses":480,"Ġru":481,"Ġfl":482,"Ġpri":483,"Ġheart":484,"gy":485,"Ġstr":486,"ite":487,"Ġdi":488,"nder":489,"Ġjo":490,"Ġtwo":491,"Ġje":492,"Ġright":493,"ty":494,"ase":495,"Ġeven":496,"ations":497,"pl":498,"Ġjer":499,"Ġarm":500,"Ġmoses":501,"ting":502,"Ġph":503,"Ġpriest":504,"Ġhow":505,"Ġholy":506,"ag":507,"Ġfu":508,"Ġname":509,"Ġrest":510,"ust":511,"Ġfood":512,"Ġtaken":513,"Ġtent":514,"ws":515,"Ġte":516,"Ġkn":517,"Ġen":518,"ple":519,"Ġdes":520,"Ġjudah":521,"âĢĻ":522,"ass":523,"sh":524,"Ġr":525,"Ġthan":526,"Ġuni":527,"Ġwords":528,"Ġbo":529,"ice":530,"Ġabout":531,"ions":532,"igh":533,"Ġmore":534,"ive":535,"Ġdone":536,"Ġsou":537,"Ġpo":538,"led":539,"self":540,"Ġey":541,"Ġfam":542,"Ġamong":543,"get":544,"Ġnum":545,"ach":546,"Ġhands":547,"Ġonly":548,"Ġunder":549,"Ġfamil":550,"Ġhu":551,"Ġfear":552,"Ġknow":553,"Ġend":554,"cre":555,"Ġsend":556,"Ġgra":557,"Ġca":558,"Ġcl":559,"Ġegy":560,"Ġegypt":561,"aking":562,"Ġeyes":563,"hed":564,"ts":565,"Ġwhere":566,"ng":567,"per":568,"ndred":569,"Ġlife":570,"Ġhundred":571,"irst":572,"rough":573,"dom":574,"Ġbrother":575,"Ġim":576,"Ġwar":577,"Ġjerus":578,"ub":579,"alem":580,"Ġjerusalem":581,"Ġad":582,"Ġservants":583,"Ġfirst":584,"gether":585,"ci":586,"un":587,"Ġtogether":588,"Ġwithout":589,"Ġthings":590,"Ġsaying":591,"Ġorders":592,"pe":593,"Ġbet":594,"Ġfull":595,"ob":596,"ign":597,"Ġyears":598,"Ġver":599,"tain":600,"Ġlight":601,"we":602,"verse":603,"Ġcle":604,"Ġthrough":605,"Ġstrong":606,"ledge":607,"ber":608,"Ġknowledge":609,"Ġla":610,"Ġhead":611,"mon":612,"Ġuse":613,"ile":614,"Ġuniverse":615,"ever":616,"Ġtru":617,"ot":618,"Ġwater":619,"Ġgot":620,"Ġgl":621,"ousand":622,"Ġthousand":623,"Ġel":624,"Ġhigh":625,"br":626,"aught":627,"Ġac":628,"Ġwom":629,"Ġdays":630,"Ġsome":631,"Ġdaught":632,"ans":633,"ck":634,"Ġfo":635,"Ġapp":636,"res":637,"Ġgen":638,"Ġsm":639,"ons":640,"Ġpos":641,"Ġdest":642,"Ġlong":643,"aven":644,"aces":645,"ruction":646,"Ġwi":647,"Ġneed":648,"Ġ/":649,"ief":650,"Ġdestruction":651,"Ġgener":652,"co":653,"Ġwaste":654,"ang":655,"Ġsays":656,"urning":657,"ip":658,"Ġbu":659,"Ġatt":660,"Ġburned":661,"Ġcut":662,"Ġthou":663,"iz":664,"Ġbod":665,"round":666,"Ġ1":667,"Ġhel":668,"Ġsaw":669,"wer":670,"Ġtill":671,"Ġwhose":672,"Ġwhom":673,"ffe":674,"ning":675,"row":676,"Ġmar":677,"Ġans":678,"Ġtrou":679,"Ġcause":680,"ower":681,"cle":682,"Ġchief":683,"Ġres":684,"Ġvery":685,"ated":686,"Ġdoor":687,"az":688,"ft":689,"ness":690,"ff":691,"able":692,"selves":693,"Ġop":694,"Ġmer":695,"Ġbre":696,"Ġcur":697,"Ġkept":698,"Ġtowns":699,"ue":700,"Ġgold":701,"Ġfire":702,"ible":703,"Ġside":704,"Ġsame":705,"iting":706,"ition":707,"Ġold":708,"ertain":709,"Ġpur":710,"Ġbecame":711,"its":712,"Ġah":713,"Ġgone":714,"Ġsaul":715,"Ġwell":716,"ai":717,"act":718,"tar":719,"ally":720,"Ġbir":721,"Ġpra":722,"Ġwhy":723,"Ġherit":724,"Ġturned":725,"Ġdis":726,"Ġyoung":727,"Ġface":728,"Ġheaven":729,"Ġheritage":730,"Ġread":731,"Ġmat":732,"Ġrul":733,"ix":734,"Ġnumber":735,"ward":736,"Ġhor":737,"Ġthree":738,"Ġ[":739,"Ġaltar":740,"do":741,"cy":742,"ses":743,"Ġfathers":744,"bs":745,"Ġprop":746,"Ġfa":747,"Ġmount":748,"Ġhelp":749,"hu":750,"enty":751,"Ġseen":752,"ick":753,"Ġofferings":754,"ound":755,"ved":756,"Ġvo":757,"oth":758,"uch":759,"Ġtrouble":760,"for":761,"oh":762,"aron":763,"Ġbook":764,"Ġstre":765,"Ġopen":766,"place":767,"eld":768,"Ġanswer":769,"ary":770,"Ġacc":771,"gth":772,"other":773,"Ġaaron":774,"ines":775,"Ġnew":776,"ne":777,"Ġstill":778,"akes":779,"Ġfield":780,"Ġpartic":781,"Ġfamily":782,"Ġround":783,"Ġnear":784,"Ġcertain":785,"Ġcomes":786,"ains":787,"ween":788,"Ġfar":789,"Ġbetween":790,"Ġsol":791,"cts":792,"Ġlev":793,"ken":794,"Ġcreat":795,"Ġed":796,"Ġanother":797,"Ġspe":798,"..":799,"Ġpower":800,"Ġpurp":801,"Ġcru":802,"Ġcry":803,"Ġplaces":804,"Ġsuch":805,"Ġox":806,"Ġcont":807,"Ġbuild":808,"Ġbody":809,"Ġthir":810,"Ġpraise":811,"Ġvoice":812,"Ġmight":813,"Ġwife":814,"word":815,"ence":816,"Ġbr":817,"ountry":818,"ef":819,"ms":820,"Ġwrath":821,"Ġper":822,"ia":823,"Ġhere":824,"Ġseven":825,"Ġpray":826,"Ġdire":827,"Ġpriests":828,"du":829,"Ġjac":830,"Ġbless":831,"Ġrel":832,"Ġpeace":833,"Ġhimself":834,"Ġdoes":835,"ink":836,"Ġang":837,"Ġclear":838,"Ġwoman":839,"Ġjacob":840,"asure":841,"Ġmeet":842,"Ġmercy":843,"tle":844,"ked":845,"ely":846,"Ġwrong":847,"Ġbroken":848,"so":849,"side":850,"Ġ<":851,"Ġ/>":852,"Ġable":853,"Ġnight":854,"Ġphil":855,"Ġmou":856,"ribe":857,"Ġdec":858,"Ġoverc":859,"Ġspace":860,"Ġprophe":861,"ire":862,"ial":863,"Ġhat":864,"Ġsecre":865,"Ġbrothers":866,"ĠâĢ":867,"arch":868,"vel":869,"Ġsafe":870,"Ġbecome":871,"Ġsheep":872,"Ġjeh":873,"oking":874,"Ġways":875,"Ġmind":876,"Ġupright":877,"Ġagree":878,"Ġmouth":879,"ars":880,"Ġmeeting":881,"Ġele":882,"Ġsam":883,"Ġfight":884,"Ġnations":885,"ps":886,"Ġfour":887,"ens":888,"ange":889,"Ġnothing":890,"ash":891,"Ġsoul":892,"Ġblessing":893,"xt":894,"Ġben":895,"Ġple":896,"omon":897,"Ġsolomon":898,"oud":899,"Ġfal":900,"Ġgr":901,"ance":902,"Ġphilist":903,"Ġmon":904,"Ġsal":905,"Ġstren":906,"Ġsword":907,"ark":908,"Ġlaw":909,"Ġcare":910,"Ġdaughter":911,"Ġthought":912,"Ġwhile":913,"Ġfalse":914,"](":915,"Ġkings":916,"Ġdesign":917,"Ġsmall":918,"Ġsecret":919,"Ġfree":920,"Ġstrength":921,"Ġorder":922,"ces":923,"Ġcomp":924,"Ġnews":925,"ision":926,"ical":927,"Ġgives":928,"Ġtim":929,"are":930,"aph":931,"Ġmuch":932,"ular":933,"wor":934,"cl":935,"Ġsil":936,"Ġmakes":937,"Ġgoes":938,"Ġfamilies":939,"clean":940,"ron":941,"Ġhon":942,"Ġcould":943,"aring":944,"Ġunclean":945,"Ġtwenty":946,"Ġfaith":947,"Ġagreement":948,"Ġsilver":949,"Ġjos":950,"Ġmod":951,"Ġcomple":952,"Ġbirth":953,"Ġsix":954,"Ġmonth":955,"Ġdead":956,"Ġsupp":957,"Ġpurpose":958,"Ġgoing":959,"Ġass":960,"ma":961,"Ġtents":962,"Ġtheory":963,"Ġsim":964,"ara":965,"Ġform":966,"Ġoath":967,"Ġnam":968,"eous":969,"Ġwall":970,"Ġmeal":971,"ages":972,"eth":973,"Ġlooking":974,"Ġprayer":975,"Ġoil":976,"rent":977,"Ġworsh":978,"Ġflight":979,"Ġarmy":980,"Ġgrain":981,"Ġsc":982,"ents":983,"Ġthemselves":984,"Ġjoy":985,"Ġwis":986,"rain":987,"Ġblack":988,"Ġcommon":989,"Ġmother":990,"Ġtrue":991,"Ġlevites":992,"Ġmaking":993,"ison":994,"Ġpun":995,"vation":996,"Ġstart":997,"Ġrighteous":998,"ased":999,"Ġphara":1000,"Ġpharaoh":1001,"Ġdr":1002,"Ġthing":1003,"rib":1004,"Ġalso":1005,"Ġgu":1006,"Ġgods":1007,"ishment":1008,"Ġcapt":1009,"ek":1010,"Ġcountry":1011,"Ġglory":1012,"Ġpunishment":1013,"if":1014,"Ġblood":1015,"hua":1016,"Ġphilistines":1017,"Ġhard":1018,"ough":1019,"rief":1020,"Ġinst":1021,"Ġsound":1022,"Ġrec":1023,"Ġtimes":1024,"Ġrighteousness":1025,"Ġtruly":1026,"Ġnever":1027,"ones":1028,"Ġind":1029,"Ġeph":1030,"oney":1031,"Ġready":1032,"em":1033,"Ġbest":1034,"Ġsea":1035,"rah":1036,"Ġval":1037,"Ġsun":1038,"Ġadd":1039,"Ġseed":1040,"Ġsalvation":1041,"ict":1042,"Ġlove":1043,"uth":1044,"Ġstore":1045,"man":1046,"Ġbeast":1047,"alth":1048,"Ġark":1049,"Ġspir":1050,"Ġhowever":1051,"Ġdirection":1052,"hem":1053,"Ġburning":1054,"Ġshame":1055,"Ġincre":1056,"Ġdiffe":1057,"Ġimp":1058,"Ġbeth":1059,"Ġkingdom":1060,"Ġbread":1061,"ib":1062,"Ġresting":1063,"vity":1064,"Ġtal":1065,"Ġwisdom":1066,"Ġjust":1067,"Ġprodu":1068,"cond":1069,"Ġeverything":1070,"ments":1071,"Ġeli":1072,"els":1073,"Ġtakes":1074,"fted":1075,"Ġbuilding":1076,"Ġwise":1077,"Ġwaters":1078,"Ġmor":1079,"Ġfif":1080,"Ġmost":1081,"Ġarmies":1082,"Ġovercome":1083,"off":1084,"Ġtr":1085,"Ġgiving":1086,"Ġsign":1087,"Ġbas":1088,"Ġclean":1089,"essel":1090,"Ġhearing":1091,"Ġhist":1092,"Ġreg":1093,"Ġvessel":1094,"je":1095,"Ġdist":1096,"Ġcover":1097,"ched":1098,"ors":1099,"orrow":1100,"Ġresp":1101,"Ġhonour":1102,"Ġset":1103,"Ġforce":1104,"Ġsong":1105,"Ġprison":1106,"Ġjoshua":1107,"ont":1108,"ner":1109,"Ġjose":1110,"Ġwealth":1111,"Ġsev":1112,"Ġexper":1113,"Ġdesire":1114,"Ġjoseph":1115,"ap":1116,"Ġdat":1117,"Ġquick":1118,"Ġsupport":1119,"men":1120,"og":1121,"Ġsearch":1122,"form":1123,"Ġturning":1124,"Ġeach":1125,"Ġrequ":1126,"Ġwood":1127,"eping":1128,"Ġlaws":1129,"Ġmorning":1130,"othing":1131,"enth":1132,"ands":1133,"Ġdaughters":1134,"00":1135,"gin":1136,"lon":1137,"Ġbit":1138,"ics":1139,"Ġsecond":1140,"Ġears":1141,"Ġfeet":1142,"Ġglad":1143,"Ġhaters":1144,"aiah":1145,"ds":1146,"Ġhill":1147,"Ġlifted":1148,"Ġdrink":1149,"cess":1150,"Ġwa":1151,"esh":1152,"sed":1153,"ĠâĢľ":1154,"Ġpre":1155,"offering":1156,"Ġrespons":1157,"Ġmus":1158,"Ġfive":1159,"âĢĿ":1160,"Ġcoll":1161,"uel":1162,"Ġten":1163,"Ġdise":1164,"Ġlow":1165,"Ġfru":1166,"athan":1167,"Ġhole":1168,"bb":1169,"ock":1170,"Ġobs":1171,"Ġfool":1172,"Ġposs":1173,"vi":1174,"Ġlim":1175,"Ġeffe":1176,"Ġpoor":1177,"Ġpers":1178,"Ġstep":1179,"Ġdifferent":1180,"Ġresponsible":1181,"Ġfoolish":1182,"ba":1183,"lt":1184,"Ġhop":1185,"Ġparticles":1186,"Ġact":1187,"ows":1188,"Ġcall":1189,"day":1190,"Ġ\"":1191,"Ġwine":1192,"Ġcons":1193,"aan":1194,"jam":1195,"pr":1196,"Ġchiefs":1197,"to":1198,"isions":1199,"Ġstret":1200,"Ġworship":1201,"Ġhearts":1202,"Ġspirit":1203,"Ġbab":1204,"Ġfall":1205,"ordan":1206,"Ġjordan":1207,"lesh":1208,"Ġused":1209,"Ġthirty":1210,"lf":1211,"li":1212,"sal":1213,"Ġsy":1214,"Ġflesh":1215,"ention":1216,"Ġener":1217,"Ġposition":1218,"Ġmass":1219,"ekiah":1220,"Ġdata":1221,"vered":1222,"Ġrecord":1223,"Ġmusic":1224,"Ġmid":1225,"Ġmale":1226,"ching":1227,"Ġclothing":1228,"ature":1229,"Ġexp":1230,"Ġbaby":1231,"Ġwo":1232,"Ġruler":1233,"Ġbenjam":1234,"Ġwind":1235,"arri":1236,"Ġbeing":1237,"owing":1238,"Ġwomen":1239,"xed":1240,"int":1241,"Ġmoney":1242,"ced":1243,"ys":1244,"Ġty":1245,"Ġones":1246,"Ġcoming":1247,"Ġstrange":1248,"Ġpill":1249,"Ġmem":1250,"alle":1251,"jah":1252,"Ġri":1253,"rem":1254,"Ġhistory":1255,"Ġbabylon":1256,"Ġmill":1257,"Ġweeping":1258,"Ġinte":1259,"...":1260,"Ġquickly":1261,"sing":1262,"Ġide":1263,"Ġbetter":1264,"Ġwaiting":1265,"ered":1266,"ative":1267,"Ġvalle":1268,"Ġprophet":1269,"Ġtribe":1270,"ari":1271,"ala":1272,"Ġdeep":1273,"Ġpride":1274,"Ġfeast":1275,"Ġquest":1276,"Ġmountain":1277,"raham":1278,"ual":1279,"Ġpast":1280,"ense":1281,"Ġdark":1282,"Ġabraham":1283,"Ġenough":1284,"Ġattack":1285,"Ġsk":1286,"Ġproper":1287,"Ġangry":1288,"Ġdisease":1289,"Ġfruit":1290,"iness":1291,"Ġdet":1292,"Ġdry":1293,"ices":1294,"Ġshut":1295,"Ġbenjamin":1296,"hen":1297,"ates":1298,"Ġlit":1299,"Ġearly":1300,"pect":1301,"work":1302,"ton":1303,"Ġob":1304,"Ġpay":1305,"Ġcloud":1306,"Ġspeci":1307,"ull":1308,"Ġsorrow":1309,"Ġnamed":1310,"Ġtaking":1311,"hes":1312,"Ġtoday":1313,"Ġdel":1314,"Ġmeasure":1315,"aster":1316,"Ġmoab":1317,"ubl":1318,"Ġsl":1319,"Ġmany":1320,"Ġshould":1321,"ult":1322,"Ġrock":1323,"Ġwriting":1324,"Ġteach":1325,"Ġthough":1326,"ns":1327,"Ġ&":1328,"Ġtra":1329,"Ġma":1330,"Ġcub":1331,"Ġwhatever":1332,"Ġcanaan":1333,"Ġhope":1334,"Ġ3":1335,"Ġseat":1336,"Ġfrie":1337,"Ġfun":1338,"Ġriver":1339,"Ġfriend":1340,".)":1341,"Ġpres":1342,"Ġweight":1343,"Ġstones":1344,"Ġjudg":1345,"Ġtext":1346,"Ġaccount":1347,"oam":1348,"Ġflock":1349,"Ġbitter":1350,"Ġeffect":1351,"Ġenergy":1352,"Ġpubl":1353,"ae":1354,"mo":1355,"Ġlittle":1356,"ied":1357,"Ġauth":1358,"Ġba":1359,"ati":1360,"ather":1361,"Ġyourself":1362,"Ġstate":1363,"Ġfixed":1364,"back":1365,"Ġpass":1366,"Ġnor":1367,"Ġhez":1368,"fl":1369,"asse":1370,"bered":1371,"Ġheads":1372,"Ġoxen":1373,"Ġvessels":1374,"Ġsing":1375,"Ġjoab":1376,"Ġpleasure":1377,"gt":1378,"Ġstars":1379,"Ġmanasse":1380,"Ġothers":1381,"Ġbrass":1382,"Ġfighting":1383,"Ġmillion":1384,"Ġvalley":1385,"Ġmanasseh":1386,"eb":1387,"up":1388,"ities":1389,"Ġem":1390,"Ġreward":1391,"Ġmoved":1392,"Ġjeho":1393,"ail":1394,"Ġdiv":1395,"Ġlonger":1396,"Ġattention":1397,"Ġpossible":1398,"ls":1399,"Ġred":1400,"Ġedit":1401,"clud":1402,"Ġcaptains":1403,"fin":1404,"iel":1405,"rees":1406,"Ġdoing":1407,"Ġquant":1408,"oboam":1409,"com":1410,"Ġsur":1411,"ories":1412,"__":1413,"ian":1414,"Ġra":1415,"Ġown":1416,"Ġsense":1417,"Ġjon":1418,"raim":1419,"Ġaram":1420,"Ġfifty":1421,"Ġsort":1422,"Ġcat":1423,"Ġvide":1424,"Ġhouses":1425,"Ġprice":1426,"Ġeng":1427,"time":1428,"Ġgrief":1429,"Ġhalf":1430,"Ġgoods":1431,"Ġjerem":1432,"Ġsamuel":1433,"Ġvalue":1434,"Ġnumbered":1435,"Ġcruel":1436,"Ġelect":1437,"Ġephraim":1438,"Ġauthor":1439,"bo":1440,"Ġinside":1441,"ket":1442,"Ġmoving":1443,"Ġanything":1444,"Ġteaching":1445,"Ġai":1446,"Ġwit":1447,"Ġreas":1448,"Ġfeed":1449,"ize":1450,"Ġmemory":1451,"Ġfunction":1452,"Ġdust":1453,"Ġcovered":1454,"Ġwide":1455,"Ġpred":1456,"Ġinclud":1457,"Ġhair":1458,"Ġhapp":1459,"Ġpeoples":1460,"Ġgeneration":1461,"doing":1462,"Ġprophets":1463,"Ġwitness":1464,"hel":1465,"Ġacts":1466,"Ġeast":1467,"Ġyourselves":1468,"Ġneigh":1469,"aves":1470,"Ġevent":1471,"Ġanyone":1472,"Ġproperty":1473,"Ġneighb":1474,"Ġcau":1475,"ational":1476,"Ġcreate":1477,"Ġinstru":1478,"Ġjeremiah":1479,"shed":1480,"Ġtool":1481,"Ġbel":1482,"ros":1483,"Ġevening":1484,"Ġmatter":1485,"aut":1486,"zz":1487,"Ġ+":1488,"Ġforty":1489,"tern":1490,"Ġeveryone":1491,"Ġstream":1492,"Ġcomplete":1493,"Ġrequest":1494,"Ġlimit":1495,"Ġcattle":1496,"Ġtop":1497,"ating":1498,"Ġbeh":1499,"Ġforward":1500,"Ġworld":1501,"Ġtwel":1502,"Ġparts":1503,"Ġstretched":1504,"Ġhus":1505,"Ġrem":1506,"Ġoutside":1507,"Ġjudge":1508,"Ġrulers":1509,"Ġcrushed":1510,"Ġdecisions":1511,"Ġhezekiah":1512,"ians":1513,"Ġ2":1514,"Ġsci":1515,"Ġchang":1516,"Ġwatch":1517,"Ġcubits":1518,"Ġjonathan":1519,"Ġreal":1520,"Ġprof":1521,"Ġcrying":1522,"ually":1523,"Ġstone":1524,"Ġplant":1525,"usiness":1526,"Ġthird":1527,"Ġbaal":1528,"asing":1529,"Ġimage":1530,"Ġgrass":1531,"Ġguid":1532,"Ġobser":1533,"Ġperson":1534,"cus":1535,"Ġband":1536,"Ġcord":1537,"Ġnet":1538,"Ġvi":1539,"Ġovert":1540,"Ġseem":1541,"Ġmark":1542,"Ġcertainly":1543,"Ġneighbour":1544,"gust":1545,"ience":1546,"Ġmaster":1547,"Ġreason":1548,"ners":1549,"ram":1550,"Ġnation":1551,"Ġwives":1552,"Ġcutting":1553,"Ġdoorway":1554,"Ġbeasts":1555,"Ġpayment":1556,"ful":1557,"ted":1558,"yri":1559,"Ġes":1560,"Ġswe":1561,"Ġdri":1562,"Ġputs":1563,"Ġconne":1564,"Ġassyri":1565,"Ġauthority":1566,".&":1567,"Ġloud":1568,"chang":1569,"Ġart":1570,"Ġgreater":1571,"Ġlook":1572,"iew":1573,"Ġroom":1574,"Ġrule":1575,"Ġsouth":1576,"Ġcurse":1577,"Ġimport":1578,"oke":1579,"vit":1580,"Ġwound":1581,"ined":1582,"Ġfind":1583,"Ġgrow":1584,"Ġpull":1585,"Ġham":1586,"Ġeight":1587,"lech":1588,"Ġforces":1589,"Ġsavi":1590,"Ġrep":1591,"Ġkind":1592,"Ġdisgust":1593,"Ġidea":1594,"Ġfeedback":1595,"the":1596,"Ġtest":1597,"Ġwave":1598,"Ġpain":1599,"ariah":1600,"Ġammon":1601,"Ġzer":1602,"Ġpoint":1603,"Ġparticle":1604,"Ġrecorded":1605,"Ġquantum":1606,"Ġsweet":1607,"Ġputting":1608,"Ġsheke":1609,"Ġworks":1610,"Ġgravit":1611,"aac":1612,"gg":1613,"Ġmet":1614,"Ġmust":1615,"vers":1616,"Ġvine":1617,"aker":1618,"Ġnumb":1619,"Ġpillars":1620,"Ġvideo":1621,"Ġsaviour":1622,"Ġwant":1623,"Ġbusiness":1624,"ste":1625,"Ġlands":1626,"Ġsins":1627,"ject":1628,"Ġcalled":1629,"Ġpredict":1630,"Ġcausing":1631,"Ġviol":1632,"Ġisaac":1633,"ional":1634,"Ġstar":1635,"Ġlips":1636,"osh":1637,"Ġarms":1638,"Ġtem":1639,"Ġmodel":1640,"Ġdelight":1641,"ross":1642,"Ġtwelve":1643,"lead":1644,"Ġjes":1645,"Ġholes":1646,"Ġzion":1647,"Ġ19":1648,"Ġmarked":1649,"velop":1650,"Ġfalling":1651,"Ġaz":1652,"ats":1653,"Ġdam":1654,"ility":1655,"Ġprov":1656,"ress":1657,"Ġcontent":1658,"Ġassyria":1659,"ell":1660,"go":1661,"Ġwaves":1662,"Ġsis":1663,"Ġfin":1664,"Ġkeeping":1665,"Ġprin":1666,"Ġgetting":1667,"Ġdoors":1668,"Ġaddition":1669,"Ġnorth":1670,"ared":1671,"pes":1672,"zer":1673,"Ġgilead":1674,"Ġarmed":1675,"Ġfoot":1676,"Ġbodies":1677,"doers":1678,"Ġmountains":1679,"Ġgala":1680,"Ġcam":1681,"Ġjour":1682,"Ġseated":1683,"Ġshaking":1684,"Ġabsal":1685,"Ġgets":1686,"ribes":1687,"Ġgalax":1688,"Ġabsalom":1689,"Ġtong":1690,"Ġhaw":1691,"Ġhaving":1692,"Ġtroubled":1693,"Ġrelati":1694,"Ġtexture":1695,"Ġgravitational":1696,"Ġrelativity":1697,"la":1698,"nam":1699,"erial":1700,"Ġlam":1701,"Ġcir":1702,"ution":1703,"Ġdevelop":1704,"Ġexpl":1705,"Ġordered":1706,"Ġacross":1707,"Ġgeneral":1708,"Ġheavens":1709,"Ġspeed":1710,"Ġpublic":1711,"Ġfut":1712,"Ġlin":1713,"Ġyours":1714,"Ġstop":1715,"Ġunchang":1716,"ways":1717,"Ġseems":1718,"arriages":1719,"iet":1720,"spr":1721,"Ġhig":1722,"Ġfact":1723,"Ġcr":1724,"ides":1725,"Ġfront":1726,"Ġmyself":1727,"Ġquiet":1728,"Ġrun":1729,"Ġgravity":1730,"Ġmaterial":1731,"Ġprisoners":1732,"po":1733,"Ġbrief":1734,"Ġless":1735,"Ġdan":1736,"Ġish":1737,"ists":1738,"Ġgenerations":1739,"Ġdecision":1740,"Ġcomplet":1741,"Ġseventh":1742,"Ġstephen":1743,"Ġpresent":1744,"autif":1745,"Ġviolent":1746,"Ġhawking":1747,"par":1748,"ining":1749,"Ġlast":1750,"Ġbed":1751,"Ġedom":1752,"aniah":1753,"avi":1754,"Ġrob":1755,"Ġwrit":1756,"Ġfields":1757,"Ġdesigns":1758,"Ġengine":1759,"Ġhusb":1760,"Ġdisgusting":1761,"Ġnumbers":1762,"Ġfuture":1763,"cum":1764,"Ġrain":1765,"read":1766,"Ġmic":1767,"Ġcol":1768,"Ġequ":1769,"shing":1770,"Ġcontro":1771,"Ġtravel":1772,"Ġcompletely":1773,"autiful":1774,"ired":1775,"Ġent":1776,"Ġsle":1777,"als":1778,"Ġperf":1779,"Ġshekels":1780,"Ġjourne":1781,"gs":1782,"lands":1783,"Ġtou":1784,"ream":1785,"Ġmil":1786,"Ġinter":1787,"Ġbegin":1788,"Ġvari":1789,"Ġunc":1790,"Ġkeeps":1791,"Ġexam":1792,"Ġrod":1793,"Ġimportant":1794,"Ġperfum":1795,"af":1796,"Ġtree":1797,"Ġlar":1798,"rop":1799,"Ġcomm":1800,"Ġdece":1801,"Ġdesc":1802,"Ġincreased":1803,"aeans":1804,"Ġjehoi":1805,"Ġelectr":1806,"ract":1807,"Ġfre":1808,"Ġlat":1809,"Ġline":1810,"Ġcent":1811,"Ġnote":1812,"ries":1813,"Ġplan":1814,"Ġfile":1815,"Ġworking":1816,"Ġrules":1817,"Ġrather":1818,"Ġfair":1819,"aphat":1820,"Ġunchanging":1821,"Ġser":1822,"Ġstra":1823,"Ġleft":1824,"Ġjeroboam":1825,"Ġposit":1826,"Ġsamar":1827,"world":1828,"Ġeditor":1829,"Ġinstruments":1830,"fort":1831,"gi":1832,"ijah":1833,"Ġer":1834,"Ġinv":1835,"let":1836,"Ġgibe":1837,"ody":1838,"imelech":1839,"Ġtech":1840,"Ġrad":1841,"Ġimages":1842,"Ġahab":1843,"Ġedge":1844,"Ġdirect":1845,"Ġsimple":1846,"Ġdirections":1847,"Ġdriving":1848,"Ġdeceit":1849,"Ġsamaria":1850,"rest":1851,"Ġbig":1852,"Ġlab":1853,"Ġsabb":1854,"Ġsepar":1855,"Ġant":1856,"Ġprocess":1857,"Ġtenth":1858,"Ġprinci":1859,"Ġrobes":1860,"Ġsabbath":1861,"Ġtribes":1862,"Ġhum":1863,"Ġinit":1864,"Ġfeature":1865,"Ġquestion":1866,"Ġskin":1867,"Ġbehavi":1868,"spring":1869,"Ġhusband":1870,"Ġjourney":1871,"80":1872,"de":1873,"Ġwand":1874,"Ġgame":1875,"anding":1876,"Ġusing":1877,"Ġseventy":1878,"gr":1879,"ho":1880,"ider":1881,"ames":1882,"Ġgrace":1883,"Ġhigher":1884,"ipp":1885,"Ġtable":1886,"Ġgrou":1887,"Ġpa":1888,"Ġpar":1889,"Ġcar":1890,"Ġhan":1891,"search":1892,"Ġplac":1893,"Ġsham":1894,"ush":1895,"Ġloc":1896,"Ġhorse":1897,"Ġthoughts":1898,"Ġcaptain":1899,"Ġstraight":1900,"ches":1901,"ex":1902,"Ġgad":1903,"Ġdream":1904,"Ġreub":1905,"Ġvir":1906,"Ġalways":1907,"arden":1908,"Ġreuben":1909,"aim":1910,"ec":1911,"een":1912,"Ġcor":1913,"Ġbeautiful":1914,"chan":1915,"Ġamor":1916,"Ġsinners":1917,"Ġflowing":1918,"Ġrespect":1919,"Ġjehosh":1920,"Ġregular":1921,"country":1922,"not":1923,"Ġhar":1924,"ets":1925,"Ġneb":1926,"Ġnext":1927,"Ġegyptians":1928,"Ġelish":1929,"aziah":1930,"jects":1931,"Ġspecif":1932,"Ġsingular":1933,"Ġsister":1934,"ih":1935,"iv":1936,"tw":1937,"Ġcomfort":1938,"ode":1939,"Ġuser":1940,"Ġfeel":1941,"bron":1942,"Ġdisco":1943,"Ġbran":1944,"Ġangel":1945,"Ġlater":1946,"Ġprinciple":1947,"Ġjehoshaphat":1948,"dle":1949,"lo":1950,"sion":1951,"Ġve":1952,"Ġpath":1953,"Ġhebron":1954,"ases":1955,"Ġvis":1956,"Ġrobe":1957,"ĠâĢĵ":1958,"Ġnames":1959,"Ġcovering":1960,"Ġradi":1961,"servant":1962,"Ġrev":1963,"Ġorb":1964,"Ġshall":1965,"Ġfate":1966,"Ġloose":1967,"Ġcond":1968,"Ġzeb":1969,"Ġhorns":1970,"Ġesau":1971,"Ġmult":1972,"Ġlif":1973,"Ġaround":1974,"Ġapps":1975,"Ġruling":1976,"Ġincrease":1977,"Ġtalking":1978,"Ġmiddle":1979,"two":1980,"Ġhit":1981,"orm":1982,"Ġge":1983,"Ġeas":1984,"Ġconf":1985,"ized":1986,"Ġwrongdoing":1987,"Ġwalls":1988,"Ġfriends":1989,"Ġgrowth":1990,"Ġtechn":1991,"ured":1992,"Ġarg":1993,"Ġroad":1994,"Ġjews":1995,"Ġunderworld":1996,"Ġbreast":1997,"Ġbirds":1998,"Ġrelations":1999,"Ġdivision":2000,"Ġwandering":2001,"30":2002,"of":2003,"Ġ5":2004,"Ġopp":2005,"Ġsom":2006,"Ġmine":2007,"ilar":2008,"Ġreh":2009,"Ġasa":2010,"Ġshow":2011,"Ġshec":2012,"selah":2013,"Ġsugg":2014,"isted":2015,"Ġphys":2016,"Ġram":2017,"Ġunif":2018,"Ġpost":2019,"Ġunderst":2020,"Ġsimilar":2021,"Ġdistance":2022,"Ġwonder":2023,"Ġtongue":2024,"Ġlarge":2025,"Ġinitial":2026,"Ġsuggest":2027,"Ġwest":2028,"Ġsn":2029,"Ġbase":2030,"Ġiron":2031,"etry":2032,"Ġwashed":2033,"Ġstru":2034,"Ġchar":2035,"Ġjob":2036,"Ġappro":2037,"Ġpleasing":2038,"ban":2039,"me":2040,"Ġter":2041,"Ġtrees":2042,"Ġwal":2043,"ute":2044,"imens":2045,"doer":2046,"Ġsongs":2047,"Ġtools":2048,"ternal":2049,"law":2050,"99":2051,"?)":2052,"ca":2053,"carriages":2054,"oc":2055,"Ġtrain":2056,"Ġap":2057,"Ġsize":2058,"Ġmix":2059,"Ġlear":2060,"ength":2061,"keting":2062,"ality":2063,"ural":2064,"Ġmeans":2065,"Ġoffspring":2066,"Ġfee":2067,"Ġflow":2068,"Ġfoll":2069,"azar":2070,"ffic":2071,"Ġeleazar":2072,"Ġproduct":2073,"Ġelijah":2074,"Ġbases":2075,"Ġcolle":2076,"Ġconsider":2077,"Ġspecial":2078,"Ġlinen":2079,"iath":2080,"Ġyet":2081,"omes":2082,"Ġforgi":2083,"Ġuzz":2084,"Ġresearch":2085,"oss":2086,"Ġmot":2087,"Ġneeded":2088,"Ġcursed":2089,"Ġhorses":2090,"Ġexpert":2091,"Ġsearching":2092,"offerings":2093,"Ġconnection":2094,"),":2095,"face":2096,"pu":2097,"ped":2098,"Ġ...":2099,"ins":2100,"Ġbands":2101,"Ġdang":2102,"ript":2103,"Ġkey":2104,"Ġsport":2105,"Ġovercame":2106,"Ġworshipp":2107,"Ġtrans":2108,"Ġtype":2109,"Ġflocks":2110,"Ġerr":2111,"mer":2112,"over":2113,"tal":2114,"ues":2115,"Ġach":2116,"Ġopt":2117,"Ġhate":2118,"Ġbar":2119,"Ġbound":2120,"orah":2121,"Ġinfin":2122,"Ġsees":2123,"Ġmechan":2124,"Ġjez":2125,"Ġboard":2126,"cial":2127,"Ġsmell":2128,"Ġmodels":2129,"Ġtalk":2130,"Ġbelie":2131,"Ġscience":2132,"Ġmaterials":2133,"Ġmulti":2134,"Ġfeeble":2135,"oked":2136,"vant":2137,"Ġaw":2138,"Ġoffe":2139,"Ġbones":2140,"Ġcal":2141,"Ġdon":2142,"Ġhang":2143,"uring":2144,"Ġtherefore":2145,"Ġearli":2146,"Ġshar":2147,"Ġprom":2148,"202":2149,"Ġexist":2150,"Ġsecretly":2151,"Ġchanged":2152,"Ġexample":2153,"Ġseparate":2154,"Ġamorites":2155,"Ġforgiven":2156,"Ġdanger":2157,"Ġoffered":2158,"maker":2159,"ply":2160,"Ġtar":2161,"here":2162,"Ġwid":2163,"nders":2164,"Ġnu":2165,"Ġthus":2166,"aliah":2167,"teen":2168,"Ġnewton":2169,"Ġproduce":2170,"Ġsigns":2171,"Ġexperience":2172,"Ġmidian":2173,"Ġquestions":2174,"ground":2175,"nah":2176,"Ġest":2177,"Ġav":2178,"Ġaud":2179,"Ġbad":2180,"Ġbal":2181,"ern":2182,"Ġdro":2183,"Ġsoft":2184,"Ġshort":2185,"Ġabimelech":2186,"Ġspear":2187,"Ġbreath":2188,"Ġsimply":2189,"cul":2190,"ters":2191,"Ġfil":2192,"Ġgre":2193,"Ġlion":2194,"Ġheat":2195,"ada":2196,"rows":2197,"stem":2198,"Ġasses":2199,"Ġrods":2200,"Ġboth":2201,"Ġpot":2202,"Ġmarketing":2203,"Ġinterest":2204,"Ġovertake":2205,"Ġmetal":2206,"stein":2207,"Ġlifting":2208,"Ġshechem":2209,"Ġsharp":2210,"Ġforgiveness":2211,"bl":2212,"heth":2213,"Ġtheories":2214,"Ġbent":2215,"ised":2216,"Ġsex":2217,"eph":2218,"Ġnecess":2219,"Ġobserv":2220,"Ġsteps":2221,"Ġhappy":2222,"Ġwalking":2223,"Ġnucle":2224,"den":2225,"gan":2226,"she":2227,"ware":2228,"Ġfound":2229,"erm":2230,"Ġlau":2231,"Ġthink":2232,"acking":2233,"ication":2234,"Ġmeat":2235,"ept":2236,"Ġabner":2237,"Ġsure":2238,"ateg":2239,"Ġcannot":2240,"Ġsending":2241,"Ġhorn":2242,"Ġlevi":2243,"Ġinclude":2244,"Ġsleep":2245,"Ġmixed":2246,"Ġmotion":2247,"10":2248,"cing":2249,"sk":2250,"instein":2251,"Ġmed":2252,"Ġmal":2253,"Ġtower":2254,"Ġpity":2255,"Ġcro":2256,"irts":2257,"Ġitself":2258,"Ġwhoever":2259,"Ġneck":2260,"Ġunt":2261,"Ġlot":2262,"Ġconc":2263,"Ġext":2264,"Ġfew":2265,"Ġleast":2266,"Ġjoined":2267,"Ġrate":2268,"Ġ10":2269,"Ġdistrib":2270,"Ġsingle":2271,"Ġprofit":2272,"Ġrunning":2273,"Ġcontrol":2274,").":2275,"cc":2276,"five":2277,"Ġpen":2278,"Ġcode":2279,"lled":2280,"Ġeinstein":2281,"adab":2282,"Ġallow":2283,"cture":2284,"rence":2285,"Ġseeing":2286,"Ġusers":2287,"Ġmoon":2288,"Ġjehu":2289,"Ġansw":2290,"Ġwonders":2291,"Ġintegr":2292,"Ġdeterm":2293,"Ġvarious":2294,"Ġdiscover":2295,"ik":2296,"ints":2297,"Ġbag":2298,"Ġmah":2299,"Ġpsal":2300,"Ġcase":2301,"Ġeternal":2302,"Ġwhite":2303,"Ġonce":2304,"Ġsele":2305,"Ġstory":2306,"Ġmeas":2307,"Ġcho":2308,"Ġchange":2309,"Ġdefin":2310,"Ġarrow":2311,"Ġfig":2312,"Ġloved":2313,"Ġleban":2314,"Ġreading":2315,"Ġcreative":2316,"Ġpurposes":2317,"Ġcrushing":2318,"Ġhater":2319,"Ġcompan":2320,"ething":2321,"Ġguide":2322,"Ġishma":2323,"Ġelisha":2324,"Ġcrown":2325,"app":2326,"pro":2327,"son":2328,"Ġ$":2329,"Ġbala":2330,"Ġmord":2331,"Ġfon":2332,"Ġche":2333,"Ġyoke":2334,"Ġrele":2335,"Ġbecomes":2336,"Ġview":2337,"Ġbackground":2338,"Ġsinner":2339,"Ġneeds":2340,"ips":2341,"Ġsixty":2342,"Ġsounding":2343,"most":2344,"Ġgalaxies":2345,"Ġbeginning":2346,"Ġfeatures":2347,"Ġplaced":2348,"ecai":2349,"Ġsomething":2350,"Ġpsalm":2351,"Ġbalaam":2352,"Ġmordecai":2353,"Ġfonts":2354,"48":2355,"inary":2356,"ently":2357,"akim":2358,"Ġgreatly":2359,"Ġeye":2360,"Ġappear":2361,"Ġattract":2362,"Ġoldest":2363,"arks":2364,"Ġcommonplace":2365,"Ġstarted":2366,"Ġjudging":2367,"book":2368,"Ġnecessary":2369,"Ġlebanon":2370,"bles":2371,"ead":2372,"gpu":2373,"wh":2374,"Ġmel":2375,"oured":2376,"oram":2377,"atic":2378,"Ġced":2379,"cted":2380,"Ġshime":2381,"Ġabram":2382,"Ġevents":2383,"Ġsub":2384,"Ġcurtain":2385,"Ġfourth":2386,"Ġcompon":2387,"Ġsystem":2388,"Ġsorts":2389,"Ġishmael":2390,"40":2391,"lah":2392,"Ġ0":2393,"Ġsar":2394,"Ġbow":2395,"Ġbright":2396,"Ġpict":2397,"Ġhaz":2398,"Ġoverse":2399,"Ġprim":2400,"Ġblue":2401,"Ġsince":2402,"Ġze":2403,"Ġrelation":2404,"Ġpillar":2405,"Ġcommun":2406,"bon":2407,"han":2408,"ks":2409,"non":2410,"Ġturn":2411,"Ġwing":2412,"Ġlang":2413,"Ġinform":2414,"Ġna":2415,"Ġet":2416,"Ġsales":2417,"Ġwasted":2418,"Ġanim":2419,"Ġshare":2420,"Ġshining":2421,"Ġzed":2422,"Ġjudges":2423,"Ġguiding":2424,"Ġgroup":2425,"Ġbranches":2426,"Ġlangu":2427,"cir":2428,"pah":2429,"Ġtry":2430,"Ġbased":2431,"Ġtoo":2432,"Ġcarri":2433,"Ġforced":2434,"Ġasher":2435,"icho":2436,"Ġatom":2437,"osed":2438,"Ġmove":2439,"Ġblog":2440,"Ġjericho":2441,"Ġmarket":2442,"Ġopening":2443,"ashan":2444,"vious":2445,"Ġlimits":2446,"Ġrepres":2447,"Ġlaban":2448,"Ġargum":2449,"cape":2450,"Ġerror":2451,"Ġboundary":2452,"Ġzedekiah":2453,"eed":2454,"na":2455,"inking":2456,"Ġhoney":2457,"Ġbang":2458,"Ġbashan":2459,"Ġyes":2460,"Ġnaph":2461,"Ġnoise":2462,"verage":2463,"Ġreally":2464,"Ġlibr":2465,"ersh":2466,"Ġchal":2467,"Ġdeb":2468,"Ġamount":2469,"Ġunw":2470,"que":2471,"Ġsuc":2472,"Ġexpect":2473,"ardens":2474,"Ġgrapes":2475,"Ġimag":2476,"Ġstronger":2477,"Ġthousands":2478,"avened":2479,"Ġcontin":2480,"Ġnewslet":2481,"mail":2482,"bab":2483,"lam":2484,"trees":2485,"Ġsud":2486,"Ġmiz":2487,"Ġlay":2488,"Ġcop":2489,"Ġdra":2490,"Ġnah":2491,"Ġneth":2492,"ays":2493,"Ġcomb":2494,"Ġchance":2495,"Ġoutc":2496,"Ġplay":2497,"Ġprot":2498,"pping":2499,"aged":2500,"apse":2501,"Ġslow":2502,"Ġwriters":2503,"Ġshamed":2504,"Ġoppos":2505,"Ġunified":2506,"Ġmechanics":2507,"Ġesther":2508,"Ġmelody":2509,"Ġsudden":2510,"14":2511,"ael":2512,"less":2513,"ten":2514,"town":2515,"Ġ`":2516,"ately":2517,"Ġhaman":2518,"ily":2519,"Ġwithin":2520,"Ġash":2521,"Ġbutton":2522,"Ġchat":2523,"Ġamale":2524,"alled":2525,"teenth":2526,"ustom":2527,"Ġlights":2528,"Ġsmo":2529,"Ġdisord":2530,"Ġindeed":2531,"common":2532,"Ġsurface":2533,"Ġaramaeans":2534,"Ġscient":2535,"Ġprovide":2536,"Ġlamb":2537,"Ġtouching":2538,"Ġjehoiada":2539,"Ġsingularity":2540,"Ġinfinite":2541,"Ġselection":2542,"Ġamalek":2543,"con":2544,"kah":2545,"land":2546,"line":2547,"ring":2548,"tree":2549,"Ġsides":2550,"Ġfaces":2551,"Ġtom":2552,"Ġloss":2553,"Ġcy":2554,"Ġbeer":2555,"rable":2556,"ried":2557,"Ġupd":2558,"Ġoutsk":2559,"Ġdef":2560,"Ġshad":2561,"Ġshema":2562,"Ġspices":2563,"Ġcontain":2564,"Ġlead":2565,"Ġaccord":2566,"Ġsmaller":2567,"Ġscribe":2568,"Ġacting":2569,"Ġdivisions":2570,"Ġlambs":2571,"Ġmilk":2572,"Ġzebul":2573,"Ġgreen":2574,"Ġoutskirts":2575,"gal":2576,"ping":2577,"put":2578,"Ġwgpu":2579,"Ġsum":2580,"Ġsour":2581,"ert":2582,"Ġcre":2583,"Ġdens":2584,"Ġgoats":2585,"Ġuri":2586,"acher":2587,"icle":2588,"adok":2589,"Ġweak":2590,"abor":2591,"Ġproble":2592,"Ġzadok":2593,"Ġqueen":2594,"Ġjosiah":2595,"Ġstretching":2596,"Ġobjects":2597,"Ġcords":2598,"Ġpulling":2599,"Ġexplain":2600,"Ġuncertain":2601,"Ġinformation":2602,"aur":2603,"mar":2604,"Ġair":2605,"nding":2606,"ret":2607,"ished":2608,"era":2609,"Ġlist":2610,"ither":2611,"lling":2612,"Ġrend":2613,"Ġlives":2614,"Ġdev":2615,"Ġmanage":2616,"Ġneut":2617,"Ġvision":2618,"akers":2619,"Ġproject":2620,"Ġspin":2621,"Ġblows":2622,"Ġrot":2623,"Ġstring":2624,"Ġjoash":2625,"Ġgraph":2626,"Ġbird":2627,"Ġbooks":2628,"Ġwalled":2629,"Ġhills":2630,"Ġpassover":2631,"Ġeventually":2632,"Ġcrit":2633,"Ġrehoboam":2634,"tali":2635,"Ġhanging":2636,"Ġfiles":2637,"Ġwinged":2638,"Ġlanguage":2639,"circle":2640,"Ġchald":2641,"44":2642,"64":2643,"bu":2644,"Ġgil":2645,"atural":2646,"Ġcakes":2647,"Ġnin":2648,"Ġthor":2649,"ided":2650,"amar":2651,"iring":2652,"Ġjab":2653,"rand":2654,"Ġplat":2655,"Ġarrows":2656,"Ġkir":2657,"Ġwrite":2658,"Ġcap":2659,"Ġscale":2660,"ific":2661,"Ġinstead":2662,"Ġexpanding":2663,"Ġcanaanites":2664,"Ġremem":2665,"Ġperfumes":2666,"ropy":2667,"Ġpositions":2668,"Ġhitt":2669,"Ġcedar":2670,"Ġrepresent":2671,"Ġnaphtali":2672,"towns":2673,"Ġaccording":2674,"Ġcreation":2675,"cript":2676,"io":2677,"length":2678,"no":2679,"oor":2680,"wood":2681,"Ġara":2682,"Ġmich":2683,"Ġmach":2684,"ouse":2685,"Ġcale":2686,"Ġcustom":2687,"Ġdimens":2688,"achel":2689,"urther":2690,"Ġstud":2691,"iews":2692,"Ġalong":2693,"Ġends":2694,"Ġsends":2695,"Ġexpans":2696,"Ġtypes":2697,"Ġpassion":2698,"ails":2699,"Ġgibeon":2700,"Ġvirgin":2701,"Ġboards":2702,"Ġearlier":2703,"Ġaudience":2704,"Ġetc":2705,"Ġopposite":2706,"val":2707,"Ġ4":2708,"Ġmin":2709,"Ġmes":2710,"Ġfurther":2711,"Ġgir":2712,"Ġgarden":2713,"Ġcries":2714,"Ġcateg":2715,"Ġinc":2716,"Ġnathan":2717,"Ġemail":2718,"Ġiss":2719,"lehem":2720,"leavened":2721,"iram":2722,"Ġstorm":2723,"Ġask":2724,"Ġasaph":2725,"Ġsocial":2726,"Ġwhenever":2727,"Ġunleavened":2728,"Ġkorah":2729,"Ġpriv":2730,"Ġtell":2731,"Ġwherever":2732,"perature":2733,"Ġattacking":2734,"Ġimpro":2735,"Ġregions":2736,"Ġcollapse":2737,"Ġseemed":2738,"Ġcircum":2739,"Ġdevelopment":2740,"Ġcolor":2741,"Ġentropy":2742,"Ġfreely":2743,"\",":2744,"60":2745,"bus":2746,"had":2747,"ires":2748,"Ġwings":2749,"Ġsqu":2750,"reel":2751,"Ġgide":2752,"Ġgersh":2753,"Ġlep":2754,"Ġjeph":2755,"Ġwash":2756,"Ġorgan":2757,"Ġdocum":2758,"Ġtwisted":2759,"Ġkoh":2760,"Ġconst":2761,"tem":2762,"Ġjebus":2763,"Ġrachel":2764,"Ġundert":2765,"othed":2766,"Ġpraised":2767,"Ġephod":2768,"Ġpossib":2769,"Ġmaj":2770,"Ġtemple":2771,"Ġtemperature":2772,"Ġcamels":2773,"Ġgalaxy":2774,"Ġstopped":2775,"Ġperfume":2776,"Ġbehaviour":2777,"Ġjezreel":2778,"Ġtarget":2779,"Ġsmooth":2780,"Ġtomorrow":2781,"Ġexpansion":2782,"Ġgideon":2783,"Ġkohath":2784,"cision":2785,"house":2786,"Ġhy":2787,"Ġfart":2788,"Ġfont":2789,"Ġtoward":2790,"Ġged":2791,"Ġpol":2792,"ency":2793,"Ġins":2794,"Ġnab":2795,"Ġez":2796,"Ġgoat":2797,"ically":2798,"Ġjah":2799,"Ġstick":2800,"Ġornam":2801,"Ġchains":2802,"Ġdepe":2803,"Ġshil":2804,"Ġsubs":2805,"Ġdiffic":2806,"plic":2807,"creen":2808,"Ġopin":2809,"Ġcreator":2810,"Ġpleased":2811,"Ġdrinking":2812,"Ġfifth":2813,"apter":2814,"Ġprevious":2815,"Ġdete":2816,"Ġclouds":2817,"Ġjesse":2818,"Ġazariah":2819,"Ġelectrons":2820,"Ġhuman":2821,"Ġhorsemen":2822,"Ġveil":2823,"Ġshimei":2824,"auri":2825,"15":2826,"24":2827,"280":2828,"98":2829,"aps":2830,"har":2831,"ogy":2832,"Ġsime":2833,"Ġfount":2834,"Ġeth":2835,"Ġnoah":2836,"Ġseo":2837,"Ġref":2838,"Ġreach":2839,"Ġwhole":2840,"Ġdoings":2841,"Ġshade":2842,"Ġwatching":2843,"Ġaltars":2844,"Ġmonths":2845,"Ġcommonos":2846,"Ġemit":2847,"Ġobserve":2848,"Ġwounded":2849,"Ġcorre":2850,"Ġspecify":2851,"Ġradiation":2852,"Ġeasy":2853,"Ġterms":2854,"sheba":2855,"Ġdistribution":2856,"Ġfigure":2857,"Ġshemaiah":2858,"Ġzebulun":2859,"ertile":2860,"Ġchaldaeans":2861,"Ġmajor":2862,"Ġsimeon":2863,".âĢĿ":2864,"four":2865,"gardens":2866,"kiah":2867,"ism":2868,"Ġcos":2869,"Ġinner":2870,"aries":2871,"Ġthu":2872,"Ġthick":2873,"keep":2874,"ential":2875,"etic":2876,"though":2877,"Ġdear":2878,"Ġletter":2879,"Ġvia":2880,"Ġabs":2881,"Ġseek":2882,"Ġworked":2883,"ology":2884,"Ġexc":2885,"Ġrings":2886,"Ġfocus":2887,"Ġprayers":2888,"Ġminds":2889,"Ġtalents":2890,"Ġprisoner":2891,"Ġactually":2892,"Ġpositive":2893,"Ġstructure":2894,"Ġawake":2895,"Ġbalak":2896,"Ġanswering":2897,"Ġdiscovery":2898,"Ġdensity":2899,"Ġuncertainty":2900,"Ġcircumcision":2901,"Ġleper":2902,"Ġwashing":2903,"Ġcosm":2904,"ew":2905,"ems":2906,"gen":2907,"mm":2908,"Ġast":2909,"Ġori":2910,"Ġfing":2911,"Ġfertile":2912,"Ġpop":2913,"Ġcup":2914,"Ġnatural":2915,"Ġneg":2916,"chariah":2917,"Ġherds":2918,"Ġkeepers":2919,"Ġexact":2920,"Ġalthough":2921,"tex":2922,"text":2923,"Ġquarks":2924,"Ġflat":2925,"Ġjew":2926,"Ġmarried":2927,"Ġpurple":2928,"Ġmathem":2929,"uchad":2930,"Ġbenaiah":2931,"Ġcomput":2932,"Ġtrad":2933,"Ġregion":2934,"like":2935,"zzar":2936,"Ġguided":2937,"Ġnetwork":2938,"Ġgibeah":2939,"Ġnebuchad":2940,"Ġcalcul":2941,"Ġmeasured":2942,"Ġcompany":2943,"Ġzechariah":2944,"Ġnewsletter":2945,"Ġsuddenly":2946,"Ġkiriath":2947,"Ġremember":2948,"bed":2949,"cut":2950,"mah":2951,"oy":2952,"Ġill":2953,"Ġocc":2954,"Ġmesh":2955,"Ġgal":2956,"Ġgath":2957,"Ġduring":2958,"Ġinfl":2959,"Ġself":2960,"Ġframe":2961,"Ġstation":2962,"Ġchapter":2963,"Ġwhether":2964,"Ġabish":2965,"Ġtwice":2966,"Ġquality":2967,"Ġknown":2968,"cious":2969,"Ġsmoke":2970,"Ġahaz":2971,"Ġphilistine":2972,"Ġstored":2973,"Ġkingdoms":2974,"ontro":2975,"Ġrivers":2976,"Ġsurpr":2977,"Ġstreams":2978,"Ġeighty":2979,"ready":2980,"Ġwidow":2981,"Ġsoftware":2982,"Ġmizpah":2983,"16":2984,"35":2985,"bd":2986,"garden":2987,"pa":2988,"ued":2989,"used":2990,"xes":2991,"Ġbrand":2992,"Ġmaker":2993,"Ġfac":2994,"Ġgam":2995,"Ġdrain":2996,"enti":2997,"Ġice":2998,"add":2999,"Ġsaf":3000,"Ġhot":3001,"Ġblow":3002,"olog":3003,"agn":3004,"Ġteam":3005,"Ġunique":3006,"achar":3007,"Ġended":3008,"Ġhundreds":3009,"Ġadv":3010,"Ġadon":3011,"Ġtroubles":3012,"Ġmerari":3013,"Ġahaziah":3014,"Ġdiscus":3015,"Ġsamson":3016,"Ġstarting":3017,"Ġstores":3018,"000":3019,"Ġeffects":3020,"Ġsymm":3021,"Ġideas":3022,"Ġincluding":3023,"Ġdamaged":3024,"servants":3025,"Ġcaleb":3026,"Ġissachar":3027,"37":3028,"bre":3029,"cher":3030,"Ġaut":3031,"Ġol":3032,"Ġsat":3033,"Ġlower":3034,"Ġpage":3035,"ited":3036,"ences":3037,"ances":3038,"idence":3039,"Ġith":3040,"Ġsand":3041,"Ġreph":3042,"Ġamaziah":3043,"fect":3044,"Ġarch":3045,"ability":3046,"Ġblind":3047,"Ġdesiring":3048,"ipart":3049,"Ġparticular":3050,"Ġperform":3051,"Ġsounds":3052,"Ġhistories":3053,"Ġsetup":3054,"Ġjudged":3055,"Ġprofess":3056,"Ġconnect":3057,"Ġhamm":3058,"Ġwavelength":3059,"Ġpaths":3060,"Ġlearning":3061,"Ġmanagement":3062,"Ġarab":3063,"keepers":3064,"Ġorigin":3065,"25":3066,"34":3067,"67":3068,"cies":3069,"ges":3070,"ged":3071,"ium":3072,"tribe":3073,"ups":3074,"ze":3075,"Ġsw":3076,"Ġsad":3077,"Ġscreen":3078,"Ġbud":3079,"Ġlines":3080,"Ġeither":3081,"Ġjed":3082,"Ġseir":3083,"Ġneare":3084,"Ġintro":3085,"Ġken":3086,"Ġkad":3087,"Ġkeeper":3088,"Ġphase":3089,"Ġenv":3090,"Ġboy":3091,"Ġads":3092,"oted":3093,"Ġgenerate":3094,"Ġbuff":3095,"Ġcurrent":3096,"Ġaccur":3097,"Ġhonoured":3098,"Ġformat":3099,"Ġsyn":3100,"Ġmeasures":3101,"Ġhappen":3102,"Ġinstrument":3103,"Ġtextures":3104,"point":3105,"Ġinvol":3106,"hole":3107,"Ġvirt":3108,"load":3109,"Ġconfig":3110,"Ġmultiple":3111,"Ġrelevant":3112,"Ġsarah":3113,"Ġargument":3114,"Ġunwalled":3115,"Ġcritical":3116,"ger":3117,"Ġtri":3118,"hest":3119,"Ġhil":3120,"Ġber":3121,"iss":3122,"Ġisaiah":3123,"ilt":3124,"Ġweek":3125,"three":3126,"Ġwasting":3127,"andard":3128,"rus":3129,"Ġamm":3130,"Ġprobab":3131,"Ġalready":3132,"play":3133,"Ġhelper":3134,"Ġexperim":3135,"Ġcollabor":3136,"Ġconsist":3137,"Ġelectron":3138,"Ġchanges":3139,"Ġpulled":3140,"namic":3141,"Ġequal":3142,"Ġdirectly":3143,"Ġlocal":3144,"Ġcondition":3145,"Ġramah":3146,"Ġunderstand":3147,"Ġkeyword":3148,"Ġbelieve":3149,"Ġmedia":3150,"Ġdraw":3151,"Ġoutcry":3152,"68":3153,"awn":3154,"fru":3155,"ient":3156,"Ġsih":3157,"Ġfit":3158,"ission":3159,"itions":3160,"Ġcount":3161,"ordin":3162,"Ġmean":3163,"Ġtheirs":3164,"arted":3165,"Ġshem":3166,"type":3167,"Ġclothed":3168,"Ġvertex":3169,"Ġaccess":3170,"Ġsalt":3171,"clus":3172,"Ġscen":3173,"Ġscal":3174,"Ġprep":3175,"Ġobject":3176,"Ġplanting":3177,"Ġplanted":3178,"Ġcorded":3179,"stems":3180,"Ġpaper":3181,"Ġcarm":3182,"Ġorbits":3183,"Ġsnake":3184,"Ġoverseers":3185,"hanan":3186,"Ġcopy":3187,"Ġgilgal":3188,"Ġdimensions":3189,"Ġsquare":3190,"Ġopinion":3191,"Ġcorrect":3192,"Ġsymmetry":3193,"Ġolive":3194,"Ġhilkiah":3195,"Ġsihon":3196,"fo":3197,"mf":3198,"port":3199,"uct":3200,"view":3201,"your":3202,"Ġ7":3203,"Ġ20":3204,"hearted":3205,"Ġhur":3206,"Ġbat":3207,"oun":3208,"Ġlu":3209,"Ġnine":3210,"Ġhesh":3211,"lem":3212,"adiah":3213,"ilah":3214,"Ġwear":3215,"Ġret":3216,"Ġrece":3217,"Ġrender":3218,"Ġann":3219,"Ġattem":3220,"osheth":3221,"Ġspring":3222,"Ġholl":3223,"Ġloop":3224,"olution":3225,"Ġleg":3226,"Ġparted":3227,"Ġsinai":3228,"Ġworkers":3229,"Ġflag":3230,"Ġrays":3231,"Ġclass":3232,"Ġreaders":3233,"Ġcreated":3234,"Ġrequire":3235,"took":3236,"atives":3237,"Ġlandscape":3238,"Ġpredictions":3239,"Ġcenter":3240,"Ġunderstanding":3241,"Ġtraining":3242,"Ġobservations":3243,"Ġuntil":3244,"Ġattraction":3245,"Ġpicture":3246,"Ġdisorder":3247,"Ġsource":3248,"Ġuriah":3249,"Ġproblem":3250,"Ġfountain":3251,"Ġsafely":3252,"agnetic":3253,"Ġattempt":3254,".\"":3255,"11":3256,"74":3257,"88":3258,"ax":3259,"air":3260,"gn":3261,"gile":3262,"ives":3263,"oid":3264,"rons":3265,"where":3266,"Ġid":3267,"Ġess":3268,"Ġfore":3269,"Ġgri":3270,"oned":3271,"Ġthread":3272,"seven":3273,"Ġhebre":3274,"ascus":3275,"idon":3276,"Ġweb":3277,"eler":3278,"stret":3279,"ctor":3280,"athite":3281,"Ġspaces":3282,"vessel":3283,"Ġleah":3284,"Ġlevel":3285,"Ġcooked":3286,"Ġrust":3287,"places":3288,"Ġuniform":3289,"Ġpoints":3290,"Ġcloth":3291,"Ġsomeone":3292,"ization":3293,"Ġbreak":3294,"Ġmouths":3295,"aphan":3296,"Ġformed":3297,"Ġindia":3298,"mann":3299,"ogle":3300,"Ġconscious":3301,"Ġsystems":3302,"Ġexpand":3303,"Ġzerah":3304,"Ġdamage":3305,"Ġdamascus":3306,"goats":3307,"Ġwriter":3308,"Ġmicah":3309,"Ġuncontro":3310,"Ġdescribe":3311,"Ġdescrib":3312,"Ġfrequ":3313,"Ġshowed":3314,"Ġfollow":3315,"Ġmales":3316,"Ġimaginary":3317,"Ġgirl":3318,"Ġcategory":3319,"Ġdepend":3320,"Ġshiloh":3321,"Ġgalile":3322,"fruits":3323,"Ġheshbon":3324,"gilead":3325,"32":3326,"39":3327,"65":3328,"72":3329,"aa":3330,"end":3331,"ious":3332,"ove":3333,"rm":3334,"rac":3335,"with":3336,"Ġx":3337,"Ġvel":3338,"Ġtast":3339,"Ġtired":3340,"head":3341,"Ġbind":3342,"Ġfaster":3343,"Ġcour":3344,"Ġdawn":3345,"icles":3346,"icate":3347,"eline":3348,"Ġarea":3349,"Ġsho":3350,"Ġarts":3351,"Ġunco":3352,"Ġkit":3353,"Ġpract":3354,"Ġalmost":3355,"Ġcoordin":3356,"Ġrushing":3357,"Ġenc":3358,"ighth":3359,"Ġpoetry":3360,"Ġundergo":3361,"Ġresul":3362,"Ġcreating":3363,"Ġbuilder":3364,"Ġincreasing":3365,"Ġwool":3366,"Ġwindow":3367,"workers":3368,"Ġmaac":3369,"Ġplants":3370,"Ġtesting":3371,"Ġpredicted":3372,"Ġjesus":3373,"Ġviolently":3374,"Ġjehoiakim":3375,"Ġantipart":3376,"Ġapi":3377,"Ġnuclear":3378,"Ġlaugh":3379,"Ġdetermine":3380,"Ġcomponent":3381,"Ġcarriage":3382,"Ġatoms":3383,"Ġlibrary":3384,"Ġninet":3385,"Ġprivate":3386,"Ġdifficult":3387,"Ġastron":3388,"Ġexactly":3389,"Ġprofessional":3390,"Ġweariness":3391,"Ġuncontrolled":3392,"70":3393,"78":3394,"by":3395,"ier":3396,"med":3397,"ond":3398,"pher":3399,"Ġtir":3400,"Ġtherm":3401,"Ġhated":3402,"Ġbur":3403,"Ġbath":3404,"Ġmess":3405,"itors":3406,"Ġcart":3407,"Ġcred":3408,"Ġdou":3409,"Ġnun":3410,"ani":3411,"Ġur":3412,"ilities":3413,"Ġfried":3414,"Ġrebe":3415,"Ġstor":3416,"venue":3417,"Ġsayings":3418,"oks":3419,"Ġabiath":3420,"Ġprog":3421,"Ġsheba":3422,"Ġhandl":3423,"Ġevidence":3424,"Ġourselves":3425,"Ġfeared":3426,"Ġlegs":3427,"Ġzidon":3428,"Ġappl":3429,"Ġmatt":3430,"Ġbenef":3431,"Ġmodern":3432,"Ġpersons":3433,"baal":3434,"Ġdetails":3435,"ully":3436,"Ġstatement":3437,"Ġjeshua":3438,"Ġfinally":3439,"Ġsleeping":3440,"Ġsingularities":3441,"Ġfeeling":3442,"Ġphysics":3443,"Ġlearn":3444,"Ġworshippers":3445,"Ġavoid":3446,"Ġcommunity":3447,"Ġupdate":3448,"Ġgraphics":3449,"Ġthorns":3450,"Ġhittite":3451,"Ġgershon":3452,"Ġnegative":3453,"Ġcomputer":3454,"Ġvirtual":3455,"Ġveloc":3456,"Ġlaughing":3457,"Ġfriedmann":3458,"Ġabiathar":3459,"19":3460,"54":3461,"69":3462,"col":3463,"fall":3464,"gies":3465,"how":3466,"hab":3467,"iph":3468,"Ġ6":3469,"Ġrough":3470,"Ġtv":3471,"Ġtall":3472,"Ġball":3473,"Ġmir":3474,"Ġpip":3475,"itor":3476,"Ġthin":3477,"Ġeighth":3478,"Ġgoogle":3479,"acy":3480,"Ġlive":3481,"Ġplated":3482,"Ġplates":3483,"Ġsha":3484,"Ġunse":3485,"Ġkish":3486,"Ġcoat":3487,"Ġcost":3488,"Ġphot":3489,"aging":3490,"Ġvert":3491,"Ġhighly":3492,"respo":3493,"Ġresult":3494,"Ġhoriz":3495,"durable":3496,"Ġassum":3497,"Ġproducts":3498,"Ġattackers":3499,"Ġshutting":3500,"Ġobed":3501,"Ġeditors":3502,"Ġowner":3503,"Ġplanets":3504,"Ġbehavior":3505,"Ġvisual":3506,"Ġworshipping":3507,"Ġprompt":3508,"lambs":3509,"Ġconstant":3510,"Ġundertaking":3511,"Ġgedaliah":3512,"Ġfacing":3513,"ological":3514,"Ġrebekah":3515,"\":":3516,"'t":3517,"29":3518,"50":3519,"cf":3520,"eenth":3521,"hn":3522,"iqu":3523,"oah":3524,"sc":3525,"yle":3526,"Âł":3527,"Ġ__":3528,"Ġtauri":3529,"Ġtheore":3530,"Ġhin":3531,"rer":3532,"Ġmain":3533,"Ġmeth":3534,"Ġfast":3535,"ising":3536,"Ġcarriages":3537,"Ġded":3538,"Ġner":3539,"Ġnon":3540,"anah":3541,"Ġui":3542,"edom":3543,"acter":3544,"thah":3545,"alm":3546,"raph":3547,"Ġouter":3548,"osing":3549,"Ġabove":3550,"ables":3551,"Ġunable":3552,"Ġworm":3553,"Ġbacks":3554,"Ġhold":3555,"Ġleather":3556,"Ġteacher":3557,"Ġbox":3558,"Ġ100":3559,"Ġacceler":3560,"Ġelements":3561,"Ġsounded":3562,"Ġvalid":3563,"Ġdifference":3564,"Ġbasic":3565,"Ġenergies":3566,"Ġintell":3567,"Ġtrave":3568,"flowing":3569,"Ġrap":3570,"Ġremain":3571,"Ġobserved":3572,"Ġrooms":3573,"Ġwounds":3574,"Ġfinite":3575,"Ġreviews":3576,"Ġorbit":3577,"Ġtechnology":3578,"Ġcollection":3579,"Ġavail":3580,"which":3581,"Ġsuccess":3582,"Ġprotons":3583,"Ġplatform":3584,"Ġimprove":3585,"Ġjephthah":3586,"Ġpopular":3587,"Ġmesha":3588,"Ġconfigur":3589,"df":3590,"dimens":3591,"ees":3592,"eight":3593,"rings":3594,"uer":3595,"uations":3596,"zah":3597,"Ġesh":3598,"Ġwin":3599,"Ġsit":3600,"Ġoften":3601,"Ġger":3602,"Ġgames":3603,"Ġlink":3604,"Ġpie":3605,"Ġnile":3606,"set":3607,"Ġnob":3608,"Ġgover":3609,"Ġsem":3610,"Ġseas":3611,"ury":3612,"Ġstandard":3613,"oph":3614,"osen":3615,"ference":3616,"Ġmaybe":3617,"Ġked":3618,"Ġspo":3619,"istic":3620,"iezer":3621,"Ġfem":3622,"Ġleverage":3623,"Ġjoining":3624,"Ġbot":3625,"Ġclose":3626,"Ġversion":3627,"Ġbuilt":3628,"izz":3629,"Ġahas":3630,"Ġdisplay":3631,"Ġpropos":3632,"Ġlevite":3633,"Ġediting":3634,"asha":3635,"ify":3636,"Ġbasins":3637,"Ġwoods":3638,"Ġfruits":3639,"Ġpublished":3640,"Ġnorm":3641,"comp":3642,"Ġtongues":3643,"Ġelectrom":3644,"Ġpair":3645,"Ġshallum":3646,"Ġsuggestion":3647,"Ġcharacter":3648,"Ġnaam":3649,"Ġlayout":3650,"build":3651,"Ġdocument":3652,"Ġkadesh":3653,"Ġhollow":3654,"Ġcourse":3655,"Ġavailable":3656,"dimensional":3657,"28":3658,"cm":3659,"gir":3660,"has":3661,"hip":3662,"haps":3663,"now":3664,"six":3665,"top":3666,"uable":3667,"ination":3668,"inadab":3669,"Ġserv":3670,"Ġhiv":3671,"Ġmas":3672,"Ġlions":3673,"Ġlength":3674,"ann":3675,"Ġult":3676,"ental":3677,"Ġjoram":3678,"Ġstoned":3679,"Ġsodom":3680,"ope":3681,"Ġchosen":3682,"Ġamnon":3683,"Ġshaphan":3684,"Ġkid":3685,"Ġlover":3686,"Ġcold":3687,"Ġfold":3688,"ressed":3689,"Ġcaused":3690,"Ġmatthe":3691,"hull":3692,"Ġstreets":3693,"Ġbride":3694,"Ġperfect":3695,"Ġcomplex":3696,"Ġoaths":3697,"Ġtrack":3698,"Ġregard":3699,"Ġsett":3700,"Ġactive":3701,"Ġmasses":3702,"Ġtyre":3703,"worker":3704,"Ġbaasha":3705,"floor":3706,"Ġvideos":3707,"board":3708,"Ġhush":3709,"Ġtested":3710,"Ġzero":3711,"Ġzeru":3712,"Ġprovided":3713,"Ġhumans":3714,"Ġcorrespo":3715,"Ġconditions":3716,"Ġtechnical":3717,"Ġposts":3718,"Ġapproval":3719,"Ġapart":3720,"Ġachie":3721,"Ġbelieved":3722,"Ġexistence":3723,"Ġmalch":3724,"Ġchoose":3725,"Ġcomponents":3726,"Ġcontinue":3727,"puts":3728,"Ġrendering":3729,"Ġmeshull":3730,"hadad":3731,"Ġthunder":3732,"Ġmathemat":3733,"stretched":3734,"Ġthermody":3735,"Ġmethod":3736,"uerus":3737,"Ġahasuerus":3738,"Ġelectromagnetic":3739,"Ġmatthew":3740,"75":3741,"based":3742,"cused":3743,"da":3744,"fer":3745,"hous":3746,"iop":3747,"kk":3748,"makers":3749,"nch":3750,"shem":3751,"Ġbru":3752,"Ġtops":3753,"Ġgent":3754,"Ġcush":3755,"Ġyew":3756,"tham":3757,"storm":3758,"Ġallows":3759,"Ġanal":3760,"Ġstems":3761,"ahaz":3762,"Ġplate":3763,"Ġvines":3764,"abad":3765,"Ġoffer":3766,"Ġprojects":3767,"Ġours":3768,"Ġlikely":3769,"inehas":3770,"Ġflames":3771,"Ġphinehas":3772,"Ġteeth":3773,"Ġfearing":3774,"Ġfocused":3775,"Ġcursing":3776,"Ġolder":3777,"nezzar":3778,"Ġblessings":3779,"Ġrelative":3780,"Ġmode":3781,"Ġvaluable":3782,"Ġspirits":3783,"Ġexperi":3784,"Ġlooks":3785,"Ġinvest":3786,"Ġplacing":3787,"Ġnebat":3788,"Ġramoth":3789,"Ġapproach":3790,"Ġfollowing":3791,"Ġoptions":3792,"Ġdropping":3793,"Ġnucleus":3794,"Ġprimary":3795,"Ġscientific":3796,"Ġamalekites":3797,"market":3798,"Ġezra":3799,"Ġethiop":3800,"Ġfinger":3801,"Ġnebuchadnezzar":3802,"Ġoccur":3803,"Ġabishai":3804,"Ġadonijah":3805,"Ġrephaim":3806,"Ġperformance":3807,"Ġintrodu":3808,"Ġkeywords":3809,"clusion":3810,"Ġcarmel":3811,"Ġdescribed":3812,"Ġgalileo":3813,"Ġultim":3814,"Ġzeruiah":3815,"Ġmeshullam":3816,"49":3817,"bc":3818,"bf":3819,"bar":3820,"dress":3821,"erer":3822,"pot":3823,"wise":3824,"Ġog":3825,"ises":3826,"Ġgaz":3827,"Ġport":3828,"itely":3829,"Ġcups":3830,"Ġeu":3831,"anel":3832,"ley":3833,"Ġonline":3834,"immon":3835,"ications":3836,"Ġwebs":3837,"Ġsear":3838,"Ġoutstretched":3839,"change":3840,"ightly":3841,"aken":3842,"Ġovertook":3843,"Ġoverflowing":3844,"Ġhooks":3845,"pped":3846,"Ġlooked":3847,"Ġroof":3848,"Ġworkmen":3849,"Ġflame":3850,"aseiah":3851,"plate":3852,"Ġboaz":3853,"ciated":3854,"Ġbuy":3855,"Ġcontrac":3856,"Ġbring":3857,"Ġgrid":3858,"Ġswords":3859,"cloth":3860,"Ġcountrymen":3861,"Ġvalues":3862,"Ġrequired":3863,"Ġlowlands":3864,"Ġcubit":3865,"Ġhaircloth":3866,"Ġwitnesses":3867,"Ġrequesting":3868,"Ġpersonal":3869,"Ġhamath":3870,"Ġcircle":3871,"Ġmicaiah":3872,"Ġtouched":3873,"Ġinteract":3874,"Ġdirectory":3875,"Ġhananiah":3876,"Ġlocust":3877,"Ġphysic":3878,"Ġtrained":3879,"Ġuzziah":3880,"Ġcurtains":3881,"Ġprotest":3882,"Ġjabesh":3883,"Ġornaments":3884,"Ġjewels":3885,"Ġscales":3886,"Ġtaste":3887,"Ġuncovered":3888,"Ġresults":3889,"Ġhorizon":3890,"Ġintellig":3891,"Ġfemale":3892,"houses":3893,"73":3894,"but":3895,"cast":3896,"cles":3897,"des":3898,"gar":3899,"ples":3900,"press":3901,"ric":3902,"su":3903,"Ġtamar":3904,"Ġaverage":3905,"Ġhome":3906,"Ġfill":3907,"Ġgain":3908,"ator":3909,"Ġled":3910,"Ġlach":3911,"Ġinmost":3912,"omach":3913,"anced":3914,"idge":3915,"imes":3916,"Ġgos":3917,"Ġanath":3918,"Ġstam":3919,"Ġstates":3920,"Ġstomach":3921,"Ġasso":3922,"ationary":3923,"Ġabijah":3924,"Ġarr":3925,"Ġarnon":3926,"ulse":3927,"Ġlovers":3928,"ctions":3929,"Ġexchange":3930,"Ġjohanan":3931,"Ġjohn":3932,"Ġknees":3933,"Ġdesires":3934,"Ġring":3935,"Ġpool":3936,"Ġpoison":3937,"Ġappe":3938,"Ġahijah":3939,"Ġproport":3940,"Ġspect":3941,"Ġpowerful":3942,"Ġperizz":3943,"Ġrelated":3944,"Ġjehoram":3945,"Ġsixth":3946,"Ġsuppose":3947,"Ġguest":3948,"Ġbasket":3949,"Ġlowland":3950,"Ġfeasts":3951,"Ġsky":3952,"Ġmaaseiah":3953,"ternative":3954,"Ġobserver":3955,"Ġgroups":3956,"Ġcarry":3957,"Ġsuggested":3958,"Ġsnow":3959,"Ġflowers":3960,"blog":3961,"Ġextra":3962,"Ġpictured":3963,"Ġrepresentatives":3964,"Ġinsp":3965,"Ġenvy":3966,"Ġprobably":3967,"Ġrapid":3968,"shemesh":3969,"Ġlachish":3970,"43":3971,"90":3972,"biah":3973,"creat":3974,"fully":3975,"iam":3976,"iff":3977,"ties":3978,"ua":3979,"xim":3980,"nded":3981,"Ġsen":3982,"Ġbone":3983,"att":3984,"Ġpi":3985,"itt":3986,"Ġcou":3987,"omi":3988,"Ġheight":3989,"Ġnode":3990,"kets":3991,"ades":3992,"Ġrevenue":3993,"Ġlib":3994,"lying":3995,"Ġupro":3996,"Ġdew":3997,"Ġdecre":3998,"rue":3999,"Ġletting":4000,"Ġamas":4001,"Ġshush":4002,"ably":4003,"Ġherd":4004,"Ġhobb":4005,"Ġload":4006,"201":4007,"pha":4008,"Ġzo":4009,"Ġquite":4010,"Ġflower":4011,"Ġjotham":4012,"Ġthank":4013,"Ġegyptian":4014,"Ġadvant":4015,"Ġelse":4016,"covers":4017,"Ġcurses":4018,"Ġsouls":4019,"Ġsixteen":4020,"Ġmonthly":4021,"Ġvalleys":4022,"Ġfeasting":4023,"Ġjehoahaz":4024,"Ġwatchmen":4025,"Ġfinding":4026,"Ġcentury":4027,"Ġvisible":4028,"Ġreview":4029,"Ġbaruch":4030,"Ġearliest":4031,"Ġpotential":4032,"Ġuntrue":4033,"Ġconcept":4034,"Ġintegrations":4035,"ikam":4036,"Ġhazael":4037,"Ġshader":4038,"Ġneutron":4039,"Ġneutrons":4040,"Ġcapac":4041,"Ġfarthest":4042,"Ġnaboth":4043,"Ġsubsc":4044,"Ġabsol":4045,"entially":4046,"chers":4047,"Ġarabah":4048,"Ġcountries":4049,"Ġreceive":4050,"Ġgrip":4051,"Ġmaacah":4052,"Ġbrush":4053,"Ġshushan":4054,"56":4055,"85":4056,"apt":4057,"bble":4058,"hah":4059,"iled":4060,"nothing":4061,"och":4062,"oting":4063,"ti":4064,"tons":4065,"wr":4066,"wind":4067,"Ġath":4068,"Ġahead":4069,"Ġoph":4070,"Ġobe":4071,"Ġhore":4072,"Ġhiram":4073,"Ġbil":4074,"Ġbits":4075,"Ġgas":4076,"Ġpains":4077,"itive":4078,"Ġcake":4079,"enc":4080,"Ġdue":4081,"Ġnoble":4082,"ordial":4083,"ama":4084,"vert":4085,"adan":4086,"Ġsaints":4087,"rogen":4088,"step":4089,"Ġcomplic":4090,"adezer":4091,"Ġhadadezer":4092,"Ġplough":4093,"Ġkiss":4094,"Ġtaker":4095},"merges":["Ġ t","h e","Ġ a","Ġt he","Ġ o","Ġ w","i n","n d","Ġ s","Ġa nd","Ġo f","Ġ h","r e","Ġ b","Ġ m","o u","Ġ f","o r","i s","e r","Ġt o","in g","Ġ g","a t","Ġ l","o n","Ġ p","i t","Ġ c","e n","e s","Ġ y","l l","Ġ d","Ġy ou","Ġ in","a r","Ġ n","Ġb e","Ġt h","Ġh a","v e","o m","Ġ e","s e","a n","Ġ he","Ġ is","u t","l e","Ġf or","Ġw h","a y","i ll","Ġn o","a s","or d","Ġo n","i d","k e","i m","Ġg o","a m","Ġ u","e d","Ġh is","Ġw ill","a c","en t","Ġyou r","Ġ i","i r","i c","v er","Ġ it","Ġl ord","e t","i on","it h","g h","a d","i l","Ġw ith","Ġs a","Ġ j","Ġw e","Ġs e","t h","a l","e l","Ġha ve","r o","Ġw as","s t","he r","Ġf r","Ġg i","Ġth at","r a","Ġa ll","Ġa re","Ġno t","Ġ re","k ing","Ġm y","gh t","u r","Ġthe y","Ġfr om","Ġa n","o w","Ġs t","a ke","a h","Ġm e","Ġh im","Ġwh o","Ġthe m","Ġthe ir","r i","Ġc om","Ġa s","Ġl i","am e","Ġsa id","Ġs o","Ġ -","Ġp ut","l y","a nd","o d","Ġo r","Ġs on","a in","Ġb y","o p","er s","Ġb ut","Ġgo d","Ġu p","v en","Ġc h","Ġ king","Ġth is","c t","Ġgi ve","ic h","l d","ac e","Ġd o","at h","o re","Ġp e","Ġw he","Ġo ut","Ġd e","Ġwh ich","ad e","Ġha d","r u","Ġm ade","a u","Ġha s","es t","e p","Ġa t","Ġl et","Ġm an","Ġwe re","Ġn e","c h","ar t","Ġpe op","Ġcom e","Ġis ra","Ġisra el","t her","t er","o s","at ion","re n","g e","Ġthe n","Ġpeop le","Ġp l","il d","Ġthe re","Ġa g","Ġon e","on g","Ġwhe n","Ġe ar","an t","Ġs ay","Ġbe c","Ġm ake","o k","Ġa m","Ġ v","' s","Ġl and","ac k","Ġt ake","f e","o se","on e","i ght","Ġs h","Ġa b","a ll","a k","Ġw ent","Ġe ver","e ar","Ġa r","re d","a b","Ġin t","Ġm ay","Ġch ild","Ġ ke","a ve","Ġag ain","Ġc ame","Ġhe r","Ġi f","Ġu n","au se","f ore","u s","Ġd ay","re at","ou ld","id e","Ġof f","Ġf at","p t","Ġo ver","r ou","Ġbe fore","er ing","Ġh ou","Ġg ave","Ġf i","w ay","es s","im e","Ġint o","Ġchild ren","v ing","Ġse e","u m","Ġp ro","Ġwh at","Ġw or","Ġno w","Ġm en","Ġs he","c e","q u","u d","ur n","se l","a v","Ġs p","Ġha nd","Ġhou se","Ġw ord","u l","Ġu s","i ah","er v","Ġfat her","w n","Ġt w","Ġe v","Ġo ur","ou t","Ġ k","Ġever y","r y","Ġli ke","Ġa way","Ġb ack","o od","i es","Ġh o","Ġto ok","erv ant","Ġg reat","Ġpl ace","â Ģ","p p","Ġs u","Ġagain st","Ġde ath","Ġbec ause","m ent","Ġm o","Ġw ould","re e","Ġke ep","ri ght","Ġ (","Ġt ime","Ġs ervant","Ġp r","Ġgi ven","Ġw ay","Ġl o","Ġth ose","Ġb l","Ġbe en","Ġson s","2 0","ct ion","Ġoff ering","Ġto wn","ou r","om e","p h","Ġd av","Ġdav id","as t","Ġear th","Ġthe se","is t","ow n","v es","Ġev il","ou s","l es","Ġc on","n t","b le","Ġa f","o l","Ġe x","i e","ou nt","ing s","Ġa l","Ġj ud","ar d","or y","u re","Ġit s","Ġan y","Ġaf ter","Ġg et","t e","Ġor d","a le","Ġt ak","Ġ ro","Ġo ther","Ġw r","Ġf e","Ġb ro","in e","at e","is e","Ġd id","Ġl e","Ġd own","Ġw at","Ġp art","i g","it y","Ġc an","Ġy ear","a ge","in d","Ġgo od","Ġc o","Ġs in","Ġs ent","b e","Ġ z","Ġwor k","urn ed","or t","it es","th ing","Ġ qu","Ġli ving","is h","os es","Ġ ru","Ġf l","Ġp ri","Ġhe art","g y","Ġst r","it e","Ġd i","nd er","Ġj o","Ġtw o","Ġj e","Ġ right","t y","a se","Ġe ven","ation s","p l","Ġj er","Ġar m","Ġm oses","t ing","Ġp h","Ġpri est","Ġh ow","Ġho ly","a g","Ġf u","Ġn ame","Ġre st","u st","Ġf ood","Ġtak en","Ġt ent","w s","Ġt e","Ġk n","Ġ en","p le","Ġd es","Ġjud ah","âĢ Ļ","as s","s h","Ġ r","Ġth an","Ġun i","Ġword s","Ġb o","ic e","Ġab out","ion s","i gh","Ġm ore","i ve","Ġd one","Ġs ou","Ġp o","le d","sel f","Ġe y","Ġf am","Ġam ong","g et","Ġn um","ac h","Ġhand s","Ġon ly","Ġu nder","Ġfam il","Ġh u","Ġf ear","Ġkn ow","Ġe nd","c re","Ġse nd","Ġg ra","Ġc a","Ġc l","Ġe gy","Ġegy pt","a king","Ġey es","he d","t s","Ġwhe re","n g","p er","nd red","Ġli fe","Ġhu ndred","ir st","rou gh","d om","Ġbro ther","Ġ im","Ġw ar","Ġjer us","u b","ale m","Ġjerus alem","Ġa d","Ġservant s","Ġf irst","get her","c i","u n","Ġto gether","Ġwith out","Ġth ings","Ġsay ing","Ġord ers","p e","Ġbe t","Ġfu ll","o b","ig n","Ġyear s","Ġ ver","t ain","Ġli ght","w e","ver se","Ġc le","Ġth rough","Ġstr ong","led ge","b er","Ġknow ledge","Ġl a","Ġhe ad","m on","Ġu se","i le","Ġuni verse","e ver","Ġt ru","o t","Ġwat er","Ġgo t","Ġg l","ous and","Ġth ousand","Ġe l","Ġh igh","b r","au ght","Ġa c","Ġw om","Ġday s","Ġs ome","Ġd aught","an s","c k","Ġf o","Ġa pp","re s","Ġg en","Ġs m","on s","Ġp os","Ġd est","Ġl ong","a ven","ac es","ru ction","Ġw i","Ġne ed","Ġ /","ie f","Ġdest ruction","Ġgen er","c o","Ġwas te","an g","Ġsay s","urn ing","i p","Ġb u","Ġat t","Ġb urned","Ġc ut","Ġth ou","i z","Ġb od","rou nd","Ġ 1","Ġhe l","Ġsa w","w er","Ġt ill","Ġwho se","Ġwh om","f fe","n ing","ro w","Ġm ar","Ġan s","Ġt rou","Ġc ause","ow er","c le","Ġch ief","Ġre s","Ġver y","at ed","Ġdo or","a z","f t","n ess","f f","ab le","sel ves","Ġo p","Ġm er","Ġb re","Ġc ur","Ġke pt","Ġtown s","u e","Ġgo ld","Ġfi re","i ble","Ġs ide","Ġs ame","it ing","it ion","Ġo ld","er tain","Ġp ur","Ġbec ame","it s","Ġa h","Ġg one","Ġsa ul","Ġwe ll","a i","ac t","t ar","all y","Ġb ir","Ġp ra","Ġwh y","Ġher it","Ġt urned","Ġd is","Ġyou ng","Ġf ace","Ġhe aven","Ġherit age","Ġre ad","Ġm at","Ġru l","i x","Ġnum ber","w ard","Ġh or","Ġth ree","Ġ [","Ġal tar","d o","c y","s es","Ġfather s","b s","Ġpro p","Ġf a","Ġm ount","Ġhel p","h u","ent y","Ġse en","ic k","Ġoffering s","ou nd","ve d","Ġv o","o th","u ch","Ġtrou ble","f or","o h","ar on","Ġbo ok","Ġst re","Ġop en","pl ace","el d","Ġans wer","ar y","Ġac c","g th","o ther","Ġa aron","in es","Ġne w","n e","Ġst ill","ak es","Ġfi eld","Ġpart ic","Ġfamil y","Ġ round","Ġne ar","Ġc ertain","Ġcom es","ain s","we en","Ġf ar","Ġbet ween","Ġso l","ct s","Ġle v","k en","Ġc reat","Ġe d","Ġan other","Ġsp e",". .","Ġp ower","Ġpur p","Ġc ru","Ġc ry","Ġpl aces","Ġsu ch","Ġo x","Ġcon t","Ġbu ild","Ġbod y","Ġth ir","Ġpra ise","Ġvo ice","Ġm ight","Ġwi fe","w ord","en ce","Ġb r","ount ry","e f","m s","Ġwr ath","Ġp er","i a","Ġhe re","Ġse ven","Ġpr ay","Ġdi re","Ġpriest s","d u","Ġj ac","Ġbl ess","Ġre l","Ġpe ace","Ġhim self","Ġdo es","in k","Ġan g","Ġcle ar","Ġwom an","Ġjac ob","as ure","Ġme et","Ġmer cy","t le","ke d","el y","Ġwr ong","Ġbro ken","s o","s ide","Ġ <","Ġ/ >","Ġab le","Ġn ight","Ġph il","Ġm ou","ri be","Ġde c","Ġover c","Ġsp ace","Ġprop he","i re","i al","Ġh at","Ġse cre","Ġbrother s","Ġ âĢ","ar ch","ve l","Ġsa fe","Ġbec ome","Ġshe ep","Ġje h","o king","Ġway s","Ġm ind","Ġup right","Ġag ree","Ġmou th","ar s","Ġmeet ing","Ġe le","Ġs am","Ġf ight","Ġn ations","p s","Ġf our","en s","an ge","Ġno thing","as h","Ġsou l","Ġbless ing","x t","Ġb en","Ġp le","om on","Ġsol omon","ou d","Ġf al","Ġg r","an ce","Ġphil ist","Ġm on","Ġsa l","Ġst ren","Ġs word","ar k","Ġla w","Ġca re","Ġdaught er","Ġthou ght","Ġwh ile","Ġfal se","] (","Ġking s","Ġdes ign","Ġsm all","Ġsecre t","Ġf ree","Ġstren gth","Ġord er","c es","Ġcom p","Ġne ws","is ion","ic al","Ġgi ves","Ġt im","a re","a ph","Ġm uch","ul ar","w or","c l","Ġs il","Ġm akes","Ġgo es","Ġfamil ies","cle an","r on","Ġh on","Ġc ould","ar ing","Ġun clean","Ġtw enty","Ġfa ith","Ġagree ment","Ġsil ver","Ġj os","Ġm od","Ġcom ple","Ġbir th","Ġs ix","Ġmon th","Ġde ad","Ġsu pp","Ġpurp ose","Ġgo ing","Ġas s","m a","Ġtent s","Ġthe ory","Ġs im","ar a","Ġfor m","Ġo ath","Ġn am","e ous","Ġw all","Ġme al","ag es","et h","Ġlo oking","Ġpray er","Ġo il","ren t","Ġwor sh","Ġfl ight","Ġarm y","Ġgra in","Ġs c","ent s","Ġthem selves","Ġjo y","Ġw is","ra in","Ġbl ack","Ġcom mon","Ġmo ther","Ġtru e","Ġlev ites","Ġm aking","is on","Ġp un","v ation","Ġst art","Ġright eous","ase d","Ġph ara","Ġphara oh","Ġd r","Ġth ing","ri b","Ġal so","Ġg u","Ġgod s","ish ment","Ġca pt","e k","Ġc ountry","Ġgl ory","Ġpun ishment","i f","Ġbl ood","hu a","Ġphilist ines","Ġh ard","ou gh","ri ef","Ġin st","Ġsou nd","Ġre c","Ġtim es","Ġrighteous ness","Ġtru ly","Ġne ver","on es","Ġin d","Ġe ph","one y","Ġread y","e m","Ġb est","Ġse a","ra h","Ġv al","Ġsu n","Ġad d","Ġse ed","Ġsal vation","ic t","Ġlo ve","ut h","Ġst ore","m an","Ġbe ast","al th","Ġar k","Ġsp ir","Ġhow ever","Ġdire ction","he m","Ġb urning","Ġsh ame","Ġin cre","Ġdi ffe","Ġim p","Ġbe th","Ġking dom","Ġbre ad","i b","Ġrest ing","v ity","Ġt al","Ġwis dom","Ġj ust","Ġpro du","co nd","Ġevery thing","ment s","Ġel i","el s","Ġtak es","ft ed","Ġbuild ing","Ġw ise","Ġwat ers","Ġm or","Ġfi f","Ġmo st","Ġarm ies","Ġoverc ome","o ff","Ġt r","Ġgi ving","Ġs ign","Ġb as","Ġcle an","es sel","Ġhe aring","Ġhis t","Ġre g","Ġv essel","j e","Ġd ist","Ġco ver","c hed","or s","or row","Ġres p","Ġhon our","Ġs et","Ġfor ce","Ġson g","Ġpr ison","Ġjos hua","on t","n er","Ġj ose","Ġwe alth","Ġse v","Ġex per","Ġdes ire","Ġjose ph","a p","Ġd at","Ġqu ick","Ġsupp ort","m en","o g","Ġse arch","for m","Ġt urning","Ġe ach","Ġre qu","Ġw ood","ep ing","Ġla ws","Ġmor ning","o thing","ent h","and s","Ġdaught ers","0 0","g in","l on","Ġb it","ic s","Ġse cond","Ġear s","Ġfe et","Ġgl ad","Ġhat ers","a iah","d s","Ġh ill","Ġli fted","Ġdr ink","c ess","Ġw a","es h","se d","ĠâĢ ľ","Ġp re","off ering","Ġresp ons","Ġm us","Ġfi ve","âĢ Ŀ","Ġco ll","u el","Ġt en","Ġd ise","Ġl ow","Ġfr u","ath an","Ġho le","b b","o ck","Ġo bs","Ġfo ol","Ġpos s","v i","Ġl im","Ġe ffe","Ġpo or","Ġp ers","Ġst ep","Ġdiffe rent","Ġrespons ible","Ġfool ish","b a","l t","Ġh op","Ġpartic les","Ġa ct","ow s","Ġc all","d ay","Ġ \"","Ġw ine","Ġcon s","a an","j am","p r","Ġchief s","t o","is ions","Ġstre t","Ġworsh ip","Ġheart s","Ġspir it","Ġb ab","Ġf all","ord an","Ġj ordan","les h","Ġuse d","Ġthir ty","l f","l i","s al","Ġs y","Ġf lesh","ent ion","Ġen er","Ġpos ition","Ġm ass","ek iah","Ġdat a","ve red","Ġrec ord","Ġmus ic","Ġm id","Ġm ale","ch ing","Ġcl othing","at ure","Ġex p","Ġbab y","Ġw o","Ġrul er","Ġben jam","Ġw ind","ar ri","Ġbe ing","ow ing","Ġwom en","x ed","in t","Ġm oney","c ed","y s","Ġt y","Ġon es","Ġcom ing","Ġstr ange","Ġp ill","Ġme m","all e","j ah","Ġ ri","re m","Ġhist ory","Ġbaby lon","Ġm ill","Ġwe eping","Ġint e",".. .","Ġquick ly","s ing","Ġ ide","Ġbet ter","Ġwa iting","e red","at ive","Ġv alle","Ġprophe t","Ġt ribe","ar i","al a","Ġde ep","Ġpr ide","Ġfe ast","Ġqu est","Ġmount ain","rah am","u al","Ġp ast","en se","Ġd ark","Ġab raham","Ġen ough","Ġatt ack","Ġs k","Ġpro per","Ġang ry","Ġdise ase","Ġfru it","in ess","Ġd et","Ġd ry","ic es","Ġsh ut","Ġbenjam in","he n","at es","Ġl it","Ġear ly","pe ct","wor k","t on","Ġo b","Ġp ay","Ġcl oud","Ġspe ci","u ll","Ġs orrow","Ġnam ed","Ġt aking","he s","Ġto day","Ġd el","Ġme asure","as ter","Ġmo ab","ub l","Ġs l","Ġman y","Ġsh ould","ul t","Ġro ck","Ġwr iting","Ġte ach","Ġthou gh","n s","Ġ &","Ġt ra","Ġm a","Ġc ub","Ġwhat ever","Ġcan aan","Ġhop e","Ġ 3","Ġse at","Ġfr ie","Ġfu n","Ġri ver","Ġfrie nd",". )","Ġp res","Ġwe ight","Ġst ones","Ġjud g","Ġte xt","Ġacc ount","o am","Ġfl ock","Ġbit ter","Ġeffe ct","Ġener gy","Ġp ubl","a e","m o","Ġlit tle","i ed","Ġa uth","Ġb a","at i","at her","Ġyour self","Ġst ate","Ġfi xed","b ack","Ġp ass","Ġn or","Ġhe z","f l","as se","be red","Ġhead s","Ġox en","Ġvessel s","Ġs ing","Ġjo ab","Ġple asure","g t","Ġst ars","Ġman asse","Ġother s","Ġbr ass","Ġfight ing","Ġmill ion","Ġvalle y","Ġmanasse h","e b","u p","it ies","Ġe m","Ġre ward","Ġmo ved","Ġjeh o","a il","Ġdi v","Ġlong er","Ġatt ention","Ġposs ible","l s","Ġre d","Ġed it","cl ud","Ġcapt ains","f in","i el","re es","Ġdo ing","Ġqu ant","ob oam","c om","Ġs ur","or ies","_ _","i an","Ġ ra","Ġo wn","Ġs ense","Ġj on","ra im","Ġar am","Ġfif ty","Ġs ort","Ġc at","Ġv ide","Ġhou ses","Ġpr ice","Ġen g","t ime","Ġg rief","Ġha lf","Ġgood s","Ġje rem","Ġsam uel","Ġval ue","Ġnum bered","Ġcru el","Ġele ct","Ġeph raim","Ġauth or","b o","Ġin side","ke t","Ġmo ving","Ġany thing","Ġteach ing","Ġa i","Ġw it","Ġre as","Ġfe ed","iz e","Ġmem ory","Ġfun ction","Ġd ust","Ġco vered","Ġw ide","Ġp red","Ġin clud","Ġha ir","Ġha pp","Ġpeop les","Ġgener ation","do ing","Ġprophe ts","Ġwit ness","he l","Ġa cts","Ġe ast","Ġyour selves","Ġne igh","av es","Ġev ent","Ġany one","Ġproper ty","Ġneigh b","Ġc au","ation al","Ġcreat e","Ġinst ru","Ġjerem iah","s hed","Ġto ol","Ġbe l","ro s","Ġeven ing","Ġmat ter","a ut","z z","Ġ +","Ġfor ty","ter n","Ġevery one","Ġstre am","Ġcomple te","Ġrequ est","Ġlim it","Ġcat tle","Ġto p","at ing","Ġbe h","Ġfor ward","Ġwor ld","Ġtw el","Ġpart s","Ġstret ched","Ġh us","Ġre m","Ġout side","Ġjud ge","Ġrul ers","Ġcru shed","Ġdec isions","Ġhez ekiah","i ans","Ġ 2","Ġs ci","Ġch ang","Ġwat ch","Ġcub its","Ġjon athan","Ġre al","Ġpro f","Ġcry ing","u ally","Ġst one","Ġpl ant","us iness","Ġthir d","Ġba al","as ing","Ġim age","Ġgr ass","Ġgu id","Ġobs er","Ġpers on","c us","Ġb and","Ġc ord","Ġn et","Ġv i","Ġover t","Ġsee m","Ġmar k","Ġcertain ly","Ġneighb our","g ust","i ence","Ġm aster","Ġreas on","n ers","r am","Ġn ation","Ġwi ves","Ġcut ting","Ġdoor way","Ġbeast s","Ġpay ment","f ul","t ed","y ri","Ġ es","Ġs we","Ġd ri","Ġput s","Ġcon ne","Ġass yri","Ġauthor ity",". &","Ġl oud","ch ang","Ġar t","Ġgreat er","Ġlo ok","ie w","Ġro om","Ġru le","Ġsou th","Ġcur se","Ġimp ort","o ke","v it","Ġw ound","in ed","Ġf ind","Ġg row","Ġp ull","Ġha m","Ġe ight","le ch","Ġfor ces","Ġsa vi","Ġre p","Ġk ind","Ġdis gust","Ġide a","Ġfeed back","t he","Ġt est","Ġw ave","Ġp ain","ar iah","Ġam mon","Ġz er","Ġpo int","Ġpartic le","Ġrecord ed","Ġquant um","Ġswe et","Ġput ting","Ġshe ke","Ġwork s","Ġgra vit","a ac","g g","Ġm et","Ġm ust","ver s","Ġv ine","ak er","Ġnum b","Ġpill ars","Ġvide o","Ġsavi our","Ġw ant","Ġb usiness","st e","Ġland s","Ġsin s","je ct","Ġcall ed","Ġpred ict","Ġcau sing","Ġvi ol","Ġis aac","ion al","Ġst ar","Ġli ps","os h","Ġarm s","Ġte m","Ġmod el","Ġdel ight","ros s","Ġtwel ve","le ad","Ġj es","Ġho les","Ġz ion","Ġ1 9","Ġmar ked","vel op","Ġfall ing","Ġa z","at s","Ġd am","il ity","Ġpro v","res s","Ġcont ent","Ġassyri a","e ll","g o","Ġw aves","Ġs is","Ġf in","Ġkeep ing","Ġpr in","Ġget ting","Ġdoor s","Ġadd ition","Ġnor th","a red","p es","z er","Ġgi lead","Ġarm ed","Ġfo ot","Ġbod ies","do ers","Ġmount ains","Ġg ala","Ġc am","Ġj our","Ġse ated","Ġsh aking","Ġab sal","Ġget s","rib es","Ġgala x","Ġabsal om","Ġto ng","Ġha w","Ġha ving","Ġtrouble d","Ġrel ati","Ġtext ure","Ġgravit ational","Ġrelati vity","l a","n am","er ial","Ġl am","Ġc ir","ut ion","Ġde velop","Ġex pl","Ġord ered","Ġac ross","Ġgener al","Ġheaven s","Ġspe ed","Ġpubl ic","Ġf ut","Ġl in","Ġyour s","Ġst op","Ġun chang","way s","Ġsee ms","arri ages","i et","s pr","Ġh ig","Ġf act","Ġc r","id es","Ġfr ont","Ġmy self","Ġqu iet","Ġru n","Ġgra vity","Ġmat erial","Ġprison ers","p o","Ġb rief","Ġl ess","Ġd an","Ġis h","ist s","Ġgener ations","Ġdec ision","Ġcomple t","Ġsev enth","Ġstep hen","Ġpres ent","aut if","Ġviol ent","Ġhaw king","p ar","in ing","Ġl ast","Ġbe d","Ġe dom","an iah","av i","Ġro b","Ġwr it","Ġfield s","Ġdesign s","Ġeng ine","Ġhus b","Ġdisgust ing","Ġnumb ers","Ġfut ure","c um","Ġ rain","re ad","Ġm ic","Ġc ol","Ġe qu","sh ing","Ġcont ro","Ġtra vel","Ġcomplet ely","autif ul","i red","Ġ ent","Ġs le","al s","Ġper f","Ġsheke ls","Ġjour ne","g s","l ands","Ġt ou","re am","Ġm il","Ġin ter","Ġbe gin","Ġv ari","Ġun c","Ġkeep s","Ġex am","Ġro d","Ġimport ant","Ġperf um","a f","Ġt ree","Ġl ar","ro p","Ġcom m","Ġde ce","Ġdes c","Ġincre ased","ae ans","Ġjeho i","Ġelect r","r act","Ġf re","Ġl at","Ġl ine","Ġc ent","Ġnot e","ri es","Ġpl an","Ġfi le","Ġwor king","Ġru les","Ġr ather","Ġfa ir","aph at","Ġunchang ing","Ġs er","Ġst ra","Ġle ft","Ġjer oboam","Ġpos it","Ġsam ar","wor ld","Ġedit or","Ġinstru ments","f ort","g i","i jah","Ġ er","Ġin v","le t","Ġgi be","od y","ime lech","Ġte ch","Ġr ad","Ġim ages","Ġah ab","Ġed ge","Ġdire ct","Ġsim ple","Ġdirection s","Ġdri ving","Ġdece it","Ġsamar ia","re st","Ġb ig","Ġl ab","Ġsa bb","Ġse par","Ġan t","Ġpro cess","Ġtent h","Ġprin ci","Ġrob es","Ġsabb ath","Ġt ribes","Ġh um","Ġin it","Ġfe ature","Ġquest ion","Ġsk in","Ġbeh avi","spr ing","Ġhusb and","Ġjourne y","8 0","d e","Ġw and","Ġg ame","and ing","Ġus ing","Ġsev enty","g r","h o","id er","am es","Ġgr ace","Ġhig her","i pp","Ġt able","Ġg rou","Ġp a","Ġp ar","Ġc ar","Ġha n","se arch","Ġpl ac","Ġsh am","us h","Ġlo c","Ġhor se","Ġthought s","Ġcapt ain","Ġstra ight","c hes","e x","Ġg ad","Ġd ream","Ġre ub","Ġv ir","Ġal ways","ard en","Ġreub en","a im","e c","e en","Ġc or","Ġbe autiful","ch an","Ġam or","Ġsin ners","Ġfl owing","Ġres pect","Ġjeh osh","Ġreg ular","c ountry","n ot","Ġh ar","et s","Ġne b","Ġne xt","Ġegypt ians","Ġel ish","az iah","je cts","Ġspeci f","Ġsing ular","Ġsis ter","i h","i v","t w","Ġcom fort","od e","Ġus er","Ġfe el","br on","Ġdis co","Ġbr an","Ġang el","Ġlat er","Ġprinci ple","Ġjehosh aphat","d le","l o","s ion","Ġ ve","Ġp ath","Ġhe bron","as es","Ġv is","Ġro be","ĠâĢ ĵ","Ġnam es","Ġcover ing","Ġrad i","s ervant","Ġre v","Ġor b","Ġsh all","Ġfat e","Ġlo ose","Ġco nd","Ġz eb","Ġhor ns","Ġes au","Ġm ult","Ġli f","Ġar ound","Ġapp s","Ġrul ing","Ġincre ase","Ġtal king","Ġmid dle","tw o","Ġh it","or m","Ġg e","Ġe as","Ġcon f","iz ed","Ġwrong doing","Ġwall s","Ġfriend s","Ġgrow th","Ġtech n","u red","Ġar g","Ġro ad","Ġje ws","Ġunder world","Ġbre ast","Ġbir ds","Ġrel ations","Ġdiv ision","Ġwand ering","3 0","o f","Ġ 5","Ġo pp","Ġs om","Ġm ine","il ar","Ġre h","Ġas a","Ġsh ow","Ġshe c","sel ah","Ġsu gg","ist ed","Ġph ys","Ġr am","Ġuni f","Ġpo st","Ġunder st","Ġsim ilar","Ġdist ance","Ġwo nder","Ġtong ue","Ġlar ge","Ġinit ial","Ġsugg est","Ġw est","Ġs n","Ġb ase","Ġi ron","et ry","Ġwas hed","Ġst ru","Ġch ar","Ġjo b","Ġapp ro","Ġple asing","b an","m e","Ġt er","Ġt rees","Ġw al","ut e","im ens","do er","Ġsong s","Ġtool s","tern al","la w","9 9","? )","c a","c arriages","o c","Ġt rain","Ġa p","Ġs ize","Ġm ix","Ġl ear","en gth","ke ting","al ity","ur al","Ġme ans","Ġoff spring","Ġfe e","Ġfl ow","Ġfo ll","az ar","ff ic","Ġele azar","Ġprodu ct","Ġeli jah","Ġbas es","Ġcoll e","Ġcons ider","Ġspeci al","Ġlin en","i ath","Ġy et","om es","Ġfor gi","Ġu zz","Ġre search","os s","Ġmo t","Ġneed ed","Ġcur sed","Ġhor ses","Ġexper t","Ġsearch ing","offering s","Ġconne ction",") ,","f ace","p u","p ed","Ġ ...","in s","Ġb ands","Ġd ang","ri pt","Ġke y","Ġsp ort","Ġoverc ame","Ġworsh ipp","Ġtr ans","Ġty pe","Ġflock s","Ġer r","m er","o ver","t al","u es","Ġa ch","Ġo pt","Ġh ate","Ġb ar","Ġb ound","or ah","Ġin fin","Ġse es","Ġme chan","Ġje z","Ġbo ard","ci al","Ġsm ell","Ġmod els","Ġtal k","Ġbel ie","Ġsci ence","Ġmaterial s","Ġmult i","Ġfee ble","o ked","v ant","Ġa w","Ġof fe","Ġb ones","Ġc al","Ġd on","Ġha ng","ur ing","Ġthere fore","Ġear li","Ġsh ar","Ġpr om","20 2","Ġex ist","Ġsecret ly","Ġchang ed","Ġexam ple","Ġsepar ate","Ġamor ites","Ġforgi ven","Ġdang er","Ġoffe red","m aker","p ly","Ġt ar","he re","Ġw id","nd ers","Ġn u","Ġth us","al iah","te en","Ġnew ton","Ġprodu ce","Ġsign s","Ġexper ience","Ġmid ian","Ġquest ions","g round","n ah","Ġ est","Ġa v","Ġa ud","Ġb ad","Ġb al","er n","Ġd ro","Ġso ft","Ġsh ort","Ġab imelech","Ġsp ear","Ġbre ath","Ġsim ply","c ul","t ers","Ġf il","Ġg re","Ġl ion","Ġhe at","ad a","ro ws","st em","Ġas ses","Ġro ds","Ġbo th","Ġpo t","Ġmar keting","Ġinte rest","Ġovert ake","Ġmet al","ste in","Ġlif ting","Ġshec hem","Ġshar p","Ġforgiven ess","b l","he th","Ġthe ories","Ġb ent","is ed","Ġse x","ep h","Ġne cess","Ġobs erv","Ġstep s","Ġhapp y","Ġwal king","Ġnu cle","d en","g an","s he","w are","Ġf ound","er m","Ġl au","Ġth ink","ac king","ic ation","Ġme at","ep t","Ġab ner","Ġsu re","ate g","Ġcan not","Ġsend ing","Ġhor n","Ġlev i","Ġinclud e","Ġsle ep","Ġmix ed","Ġmot ion","1 0","c ing","s k","in stein","Ġm ed","Ġm al","Ġto wer","Ġp ity","Ġc ro","ir ts","Ġit self","Ġwho ever","Ġne ck","Ġun t","Ġlo t","Ġcon c","Ġex t","Ġfe w","Ġle ast","Ġjo ined","Ġr ate","Ġ1 0","Ġdist rib","Ġsing le","Ġprof it","Ġrun ning","Ġcontro l",") .","c c","f ive","Ġp en","Ġc ode","ll ed","Ġe instein","ad ab","Ġall ow","ct ure","ren ce","Ġsee ing","Ġus ers","Ġmo on","Ġje hu","Ġans w","Ġwo nders","Ġinte gr","Ġdet erm","Ġvari ous","Ġdisco ver","i k","in ts","Ġb ag","Ġm ah","Ġp sal","Ġc ase","Ġe ternal","Ġwh ite","Ġon ce","Ġse le","Ġst ory","Ġme as","Ġch o","Ġch ange","Ġde fin","Ġar row","Ġfi g","Ġlo ved","Ġle ban","Ġread ing","Ġcreat ive","Ġpurp oses","Ġcru shing","Ġhat er","Ġcomp an","eth ing","Ġgu ide","Ġish ma","Ġelish a","Ġcro wn","a pp","p ro","s on","Ġ $","Ġb ala","Ġm ord","Ġf on","Ġc he","Ġy oke","Ġre le","Ġbec omes","Ġv iew","Ġback ground","Ġsin ner","Ġneed s","ip s","Ġsix ty","Ġsound ing","mo st","Ġgalax ies","Ġbegin ning","Ġfeature s","Ġplac ed","ec ai","Ġsom ething","Ġpsal m","Ġbala am","Ġmord ecai","Ġfon ts","4 8","in ary","ent ly","ak im","Ġgreat ly","Ġey e","Ġapp ear","Ġatt ract","Ġold est","ark s","Ġcommon place","Ġstart ed","Ġjudg ing","bo ok","Ġnecess ary","Ġleban on","b les","e ad","g pu","w h","Ġm el","ou red","or am","at ic","Ġc ed","ct ed","Ġsh ime","Ġab ram","Ġev ents","Ġsu b","Ġcur tain","Ġfour th","Ġcomp on","Ġsy stem","Ġsort s","Ġishma el","4 0","l ah","Ġ 0","Ġs ar","Ġb ow","Ġb right","Ġp ict","Ġha z","Ġover se","Ġpr im","Ġbl ue","Ġsin ce","Ġz e","Ġrel ation","Ġpill ar","Ġcomm un","b on","h an","k s","n on","Ġt urn","Ġw ing","Ġl ang","Ġin form","Ġn a","Ġe t","Ġsa les","Ġwas ted","Ġan im","Ġsh are","Ġsh ining","Ġz ed","Ġjudg es","Ġguid ing","Ġgrou p","Ġbran ches","Ġlang u","c ir","p ah","Ġt ry","Ġb ased","Ġto o","Ġc arri","Ġfor ced","Ġas her","ich o","Ġat om","ose d","Ġmo ve","Ġbl og","Ġjer icho","Ġmar ket","Ġopen ing","ash an","vi ous","Ġlim its","Ġrep res","Ġlab an","Ġarg um","ca pe","Ġerr or","Ġbound ary","Ġzed ekiah","e ed","n a","in king","Ġh oney","Ġb ang","Ġb ashan","Ġy es","Ġn aph","Ġno ise","ver age","Ġre ally","Ġli br","ers h","Ġch al","Ġde b","Ġam ount","Ġun w","qu e","Ġsu c","Ġex pect","ard ens","Ġgra pes","Ġim ag","Ġstrong er","Ġthousand s","aven ed","Ġcont in","Ġnews let","ma il","b ab","l am","t rees","Ġs ud","Ġm iz","Ġl ay","Ġc op","Ġd ra","Ġn ah","Ġn eth","ay s","Ġcom b","Ġch ance","Ġout c","Ġpl ay","Ġpro t","pp ing","ag ed","ap se","Ġsl ow","Ġwrit ers","Ġsham ed","Ġopp os","Ġunif ied","Ġmechan ics","Ġest her","Ġmel ody","Ġsud den","1 4","a el","l ess","t en","t own","Ġ `","at ely","Ġha man","il y","Ġwith in","Ġas h","Ġbut ton","Ġch at","Ġam ale","all ed","te enth","ust om","Ġlight s","Ġsm o","Ġdis ord","Ġind eed","com mon","Ġsur face","Ġaram aeans","Ġsci ent","Ġprov ide","Ġlam b","Ġtou ching","Ġjehoi ada","Ġsingular ity","Ġinfin ite","Ġsele ction","Ġamale k","c on","k ah","l and","l ine","r ing","t ree","Ġs ides","Ġf aces","Ġto m","Ġl oss","Ġc y","Ġbe er","ra ble","ri ed","Ġup d","Ġout sk","Ġde f","Ġsh ad","Ġshe ma","Ġsp ices","Ġcon tain","Ġle ad","Ġacc ord","Ġsmall er","Ġsc ribe","Ġact ing","Ġdiv isions","Ġlam bs","Ġmil k","Ġzeb ul","Ġgre en","Ġoutsk irts","g al","p ing","p ut","Ġw gpu","Ġs um","Ġs our","er t","Ġc re","Ġd ens","Ġgo ats","Ġu ri","ac her","ic le","ad ok","Ġwe ak","ab or","Ġpro ble","Ġz adok","Ġqu een","Ġjos iah","Ġstret ching","Ġob jects","Ġcord s","Ġpull ing","Ġexpl ain","Ġunc ertain","Ġinform ation","a ur","m ar","Ġa ir","nd ing","re t","is hed","er a","Ġl ist","it her","ll ing","Ġre nd","Ġli ves","Ġde v","Ġman age","Ġne ut","Ġv ision","ak ers","Ġpro ject","Ġsp in","Ġbl ows","Ġro t","Ġstr ing","Ġjo ash","Ġgra ph","Ġbir d","Ġbook s","Ġwall ed","Ġhill s","Ġpass over","Ġevent ually","Ġcr it","Ġreh oboam","tal i","Ġhang ing","Ġfil es","Ġwing ed","Ġlangu age","cir cle","Ġchal d","4 4","6 4","b u","Ġg il","at ural","Ġc akes","Ġn in","Ġth or","id ed","am ar","ir ing","Ġj ab","ra nd","Ġpl at","Ġar rows","Ġk ir","Ġwr ite","Ġca p","Ġsc ale","if ic","Ġinst ead","Ġexp anding","Ġcanaan ites","Ġrem em","Ġperfum es","rop y","Ġposit ions","Ġhit t","Ġced ar","Ġrepres ent","Ġnaph tali","town s","Ġaccord ing","Ġcre ation","c ript","i o","l ength","n o","o or","w ood","Ġa ra","Ġm ich","Ġm ach","ou se","Ġc ale","Ġc ustom","Ġd imens","ac hel","ur ther","Ġst ud","ie ws","Ġal ong","Ġend s","Ġsend s","Ġexp ans","Ġty pes","Ġpass ion","ail s","Ġgibe on","Ġvir gin","Ġboard s","Ġearli er","Ġaud ience","Ġet c","Ġoppos ite","v al","Ġ 4","Ġm in","Ġm es","Ġf urther","Ġg ir","Ġg arden","Ġc ries","Ġc ateg","Ġin c","Ġn athan","Ġe mail","Ġis s","le hem","le avened","ir am","Ġst orm","Ġas k","Ġas aph","Ġso cial","Ġwhen ever","Ġun leavened","Ġk orah","Ġpri v","Ġte ll","Ġwhere ver","per ature","Ġatt acking","Ġimp ro","Ġreg ions","Ġcoll apse","Ġseem ed","Ġcir cum","Ġdevelop ment","Ġcol or","Ġent ropy","Ġfre ely","\" ,","6 0","b us","h ad","i res","Ġw ings","Ġs qu","re el","Ġg ide","Ġg ersh","Ġl ep","Ġj eph","Ġwas h","Ġor gan","Ġdo cum","Ġtw isted","Ġk oh","Ġcon st","te m","Ġje bus","Ġr achel","Ġunder t","ot hed","Ġpra ised","Ġeph od","Ġposs ib","Ġma j","Ġtem ple","Ġtem perature","Ġcam els","Ġgalax y","Ġstop ped","Ġperfum e","Ġbehavi our","Ġjez reel","Ġtar get","Ġsmo oth","Ġtom orrow","Ġexpans ion","Ġgide on","Ġkoh ath","c ision","h ouse","Ġh y","Ġf art","Ġf ont","Ġto ward","Ġg ed","Ġp ol","en cy","Ġin s","Ġn ab","Ġe z","Ġgo at","ic ally","Ġj ah","Ġst ick","Ġor nam","Ġch ains","Ġde pe","Ġsh il","Ġsu bs","Ġdi ffic","pl ic","cre en","Ġop in","Ġcreat or","Ġple ased","Ġdr inking","Ġfif th","ap ter","Ġpre vious","Ġdet e","Ġcloud s","Ġjes se","Ġaz ariah","Ġelectr ons","Ġhum an","Ġhorse men","Ġve il","Ġshime i","aur i","1 5","2 4","2 80","9 8","a ps","h ar","o gy","Ġs ime","Ġf ount","Ġe th","Ġno ah","Ġse o","Ġre f","Ġre ach","Ġwho le","Ġdo ings","Ġsh ade","Ġwat ching","Ġaltar s","Ġmonth s","Ġcommon os","Ġem it","Ġobser ve","Ġwound ed","Ġcor re","Ġspecif y","Ġradi ation","Ġeas y","Ġter ms","she ba","Ġdistrib ution","Ġfig ure","Ġshema iah","Ġzebul un","ert ile","Ġchald aeans","Ġmaj or","Ġsime on",". âĢĿ","f our","g ardens","k iah","is m","Ġc os","Ġin ner","ar ies","Ġth u","Ġth ick","ke ep","ent ial","et ic","th ough","Ġde ar","Ġlet ter","Ġv ia","Ġab s","Ġsee k","Ġwor ked","ol ogy","Ġex c","Ġr ings","Ġfo cus","Ġpray ers","Ġmind s","Ġtal ents","Ġprison er","Ġact ually","Ġposit ive","Ġstru cture","Ġaw ake","Ġbal ak","Ġansw ering","Ġdiscover y","Ġdens ity","Ġuncertain ty","Ġcircum cision","Ġlep er","Ġwash ing","Ġcos m","e w","e ms","g en","m m","Ġa st","Ġo ri","Ġf ing","Ġf ertile","Ġp op","Ġc up","Ġn atural","Ġne g","ch ariah","Ġher ds","Ġkeep ers","Ġex act","Ġal though","te x","te xt","Ġqu arks","Ġfl at","Ġje w","Ġmar ried","Ġpur ple","Ġmat hem","uch ad","Ġben aiah","Ġcomp ut","Ġtr ad","Ġreg ion","li ke","zz ar","Ġguid ed","Ġnet work","Ġgibe ah","Ġneb uchad","Ġcal cul","Ġmeas ured","Ġcompan y","Ġze chariah","Ġnewslet ter","Ġsudden ly","Ġkir iath","Ġremem ber","b ed","c ut","m ah","o y","Ġ ill","Ġo cc","Ġm esh","Ġg al","Ġg ath","Ġd uring","Ġin fl","Ġse lf","Ġfr ame","Ġst ation","Ġch apter","Ġwhe ther","Ġab ish","Ġtw ice","Ġqu ality","Ġkn own","ci ous","Ġsm oke","Ġah az","Ġphilist ine","Ġstore d","Ġkingdom s","ont ro","Ġriver s","Ġsur pr","Ġstream s","Ġeight y","read y","Ġwid ow","Ġsoft ware","Ġmiz pah","1 6","3 5","b d","g arden","p a","u ed","u sed","x es","Ġb rand","Ġm aker","Ġf ac","Ġg am","Ġd rain","ent i","Ġi ce","ad d","Ġsa f","Ġho t","Ġbl ow","ol og","ag n","Ġte am","Ġuni que","ach ar","Ġend ed","Ġhundred s","Ġad v","Ġad on","Ġtrou bles","Ġmer ari","Ġah aziah","Ġdis cus","Ġsam son","Ġstart ing","Ġstore s","00 0","Ġeffe cts","Ġsy mm","Ġide as","Ġinclud ing","Ġdam aged","servant s","Ġcale b","Ġiss achar","3 7","b re","c her","Ġa ut","Ġo l","Ġs at","Ġl ower","Ġp age","it ed","en ces","an ces","id ence","Ġit h","Ġsa nd","Ġre ph","Ġam aziah","fe ct","Ġar ch","ab ility","Ġbl ind","Ġdes iring","ip art","Ġpartic ular","Ġper form","Ġsound s","Ġhist ories","Ġset up","Ġjudg ed","Ġprof ess","Ġconne ct","Ġham m","Ġwave length","Ġpath s","Ġlear ning","Ġmanage ment","Ġara b","keep ers","Ġori gin","2 5","3 4","6 7","c ies","g es","g ed","i um","t ribe","u ps","z e","Ġs w","Ġs ad","Ġs creen","Ġb ud","Ġl ines","Ġe ither","Ġj ed","Ġse ir","Ġne are","Ġint ro","Ġk en","Ġk ad","Ġkeep er","Ġph ase","Ġen v","Ġbo y","Ġad s","ot ed","Ġgener ate","Ġbu ff","Ġcur rent","Ġacc ur","Ġhon oured","Ġform at","Ġsy n","Ġmeasure s","Ġhapp en","Ġinstru ment","Ġtexture s","po int","Ġinv ol","ho le","Ġvir t","lo ad","Ġconf ig","Ġmulti ple","Ġrele vant","Ġsar ah","Ġargum ent","Ġunw alled","Ġcrit ical","g er","Ġt ri","he st","Ġh il","Ġb er","is s","Ġis aiah","il t","Ġwe ek","th ree","Ġwas ting","and ard","ru s","Ġam m","Ġpro bab","Ġal ready","pl ay","Ġhel per","Ġexper im","Ġcoll abor","Ġcons ist","Ġelect ron","Ġchang es","Ġpull ed","nam ic","Ġequ al","Ġdirect ly","Ġloc al","Ġcond ition","Ġram ah","Ġunderst and","Ġkey word","Ġbelie ve","Ġmed ia","Ġdra w","Ġoutc ry","6 8","a wn","f ru","i ent","Ġs ih","Ġf it","is sion","it ions","Ġc ount","ord in","Ġme an","Ġtheir s","art ed","Ġshe m","ty pe","Ġcl othed","Ġver tex","Ġacc ess","Ġsal t","cl us","Ġsc en","Ġsc al","Ġpre p","Ġob ject","Ġplant ing","Ġplant ed","Ġcord ed","ste ms","Ġpa per","Ġcar m","Ġorb its","Ġsn ake","Ġoverse ers","han an","Ġcop y","Ġgil gal","Ġdimens ions","Ġsqu are","Ġopin ion","Ġcorre ct","Ġsymm etry","Ġol ive","Ġhil kiah","Ġsih on","f o","m f","p ort","u ct","v iew","y our","Ġ 7","Ġ 20","he arted","Ġh ur","Ġb at","ou n","Ġl u","Ġn ine","Ġhe sh","le m","ad iah","il ah","Ġwe ar","Ġre t","Ġre ce","Ġre nder","Ġan n","Ġat tem","os heth","Ġsp ring","Ġho ll","Ġlo op","ol ution","Ġle g","Ġpart ed","Ġsin ai","Ġwork ers","Ġfl ag","Ġr ays","Ġcl ass","Ġread ers","Ġcreat ed","Ġrequ ire","to ok","ati ves","Ġlands cape","Ġpredict ions","Ġcent er","Ġunderst anding","Ġtrain ing","Ġobserv ations","Ġunt il","Ġattract ion","Ġpict ure","Ġdisord er","Ġsour ce","Ġuri ah","Ġproble m","Ġfount ain","Ġsaf ely","agn etic","Ġattem pt",". \"","1 1","7 4","8 8","a x","a ir","g n","g ile","i ves","o id","r ons","w here","Ġ id","Ġ ess","Ġf ore","Ġg ri","on ed","Ġth read","se ven","Ġhe bre","as cus","id on","Ġwe b","el er","st ret","ct or","ath ite","Ġsp aces","ves sel","Ġle ah","Ġle vel","Ġco oked","Ġru st","pl aces","Ġuni form","Ġpo ints","Ġcl oth","Ġsome one","iz ation","Ġbre ak","Ġmouth s","aph an","Ġform ed","Ġind ia","man n","og le","Ġcons cious","Ġsy stems","Ġexp and","Ġzer ah","Ġdam age","Ġdam ascus","go ats","Ġwrit er","Ġmic ah","Ġunc ontro","Ġdesc ribe","Ġdesc rib","Ġfre qu","Ġshow ed","Ġfoll ow","Ġmal es","Ġimag inary","Ġgir l","Ġcateg ory","Ġdepe nd","Ġshil oh","Ġgal ile","fru its","Ġhesh bon","gile ad","3 2","3 9","6 5","7 2","a a","e nd","i ous","o ve","r m","r ac","w ith","Ġ x","Ġ vel","Ġt ast","Ġt ired","he ad","Ġb ind","Ġf aster","Ġc our","Ġd awn","ic les","ic ate","el ine","Ġare a","Ġsh o","Ġar ts","Ġun co","Ġk it","Ġpr act","Ġal most","Ġco ordin","Ġru shing","Ġen c","igh th","Ġpo etry","Ġunder go","Ġres ul","Ġcreat ing","Ġbuild er","Ġincre asing","Ġwo ol","Ġwind ow","work ers","Ġma ac","Ġplant s","Ġtest ing","Ġpredict ed","Ġjes us","Ġviolent ly","Ġjehoi akim","Ġant ipart","Ġap i","Ġnucle ar","Ġlau gh","Ġdeterm ine","Ġcompon ent","Ġcarri age","Ġatom s","Ġlibr ary","Ġnin et","Ġpriv ate","Ġdiffic ult","Ġast ron","Ġexact ly","Ġprofess ional","Ġwear iness","Ġuncontro lled","7 0","7 8","b y","i er","m ed","o nd","p her","Ġt ir","Ġthe rm","Ġh ated","Ġb ur","Ġb ath","Ġm ess","it ors","Ġc art","Ġc red","Ġd ou","Ġn un","an i","Ġu r","il ities","Ġfr ied","Ġre be","Ġst or","ven ue","Ġsay ings","ok s","Ġab iath","Ġpro g","Ġshe ba","Ġhand l","Ġev idence","Ġour selves","Ġfe ared","Ġle gs","Ġz idon","Ġapp l","Ġmat t","Ġben ef","Ġmod ern","Ġpers ons","ba al","Ġdet ails","ull y","Ġstate ment","Ġjes hua","Ġfin ally","Ġsle eping","Ġsingular ities","Ġfeel ing","Ġphys ics","Ġlear n","Ġworshipp ers","Ġav oid","Ġcommun ity","Ġupd ate","Ġgraph ics","Ġthor ns","Ġhitt ite","Ġgersh on","Ġneg ative","Ġcomput er","Ġvirt ual","Ġvel oc","Ġlaugh ing","Ġfried mann","Ġabiath ar","1 9","5 4","6 9","c ol","f all","g ies","h ow","h ab","i ph","Ġ 6","Ġ rough","Ġt v","Ġt all","Ġb all","Ġm ir","Ġp ip","it or","Ġth in","Ġe ighth","Ġgo ogle","ac y","Ġli ve","Ġpl ated","Ġpl ates","Ġsh a","Ġun se","Ġk ish","Ġco at","Ġco st","Ġph ot","ag ing","Ġver t","Ġhigh ly","res po","Ġres ult","Ġhor iz","du rable","Ġass um","Ġprodu cts","Ġattack ers","Ġshut ting","Ġob ed","Ġedit ors","Ġown er","Ġplan ets","Ġbehavi or","Ġvis ual","Ġworshipp ing","Ġprom pt","lam bs","Ġconst ant","Ġundert aking","Ġged aliah","Ġfac ing","olog ical","Ġrebe kah","\" :","' t","2 9","5 0","c f","e enth","h n","i qu","o ah","s c","y le","Â ł","Ġ __","Ġt auri","Ġthe ore","Ġh in","re r","Ġm ain","Ġm eth","Ġf ast","is ing","Ġc arriages","Ġd ed","Ġn er","Ġn on","an ah","Ġu i","ed om","ac ter","th ah","al m","ra ph","Ġout er","os ing","Ġab ove","ab les","Ġun able","Ġwor m","Ġback s","Ġho ld","Ġle ather","Ġte acher","Ġbo x","Ġ1 00","Ġacc eler","Ġele ments","Ġsound ed","Ġval id","Ġdiffe rence","Ġbas ic","Ġener gies","Ġinte ll","Ġtra ve","fl owing","Ġra p","Ġrem ain","Ġobser ved","Ġroom s","Ġwound s","Ġfin ite","Ġrev iews","Ġorb it","Ġtechn ology","Ġcolle ction","Ġav ail","wh ich","Ġsuc cess","Ġprot ons","Ġplat form","Ġimpro ve","Ġjeph thah","Ġpop ular","Ġmesh a","Ġconfig ur","d f","d imens","e es","e ight","r ings","u er","u ations","z ah","Ġ esh","Ġw in","Ġs it","Ġof ten","Ġg er","Ġg ames","Ġl ink","Ġp ie","Ġn ile","se t","Ġno b","Ġgo ver","Ġse m","Ġse as","ur y","Ġst andard","op h","os en","fe rence","Ġmay be","Ġke d","Ġsp o","ist ic","ie zer","Ġfe m","Ġle verage","Ġjo ining","Ġbo t","Ġcl ose","Ġver sion","Ġbu ilt","iz z","Ġah as","Ġdis play","Ġprop os","Ġlev ite","Ġed iting","ash a","if y","Ġbas ins","Ġwood s","Ġfru its","Ġpubl ished","Ġnor m","com p","Ġtong ues","Ġelectr om","Ġpa ir","Ġshall um","Ġsuggest ion","Ġchar acter","Ġna am","Ġlay out","bu ild","Ġdocum ent","Ġkad esh","Ġholl ow","Ġcour se","Ġavail able","dimens ional","2 8","c m","g ir","h as","h ip","h aps","n ow","s ix","t op","u able","in ation","in adab","Ġs erv","Ġh iv","Ġm as","Ġl ions","Ġl ength","an n","Ġu lt","ent al","Ġj oram","Ġst oned","Ġso dom","op e","Ġch osen","Ġam non","Ġsh aphan","Ġk id","Ġlo ver","Ġco ld","Ġfo ld","res sed","Ġcause d","Ġmat the","hu ll","Ġstre ets","Ġbr ide","Ġper fect","Ġcomple x","Ġoath s","Ġtr ack","Ġreg ard","Ġset t","Ġact ive","Ġmass es","Ġty re","work er","Ġba asha","fl oor","Ġvide os","bo ard","Ġhus h","Ġtest ed","Ġzer o","Ġzer u","Ġprov ided","Ġhum ans","Ġcor respo","Ġcond itions","Ġtechn ical","Ġpost s","Ġappro val","Ġap art","Ġach ie","Ġbelie ved","Ġexist ence","Ġmal ch","Ġcho ose","Ġcompon ents","Ġcontin ue","put s","Ġrend ering","Ġmes hull","had ad","Ġthu nder","Ġmathem at","stret ched","Ġtherm ody","Ġmeth od","uer us","Ġahas uerus","Ġelectrom agnetic","Ġmatthe w","7 5","b ased","c used","d a","f er","h ous","i op","k k","m akers","n ch","s hem","Ġb ru","Ġto ps","Ġg ent","Ġc ush","Ġy ew","th am","st orm","Ġall ows","Ġan al","Ġst ems","ah az","Ġpl ate","Ġv ines","ab ad","Ġoff er","Ġpro jects","Ġour s","Ġlike ly","ine has","Ġfl ames","Ġph inehas","Ġte eth","Ġfear ing","Ġfo cused","Ġcur sing","Ġold er","ne zzar","Ġbless ings","Ġrel ative","Ġmod e","Ġval uable","Ġspir its","Ġexper i","Ġlook s","Ġinv est","Ġplac ing","Ġneb at","Ġram oth","Ġappro ach","Ġfoll owing","Ġopt ions","Ġdro pping","Ġnucle us","Ġprim ary","Ġscient ific","Ġamalek ites","mar ket","Ġez ra","Ġeth iop","Ġfing er","Ġnebuchad nezzar","Ġocc ur","Ġabish ai","Ġadon ijah","Ġreph aim","Ġperform ance","Ġintro du","Ġkeyword s","clus ion","Ġcarm el","Ġdescrib ed","Ġgalile o","Ġult im","Ġzeru iah","Ġmeshull am","4 9","b c","b f","b ar","d ress","e rer","p ot","w ise","Ġo g","is es","Ġg az","Ġp ort","it ely","Ġc ups","Ġe u","an el","le y","Ġon line","im mon","ic ations","Ġwe bs","Ġse ar","Ġout stretched","ch ange","ight ly","ak en","Ġover took","Ġover flowing","Ġho oks","pp ed","Ġlo oked","Ġro of","Ġwork men","Ġfl ame","ase iah","pl ate","Ġbo az","ci ated","Ġbu y","Ġcont rac","Ġbr ing","Ġgr id","Ġsword s","cl oth","Ġcountry men","Ġval ues","Ġrequ ired","Ġlow lands","Ġcub it","Ġhair cloth","Ġwitness es","Ġrequest ing","Ġperson al","Ġham ath","Ġcir cle","Ġmic aiah","Ġtou ched","Ġinter act","Ġdirect ory","Ġhan aniah","Ġloc ust","Ġphys ic","Ġtrain ed","Ġuzz iah","Ġcurtain s","Ġprot est","Ġjab esh","Ġornam ents","Ġjew els","Ġscal es","Ġtast e","Ġunco vered","Ġresul ts","Ġhoriz on","Ġintell ig","Ġfem ale","hous es","7 3","b ut","c ast","c les","d es","g ar","p les","p ress","r ic","s u","Ġt amar","Ġa verage","Ġh ome","Ġf ill","Ġg ain","at or","Ġl ed","Ġl ach","Ġin most","om ach","an ced","id ge","im es","Ġgo s","Ġan ath","Ġst am","Ġst ates","Ġst omach","Ġas so","ation ary","Ġab ijah","Ġar r","Ġar non","ul se","Ġlo vers","ction s","Ġex change","Ġjo hanan","Ġjo hn","Ġkn ees","Ġdes ires","Ġr ing","Ġpo ol","Ġpo ison","Ġapp e","Ġah ijah","Ġprop ort","Ġspe ct","Ġpower ful","Ġper izz","Ġrel ated","Ġjeh oram","Ġsix th","Ġsupp ose","Ġgu est","Ġbas ket","Ġlow land","Ġfeast s","Ġsk y","Ġma aseiah","tern ative","Ġobser ver","Ġgrou ps","Ġcar ry","Ġsuggest ed","Ġsn ow","Ġflow ers","bl og","Ġext ra","Ġpict ured","Ġrepresent atives","Ġins p","Ġenv y","Ġprobab ly","Ġrap id","shem esh","Ġlach ish","4 3","9 0","b iah","c reat","f ully","i am","i ff","t ies","u a","x im","nd ed","Ġs en","Ġb one","at t","Ġp i","it t","Ġc ou","om i","Ġhe ight","Ġno de","ke ts","ad es","Ġre venue","Ġli b","ly ing","Ġup ro","Ġde w","Ġde cre","ru e","Ġlet ting","Ġam as","Ġsh ush","ab ly","Ġher d","Ġho bb","Ġlo ad","20 1","ph a","Ġz o","Ġqu ite","Ġfl ower","Ġjo tham","Ġthan k","Ġegypt ian","Ġad vant","Ġel se","co vers","Ġcur ses","Ġsoul s","Ġsix teen","Ġmonth ly","Ġvalle ys","Ġfeast ing","Ġjeho ahaz","Ġwatch men","Ġfind ing","Ġcent ury","Ġvis ible","Ġrev iew","Ġbar uch","Ġearli est","Ġpot ential","Ġunt rue","Ġconc ept","Ġintegr ations","ik am","Ġhaz ael","Ġshad er","Ġneut ron","Ġneut rons","Ġcap ac","Ġfart hest","Ġnab oth","Ġsubs c","Ġabs ol","enti ally","cher s","Ġarab ah","Ġcount ries","Ġrece ive","Ġgri p","Ġmaac ah","Ġbru sh","Ġshush an","5 6","8 5","a pt","b ble","h ah","i led","n othing","o ch","o ting","t i","t ons","w r","w ind","Ġa th","Ġa head","Ġo ph","Ġo be","Ġh ore","Ġh iram","Ġb il","Ġb its","Ġg as","Ġp ains","it ive","Ġc ake","en c","Ġd ue","Ġno ble","ord ial","am a","ver t","ad an","Ġsa ints","ro gen","st ep","Ġcom plic","ade zer","Ġhad adezer","Ġpl ough","Ġk iss","Ġtak er"]}}