{"version":"1.0","truncation":null,"padding":null,"added_tokens":[{"id":0,"content":"<PAD>","single_word":false,"lstrip":false,"rstrip":false,"normalized":false,"special":true},{"id":1,"content":"<BOS>","single_word":false,"lstrip":false,"rstrip":false,"normalized":false,"special":true},{"id":2,"content":"<EOS>","single_word":false,"lstrip":false,"rstrip":false,"normalized":false,"special":true},{"id":3,"content":"<UNK>","single_word":false,"lstrip":false,"rstrip":false,"normalized":false,"special":true},{"id":4,"content":"{","single_word":false,"lstrip":false,"rstrip":false,"normalized":false,"special":true},{"id":5,"content":"}","single_word":false,"lstrip":false,"rstrip":false,"normalized":false,"special":true},{"id":6,"content":"[","single_word":false,"lstrip":false,"rstrip":false,"normalized":false,"special":true},{"id":7,"content":"]","single_word":false,"lstrip":false,"rstrip":false,"normalized":false,"special":true},{"id":8,"content":":","single_word":false,"lstrip":false,"rstrip":false,"normalized":false,"special":true},{"id":9,"content":",","single_word":false,"lstrip":false,"rstrip":false,"normalized":false,"special":true},{"id":10,"content":"\"","single_word":false,"lstrip":false,"rstrip":false,"normalized":false,"special":true},{"id":11,"content":"\n","single_word":false,"lstrip":false,"rstrip":false,"normalized":false,"special":true}],"normalizer":{"type":"Sequence","normalizers":[{"type":"NFC"},{"type":"Lowercase"}]},"pre_tokenizer":{"type":"ByteLevel","add_prefix_space":true,"trim_offsets":true,"use_regex":true},"post_processor":{"type":"TemplateProcessing","single":[{"SpecialToken":{"id":"<BOS>","type_id":0}},{"Sequence":{"id":"A","type_id":0}},{"SpecialToken":{"id":"<EOS>","type_id":0}}],"pair":[{"SpecialToken":{"id":"<BOS>","type_id":0}},{"Sequence":{"id":"A","type_id":0}},{"SpecialToken":{"id":"<EOS>","type_id":0}},{"Sequence":{"id":"B","type_id":1}},{"SpecialToken":{"id":"<EOS>","type_id":1}}],"special_tokens":{"<BOS>":{"id":"<BOS>","ids":[1],"tokens":["<BOS>"]},"<EOS>":{"id":"<EOS>","ids":[2],"tokens":["<EOS>"]}}},"decoder":{"type":"ByteLevel","add_prefix_space":true,"trim_offsets":true,"use_regex":true},"model":{"type":"BPE","dropout":null,"unk_token":null,"continuing_subword_prefix":null,"end_of_word_suffix":null,"fuse_unk":false,"byte_fallback":false,"ignore_merges":false,"vocab":{"<PAD>":0,"<BOS>":1,"<EOS>":2,"<UNK>":3,"{":4,"}":5,"[":6,"]":7,":":8,",":9,"\"":10,"\n":11,"!":12,"#":13,"$":14,"%":15,"&":16,"'":17,"(":18,")":19,"*":20,"+":21,"-":22,".":23,"/":24,"0":25,"1":26,"2":27,"3":28,"4":29,"5":30,"6":31,"7":32,"8":33,"9":34,";":35,"<":36,"=":37,">":38,"?":39,"@":40,"_":41,"`":42,"a":43,"b":44,"c":45,"d":46,"e":47,"f":48,"g":49,"h":50,"i":51,"j":52,"k":53,"l":54,"m":55,"n":56,"o":57,"p":58,"q":59,"r":60,"s":61,"t":62,"u":63,"v":64,"w":65,"x":66,"y":67,"z":68,"§":69,"¨":70,"©":71,"±":72,"½":73,"¿":74,"Â":75,"Ã":76,"â":77,"ï":78,"Ċ":79,"Ġ":80,"Ģ":81,"ĵ":82,"Ķ":83,"ĺ":84,"Ļ":85,"ľ":86,"Ŀ":87,"ł":88,"Ń":89,"Ġt":90,"Ġi":91,"Ġa":92,"Ġw":93,"ou":94,"Ġth":95,"Ġy":96,"Ġs":97,"Ġh":98,"re":99,"Ġyou":100,"Ġo":101,"in":102,"Ġm":103,"at":104,"Ġb":105,"Ġg":106,"Ġd":107,"Ġthe":108,"Ġc":109,"er":110,"ll":111,"no":112,"an":113,"ing":114,"on":115,"Ġto":116,"Ġl":117,"Ġf":118,"Ġwh":119,"Ġp":120,"..":121,"nd":122,"Ġit":123,"Ġno":124,"st":125,"âĢ":126,"Ġwe":127,"ve":128,"or":129,"âĢĻ":130,"Ġhe":131,"ay":132,"Ġthat":133,"me":134,"Ġgo":135,"'s":136,"it":137,"Ġand":138,"is":139,"ea":140,"Ġu":141,"ke":142,"Ġha":143,"Ġbe":144,"Ġj":145,"gh":146,"Ġme":147,"Ġso":148,"se":149,"Ġr":150,"Ġdo":151,"es":152,"Ġis":153,"Ġwhat":154,"en":155,"et":156,"Ġk":157,"ght":158,"Ġin":159,"Ġof":160,"ar":161,"ic":162,"Ġon":163,"Ġoh":164,"...":165,"ed":166,"Ġe":167,"id":168,"ight":169,"now":170,"le":171,"'t":172,"ld":173,"Ġthis":174,"Ġn":175,"ust":176,"Ġre":177,"ut":178,"as":179,"Ġok":180,"oo":181,"out":182,"all":183,"Ġmy":184,"Ġjust":185,"Ġsh":186,"th":187,"ver":188,"Ġli":189,"ow":190,"Ġknow":191,"Ġyea":192,"Ġst":193,"Ġhave":194,"ac":195,"Ġfor":196,"Ġdon":197,"al":198,"Ġnot":199,"ould":200,"Ġyeah":201,"Ġcan":202,"Ġokay":203,"Ġare":204,"Ġwas":205,"Ġco":206,"'m":207,"ith":208,"el":209,"Ġyour":210,"ant":211,"ally":212,"Ġan":213,"Ġwith":214,"Ġall":215,"Ġwell":216,"Ġse":217,"Ġhey":218,"ro":219,"ch":220,"Ġlike":221,"Ġget":222,"ir":223,"Ġbut":224,"ad":225,"od":226,"Ġright":227,"na":228,"Ġch":229,"Ġne":230,"ink":231,"'re":232,"Ġab":233,"Ġsome":234,"Ġhi":235,"Ġdid":236,"ri":237,"Ġgu":238,"ry":239,"ake":240,"Ġhere":241,"Ġthink":242,"Ġthere":243,"Ġabout":244,"ion":245,"ook":246,"Ġout":247,"ly":248,"Ġshe":249,"Ġwant":250,"Ġuh":251,"Ġgon":252,"and":253,"nt":254,"ill":255,"ss":256,"Ġreally":257,"thing":258,"Ġup":259,"Ġgonna":260,"au":261,"Ġhow":262,"pp":263,"Ġat":264,"Ġmo":265,"very":266,"Ġpl":267,"Ġsu":268,"Ġlo":269,"Ġgot":270,"one":271,"Ġif":272,"Ġlook":273,"Ġwho":274,"Ġguy":275,"Ġgood":276,"Ġone":277,"ct":278,"Ġal":279,"ab":280,"Ġthan":281,"Ġsee":282,"Ġthey":283,"op":284,"Ġher":285,"ce":286,"Ġwould":287,"ie":288,"Ġwor":289,"Ġany":290,"am":291,"art":292,"ell":293,"our":294,"Ġmean":295,"Ġcome":296,"Ġjo":297,"Ġnow":298,"ack":299,"mm":300,"un":301,"Ġgoing":302,"ere":303,"Ġsay":304,"ime":305,"ause":306,"ter":307,"Ġwhy":308,"Ġas":309,"Ġro":310,"ind":311,"Ġthank":312,"Ġlet":313,"be":314,"reat":315,"ich":316,"ice":317,"cause":318,"Ġsa":319,"ive":320,"Ġhim":321,"Ġyes":322,"Ġph":323,"Ġgod":324,"mp":325,"Ġam":326,"king":327,"ff":328,"ine":329,"Ġtime":330,"ess":331,"Ġevery":332,"Ġsor":333,"Ġthing":334,"ge":335,"Ġho":336,"ate":337,"ur":338,"Ġor":339,"itt":340,"Ġcould":341,"Ġex":342,"Ġguys":343,"Ġtell":344,"Ġwhen":345,"'ll":346,"know":347,"ent":348,"ig":349,"Ġgreat":350,"?!":351,"ck":352,"rom":353,"il":354,"Ġsorry":355,"ain":356,"Ġback":357,"Ġtal":358,"Ġbo":359,"Ġman":360,"Ġoff":361,"Ġwa":362,"!!":363,"ther":364,"Ġwere":365,"Ġbecause":366,"wn":367,"ame":368,"ul":369,"us":370,"Ġthen":371,"Ġwill":372,"ach":373,"ep":374,"end":375,"ong":376,"Ġshould":377,"Ġtoo":378,"Ġmake":379,"Ġneed":380,"ey":381,"ose":382,"ittle":383,"Ġfrom":384,"Ġsp":385,"Ġlittle":386,"ast":387,"Ġpro":388,"are":389,"Ġlove":390,"ound":391,"Ġmon":392,"Ġtake":393,"Ġmay":394,"Ġdidn":395,"Ġus":396,"ers":397,"Ġfe":398,"ra":399,"Ġdoes":400,"Ġhad":401,"Ġcl":402,"Ġross":403,"Ġcall":404,"ous":405,"im":406,"Ġhapp":407,"Ġpe":408,"Ġwait":409,"Ġmich":410,"Ġsomething":411,"qu":412,"Ġ\"":413,"ael":414,"ear":415,"Ġmichael":416,"Ġpre":417,"Ġhu":418,"ving":419,"Ġtw":420,"ody":421,"Ġby":422,"'ve":423,"Ġway":424,"Ġbeen":425,"ore":426,"Ġke":427,"mb":428,"ard":429,"Ġour":430,"Ġag":431,"ation":432,"way":433,"Ġover":434,"Ġwork":435,"Ġact":436,"Ġmu":437,"Ġthem":438,"ought":439,"ople":440,"Ġrach":441,"Ġcon":442,"riend":443,"Ġpeople":444,"Ġsc":445,"body":446,"ven":447,"ap":448,"Ġjoey":449,"Ġdoing":450,"ol":451,"Ġwhere":452,"ick":453,"ot":454,"ace":455,"ease":456,"Ġdown":457,"Ġstu":458,"ough":459,"Ġmaybe":460,"Ġum":461,"Ġah":462,"Ġvery":463,"Ġde":464,"day":465,"Ġhis":466,"ag":467,"ee":468,"Ġtr":469,"Ġsaid":470,"ble":471,"ist":472,"Ġfeel":473,"if":474,"Ġbu":475,"ler":476,"Ġplease":477,"Ġmuch":478,"Ġv":479,"Ġmore":480,"ica":481,"Ġday":482,"est":483,"Ġnever":484,"Ġhas":485,"Ġtwo":486,"Ġdw":487,"Ġint":488,"Ġsure":489,"Ġdwight":490,"lf":491,"Ġgive":492,"ies":493,"red":494,"Ġqu":495,"her":496,"ually":497,"ment":498,"Ġmar":499,"Ġbig":500,"Ġfun":501,"Ġbr":502,"Ġpart":503,"ked":504,"Ġnew":505,"Ġtalk":506,"Ġbet":507,"Ġthought":508,"ond":509,"andler":510,"Ġ'":511,"ty":512,"Ġwow":513,"Ġchandler":514,"Ġkind":515,"ting":516,"ree":517,"oom":518,"oe":519,"Ġbab":520,"Ġhappen":521,"Ġeven":522,"Ġar":523,"sed":524,"ady":525,"Ġactually":526,"Ġhell":527,"om":528,"we":529,"ect":530,"Ġlist":531,"anna":532,"get":533,"Ġfriend":534,"Ġdi":535,"lie":536,"right":537,"oney":538,"nder":539,"Ġrachel":540,"Ġthanks":541,"ure":542,"ide":543,"Ġmonica":544,"Ġjim":545,"Ġbl":546,"Ġfir":547,"Ġpo":548,"Ġagain":549,"act":550,"Ġwanna":551,"lp":552,"'d":553,"Ġnice":554,"Ġalright":555,"Ġen":556,"Ġlea":557,"oh":558,"ort":559,"Ġphoe":560,"Ġfirst":561,"Ġfine":562,"Ġput":563,"Ġgr":564,"Ġumm":565,"Ġtry":566,"ool":567,"--":568,"Ġpam":569,"Ġcomp":570,"Ġstill":571,"Ġyear":572,"hh":573,"Ġthese":574,"Ġphoebe":575,"ip":576,"ish":577,"Ġlot":578,"Ġstop":579,"mber":580,"Ġanything":581,"dd":582,"Ġbelie":583,"Ġbaby":584,"Ġlisten":585,"Ġother":586,"iss":587,"Ġsec":588,"ious":589,"ang":590,"Ġhelp":591,"Ġbelieve":592,"Ġdu":593,"Ġnight":594,"Ġmad":595,"Ġun":596,"ute":597,"Ġid":598,"ning":599,"ome":600,"ta":601,"wh":602,"Ġmin":603,"Ġstart":604,"Ġhuh":605,"âĢĶ":606,"Ġle":607,"Ġgir":608,"Ġthose":609,"ity":610,"Ġever":611,"iz":612,"Ġonly":613,"Ġkid":614,"sh":615,"Ġname":616,"Ġplay":617,"¿½":618,"ï¿½":619,"Ġdoesn":620,"Ġlast":621,"atch":622,"age":623,"able":624,"row":625,"Ġwr":626,"Ġche":627,"Ġcar":628,"Ġstuff":629,"Ġunder":630,"Ġthings":631,"Ġfl":632,"Ġinto":633,"ite":634,"Ġhand":635,"Ġdr":636,"Ġbetter":637,"ak":638,"ely":639,"Ġhello":640,"Ġaf":641,"Ġpret":642,"ue":643,"self":644,"ried":645,"ise":646,"ance":647,"Ġguess":648,"fore":649,"ass":650,"aking":651,"Ġ...":652,"Ġcom":653,"ny":654,"ater":655,"Ġbefore":656,"Ġmeet":657,"Ġjob":658,"Ġtalking":659,"Ġshow":660,"Ġsm":661,"Ġreal":662,"Ġcou":663,"ird":664,"Ġtoday":665,"Ġnothing":666,"Ġidea":667,"Ġbad":668,"Ġhar":669,"Ġkeep":670,"Ġgotta":671,"pt":672,"Ġea":673,"Ġser":674,"av":675,"fe":676,"Ġtold":677,"ah":678,"Ġwanted":679,"Ġcare":680,"Ġlong":681,"Ġroom":682,"Ġaround":683,"ne":684,"Ġper":685,"Ġmade":686,"Ġplace":687,"Ġsomeone":688,"gether":689,"air":690,"Ġel":691,"Ġgirl":692,"ts":693,"Ġgetting":694,"Ġtogether":695,"urn":696,"Ġaw":697,"Ġthree":698,"Ġoffice":699,"Ġfi":700,"Ġya":701,"Ġeverything":702,"Ġbre":703,"Ġexc":704,"Ġreme":705,"Ġeverybody":706,"Ġparty":707,"Ġbus":708,"Ġton":709,"Ġbest":710,"Ġeveryone":711,"Ġpretty":712,"Ġfind":713,"eal":714,"Ġ.":715,"Ġhear":716,"Ġafter":717,"ft":718,"ood":719,"ath":720,"Ġswe":721,"xt":722,"Ġhaving":723,"Ġhard":724,"by":725,"bs":726,"Ġpr":727,"erson":728,"Ġsecond":729,".\"":730,"Ġhome":731,"Ġandy":732,"ways":733,"Ġremember":734,"Ġac":735,"Ġwhich":736,"up":737,"Ġexp":738,"Ġalways":739,"Ġlife":740,"Ġask":741,"ci":742,"Ġcool":743,"Ġimp":744,"Ġfr":745,"sp":746,"Ġcra":747,"Ġwee":748,"Ġapp":749,"Ġsupp":750,"Ġwhoa":751,"Ġperson":752,"ead":753,"Ġ1":754,"Ġhead":755,"Ġwatch":756,"ile":757,"Ġwent":758,"Ġhoney":759,"Ġold":760,"Ġelse":761,"Ġsound":762,"lly":763,"Ġhappy":764,"Ġop":765,"Ġooh":766,"Ġthinking":767,"man":768,"ud":769,"ress":770,"Ġtonight":771,"ms":772,"ert":773,"Ġwrong":774,"og":775,"ild":776,"Ġnext":777,"Ġap":778,"Ġcoming":779,"les":780,"Ġisn":781,"Ġstay":782,"Ġquest":783,"Ġbeing":784,"Ġwon":785,"ouse":786,"Ġmoney":787,"ful":788,"Ġmight":789,"Ġyears":790,"mor":791,"Ġquestion":792,"Ġlive":793,"Ġserious":794,"so":795,"Ġsal":796,"Ġtheir":797,"Ġboy":798,"Ġdis":799,"ily":800,"use":801,"Ġhappened":802,"oman":803,"ail":804,"Ġdes":805,"Ġtot":806,"Ġrel":807,"Ġaway":808,"Ġmi":809,"ner":810,"ating":811,"Ġsch":812,"osed":813,"ĠâĢ":814,"Ġdone":815,"Ġproble":816,"mo":817,"Ġplan":818,"Ġano":819,"Ġhot":820,"uck":821,"Ġwoman":822,"Ġwhole":823,"ably":824,"Ġleave":825,"vie":826,"Ġdad":827,"Ġready":828,"iness":829,"Ġmr":830,"Ġweird":831,"Ġohh":832,"zy":833,"ary":834,"Ġbye":835,"Ġanother":836,"00":837,"Ġad":838,"int":839,"Ġleft":840,"vin":841,"Ġsaying":842,"Ġmarried":843,"you":844,"unch":845,"Ġfunny":846,"Ġfriends":847,"Ġsex":848,"Ġtrying":849,"Ġbro":850,"Ġuse":851,"os":852,"Ġsweet":853,"Ġgame":854,"Ġcour":855,"ian":856,"Ġer":857,"Ġwal":858,"Ġmove":859,"Ġkinda":860,"Ġbreak":861,"Ġwasn":862,"Ġprob":863,"ĠâĢĺ":864,"Ġprobably":865,"Ġcheck":866,"Ġturn":867,"Ġmor":868,"stand":869,"Ġpic":870,"aper":871,"Ġown":872,"Ġdiff":873,"Ġthr":874,"Ġmom":875,"Ġdec":876,"Ġhour":877,"Ġtotally":878,"ather":879,"Ġang":880,"Ġnu":881,"Ġass":882,"Ġbit":883,"Ġbusiness":884,"pe":885,"Ġend":886,"Ġlooking":887,"Ġhold":888,"Ġthrough":889,"pid":890,"Ġsle":891,"Ġstupid":892,"Ġjan":893,"Ġchar":894,"Ġunderstand":895,"az":896,"Ġwouldn":897,"dding":898,"Ġminute":899,"ready":900,"em":901,"Ġalready":902,"Ġear":903,"....":904,"Ġsi":905,"Ġhop":906,"ush":907,"Ġgl":908,"Ġcalled":909,"Ġmat":910,"Ġmind":911,"Ġpaper":912,"Ġsl":913,"Ġenough":914,"Ġsw":915,"Ġwedding":916,"Ġcrazy":917,"Ġyet":918,"Ġmiss":919,"Ġtea":920,"Ġphone":921,"Ġproblem":922,"ave":923,"Ġbea":924,"Ġsame":925,"ated":926,"Ġsit":927,"Ġdate":928,"Ġexcuse":929,"Ġdeal":930,"um":931,"Ġcor":932,"Ġfive":933,"Ġfin":934,"ory":935,"Ġweek":936,"Ġsupposed":937,"Ġter":938,"Ġrun":939,"Ġperf":940,"come":941,"sc":942,"Ġused":943,"Ġalso":944,"Ġpick":945,"Ġwear":946,"Ġbring":947,"Ġeat":948,"Ġcourse":949,"Ġdiffere":950,"ple":951,"Ġ2":952,"Ġdin":953,"any":954,"Ġem":955,"ase":956,"sy":957,"eebs":958,"Ġwants":959,"aa":960,"ding":961,"Ġpheebs":962,"Ġte":963,"Ġcr":964,"Ġlooks":965,"Ġcont":966,"Ġmorning":967,"uh":968,"ph":969,"ank":970,"Ġopen":971,"oy":972,"ince":973,"artment":974,"ever":975,"Ġpu":976,"Ġread":977,"Ġanyone":978,"Ġsaw":979,"Ġmost":980,"Ġcame":981,"Ġsur":982,"Ġmust":983,"Ġsomebody":984,"Ġatt":985,"Ġphy":986,"ize":987,"ash":988,"nts":989,"Ġlater":990,"rist":991,"de":992,"Ġwin":993,"ition":994,"ley":995,"Ġacc":996,"Ġfam":997,"ket":998,"ange":999,"ela":1000,"irth":1001,"Ġword":1002,"Ġcompany":1003,"ia":1004,"Ġfre":1005,"Ġheard":1006,"Ġboth":1007,"Ġtrue":1008,"Ġhigh":1009,"ger":1010,"Ġbirth":1011,"Ġfour":1012,"ign":1013,"Ġhaven":1014,"Ġlau":1015,"Ġins":1016,"Ġkevin":1017,"Ġeach":1018,"Ġ-":1019,"Ġset":1020,"Ġsales":1021,"Ġtomor":1022,"Ġface":1023,"Ġey":1024,"Ġsince":1025,"Ġwhile":1026,"Ġry":1027,"Ġtomorrow":1028,"Ġdar":1029,"anc":1030,"Ġsuch":1031,"time":1032,"cept":1033,"Ġtri":1034,"ars":1035,"Ġbuy":1036,"ream":1037,"Ġru":1038,"Ġmeans":1039,"ings":1040,"rant":1041,"ord":1042,"Ġmatter":1043,"ses":1044,"Ġcomm":1045,"Ġfound":1046,"Ġpay":1047,"Ġseen":1048,"Ġsounds":1049,"Ġsleep":1050,"Ġkill":1051,"Ġryan":1052,"more":1053,"Ġhouse":1054,"Ġwond":1055,"Ġmonth":1056,"Ġmaking":1057,"Ġdifferent":1058,"ible":1059,"Ġluck":1060,"Ġmany":1061,"nce":1062,"Ġexact":1063,"Ġangela":1064,"room":1065,"Ġhate":1066,"Ġrec":1067,"Ġrest":1068,"Ġsays":1069,"Ġspe":1070,"ire":1071,"Ġdef":1072,"lin":1073,"Ġwish":1074,"Ġkne":1075,"Ġmyself":1076,"Ġdam":1077,"ason":1078,"Ġchrist":1079,"Ġcouple":1080,"Ġinv":1081,"vers":1082,"ither":1083,"Ġanyway":1084,"Ġmakes":1085,"Ġhmm":1086,"Ġfo":1087,"ife":1088,"ax":1089,"Ġprom":1090,"Ġdoll":1091,"ered":1092,"Ġclose":1093,"Ġfire":1094,"Ġdri":1095,"ense":1096,"Ġcoff":1097,"Ġwonder":1098,"ture":1099,"Ġbeaut":1100,"Ġkiss":1101,"Ġyourself":1102,"dy":1103,"llis":1104,"Ġosc":1105,"Ġpar":1106,"Ġunt":1107,"Ġstr":1108,"what":1109,"Ġdog":1110,"Ġinter":1111,"rible":1112,"Ġkidding":1113,"Ġoscar":1114,"ier":1115,"te":1116,"Ġbar":1117,"ence":1118,"Ġforget":1119,"Ġphyllis":1120,"Ġcoffee":1121,"Ġhang":1122,"utes":1123,"Ġworld":1124,"der":1125,"iving":1126,"less":1127,"Ġhur":1128,"Ġanymore":1129,"Ġnumber":1130,"Ġperfect":1131,"Ġob":1132,"Ġjoke":1133,"cks":1134,"Ġimport":1135,"Ġknew":1136,"Ġamaz":1137,"Ġboss":1138,"per":1139,"Ġbed":1140,"Ġmess":1141,"Ġdinner":1142,"Ġtaking":1143,"rew":1144,"Ġtook":1145,"Ġminutes":1146,"Ġhit":1147,"ical":1148,"ions":1149,"Ġimportant":1150,"cial":1151,"Ġkids":1152,"Ġapartment":1153,"Ġbirthday":1154,"ship":1155,"Ġamazing":1156,"Ġten":1157,"Ġcat":1158,"Ġfood":1159,"gg":1160,"ont":1161,"ited":1162,"iful":1163,"Ġfig":1164,"Ġwel":1165,"icke":1166,"Ġmovie":1167,"Ġpoint":1168,"Ġdrink":1169,"mas":1170,"Ġthrow":1171,"erest":1172,"Ġmine":1173,"Ġonce":1174,"Ġstan":1175,"Ġsix":1176,"Ġbeautiful":1177,"Ġdav":1178,"itch":1179,"Ġexactly":1180,"ctor":1181,"Ġcouldn":1182,"ister":1183,"Ġcompl":1184,"Ġwalk":1185,"Ġhope":1186,"Ġwelcome":1187,"ork":1188,"Ġchristmas":1189,"sol":1190,"Ġcut":1191,"Ġlate":1192,"Ġinc":1193,"not":1194,"Ġstand":1195,"ations":1196,"Ġuntil":1197,"pr":1198,"Ġgave":1199,"Ġlear":1200,"ott":1201,"Ġthough":1202,"Ġju":1203,"Ġreason":1204,"pped":1205,"Ġstanley":1206,"hmm":1207,"Ġcute":1208,"Ġinterest":1209,"Ġconf":1210,"Ġdavid":1211,"ĠĠ":1212,"Ġbook":1213,"Ġsing":1214,"Ġhalf":1215,"ient":1216,"Ġmm":1217,"ons":1218,"Ġgets":1219,"Ġerin":1220,"wer":1221,"ves":1222,"ager":1223,"ants":1224,"Ġpicture":1225,"du":1226,"Ġ3":1227,"Ġfact":1228,"Ġworry":1229,"key":1230,"Ġprese":1231,"Ġschool":1232,"orm":1233,"Ġben":1234,"Ġwithout":1235,"Ġsometime":1236,"omen":1237,"Ġow":1238,"Ġhair":1239,"Ġbath":1240,"Ġsme":1241,"Ġsign":1242,"Ġmeeting":1243,"Ġla":1244,"ens":1245,"Ġtelling":1246,"solut":1247,"Ġfav":1248,"oot":1249,"Ġbox":1250,"Ġwomen":1251,"Ġworking":1252,"ouch":1253,"Ġfather":1254,"own":1255,"Ġtimes":1256,"Ġmike":1257,"sid":1258,"Ġwife":1259,"Ġtoby":1260,"Ġchild":1261,"hey":1262,"ib":1263,"ret":1264,"Ġreg":1265,"Ġdamn":1266,"huh":1267,"lt":1268,"ster":1269,"Ġcomes":1270,"Ġago":1271,"aked":1272,"Ġstarted":1273,"Ġbroke":1274,"Ġfamily":1275,"Ġdefin":1276,"ans":1277,"amp":1278,"olog":1279,"ren":1280,"Ġline":1281,"Ġfar":1282,"ryl":1283,"aught":1284,"Ġlunch":1285,"ors":1286,"Ġans":1287,"Ġscott":1288,"Ġseriously":1289,"ward":1290,"Ġpare":1291,"ale":1292,"ount":1293,"Ġwhatever":1294,"Ġchange":1295,"Ġanybody":1296,"!!!":1297,"orn":1298,"Ġra":1299,"mma":1300,"Ġmanager":1301,"Ġdarryl":1302,"Ġsk":1303,"Ġgone":1304,"fflin":1305,"Ġwall":1306,"Ġmet":1307,"Ġdoctor":1308,"ross":1309,"Ġeither":1310,"that":1311,"Ġknows":1312,"Ġlearn":1313,"Ġmis":1314,"ically":1315,"Ġcho":1316,"Ġdollars":1317,"Ġdays":1318,"Ġdunder":1319,"Ġhands":1320,"bye":1321,"eak":1322,"Ġrob":1323,"Ġcount":1324,"Ġstory":1325,"Ġlost":1326,"Ġsurpr":1327,"Ġyep":1328,"Ġcle":1329,"Ġcook":1330,"Ġsho":1331,"Ġforg":1332,"pping":1333,"Ġhours":1334,"solutely":1335,"Ġz":1336,"Ġgre":1337,"Ġfu":1338,"Ġfree":1339,"Ġnobody":1340,"Ġheart":1341,"Ġabsolutely":1342,"pl":1343,"ual":1344,"Ġcard":1345,"itely":1346,"Ġaren":1347,"Ġasked":1348,"Ġeasy":1349,"ates":1350,"Ġrelation":1351,"Ġpen":1352,"Ġrelationship":1353,"ssed":1354,"Ġtable":1355,"Ġim":1356,"ved":1357,"Ġdoor":1358,"Ġwar":1359,"Ġdefinitely":1360,"Ġdead":1361,"Ġring":1362,"Ġlight":1363,"Ġahh":1364,"cess":1365,"ling":1366,"Ġtouch":1367,"Ġdel":1368,"Ġgoes":1369,"Ġalone":1370,"itting":1371,"Ġgrand":1372,"Ġball":1373,"Ġemma":1374,"Ġdisc":1375,"fort":1376,"Ġbag":1377,"Ġmoving":1378,"Ġclass":1379,"Ġdude":1380,"Ġsmall":1381,"Ġsmell":1382,"Ġfavor":1383,"Ġce":1384,"Ġnope":1385,"Ġcoll":1386,"Ġsometimes":1387,"ball":1388,"gn":1389,"ying":1390,"Ġmid":1391,"Ġugh":1392,"Ġfew":1393,"Ġnews":1394,"Ġanswer":1395,"Ġboo":1396,"Ġsell":1397,"Ġbuild":1398,"Ġparents":1399,"ock":1400,"ps":1401,"Ġgay":1402,"Ġits":1403,"friend":1404,"Ġ$":1405,"Ġsister":1406,"Ġmmm":1407,"Ġpri":1408,"Ġinst":1409,"Ġkey":1410,"most":1411,"Ġgif":1412,"Ġshut":1413,"ower":1414,"Ġcannot":1415,"Ġuhh":1416,"Ġclear":1417,"Ġglad":1418,"Ġterrible":1419,"br":1420,"Ġhor":1421,"Ġdep":1422,"Ġinf":1423,"unk":1424,"Ġleast":1425,"airs":1426,"!\"":1427,"Ġve":1428,"Ġwater":1429,"rect":1430,"Ġcry":1431,"erg":1432,"Ġpregn":1433,"lfriend":1434,"bb":1435,"Ġ4":1436,"Ġmen":1437,"Ġmother":1438,"gest":1439,"Ġcause":1440,"Ġresp":1441,"Ġchance":1442,"Ġbutt":1443,"Ġeng":1444,"ranton":1445,"Ġbathroom":1446,"ract":1447,"Ġbas":1448,"Ġrid":1449,"Ġscranton":1450,"he":1451,"Ġind":1452,"Ġrich":1453,"icul":1454,"Ġshouldn":1455,"ness":1456,"rat":1457,"Ġ5":1458,"als":1459,"Ġext":1460,"ared":1461,"Ġclean":1462,"ha":1463,"vious":1464,"ade":1465,"Ġclient":1466,"where":1467,"Ġwearing":1468,".ï¿½":1469,"tt":1470,"Ġdro":1471,"Ġdie":1472,"iting":1473,"Ġchang":1474,"Ġmoment":1475,"Ġspend":1476,"iv":1477,"Ġcup":1478,"Ġless":1479,"Ġbeh":1480,"Ġseat":1481,"Ġbob":1482,"Ġneeds":1483,"redith":1484,"Ġtu":1485,"irt":1486,"Ġalmost":1487,"Ġgirlfriend":1488,"Ġmifflin":1489,"llow":1490,"Ġres":1491,"Ġspecial":1492,"?\"":1493,"Ġtop":1494,"Ġfast":1495,"Ġeight":1496,"who":1497,"view":1498,"ww":1499,"Ġsick":1500,"Ġlady":1501,"Ġsir":1502,"Ġside":1503,"Ġpass":1504,"Ġmeredith":1505,"Ġsoon":1506,"eth":1507,"ional":1508,"Ġpack":1509,"ital":1510,"Ġuhm":1511,"Ġexpl":1512,"Ġmonths":1513,"Ġgen":1514,"Ġquick":1515,"Ġlaugh":1516,"Ġpresent":1517,"Ġfight":1518,"Ġpants":1519,"Ġshot":1520,"the":1521,"Ġhurt":1522,"Ġobvious":1523,"ins":1524,"Ġfall":1525,"Ġpie":1526,"ndred":1527,"ween":1528,"---":1529,"ern":1530,"Ġpain":1531,"uth":1532,"Ġcop":1533,"Ġlose":1534,"Ġdiv":1535,"Ġplaying":1536,"Ġsong":1537,"Ġmag":1538,"Ġhundred":1539,"Ġbetween":1540,"Ġcal":1541,"med":1542,"Ġorder":1543,"Ġkelly":1544,"Ġboyfriend":1545,"Ġdesk":1546,"cked":1547,"ial":1548,"Ġsand":1549,"ately":1550,"Ġfinish":1551,"Ġsent":1552,"Ġcap":1553,"Ġseems":1554,"Ġsmo":1555,"side":1556,"Ġtest":1557,"Ġpet":1558,"Ġmarry":1559,"ru":1560,"Ġdress":1561,"Ġpush":1562,"Ġnaked":1563,"Ġrep":1564,"aid":1565,"do":1566,"dle":1567,"joy":1568,"Ġtur":1569,"ator":1570,"Ġdra":1571,"Ġcase":1572,"Ġenjoy":1573,"Ġeyes":1574,"ced":1575,"Ġfair":1576,"Ġliving":1577,"Ġgirls":1578,"Ġpregnant":1579,"house":1580,"Ġent":1581,"vent":1582,"men":1583,"Ġsto":1584,"Ġsend":1585,"Ġseeing":1586,"Ġcalling":1587,"Ġair":1588,"nor":1589,"esome":1590,"Ġemp":1591,"Ġyours":1592,"Ġpromise":1593,"Ġsense":1594,"Ġgiving":1595,"Ġcol":1596,"Ġval":1597,"Ġposs":1598,"Ġfront":1599,"Ġfigure":1600,"Ġgift":1601,"led":1602,"Ġson":1603,"Ġdream":1604,"Ġpur":1605,"kend":1606,"Ġann":1607,"eller":1608,"Ġteach":1609,"cy":1610,"ike":1611,"Ġï¿½":1612,"eas":1613,"izz":1614,"Ġweekend":1615,"Ġemily":1616,"Ġsurprise":1617,"gs":1618,"ho":1619,"ject":1620,"Ġmil":1621,"Ġcake":1622,"Ġstre":1623,"ape":1624,"hhh":1625,"Ġsecret":1626,"Ġsmart":1627,"Ġice":1628,"ouble":1629,"Ġcity":1630,"Ġnor":1631,"Ġroll":1632,"enty":1633,"ten":1634,"Ġes":1635,"Ġmist":1636,"Ġcong":1637,"Ġloo":1638,"Ġcost":1639,"Ġlives":1640,"Ġrelax":1641,"Ġdrive":1642,"Ġdance":1643,"Ġpast":1644,"Ġsuper":1645,"Ġspeak":1646,"Ġclo":1647,"Ġfeeling":1648,"app":1649,"vel":1650,"Ġstore":1651,"Ġbudd":1652,"Ġbrought":1653,"rute":1654,"unt":1655,"Ġmus":1656,"Ġref":1657,"Ġgun":1658,"Ġtalked":1659,"vice":1660,"Ġtra":1661,"Ġpizz":1662,"ised":1663,"Ġchair":1664,"iot":1665,"min":1666,"mon":1667,"ane":1668,"Ġlad":1669,"Ġkn":1670,"ung":1671,"Ġprof":1672,"Ġawesome":1673,"Ġgreen":1674,"cl":1675,"oud":1676,"Ġbing":1677,"ets":1678,"ict":1679,"Ġblack":1680,"Ġpull":1681,"ces":1682,"Ġtv":1683,"Ġaud":1684,"Ġyoun":1685,"Ġdating":1686,"ision":1687,"Ġworks":1688,"Ġbabies":1689,"Ġbrother":1690,"Ġassist":1691,"Ġele":1692,"Ġstar":1693,"Ġseven":1694,"Ġwaiting":1695,"Ġcarol":1696,"Ġbuilding":1697,"ressed":1698,"anch":1699,"ooh":1700,"irty":1701,"Ġeye":1702,"Ġmistake":1703,"Ġcongrat":1704,"Ġcreat":1705,"Ġstep":1706,"Ġseem":1707,"Ġasking":1708,"Ġgrab":1709,"Ġapolog":1710,"ume":1711,"oup":1712,"Ġsy":1713,"Ġmach":1714,"Ġfore":1715,"Ġidiot":1716,"Ġyork":1717,"erv":1718,"Ġpol":1719,"Ġret":1720,"Ġoutside":1721,"Ġtrust":1722,"Ġunc":1723,"Ġfired":1724,"Ġexcited":1725,"Ġcre":1726,"Ġunless":1727,"Ġteam":1728,"Ġweeks":1729,"Ġimag":1730,"Ġobviously":1731,"Ġdivor":1732,"Ġroo":1733,"ident":1734,"Ġste":1735,"Ġsort":1736,"Ġfrank":1737,"Ġwatching":1738,"Ġsweetie":1739,"duct":1740,"Ġfavorite":1741,"gin":1742,"ience":1743,"ured":1744,"Ġrem":1745,"ention":1746,"Ġhuge":1747,"Ġcomput":1748,"Ġexpect":1749,"Ġrichard":1750,"ub":1751,"Ġbody":1752,"orate":1753,"Ġable":1754,"onest":1755,"Ġweren":1756,"Ġhappens":1757,"Ġpersonal":1758,"Ġbuddy":1759,"'.":1760,"Ġmeant":1761,"set":1762,"Ġhosp":1763,"Ġinteresting":1764,"fortable":1765,"Ġgeller":1766,"Ġstri":1767,"Ġstra":1768,"Ġchee":1769,"Ġflo":1770,"Ġforgot":1771,"cel":1772,"Ġwind":1773,"Ġred":1774,"ault":1775,"icks":1776,"Ġbranch":1777,"Ġwrite":1778,"Ġquestions":1779,"Ġcomplet":1780,"Ġassistant":1781,"Ġhospital":1782,"kay":1783,"Ġhonest":1784,"Ġjoe":1785,"Ġgrow":1786,"Ġcongratul":1787,"Ġfif":1788,"Ġholly":1789,"Ġexcept":1790,"Ġleaving":1791,"Ġappre":1792,"Ġrobert":1793,"band":1794,"wa":1795,"Ġgent":1796,"Ġemb":1797,"outh":1798,"elt":1799,"Ġalong":1800,"Ġworth":1801,"Ġmonkey":1802,"Ġahead":1803,"Ġschrute":1804,"gr":1805,"Ġtried":1806,"Ġbor":1807,"Ġgab":1808,"Ġfat":1809,"Ġev":1810,"cell":1811,"Ġworst":1812,"Ġsave":1813,"ized":1814,"Ġcorp":1815,"Ġfinally":1816,"Ġattention":1817,"Ġfollow":1818,"Ġmiddle":1819,"whoa":1820,"Ġappreci":1821,"\".":1822,"col":1823,"Ġadd":1824,"Ġsn":1825,"Ġsat":1826,"ene":1827,"Ġkno":1828,"Ġthinks":1829,"ages":1830,"Ġaudition":1831,"io":1832,"Ġbill":1833,"Ġjud":1834,"Ġsuck":1835,"erence":1836,"Ġfeels":1837,"Ġdecid":1838,"Ġmissed":1839,"Ġcolle":1840,"Ġexplain":1841,"Ġstreet":1842,"Ġpizza":1843,"Ġed":1844,"Ġfault":1845,"Ġnone":1846,"Ġsol":1847,"iday":1848,"Ġcold":1849,"usband":1850,"Ġmarri":1851,"Ġextra":1852,"Ġcloth":1853,"ze":1854,"Ġ,":1855,"Ġbra":1856,"Ġlos":1857,"Ġwords":1858,"Ġraise":1859,"Ġmachine":1860,"Ġsad":1861,"Ġsitting":1862,"att":1863,"Ġfoot":1864,"Ġanim":1865,"Ġhuman":1866,"ester":1867,"Ġgentle":1868,"bl":1869,"Ġwo":1870,"Ġbought":1871,"Ġagainst":1872,"Ġfull":1873,"cri":1874,"Ġhat":1875,"Ġmill":1876,"sel":1877,"arr":1878,"Ġeh":1879,"Ġworked":1880,"mmy":1881,"Ġbott":1882,"Ġprop":1883,"Ġaccount":1884,"Ġbehind":1885,"Ġentire":1886,"Ġcollege":1887,"een":1888,"mit":1889,"Ġaff":1890,"Ġsqu":1891,"Ġohhh":1892,"ancy":1893,"Ġladies":1894,"Ġcongratulations":1895,"ired":1896,"mal":1897,"Ġticke":1898,"Ġyell":1899,"iny":1900,"Ġpower":1901,"Ġworse":1902,"Ġconc":1903,"Ġconvers":1904,"Ġpos":1905,"Ġinside":1906,"icken":1907,"Ġjump":1908,"Ġinform":1909,"Ġcorporate":1910,"Ġclothes":1911,"ber":1912,"wich":1913,"Ġtough":1914,"Ġhusband":1915,"Ġbur":1916,"stairs":1917,"Ġlie":1918,"Ġliked":1919,"Ġamer":1920,"ility":1921,"Ġquit":1922,"Ġfix":1923,"Ġmessage":1924,"Ġappreciate":1925,"Ġtickets":1926,"Ġma":1927,"ative":1928,"Ġbreat":1929,"Ġcatch":1930,"Ġcert":1931,"Ġpot":1932,"Ġheal":1933,"ntly":1934,"ters":1935,"Ġoffer":1936,"Ġart":1937,"Ġlead":1938,"Ġjanice":1939,"Ġearly":1940,"Ġinterview":1941,"Ġgabe":1942,"Ġbird":1943,"Ġwhoo":1944,"its":1945,"uts":1946,"rol":1947,"Ġscrew":1948,"Ġsandwich":1949,"Ġstraight":1950,"bo":1951,"how":1952,"rehouse":1953,"Ġcab":1954,"Ġfell":1955,"Ġjul":1956,"Ġupset":1957,"Ġsug":1958,"Ġmarriage":1959,"uation":1960,"Ġthous":1961,"Ġcust":1962,"Ġfut":1963,"Ġchicken":1964,"Ġwarehouse":1965,"Ġfeelings":1966,"Ġdied":1967,"Ġfreak":1968,"Ġstrong":1969,"Ġthousand":1970,"ina":1971,"Ġbunch":1972,"Ġfelt":1973,"pper":1974,"ules":1975,"mbers":1976,"Ġmark":1977,"Ġhappening":1978,"Ġdescri":1979,"Ġtrip":1980,"Ġinformation":1981,"to":1982,"Ġdist":1983,"Ġfill":1984,"Ġjack":1985,"els":1986,"anta":1987,"Ġlikes":1988,"ular":1989,"raid":1990,"Ġconsid":1991,"aged":1992,"Ġtruth":1993,"Ġprin":1994,"Ġprofess":1995,"Ġconversation":1996,"Ġ--":1997,"Ġtast":1998,"Ġmass":1999,"Ġbear":2000,"ones":2001,"ark":2002,"Ġna":2003,"uring":2004,"Ġtakes":2005,"Ġbucks":2006,"Ġvo":2007,"Ġstarting":2008,"Ġdrunk":2009,"Ġwonderful":2010,"Ġmusic":2011,"Ġcomputer":2012,"Ġdecided":2013,"co":2014,"giving":2015,"ied":2016,"Ġtreat":2017,"Ġstick":2018,"Ġexcell":2019,"Ġpress":2020,"Ġafraid":2021,"ude":2022,"Ġcorrect":2023,"Ġwallace":2024,"Ġyoung":2025,"Ġcheese":2026,"cking":2027,"Ġyester":2028,"Ġhung":2029,"ines":2030,"Ġdoin":2031,"Ġnine":2032,"aurant":2033,"Ġoffic":2034,"Ġtwenty":2035,"Ġrestaurant":2036,"Ġlaw":2037,"aughter":2038,"Ġty":2039,"Ġir":2040,"Ġsanta":2041,"Ġtown":2042,"Ġfil":2043,"ison":2044,"Ġhall":2045,"Ġment":2046,"oooo":2047,"antic":2048,"Ġplus":2049,"Ġblow":2050,"Ġideas":2051,"Ġruin":2052,"Ġfigured":2053,"Ġinstead":2054,"Ġclients":2055,"Ġfuture":2056,"Ġexcellent":2057,"Ġyesterday":2058,"but":2059,"land":2060,"Ġrules":2061,"arently":2062,"Ġthanksgiving":2063,"Ġshower":2064,"Ġexper":2065,"Ġpark":2066,"Ġshoes":2067,"Ġlooked":2068,"Ġgosh":2069,"ics":2070,"Ġshh":2071,"Ġsteal":2072,"Ġrealize":2073,"Ġincred":2074,"Ġconference":2075,"Ġchildren":2076,"wait":2077,"bel":2078,"ew":2079,"igh":2080,"la":2081,"Ġtape":2082,"Ġdanc":2083,"Ġwhite":2084,"eah":2085,"Ġride":2086,"Ġsub":2087,"Ġalth":2088,"Ġproduct":2089,"Ġloved":2090,"Ġscared":2091,"Ġbusy":2092,"Ġcontrol":2093,"Ġwondering":2094,"Ġimagine":2095,"loy":2096,"Ġ8":2097,"Ġfing":2098,"Ġhalp":2099,"elf":2100,"ult":2101,"Ġagree":2102,"Ġapparently":2103,"Ġdaddy":2104,"Ġmrs":2105,"Ġbitch":2106,"Ġsingle":2107,".'":2108,"ior":2109,"tain":2110,"Ġmed":2111,"ency":2112,"lebr":2113,"Ġseconds":2114,"Ġcelebr":2115,"iculous":2116,"Ġpossible":2117,"Ġembarr":2118,"Ġcustom":2119,"cc":2120,"Ġmer":2121,"Ġba":2122,"era":2123,"ana":2124,"Ġwha":2125,"ama":2126,"Ġhandle":2127,"Ġdecision":2128,"Ġsimp":2129,"Ġrespect":2130,"Ġcertain":2131,"Ġhalpert":2132,"ma":2133,"night":2134,"Ġthird":2135,"Ġlu":2136,"Ġur":2137,"Ġbeat":2138,"rop":2139,"Ġgoodbye":2140,"Ġrom":2141,"Ġroy":2142,"Ġloves":2143,"Ġclos":2144,"Ġpicked":2145,"Ġpriv":2146,"Ġridiculous":2147,"Ġsab":2148,"Ġopp":2149,"rote":2150,"Ġboat":2151,"astic":2152,"Ġvide":2153,"Ġblue":2154,"Ġhorrible":2155,"ned":2156,"su":2157,"Ġchoo":2158,"Ġscene":2159,"Ġleg":2160,"Ġrunning":2161,"Ġ20":2162,"Ġcalm":2163,"Ġforever":2164,"selves":2165,"Ġalthough":2166,"'?":2167,"Ġwrote":2168,"Ġhoo":2169,"Ġfant":2170,"asses":2171,"Ġshare":2172,"Ġspo":2173,"fer":2174,"yeah":2175,"Ġ9":2176,"Ġcam":2177,"Ġcover":2178,"Ġallow":2179,"Ġfeet":2180,"Ġactor":2181,"bbian":2182,"fu":2183,"itive":2184,"Ġjer":2185,"ices":2186,"Ġspent":2187,"Ġpee":2188,"Ġtrain":2189,"Ġbrain":2190,"mother":2191,"Ġturns":2192,"Ġcharge":2193,"Ġtribbian":2194,"Ġfloor":2195,"ming":2196,"Ġtiny":2197,"Ġself":2198,"Ġmouth":2199,"Ġgra":2200,"Ġdressed":2201,"Ġdaughter":2202,"ste":2203,"assed":2204,"aces":2205,"ppy":2206,"iest":2207,"ield":2208,"Ġjoin":2209,"?!!":2210,"Ġcalls":2211,"Ġsleeping":2212,"Ġmilk":2213,"Ġcompletely":2214,"Ġhealth":2215,"Ġyay":2216,"Ġbow":2217,"Ġcent":2218,"Ġmemor":2219,"Ġkitch":2220,"ments":2221,"Ġblah":2222,"Ġpretend":2223,"Ġnumbers":2224,"Ġmod":2225,"Ġda":2226,"Ġfish":2227,"Ġbel":2228,"ican":2229,"Ġnerv":2230,"illy":2231,"Ġhol":2232,"Ġhug":2233,"athy":2234,"Ġpract":2235,"Ġswitch":2236,"Ġgrandmother":2237,"Ġchanged":2238,"Ġgener":2239,"Ġmillion":2240,"Ġtribbiani":2241,"Ġnervous":2242,"my":2243,"ring":2244,"Ġcur":2245,"Ġpop":2246,"Ġgold":2247,"Ġneeded":2248,"Ġprep":2249,"Ġdump":2250,"she":2251,"Ġproblems":2252,"Ġplans":2253,"Ġslow":2254,"Ġsituation":2255,"Ġlucky":2256,"Ġchoice":2257,"Ġcookies":2258,"Ġkeys":2259,"Ġroomm":2260,"Ġkitchen":2261,"iant":2262,"lier":2263,"mer":2264,"son":2265,"Ġwoo":2266,"Ġwine":2267,"Ġbern":2268,"...?":2269,"Ġcandy":2270,"cha":2271,"Ġrock":2272,"Ġspace":2273,"Ġgroup":2274,"Ġpiece":2275,"Ġwindow":2276,"Ġdescribe":2277,"ove":2278,"oint":2279,"Ġpunch":2280,"Ġest":2281,"leep":2282,"Ġsun":2283,"Ġtrans":2284,"Ġbigger":2285,"Ġpoin":2286,"anger":2287,"Ġaww":2288,"Ġtemp":2289,"Ġpete":2290,"Ġemploy":2291,"Ġconsider":2292,"let":2293,"zz":2294,"Ġtre":2295,"Ġsen":2296,"Ġowe":2297,"Ġbon":2298,"Ġgoin":2299,"Ġones":2300,"Ġshort":2301,"Ġgotten":2302,"Ġvis":2303,"Ġeas":2304,"Ġawful":2305,"Ġaccept":2306,"Ġdeser":2307,"Ġcopy":2308,"Ġapologize":2309,"Ġwoah":2310,"Ġvideo":2311,"cent":2312,"iet":2313,"Ġbat":2314,"Ġbri":2315,"Ġburn":2316,"issed":2317,"Ġshoot":2318,"this":2319,"Ġhist":2320,"Ġroad":2321,"!!!!":2322,"hhhh":2323,"Ġsexy":2324,"Ġdecide":2325,"Ġinvited":2326,"Ġbedroom":2327,"Ġinterested":2328,"Ġreturn":2329,"Ġjulie":2330,"Ġvoice":2331,"Ġromantic":2332,"Ġaunt":2333,"Ġdan":2334,"Ġfail":2335,"Ġpill":2336,"Ġpound":2337,"Ġnooo":2338,"vest":2339,"Ġran":2340,"Ġshirt":2341,"Ġsus":2342,"Ġasleep":2343,"Ġboard":2344,"Ġblood":2345,"Ġlonger":2346,"Ġ10":2347,"Ġswear":2348,"Ġreading":2349,"Ġcrying":2350,"belie":2351,"Ġage":2352,"Ġmir":2353,"Ġgy":2354,"Ġles":2355,"Ġlying":2356,"ities":2357,"Ġstate":2358,"Ġchip":2359,"Ġacting":2360,"eech":2361,"Ġhoping":2362,"Ġchocol":2363,"go":2364,"ker":2365,"okay":2366,"Ġmur":2367,"Ġking":2368,"Ġshall":2369,"Ġknown":2370,"Ġusually":2371,"Ġclub":2372,"Ġcouch":2373,"Ġcrap":2374,"Ġslept":2375,"Ġtech":2376,"Ġaccident":2377,"teen":2378,"Ġhanging":2379,"Ġcreed":2380,"cus":2381,"nch":2382,"Ġ7":2383,"Ġsil":2384,"Ġband":2385,"Ġbase":2386,"Ġlond":2387,"Ġbecome":2388,"Ġcode":2389,"Ġneither":2390,"ries":2391,"mmer":2392,"Ġbother":2393,"Ġspeech":2394,"Ġtaken":2395,"Ġtrouble":2396,"Ġquite":2397,"dden":2398,"Ġnames":2399,"Ġbreast":2400,"000":2401,"Ġregional":2402,"Ġsmoke":2403,"Ġnormal":2404,"Ġremind":2405,"Ġlondon":2406,",\"":2407,"!?":2408,"hear":2409,"uss":2410,"Ġcream":2411,"Ġfan":2412,"Ġfake":2413,"Ġpat":2414,"Ġkick":2415,"Ġinvest":2416,"Ġsudden":2417,"Ġworried":2418,"ili":2419,"Ġusing":2420,"rap":2421,"Ġstuck":2422,"Ġbuff":2423,"Ġdru":2424,"Ġacross":2425,"Ġmoved":2426,"Ġcharac":2427,"Ġdeli":2428,"Ġborrow":2429,"aw":2430,"tle":2431,"vies":2432,"Ġegg":2433,"Ġsuc":2434,"elle":2435,"Ġjosh":2436,"Ġsale":2437,"Ġpoor":2438,"Ġplane":2439,"Ġengaged":2440,"gan":2441,"ks":2442,"nect":2443,"ounce":2444,"Ġcu":2445,"Ġtoast":2446,"Ġlar":2447,"Ġlab":2448,"Ġpaid":2449,"Ġug":2450,"Ġhonor":2451,"Ġputting":2452,"Ġflow":2453,"Ġ15":2454,"Ġperform":2455,"Ġattract":2456,"Ġsalesman":2457,"Ġrecord":2458,"Ġinvol":2459,"Ġkissing":2460,"ensive":2461,"Ġlearned":2462,"Ġknock":2463,"ropri":2464,"Ġsabre":2465,"Ġhistory":2466,"look":2467,"Ġtree":2468,"Ġhook":2469,"Ġdouble":2470,"Ġcir":2471,"Ġlow":2472,"Ġmeat":2473,"Ġeff":2474,"Ġforward":2475,"Ġguest":2476,"Ġord":2477,"Ġintro":2478,"Ġunbelie":2479,"Ġproud":2480,"Ġimpress":2481,"Ġplanning":2482,"Ġwalking":2483,"Ġearlier":2484,"aaaa":2485,"Ġcrush":2486,"Ġdrop":2487,"Ġposition":2488,"Ġexperience":2489,"fully":2490,"Ġroommate":2491,"ray":2492,"ric":2493,"work":2494,"Ġtall":2495,"Ġtired":2496,"Ġav":2497,"Ġthirty":2498,"Ġcoo":2499,"Ġcow":2500,"icked":2501,"Ġeating":2502,"Ġmovies":2503,"unity":2504,"Ġphil":2505,"aren":2506,"ific":2507,"Ġvol":2508,"Ġcomfortable":2509,"Ġturned":2510,"Ġemerg":2511,"Ġinvite":2512,"ibly":2513,"Ġbasically":2514,"Ġincredible":2515,"Ġunbeliev":2516,"ipp":2517,"Ġduring":2518,"Ġcred":2519,"Ġfly":2520,"Ġsucks":2521,"Ġhimself":2522,"Ġgiven":2523,"Ġground":2524,"Ġlistening":2525,"Ġchef":2526,"Ġcareful":2527,"Ġspec":2528,"Ġstanding":2529,"Ġdepartment":2530,"Ġmagic":2531,"Ġgentlemen":2532,"Ġsuggest":2533,"Ġsimple":2534,"Ġsusan":2535,"Ġgym":2536,"ropriate":2537,"just":2538,"line":2539,"mi":2540,"Ġdear":2541,"Ġlit":2542,"Ġbegin":2543,"Ġrain":2544,"Ġnah":2545,"akes":2546,"Ġphot":2547,"Ġlovely":2548,"Ġdeath":2549,"Ġhasn":2550,"Ġduck":2551,"Ġafterno":2552,"Ġ19":2553,"Ġinsane":2554,"gram":2555,"Ġholiday":2556,"\"?":2557,"cu":2558,"ats":2559,"Ġland":2560,"Ġfit":2561,"idge":2562,"Ġnear":2563,"Ġnap":2564,"rif":2565,"aur":2566,"Ġproject":2567,"Ġkept":2568,"Ġpost":2569,"Ġplayed":2570,"Ġwriting":2571,"Ġsupport":2572,"Ġcharlie":2573,"Ġ30":2574,"Ġboxes":2575,"Ġbroken":2576,"Ġcolor":2577,"Ġchocolate":2578,"da":2579,"Ġdry":2580,"ann":2581,"Ġkissed":2582,"Ġkaren":2583,"icking":2584,"acked":2585,"Ġnotice":2586,"Ġpleas":2587,"Ġconnect":2588,"Ġscore":2589,"Ġstud":2590,"Ġdest":2591,"Ġexciting":2592,"Ġemail":2593,"ception":2594,"Ġdogs":2595,"place":2596,"Ġchoose":2597,"Ġugly":2598,"Ġafternoon":2599,"cle":2600,"of":2601,"yy":2602,"Ġmail":2603,"Ġdirty":2604,"Ġcell":2605,"Ġbeer":2606,"Ġje":2607,"ety":2608,"icious":2609,"icated":2610,"acy":2611,"Ġwash":2612,"Ġmot":2613,"Ġvan":2614,"Ġmarcel":2615,"Ġhelps":2616,"Ġdrake":2617,"Ġhotel":2618,"Ġcontract":2619,"Ġintern":2620,"Ġdraw":2621,"Ġdivorced":2622,"Ġtaste":2623,"Ġhungry":2624,"Ġpoints":2625,"Ġcharacter":2626,"dom":2627,"gu":2628,"ivers":2629,"lish":2630,"wear":2631,"Ġ6":2632,"Ġgar":2633,"Ġdou":2634,"Ġcri":2635,"Ġcaught":2636,"Ġporn":2637,"Ġjeal":2638,"Ġsold":2639,"Ġrather":2640,"Ġsomewhere":2641,"achel":2642,"Ġspot":2643,"aster":2644,"orts":2645,"Ġcommon":2646,"Ġbernard":2647,"Ġjealous":2648,"ged":2649,"ero":2650,"llie":2651,"Ġtoil":2652,"Ġfancy":2653,"Ġpa":2654,"ories":2655,"Ġbesid":2656,"Ġnellie":2657,"aul":2658,"earch":2659,"Ġdirect":2660,"why":2661,"Ġnamed":2662,"Ġcarry":2663,"Ġwalked":2664,"Ġjokes":2665,"Ġregular":2666,"Ġclearly":2667,"Ġdancing":2668,"Ġbesides":2669,"con":2670,"ipped":2671,"oss":2672,"well":2673,"Ġ..":2674,"Ġtic":2675,"Ġtip":2676,"Ġhide":2677,"Ġooo":2678,"ato":2679,"Ġboom":2680,"Ġdet":2681,"Ġsoap":2682,"Ġrece":2683,"alph":2684,"che":2685,"Ġupstairs":2686,"iling":2687,"Ġtwice":2688,"Ġscream":2689,"Ġqual":2690,"Ġservice":2691,"Ġcares":2692,"Ġbreakf":2693,"Ġforgive":2694,"Ġlights":2695,"Ġlaughing":2696,"Ġstopped":2697,"Ġmassage":2698,"Ġmention":2699,"Ġemergency":2700,"bian":2701,"Ġtie":2702,"Ġsize":2703,"ery":2704,"Ġloud":2705,"ises":2706,"Ġralph":2707,"usting":2708,"Ġreception":2709,"oop":2710,"Ġshake":2711,"Ġform":2712,"Ġsuit":2713,"Ġprogram":2714,"Ġvi":2715,"Ġbrown":2716,"Ġadvice":2717,"Ġgames":2718,"Ġdifference":2719,"Ġcomplain":2720,"Ġcards":2721,"Ġwarm":2722,"Ġ50":2723,"Ġvalent":2724,"Ġgunther":2725,"Ġallowed":2726,"Ġintrodu":2727,"Ġcredit":2728,"Ġtoilet":2729,"ii":2730,"port":2731,"Ġhy":2732,"ature":2733,"Ġdun":2734,"Ġcro":2735,"Ġnose":2736,"icy":2737,"Ġhire":2738,"Ġprot":2739,"imme":2740,"Ġbiggest":2741,"Ġarm":2742,"omfortable":2743,"Ġenter":2744,"Ġcompet":2745,"Ġdund":2746,"Ġstarts":2747,"cially":2748,"Ġpubl":2749,"Ġattack":2750,"Ġfresh":2751,"Ġparking":2752,"Ġpresents":2753,"Ġtuna":2754,"Ġuncomfortable":2755,"Ġanimal":2756,"Ġbreath":2757,"Ġfinger":2758,"Ġflowers":2759,"Ġunbelievable":2760,"Ġbreakfast":2761,"Ġvalentine":2762,"boy":2763,"did":2764,"ees":2765,"kin":2766,"ney":2767,"ror":2768,"read":2769,"Ġopt":2770,"Ġoooh":2771,"Ġble":2772,"Ġborn":2773,"Ġdanger":2774,"Ġfear":2775,"Ġpal":2776,"Ġpaul":2777,"eaking":2778,"Ġshar":2779,"Ġhoward":2780,"Ġate":2781,"Ġalive":2782,"Ġfeed":2783,"Ġscary":2784,"Ġahhh":2785,"Ġquart":2786,"Ġothers":2787,"agement":2788,"Ġunderwear":2789,"Ġsweater":2790,"Ġappl":2791,"Ġtotal":2792,"Ġfocus":2793,"Ġtechn":2794,"Ġsuccess":2795,"Ġticket":2796,"bed":2797,"back":2798,"Ġtag":2799,"Ġwake":2800,"Ġbike":2801,"Ġgimme":2802,"Ġpsy":2803,"stem":2804,"Ġhel":2805,"Ġround":2806,"tery":2807,"Ġsafe":2808,"Ġmuse":2809,"Ġbull":2810,"Ġflor":2811,"Ġimpro":2812,"Ġoper":2813,"Ġsexual":2814,"Ġjuice":2815,"Ġsmells":2816,"clock":2817,"nn":2818,"old":2819,"Ġsnow":2820,"Ġgross":2821,"orge":2822,"Ġjac":2823,"esus":2824,"edu":2825,"ider":2826,"ides":2827,"Ġnur":2828,"ction":2829,"Ġjoh":2830,"urity":2831,"Ġtruck":2832,"Ġdisg":2833,"Ġcharles":2834,"Ġcountry":2835,"Ġrespons":2836,"Ġturkey":2837,"Ġannounce":2838,"ighb":2839,"Ġcustomer":2840,"Ġprivate":2841,"Ġfantastic":2842,"Ġpounds":2843,"??":2844,"book":2845,"five":2846,"ien":2847,"ium":2848,"ram":2849,"umb":2850,"Ġca":2851,"Ġcart":2852,"Ġcous":2853,"Ġcross":2854,"Ġjesus":2855,"Ġkathy":2856,"ida":2857,"Ġshop":2858,"Ġnote":2859,"Ġneighb":2860,"Ġexist":2861,"uls":2862,"ective":2863,"Ġgrade":2864,"ipe":2865,"ission":2866,"Ġdumb":2867,"Ġsmile":2868,"Ġprison":2869,"osaur":2870,"Ġangry":2871,"Ġearth":2872,"Ġkilled":2873,"Ġpictures":2874,"Ġshopping":2875,"Ġbasket":2876,"Ġturning":2877,"Ġsystem":2878,"Ġbottle":2879,"Ġembarrass":2880,"Ġeasier":2881,"cut":2882,"cket":2883,"like":2884,"Ġbal":2885,"Ġpool":2886,"Ġbeep":2887,"Ġwhose":2888,"Ġanywhere":2889,"ames":2890,"ula":2891,"Ġclosed":2892,"Ġcheer":2893,"Ġjobs":2894,"Ġstaying":2895,"Ġadop":2896,"Ġdifficul":2897,"Ġbarry":2898,"Ġstole":2899,"Ġdivorce":2900,"Ġevil":2901,"Ġlosing":2902,"Ġpropose":2903,"Ġprofessor":2904,"Ġpsych":2905,"Ġflorida":2906,"hoo":2907,"pes":2908,"rr":2909,"ua":2910,"Ġtight":2911,"ino":2912,"Ġmac":2913,"Ġgiant":2914,"Ġtoy":2915,"Ġpea":2916,"Ġital":2917,"Ġnon":2918,"Ġweight":2919,"sen":2920,"iced":2921,"Ġrent":2922,"Ġreach":2923,"Ġcancel":2924,"Ġcoat":2925,"Ġspeaking":2926,"aps":2927,"eez":2928,"Ġgrown":2929,"Ġrealized":2930,"Ġaward":2931,"Ġsalad":2932,"Ġboys":2933,"pecially":2934,"Ġended":2935,"Ġholding":2936,"Ġphys":2937,"Ġlauren":2938,"Ġcookie":2939,"rupt":2940,"Ġespecially":2941,"Ġelect":2942,"Ġsatur":2943,"Ġcamera":2944,"Ġjerk":2945,"Ġlesbian":2946,"Ġpublic":2947,"',":2948,"hood":2949,"Ġver":2950,"Ġyup":2951,"rest":2952,"Ġgas":2953,"Ġtom":2954,"Ġpan":2955,"Ġsoft":2956,"Ġrush":2957,"Ġew":2958,"Ġnuts":2959,"Ġreview":2960,"Ġarea":2961,"Ġhole":2962,"itten":2963,"Ġhum":2964,"ote":2965,"Ġdeep":2966,"Ġsecurity":2967,"Ġpercent":2968,"Ġfriday":2969,"Ġlived":2970,"Ġcommitt":2971,"Ġdrinking":2972,"Ġbooks":2973,"Ġdiscuss":2974,"Ġpurse":2975,"Ġfifty":2976,"Ġjudge":2977,"Ġanimals":2978,"Ġdeserve":2979,"Ġsaturday":2980,"hi":2981,"kward":2982,"ton":2983,"yle":2984,"Ġwild":2985,"Ġsens":2986,"Ġbare":2987,"Ġlay":2988,"Ġfur":2989,"Ġfash":2990,"ority":2991,"sent":2992,"Ġrad":2993,"Ġshhh":2994,"amb":2995,"Ġletter":2996,"Ġhost":2997,"ache":2998,"Ġmonday":2999,"Ġways":3000,"Ġdownstairs":3001,"Ġquiet":3002,"Ġblind":3003,"Ġlevel":3004,"Ġkeeping":3005,"Ġawkward":3006,"Ġbeach":3007,"Ġdinosaur":3008,"Ġpaying":3009,"Ġpromised":3010,"Ġdriving":3011,"gging":3012,"Ġincl":3013,"Ġskin":3014,"Ġdelicious":3015,"Ġpaint":3016,"Ġamerica":3017,"Ġopport":3018,"Ġsenator":3019,"Ġjohn":3020,"ges":3021,"iff":3022,"lo":3023,"sses":3024,"wise":3025,"Ġeth":3026,"oul":3027,"oun":3028,"Ġmart":3029,"Ġbond":3030,"Ġge":3031,"Ġfool":3032,"Ġfax":3033,"ism":3034,"ising":3035,"Ġjess":3036,"they":3037,"Ġant":3038,"Ġplate":3039,"Ġspl":3040,"Ġhadn":3041,"Ġwaitress":3042,"Ġlots":3043,"Ġhelping":3044,"Ġhearing":3045,"Ġmissing":3046,"Ġcorn":3047,"Ġfamous":3048,"ibility":3049,"Ġtype":3050,"Ġpleasure":3051,"Ġdestro":3052,"Ġdifficult":3053,"bout":3054,"ef":3055,"gue":3056,"jo":3057,"ka":3058,"mail":3059,"Ġden":3060,"Ġlame":3061,"Ġwhe":3062,"ication":3063,"verse":3064,"Ġlied":3065,"Ġforce":3066,"elve":3067,"name":3068,"Ġchina":3069,"Ġmose":3070,"ams":3071,"Ġconst":3072,"Ġscar":3073,"Ġdev":3074,"izing":3075,"Ġheads":3076,"Ġolder":3077,"Ġglasses":3078,"Ġ25":3079,"Ġtext":3080,"Ġsinging":3081,"Ġdamnit":3082,"Ġpacker":3083,"Ġbreathe":3084,"Ġmerry":3085,"Ġbuffay":3086,"Ġordered":3087,"Ġintroduce":3088,"Ġdisgusting":3089,"Ġadopt":3090,"Ġfashion":3091,"30":3092,"don":3093,"ump":3094,"Ġsau":3095,"Ġsoup":3096,"reen":3097,"Ġmatch":3098,"Ġbang":3099,"Ġbachel":3100,"Ġcere":3101,"Ġfield":3102,"ara":3103,"Ġrequ":3104,"Ġship":3105,"Ġstink":3106,"Ġchamp":3107,"Ġhero":3108,"ils":3109,"ilt":3110,"Ġspin":3111,"Ġtwelve":3112,"Ġagent":3113,"Ġscare":3114,"Ġtrick":3115,"ified":3116,"Ġgives":3117,"Ġmarket":3118,"Ġbreaking":3119,"Ġbringing":3120,"Ġcrack":3121,"Ġspeed":3122,"fortun":3123,"Ġcece":3124,"Ġindian":3125,"Ġseats":3126,"Ġpresentation":3127,"Ġfinished":3128,"Ġcostume":3129,"Ġmuseum":3130,"**":3131,"cal":3132,"tin":3133,"van":3134,"Ġ&":3135,"Ġig":3136,"Ġori":3137,"Ġocc":3138,"Ġdying":3139,"Ġcast":3140,"erm":3141,"Ġtor":3142,"vered":3143,"Ġbec":3144,"Ġsoo":3145,"Ġneck":3146,"Ġoutta":3147,"urs":3148,"Ġprocess":3149,"Ġthoughts":3150,"angel":3151,"Ġunfortun":3152,"Ġlegs":3153,"Ġlaund":3154,"Ġdark":3155,"Ġhmmm":3156,"Ġselling":3157,"Ġpolice":3158,"Ġfifteen":3159,"Ġvisit":3160,"Ġinvolved":3161,"Ġprotect":3162,"Ġjacket":3163,"Ġopportunity":3164,"ging":3165,"po":3166,"ron":3167,"uff":3168,"Ġthrew":3169,"Ġmall":3170,"Ġdut":3171,"Ġcig":3172,"Ġlas":3173,"Ġnoo":3174,"Ġjames":3175,"Ġinapp":3176,"Ġeve":3177,"ids":3178,"lev":3179,"there":3180,"ows":3181,"Ġsaving":3182,"Ġwhenever":3183,"Ġwaste":3184,"Ġtrad":3185,"Ġvict":3186,"Ġadv":3187,"Ġteeth":3188,"Ġcontest":3189,"Ġfreaked":3190,"ances":3191,"Ġhurry":3192,"Ġcollect":3193,"Ġchanging":3194,"Ġlesson":3195,"Ġaccounting":3196,"Ġmaj":3197,"Ġruined":3198,"Ġbowl":3199,"ossible":3200,"ex":3201,"for":3202,"reme":3203,"rets":3204,"Ġmain":3205,"Ġbun":3206,"Ġcas":3207,"Ġcash":3208,"Ġpale":3209,"Ġwet":3210,"Ġult":3211,"Ġrac":3212,"ether":3213,"arm":3214,"Ġeww":3215,"idence":3216,"lex":3217,"Ġnail":3218,"thin":3219,"Ġknowing":3220,"Ġhired":3221,"Ġplaces":3222,"Ġwhoever":3223,"Ġsaf":3224,"Ġgreatest":3225,"Ġtalent":3226,"Ġprov":3227,"que":3228,"Ġcons":3229,"Ġbride":3230,"Ġblame":3231,"âĢĶâĢĶ":3232,"Ġchecked":3233,"Ġcoup":3234,"Ġkeeps":3235,"Ġexpensive":3236,"Ġrule":3237,"Ġreasons":3238,"sident":3239,"ergy":3240,"Ġcups":3241,"Ġempty":3242,"Ġstripper":3243,"Ġaddress":3244,"Ġbottom":3245,"Ġyelling":3246,"Ġscrewed":3247,"board":3248,"Ġprincess":3249,"Ġpressure":3250,"Ġdoub":3251,"Ġquarter":3252,"Ġtechnically":3253,"Ġcousin":3254,"Ġdestroy":3255,"bage":3256,"can":3257,"eed":3258,"ipping":3259,"Ġill":3260,"Ġye":3261,"Ġsea":3262,"Ġhid":3263,"Ġdig":3264,"Ġfa":3265,"Ġfro":3266,"Ġrab":3267,"Ġequ":3268,"Ġnick":3269,"imate":3270,"Ġhunt":3271,"Ġbump":3272,"Ġparties":3273,"Ġblond":3274,"Ġharder":3275,"Ġimpossible":3276,"Ġdisapp":3277,"ailable":3278,"Ġmix":3279,"ontolog":3280,"Ġfarm":3281,"Ġsmoking":3282,"Ġairport":3283,"Ġboring":3284,"Ġleads":3285,"Ġlawy":3286,"Ġcelebrate":3287,"Ġcertainly":3288,"Ġdanny":3289,"Ġdelivery":3290,"Ġstudent":3291,"Ġdundies":3292,"Ġjessica":3293,"Ġlaundry":3294,"cing":3295,"gth":3296,"sk":3297,"sing":3298,"word":3299,"Ġ<":3300,"Ġx":3301,"Ġtour":3302,"Ġsar":3303,"Ġhm":3304,"reed":3305,"Ġban":3306,"Ġbank":3307,"Ġdare":3308,"Ġcamp":3309,"Ġpitch":3310,"enter":3311,"arious":3312,"Ġshoe":3313,"Ġnoticed":3314,"roll":3315,"Ġmoon":3316,"Ġplenty":3317,"Ġseemed":3318,"Ġmeaning":3319,"ural":3320,"ently":3321,"Ġprove":3322,"Ġclark":3323,"ational":3324,"Ġtrash":3325,"Ġblo":3326,"Ġphoebs":3327,"Ġbread":3328,"Ġprice":3329,"Ġ12":3330,"Ġglass":3331,"Ġfinal":3332,"Ġterrif":3333,"Ġemot":3334,"Ġcontin":3335,"Ġinsur":3336,"ires":3337,"Ġhurts":3338,"Ġthrowing":3339,"Ġcomplicated":3340,"Ġmmhmm":3341,"Ġpenn":3342,"Ġspending":3343,"Ġbobby":3344,"Ġquickly":3345,"Ġcaptain":3346,"Ġreport":3347,"Ġhonestly":3348,"Ġprepared":3349,"mifflin":3350,"Ġliter":3351,"angelo":3352,"Ġinappropriate":3353,"hy":3354,"haps":3355,"off":3356,"par":3357,"uro":3358,"Ġ:":3359,"Ġtit":3360,"Ġsilly":3361,"Ġms":3362,"Ġlon":3363,"Ġlately":3364,"Ġpi":3365,"Ġport":3366,"ken":3367,"Ġjam":3368,"Ġrout":3369,"Ġevent":3370,"Ġnipp":3371,"Ġcovered":3372,"Ġneg":3373,"rill":3374,"Ġlock":3375,"abeth":3376,"Ġmona":3377,"Ġtwins":3378,"aped":3379,"Ġdeangelo":3380,"Ġbud":3381,"Ġvac":3382,"izabeth":3383,"Ġperhaps":3384,"Ġelizabeth":3385,"Ġfile":3386,"Ġfridge":3387,"spect":3388,"Ġhoneymo":3389,"Ġapart":3390,"Ġsweethear":3391,"Ġwinner":3392,"Ġmessages":3393,"Ġdrinks":3394,"Ġsurprised":3395,"Ġgrandma":3396,"Ġamerican":3397,"Ġfilled":3398,"Ġprofessional":3399,"Ġembarrassed":3400,"Ġbased":3401,"Ġcloser":3402,"gy":3403,"gas":3404,"ius":3405,"light":3406,"Ġtaught":3407,"Ġain":3408,"Ġauth":3409,"Ġthurs":3410,"Ġhates":3411,"Ġmater":3412,"Ġmaid":3413,"Ġcenter":3414,"Ġwhether":3415,"Ġpin":3416,"Ġpow":3417,"Ġpage":3418,"Ġpath":3419,"Ġpassed":3420,"Ġheck":3421,"mend":3422,"Ġandrew":3423,"Ġund":3424,"Ġiss":3425,"allen":3426,"Ġstom":3427,"Ġgettin":3428,"Ġchose":3429,"Ġchick":3430,"Ġchallen":3431,"Ġamount":3432,"ains":3433,"Ġsports":3434,"Ġagreed":3435,"Ġevening":3436,"Ġsecrets":3437,"Ġflight":3438,"Ġadmit":3439,"Ġpicking":3440,"Ġcharity":3441,"Ġ200":3442,"Ġzero":3443,"Ġmidnight":3444,"Ġboobs":3445,"Ġhorse":3446,"Ġdropped":3447,"Ġmagaz":3448,"Ġpossibly":3449,"Ġesc":3450,"Ġuncle":3451,"Ġcreep":3452,"Ġfootball":3453,"Ġconcern":3454,"Ġpractice":3455,"Ġtransfer":3456,"Ġembarrassing":3457,"Ġitalian":3458,"Ġbarely":3459,"Ġpaleontolog":3460,"Ġinsurance":3461,"Ġsweetheart":3462,"Ġstomach":3463,"\",":3464,"aff":3465,"eer":3466,"lvan":3467,"pose":3468,"tch":3469,"ug":3470,"Ġtill":3471,"Ġtim":3472,"Ġtax":3473,"Ġyum":3474,"Ġmister":3475,"Ġdates":3476,"Ġtheme":3477,"Ġcrow":3478,"ercial":3479,"Ġtow":3480,"Ġlap":3481,"Ġnoise":3482,"Ġheat":3483,"Ġbene":3484,"Ġmessed":3485,"Ġisland":3486,"etic":3487,"Ġoften":3488,"Ġlif":3489,"Ġfort":3490,"Ġbutter":3491,"ops":3492,"iment":3493,"Ġletting":3494,"Ġorgan":3495,"Ġspir":3496,"Ġpresident":3497,"Ġscr":3498,"isters":3499,"Ġmary":3500,"Ġdue":3501,"Ġuni":3502,"Ġwritten":3503,"Ġcarp":3504,"Ġcareer":3505,"Ġawww":3506,"Ġappro":3507,"Ġcorner":3508,"sylvan":3509,"aaa":3510,"Ġcru":3511,"Ġfrench":3512,"Ġcommercial":3513,"Ġpromot":3514,"Ġ300":3515,"Ġbutton":3516,"Ġcleaning":3517,"Ġchanges":3518,"Ġtux":3519,"Ġannivers":3520,"Ġteacher":3521,"Ġbirds":3522,"Ġmirac":3523,"Ġbreasts":3524,"Ġavailable":3525,"Ġvolunt":3526,"Ġphoto":3527,"Ġannouncement":3528,"Ġhoneymoon":3529,"Ġthursday":3530,"sylvania":3531,"ba":3532,"fit":3533,"father":3534,"here":3535,"ially":3536,"year":3537,"Ġtuls":3538,"Ġhr":3539,"eral":3540,"Ġbeg":3541,"Ġbell":3542,"vert":3543,"Ġstories":3544,"Ġanno":3545,"Ġchine":3546,"Ġhil":3547,"Ġmommy":3548,"Ġlets":3549,"itty":3550,"Ġwilling":3551,"Ġspring":3552,"raph":3553,"mbered":3554,"Ġaction":3555,"Ġscreen":3556,"olo":3557,"Ġopin":3558,"Ġsettle":3559,"Ġstrang":3560,"Ġlearning":3561,"Ġreserv":3562,"Ġpurpose":3563,"Ġcreate":3564,"Ġaffair":3565,"Ġemployee":3566,"Ġperformance":3567,"Ġattractive":3568,"Ġgarbage":3569,"Ġdangerous":3570,"Ġsplit":3571,"Ġwheel":3572,"Ġcigare":3573,"Ġpennsylvania":3574,"Ġanniversary":3575,"Ġtulsa":3576,"Ġchinese":3577,"bur":3578,"ky":3579,"over":3580,"rit":3581,"used":3582,"Ġthro":3583,"Ġsna":3584,"Ġgro":3585,"Ġdated":3586,"Ġlines":3587,"eam":3588,"Ġmex":3589,"Ġinvent":3590,"Ġnut":3591,"ution":3592,"asc":3593,"Ġstyle":3594,"iring":3595,"irting":3596,"Ġgotcha":3597,"Ġphill":3598,"Ġamy":3599,"Ġexam":3600,"Ġprefer":3601,"Ġourselves":3602,"Ġtran":3603,"Ġenergy":3604,"ups":3605,"Ġsuppose":3606,"Ġ11":3607,"Ġdisease":3608,"Ġcourt":3609,"Ġopened":3610,"Ġwinning":3611,"Ġcloset":3612,"wards":3613,"Ġfaster":3614,"ruct":3615,"Ġsnack":3616,"Ġaffect":3617,"Ġsugar":3618,"Ġtyp":3619,"Ġfingers":3620,"Ġclosing":3621,"Ġhealthy":3622,"Ġjoshua":3623,"Ġdunno":3624,"Ġpeace":3625,"Ġcornell":3626,"Ġunfortunately":3627,"?ï¿½":3628,"cer":3629,"ford":3630,"yes":3631,"Âł":3632,"Ġyog":3633,"Ġseas":3634,"Ġsearch":3635,"Ġmale":3636,"Ġgee":3637,"Ġdent":3638,"ering":3639,"Ġtodd":3640,"nda":3641,"ndy":3642,"Ġbees":3643,"Ġrude":3644,"esday":3645,"Ġkicked":3646,"Ġlips":3647,"Ġstation":3648,"Ġstren":3649,"Ġforty":3650,"Ġsees":3651,"Ġchat":3652,"Ġlob":3653,"Ġlocked":3654,"Ġherself":3655,"une":3656,"Ġsorta":3657,"Ġspread":3658,"Ġpean":3659,"Ġconvin":3660,"Ġtru":3661,"Ġkinds":3662,"Ġbabe":3663,"ommend":3664,"Ġchecking":3665,"Ġflirting":3666,"Ġremembered":3667,"Ġfru":3668,"Ġapple":3669,"Ġdesign":3670,"Ġopening":3671,"Ġpump":3672,"Ġfreaking":3673,"Ġbuying":3674,"Ġrecommend":3675,"Ġbarb":3676,"gged":3677,"Ġclassic":3678,"Ġsmaller":3679,"Ġfighting":3680,"Ġcopier":3681,"medi":3682,"Ġmiles":3683,"Ġknicks":3684,"Ġofficial":3685,"Ġfilm":3686,"Ġtraining":3687,"Ġgolden":3688,"Ġdumped":3689,"Ġemployees":3690,"Ġsuddenly":3691,"Ġneighbor":3692,"Ġelectric":3693,"Ġcommittee":3694,"Ġmartin":3695,"Ġbachelor":3696,"Ġorigin":3697,"Ġmajor":3698,"Ġlawyer":3699,"Ġliterally":3700,"Ġstrength":3701,"die":3702,"emp":3703,"ju":3704,"mar":3705,"oon":3706,"ral":3707,"Ġwrap":3708,"Ġyo":3709,"Ġsisters":3710,"Ġgal":3711,"Ġgorge":3712,"Ġpun":3713,"Ġpig":3714,"Ġpair":3715,"âĢĻ?":3716,"Ġut":3717,"Ġhallow":3718,"Ġmemo":3719,"Ġris":3720,"...\"":3721,"Ġshame":3722,"Ġlimit":3723,"Ġchairs":3724,"Ġsuff":3725,"Ġgoodness":3726,"Ġalice":3727,"aging":3728,"Ġvance":3729,"Ġblock":3730,"Ġotherwise":3731,"Ġunf":3732,"Ġsweat":3733,"Ġappoint":3734,"ograph":3735,"Ġcontact":3736,"phone":3737,"Ġcommit":3738,"Ġkilling":3739,"Ġparis":3740,"Ġperfectly":3741,"Ġsmelly":3742,"Ġhandsome":3743,"Ġimmedi":3744,"Ġgifts":3745,"Ġ40":3746,"Ġsongs":3747,"Ġstaring":3748,"Ġsteve":3749,"Ġloser":3750,"Ġcustomers":3751,"Ġdrugs":3752,"Ġcrime":3753,"Ġpaolo":3754,"Ġmiracle":3755,"Ġhilarious":3756,"Ġgorgeous":3757,"50":3758,"bing":3759,"oid":3760,"uu":3761,"Ġtab":3762,"Ġhated":3763,"Ġbi":3764,"Ġbust":3765,"Ġlin":3766,"Ġlang":3767,"Ġwhew":3768,".....":3769,"Ġsooo":3770,"Ġsoph":3771,"see":3772,"Ġissu":3773,"Ġner":3774,"Ġnic":3775,"Ġnana":3776,"Ġstat":3777,"Ġguit":3778,"andon":3779,"illa":3780,"Ġsummer":3781,"Ġsaved":3782,"Ġphilly":3783,"Ġtells":3784,"Ġwast":3785,"apers":3786,"ists":3787,"ify":3788,"Ġbum":3789,"Ġqueen":3790,"Ġparts":3791,"Ġpartner":3792,"Ġtalkin":3793,"Ġpocket":3794,"Ġserve":3795,"Ġ14":3796,"Ġleaves":3797,"Ġmostly":3798,"Ġfamili":3799,"Ġdollar":3800,"Ġcats":3801,"Ġski":3802,"Ġrobot":3803,"Ġboots":3804,"Ġprize":3805,"Ġenglish":3806,"Ġextreme":3807,"Ġelev":3808,"Ġexpecting":3809,"Ġiron":3810,"Ġlabor":3811,"Ġbeginning":3812,"Ġinternet":3813,"Ġnurse":3814,"Ġsensitive":3815,"Ġfurther":3816,"Ġceremon":3817,"Ġphillip":3818,"Ġfamiliar":3819,"af":3820,"dles":3821,"gress":3822,"hm":3823,"head":3824,"omp":3825,"Ġtear":3826,"Ġwood":3827,"oust":3828,"Ġsoul":3829,"Ġhon":3830,"Ġmc":3831,"Ġbite":3832,"Ġgang":3833,"Ġpor":3834,"Ġpies":3835,"Ġwebs":3836,"ording":3837,"Ġbelt":3838,"Ġjill":3839,"Ġmel":3840,"Ġnin":3841,"Ġnat":3842,"Ġreject":3843,"Ġsepar":3844,"Ġchi":3845,"riger":3846,"Ġalan":3847,"Ġsail":3848,"Ġoffered":3849,"Ġclim":3850,"Ġken":3851,"Ġcondo":3852,"Ġvir":3853,"Ġdire":3854,"Ġshowed":3855,"Ġpray":3856,"Ġappear":3857,"Ġopera":3858,"Ġplanned":3859,"Ġswing":3860,"Ġfourth":3861,"Ġinterrupt":3862,"heh":3863,"Ġindust":3864,"Ġgenius":3865,"Ġmarrying":3866,"Ġcreated":3867,"Ġcomplete":3868,"Ġsquare":3869,"Ġurs":3870,"Ġbelong":3871,"Ġcirc":3872,"Ġphysical":3873,"Ġdoubt":3874,"Ġfruit":3875,"Ġhalloween":3876,"Ġissues":3877,".âĢĻ":3878,"?'":3879,"coh":3880,"ls":3881,"mission":3882,"til":3883,"tte":3884,"Ġvers":3885,"Ġtong":3886,"Ġhank":3887,"Ġmood":3888,"Ġger":3889,"Ġdre":3890,"anny":3891,"Ġpant":3892,"Ġpors":3893,"Ġweak":3894,"kets":3895,"Ġdocu":3896,"arian":3897,"icing":3898,"oof":3899,"Ġlift":3900,"Ġstam":3901,"Ġstars":3902,"ode":3903,"Ġneat":3904,"Ġnecess":3905,"Ġalcoh":3906,"ived":3907,"ives":3908,"Ġtooth":3909,"Ġmonster":3910,"Ġactual":3911,"Ġthemselves":3912,"iforn":3913,"Ġtalks":3914,"ures":3915,"Ġgrant":3916,"Ġgrad":3917,"Ġflash":3918,"Ġrealise":3919,"avy":3920,"Ġrooms":3921,"Ġprices":3922,"ĠâĢľ":3923,"Ġerr":3924,"Ġbrings":3925,"Ġcommun":3926,"Ġfavour":3927,"Ġtouching":3928,"Ġmmmm":3929,"Ġvegas":3930,"Ġcupc":3931,"ledge":3932,"Ġspeaker":3933,"Ġfollowing":3934,"Ġpropos":3935,"Ġpotato":3936,"Ġfantas":3937,"Ġmodel":3938,"Ġlarge":3939,"Ġscreaming":3940,"Ġsharp":3941,"edule":3942,"Ġinclud":3943,"Ġsafety":3944,"Ġspirit":3945,"Ġopinion":3946,"Ġguitar":3947,"Ġelevator":3948,"Ġursula":3949,"Ġalcohol":3950,"ca":3951,"ds":3952,"male":3953,"ni":3954,"pack":3955,"sit":3956,"tw":3957,"wife":3958,"Ġoven":3959,"Ġodd":3960,"atic":3961,"Ġbast":3962,"non":3963,"Ġly":3964,"Ġfle":3965,"Ġfac":3966,"âĢĿ":3967,"east":3968,"Ġjr":3969,"Ġrat":3970,"Ġrough":3971,"ening":3972,"Ġeuro":3973,"Ġcomb":3974,"Ġsevent":3975,"ching":3976,"chie":3977,"Ġchea":3978,"Ġupon":3979,"Ġlover":3980,"Ġexe":3981,"ended":3982,"Ġspit":3983,"mble":3984,"eeze":3985,"Ġvie":3986,"Ġarms":3987,"Ġgroom":3988,"Ġmini":3989,"Ġ18":3990,"Ġwatched":3991,"Ġsurv":3992,"Ġaccent":3993,"Ġrumor":3994,"Ġdriver":3995,"Ġansw":3996,"play":3997,"Ġbags":3998,"Ġdepend":3999,"Ġindeed":4000,"Ġfalling":4001,"Ġcaliforn":4002,"Ġpushing":4003,"Ġrefriger":4004,"Ġyounger":4005,"Ġapology":4006,"Ġimagin":4007,"Ġroof":4008,"berry":4009,"Ġsandwiches":4010,"Ġstealing":4011,"Ġgenerous":4012,"Ġtrees":4013,"Ġburned":4014,"Ġchips":4015,"Ġbaseball":4016,"Ġreminds":4017,"Ġreceptionist":4018,"Ġigno":4019,"Ġfaith":4020,"Ġterrific":4021,"Ġnegative":4022,"Ġuniverse":4023,"Ġpunish":4024,"Ġlangu":4025,"Ġwebsite":4026,"Ġdirector":4027,"Ġtongue":4028,"cour":4029,"cil":4030,"den":4031,"lead":4032,"oons":4033,"under":4034,"wim":4035,"nos":4036,"Ġlake":4037,"Ġlower":4038,"Ġfol":4039,"Ġwest":4040,"Ġgoal":4041,"Ġham":4042,"Ġbeet":4043,"Ġjun":4044,"Ġrace":4045,"Ġkat":4046,"Ġinsp":4047,"Ġell":4048,"Ġreve":4049,"Ġreplace":4050,"Ġlip":4051,"owheh":4052,"Ġstairs":4053,"Ġcoach":4054,"Ġwanting":4055,"Ġlog":4056,"ability":4057,"Ġjose":4058,"ession":4059,"Ġbored":4060,"Ġmanagement":4061,"amed":4062,"ults":4063,"Ġclown":4064,"ored":4065,"ards":4066,"Ġours":4067,"Ġcond":4068,"Ġdeb":4069,"Ġdem":4070,"Ġtrade":4071,"Ġfuneral":4072,"Ġbright":4073,"Ġblan":4074,"Ġenv":4075,"Ġhelpful":4076,"akin":4077,"Ġaware":4078,"Ġfinding":4079,"Ġ100":4080,"ogn":4081,"ails":4082,"Ġrelated":4083,"Ġadm":4084,"Ġadult":4085,"Ġerica":4086,"Ġdecis":4087,"Ġassume":4088,"Ġends":4089,"......":4090,"Ġmatt":4091,"Ġruss":4092,"Ġrecently":4093,"Ġbarn":4094,"Ġzoo":4095},"merges":["Ġ t","Ġ i","Ġ a","Ġ w","o u","Ġt h","Ġ y","Ġ s","Ġ h","r e","Ġy ou","Ġ o","i n","Ġ m","a t","Ġ b","Ġ g","Ġ d","Ġth e","Ġ c","e r","l l","n o","a n","in g","o n","Ġt o","Ġ l","Ġ f","Ġw h","Ġ p",". .","n d","Ġi t","Ġ no","s t","â Ģ","Ġw e","v e","o r","âĢ Ļ","Ġh e","a y","Ġth at","m e","Ġg o","' s","i t","Ġa nd","i s","e a","Ġ u","k e","Ġh a","Ġb e","Ġ j","g h","Ġm e","Ġs o","s e","Ġ r","Ġd o","e s","Ġi s","Ġwh at","e n","e t","Ġ k","gh t","Ġi n","Ġo f","a r","i c","Ġo n","Ġo h",".. .","e d","Ġ e","i d","i ght","no w","l e","' t","l d","Ġth is","Ġ n","u st","Ġ re","u t","a s","Ġo k","o o","ou t","a ll","Ġm y","Ġj ust","Ġs h","t h","v er","Ġl i","o w","Ġk now","Ġy ea","Ġs t","Ġha ve","a c","Ġf or","Ġd on","a l","Ġno t","ou ld","Ġyea h","Ġc an","Ġok ay","Ġa re","Ġw as","Ġc o","' m","it h","e l","Ġyou r","an t","all y","Ġa n","Ġw ith","Ġa ll","Ġwe ll","Ġs e","Ġhe y","r o","c h","Ġli ke","Ġg et","i r","Ġb ut","a d","o d","Ġr ight","n a","Ġc h","Ġn e","in k","' re","Ġa b","Ġso me","Ġh i","Ġd id","r i","Ġg u","r y","a ke","Ġhe re","Ġth ink","Ġthe re","Ġab out","i on","oo k","Ġ out","l y","Ġsh e","Ġw ant","Ġu h","Ġg on","an d","n t","i ll","s s","Ġre ally","th ing","Ġu p","Ġgon na","a u","Ġh ow","p p","Ġa t","Ġm o","ver y","Ġp l","Ġs u","Ġl o","Ġgo t","on e","Ġi f","Ġl ook","Ġwh o","Ġgu y","Ġgo od","Ġon e","c t","Ġa l","a b","Ġth an","Ġse e","Ġthe y","o p","Ġh er","c e","Ġw ould","i e","Ġw or","Ġan y","a m","ar t","e ll","ou r","Ġme an","Ġco me","Ġj o","Ġno w","ac k","m m","u n","Ġgo ing","e re","Ġs ay","i me","au se","t er","Ġwh y","Ġa s","Ġr o","in d","Ġthan k","Ġl et","b e","re at","ic h","ic e","c ause","Ġs a","i ve","Ġhi m","Ġy es","Ġp h","Ġgo d","m p","Ġa m","k ing","f f","in e","Ġt ime","es s","Ġe very","Ġs or","Ġth ing","g e","Ġh o","at e","u r","Ġo r","it t","Ġc ould","Ġe x","Ġguy s","Ġt ell","Ġwh en","' ll","k now","en t","i g","Ġg reat","? !","c k","ro m","i l","Ġsor ry","a in","Ġb ack","Ġt al","Ġb o","Ġm an","Ġof f","Ġw a","! !","th er","Ġwe re","Ġbe cause","w n","a me","u l","u s","Ġthe n","Ġw ill","ac h","e p","e nd","on g","Ġsh ould","Ġto o","Ġm ake","Ġne ed","e y","o se","itt le","Ġf rom","Ġs p","Ġl ittle","a st","Ġp ro","a re","Ġlo ve","ou nd","Ġm on","Ġt ake","Ġm ay","Ġdid n","Ġu s","er s","Ġf e","r a","Ġdo es","Ġha d","Ġc l","Ġro ss","Ġc all","ou s","i m","Ġha pp","Ġp e","Ġwa it","Ġm ich","Ġsome thing","q u","Ġ \"","a el","ea r","Ġmich ael","Ġp re","Ġh u","v ing","Ġt w","od y","Ġb y","' ve","Ġw ay","Ġbe en","o re","Ġ ke","m b","ar d","Ġ our","Ġa g","at ion","w ay","Ġo ver","Ġwor k","Ġa ct","Ġm u","Ġthe m","ou ght","op le","Ġr ach","Ġc on","ri end","Ġpe ople","Ġs c","b ody","ve n","a p","Ġjo ey","Ġdo ing","o l","Ġwh ere","ic k","o t","ac e","ea se","Ġdo wn","Ġst u","ou gh","Ġmay be","Ġu m","Ġa h","Ġ very","Ġd e","d ay","Ġh is","a g","e e","Ġt r","Ġsa id","b le","i st","Ġfe el","i f","Ġb u","l er","Ġpl ease","Ġmu ch","Ġ v","Ġmo re","ic a","Ġd ay","e st","Ġne ver","Ġha s","Ġtw o","Ġd w","Ġin t","Ġsu re","Ġdw ight","l f","Ġg ive","i es","re d","Ġ qu","h er","u ally","me nt","Ġm ar","Ġb ig","Ġf un","Ġb r","Ġp art","ke d","Ġne w","Ġtal k","Ġbe t","Ġth ought","on d","and ler","Ġ '","t y","Ġw ow","Ġch andler","Ġk ind","t ing","re e","oo m","o e","Ġb ab","Ġhapp en","Ġe ven","Ġa r","se d","ad y","Ġact ually","Ġhe ll","o m","w e","e ct","Ġli st","an na","g et","Ġf riend","Ġd i","l ie","r ight","one y","nd er","Ġrach el","Ġthank s","u re","id e","Ġmon ica","Ġj im","Ġb l","Ġf ir","Ġp o","Ġag ain","ac t","Ġw anna","l p","' d","Ġn ice","Ġal right","Ġ en","Ġl ea","o h","or t","Ġph oe","Ġfir st","Ġf ine","Ġp ut","Ġg r","Ġu mm","Ġt ry","oo l","- -","Ġp am","Ġco mp","Ġst ill","Ġyea r","h h","Ġthe se","Ġphoe be","i p","is h","Ġlo t","Ġst op","mb er","Ġany thing","d d","Ġbe lie","Ġbab y","Ġlist en","Ġo ther","is s","Ġse c","i ous","an g","Ġhe lp","Ġbelie ve","Ġd u","Ġn ight","Ġm ad","Ġu n","ut e","Ġi d","n ing","o me","t a","w h","Ġm in","Ġst art","Ġhu h","âĢ Ķ","Ġl e","Ġg ir","Ġth ose","it y","Ġe ver","i z","Ġon ly","Ġk id","s h","Ġn ame","Ġpl ay","¿ ½","ï ¿½","Ġdoes n","Ġl ast","at ch","a ge","ab le","r ow","Ġw r","Ġch e","Ġc ar","Ġstu ff","Ġu nder","Ġthing s","Ġf l","Ġint o","it e","Ġh and","Ġd r","Ġbet ter","a k","el y","Ġhell o","Ġa f","Ġpre t","u e","se lf","ri ed","is e","an ce","Ġgu ess","f ore","as s","a king","Ġ ...","Ġco m","n y","at er","Ġbe fore","Ġme et","Ġjo b","Ġtal king","Ġsh ow","Ġs m","Ġre al","Ġc ou","ir d","Ġto day","Ġno thing","Ġid ea","Ġb ad","Ġha r","Ġke ep","Ġgot ta","p t","Ġ ea","Ġs er","a v","f e","Ġto ld","a h","Ġwant ed","Ġc are","Ġl ong","Ġr oom","Ġar ound","n e","Ġp er","Ġmad e","Ġpl ace","Ġsome one","get her","a ir","Ġe l","Ġgir l","t s","Ġget ting","Ġto gether","ur n","Ġa w","Ġth ree","Ġoff ice","Ġf i","Ġy a","Ġevery thing","Ġb re","Ġex c","Ġre me","Ġevery body","Ġpart y","Ġb us","Ġt on","Ġbe st","Ġevery one","Ġpret ty","Ġf ind","ea l","Ġ .","Ġhe ar","Ġaf ter","f t","oo d","at h","Ġs we","x t","Ġha ving","Ġhar d","b y","b s","Ġp r","ers on","Ġsec ond",". \"","Ġho me","Ġand y","way s","Ġreme mber","Ġa c","Ġwh ich","u p","Ġex p","Ġal ways","Ġli fe","Ġas k","c i","Ġc ool","Ġi mp","Ġf r","s p","Ġc ra","Ġwe e","Ġa pp","Ġsu pp","Ġwho a","Ġp erson","ea d","Ġ 1","Ġhe ad","Ġw atch","i le","Ġwe nt","Ġh oney","Ġo ld","Ġel se","Ġs ound","ll y","Ġhapp y","Ġo p","Ġo oh","Ġthink ing","m an","u d","re ss","Ġton ight","m s","er t","Ġwr ong","o g","i ld","Ġne xt","Ġa p","Ġcom ing","l es","Ġis n","Ġst ay","Ġqu est","Ġbe ing","Ġw on","ou se","Ġm oney","f ul","Ġm ight","Ġyear s","m or","Ġquest ion","Ġli ve","Ġser ious","s o","Ġs al","Ġthe ir","Ġbo y","Ġd is","i ly","u se","Ġhappen ed","om an","a il","Ġd es","Ġto t","Ġre l","Ġa way","Ġm i","n er","at ing","Ġs ch","ose d","Ġ âĢ","Ġdon e","Ġpro ble","m o","Ġpl an","Ġa no","Ġho t","u ck","Ġw oman","Ġwho le","ab ly","Ġlea ve","v ie","Ġd ad","Ġre ady","in ess","Ġm r","Ġwe ird","Ġoh h","z y","ar y","Ġby e","Ġano ther","0 0","Ġa d","in t","Ġle ft","v in","Ġsay ing","Ġmar ried","y ou","un ch","Ġfun ny","Ġfriend s","Ġse x","Ġtry ing","Ġb ro","Ġu se","o s","Ġswe et","Ġg ame","Ġc our","i an","Ġ er","Ġw al","Ġmo ve","Ġkind a","Ġbre ak","Ġwas n","Ġpro b","ĠâĢ ĺ","Ġprob ably","Ġche ck","Ġt urn","Ġm or","st and","Ġp ic","ap er","Ġo wn","Ġdi ff","Ġth r","Ġmo m","Ġde c","Ġh our","Ġtot ally","at her","Ġan g","Ġn u","Ġa ss","Ġb it","Ġbus iness","p e","Ġe nd","Ġlook ing","Ġho ld","Ġthr ough","p id","Ġs le","Ġstu pid","Ġj an","Ġch ar","Ġunder stand","a z","Ġwould n","dd ing","Ġmin ute","re ady","e m","Ġal ready","Ġ ear",".. ..","Ġs i","Ġh op","us h","Ġg l","Ġcall ed","Ġm at","Ġm ind","Ġp aper","Ġs l","Ġen ough","Ġs w","Ġwe dding","Ġcra zy","Ġy et","Ġm iss","Ġt ea","Ġph one","Ġproble m","a ve","Ġb ea","Ġsa me","at ed","Ġs it","Ġd ate","Ġexc use","Ġd eal","u m","Ġc or","Ġf ive","Ġf in","or y","Ġwee k","Ġsupp osed","Ġt er","Ġr un","Ġper f","c ome","s c","Ġu sed","Ġal so","Ġp ick","Ġwe ar","Ġbr ing","Ġe at","Ġcour se","Ġdiff ere","p le","Ġ 2","Ġd in","an y","Ġe m","a se","s y","ee bs","Ġwant s","a a","d ing","Ġph eebs","Ġt e","Ġc r","Ġlook s","Ġcon t","Ġmor ning","u h","p h","an k","Ġop en","o y","in ce","art ment","e ver","Ġp u","Ġre ad","Ġany one","Ġsa w","Ġmo st","Ġc ame","Ġsu r","Ġm ust","Ġsome body","Ġat t","Ġph y","iz e","as h","nt s","Ġl ater","ri st","d e","Ġw in","it ion","le y","Ġac c","Ġf am","ke t","an ge","el a","ir th","Ġwor d","Ġcomp any","i a","Ġf re","Ġhe ard","Ġbo th","Ġtr ue","Ġhi gh","g er","Ġb irth","Ġf our","ig n","Ġhave n","Ġl au","Ġin s","Ġke vin","Ġea ch","Ġ -","Ġs et","Ġsal es","Ġto mor","Ġf ace","Ġe y","Ġs ince","Ġwh ile","Ġr y","Ġtomor row","Ġd ar","an c","Ġsu ch","t ime","ce pt","Ġt ri","ar s","Ġbu y","re am","Ġr u","Ġmean s","ing s","r ant","or d","Ġmat ter","se s","Ġco mm","Ġf ound","Ġp ay","Ġse en","Ġsound s","Ġsle ep","Ġk ill","Ġry an","m ore","Ġh ouse","Ġw ond","Ġmon th","Ġm aking","Ġdiffere nt","i ble","Ġl uck","Ġman y","n ce","Ġex act","Ġang ela","r oom","Ġh ate","Ġre c","Ġre st","Ġsay s","Ġsp e","i re","Ġde f","l in","Ġw ish","Ġk ne","Ġmy self","Ġd am","as on","Ġch rist","Ġcou ple","Ġin v","ver s","ith er","Ġany way","Ġmake s","Ġh mm","Ġf o","if e","a x","Ġp rom","Ġdo ll","ere d","Ġcl ose","Ġfi re","Ġd ri","en se","Ġco ff","Ġwond er","t ure","Ġbea ut","Ġk iss","Ġyour self","d y","ll is","Ġo sc","Ġp ar","Ġu nt","Ġst r","wh at","Ġdo g","Ġin ter","ri ble","Ġkid ding","Ġosc ar","i er","t e","Ġb ar","en ce","Ġfor get","Ġphy llis","Ġcoff ee","Ġh ang","ut es","Ġwor ld","d er","i ving","l ess","Ġh ur","Ġany more","Ġnu mber","Ġperf ect","Ġo b","Ġjo ke","ck s","Ġimp ort","Ġkne w","Ġam az","Ġbo ss","p er","Ġbe d","Ġme ss","Ġdin ner","Ġt aking","re w","Ġtoo k","Ġmin utes","Ġh it","ic al","ion s","Ġimport ant","ci al","Ġkid s","Ġap artment","Ġbirth day","sh ip","Ġamaz ing","Ġt en","Ġc at","Ġf ood","g g","on t","it ed","if ul","Ġf ig","Ġwe l","ic ke","Ġmo vie","Ġpo int","Ġdr ink","m as","Ġth row","ere st","Ġm ine","Ġon ce","Ġst an","Ġsi x","Ġbeaut iful","Ġd av","it ch","Ġexact ly","ct or","Ġcould n","ist er","Ġcomp l","Ġwal k","Ġhop e","Ġwel come","or k","Ġchrist mas","s ol","Ġc ut","Ġl ate","Ġin c","no t","Ġst and","ation s","Ġunt il","p r","Ġg ave","Ġl ear","ot t","Ġth ough","Ġj u","Ġre ason","pp ed","Ġstan ley","h mm","Ġc ute","Ġint erest","Ġcon f","Ġdav id","Ġ Ġ","Ġb ook","Ġs ing","Ġha lf","i ent","Ġm m","on s","Ġget s","Ġer in","w er","ve s","ag er","ant s","Ġpic ture","d u","Ġ 3","Ġf act","Ġwor ry","ke y","Ġpre se","Ġsch ool","or m","Ġbe n","Ġwith out","Ġsome time","ome n","Ġo w","Ġha ir","Ġb ath","Ġs me","Ġs ign","Ġmeet ing","Ġl a","en s","Ġtell ing","sol ut","Ġf av","oo t","Ġbo x","Ġw omen","Ġwor king","ou ch","Ġf ather","ow n","Ġtime s","Ġmi ke","s id","Ġw ife","Ġto by","Ġch ild","h ey","i b","re t","Ġre g","Ġdam n","h uh","l t","st er","Ġcome s","Ġag o","ake d","Ġstart ed","Ġbro ke","Ġfam ily","Ġdef in","an s","am p","ol og","re n","Ġl ine","Ġf ar","ry l","au ght","Ġl unch","or s","Ġan s","Ġsc ott","Ġserious ly","w ard","Ġp are","a le","ou nt","Ġwhat ever","Ġch ange","Ġany body","!! !","or n","Ġr a","mm a","Ġman ager","Ġdar ryl","Ġs k","Ġgon e","ff lin","Ġw all","Ġme t","Ġdo ctor","ro ss","Ġe ither","th at","Ġknow s","Ġlear n","Ġm is","ic ally","Ġch o","Ġdoll ars","Ġday s","Ġdu nder","Ġhand s","by e","ea k","Ġro b","Ġcou nt","Ġst ory","Ġlo st","Ġsur pr","Ġy ep","Ġc le","Ġc ook","Ġsh o","Ġfor g","pp ing","Ġhour s","solut ely","Ġ z","Ġg re","Ġf u","Ġf ree","Ġno body","Ġhe art","Ġab solutely","p l","u al","Ġc ard","it ely","Ġare n","Ġas ked","Ġea sy","at es","Ġrel ation","Ġp en","Ġrelation ship","s sed","Ġt able","Ġi m","ve d","Ġdo or","Ġw ar","Ġdefin itely","Ġd ead","Ġr ing","Ġl ight","Ġah h","c ess","l ing","Ġt ouch","Ġd el","Ġgo es","Ġal one","itt ing","Ġgr and","Ġb all","Ġe mma","Ġdis c","f ort","Ġb ag","Ġmo ving","Ġcl ass","Ġdu de","Ġsm all","Ġsme ll","Ġfav or","Ġc e","Ġno pe","Ġco ll","Ġsometime s","b all","g n","y ing","Ġm id","Ġu gh","Ġfe w","Ġnew s","Ġans wer","Ġb oo","Ġse ll","Ġbu ild","Ġpare nts","o ck","p s","Ġg ay","Ġit s","f riend","Ġ $","Ġs ister","Ġm mm","Ġp ri","Ġin st","Ġke y","mo st","Ġg if","Ġsh ut","ow er","Ġcan not","Ġuh h","Ġcl ear","Ġgl ad","Ġter rible","b r","Ġh or","Ġd ep","Ġin f","un k","Ġlea st","air s","! \"","Ġ ve","Ġw ater","re ct","Ġc ry","er g","Ġpre gn","lf riend","b b","Ġ 4","Ġme n","Ġmo ther","ge st","Ġc ause","Ġre sp","Ġch ance","Ġbut t","Ġen g","rant on","Ġbath room","r act","Ġb as","Ġr id","Ġsc ranton","h e","Ġi nd","Ġr ich","ic ul","Ġshould n","n ess","r at","Ġ 5","al s","Ġex t","are d","Ġcle an","h a","v ious","ad e","Ġcl ient","wh ere","Ġwear ing",". ï¿½","t t","Ġd ro","Ġd ie","it ing","Ġch ang","Ġmo ment","Ġsp end","i v","Ġc up","Ġl ess","Ġbe h","Ġse at","Ġbo b","Ġneed s","red ith","Ġt u","ir t","Ġal most","Ġgir lfriend","Ġmi fflin","ll ow","Ġre s","Ġspe cial","? \"","Ġto p","Ġf ast","Ġe ight","wh o","vie w","w w","Ġs ick","Ġl ady","Ġs ir","Ġs ide","Ġp ass","Ġme redith","Ġso on","et h","ion al","Ġp ack","it al","Ġuh m","Ġexp l","Ġmonth s","Ġg en","Ġqu ick","Ġlau gh","Ġprese nt","Ġf ight","Ġp ants","Ġsh ot","th e","Ġhur t","Ġob vious","in s","Ġf all","Ġp ie","nd red","we en","-- -","er n","Ġp ain","ut h","Ġco p","Ġlo se","Ġdi v","Ġplay ing","Ġs ong","Ġm ag","Ġhu ndred","Ġbet ween","Ġc al","me d","Ġor der","Ġke lly","Ġboy friend","Ġdes k","c ked","i al","Ġs and","at ely","Ġfin ish","Ġs ent","Ġc ap","Ġsee ms","Ġsm o","s ide","Ġt est","Ġp et","Ġmar ry","r u","Ġd ress","Ġp ush","Ġn aked","Ġre p","a id","d o","d le","j oy","Ġt ur","at or","Ġd ra","Ġc ase","Ġen joy","Ġey es","c ed","Ġf air","Ġli ving","Ġgirl s","Ġpregn ant","h ouse","Ġ ent","ve nt","me n","Ġst o","Ġse nd","Ġsee ing","Ġcall ing","Ġa ir","no r","es ome","Ġe mp","Ġyour s","Ġprom ise","Ġs ense","Ġg iving","Ġco l","Ġv al","Ġpo ss","Ġfr ont","Ġfig ure","Ġgif t","l ed","Ġs on","Ġd ream","Ġp ur","ke nd","Ġan n","ell er","Ġtea ch","c y","i ke","Ġ ï¿½","ea s","iz z","Ġwee kend","Ġem ily","Ġsurpr ise","g s","h o","j ect","Ġm il","Ġc ake","Ġst re","ap e","hh h","Ġsec ret","Ġsm art","Ġi ce","ou ble","Ġc ity","Ġno r","Ġro ll","ent y","t en","Ġ es","Ġm ist","Ġc ong","Ġl oo","Ġco st","Ġlive s","Ġrel ax","Ġdri ve","Ġd ance","Ġp ast","Ġsu per","Ġsp eak","Ġcl o","Ġfeel ing","a pp","ve l","Ġst ore","Ġbu dd","Ġbr ought","r ute","u nt","Ġm us","Ġre f","Ġgu n","Ġtal ked","v ice","Ġt ra","Ġp izz","is ed","Ġch air","i ot","m in","m on","an e","Ġl ad","Ġk n","un g","Ġpro f","Ġaw esome","Ġgre en","c l","ou d","Ġb ing","et s","ic t","Ġbl ack","Ġpu ll","c es","Ġt v","Ġa ud","Ġyou n","Ġd ating","is ion","Ġwork s","Ġbab ies","Ġbro ther","Ġass ist","Ġe le","Ġst ar","Ġse ven","Ġwait ing","Ġcar ol","Ġbuild ing","re ssed","an ch","oo h","ir ty","Ġey e","Ġmist ake","Ġcong rat","Ġc reat","Ġst ep","Ġsee m","Ġas king","Ġgr ab","Ġap olog","u me","ou p","Ġs y","Ġm ach","Ġf ore","Ġid iot","Ġy ork","er v","Ġp ol","Ġre t","Ġout side","Ġtr ust","Ġun c","Ġfi red","Ġexc ited","Ġc re","Ġun less","Ġtea m","Ġweek s","Ġim ag","Ġobvious ly","Ġdiv or","Ġr oo","id ent","Ġst e","Ġsor t","Ġfr ank","Ġwatch ing","Ġsweet ie","du ct","Ġfavor ite","g in","i ence","u red","Ġre m","ent ion","Ġhu ge","Ġcomp ut","Ġexp ect","Ġrich ard","u b","Ġb ody","or ate","Ġab le","one st","Ġwere n","Ġhappen s","Ġperson al","Ġbudd y","' .","Ġme ant","se t","Ġho sp","Ġinterest ing","fort able","Ġg eller","Ġst ri","Ġst ra","Ġch ee","Ġfl o","Ġforg ot","c el","Ġw ind","Ġre d","au lt","ick s","Ġbr anch","Ġwr ite","Ġquestion s","Ġcompl et","Ġassist ant","Ġhosp ital","k ay","Ġh onest","Ġjo e","Ġgr ow","Ġcongrat ul","Ġf if","Ġho lly","Ġex cept","Ġlea ving","Ġapp re","Ġrob ert","b and","w a","Ġg ent","Ġe mb","out h","el t","Ġal ong","Ġwor th","Ġmon key","Ġah ead","Ġsch rute","g r","Ġt ried","Ġb or","Ġg ab","Ġf at","Ġe v","ce ll","Ġwor st","Ġsa ve","iz ed","Ġcor p","Ġfin ally","Ġatt ention","Ġfo llow","Ġmid dle","who a","Ġappre ci","\" .","c ol","Ġa dd","Ġs n","Ġs at","en e","Ġk no","Ġthink s","ag es","Ġaud ition","i o","Ġb ill","Ġj ud","Ġsu ck","ere nce","Ġfeel s","Ġdec id","Ġmis sed","Ġcoll e","Ġexpl ain","Ġstre et","Ġpizz a","Ġ ed","Ġf ault","Ġno ne","Ġso l","id ay","Ġco ld","us band","Ġmar ri","Ġext ra","Ġclo th","z e","Ġ ,","Ġb ra","Ġlo s","Ġword s","Ġra ise","Ġmach ine","Ġs ad","Ġs itting","at t","Ġf oot","Ġan im","Ġhu man","est er","Ġgent le","b l","Ġw o","Ġb ought","Ġagain st","Ġfu ll","c ri","Ġh at","Ġm ill","se l","ar r","Ġe h","Ġwor ked","mm y","Ġbo tt","Ġpro p","Ġacc ount","Ġbeh ind","Ġent ire","Ġcolle ge","e en","m it","Ġa ff","Ġs qu","Ġoh hh","anc y","Ġlad ies","Ġcongratul ations","i red","m al","Ġt icke","Ġy ell","in y","Ġp ower","Ġwor se","Ġcon c","Ġcon vers","Ġpo s","Ġins ide","icke n","Ġju mp","Ġinf orm","Ġcorp orate","Ġcloth es","b er","w ich","Ġt ough","Ġh usband","Ġb ur","st airs","Ġli e","Ġlike d","Ġam er","il ity","Ġqu it","Ġfi x","Ġmess age","Ġappreci ate","Ġticke ts","Ġm a","at ive","Ġb reat","Ġc atch","Ġc ert","Ġp ot","Ġhe al","nt ly","ter s","Ġoff er","Ġar t","Ġlea d","Ġjan ice","Ġear ly","Ġinter view","Ġgab e","Ġb ird","Ġwh oo","it s","ut s","ro l","Ġsc rew","Ġsand wich","Ġstra ight","b o","h ow","re house","Ġc ab","Ġf ell","Ġj ul","Ġup set","Ġsu g","Ġmarri age","u ation","Ġth ous","Ġc ust","Ġf ut","Ġch icken","Ġwa rehouse","Ġfeel ings","Ġdi ed","Ġfre ak","Ġstr ong","Ġthous and","in a","Ġb unch","Ġf elt","pp er","ul es","mb ers","Ġmar k","Ġhappen ing","Ġdes cri","Ġtri p","Ġinform ation","t o","Ġd ist","Ġf ill","Ġj ack","el s","ant a","Ġlike s","ul ar","ra id","Ġcon sid","ag ed","Ġtr uth","Ġpr in","Ġprof ess","Ġconvers ation","Ġ --","Ġt ast","Ġm ass","Ġb ear","on es","ar k","Ġn a","ur ing","Ġtake s","Ġbu cks","Ġv o","Ġstart ing","Ġdr unk","Ġwonder ful","Ġmus ic","Ġcomput er","Ġdecid ed","c o","g iving","i ed","Ġt reat","Ġst ick","Ġex cell","Ġpre ss","Ġaf raid","ud e","Ġcor rect","Ġwall ace","Ġyoun g","Ġchee se","c king","Ġy ester","Ġh ung","in es","Ġdo in","Ġn ine","au rant","Ġoff ic","Ġtw enty","Ġrest aurant","Ġla w","aught er","Ġt y","Ġi r","Ġs anta","Ġto wn","Ġf il","is on","Ġha ll","Ġme nt","oo oo","ant ic","Ġpl us","Ġbl ow","Ġidea s","Ġru in","Ġfig ured","Ġinst ead","Ġclient s","Ġfut ure","Ġexcell ent","Ġyester day","b ut","l and","Ġr ules","are ntly","Ġthanks giving","Ġshow er","Ġexp er","Ġpar k","Ġsho es","Ġloo ked","Ġgo sh","ic s","Ġsh h","Ġst eal","Ġreal ize","Ġinc red","Ġconf erence","Ġchild ren","wa it","b el","e w","i gh","l a","Ġt ape","Ġd anc","Ġwh ite","ea h","Ġr ide","Ġsu b","Ġal th","Ġpro duct","Ġlove d","Ġsc ared","Ġbus y","Ġcont rol","Ġwonder ing","Ġimag ine","l oy","Ġ 8","Ġf ing","Ġha lp","el f","ul t","Ġag ree","Ġapp arently","Ġdad dy","Ġmr s","Ġbit ch","Ġsing le",". '","i or","t ain","Ġme d","en cy","le br","Ġsecond s","Ġce lebr","icul ous","Ġposs ible","Ġemb arr","Ġcust om","c c","Ġm er","Ġb a","er a","an a","Ġwh a","am a","Ġhand le","Ġdec ision","Ġsi mp","Ġresp ect","Ġcert ain","Ġhalp ert","m a","n ight","Ġth ird","Ġl u","Ġu r","Ġbe at","ro p","Ġgood bye","Ġro m","Ġro y","Ġlove s","Ġcl os","Ġpic ked","Ġpri v","Ġrid iculous","Ġs ab","Ġo pp","ro te","Ġbo at","ast ic","Ġv ide","Ġbl ue","Ġhor rible","n ed","s u","Ġch oo","Ġsc ene","Ġle g","Ġrun ning","Ġ2 0","Ġcal m","Ġfore ver","sel ves","Ġalth ough","' ?","Ġw rote","Ġh oo","Ġf ant","as ses","Ġsh are","Ġsp o","f er","y eah","Ġ 9","Ġc am","Ġco ver","Ġall ow","Ġfe et","Ġact or","bb ian","f u","it ive","Ġj er","ic es","Ġsp ent","Ġpe e","Ġtr ain","Ġbr ain","mo ther","Ġturn s","Ġchar ge","Ġtri bbian","Ġflo or","m ing","Ġt iny","Ġs elf","Ġm outh","Ġg ra","Ġd ressed","Ġd aughter","st e","as sed","ac es","pp y","ie st","ie ld","Ġjo in","?! !","Ġcall s","Ġsleep ing","Ġmil k","Ġcomplet ely","Ġheal th","Ġy ay","Ġb ow","Ġc ent","Ġme mor","Ġk itch","ment s","Ġbl ah","Ġpret end","Ġnu mbers","Ġm od","Ġd a","Ġf ish","Ġbe l","ic an","Ġn erv","ill y","Ġho l","Ġhu g","ath y","Ġpr act","Ġsw itch","Ġgrand mother","Ġchang ed","Ġgen er","Ġmill ion","Ġtribbian i","Ġnerv ous","m y","r ing","Ġc ur","Ġp op","Ġgo ld","Ġneed ed","Ġpre p","Ġdu mp","sh e","Ġproble ms","Ġplan s","Ġsl ow","Ġsit uation","Ġluck y","Ġcho ice","Ġcook ies","Ġkey s","Ġroo mm","Ġkitch en","i ant","l ier","m er","s on","Ġw oo","Ġw ine","Ġb ern","... ?","Ġcan dy","ch a","Ġro ck","Ġsp ace","Ġgr oup","Ġpie ce","Ġwind ow","Ġdescri be","o ve","o int","Ġp unch","Ġe st","le ep","Ġsu n","Ġtr ans","Ġbig ger","Ġpo in","ang er","Ġaw w","Ġte mp","Ġpet e","Ġemp loy","Ġconsid er","l et","z z","Ġt re","Ġs en","Ġo we","Ġb on","Ġgo in","Ġon es","Ġsh ort","Ġgot ten","Ġv is","Ġea s","Ġaw ful","Ġac cept","Ġdes er","Ġcop y","Ġapolog ize","Ġwo ah","Ġvide o","c ent","i et","Ġb at","Ġb ri","Ġb urn","is sed","Ġsh oot","th is","Ġhi st","Ġro ad","!! !!","hh hh","Ġsex y","Ġdec ide","Ġinv ited","Ġbed room","Ġinterest ed","Ġret urn","Ġjul ie","Ġvo ice","Ġrom antic","Ġa unt","Ġd an","Ġf ail","Ġp ill","Ġp ound","Ġno oo","ve st","Ġr an","Ġsh irt","Ġsu s","Ġas leep","Ġbo ard","Ġbl ood","Ġlong er","Ġ1 0","Ġsw ear","Ġread ing","Ġcry ing","bel ie","Ġa ge","Ġm ir","Ġg y","Ġl es","Ġl ying","it ies","Ġst ate","Ġch ip","Ġact ing","ee ch","Ġhop ing","Ġcho col","g o","k er","o kay","Ġm ur","Ġk ing","Ġsh all","Ġknow n","Ġus ually","Ġcl ub","Ġcou ch","Ġcra p","Ġsle pt","Ġte ch","Ġacc ident","te en","Ġhang ing","Ġcre ed","c us","n ch","Ġ 7","Ġs il","Ġb and","Ġb ase","Ġl ond","Ġbe come","Ġco de","Ġne ither","ri es","mm er","Ġbo ther","Ġsp eech","Ġtake n","Ġtr ouble","Ġqu ite","dd en","Ġname s","Ġbre ast","00 0","Ġreg ional","Ġsmo ke","Ġnor mal","Ġrem ind","Ġlond on",", \"","! ?","h ear","u ss","Ġc ream","Ġf an","Ġf ake","Ġp at","Ġk ick","Ġin vest","Ġsu dden","Ġwor ried","il i","Ġus ing","ra p","Ġstu ck","Ġbu ff","Ġdr u","Ġac ross","Ġmove d","Ġchar ac","Ġdel i","Ġbor row","a w","t le","v ies","Ġe gg","Ġsu c","ell e","Ġjo sh","Ġsa le","Ġpo or","Ġplan e","Ġeng aged","g an","k s","n ect","ou nce","Ġc u","Ġto ast","Ġl ar","Ġl ab","Ġp aid","Ġu g","Ġho nor","Ġput ting","Ġfl ow","Ġ1 5","Ġperf orm","Ġatt ract","Ġsales man","Ġrec ord","Ġinv ol","Ġkiss ing","ens ive","Ġlearn ed","Ġkno ck","rop ri","Ġsab re","Ġhist ory","l ook","Ġt ree","Ġh ook","Ġd ouble","Ġc ir","Ġl ow","Ġme at","Ġe ff","Ġfor ward","Ġgu est","Ġor d","Ġint ro","Ġun belie","Ġpr oud","Ġimp ress","Ġplan ning","Ġwal king","Ġear lier","aa aa","Ġcr ush","Ġdro p","Ġpos ition","Ġexper ience","fu lly","Ġroomm ate","r ay","r ic","w ork","Ġt all","Ġt ired","Ġa v","Ġth irty","Ġc oo","Ġc ow","ic ked","Ġe ating","Ġmo vies","un ity","Ġph il","are n","if ic","Ġv ol","Ġcom fortable","Ġturn ed","Ġem erg","Ġinv ite","ib ly","Ġbas ically","Ġincred ible","Ġunbelie v","i pp","Ġd uring","Ġc red","Ġf ly","Ġsu cks","Ġhim self","Ġgive n","Ġgr ound","Ġlisten ing","Ġche f","Ġcare ful","Ġspe c","Ġstand ing","Ġdep artment","Ġmag ic","Ġgentle men","Ġsug gest","Ġsimp le","Ġsus an","Ġgy m","ropri ate","j ust","l ine","m i","Ġd ear","Ġl it","Ġbe gin","Ġr ain","Ġn ah","ake s","Ġph ot","Ġlove ly","Ġde ath","Ġhas n","Ġdu ck","Ġafter no","Ġ1 9","Ġins ane","gr am","Ġhol iday","\" ?","c u","at s","Ġl and","Ġf it","id ge","Ġn ear","Ġn ap","ri f","au r","Ġpro ject","Ġke pt","Ġpo st","Ġplay ed","Ġwr iting","Ġsupp ort","Ġchar lie","Ġ3 0","Ġbox es","Ġbroke n","Ġcol or","Ġchocol ate","d a","Ġd ry","an n","Ġk issed","Ġk aren","ic king","ac ked","Ġnot ice","Ġpl eas","Ġcon nect","Ġsc ore","Ġstu d","Ġde st","Ġexc iting","Ġem ail","cept ion","Ġdog s","pl ace","Ġchoo se","Ġug ly","Ġafterno on","c le","o f","y y","Ġm ail","Ġd irty","Ġc ell","Ġbe er","Ġj e","et y","ic ious","ic ated","ac y","Ġwas h","Ġmo t","Ġv an","Ġmar cel","Ġhelp s","Ġdr ake","Ġhot el","Ġcont ract","Ġinter n","Ġdra w","Ġdivor ced","Ġtast e","Ġhung ry","Ġpoin ts","Ġcharac ter","d om","g u","i vers","l ish","w ear","Ġ 6","Ġg ar","Ġd ou","Ġc ri","Ġc aught","Ġp orn","Ġj eal","Ġso ld","Ġr ather","Ġsome where","ach el","Ġsp ot","ast er","ort s","Ġcomm on","Ġbern ard","Ġjeal ous","g ed","er o","ll ie","Ġto il","Ġf ancy","Ġp a","or ies","Ġbe sid","Ġne llie","au l","ear ch","Ġdi rect","wh y","Ġname d","Ġcar ry","Ġwal ked","Ġjoke s","Ġreg ular","Ġclear ly","Ġdanc ing","Ġbesid es","c on","i pped","o ss","w ell","Ġ ..","Ġt ic","Ġt ip","Ġh ide","Ġo oo","at o","Ġb oom","Ġd et","Ġso ap","Ġre ce","al ph","ch e","Ġup stairs","il ing","Ġtw ice","Ġsc ream","Ġqu al","Ġser vice","Ġcare s","Ġbreak f","Ġforg ive","Ġlight s","Ġlaugh ing","Ġsto pped","Ġmass age","Ġment ion","Ġemerg ency","b ian","Ġt ie","Ġs ize","er y","Ġl oud","is es","Ġr alph","ust ing","Ġre ception","oo p","Ġsh ake","Ġfor m","Ġsu it","Ġpro gram","Ġv i","Ġbr own","Ġad vice","Ġgame s","Ġdiffere nce","Ġcompl ain","Ġcard s","Ġwar m","Ġ5 0","Ġval ent","Ġgun ther","Ġallow ed","Ġintro du","Ġcred it","Ġtoil et","i i","p ort","Ġh y","at ure","Ġd un","Ġc ro","Ġno se","ic y","Ġhi re","Ġpro t","im me","Ġbig gest","Ġar m","om fortable","Ġen ter","Ġcomp et","Ġdu nd","Ġstart s","ci ally","Ġpu bl","Ġatt ack","Ġfre sh","Ġpar king","Ġprese nts","Ġtu na","Ġunc omfortable","Ġanim al","Ġbreat h","Ġfing er","Ġflow ers","Ġunbeliev able","Ġbreakf ast","Ġvalent ine","b oy","d id","e es","k in","n ey","r or","re ad","Ġo pt","Ġo ooh","Ġb le","Ġb orn","Ġd anger","Ġf ear","Ġp al","Ġp aul","ea king","Ġsh ar","Ġhow ard","Ġat e","Ġal ive","Ġfe ed","Ġsc ary","Ġah hh","Ġqu art","Ġother s","age ment","Ġunder wear","Ġswe ater","Ġapp l","Ġtot al","Ġfo cus","Ġtech n","Ġsuc cess","Ġtic ket","b ed","b ack","Ġt ag","Ġw ake","Ġb ike","Ġg imme","Ġp sy","st em","Ġhe l","Ġr ound","ter y","Ġsa fe","Ġmu se","Ġbu ll","Ġfl or","Ġimp ro","Ġop er","Ġsex ual","Ġju ice","Ġsmell s","cl ock","n n","o ld","Ġs now","Ġg ross","or ge","Ġj ac","es us","ed u","id er","id es","Ġn ur","ct ion","Ġjo h","ur ity","Ġtr uck","Ġdis g","Ġchar les","Ġcount ry","Ġresp ons","Ġtur key","Ġann ounce","igh b","Ġcustom er","Ġpriv ate","Ġfant astic","Ġpound s","? ?","b ook","f ive","i en","i um","r am","u mb","Ġc a","Ġc art","Ġc ous","Ġc ross","Ġj esus","Ġk athy","id a","Ġsh op","Ġnot e","Ġne ighb","Ġex ist","ul s","ect ive","Ġgr ade","ip e","iss ion","Ġdu mb","Ġsm ile","Ġpr ison","os aur","Ġang ry","Ġear th","Ġkill ed","Ġpicture s","Ġsho pping","Ġbas ket","Ġtur ning","Ġsy stem","Ġbott le","Ġembarr ass","Ġeas ier","c ut","c ket","l ike","Ġb al","Ġp ool","Ġbe ep","Ġwho se","Ġany where","ame s","ul a","Ġcl osed","Ġche er","Ġjob s","Ġstay ing","Ġad op","Ġdiff icul","Ġbar ry","Ġsto le","Ġdivor ce","Ġev il","Ġlos ing","Ġprop ose","Ġprofess or","Ġpsy ch","Ġflor ida","h oo","p es","r r","u a","Ġt ight","in o","Ġm ac","Ġg iant","Ġto y","Ġp ea","Ġit al","Ġno n","Ġwe ight","se n","ic ed","Ġre nt","Ġre ach","Ġcan cel","Ġco at","Ġsp eaking","ap s","ee z","Ġgr own","Ġreal ized","Ġaw ard","Ġsal ad","Ġboy s","pe cially","Ġend ed","Ġhold ing","Ġphy s","Ġlau ren","Ġcook ie","ru pt","Ġes pecially","Ġele ct","Ġsat ur","Ġcam era","Ġjer k","Ġles bian","Ġpubl ic","' ,","h ood","Ġ ver","Ġy up","re st","Ġg as","Ġto m","Ġp an","Ġso ft","Ġr ush","Ġe w","Ġn uts","Ġre view","Ġare a","Ġho le","itt en","Ġhu m","ot e","Ġde ep","Ġsec urity","Ġper cent","Ġfr iday","Ġlive d","Ġcomm itt","Ġdrink ing","Ġbook s","Ġdisc uss","Ġpur se","Ġfif ty","Ġjud ge","Ġanim als","Ġdeser ve","Ġsatur day","h i","k ward","t on","y le","Ġw ild","Ġs ens","Ġb are","Ġl ay","Ġf ur","Ġf ash","or ity","se nt","Ġr ad","Ġsh hh","am b","Ġlet ter","Ġho st","ach e","Ġmon day","Ġway s","Ġdown stairs","Ġqu iet","Ġbl ind","Ġle vel","Ġkeep ing","Ġaw kward","Ġbea ch","Ġdin osaur","Ġpay ing","Ġprom ised","Ġdri ving","gg ing","Ġinc l","Ġsk in","Ġdel icious","Ġpain t","Ġamer ica","Ġopp ort","Ġsen ator","Ġjoh n","g es","i ff","l o","s ses","w ise","Ġ eth","ou l","ou n","Ġm art","Ġb ond","Ġg e","Ġf ool","Ġf ax","is m","is ing","Ġj ess","th ey","Ġan t","Ġpl ate","Ġsp l","Ġhad n","Ġwait ress","Ġlot s","Ġhelp ing","Ġhear ing","Ġmiss ing","Ġcor n","Ġfam ous","ib ility","Ġty pe","Ġpleas ure","Ġdest ro","Ġdifficul t","b out","e f","g ue","j o","k a","m ail","Ġd en","Ġl ame","Ġwh e","ic ation","ver se","Ġli ed","Ġfor ce","el ve","na me","Ġch ina","Ġmo se","am s","Ġcon st","Ġsc ar","Ġde v","iz ing","Ġhead s","Ġold er","Ġgl asses","Ġ2 5","Ġte xt","Ġsing ing","Ġdamn it","Ġpack er","Ġbreat he","Ġmer ry","Ġbuff ay","Ġord ered","Ġintrodu ce","Ġdisg usting","Ġadop t","Ġfash ion","3 0","d on","u mp","Ġs au","Ġs oup","re en","Ġm atch","Ġb ang","Ġb achel","Ġc ere","Ġf ield","ar a","Ġre qu","Ġsh ip","Ġst ink","Ġch amp","Ġher o","il s","il t","Ġsp in","Ġtw elve","Ġag ent","Ġsc are","Ġtr ick","if ied","Ġgive s","Ġmar ket","Ġbre aking","Ġbring ing","Ġcr ack","Ġspe ed","fort un","Ġce ce","Ġind ian","Ġseat s","Ġpresent ation","Ġfinish ed","Ġcost ume","Ġmuse um","* *","c al","t in","v an","Ġ &","Ġi g","Ġo ri","Ġo cc","Ġd ying","Ġc ast","er m","Ġto r","ve red","Ġbe c","Ġso o","Ġne ck","Ġout ta","ur s","Ġpro cess","Ġthought s","ang el","Ġun fortun","Ġle gs","Ġlau nd","Ġdar k","Ġhmm m","Ġsell ing","Ġpol ice","Ġfif teen","Ġvis it","Ġinvol ved","Ġprot ect","Ġjac ket","Ġopport unity","g ing","p o","r on","u ff","Ġth rew","Ġm all","Ġd ut","Ġc ig","Ġl as","Ġno o","Ġj ames","Ġin app","Ġe ve","id s","le v","th ere","ow s","Ġsa ving","Ġwhen ever","Ġwa ste","Ġtr ad","Ġv ict","Ġad v","Ġte eth","Ġcont est","Ġfre aked","anc es","Ġhur ry","Ġcoll ect","Ġchang ing","Ġless on","Ġaccount ing","Ġma j","Ġruin ed","Ġbow l","oss ible","e x","f or","re me","re ts","Ġm ain","Ġb un","Ġc as","Ġc ash","Ġp ale","Ġwe t","Ġu lt","Ġr ac","et her","ar m","Ġe ww","id ence","le x","Ġn ail","th in","Ġknow ing","Ġhi red","Ġpl aces","Ġwho ever","Ġsa f","Ġgreat est","Ġtal ent","Ġpro v","qu e","Ġcon s","Ġbr ide","Ġbl ame","âĢĶ âĢĶ","Ġche cked","Ġcou p","Ġkeep s","Ġexp ensive","Ġru le","Ġreason s","sid ent","erg y","Ġcup s","Ġemp ty","Ġstri pper","Ġadd ress","Ġbott om","Ġyell ing","Ġscrew ed","bo ard","Ġprin cess","Ġpress ure","Ġdou b","Ġquart er","Ġtechn ically","Ġcous in","Ġdestro y","b age","c an","e ed","i pping","Ġi ll","Ġy e","Ġs ea","Ġh id","Ġd ig","Ġf a","Ġf ro","Ġr ab","Ġe qu","Ġn ick","im ate","Ġhu nt","Ġbu mp","Ġpart ies","Ġbl ond","Ġhard er","Ġimp ossible","Ġdis app","ail able","Ġmi x","ont olog","Ġfar m","Ġsmo king","Ġair port","Ġbor ing","Ġlead s","Ġlaw y","Ġcelebr ate","Ġcertain ly","Ġdan ny","Ġdeli very","Ġstud ent","Ġdund ies","Ġjess ica","Ġlaund ry","c ing","g th","s k","s ing","w ord","Ġ <","Ġ x","Ġt our","Ġs ar","Ġh m","re ed","Ġb an","Ġb ank","Ġd are","Ġc amp","Ġp itch","en ter","ar ious","Ġsh oe","Ġnot iced","ro ll","Ġmo on","Ġpl enty","Ġsee med","Ġmean ing","ur al","ent ly","Ġpro ve","Ġcl ark","ation al","Ġtr ash","Ġbl o","Ġphoe bs","Ġbre ad","Ġpr ice","Ġ1 2","Ġgl ass","Ġfin al","Ġter rif","Ġem ot","Ġcont in","Ġins ur","ire s","Ġhur ts","Ġthrow ing","Ġcompl icated","Ġmm hmm","Ġpen n","Ġspend ing","Ġbob by","Ġquick ly","Ġcap tain","Ġrep ort","Ġhonest ly","Ġprep ared","mi fflin","Ġlit er","angel o","Ġinapp ropriate","h y","h aps","o ff","p ar","u ro","Ġ :","Ġt it","Ġs illy","Ġm s","Ġl on","Ġl ately","Ġp i","Ġp ort","ke n","Ġj am","Ġr out","Ġe vent","Ġn ipp","Ġco vered","Ġne g","ri ll","Ġlo ck","ab eth","Ġmon a","Ġtw ins","ap ed","Ġde angelo","Ġbu d","Ġv ac","iz abeth","Ġper haps","Ġel izabeth","Ġfi le","Ġfr idge","sp ect","Ġhoney mo","Ġap art","Ġsweet hear","Ġwin ner","Ġmess ages","Ġdrink s","Ġsurpr ised","Ġgrand ma","Ġamer ican","Ġfill ed","Ġprofess ional","Ġembarr assed","Ġba sed","Ġclos er","g y","g as","i us","l ight","Ġt aught","Ġa in","Ġa uth","Ġth urs","Ġh ates","Ġm ater","Ġm aid","Ġc enter","Ġwh ether","Ġp in","Ġp ow","Ġp age","Ġp ath","Ġp assed","Ġhe ck","me nd","Ġand rew","Ġu nd","Ġis s","all en","Ġst om","Ġget tin","Ġch ose","Ġch ick","Ġch allen","Ġam ount","ain s","Ġsp orts","Ġag reed","Ġeven ing","Ġsec rets","Ġfl ight","Ġad mit","Ġpic king","Ġchar ity","Ġ2 00","Ġz ero","Ġmid night","Ġboo bs","Ġhor se","Ġdro pped","Ġmag az","Ġposs ibly","Ġes c","Ġunc le","Ġcre ep","Ġfoot ball","Ġconc ern","Ġpract ice","Ġtrans fer","Ġembarrass ing","Ġital ian","Ġbare ly","Ġpale ontolog","Ġinsur ance","Ġsweethear t","Ġstom ach","\" ,","a ff","e er","l van","p ose","t ch","u g","Ġt ill","Ġt im","Ġt ax","Ġy um","Ġm ister","Ġd ates","Ġthe me","Ġc row","er cial","Ġto w","Ġl ap","Ġno ise","Ġhe at","Ġbe ne","Ġme ssed","Ġis land","et ic","Ġof ten","Ġli f","Ġfor t","Ġbut ter","op s","ime nt","Ġlet ting","Ġor gan","Ġsp ir","Ġpre sident","Ġsc r","ist ers","Ġmar y","Ġdu e","Ġun i","Ġwr itten","Ġcar p","Ġcare er","Ġaw ww","Ġapp ro","Ġcor ner","sy lvan","aa a","Ġcr u","Ġfre nch","Ġcomm ercial","Ġprom ot","Ġ3 00","Ġbutt on","Ġclean ing","Ġchang es","Ġtu x","Ġann ivers","Ġteach er","Ġbird s","Ġmir ac","Ġbreast s","Ġav ailable","Ġvol unt","Ġphot o","Ġannounce ment","Ġhoneymo on","Ġthurs day","sylvan ia","b a","f it","f ather","h ere","i ally","y ear","Ġt uls","Ġh r","er al","Ġbe g","Ġbe ll","ver t","Ġst ories","Ġan no","Ġch ine","Ġhi l","Ġmo mmy","Ġlet s","itt y","Ġwill ing","Ġsp ring","ra ph","mb ered","Ġact ion","Ġsc reen","ol o","Ġop in","Ġset tle","Ġstr ang","Ġlear ning","Ġres erv","Ġpur pose","Ġcreat e","Ġaff air","Ġemploy ee","Ġperform ance","Ġattract ive","Ġgar bage","Ġdanger ous","Ġspl it","Ġwhe el","Ġcig are","Ġpenn sylvania","Ġannivers ary","Ġtuls a","Ġchine se","b ur","k y","o ver","r it","u sed","Ġth ro","Ġs na","Ġg ro","Ġd ated","Ġl ines","ea m","Ġme x","Ġin vent","Ġn ut","ut ion","as c","Ġst yle","ir ing","ir ting","Ġgot cha","Ġph ill","Ġam y","Ġex am","Ġpre fer","Ġour selves","Ġtr an","Ġen ergy","up s","Ġsupp ose","Ġ1 1","Ġdis ease","Ġcour t","Ġopen ed","Ġwin ning","Ġclose t","ward s","Ġfast er","ru ct","Ġsn ack","Ġaff ect","Ġsug ar","Ġty p","Ġfing ers","Ġclos ing","Ġhealth y","Ġjosh ua","Ġdun no","Ġpea ce","Ġcorn ell","Ġunfortun ately","? ï¿½","c er","f ord","y es","Â ł","Ġy og","Ġs eas","Ġs earch","Ġm ale","Ġg ee","Ġd ent","er ing","Ġto dd","nd a","nd y","Ġbe es","Ġr ude","es day","Ġk icked","Ġli ps","Ġst ation","Ġst ren","Ġfor ty","Ġse es","Ġch at","Ġlo b","Ġlo cked","Ġher self","un e","Ġsor ta","Ġsp read","Ġpe an","Ġcon vin","Ġtr u","Ġkind s","Ġbab e","om mend","Ġche cking","Ġfl irting","Ġreme mbered","Ġfr u","Ġapp le","Ġdes ign","Ġopen ing","Ġpu mp","Ġfre aking","Ġbuy ing","Ġrec ommend","Ġbar b","gg ed","Ġclass ic","Ġsmall er","Ġfight ing","Ġcop ier","med i","Ġmil es","Ġkn icks","Ġoffic ial","Ġfil m","Ġtrain ing","Ġgold en","Ġdump ed","Ġemploy ees","Ġsudden ly","Ġneighb or","Ġelect ric","Ġcommitt ee","Ġmart in","Ġbachel or","Ġori gin","Ġmaj or","Ġlawy er","Ġliter ally","Ġstren gth","d ie","e mp","j u","m ar","o on","r al","Ġw rap","Ġy o","Ġs isters","Ġg al","Ġg orge","Ġp un","Ġp ig","Ġp air","âĢĻ ?","Ġu t","Ġha llow","Ġme mo","Ġr is","... \"","Ġsh ame","Ġli mit","Ġch airs","Ġsu ff","Ġgood ness","Ġal ice","ag ing","Ġv ance","Ġbl ock","Ġother wise","Ġun f","Ġswe at","Ġapp oint","og raph","Ġcont act","ph one","Ġcomm it","Ġkill ing","Ġpar is","Ġperfect ly","Ġsme lly","Ġhands ome","Ġim medi","Ġgif ts","Ġ4 0","Ġsong s","Ġstar ing","Ġste ve","Ġlos er","Ġcustom ers","Ġdru gs","Ġcri me","Ġpa olo","Ġmirac le","Ġhil arious","Ġgorge ous","5 0","b ing","o id","u u","Ġt ab","Ġh ated","Ġb i","Ġb ust","Ġl in","Ġl ang","Ġwh ew",".. ...","Ġso oo","Ġso ph","se e","Ġis su","Ġn er","Ġn ic","Ġn ana","Ġst at","Ġgu it","and on","ill a","Ġsu mmer","Ġsa ved","Ġph illy","Ġtell s","Ġwa st","ap ers","ist s","if y","Ġbu m","Ġqu een","Ġpart s","Ġpart ner","Ġtalk in","Ġpo cket","Ġser ve","Ġ1 4","Ġleave s","Ġmost ly","Ġfam ili","Ġdoll ar","Ġcat s","Ġsk i","Ġrob ot","Ġboo ts","Ġpri ze","Ġeng lish","Ġext reme","Ġele v","Ġexpect ing","Ġir on","Ġlab or","Ġbegin ning","Ġintern et","Ġnur se","Ġsens itive","Ġfur ther","Ġcere mon","Ġphill ip","Ġfamili ar","a f","d les","g ress","h m","h ead","o mp","Ġt ear","Ġw ood","ou st","Ġs oul","Ġh on","Ġm c","Ġb ite","Ġg ang","Ġp or","Ġp ies","Ġwe bs","or ding","Ġbe lt","Ġj ill","Ġme l","Ġn in","Ġn at","Ġre ject","Ġse par","Ġch i","ri ger","Ġal an","Ġsa il","Ġoff ered","Ġcl im","Ġke n","Ġcon do","Ġv ir","Ġdi re","Ġshow ed","Ġpr ay","Ġapp ear","Ġop era","Ġplan ned","Ġsw ing","Ġfour th","Ġinter rupt","he h","Ġind ust","Ġgen ius","Ġmarry ing","Ġcreat ed","Ġcomplet e","Ġsqu are","Ġur s","Ġbel ong","Ġcir c","Ġphys ical","Ġdoub t","Ġfru it","Ġhallow een","Ġissu es",". âĢĻ","? '","c oh","l s","m ission","t il","t te","Ġ vers","Ġt ong","Ġh ank","Ġm ood","Ġg er","Ġd re","an ny","Ġp ant","Ġp ors","Ġwe ak","ke ts","Ġdo cu","ar ian","ic ing","oo f","Ġli ft","Ġst am","Ġst ars","od e","Ġne at","Ġne cess","Ġal coh","ive d","ive s","Ġtoo th","Ġmon ster","Ġact ual","Ġthem selves","if orn","Ġtalk s","ure s","Ġgr ant","Ġgr ad","Ġfl ash","Ġreal ise","av y","Ġroom s","Ġpr ices","ĠâĢ ľ","Ġer r","Ġbring s","Ġcomm un","Ġfav our","Ġtouch ing","Ġmmm m","Ġve gas","Ġcup c","led ge","Ġspeak er","Ġfollow ing","Ġprop os","Ġpot ato","Ġfant as","Ġmod el","Ġlar ge","Ġscream ing","Ġshar p","edu le","Ġincl ud","Ġsaf ety","Ġspir it","Ġopin ion","Ġguit ar","Ġelev ator","Ġurs ula","Ġalcoh ol","c a","d s","m ale","n i","p ack","s it","t w","w ife","Ġo ven","Ġo dd","at ic","Ġb ast","no n","Ġl y","Ġf le","Ġf ac","âĢ Ŀ","ea st","Ġj r","Ġr at","Ġr ough","en ing","Ġe uro","Ġco mb","Ġse vent","ch ing","ch ie","Ġch ea","Ġup on","Ġlo ver","Ġex e","end ed","Ġsp it","mb le","ee ze","Ġv ie","Ġar ms","Ġgr oom","Ġmin i","Ġ1 8","Ġwatch ed","Ġsur v","Ġacc ent","Ġru mor","Ġdri ver","Ġans w","pl ay","Ġbag s","Ġdep end","Ġind eed","Ġfall ing","Ġcal iforn","Ġpush ing","Ġref riger","Ġyoun ger","Ġapolog y","Ġimag in","Ġroo f","ber ry","Ġsandwich es","Ġsteal ing","Ġgener ous","Ġtre es","Ġburn ed","Ġchip s","Ġbase ball","Ġremind s","Ġreception ist","Ġig no","Ġfa ith","Ġterrif ic","Ġneg ative","Ġuni verse","Ġpun ish","Ġlang u","Ġwebs ite","Ġdire ctor","Ġtong ue","c our","c il","d en","l ead","o ons","u nder","w im","no s","Ġl ake","Ġl ower","Ġf ol","Ġwe st","Ġgo al","Ġha m","Ġbe et","Ġj un","Ġr ace","Ġk at","Ġin sp","Ġe ll","Ġre ve","Ġre place","Ġli p","ow heh","Ġst airs","Ġco ach","Ġwant ing","Ġlo g","ab ility","Ġjo se","ess ion","Ġbo red","Ġman agement","ame d","ul ts","Ġcl own","ore d","ard s","Ġour s","Ġcon d","Ġde b","Ġde m","Ġtr ade","Ġfun eral","Ġbr ight","Ġbl an","Ġen v","Ġhelp ful","ak in","Ġaw are","Ġfind ing","Ġ1 00","og n","ail s","Ġrel ated","Ġad m","Ġad ult","Ġer ica","Ġdec is","Ġass ume","Ġend s",".... ..","Ġmat t","Ġru ss","Ġrec ently","Ġbar n","Ġz oo"]}}