{"version":"1.0","truncation":null,"padding":null,"added_tokens":[{"id":0,"content":"<PAD>","single_word":false,"lstrip":false,"rstrip":false,"normalized":false,"special":true},{"id":1,"content":"<BOS>","single_word":false,"lstrip":false,"rstrip":false,"normalized":false,"special":true},{"id":2,"content":"<EOS>","single_word":false,"lstrip":false,"rstrip":false,"normalized":false,"special":true},{"id":3,"content":"<UNK>","single_word":false,"lstrip":false,"rstrip":false,"normalized":false,"special":true},{"id":4,"content":"{","single_word":false,"lstrip":false,"rstrip":false,"normalized":false,"special":true},{"id":5,"content":"}","single_word":false,"lstrip":false,"rstrip":false,"normalized":false,"special":true},{"id":6,"content":"[","single_word":false,"lstrip":false,"rstrip":false,"normalized":false,"special":true},{"id":7,"content":"]","single_word":false,"lstrip":false,"rstrip":false,"normalized":false,"special":true},{"id":8,"content":":","single_word":false,"lstrip":false,"rstrip":false,"normalized":false,"special":true},{"id":9,"content":",","single_word":false,"lstrip":false,"rstrip":false,"normalized":false,"special":true},{"id":10,"content":"\"","single_word":false,"lstrip":false,"rstrip":false,"normalized":false,"special":true},{"id":11,"content":"\n","single_word":false,"lstrip":false,"rstrip":false,"normalized":false,"special":true}],"normalizer":{"type":"Sequence","normalizers":[{"type":"NFC"},{"type":"Lowercase"}]},"pre_tokenizer":{"type":"ByteLevel","add_prefix_space":true,"trim_offsets":true,"use_regex":true},"post_processor":{"type":"TemplateProcessing","single":[{"SpecialToken":{"id":"<BOS>","type_id":0}},{"Sequence":{"id":"A","type_id":0}},{"SpecialToken":{"id":"<EOS>","type_id":0}}],"pair":[{"SpecialToken":{"id":"<BOS>","type_id":0}},{"Sequence":{"id":"A","type_id":0}},{"SpecialToken":{"id":"<EOS>","type_id":0}},{"Sequence":{"id":"B","type_id":1}},{"SpecialToken":{"id":"<EOS>","type_id":1}}],"special_tokens":{"<BOS>":{"id":"<BOS>","ids":[1],"tokens":["<BOS>"]},"<EOS>":{"id":"<EOS>","ids":[2],"tokens":["<EOS>"]}}},"decoder":{"type":"ByteLevel","add_prefix_space":true,"trim_offsets":true,"use_regex":true},"model":{"type":"BPE","dropout":null,"unk_token":null,"continuing_subword_prefix":null,"end_of_word_suffix":null,"fuse_unk":false,"byte_fallback":false,"ignore_merges":false,"vocab":{"<PAD>":0,"<BOS>":1,"<EOS>":2,"<UNK>":3,"{":4,"}":5,"[":6,"]":7,":":8,",":9,"\"":10,"\n":11,"!":12,"#":13,"$":14,"%":15,"&":16,"'":17,"(":18,")":19,"*":20,"+":21,"-":22,".":23,"/":24,"0":25,"1":26,"2":27,"3":28,"4":29,"5":30,"6":31,"7":32,"8":33,"9":34,";":35,"<":36,"=":37,">":38,"?":39,"@":40,"\\":41,"^":42,"_":43,"`":44,"a":45,"b":46,"c":47,"d":48,"e":49,"f":50,"g":51,"h":52,"i":53,"j":54,"k":55,"l":56,"m":57,"n":58,"o":59,"p":60,"q":61,"r":62,"s":63,"t":64,"u":65,"v":66,"w":67,"x":68,"y":69,"z":70,"|":71,"~":72,"¡":73,"¢":74,"£":75,"¤":76,"¥":77,"¦":78,"§":79,"¨":80,"©":81,"ª":82,"«":83,"¬":84,"®":85,"¯":86,"°":87,"±":88,"²":89,"³":90,"´":91,"µ":92,"¶":93,"·":94,"¸":95,"¹":96,"º":97,"»":98,"¼":99,"½":100,"¾":101,"¿":102,"Â":103,"Ã":104,"Ä":105,"Å":106,"Æ":107,"Ç":108,"È":109,"É":110,"Ê":111,"Ë":112,"Ì":113,"Í":114,"Î":115,"Ï":116,"Ð":117,"Ñ":118,"×":119,"Ø":120,"Ù":121,"Ú":122,"Û":123,"à":124,"á":125,"â":126,"ã":127,"ä":128,"å":129,"æ":130,"ç":131,"è":132,"é":133,"ê":134,"ë":135,"ì":136,"í":137,"ï":138,"ð":139,"Ă":140,"ĉ":141,"Ċ":142,"ċ":143,"Ġ":144,"Ģ":145,"ģ":146,"Ĥ":147,"ĥ":148,"Ħ":149,"ħ":150,"Ĩ":151,"ĩ":152,"Ī":153,"ī":154,"Ĭ":155,"ĭ":156,"Į":157,"į":158,"İ":159,"ı":160,"Ĳ":161,"ĳ":162,"Ĵ":163,"ĵ":164,"Ķ":165,"ķ":166,"ĸ":167,"Ĺ":168,"ĺ":169,"Ļ":170,"ļ":171,"Ľ":172,"ľ":173,"Ŀ":174,"ŀ":175,"Ł":176,"ł":177,"Ń":178,"Ġt":179,"he":180,"Ġa":181,"in":182,"Ġw":183,"Ġthe":184,"Ġs":185,"Ġo":186,"re":187,"Ġi":188,"ou":189,"nd":190,"Ġb":191,"ha":192,"er":193,"Ġm":194,"Ġc":195,"ing":196,"Ġf":197,"Ġd":198,"ed":199,"on":200,"Ġto":201,"Ġy":202,"en":203,"Ġl":204,"or":205,"Ġp":206,"Ġand":207,"ll":208,"Ġg":209,"Ġof":210,"es":211,"Ġyou":212,"ar":213,"Ġn":214,"Ġhe":215,"Ġe":216,"an":217,"hi":218,"it":219,"Ġin":220,"at":221,"st":222,"hat":223,"om":224,"ow":225,"Ġbe":226,"ve":227,"Ġu":228,"Ġha":229,"Ġit":230,"al":231,"ay":232,"ut":233,"se":234,"ot":235,"le":236,"Ġis":237,"Ġon":238,"et":239,"as":240,"ac":241,"ri":242,"Ġthat":243,"gh":244,"ld":245,"Ġre":246,"ic":247,"his":248,"ent":249,"Ġst":250,"Ġwe":251,"id":252,"Ġher":253,"Ġk":254,"ver":255,"Ġfor":256,"Ġh":257,"oo":258,"Ġj":259,"Ġli":260,"Ġshe":261,"ith":262,"ion":263,"am":264,"Ġwith":265,"ly":266,"ill":267,"âĢ":268,"ght":269,"Ġth":270,"ir":271,"'s":272,"ro":273,"ke":274,"..":275,"Ġan":276,"Ġme":277,"Ġwhat":278,"ur":279,"âĢĻ":280,"Ġse":281,"Ġwas":282,"ad":283,"Ġas":284,"Ġdo":285,"ho":286,"Ġnot":287,"==":288,"all":289,"is":290,"Ġgo":291,"Ġso":292,"ge":293,"ain":294,"Ġel":295,"Ġhi":296,"Ġmy":297,"her":298,"ce":299,"ch":300,"Ġde":301,"Ġwill":302,"Ġthis":303,"now":304,"ome":305,"im":306,"ra":307,"ust":308,"Ġbut":309,"Ġare":310,"Ġne":311,"ct":312,"ore":313,"Ġno":314,"Ġyour":315,"ould":316,"Ġhave":317,"Ġv":318,"Ġfr":319,"ure":320,"est":321,"out":322,"Ġthey":323,"ara":324,"Ġwho":325,"ook":326,"Ġab":327,"Ġknow":328,"el":329,"Ġall":330,"Ġwor":331,"ant":332,"Ġfrom":333,"ers":334,"Ġelara":335,"Ġwhe":336,"ea":337,"th":338,"Ġma":339,"qu":340,"Ġhis":341,"'t":342,"and":343,"rou":344,"il":345,"red":346,"Ġup":347,"Ġcan":348,"op":349,"Ġint":350,"Ġjust":351,"ation":352,"Ġby":353,"Ġex":354,"Ġone":355,"um":356,"ood":357,"pp":358,"Ġsa":359,"ul":360,"Ġor":361,"...":362,"Ġal":363,"han":364,"Ġoh":365,"ess":366,"Ġat":367,"Ġun":368,"ame":369,"Ġthere":370,"one":371,"un":372,"Ġout":373,"art":374,"Ġsp":375,"Ġr":376,"ind":377,"fe":378,"Ġabout":379,"very":380,"ight":381,"ep":382,"Ġhad":383,"reat":384,"ter":385,"Ġ\"":386,"ord":387,"Ġcon":388,"Ġtheir":389,"Ġhow":390,"os":391,"us":392,"Ġthem":393,"Ġok":394,"Ġri":395,"ear":396,"ive":397,"ally":398,"Ġta":399,"Ġlike":400,"Ġcom":401,"ong":402,"Ġtr":403,"if":404,"Ġpl":405,"ous":406,"em":407,"Ġhim":408,"Ġpe":409,"Ġman":410,"ack":411,"Ġwhi":412,"ace":413,"ven":414,"ren":415,"iz":416,"ate":417,"ity":418,"Ġpro":419,"ck":420,"Ġqu":421,"Ġwhen":422,"Ġam":423,"Ġif":424,"Ġbec":425,"dd":426,"Ġtim":427,"br":428,"Ġus":429,"ol":430,"Ġdon":431,"ie":432,"ard":433,"Ġca":434,"Ġgu":435,"Ġwere":436,"ry":437,"Ġro":438,"ble":439,"Ġlo":440,"Ġday":441,"eah":442,"ig":443,"Ġmo":444,"Ġwould":445,"Ġlord":446,"Ġyeah":447,"'m":448,"Ġget":449,"king":450,"Ġinto":451,"Ġar":452,"hing":453,"age":454,"our":455,"ound":456,"ell":457,"ies":458,"pl":459,"Ġen":460,"Ġevery":461,"wn":462,"Ġokay":463,"Ġdid":464,"Ġright":465,"ne":466,"Ġwell":467,"nder":468,"ast":469,"Ġsaid":470,"Ġtime":471,"Ġcl":472,"ide":473,"Ġsu":474,"Ġany":475,"ved":476,"ist":477,"Ġag":478,"Ġlet":479,"Ġcome":480,"Ġsh":481,"ci":482,"au":483,"Ġthan":484,"Ġle":485,"led":486,"Ġsee":487,"sel":488,"way":489,"Ġsay":490,"ving":491,"Ġover":492,"ag":493,"ned":494,"ople":495,"Ġhey":496,"per":497,"ory":498,"hy":499,"Ġpeople":500,"ss":501,"Ġthen":502,"ach":503,"pt":504,"Ġgod":505,"ose":506,"ink":507,"pe":508,"Ġcould":509,"co":510,"Ġsome":511,"Ġnow":512,"na":513,"Ġhas":514,"ings":515,"Ġhere":516,"Ġback":517,"ther":518,"hed":519,"Ġco":520,"ine":521,"ort":522,"Ġtre":523,"'re":524,"rough":525,"Ġwant":526,"Ġcha":527,"Ġunder":528,"Ġlook":529,"Ġgreat":530,"ue":531,"omet":532,"Ġthrough":533,"ice":534,"Ġjo":535,"aint":536,"Ġgood":537,"Ġput":538,"Ġsha":539,"ade":540,"Ġwhich":541,"Ġmake":542,"Ġgive":543,"Ġnew":544,"Ġsomet":545,"ath":546,"ts":547,"Ġwhere":548,"Ġ==":549,"Ġits":550,"===":551,"Ġ=====":552,"Ġoff":553,"Ġway":554,"Ġwillow":555,"Ġbeen":556,"round":557,"Ġfe":558,"Ġtw":559,"Ġdis":560,"self":561,"brook":562,"end":563,"Ġ1":564,"Ġwillowbrook":565,"Ġagain":566,"ning":567,"Ġmore":568,"ause":569,"fore":570,"Ġtal":571,"Ġmade":572,"Ġthink":573,"ves":574,"Ġim":575,"ab":576,"Ġother":577,"ud":578,"cc":579,"Ġbefore":580,"Ġtake":581,"own":582,"ah":583,"Ġbet":584,"oun":585,"Ġmean":586,"Ġfl":587,"Ġgot":588,"ass":589,"be":590,"Ġold":591,"Ġtoo":592,"we":593,"Ġreal":594,"Ġsm":595,"Ġke":596,"Ġwhy":597,"Ġwr":598,"Ġchi":599,"amed":600,"Ġaf":601,"Ġpre":602,"Ġeven":603,"ark":604,"ire":605,"Ġcont":606,"Ġuh":607,"Ġmay":608,"Ġreally":609,"Ġwork":610,"Ġem":611,"ment":612,"Ġsc":613,"Ġexpl":614,"Ġword":615,"other":616,"Ġapp":617,"ction":618,"Ġad":619,"Ġbo":620,"ft":621,"ious":622,"Ġbr":623,"Ġsomething":624,"Ġstr":625,"Ġland":626,"Ġbecause":627,"ite":628,"Ġcomp":629,"onna":630,"act":631,"Ġgonna":632,"dden":633,"Ġpr":634,"Ġeach":635,"Ġyear":636,"Ġins":637,"Ġpow":638,"Ġworld":639,"Ġthose":640,"Ġhel":641,"ng":642,"Ġheart":643,"umb":644,"cre":645,"Ġtown":646,"Ġneed":647,"ount":648,"ary":649,"Ġear":650,"Ġupon":651,"Ġvill":652,"Ġbl":653,"itt":654,"Ġstory":655,"vent":656,"Ġdown":657,"ather":658,"ons":659,"Ġafter":660,"Ġguy":661,"Ġlily":662,"Ġhelp":663,"Ġhand":664,"ak":665,"ical":666,"urned":667,"Ġonly":668,"Ġtell":669,"Ġgl":670,"Ġking":671,"Ġour":672,"Ġthou":673,"Ġmag":674,"Ġdes":675,"Ġcame":676,"get":677,"Ġlife":678,"Ġgoing":679,"ated":680,"ence":681,"Ġthese":682,"ations":683,"Ġnamed":684,"Ġart":685,"Ġyes":686,"Ġhapp":687,"Ġwat":688,"ering":689,"ase":690,"Ġfore":691,"ick":692,"Ġte":693,"Ġcreat":694,"Ġdec":695,"âĢĶ":696,"Ġ2":697,"ance":698,"riend":699,"ans":700,"Ġbook":701,"ree":702,"Ġyoung":703,"Ġtwo":704,"Ġser":705,"Ġpower":706,"Ġwom":707,"ster":708,"Ġsecre":709,"av":710,"Ġdoes":711,"Ġdeep":712,"Ġplace":713,"Ġres":714,"ures":715,"Ġfir":716,"Ġgr":717,"orm":718,"thing":719,"Ġwa":720,"Ġho":721,"ise":722,"Ġpart":723,"Ġgi":724,"Ġchild":725,"Ġonce":726,"Ġfind":727,"Ġshould":728,"ks":729,"Ġfirst":730,"ions":731,"Ġwent":732,"Ġaway":733,"ull":734,"mm":735,"de":736,"Ġsor":737,"erm":738,"Ġlove":739,"iv":740,"Ġdif":741,"Ġmon":742,"Ġwhile":743,"Ġfound":744,"Ġaround":745,"so":746,"Ġcall":747,"Ġlea":748,"Ġbu":749,"ang":750,"Ġwhis":751,"feren":752,"Ġkeep":753,"Ġwood":754,"ouse":755,"Ġbel":756,"ued":757,"Ġnight":758,"Ġcu":759,"Ġhar":760,"Ġlear":761,"ween":762,"Ġfriend":763,"Ġdre":764,"ect":765,"Ġbetween":766,"Ġfeel":767,"Ġlong":768,"Ġchan":769,"Ġmu":770,"iza":771,"Ġunderst":772,"gether":773,"Ġlived":774,"ĠÐ":775,"cient":776,"xt":777,"vel":778,"Ġrem":779,"ock":780,"Ġtogether":781,"Ġvillage":782,"Ġknown":783,"Ġdisco":784,"dy":785,"know":786,"ia":787,"Ġpri":788,"Ġple":789,"Ġpaint":790,"Ġop":791,"Ġeliza":792,"Ġact":793,"Ġdet":794,"Ġown":795,"00":796,"ful":797,"Ġey":798,"ided":799,"Ġtrue":800,"Ġhidden":801,"Ġfo":802,"Ġread":803,"Ġret":804,"Ġfin":805,"Ġwoman":806,"Ġnever":807,"Ġbeg":808,"Ġisra":809,"Ġisrael":810,"Ġwis":811,"ized":812,"Ġsmall":813,"Ġyears":814,"ces":815,"ting":816,"ways":817,"Ġson":818,"Ġwar":819,"Ġpo":820,"Ġagainst":821,"Ġbecame":822,"Ġend":823,"ian":824,"ever":825,"vered":826,"ors":827,"ened":828,"Ġga":829,"Ġper":830,"Ġimp":831,"ward":832,"Ġalso":833,"Ġhouse":834,"Ġseem":835,"les":836,"Ġancient":837,"irl":838,"Ġwithout":839,"ness":840,"Ġever":841,"Ġhome":842,"Ġalways":843,"Ġforest":844,"Ġmyster":845,"Ġwait":846,"Ġhu":847,"ittle":848,"'ll":849,"Ġwithin":850,"Ġuse":851,"Ġche":852,"oth":853,"ps":854,"Ġlittle":855,"Ġdifferen":856,"Ġunderstand":857,"Ġsure":858,"ff":859,"te":860,"Ġtook":861,"are":862,"ledge":863,"Ġjour":864,"Ġmuch":865,"Ġguys":866,"Ġcar":867,"Ġpers":868,"Ġlight":869,"Ġname":870,"Ġknowledge":871,"dom":872,"ber":873,"Ġsur":874,"owing":875,"Ġquest":876,"Ġchildren":877,"Ġcomm":878,"read":879,"Ġkind":880,"oss":881,"Ġ(":882,"bo":883,"Ġmr":884,"Ġsk":885,"Ġfam":886,"Ġvery":887,"Ġsorry":888,"?!":889,"Ġla":890,"Ġz":891,"ined":892,"ney":893,"Ġdidn":894,"Ġmost":895,"Ġmen":896,"Ġgirl":897,"form":898,"Ġev":899,"Ġeyes":900,"gy":901,"Ġgave":902,"able":903,"Ġthing":904,"Ġstart":905,"Ġplease":906,"ling":907,"Ġthings":908,"als":909,"Ġthought":910,"Ġsy":911,"Ġac":912,"day":913,"Ġenc":914,"Ġmic":915,"right":916,"Ġjourney":917,"ond":918,"Ġadvent":919,"Ġpass":920,"Ġlist":921,"Ġgen":922,"ached":923,"pect":924,"Ġdecided":925,"Ġcle":926,"!!":927,"Ð¾":928,"Ġnat":929,"ily":930,"Ġused":931,"Ġwoods":932,"ange":933,"ken":934,"Ġdays":935,"illed":936,"ey":937,"Ġset":938,"Ġrealized":939,"ty":940,"Ġfun":941,"ked":942,"ins":943,"rig":944,"Ġperson":945,"ple":946,"ained":947,"new":948,"ish":949,"Ġherself":950,"Ġmany":951,"Ġbegan":952,"ru":953,"wer":954,"Ġearth":955,"Ġfather":956,"Ġplay":957,"ens":958,"iss":959,"Ġhum":960,"ating":961,"Ġamong":962,"ted":963,"Ġtri":964,"kes":965,"Ġstill":966,"Ġdeterm":967,"Ġsent":968,"ents":969,"Ġgra":970,"Ġquaint":971,"Ġdoing":972,"ible":973,"Ġusing":974,"Ġmagic":975,"li":976,"Ġroom":977,"Ġwords":978,"aut":979,"'ve":980,"Ġrest":981,"Ġinv":982,"Ġinside":983,"elt":984,"Ġdifferent":985,"Ġnumb":986,"Ġans":987,"Ġtreas":988,"Ġmar":989,"Ġsaw":990,"Ġcuri":991,"ged":992,"Ġfilled":993,"ten":994,"Ġmat":995,"Ġbest":996,"Ġpa":997,"Ġmor":998,"hael":999,"iqu":1000,"ense":1001,"Ġgre":1002,"Ġseemed":1003,"ually":1004,"Ġtra":1005,"Ġgener":1006,"its":1007,"Ġsol":1008,"Ð°":1009,"ool":1010,"Ġatt":1011,"Ġnear":1012,"Ġthank":1013,"Ġmichael":1014,"Ġdark":1015,"Ġbelie":1016,"Ġwal":1017,"Ġross":1018,"Ġboth":1019,"umbled":1020,"ult":1021,"Ġevil":1022,"Ġord":1023,"Ġmet":1024,"ix":1025,"the":1026,"Ġanother":1027,"Ġbeaut":1028,"Ġent":1029,"Ġspe":1030,"Ġcry":1031,"Ġum":1032,"Ġhop":1033,"Ġtree":1034,"no":1035,"Ġwhisper":1036,"Ġknew":1037,"ign":1038,"ows":1039,"Ġcontin":1040,"Ġfriends":1041,"Ġch":1042,"Ġbeh":1043,"Ġstumbled":1044,"Ġmom":1045,"Ġbehind":1046,"urn":1047,"Ġfa":1048,"Ġgiven":1049,"ross":1050,"Ġlast":1051,"hel":1052,"ages":1053,"ild":1054,"Ðµ":1055,"Ġfelt":1056,"Ġliving":1057,"Ġothers":1058,"mb":1059,"Ġdoor":1060,"Ġ-":1061,"Ġfear":1062,"Ġserv":1063,"Ġdiscovered":1064,"Ġhands":1065,"ered":1066,"ched":1067,"hes":1068,"found":1069,"Ġeveryone":1070,"ap":1071,"Ġsecrets":1072,"Ġfar":1073,"by":1074,"ial":1075,"Ġinst":1076,"Ġopen":1077,"uring":1078,"Ġturned":1079,"Ġnext":1080,"Ġwisdom":1081,"Ġstre":1082,"Ġcare":1083,"ĠâĢ":1084,"Ġvo":1085,"Ġface":1086,"Ġguard":1087,"vers":1088,"Ġsomeone":1089,"Ġsin":1090,"Ġhell":1091,"Ġsecret":1092,"Ġdeath":1093,"Ġstop":1094,"Ġexc":1095,"Ġanything":1096,"Ġsun":1097,"Ġthree":1098,"Ġreve":1099,"Ġsw":1100,"Ġrel":1101,"ert":1102,"use":1103,"Ġwrite":1104,"Ġrac":1105,"Ġtry":1106,"Ġfull":1107,"Ġwee":1108,"Ġmorning":1109,"Ġben":1110,"Ġvis":1111,"oney":1112,"Ġbig":1113,"Ġmight":1114,"ition":1115,"ica":1116,"Ġ3":1117,"Ġappro":1118,"Ġje":1119,"Ġstrange":1120,"Ġreveal":1121,"Ġbeing":1122,"Ġdav":1123,"Ġwasn":1124,"Ġbab":1125,"Ġspir":1126,"Ġmysterious":1127,"Ġlead":1128,"Ġdavid":1129,"Ġ'":1130,"Ġfood":1131,"cri":1132,"Ġtrans":1133,"Ġpur":1134,"bs":1135,"Ġdra":1136,"Ġsound":1137,"body":1138,"Ġeverything":1139,"Ġbir":1140,"Ġarm":1141,"Ġshi":1142,"Ġexper":1143,"row":1144,"ÑĤ":1145,"Ġbetter":1146,"Ġcou":1147,"Ġhead":1148,"ching":1149,"ific":1150,"ges":1151,"uck":1152,"Ġcity":1153,"Ġinc":1154,"Ġgold":1155,"Ġwhispering":1156,"llen":1157,"Ġmaybe":1158,"ric":1159,"Ġsim":1160,"ute":1161,"Ġjoey":1162,"Ġra":1163,"ress":1164,"Ġpres":1165,"Ġreturned":1166,"Ġmind":1167,"ants":1168,"ual":1169,"Ġinsp":1170,"Ġjud":1171,"'d":1172,"Ġsame":1173,"Ġhist":1174,"anc":1175,"Ġchallen":1176,"Ġid":1177,"Ġdone":1178,"ited":1179,"Ġaut":1180,"Ġeld":1181,"ities":1182,"ler":1183,"Ġnumber":1184,"ris":1185,"Ġcur":1186,"aring":1187,"ict":1188,"du":1189,"Ġdest":1190,"ner":1191,"Ġchar":1192,"Ġdeeper":1193,"me":1194,"Ġseen":1195,"Ġnothing":1196,"Ġleft":1197,"Ð¸":1198,"Ġthough":1199,"Ġwater":1200,"cul":1201,"ried":1202,",\"":1203,"Ġsaying":1204,"Ġtalk":1205,"Ġacc":1206,"Ġdr":1207,"Ġloc":1208,"Ġforg":1209,"Ġintrig":1210,"Ġcor":1211,"Ġwind":1212,"Ġsuch":1213,"owed":1214,"Ġanswer":1215,"Ġsudden":1216,"iah":1217,"ars":1218,"Ġdream":1219,"iar":1220,"Ġair":1221,"og":1222,"Ġwise":1223,"Ġcol":1224,"oh":1225,"Ġah":1226,"Ġste":1227,"Ġmin":1228,"Ġposs":1229,"Ġlay":1230,"hip":1231,"Ġactually":1232,"Ġlearned":1233,"Ġimport":1234,"Ġcount":1235,"Ġdw":1236,"Ġdetermined":1237,"ny":1238,"ta":1239,"Ġmeet":1240,"Ġwall":1241,"Ġintrigued":1242,"Ġprot":1243,"ile":1244,"Ġes":1245,"ough":1246,"Ġnature":1247,"Ġhigh":1248,"Ġfinally":1249,"Ġconne":1250,"Ġmagical":1251,"Ġvoice":1252,"Ġfig":1253,"Ġexplain":1254,"ility":1255,"Ġfoll":1256,"Ġstu":1257,"Ġbra":1258,"Ġbaby":1259,"Ġcontinued":1260,"Ġhowever":1261,"Ġsoft":1262,"Ġbas":1263,"Ġbey":1264,"Ġbus":1265,"Ġbeyond":1266,"Ġfire":1267,"Ġready":1268,"Ġhello":1269,"side":1270,"Ġsou":1271,"Ġnewfound":1272,"Ġdwight":1273,"Ġwo":1274,"Ġfamily":1275,"ph":1276,"Ġacross":1277,"ef":1278,"Ġcomple":1279,"Ġass":1280,"Ġpast":1281,"lls":1282,"less":1283,"Ġer":1284,"Ġalong":1285,"Ġform":1286,"Ġcent":1287,"Ġsl":1288,"iness":1289,"Ġ5":1290,"fect":1291,"Ġunt":1292,"Ġless":1293,"aces":1294,"gend":1295,"Ġrun":1296,"Ġmap":1297,"Ġsons":1298,"Ã©":1299,"Ġgrand":1300,"pped":1301,"Ġcommun":1302,"Ġlisten":1303,"Ġpath":1304,"Ġhour":1305,"Ġpeace":1306,"Ġwow":1307,"ired":1308,"Ġchand":1309,"Ġthanks":1310,"Ġow":1311,"Ġhard":1312,"Ġval":1313,"ail":1314,"Ġbre":1315,"Ġthi":1316,"aced":1317,"Ġtrees":1318,"Ġtreasure":1319,"ject":1320,"Ġob":1321,"Ġunderstanding":1322,"ub":1323,"Ġstand":1324,"Ġsal":1325,"Ġstrong":1326,"Ġcalled":1327,"Ġtoday":1328,"gg":1329,"Ġchandler":1330,"Ġlegend":1331,"Ġstep":1332,"Ġbelieve":1333,"gr":1334,"selves":1335,"Ġshad":1336,"Ġmonth":1337,"lling":1338,"lf":1339,"wor":1340,"come":1341,"Ġed":1342,"Ġdel":1343,"Ġhat":1344,"Ġforgot":1345,"Ġtaken":1346,"Ġplan":1347,"Ġhope":1348,"Ġquick":1349,"int":1350,"Ġinter":1351,"Ġcho":1352,"Ġlot":1353,"Ġlooking":1354,"Ġmod":1355,"Ġrec":1356,"az":1357,"Ġspread":1358,"Ġquestion":1359,"Ġcat":1360,"Ġsupp":1361,"Ġspirit":1362,"Ġtold":1363,"Ġrachel":1364,"Ġadventure":1365,"Ġsays":1366,"ique":1367,"Ġtalking":1368,"Ñģ":1369,"Ġgif":1370,"osity":1371,"Ġwand":1372,"Ġartist":1373,"Ġresp":1374,"cial":1375,"Ġsometim":1376,"Ġexplore":1377,"sc":1378,"Ġremem":1379,"Ġdi":1380,"Ġref":1381,"Ġsend":1382,"Ġext":1383,"Ġjim":1384,"anna":1385,"mon":1386,"Ġaw":1387,"Ġvar":1388,"Ġele":1389,"ement":1390,"Ġbrother":1391,"Ġsuddenly":1392,"oke":1393,"Ġnice":1394,"Ġpainting":1395,"Ġcuriosity":1396,"Ġpurp":1397,"Ġside":1398,"Ġyet":1399,"ets":1400,"Ġlibr":1401,"Ġclos":1402,"Ġhold":1403,"Ġpho":1404,"Ġgame":1405,"cle":1406,"Ġbro":1407,"Ġkey":1408,"ural":1409,"Ġreached":1410,"Ġmonica":1411,"Ġvi":1412,"aught":1413,"cond":1414,"Ð½":1415,"Ġfine":1416,"cept":1417,"ib":1418,"ination":1419,"ries":1420,"ush":1421,"gth":1422,"Ġcr":1423,"oring":1424,"Ġhistory":1425,"fl":1426,"Ġsometimes":1427,"dddd":1428,"Ġbuild":1429,"Ġlost":1430,"blem":1431,"Ġprom":1432,"Ġalright":1433,"cccc":1434,"Ġhuman":1435,"Ġexperi":1436,"Ġlat":1437,"urning":1438,"Ġwanna":1439,"Ġph":1440,"la":1441,"ield":1442,"Ġfigure":1443,"Ġdist":1444,"Ġjer":1445,"ains":1446,"Ġdep":1447,"Ġproblem":1448,"rage":1449,"Ġty":1450,"ize":1451,"Ġind":1452,"Ġsecond":1453,"Ġmark":1454,"Ġpie":1455,"ÑĢ":1456,"Ġwrong":1457,"Ġforward":1458,"Ġelse":1459,"Ġhappen":1460,"inary":1461,"Ġstren":1462,"Ġmem":1463,"Ġsho":1464,"Ġsign":1465,"Ġphoe":1466,"Ġbeautif":1467,"Ġprotect":1468,"ines":1469,"iced":1470,"agers":1471,"Ġgrew":1472,"ruction":1473,"Ġanyone":1474,"Ġrep":1475,"res":1476,"Ġ4":1477,"Ġunco":1478,"ories":1479,"Ġshow":1480,"Ġmount":1481,"Ġwarm":1482,"Ġtable":1483,"Ġwanted":1484,"ring":1485,"Ġspent":1486,"Ġfeeling":1487,"Ġmaking":1488,"Ġsafe":1489,"Ġoffering":1490,"Ġcreatures":1491,"Ġpam":1492,"Ġfut":1493,"Ġumm":1494,"Ġholy":1495,"Ġap":1496,"inking":1497,"Ġkid":1498,"Ġhappened":1499,"to":1500,"Ġce":1501,"Ġlang":1502,"Ġuntil":1503,"Ġtou":1504,"oming":1505,"Ġdescri":1506,"Ġhor":1507,"oses":1508,"Ġprop":1509,"cess":1510,"Ġvillagers":1511,"ale":1512,"Ġcapt":1513,"Ġcoming":1514,"Ġapproached":1515,"cy":1516,"Ġsil":1517,"ertain":1518,"Ġcourage":1519,"Ġcut":1520,"ds":1521,"ding":1522,"Ġphoebe":1523,"Ġmiss":1524,"mbol":1525,"Ġdat":1526,"Ġenough":1527,"Ġweeks":1528,"io":1529,"Ġoak":1530,"Ġrul":1531,"Ġsymbol":1532,"Ġenchan":1533,"Ġdoesn":1534,"Ġflow":1535,"Ġstud":1536,"Ġwi":1537,"Ġsoon":1538,"Ġlangu":1539,"Ġstrength":1540,"ze":1541,"Ġbring":1542,"stem":1543,"Ġstone":1544,"ular":1545,"Ġguardian":1546,"Ġbad":1547,"Ġgrou":1548,"Ġpecul":1549,"Ġbeautiful":1550,"Ġpeculiar":1551,"Ġpurpose":1552,"Ġclear":1553,"Ġevening":1554,"Ġowl":1555,"Ġanim":1556,"ip":1557,"Ġsing":1558,"Ġhaving":1559,"Ġhimself":1560,"Ġpot":1561,"Ġmess":1562,"Ġtimes":1563,"Ġcreate":1564,"Ġbooks":1565,"Ð¾Ð":1566,"Ġsense":1567,"Ġconf":1568,"Ġshared":1569,"ont":1570,"ex":1571,"Ġpassed":1572,"Ġstood":1573,"ones":1574,"Ġgard":1575,"Ġitself":1576,"ott":1577,"Ġfuture":1578,"Ġwast":1579,"Ġda":1580,"Ġtest":1581,"Ġmust":1582,"Ġcomes":1583,"Ġtowns":1584,"Ġmoney":1585,"ured":1586,"Ġcour":1587,"Ġclock":1588,"Ġdire":1589,"Ġimportant":1590,"Ġlibrary":1591,"Ġartif":1592,"Ġchange":1593,"Ġcouldn":1594,"ently":1595,"Ġcons":1596,"Ġimag":1597,"Ġidea":1598,"ced":1599,"Ġnoticed":1600,"Ġ20":1601,"uth":1602,"--":1603,"mo":1604,"Ġmoment":1605,"Ġnest":1606,"Ġfour":1607,"Ġhuh":1608,"Ġcoll":1609,"hh":1610,"rought":1611,"Ġbusiness":1612,"Ġfree":1613,"Ġmoon":1614,"Ġeng":1615,"Ġled":1616,"Ġglowing":1617,"pected":1618,"Ġswe":1619,"Ġheard":1620,"Ġgetting":1621,"Ġleaves":1622,"Ġtravel":1623,"ites":1624,"Ġcause":1625,"Ġhappy":1626,"Ġstarted":1627,"anger":1628,"Ġport":1629,"eared":1630,"Ġjob":1631,"Ġpriest":1632,"Ġque":1633,"Ġchallenges":1634,"Ġwonder":1635,"Ġbrought":1636,"Ġstat":1637,"¿½":1638,"ï¿½":1639,"Ġgone":1640,"iting":1641,"Ġprov":1642,"Ġgroup":1643,"Ġwh":1644,"outh":1645,"wards":1646,"Ġ...":1647,"Ġcertain":1648,"Ġbat":1649,"alth":1650,"Ġwhose":1651,"Ġsystem":1652,"Ġcra":1653,"Ġpret":1654,"Ġnestled":1655,"Ġoutside":1656,"Ġphy":1657,"ier":1658,"rid":1659,"ustling":1660,"Ġbecome":1661,"ics":1662,"Ġjoy":1663,"formation":1664,"ames":1665,"ma":1666,"ept":1667,"Ġask":1668,"Ġreg":1669,"Ġhills":1670,"Ġjudah":1671,"Ġhours":1672,"Ġtales":1673,"Ġbody":1674,"ied":1675,"lud":1676,"ns":1677,"lo":1678,"Ġmove":1679,"Ġadd":1680,"Ġdaught":1681,"Ġgenerations":1682,"Ġwandering":1683,"Ġbit":1684,"Ġremember":1685,"ging":1686,"Ġboy":1687,"Ġleg":1688,"Ġcompan":1689,"Ġfur":1690,"Ġrolling":1691,"Ġlar":1692,"Ġstay":1693,"Ġhund":1694,"Ġgarden":1695,"Ġcre":1696,"ues":1697,"Ġspoke":1698,"Ġforgotten":1699,"Ġheld":1700,"Ġunique":1701,"Ġdri":1702,"Ġinte":1703,"ught":1704,"Ġguess":1705,"Ġhundred":1706,"Ġemb":1707,"ĠâĢĵ":1708,"Ġleading":1709,"Ġconnection":1710,"Ġhon":1711,"Ġlater":1712,"Ġlearning":1713,"Ġenchanted":1714,"ilities":1715,"Ġtruth":1716,"Ġec":1717,"Ġmus":1718,"Ġstuff":1719,"Ġasked":1720,"Ġthemselves":1721,"Ġcode":1722,"Ġfive":1723,"Ġru":1724,"cha":1725,"Ġpy":1726,"Ġthinking":1727,"Ġplaces":1728,"Ġlocal":1729,"ead":1730,"Ġfield":1731,"do":1732,"zz":1733,"Ġter":1734,"Ġsch":1735,"Ġtech":1736,"Ġtrying":1737,"Ġrequ":1738,"Ġinspir":1739,"iet":1740,"Ġmakes":1741,"Ġsky":1742,"Ġhear":1743,"iously":1744,"Ġdreamed":1745,"man":1746,"Ġwide":1747,"cus":1748,"Ġtru":1749,"Ġadventures":1750,"Ġquickly":1751,"vie":1752,"Ġmoses":1753,"Ġinstead":1754,"son":1755,"bb":1756,"Ġsqu":1757,"Ġcryst":1758,"Ġnearby":1759,"chi":1760,"gn":1761,"Ġpowerful":1762,"lock":1763,"orne":1764,"Ġturn":1765,"Ġpar":1766,"land":1767,"Ġways":1768,"Ġforever":1769,"here":1770,"rest":1771,"Ġbox":1772,"Ġwaiting":1773,"ðŁ":1774,"Ġwatch":1775,"Ġduring":1776,"Ġegy":1777,"aching":1778,"Ġleave":1779,"Ġmer":1780,"Ġet":1781,"Ġpick":1782,"Ġevent":1783,"Ġchanged":1784,"Ġlanguage":1785,"Ġtruly":1786,"Ġcool":1787,"Ġkept":1788,"Ġegypt":1789,"Ġfall":1790,"Ġfew":1791,"Ġrevealed":1792,"Ġgift":1793,"Ġcast":1794,"Ġpossible":1795,"Ġtechn":1796,"Ġexp":1797,"Ġener":1798,"tle":1799,"Ġ.":1800,"Ġprodu":1801,".\"":1802,"Ġmodel":1803,"Ġfurther":1804,"Ġtot":1805,"med":1806,"Ġlooked":1807,"Ġopened":1808,"Ġbirth":1809,"Ġbreak":1810,"ments":1811,"Ġglow":1812,"ying":1813,"oria":1814,"Ġbene":1815,"ger":1816,"umn":1817,"Ġbal":1818,"Ġest":1819,"Ġphi":1820,"Ġable":1821,"Ġshare":1822,"Ġbeauty":1823,"?\"":1824,"Ġtop":1825,"Ġcurious":1826,"ank":1827,"Ġinformation":1828,"Ġwaste":1829,"Ġwin":1830,"Ġoften":1831,"Ġexploring":1832,"Ġcloser":1833,"ron":1834,"usal":1835,"Ġmeans":1836,"Ġinclud":1837,"zy":1838,"ional":1839,"Ġgreatest":1840,"Ġtom":1841,"pend":1842,"Ġcontro":1843,"Ġdestruction":1844,"Ġlives":1845,"Ġsle":1846,"Ġago":1847,"Ġagre":1848,"Ġworks":1849,"hu":1850,"Ġjerusal":1851,"Ġjerusalem":1852,"light":1853,"lic":1854,"Ġvarious":1855,"Ġ19":1856,"Ġlaw":1857,"Ġred":1858,"ident":1859,"Ġwit":1860,"Ġbeneath":1861,"Ġsit":1862,"Ġball":1863,"Ġuncover":1864,"Ġdef":1865,"Ġreturn":1866,"Ġthir":1867,"Ġ?":1868,"Ġtowards":1869,"Ġtrou":1870,"Ġsub":1871,"pers":1872,"like":1873,"gram":1874,"Ġfact":1875,"oud":1876,"Ġextra":1877,"ern":1878,"work":1879,"ences":1880,"Ġ10":1881,"Ġsat":1882,"Ġmother":1883,"Ġgotta":1884,"Ð°Ð":1885,"ention":1886,"Ġnews":1887,"Ġwife":1888,"Ġreas":1889,"Ġencount":1890,"Ġinvest":1891,"Ġshadows":1892,"ousand":1893,"Ġwon":1894,"Ġsong":1895,"ision":1896,"Ġlive":1897,"Ġthousand":1898,"Ġparty":1899,"Ġrespons":1900,"Ġton":1901,"Ġsweet":1902,"Ġenergy":1903,"Ġfight":1904,"Ġsurround":1905,"Ġcris":1906,"Ġshimm":1907,"Ġclose":1908,"Ġscen":1909,"Ġspec":1910,"Ġbecoming":1911,"Ġneeded":1912,"Ġsoul":1913,"hen":1914,"Ġfamil":1915,"Ġorder":1916,"Ġlearn":1917,"ative":1918,"Ġoffice":1919,"Ġlessons":1920,"aven":1921,"vi":1922,"Ġprogram":1923,"velop":1924,"Ġpain":1925,"Ġservant":1926,"Ġcal":1927,"Ġwhatever":1928,"ager":1929,"Ġdata":1930,"Ġwel":1931,"Ġprophe":1932,"Ġcap":1933,"Ġcourse":1934,"Ġcountry":1935,"ically":1936,"Ġmonths":1937,"Ġbustling":1938,"Ġvent":1939,"Ġbed":1940,"Ġautumn":1941,"Ġmid":1942,"Ġmeaning":1943,"Ġdead":1944,"Ġguid":1945,"Ġya":1946,"Ġten":1947,"Ġai":1948,"thon":1949,"ung":1950,"pri":1951,"Ġeldoria":1952,"Ġeat":1953,"Ġmeeting":1954,"Ġ6":1955,"Ġtreasures":1956,"Ġencountered":1957,"Ġpos":1958,"Ġhoney":1959,"ately":1960,"Ġpretty":1961,"bab":1962,"Ġpages":1963,"cks":1964,"Ġpaper":1965,"Ġwalls":1966,"ished":1967,"Ġhaw":1968,"verse":1969,"Ġamaz":1970,"Ġoffer":1971,"Ġservants":1972,"rent":1973,"Ġeverybody":1974,"ivid":1975,"Ġorders":1976,"Ġpaintings":1977,"Ġsist":1978,"Ġmis":1979,"Ġdanger":1980,"Ġunlock":1981,"Ġcompany":1982,"Ġworking":1983,"Ġrevealing":1984,"Ġcrystal":1985,"cause":1986,"ob":1987,"Ġcele":1988,"Ñĥ":1989,"Ġunex":1990,"iny":1991,"Ġuni":1992,"inated":1993,"Ġembr":1994,"Ġsince":1995,"Ġyourself":1996,"Ġcelebr":1997,"Ġve":1998,"Ġcomplete":1999,"Ġcrisp":2000,"Ġpython":2001,"Ġpu":2002,"ina":2003,"Ġwomen":2004,"wel":2005,"Ġpiece":2006,"Ġbar":2007,"Ġorb":2008,"Ġbuilding":2009,"Ġphil":2010,"Ġdust":2011,"Ġalone":2012,"Ġsear":2013,"Ġletter":2014,"Ġleaving":2015,"Ġcheck":2016,"up":2017,"Ġsum":2018,"Ġspell":2019,"Ġthroughout":2020,"Ġcommunity":2021,"ped":2022,"ital":2023,"ices":2024,"ully":2025,"app":2026,"you":2027,"Ġdog":2028,"Ġdetail":2029,"Ġpowers":2030,"kins":2031,"Ġknowing":2032,"Ġthom":2033,"Ġtaking":2034,"Ġjen":2035,"Ġkn":2036,"ove":2037,"hic":2038,"Ġisn":2039,"Ġones":2040,"Ġrealm":2041,"Ġsounds":2042,"Ġseek":2043,"Ġemer":2044,"Ġkingdom":2045,"Ġdu":2046,"Ġheaven":2047,"Ġhot":2048,"Ġeli":2049,"Ð»":2050,"orn":2051,"Ġill":2052,"Ġfas":2053,"Ġtem":2054,"Ġwhispe":2055,"Ġdiscovery":2056,"Ġsimple":2057,"Ġpop":2058,"Ġsymbols":2059,"Ġunexpected":2060,"Ġess":2061,"Ġpay":2062,"Ġprocess":2063,"ctions":2064,"Ġnatural":2065,"Ġspecial":2066,"vin":2067,"Ġwhom":2068,"Ġdepend":2069,"thorne":2070,"Ġhawthorne":2071,"Ġandy":2072,"Ġbroken":2073,"Ġwhole":2074,"Ġinterest":2075,"Ġspea":2076,"Ġprobab":2077,"Ġexplained":2078,"aining":2079,"Ġmusic":2080,"Ġhearts":2081,"Ġdiff":2082,"Ġdreams":2083,"Ġtext":2084,"\".":2085,"Ġmach":2086,"Ġcomput":2087,"Ġmatter":2088,"Ġinspiring":2089,"Ġeas":2090,"acy":2091,"Ġgoes":2092,"Ġcaus":2093,"ared":2094,"Ġlow":2095,"Ġanimals":2096,"Ġtransform":2097,"rer":2098,"Ġstore":2099,"osed":2100,"Ġfeet":2101,"oy":2102,"ash":2103,"acts":2104,"Ġtonight":2105,"Ġequ":2106,"Ġdrag":2107,"ming":2108,"Ġtill":2109,"Ġmed":2110,"Ġpat":2111,"Ġwalking":2112,"Ġsleep":2113,"igh":2114,"Ġround":2115,"Ġfast":2116,"Ġstanding":2117,"hered":2118,"Ġpol":2119,"Ġange":2120,"Ġjoke":2121,"Ġdie":2122,"Ġpun":2123,"Ġpersonal":2124,"Ġdaughter":2125,"pid":2126,"Ġfunny":2127,"Ġmarried":2128,"Ġsquare":2129,"Ġjenkins":2130,"Ġdanc":2131,"Ġground":2132,"Ġhair":2133,"rove":2134,"Ġtale":2135,"head":2136,"Ġpresent":2137,"Ġsever":2138,"Ġrather":2139,"Ġcenter":2140,"Ġedge":2141,"Ġvibr":2142,"Ġdescribe":2143,"fort":2144,"Ġsix":2145,"ution":2146,"ude":2147,"mother":2148,"Ġclass":2149,"Ġappeared":2150,"Ġstars":2151,"Ġexist":2152,"ordinary":2153,"Ġfinal":2154,"Ġherit":2155,"Ġbright":2156,"Ġabilities":2157,"Ġunlike":2158,"air":2159,"Ġexam":2160,"place":2161,"mat":2162,"Ġpack":2163,"ridge":2164,"Ġburned":2165,"iled":2166,"Ġexact":2167,"orrow":2168,"olo":2169,"Ġadv":2170,"Ġwish":2171,"Ġpoint":2172,"mer":2173,"Ġphys":2174,"Ġ`":2175,"Ġbreat":2176,"Ġfal":2177,"ird":2178,"Ġclean":2179,"acing":2180,"rist":2181,"Ġheritage":2182,"Ġseveral":2183,"Ġclot":2184,"Ġlonger":2185,"Ġstepped":2186,"Ġx":2187,"asure":2188,"Ġextraordinary":2189,"Ġwhoa":2190,"Ġremained":2191,"Ġsword":2192,"ians":2193,"Ġclim":2194,"Ġdrink":2195,"com":2196,"Ġsex":2197,"Ġentire":2198,"Ġens":2199,"what":2200,"Ġtent":2201,"Ã³":2202,"Ġooh":2203,"Ġdam":2204,"Ġpull":2205,"Ġflowers":2206,"Ġtall":2207,"Ġseven":2208,"Ġtakes":2209,"Ġvisit":2210,"not":2211,"Ġdate":2212,"Ġlift":2213,"igate":2214,"ready":2215,"Ġability":2216,"Ġecho":2217,"Ġalt":2218,"Ġmoved":2219,"itten":2220,"Ġfinding":2221,"Ġwalked":2222,"Ġge":2223,"oose":2224,"Ġthreat":2225,"Ġembark":2226,"room":2227,"Ġblue":2228,"Ġcir":2229,"Ġcover":2230,"Ġsingle":2231,"Ġcave":2232,"Ġarri":2233,"Ġchest":2234,"Ġalready":2235,"Ġcontrol":2236,"ters":2237,"enty":2238,"dddddddd":2239,"Ġvibrant":2240,"face":2241,"Ġorig":2242,"Ġline":2243,"Ġsolve":2244,"friend":2245,"ike":2246,"Ġfair":2247,"cccccccc":2248,"hor":2249,"rect":2250,"Ġgent":2251,"Ġwealth":2252,"Ġhes":2253,"Ġjan":2254,"aim":2255,"Ġgrow":2256,"Ġspecific":2257,"Ġdress":2258,"Ġfollowing":2259,"Ġfasc":2260,"athered":2261,"Ġsea":2262,"fully":2263,"Ġemot":2264,"Ġreason":2265,"Ġocc":2266,"Ġshort":2267,"Ġdad":2268,"Ġheal":2269,"acher":2270,"Ġfaced":2271,"Ġrespect":2272,"Ġperfect":2273,"Ġabove":2274,"Ġblood":2275,"Ġcommunic":2276,"Ġwhispered":2277,"Ñı":2278,"ery":2279,"Ġriver":2280,"rents":2281,"ffe":2282,"Ġwild":2283,"acter":2284,"ased":2285,"Ġprof":2286,"Ġpainted":2287,"ism":2288,"Ġseries":2289,"Ġobject":2290,"sk":2291,"Ġhero":2292,"Ġspace":2293,"ushed":2294,"Ġstru":2295,"Ġbased":2296,"Ġintric":2297,"Ġfoot":2298,"Ġworked":2299,"Ġ8":2300,"Ġlate":2301,"Ġnations":2302,"Ġblack":2303,"Ġmysteries":2304,"Ġrelations":2305,"Ġwhispers":2306,"Ġsilver":2307,"Ġhang":2308,"Ġcurse":2309,"Ġlarge":2310,"Ġgentle":2311,"ract":2312,"Ġharmon":2313,"tern":2314,"Ġgiving":2315,"Ġfalse":2316,"pping":2317,"Ġremind":2318,"ential":2319,"Ġchief":2320,"Ġtaught":2321,"Ġincluding":2322,"Ġsam":2323,"itting":2324,"Ġwatching":2325,"Ġcolor":2326,"Ġcolors":2327,"Ġconnect":2328,"ai":2329,"Ġfront":2330,"Ġquiet":2331,"Ġwed":2332,"Ġweird":2333,"Ġexperience":2334,"Ġpra":2335,"Ġself":2336,"Ġlandsc":2337,"Ġwalk":2338,"Ġmouth":2339,"Ġdeal":2340,"Ġ9":2341,"ates":2342,"Ġuncle":2343,"Ġbrothers":2344,"most":2345,"Ġmoving":2346,"Ġteaching":2347,"Ġbegin":2348,"Ġdesign":2349,"Ġhalf":2350,"Ġrece":2351,"Ġsoftly":2352,"Ġtype":2353,"Ġdiffic":2354,"Ðº":2355,"Ġdesire":2356,"Ġcharacter":2357,"Ġprobably":2358,"Ġfaint":2359,"Ġohh":2360,"aged":2361,"Ġsharing":2362,"Ġgrandmother":2363,"chan":2364,"Ġnet":2365,"ization":2366,"Ġflo":2367,"Ġattack":2368,"Ġstones":2369,"Ġcommon":2370,"Ġattention":2371,"Ġdirect":2372,"Ġmachine":2373,"ĠâĢĺ":2374,"Ġef":2375,"Ġbeast":2376,"Ġbye":2377,"Ġwritten":2378,"Ġbravery":2379,"pes":2380,"Ġpartic":2381,"ient":2382,"Ġhaven":2383,"ivity":2384,"Ġfell":2385,"rib":2386,"Ġscro":2387,"Ġsought":2388,"Ġdiv":2389,"Ġglad":2390,"Ġminute":2391,"Ġhesit":2392,"ÃŃ":2393,"Ġsort":2394,"Ġmyself":2395,"Ġmaster":2396,"izing":2397,"Ġmessage":2398,"Ġparents":2399,"uit":2400,"erv":2401,"ety":2402,"Ġgreen":2403,"Ġbalance":2404,"ake":2405,"Ġstories":2406,"ised":2407,"Ġartifacts":2408,"Ġschool":2409,"Ġdevelop":2410,"Ġwouldn":2411,"Ġmountains":2412,"Ġventured":2413,"Ġdin":2414,"iter":2415,"known":2416,"Ġperform":2417,"Ġeffect":2418,"che":2419,"ÑĮ":2420,"Ġabs":2421,"Ġlooks":2422,"Ġcorrect":2423,"Ġapart":2424,"bit":2425,"Ġweight":2426,"Ġalive":2427,"Ġband":2428,"ides":2429,"ears":2430,"ixed":2431,"Ġcomplex":2432,"ror":2433,"Ġkinda":2434,"gan":2435,"where":2436,"Ġtower":2437,"Ġbrave":2438,"let":2439,"Ġcold":2440,"Ġquestions":2441,"Ġinspired":2442,"Ġphone":2443,"Ġmir":2444,"Ġridd":2445,"Ġchance":2446,"Ġturning":2447,"Ġ7":2448,"Ġfil":2449,"ley":2450,"Ġtwenty":2451,"Ġcreature":2452,"ology":2453,"Ġsupport":2454,"Ġtomorrow":2455,"prise":2456,"Ġexactly":2457,"Ġjes":2458,"Ġnote":2459,"Ġclaim":2460,"Ġdarkness":2461,"Ġfate":2462,"Ġang":2463,"avor":2464,"Ġskill":2465,"ump":2466,"Ġdiscover":2467,"Ġstream":2468,"go":2469,"Ġmist":2470,"Ġjack":2471,"Ġpray":2472,"Ã¤":2473,"Ġflight":2474,"men":2475,"Ġ$":2476,"unch":2477,"Ġbelong":2478,"Ġtotally":2479,"Ġshut":2480,"Ġcond":2481,"Ġstupid":2482,"Ġtouch":2483,"Ġfre":2484,"Ġhumans":2485,"Ġmemory":2486,"Ġfascinated":2487,"Ġdisapp":2488,"Ġwrath":2489,"Ġprin":2490,"Ġproduct":2491,"Ġuniverse":2492,"Ġmil":2493,"ats":2494,"Ġkiss":2495,"Ġsorce":2496,"Ġfriendship":2497,"ffee":2498,"ote":2499,"Ġstra":2500,"ĠÐ¿":2501,"Ġcook":2502,"Ġincre":2503,"rodu":2504,"Ġdepic":2505,"Ġdragon":2506,"Ġaltar":2507,"Ġseeing":2508,"Ġforce":2509,"Ġeye":2510,"Ġfif":2511,"Ġdev":2512,"Ġsuper":2513,"Ġcovered":2514,"Ġwhite":2515,"olog":2516,"Ġguide":2517,"Ġprovide":2518,"Ġopp":2519,"ots":2520,"Ġbuy":2521,"Ġfathers":2522,"Ġdifficult":2523,"Ġwants":2524,"Ġpract":2525,"Ġfunction":2526,"Ġvan":2527,"Ġtelling":2528,"Ġteam":2529,"Ġcreated":2530,"Ġartifact":2531,"bes":2532,"Ġunknown":2533,"Ġproper":2534,"Ġsucc":2535,"Ġcoffee":2536,"Ġbless":2537,"Ġpet":2538,"Ġwriting":2539,"Ġessence":2540,"Ġintricate":2541,"Ã¡":2542,"Ġlad":2543,"Ġpiqu":2544,"Ġund":2545,"Ġclearing":2546,"Ġshimmering":2547,"Ġpiqued":2548,"Ġvalue":2549,"Ġpuzz":2550,"Ġwedding":2551,"Ġhit":2552,"Ġcomb":2553,"Ġseeking":2554,"ball":2555,"sing":2556,"ither":2557,"itive":2558,"rp":2559,"Ã¼":2560,"Ġbread":2561,"Ġexcit":2562,"off":2563,"Ġahead":2564,"Ġplaying":2565,"Ġsurrounded":2566,"port":2567,"Ġterm":2568,"Ġgives":2569,"Ġsurprise":2570,"Ġcolle":2571,"Ġpen":2572,"Ġpict":2573,"Ġmeant":2574,"Ġseed":2575,"Ġsave":2576,"unk":2577,"Ġdifference":2578,"ishment":2579,"Ġjac":2580,"Ġvast":2581,"Ġalmost":2582,"Ġprep":2583,"Ġauthor":2584,"Ġexcitement":2585,"Ġsheep":2586,"....":2587,"Ġmarket":2588,"Ġofferings":2589,"ator":2590,"ption":2591,"Ġearly":2592,"Ġkindness":2593,"Ġtrad":2594,"Ġgrant":2595,"utes":2596,"Ġav":2597,"Ġlim":2598,"Ġhate":2599,"Ġrefle":2600,"ax":2601,"Ġcrazy":2602,"Ġtas":2603,"Ġrach":2604,"Ġsupposed":2605,"Ġbound":2606,"Ġbag":2607,"Ġmine":2608,"Ġox":2609,"ane":2610,"Ġmovie":2611,"Ġprison":2612,"Ġcam":2613,"Ġdense":2614,"Ġsaul":2615,"Ġtrust":2616,"ware":2617,"Ġein":2618,"Ġtrouble":2619,"ches":2620,"Ġgets":2621,"Ġreading":2622,"Ġansw":2623,"ighb":2624,"bed":2625,"Ġneighb":2626,"Ġsentence":2627,"Ġstreets":2628,"Ġgolden":2629,"lt":2630,"ored":2631,"Ġwond":2632,"Ġbri":2633,"esh":2634,"Ġrepl":2635,"Ġforces":2636,"Ġweek":2637,"Ġslow":2638,"Ġimagination":2639,"Ġoccur":2640,"Ġrecei":2641,"Ġjacob":2642,"Ġrock":2643,"Ġtalent":2644,"hical":2645,"ral":2646,"ich":2647,"ider":2648,"000":2649,"Ġhoping":2650,"Ġdry":2651,"rop":2652,"Ġpotential":2653,"Ġarrived":2654,"Ġpub":2655,"Ġintrodu":2656,"Ġpassion":2657,"Ġexcited":2658,"ime":2659,"Ġunderstood":2660,"Ġdefin":2661,"Ġorigin":2662,"Ġsorcerer":2663,"Ġreco":2664,"Ġbreath":2665,"Ġeff":2666,"Ġcham":2667,"Ġmrs":2668,"Ġchrist":2669,"Ġbirds":2670,"Ġdelved":2671,"Ġrecord":2672,"Ġsmell":2673,"Ġmystery":2674,"Ġterri":2675,"Ġfavor":2676,"Ġunclean":2677,"Ġmass":2678,"Ġgri":2679,"Ġnor":2680,"Ġexperiences":2681,"Ġmercy":2682,"Ġsister":2683,"Ġlau":2684,"Ġpha":2685,"ival":2686,"Ġfaith":2687,"Ġsales":2688,"lon":2689,"Ġdecision":2690,"Ġ=":2691,"Ġnav":2692,"ament":2693,"Ġtremb":2694,"Ġspirits":2695,"Ġpriests":2696,"Ġexcuse":2697,"Ġemerged":2698,"Ġsuccess":2699,"Ġburning":2700,"ctor":2701,"ms":2702,"more":2703,"Ġloud":2704,"Ġpound":2705,"Ġ12":2706,"Ġcomputer":2707,"Ġphe":2708,"ples":2709,"Ġinvol":2710,"Ġdraw":2711,"uries":2712,"Ġjos":2713,"aron":2714,"aked":2715,"Ġimportance":2716,"Ġspeak":2717,"Ġharmony":2718,"ebs":2719,"Ġhur":2720,"Ġmult":2721,"Ġdetermination":2722,"Ġnumbers":2723,"Ġchallenge":2724,"Ġforget":2725,"Ġlands":2726,"vas":2727,"Ġwine":2728,"Ġgathered":2729,"ume":2730,"Ġassist":2731,"ining":2732,"Ġluck":2733,"Ġupright":2734,"bered":2735,"Ġminutes":2736,"Ġshadow":2737,"Ġsi":2738,"ee":2739,"Ġsara":2740,"Ġprofound":2741,"Ġcarry":2742,"Ġordinary":2743,"Ġsunny":2744,"Ġlegacy":2745,"ram":2746,"Ñĭ":2747,"Ġvide":2748,"ource":2749,"Ġsec":2750,"Ġmountain":2751,"Ġpainter":2752,"Ġpheebs":2753,"Ġeight":2754,"Ġann":2755,"Ġcomfort":2756,"Ġloved":2757,"Ġworlds":2758,"Ġportal":2759,"Ġappre":2760,"aa":2761,"Ġovercome":2762,"Ġstret":2763,"Ġevents":2764,"dle":2765,"Ġkeeper":2766,"Ġpaths":2767,"sed":2768,"Ġstar":2769,"Ġbond":2770,"Ġcausing":2771,"!\"":2772,"Ġrain":2773,"Ġrepres":2774,"oned":2775,"Ġconst":2776,"Ġcurrent":2777,"Ġfollowed":2778,"Ġthri":2779,"aded":2780,"Ġsomebody":2781,"Ġshame":2782,"Ġcontained":2783,"Ġafterno":2784,"Ġtried":2785,"Ġagreed":2786,"Ġpraise":2787,"Ġaaron":2788,"Ġide":2789,"Ġcult":2790,"Ġfollow":2791,"Ġthick":2792,"Ġoil":2793,"Ġdoll":2794,"Ġsurface":2795,"ape":2796,"Ġcop":2797,"Ġlos":2798,"Ġtwist":2799,"Ġneeds":2800,"Ġwhenever":2801,"Ġarmies":2802,"Ġappreci":2803,"Ġsir":2804,"Ġglory":2805,"Ġba":2806,"Ġsharp":2807,"Ġresponsib":2808,"Ġguidance":2809,"ument":2810,"Ġconvers":2811,"Ġplant":2812,"Ġembrace":2813,"Ġafternoon":2814,"oc":2815,"old":2816,"Ġsens":2817,"Ġmill":2818,"Ġcanvas":2819,"Ġspend":2820,"bre":2821,"Ġver":2822,"Ġoffe":2823,"Ġhearing":2824,"Ġfat":2825,"Ġfant":2826,"Ġstorm":2827,"Ġintell":2828,"Ġry":2829,"Ġamer":2830,"Ġcenturies":2831,"Ġcust":2832,"Ġcard":2833,"Ġproject":2834,"Ġsugg":2835,"Ġanymore":2836,"Ġinvestigate":2837,"Ġkevin":2838,"ug":2839,"Ġoper":2840,"Ġmale":2841,"Ġkings":2842,"Ġworth":2843,"Ġplaced":2844,"Ġwaters":2845,"Ġthoughts":2846,"acherous":2847,"Ġskills":2848,"Ġsuggest":2849,"ham":2850,"Ġmeal":2851,"Ġ15":2852,"Ġprice":2853,"Ġbird":2854,"Ġechoed":2855,"Ġtrembling":2856,"Ġsarah":2857,"ounter":2858,"Ġstronger":2859,"Ġpunishment":2860,"hn":2861,"yle":2862,"Ġant":2863,"Ġcannot":2864,"Ġleast":2865,"Ġcup":2866,"Ġthird":2867,"Ġ+":2868,"Ġpara":2869,"Ġdoors":2870,"Ġrelationship":2871,"Ġinner":2872,"Ġconc":2873,"0000":2874,"put":2875,"Ġ18":2876,"Ġbranc":2877,"Ġhelping":2878,"Ġaccount":2879,"Ġexpress":2880,"Ġsouth":2881,"Ġcaut":2882,"Ġtreacherous":2883,"Ġdinner":2884,"Ġtiny":2885,"ousness":2886,"Ġcertainly":2887,"Ġbranches":2888,"bits":2889,"ien":2890,"ĠÑģ":2891,"Ġwindow":2892,"Ð²":2893,"Ġunity":2894,"Ġfocus":2895,"Ġcouple":2896,"Ġmiddle":2897,"Ġdusty":2898,"Ġjesus":2899,"gen":2900,"sh":2901,"Ġhig":2902,"Ġdrawn":2903,"Ġarmy":2904,"Ġfamiliar":2905,"vation":2906,"Ġdar":2907,"Ġdesp":2908,"Ġgrain":2909,"Ġsket":2910,"Ġagreement":2911,"Ġlifted":2912,"Ġprayer":2913,"Ġoffered":2914,"Ġdue":2915,"Ġmater":2916,"net":2917,"Ġyell":2918,"aly":2919,"Ġindivid":2920,"Ġmemories":2921,"Ġsitu":2922,"Ġeasy":2923,"za":2924,"Ġdise":2925,"ste":2926,"ational":2927,"Ġuna":2928,"Ġlev":2929,"Ġgods":2930,"Ġgifts":2931,"und":2932,"Ġasking":2933,"Ġwonders":2934,"lish":2935,"Ġbase":2936,"Ġcru":2937,"Ġheav":2938,"Ġlie":2939,"Ġseems":2940,"Ġresting":2941,"Ġtablet":2942,"Ġensuring":2943,"Ġdou":2944,"Ġears":2945,"view":2946,"Ġfamilies":2947,"Ġstraight":2948,"Ġbeha":2949,"Ġbeth":2950,"Ġseat":2951,"play":2952,"Ġbirthday":2953,"Ġcelebrated":2954,"Ġblessing":2955,"Ġcross":2956,"Ġpred":2957,"Ġitem":2958,"Ġorgan":2959,"Ġpoor":2960,"welcome":2961,"Ġdanced":2962,"Ġrecogn":2963,"ev":2964,"uel":2965,"Ġoath":2966,"Ġcri":2967,"Ġeager":2968,"Ġproving":2969,"Ġkids":2970,"ðŁĴ":2971,"Ġrepresent":2972,"who":2973,"Ð¼":2974,"Ġist":2975,"Ġrese":2976,"Ġcost":2977,"Ġrare":2978,"Ġcharact":2979,"Ġwelcome":2980,"Ñĩ":2981,"Ġmain":2982,"Ġtool":2983,"Ġwors":2984,"Ġtransformed":2985,"ray":2986,"Ġble":2987,"Ġder":2988,"Ġnum":2989,"Ġfruit":2990,"Ġletters":2991,"Ġlevel":2992,"Ġparts":2993,"Ġscene":2994,"Ġdan":2995,"Ġdefe":2996,"Ġreceived":2997,"cing":2998,"Ġsand":2999,"Ġfest":3000,"Ġsmiled":3001,"Ġscri":3002,"cript":3003,"Ġcharacters":3004,"Ġsitting":3005,"Ġmad":3006,"ese":3007,"idence":3008,"key":3009,"alley":3010,"isions":3011,"ightly":3012,"Ġcalling":3013,"Ġrules":3014,"Ġstates":3015,"Ġintellig":3016,"uable":3017,"Ġll":3018,"Ġpage":3019,"Ġphysical":3020,"Ġtreat":3021,"els":3022,"Ġrole":3023,"pson":3024,"Ġaccept":3025,"Ġvision":3026,"ba":3027,"ners":3028,"Ġpark":3029,"acon":3030,"Ġfamous":3031,"Ġelder":3032,"Ġcustom":3033,").":3034,"Ġcott":3035,"Ġeither":3036,"Ġlies":3037,"Ġvalley":3038,"Ġchair":3039,"Ġador":3040,"Ġwarmly":3041,"Ġryan":3042,"Ġtit":3043,"Ġhmm":3044,"Ġunus":3045,"Ġlock":3046,"Ġanyway":3047,"hua":3048,"Ġangela":3049,"Ġboss":3050,"Ġpill":3051,"Ġhus":3052,"my":3053,"rd":3054,"Ġblock":3055,"Ġmetho":3056,"Ġhy":3057,"Ġreality":3058,"Ġholding":3059,"Ġrequest":3060,"Ġamazing":3061,"Ġthompson":3062,"for":3063,"Ġice":3064,"Ġfly":3065,"Ġhealth":3066,"Ġunited":3067,"Ġenj":3068,"cip":3069,"Ġchoice":3070,"Ġembarked":3071,"Ġangry":3072,"Ġosc":3073,"Ġapartment":3074,"ek":3075,"ik":3076,"Ġvers":3077,"Ġobs":3078,"Ġbath":3079,"Ġciv":3080,"Ġfaded":3081,"Ġur":3082,"Ġbroke":3083,"Ġruins":3084,"Ġposition":3085,"band":3086,"set":3087,"Ġrighte":3088,"Ġserious":3089,"that":3090,"Ġpoin":3091,"Ġviol":3092,"Ġ202":3093,"Ġcautiously":3094,"she":3095,"Ġbur":3096,"Ġeast":3097,"nowned":3098,"erman":3099,"ĠÐ½":3100,"Ġpride":3101,"Ġforests":3102,"Ġvideo":3103,"Ġcivil":3104,"con":3105,"mas":3106,"ought":3107,"Ġlin":3108,"ork":3109,"asing":3110,"Ġstan":3111,"Ġclues":3112,"ĠÐ²":3113,"Ġrenowned":3114,"Ġbob":3115,"Ġpossess":3116,"line":3117,"Ġonto":3118,"Ġdear":3119,"Ġyours":3120,"Ġstreet":3121,"Ġincred":3122,"Ġmyst":3123,"iment":3124,"ptic":3125,"Ġadm":3126,"Ġbelieved":3127,"apes":3128,"ĠâĢľ":3129,"Ġsignific":3130,"ience":3131,"Ġlab":3132,"Ġnorm":3133,"olk":3134,"igned":3135,"Ġjohn":3136,"Ġcollect":3137,"Ġnone":3138,"Ġsoci":3139,"Ġarmed":3140,"Ġbabylon":3141,"Ġkidding":3142,"Ġphilist":3143,"Ġoscar":3144,"ext":3145,"ux":3146,"Ġinf":3147,"Ġbeacon":3148,"Ġstri":3149,"Ġpress":3150,"Ġharness":3151,"Ġlistened":3152,"Ġhistor":3153,"Ġbattle":3154,"Ġsize":3155,"Ġthomas":3156,"oved":3157,"Ġdim":3158,"itions":3159,"Ġhappening":3160,"ĠĠ":3161,"Ġage":3162,"ature":3163,"omon":3164,"Ġsolomon":3165,"Ġident":3166,"Ġcapital":3167,"Ġinvent":3168,"ama":3169,"Ġring":3170,"house":3171,"llis":3172,"Ġexplored":3173,"Ø§":3174,"Ġrunning":3175,"Ġcasting":3176,"Ġpopular":3177,"Ġfavorite":3178,"Ġsource":3179,"Ġchanges":3180,"tered":3181,"Ġdistant":3182,"Ġegg":3183,"ushing":3184,"Ġglass":3185,"Ġholl":3186,"Ġwitness":3187,"Ġparticular":3188,"por":3189,"Ġeu":3190,"Ġburied":3191,"Ġmischi":3192,"Ġexample":3193,"ado":3194,"Ġapples":3195,"Ġdelic":3196,"Ġphyllis":3197,"Ġresponsible":3198,"Ġdirectly":3199,"Ġcute":3200,"Ġbeings":3201,"Ġgreater":3202,"Ġlandscapes":3203,"Ġbeasts":3204,"Ġanswers":3205,"Ġaud":3206,"Ġtow":3207,"Ġquite":3208,"Ġlog":3209,"Ġfing":3210,"Ġdeb":3211,"Ġvol":3212,"Ġmanaged":3213,"Ġenv":3214,"Ġsmart":3215,"Ġnorth":3216,"Ġrighteousness":3217,"hie":3218,"Ġcontinue":3219,"Ġelect":3220,"Ġprophet":3221,"Ġdepicted":3222,"sp":3223,"Ġmot":3224,"Ġhill":3225,"Ġmaj":3226,"Ġoverw":3227,"Ġbran":3228,"Ġenglish":3229,"Ġmulti":3230,"hab":3231,"Ġmm":3232,"Ġstyle":3233,"ada":3234,"ulf":3235,"Ġrum":3236,"Ġcompass":3237,"Ġfeelings":3238,"Ġcarefully":3239,"Ġprogramming":3240,"ls":3241,"Ġwound":3242,"Ġgames":3243,"Ġhol":3244,"Ġworry":3245,"Ġflock":3246,"Ġwatched":3247,"Ġfields":3248,"Ġtotal":3249,"Ġcottage":3250,"Ġtents":3251,"Ġstate":3252,"Ġpresident":3253,"Ġetched":3254,"Ġchristmas":3255,"Ġadorned":3256,"Ġunusual":3257,"Ġhusband":3258,"Ġsad":3259,"Ġfit":3260,"Ġves":3261,"Ġna":3262,"une":3263,"ouses":3264,"Ġchick":3265,"Ġcontext":3266,"Ġruler":3267,"Ġriddle":3268,"Ð´":3269,"Ġbott":3270,"Ġgather":3271,"Ġexcept":3272,"Ġscre":3273,"Ġpromise":3274,"Ġuncovered":3275,"aur":3276,"Ġdance":3277,"Ġwear":3278,"Ġexpect":3279,"Ġspark":3280,"Ġscr":3281,"Ġfears":3282,"Ġesc":3283,"Ġtouched":3284,"Ġtechnology":3285,"Ġsearch":3286,"Ġstanley":3287,"Ġoverwhel":3288,"Ġfool":3289,"arted":3290,"Ġideas":3291,"gest":3292,"iel":3293,"Ġsus":3294,"Ġfacing":3295,"Ġdig":3296,"ria":3297,"Ġmeasure":3298,"Ġmoments":3299,"Ġeldridge":3300,"Ġflower":3301,"Ġpicked":3302,"Ġmystical":3303,"osp":3304,"Ġimage":3305,"Ġchoose":3306,"Ġvaluable":3307,"Ġsteps":3308,"Ġspells":3309,"Ġfestival":3310,"sha":3311,"sen":3312,"Ġcand":3313,"iling":3314,"Ġcase":3315,"Ġthirty":3316,"Ġclothing":3317,"Ġintelligence":3318,"Ġded":3319,"Ġweren":3320,"Ġjose":3321,"Ġroad":3322,"Ġ100":3323,"Ġdepends":3324,"Ġchamber":3325,"Ġphara":3326,"hmm":3327,"val":3328,"Ġsci":3329,"Ġvivid":3330,"ilt":3331,"Ġconcept":3332,"Ġdepth":3333,"der":3334,"Ġnon":3335,"Ġhall":3336,"ality":3337,"Ġarea":3338,"Ġvie":3339,"Ġpicture":3340,"Ġbehavi":3341,"Ġpharaoh":3342,"Ġwearing":3343,"Ġmanager":3344,"Ġheads":3345,"Ġsoftware":3346,"Ġprofess":3347,"Ġabsol":3348,"Ġresear":3349,"Ġbranch":3350,"pa":3351,"Ã¶":3352,"used":3353,"Ġguided":3354,"Ġsalvation":3355,"Ġlegendary":3356,"Ġcompletely":3357,"Ã³n":3358,"Ġjoseph":3359,"wa":3360,"veled":3361,"east":3362,"Ġlikely":3363,"Ġcreativity":3364,"Ġkeeping":3365,"Ġcarried":3366,"world":3367,"Ġdressed":3368,"Ġsn":3369,"Ġmike":3370,"stac":3371,"Ġsevent":3372,"Ġemily":3373,"Ġcrying":3374,"Ġmoonlight":3375,"Ġtroub":3376,"Ġsituation":3377,"evous":3378,"Ġenjoy":3379,"Ġvessel":3380,"cent":3381,"look":3382,"Ġkill":3383,"rap":3384,"Ġalg":3385,"Ġ11":3386,"Ġcapturing":3387,"Ġcastle":3388,"Ġsearching":3389,"Ġscient":3390,"Ġfixed":3391,"Ġreward":3392,"icated":3393,"ulous":3394,"Ġapple":3395,"Ġskin":3396,"Ġencounter":3397,"Ġraced":3398,"Ġtransport":3399,"Ġpossib":3400,"Ġstrugg":3401,"Ġdespite":3402,"bot":3403,"Ġfile":3404,"Ġiss":3405,"Ġdoctor":3406,"Ġwherever":3407,"itely":3408,"Ġpleasure":3409,"Ġabsolute":3410,"xim":3411,"Ġchat":3412,"Ġaband":3413,"Ġoriginal":3414,"Ġjoshua":3415,"Ġconversation":3416,"Ġmischievous":3417,"gra":3418,"po":3419,"Ġintently":3420,"Ġtalked":3421,"Ġrequire":3422,"Ġfighting":3423,"\",":3424,"ker":3425,"Ġcaught":3426,"Ġ14":3427,"Ġappear":3428,"Ġhelped":3429,"ĠÐ¸":3430,"Ġjeho":3431,"Ġdestro":3432,"Ġdisease":3433,"Ġborn":3434,"Ġdecip":3435,"dddddddddddddddd":3436,"cccccccccccccccc":3437,"Ġlevites":3438,"omm":3439,"omed":3440,"Ġunf":3441,"Ġleather":3442,"Ġelements":3443,"Ġlam":3444,"Ġlunch":3445,"osop":3446,"Ġimages":3447,"Ġerin":3448,"Ġdaughters":3449,"Ġdollars":3450,"Ġincredible":3451,"hemat":3452,"Ġmere":3453,"Ġjewel":3454,"Ġphilosop":3455,"Ġpublic":3456,"Ġopt":3457,"Ġvict":3458,"Ġwindows":3459,"Ġcountless":3460,"Ġhonour":3461,"Ġtick":3462,"Ġban":3463,"Ġdesk":3464,"Ġpieces":3465,"Ġcalcul":3466,"Ġphilistines":3467,"mar":3468,"Ġbow":3469,"Ġpul":3470,"ican":3471,"Ġaren":3472,"Ġlights":3473,"Ġmathemat":3474,"Ġrunes":3475,"Ġbrighter":3476,"Ġreflect":3477,"nal":3478,"Ġpal":3479,"lled":3480,"Ġinfl":3481,"Ġrevel":3482,"Ġmechan":3483,"ĠÐº":3484,"Ġhues":3485,"Ġtyp":3486,"irts":3487,"Ġdisg":3488,"ÑĤÐ¾":3489,"Ġdangerous":3490,"hey":3491,"Ġmyt":3492,"ights":3493,"Ġze":3494,"Ġcryptic":3495,"Ġarms":3496,"Ġcirc":3497,"Ġgrowth":3498,"Ġfloor":3499,"Ġassistant":3500,"ret":3501,"Ġknows":3502,"Ġboard":3503,"Ġsorrow":3504,"Ġbeloved":3505,"Ġsimp":3506,"Ġeffort":3507,"Ġsociety":3508,"Ġbes":3509,"Ġjap":3510,"Ġmelo":3511,"una":3512,"eping":3513,"Ġfalling":3514,"Ġlaugh":3515,"ground":3516,"ket":3517,"Ġps":3518,"Ġrenew":3519,"Ġdiscus":3520,"Ġflesh":3521,"bye":3522,"Ġtransl":3523,"Ġproblems":3524,"Ġcommunicate":3525,"this":3526,"Ġyork":3527,"Ġlum":3528,"Ġquant":3529,"Ġfaster":3530,"Ġreminding":3531,"Ġtradition":3532,"uments":3533,"Ġ16":3534,"Ġinteresting":3535,"cl":3536,"how":3537,"par":3538,"Ġsick":3539,"Ġfeast":3540,"Ġnar":3541,"hol":3542,"usting":3543,"Ġarg":3544,"Ġbelow":3545,"huh":3546,"Ġtoby":3547,"ference":3548,"Ġpromised":3549,"Ġdamn":3550,"Ġoccurren":3551,"Ġscience":3552,"Ġabandoned":3553,"bu":3554,"Ġtears":3555,"ening":3556,"Ġnames":3557,"Ġthrow":3558,"Ġbutt":3559,"unt":3560,"usion":3561,"Ġ13":3562,"Ġscott":3563,"angers":3564,"lessly":3565,"Ġdawn":3566,"Ġfactors":3567,"Ġscroll":3568,"aking":3569,"Ġmal":3570,"Ġhouses":3571,"iron":3572,"Ġfeather":3573,"Ġemma":3574,"Ġmissing":3575,"Ġanimal":3576,"Ġintroduced":3577,"Ġgerman":3578,"Ġwhether":3579,"Ġhappens":3580,"Ġcommand":3581,"Ġstarting":3582,"Ġguardians":3583,"Ġhoriz":3584,"Ġbelonged":3585,"Ġmaterial":3586,"Ġworship":3587,"Ġtowering":3588,"Ġ&":3589,"Ġpan":3590,"itude":3591,"Ġgoods":3592,"Ġvisions":3593,"Ġabsolutely":3594,"Ġanaly":3595,"Ġrad":3596,"ryl":3597,"Ġlose":3598,"Ġsmile":3599,"Ġdecisions":3600,"Ġpriv":3601,"Ġdestiny":3602,"Ġobstac":3603,"Ġchose":3604,"Ġterr":3605,"ym":3606,"Ġbill":3607,"Ġgained":3608,"eth":3609,"Ġmanage":3610,"bert":3611,"Ġslightly":3612,"Ġrecomm":3613,"Ġhesitation":3614,"Ġcarrying":3615,"Ġsimply":3616,"Ġpor":3617,"Ġanybody":3618,"Ġregular":3619,"Ġguiding":3620,"Ġjord":3621,"Ġark":3622,"Ġstruct":3623,"Ġhanging":3624,"Ġenviron":3625,"but":3626,"Ġinde":3627,"Ġwea":3628,"Ġputting":3629,"Ġblo":3630,"Ġwooden":3631,"!!!":3632,"kend":3633,"ising":3634,"Ġnobody":3635,"ulations":3636,"Ġrom":3637,"ended":3638,"Ġcompet":3639,"Ġseriously":3640,"Ġachie":3641,"Ġcorner":3642,"Ġportra":3643,"Ġscript":3644,"ĠÃ":3645,"Ġactions":3646,"Ġwest":3647,"rem":3648,"Ġhung":3649,"Ġvir":3650,"Ġimm":3651,"Ġbrush":3652,"Ġpreser":3653,"Ġphot":3654,"min":3655,"uc":3656,"ws":3657,"uts":3658,"ify":3659,"Ġpros":3660,"Ġdestroy":3661,"ping":3662,"Ġfaces":3663,"Ġeph":3664,"Ġinvited":3665,"Ġbringing":3666,"Ġnormal":3667,"Ġoverwhelmed":3668,"\"?":3669,"rt":3670,"hell":3671,"Ġhaters":3672,"Ġconsider":3673,"Ġimagine":3674,"Ġrule":3675,"Ġemotions":3676,"Ġscrolls":3677,"Ġlimit":3678,"Ġstretched":3679,"Ġoccurrences":3680,"father":3681,"Ġpure":3682,"ana":3683,"stone":3684,"host":3685,"ilar":3686,"Ġoutsk":3687,"elling":3688,"Ġunlocking":3689,"Ġoutskirts":3690,"Ġing":3691,"Ġori":3692,"Ġisland":3693,"iece":3694,"Ġshift":3695,"Ġrefers":3696,"Ġshop":3697,"Ġscenes":3698,"ãģ":3699,"cious":3700,"Ġhappiness":3701,"Ġgeneration":3702,"Ġwisely":3703,"Ġcollection":3704,"Ġterrible":3705,"Ġdarryl":3706,"Ġelderly":3707,"Ġjordan":3708,"Ġast":3709,"Ġfulf":3710,"Ġrele":3711,"Ġallowed":3712,"elly":3713,"Ġrealizing":3714,"Ġgirlfriend":3715,"ucked":3716,"Ġmarked":3717,"Ġstudy":3718,"Ġbatt":3719,"Ġsongs":3720,"Ġwelcom":3721,"Ġillum":3722,"Ġheavy":3723,"Ġfoolish":3724,"gress":3725,"ium":3726,"vol":3727,"ances":3728,"iffl":3729,"Ġtrip":3730,"Ġopening":3731,"Ġhorse":3732,"Ġdefinitely":3733,"Ġgrief":3734,"Ġwelcomed":3735,"ec":3736,"ior":3737,"Ġfict":3738,"Ġ17":3739,"Ġemp":3740,"Ġentr":3741,"Ġaccess":3742,"Ġjapan":3743,"gs":3744,"Ġwings":3745,"Ġcy":3746,"Ġyep":3747,"Ġpi":3748,"Ġpiz":3749,"Ġshel":3750,"Ġunc":3751,"Ġtraining":3752,"Ġdeeply":3753,"Ġharm":3754,"Ġpost":3755,"Ġjudge":3756,"Ġartists":3757,"Ġdrive":3758,"Ġsisters":3759,"ternal":3760,"ifflin":3761,"step":3762,"ases":3763,"Ġsmo":3764,"Ġstopped":3765,"Ġpushed":3766,"Ġtwel":3767,"Ġmagn":3768,"Ġgrowing":3769,"Ġcubits":3770,"Ġacts":3771,"Ġplayed":3772,"Ġ30":3773,"Ġpresence":3774,"Ġlocation":3775,"Ġdunder":3776,"Ġfifty":3777,"Ġslowly":3778,"Ġalgor":3779,"Ġdecipher":3780,"ients":3781,"Ġweeping":3782,"thur":3783,"Ġservice":3784,"Ġdistance":3785,"Ġlady":3786,"Ġenvironment":3787,"Ġtucked":3788,"Ġsac":3789,"Ġdro":3790,"aming":3791,"Ġseas":3792,"Ġamount":3793,"ĠÐ´":3794,"Ġwishes":3795,"Ġspeed":3796,"Ġsimilar":3797,"Ġcraft":3798,"Ġcreation":3799,"Ġappreciate":3800,"Ġitems":3801,"folk":3802,"ww":3803,"verage":3804,"Ġju":3805,"amin":3806,"Ġspr":3807,"Ġolder":3808,"Ð½Ð¸":3809,"Ġsystems":3810,"chard":3811,"doing":3812,"Ġpredict":3813,"),":3814,"Ġspot":3815,"Ġ24":3816,"aughter":3817,"Ġwarmth":3818,"Ġmessages":3819,"Ġsubject":3820,"Ġfantast":3821,"sa":3822,"erie":3823,"Ġden":3824,"onse":3825,"Ġles":3826,"Ġstick":3827,"oof":3828,"Ġnovel":3829,"Ġpeop":3830,"Ġpond":3831,"airs":3832,"Ġpacked":3833,"Ġsignificant":3834,"Ġdisgusting":3835,"col":3836,"ij":3837,"ses":3838,"Ġdude":3839,"Ġloose":3840,"Ġweather":3841,"Ġgrate":3842,"Ġsolving":3843,"Ġadvice":3844,"Ġproperty":3845,"Ġtur":3846,"Ġghost":3847,"ater":3848,"urous":3849,"Ġarthur":3850,"people":3851,"Ġscent":3852,"Ġadventurous":3853,"Ġbitter":3854,"fer":3855,"night":3856,"Ġbree":3857,"Ġgay":3858,"Ġnotice":3859,"Ġdem":3860,"Ġrust":3861,"Ġprove":3862,"Ġpregn":3863,"Ġahh":3864,"Ġsafely":3865,"Ġmilk":3866,"Ġdevice":3867,"Ġmythical":3868,"Ġ*":3869,"Ġ×":3870,"ato":3871,"oms":3872,"Ġugh":3873,"Ġran":3874,"Ġtap":3875,"Ġplants":3876,"Ġremembered":3877,"Ġresponsibility":3878,"wood":3879,"haps":3880,"Ġjoe":3881,"Ġjoin":3882,"aker":3883,"reek":3884,"Ġtrials":3885,"Ġinstr":3886,"Ġinstruction":3887,"Ġtownsfolk":3888,"Ġlaws":3889,"Ġhigher":3890,"Ġrevelation":3891,"Ġfeathers":3892,"raim":3893,"ĠÐ¾":3894,"Ġtrick":3895,"Ġnetwork":3896,"Ġjewels":3897,"Ġhorizon":3898,"lit":3899,"Ã±":3900,"Ġgrove":3901,"Ġshouldn":3902,"Ġinspire":3903,"10":3904,"Ġfle":3905,"itch":3906,"Ġapplic":3907,"Ġ23":3908,"Ġgrass":3909,"Ġzep":3910,"ÐµÑĤ":3911,"Ġdriving":3912,"Ġobjects":3913,"Ġauthority":3914,"Ġtask":3915,"chen":3916,"hood":3917,"Ġneg":3918,"Ġmoab":3919,"Ġearli":3920,"Ġchosen":3921,"Ġengine":3922,"Ġqueen":3923,"Ġfairy":3924,"Ġprepared":3925,"tes":3926,"Ġwhoever":3927,"Ġshowed":3928,"Ġcarved":3929,"Ġguarded":3930,"Ġexpert":3931,"Ġconnected":3932,"Ġalgorith":3933,"book":3934,"Ġau":3935,"Ġcord":3936,"Ġcrow":3937,"Ġgun":3938,"Ġgently":3939,"ication":3940,"âĢĿ":3941,"Ġsell":3942,"ulation":3943,"ploy":3944,"Ġshall":3945,"Ġgrace":3946,"Ġgirls":3947,"Ġbenj":3948,"Ġclosed":3949,"Ġdirection":3950,"Ġknock":3951,"Ġchiefs":3952,"Ġentrance":3953,"Ġpeoples":3954,"back":3955,"Ġhan":3956,"Ġjav":3957,"Ġnope":3958,"Ġsport":3959,"Ġteach":3960,"Ġbreast":3961,"Ġindividual":3962,"Ġgrateful":3963,"ives":3964,"Ġaverage":3965,"Ġexce":3966,"Ġwrote":3967,"Ġowner":3968,"Ġfox":3969,"Ġsurrounding":3970,"Ġdisappear":3971,"Ġvanished":3972,"Ġreplied":3973,"Ġbathroom":3974,"Ġview":3975,"Ġiron":3976,"Ġbridge":3977,"Ġbear":3978,"roud":3979,"Ġamu":3980,"akes":3981,"Ġimprove":3982,"Ġsurp":3983,"Ġtribe":3984,"Ġchuck":3985,"Ġmethod":3986,"Ġrenewed":3987,"Ġephraim":3988,"Ġsan":3989,"ury":3990,"Ġstranger":3991,"Ġperhaps":3992,"Ġweekend":3993,"Ġresponse":3994,"Ġcrack":3995,"Ġstudying":3996,"Ġprophets":3997,"Ġfaintly":3998,"Ġloss":3999,"vern":4000,"ades":4001,"anton":4002,"Ġconside":4003,"Ġcake":4004,"Ġroot":4005,"Ġ200":4006,"ðŁ¤":4007,"Ġbreeze":4008,"'.":4009,"piece":4010,"ĠÃ©":4011,"Ġusual":4012,"Ġenvelop":4013,"cially":4014,"Ġcatch":4015,"Ġclothes":4016,"Ġlandscape":4017,"bl":4018,"sis":4019,"Ġmur":4020,"Ġrid":4021,"ists":4022,"Ġobv":4023,"Ġtraveler":4024,"Ġ,":4025,"Ġced":4026,"Ġlikes":4027,"Ġcab":4028,"Ġputs":4029,"Ġuhh":4030,"Ġcheris":4031,"Ġaddress":4032,"Ġcapable":4033,"Ġentirely":4034,"Ġhurt":4035,"Ġsketching":4036,"Ġeuro":4037,"Ġtwelve":4038,"Ġamulet":4039,"Ġconsidered":4040,"aiah":4041,"nel":4042,"Ġtong":4043,"Ġmixed":4044,"Ġfro":4045,"Ġyourselves":4046,"ending":4047,"ension":4048,"Ġcursed":4049,"Ġwandered":4050,"Ġrulers":4051,".ï¿½":4052,"wr":4053,"zer":4054,"ÑĪ":4055,"rase":4056,"Ġplus":4057,"Ġboat":4058,"rupt":4059,"Ġespe":4060,"Ġbasket":4061,"Ġawa":4062,"Ġprompt":4063,"Ġhonest":4064,"Ġinspiration":4065,"Ġoppos":4066,"Ġdrawing":4067,"Ġscranton":4068,"aan":4069,"bel":4070,"time":4071,"ĠÂ":4072,"Ġaction":4073,"Ġwha":4074,"Ġmac":4075,"Ġmmm":4076,"omes":4077,"Ġorange":4078,"Ġcompl":4079,"Ġjournal":4080,"Ġdoorway":4081,"Ġtownspeople":4082,"Ġboyfriend":4083,"Ġrequired":4084,"Ġtemple":4085,"Ġavail":4086,"Ġlumina":4087,"Ġpush":4088,"arian":4089,"Ġep":4090,"Ġsocial":4091,"uss":4092,"Ġtax":4093,"rench":4094,"Ġcloud":4095},"merges":["Ġ t","h e","Ġ a","i n","Ġ w","Ġt he","Ġ s","Ġ o","r e","Ġ i","o u","n d","Ġ b","h a","e r","Ġ m","Ġ c","in g","Ġ f","Ġ d","e d","o n","Ġt o","Ġ y","e n","Ġ l","o r","Ġ p","Ġa nd","l l","Ġ g","Ġo f","e s","Ġy ou","a r","Ġ n","Ġ he","Ġ e","a n","h i","i t","Ġ in","a t","s t","ha t","o m","o w","Ġb e","v e","Ġ u","Ġ ha","Ġi t","a l","a y","u t","s e","o t","l e","Ġi s","Ġo n","e t","a s","a c","r i","Ġt hat","g h","l d","Ġ re","i c","hi s","en t","Ġs t","Ġw e","i d","Ġhe r","Ġ k","v er","Ġf or","Ġ h","o o","Ġ j","Ġl i","Ġs he","it h","i on","a m","Ġw ith","l y","i ll","â Ģ","gh t","Ġt h","i r","' s","r o","k e",". .","Ġa n","Ġm e","Ġw hat","u r","âĢ Ļ","Ġs e","Ġw as","a d","Ġa s","Ġd o","h o","Ġn ot","= =","a ll","i s","Ġg o","Ġs o","g e","a in","Ġe l","Ġ hi","Ġm y","he r","c e","c h","Ġd e","Ġw ill","Ġt his","n ow","om e","i m","r a","u st","Ġb ut","Ġa re","Ġn e","c t","o re","Ġn o","Ġyou r","ou ld","Ġha ve","Ġ v","Ġf r","u re","es t","ou t","Ġthe y","ar a","Ġw ho","oo k","Ġa b","Ġk now","e l","Ġa ll","Ġw or","an t","Ġfr om","er s","Ġel ara","Ġw he","e a","t h","Ġm a","q u","Ġ his","' t","a nd","r ou","i l","re d","Ġu p","Ġc an","o p","Ġin t","Ġj ust","at ion","Ġb y","Ġe x","Ġon e","u m","oo d","p p","Ġs a","u l","Ġo r",".. .","Ġa l","ha n","Ġo h","es s","Ġa t","Ġu n","am e","Ġthe re","on e","u n","Ġo ut","ar t","Ġs p","Ġ r","in d","f e","Ġab out","ver y","i ght","e p","Ġha d","re at","t er","Ġ \"","or d","Ġc on","Ġthe ir","Ġh ow","o s","u s","Ġthe m","Ġo k","Ġ ri","e ar","i ve","all y","Ġt a","Ġli ke","Ġc om","on g","Ġt r","i f","Ġp l","ou s","e m","Ġhi m","Ġp e","Ġm an","ac k","Ġw hi","ac e","v en","re n","i z","at e","it y","Ġp ro","c k","Ġ qu","Ġwhe n","Ġa m","Ġi f","Ġbe c","d d","Ġt im","b r","Ġu s","o l","Ġd on","i e","ar d","Ġc a","Ġg u","Ġwe re","r y","Ġ ro","b le","Ġl o","Ġd ay","ea h","i g","Ġm o","Ġw ould","Ġl ord","Ġy eah","' m","Ġg et","k ing","Ġint o","Ġa r","h ing","a ge","ou r","ou nd","e ll","i es","p l","Ġ en","Ġe very","w n","Ġok ay","Ġd id","Ġri ght","n e","Ġwe ll","nd er","a st","Ġsa id","Ġtim e","Ġc l","id e","Ġs u","Ġan y","v ed","i st","Ġa g","Ġl et","Ġc ome","Ġs h","c i","a u","Ġt han","Ġl e","l ed","Ġse e","se l","w ay","Ġs ay","v ing","Ġo ver","a g","n ed","op le","Ġhe y","p er","or y","h y","Ġpe ople","s s","Ġthe n","ac h","p t","Ġgo d","o se","in k","p e","Ġc ould","c o","Ġs ome","Ġn ow","n a","Ġha s","ing s","Ġhe re","Ġb ack","t her","he d","Ġc o","in e","or t","Ġt re","' re","rou gh","Ġw ant","Ġc ha","Ġu nder","Ġl ook","Ġg reat","u e","om et","Ġth rough","ic e","Ġj o","ain t","Ġg ood","Ġp ut","Ġs ha","ad e","Ġwhi ch","Ġma ke","Ġg ive","Ġne w","Ġs omet","at h","t s","Ġwhe re","Ġ ==","Ġit s","== =","Ġ== ===","Ġof f","Ġw ay","Ġwill ow","Ġbe en","rou nd","Ġf e","Ġt w","Ġd is","sel f","br ook","e nd","Ġ 1","Ġwillow brook","Ġag ain","n ing","Ġm ore","au se","f ore","Ġt al","Ġm ade","Ġth ink","v es","Ġi m","a b","Ġo ther","u d","c c","Ġbe fore","Ġta ke","ow n","a h","Ġbe t","ou n","Ġme an","Ġf l","Ġg ot","as s","b e","Ġo ld","Ġto o","w e","Ġre al","Ġs m","Ġk e","Ġw hy","Ġw r","Ġc hi","am ed","Ġa f","Ġp re","Ġe ven","ar k","i re","Ġcon t","Ġu h","Ġm ay","Ġre ally","Ġwor k","Ġe m","m ent","Ġs c","Ġex pl","Ġwor d","ot her","Ġa pp","ct ion","Ġa d","Ġb o","f t","i ous","Ġb r","Ġsomet hing","Ġst r","Ġl and","Ġbec ause","it e","Ġcom p","on na","ac t","Ġg onna","dd en","Ġp r","Ġe ach","Ġy ear","Ġin s","Ġp ow","Ġwor ld","Ġth ose","Ġhe l","n g","Ġhe art","um b","c re","Ġto wn","Ġne ed","oun t","ar y","Ġe ar","Ġup on","Ġv ill","Ġb l","it t","Ġst ory","v ent","Ġd own","at her","on s","Ġaf ter","Ġgu y","Ġli ly","Ġhel p","Ġha nd","a k","ic al","ur ned","Ġon ly","Ġt ell","Ġg l","Ġk ing","Ġo ur","Ġth ou","Ġma g","Ġd es","Ġc ame","g et","Ġli fe","Ġgo ing","at ed","en ce","Ġthe se","ation s","Ġn amed","Ġar t","Ġy es","Ġha pp","Ġw at","er ing","a se","Ġf ore","ic k","Ġt e","Ġc reat","Ġde c","âĢ Ķ","Ġ 2","an ce","ri end","an s","Ġb ook","re e","Ġyou ng","Ġtw o","Ġs er","Ġpow er","Ġw om","st er","Ġse cre","a v","Ġdo es","Ġde ep","Ġpl ace","Ġre s","ure s","Ġf ir","Ġg r","or m","th ing","Ġw a","Ġh o","i se","Ġp art","Ġg i","Ġchi ld","Ġon ce","Ġf ind","Ġsh ould","k s","Ġfir st","ion s","Ġw ent","Ġa way","u ll","m m","d e","Ġs or","er m","Ġlo ve","i v","Ġd if","Ġm on","Ġwhi le","Ġf ound","Ġa round","s o","Ġc all","Ġl ea","Ġb u","an g","Ġw his","fe ren","Ġke ep","Ġw ood","ou se","Ġbe l","u ed","Ġn ight","Ġc u","Ġha r","Ġl ear","we en","Ġf riend","Ġd re","e ct","Ġbet ween","Ġfe el","Ġl ong","Ġc han","Ġm u","iz a","Ġunder st","get her","Ġli ved","Ġ Ð","ci ent","x t","ve l","Ġre m","o ck","Ġto gether","Ġvill age","Ġknow n","Ġdis co","d y","k now","i a","Ġp ri","Ġp le","Ġp aint","Ġo p","Ġel iza","Ġa ct","Ġd et","Ġo wn","0 0","f ul","Ġe y","id ed","Ġtr ue","Ġhi dden","Ġf o","Ġre ad","Ġre t","Ġf in","Ġwom an","Ġne ver","Ġbe g","Ġis ra","Ġisra el","Ġw is","iz ed","Ġsm all","Ġyear s","c es","t ing","way s","Ġs on","Ġw ar","Ġp o","Ġagain st","Ġbec ame","Ġe nd","i an","e ver","ve red","or s","en ed","Ġg a","Ġp er","Ġim p","w ard","Ġal so","Ġh ouse","Ġse em","l es","Ġan cient","ir l","Ġwith out","n ess","Ġe ver","Ġh ome","Ġal ways","Ġfore st","Ġmy ster","Ġwa it","Ġh u","itt le","' ll","Ġwith in","Ġu se","Ġc he","ot h","p s","Ġl ittle","Ġdif feren","Ġunderst and","Ġs ure","f f","t e","Ġtoo k","a re","led ge","Ġj our","Ġmu ch","Ġguy s","Ġc ar","Ġp ers","Ġli ght","Ġn ame","Ġknow ledge","d om","b er","Ġs ur","ow ing","Ġqu est","Ġchild ren","Ġcom m","re ad","Ġk ind","os s","Ġ (","b o","Ġm r","Ġs k","Ġf am","Ġ very","Ġsor ry","? !","Ġl a","Ġ z","in ed","ne y","Ġdid n","Ġmo st","Ġm en","Ġg irl","f orm","Ġe v","Ġey es","g y","Ġga ve","a ble","Ġth ing","Ġst art","Ġple ase","l ing","Ġth ings","al s","Ġthou ght","Ġs y","Ġa c","d ay","Ġen c","Ġm ic","ri ght","Ġjour ney","o nd","Ġad vent","Ġp ass","Ġli st","Ġg en","ac hed","pe ct","Ġdec ided","Ġc le","! !","Ð ¾","Ġn at","i ly","Ġus ed","Ġwood s","an ge","k en","Ġday s","ill ed","e y","Ġs et","Ġreal ized","t y","Ġf un","k ed","in s","ri g","Ġpers on","p le","ain ed","ne w","is h","Ġher self","Ġman y","Ġbeg an","r u","w er","Ġear th","Ġf ather","Ġpl ay","en s","is s","Ġh um","at ing","Ġam ong","t ed","Ġt ri","k es","Ġst ill","Ġdet erm","Ġs ent","ent s","Ġg ra","Ġqu aint","Ġdo ing","i ble","Ġus ing","Ġmag ic","l i","Ġro om","Ġword s","a ut","' ve","Ġre st","Ġin v","Ġins ide","el t","Ġdifferen t","Ġn umb","Ġan s","Ġtre as","Ġm ar","Ġsa w","Ġcu ri","g ed","Ġf illed","t en","Ġm at","Ġb est","Ġp a","Ġm or","ha el","i qu","en se","Ġg re","Ġseem ed","u ally","Ġt ra","Ġgen er","it s","Ġso l","Ð °","oo l","Ġat t","Ġne ar","Ġthan k","Ġmic hael","Ġd ark","Ġbel ie","Ġw al","Ġro ss","Ġb oth","umb led","ul t","Ġev il","Ġor d","Ġm et","i x","t he","Ġan other","Ġbe aut","Ġ ent","Ġsp e","Ġc ry","Ġu m","Ġh op","Ġtre e","n o","Ġwhis per","Ġk new","ig n","ow s","Ġcont in","Ġfriend s","Ġc h","Ġbe h","Ġst umbled","Ġm om","Ġbeh ind","ur n","Ġf a","Ġgi ven","ro ss","Ġl ast","he l","ag es","i ld","Ð µ","Ġf elt","Ġli ving","Ġother s","m b","Ġdo or","Ġ -","Ġf ear","Ġser v","Ġdisco vered","Ġhand s","e red","c hed","he s","f ound","Ġevery one","a p","Ġsecre ts","Ġf ar","b y","i al","Ġin st","Ġop en","ur ing","Ġt urned","Ġne xt","Ġwis dom","Ġst re","Ġca re","Ġ âĢ","Ġv o","Ġf ace","Ġgu ard","ver s","Ġsome one","Ġs in","Ġhe ll","Ġsecre t","Ġde ath","Ġst op","Ġex c","Ġany thing","Ġs un","Ġth ree","Ġre ve","Ġs w","Ġre l","er t","u se","Ġwr ite","Ġr ac","Ġtr y","Ġf ull","Ġwe e","Ġmor ning","Ġb en","Ġv is","one y","Ġb ig","Ġm ight","it ion","ic a","Ġ 3","Ġapp ro","Ġj e","Ġstr ange","Ġreve al","Ġbe ing","Ġd av","Ġwas n","Ġb ab","Ġsp ir","Ġmyster ious","Ġle ad","Ġdav id","Ġ '","Ġf ood","c ri","Ġtr ans","Ġp ur","b s","Ġd ra","Ġs ound","bo dy","Ġevery thing","Ġb ir","Ġar m","Ġs hi","Ġex per","r ow","Ñ Ĥ","Ġbet ter","Ġc ou","Ġhe ad","ch ing","if ic","g es","u ck","Ġc ity","Ġin c","Ġgo ld","Ġwhisper ing","ll en","Ġmay be","ri c","Ġs im","ut e","Ġjo ey","Ġ ra","re ss","Ġpre s","Ġret urned","Ġm ind","ant s","u al","Ġins p","Ġj ud","' d","Ġs ame","Ġhi st","an c","Ġcha llen","Ġi d","Ġd one","it ed","Ġa ut","Ġe ld","it ies","l er","Ġnumb er","ri s","Ġc ur","ar ing","ic t","d u","Ġd est","n er","Ġcha r","Ġdeep er","m e","Ġse en","Ġnot hing","Ġle ft","Ð ¸","Ġthou gh","Ġwat er","c ul","ri ed",", \"","Ġsay ing","Ġtal k","Ġa cc","Ġd r","Ġlo c","Ġfor g","Ġint rig","Ġc or","Ġw ind","Ġsu ch","ow ed","Ġans wer","Ġsu dden","i ah","ar s","Ġdre am","i ar","Ġa ir","o g","Ġw ise","Ġc ol","o h","Ġa h","Ġst e","Ġm in","Ġp oss","Ġl ay","hi p","Ġact ually","Ġlear ned","Ġimp ort","Ġc ount","Ġd w","Ġdeterm ined","n y","t a","Ġme et","Ġw all","Ġintrig ued","Ġpr ot","i le","Ġ es","ou gh","Ġnat ure","Ġhi gh","Ġfin ally","Ġcon ne","Ġmag ical","Ġvo ice","Ġf ig","Ġexpl ain","il ity","Ġfo ll","Ġst u","Ġb ra","Ġbab y","Ġcontin ued","Ġhow ever","Ġso ft","Ġb as","Ġbe y","Ġb us","Ġbey ond","Ġf ire","Ġread y","Ġhell o","s ide","Ġs ou","Ġnew found","Ġdw ight","Ġw o","Ġfam ily","p h","Ġac ross","e f","Ġcomp le","Ġas s","Ġp ast","ll s","l ess","Ġ er","Ġal ong","Ġfor m","Ġc ent","Ġs l","in ess","Ġ 5","fe ct","Ġun t","Ġl ess","ac es","ge nd","Ġr un","Ġma p","Ġs ons","Ã ©","Ġgra nd","pp ed","Ġcomm un","Ġlist en","Ġp ath","Ġh our","Ġpe ace","Ġw ow","i red","Ġcha nd","Ġthan ks","Ġo w","Ġhar d","Ġv al","a il","Ġb re","Ġt hi","ac ed","Ġtre es","Ġtreas ure","j ect","Ġo b","Ġunderstand ing","u b","Ġst and","Ġs al","Ġstr ong","Ġcall ed","Ġto day","g g","Ġchand ler","Ġle gend","Ġst ep","Ġbelie ve","g r","sel ves","Ġsha d","Ġmon th","ll ing","l f","w or","c ome","Ġ ed","Ġde l","Ġ hat","Ġforg ot","Ġta ken","Ġpl an","Ġhop e","Ġqu ick","in t","Ġint er","Ġc ho","Ġl ot","Ġlook ing","Ġmo d","Ġre c","a z","Ġsp read","Ġquest ion","Ġc at","Ġsu pp","Ġspir it","Ġto ld","Ġrac hel","Ġadvent ure","Ġsay s","iqu e","Ġtal king","Ñ ģ","Ġg if","os ity","Ġw and","Ġart ist","Ġres p","ci al","Ġsomet im","Ġexpl ore","s c","Ġrem em","Ġd i","Ġre f","Ġse nd","Ġex t","Ġj im","an na","m on","Ġa w","Ġv ar","Ġe le","em ent","Ġbr other","Ġsudden ly","o ke","Ġn ice","Ġpaint ing","Ġcuri osity","Ġpur p","Ġs ide","Ġy et","et s","Ġli br","Ġcl os","Ġho ld","Ġp ho","Ġg ame","c le","Ġb ro","Ġke y","ur al","Ġre ached","Ġmon ica","Ġv i","au ght","co nd","Ð ½","Ġf ine","ce pt","i b","in ation","ri es","us h","g th","Ġc r","or ing","Ġhist ory","f l","Ġsometim es","dd dd","Ġbu ild","Ġlo st","ble m","Ġpr om","Ġal right","cc cc","Ġhum an","Ġexper i","Ġl at","ur ning","Ġw anna","Ġp h","l a","ie ld","Ġfig ure","Ġd ist","Ġj er","ain s","Ġde p","Ġpro blem","ra ge","Ġt y","iz e","Ġin d","Ġse cond","Ġm ark","Ġp ie","Ñ Ģ","Ġwr ong","Ġfor ward","Ġel se","Ġhapp en","in ary","Ġst ren","Ġme m","Ġs ho","Ġs ign","Ġpho e","Ġbeaut if","Ġprot ect","in es","ic ed","ag ers","Ġgre w","ru ction","Ġany one","Ġre p","re s","Ġ 4","Ġun co","or ies","Ġsh ow","Ġm ount","Ġwar m","Ġta ble","Ġwant ed","r ing","Ġsp ent","Ġfeel ing","Ġma king","Ġsa fe","Ġoff ering","Ġcreat ures","Ġp am","Ġf ut","Ġu mm","Ġho ly","Ġa p","in king","Ġk id","Ġhapp ened","t o","Ġc e","Ġl ang","Ġunt il","Ġt ou","om ing","Ġdes cri","Ġh or","os es","Ġpro p","c ess","Ġvill agers","al e","Ġca pt","Ġcom ing","Ġappro ached","c y","Ġs il","ert ain","Ġcou rage","Ġc ut","d s","d ing","Ġphoe be","Ġm iss","mb ol","Ġd at","Ġen ough","Ġwee ks","i o","Ġo ak","Ġr ul","Ġsy mbol","Ġenc han","Ġdoes n","Ġfl ow","Ġst ud","Ġw i","Ġso on","Ġlang u","Ġstren gth","z e","Ġbr ing","st em","Ġst one","ul ar","Ġguard ian","Ġb ad","Ġg rou","Ġpe cul","Ġbeautif ul","Ġpecul iar","Ġpurp ose","Ġcle ar","Ġeven ing","Ġow l","Ġan im","i p","Ġs ing","Ġha ving","Ġhim self","Ġp ot","Ġm ess","Ġtim es","Ġcreat e","Ġbook s","Ð¾ Ð","Ġs ense","Ġcon f","Ġsha red","on t","e x","Ġpass ed","Ġst ood","on es","Ġg ard","Ġit self","ot t","Ġfut ure","Ġw ast","Ġd a","Ġt est","Ġm ust","Ġcom es","Ġtown s","Ġm oney","ure d","Ġc our","Ġcl ock","Ġd ire","Ġimport ant","Ġlibr ary","Ġart if","Ġchan ge","Ġcould n","ent ly","Ġcon s","Ġim ag","Ġid ea","c ed","Ġnot iced","Ġ2 0","ut h","- -","m o","Ġmom ent","Ġn est","Ġf our","Ġhu h","Ġco ll","h h","rou ght","Ġbus iness","Ġf ree","Ġmo on","Ġen g","Ġl ed","Ġgl owing","pect ed","Ġs we","Ġhe ard","Ġget ting","Ġlea ves","Ġtra vel","it es","Ġca use","Ġhapp y","Ġstart ed","ang er","Ġp ort","ea red","Ġjo b","Ġpri est","Ġqu e","Ġchallen ges","Ġwo nder","Ġb rought","Ġst at","¿ ½","ï ¿½","Ġg one","it ing","Ġpro v","Ġgrou p","Ġw h","out h","ward s","Ġ ...","Ġc ertain","Ġb at","al th","Ġwho se","Ġsy stem","Ġc ra","Ġpre t","Ġnest led","Ġout side","Ġp hy","i er","ri d","ust ling","Ġbec ome","ic s","Ġjo y","form ation","am es","m a","ep t","Ġas k","Ġre g","Ġhi lls","Ġjud ah","Ġhour s","Ġtal es","Ġbo dy","i ed","l ud","n s","l o","Ġmo ve","Ġa dd","Ġd aught","Ġgener ations","Ġwand ering","Ġb it","Ġremem ber","g ing","Ġbo y","Ġle g","Ġcomp an","Ġf ur","Ġro lling","Ġl ar","Ġst ay","Ġhu nd","Ġgard en","Ġc re","u es","Ġsp oke","Ġforgot ten","Ġhe ld","Ġun ique","Ġd ri","Ġint e","u ght","Ġgu ess","Ġhund red","Ġem b","ĠâĢ ĵ","Ġlead ing","Ġconne ction","Ġh on","Ġlat er","Ġlear ning","Ġenchan ted","il ities","Ġtr uth","Ġe c","Ġm us","Ġstu ff","Ġas ked","Ġthem selves","Ġco de","Ġf ive","Ġr u","c ha","Ġp y","Ġth inking","Ġpl aces","Ġloc al","e ad","Ġf ield","d o","z z","Ġt er","Ġs ch","Ġte ch","Ġtry ing","Ġre qu","Ġinsp ir","i et","Ġma kes","Ġsk y","Ġhe ar","ious ly","Ġdre amed","m an","Ġw ide","c us","Ġtr u","Ġadvent ures","Ġquick ly","v ie","Ġm oses","Ġinst ead","s on","b b","Ġs qu","Ġcry st","Ġnear by","c hi","g n","Ġpower ful","l ock","or ne","Ġt urn","Ġp ar","l and","Ġway s","Ġfore ver","he re","re st","Ġbo x","Ġwait ing","ð Ł","Ġwat ch","Ġd uring","Ġe gy","ac hing","Ġlea ve","Ġm er","Ġe t","Ġp ick","Ġe vent","Ġchan ged","Ġlangu age","Ġtru ly","Ġc ool","Ġk ept","Ġegy pt","Ġf all","Ġfe w","Ġreveal ed","Ġgif t","Ġca st","Ġposs ible","Ġtech n","Ġex p","Ġen er","t le","Ġ .","Ġpro du",". \"","Ġmod el","Ġfur ther","Ġto t","m ed","Ġlook ed","Ġop ened","Ġbir th","Ġbre ak","ment s","Ġgl ow","y ing","or ia","Ġben e","g er","um n","Ġb al","Ġ est","Ġp hi","Ġab le","Ġsha re","Ġbeaut y","? \"","Ġto p","Ġcuri ous","an k","Ġin formation","Ġwast e","Ġw in","Ġof ten","Ġexpl oring","Ġclos er","r on","us al","Ġmean s","Ġinc lud","z y","ion al","Ġgreat est","Ġto m","pe nd","Ġcont ro","Ġdest ruction","Ġli ves","Ġs le","Ġag o","Ġag re","Ġwork s","h u","Ġjer usal","Ġjerusal em","l ight","l ic","Ġvar ious","Ġ1 9","Ġla w","Ġre d","id ent","Ġw it","Ġbene ath","Ġs it","Ġb all","Ġunco ver","Ġde f","Ġret urn","Ġthi r","Ġ ?","Ġto wards","Ġt rou","Ġsu b","p ers","li ke","gr am","Ġf act","ou d","Ġext ra","er n","wor k","en ces","Ġ1 0","Ġs at","Ġm other","Ġgot ta","Ð° Ð","ent ion","Ġnew s","Ġwi fe","Ġre as","Ġenc ount","Ġinv est","Ġshad ows","ous and","Ġw on","Ġs ong","is ion","Ġli ve","Ġth ousand","Ġpart y","Ġresp ons","Ġt on","Ġswe et","Ġener gy","Ġf ight","Ġsur round","Ġc ris","Ġshi mm","Ġcl ose","Ġsc en","Ġspe c","Ġbec oming","Ġneed ed","Ġsou l","he n","Ġfam il","Ġord er","Ġlear n","at ive","Ġoff ice","Ġless ons","a ven","v i","Ġpro gram","vel op","Ġp ain","Ġserv ant","Ġc al","Ġwhat ever","ag er","Ġdat a","Ġwe l","Ġprop he","Ġca p","Ġcour se","Ġcount ry","ic ally","Ġmonth s","Ġb ustling","Ġv ent","Ġb ed","Ġaut umn","Ġm id","Ġmean ing","Ġde ad","Ġgu id","Ġy a","Ġt en","Ġa i","th on","un g","p ri","Ġeld oria","Ġe at","Ġmeet ing","Ġ 6","Ġtreas ures","Ġencount ered","Ġp os","Ġh oney","ate ly","Ġpret ty","b ab","Ġp ages","ck s","Ġpa per","Ġwall s","is hed","Ġha w","ver se","Ġam az","Ġoff er","Ġserv ants","ren t","Ġevery body","iv id","Ġord ers","Ġpaint ings","Ġs ist","Ġm is","Ġd anger","Ġun lock","Ġcompan y","Ġwor king","Ġreveal ing","Ġcryst al","c ause","o b","Ġce le","Ñ ĥ","Ġun ex","in y","Ġun i","in ated","Ġem br","Ġsin ce","Ġyour self","Ġcele br","Ġ ve","Ġcomple te","Ġcris p","Ġpy thon","Ġp u","in a","Ġwom en","w el","Ġpie ce","Ġb ar","Ġor b","Ġbuild ing","Ġphi l","Ġd ust","Ġal one","Ġse ar","Ġlet ter","Ġlea ving","Ġche ck","u p","Ġs um","Ġsp ell","Ġthrough out","Ġcommun ity","p ed","it al","ic es","ull y","a pp","y ou","Ġdo g","Ġdet ail","Ġpow ers","k ins","Ġknow ing","Ġth om","Ġta king","Ġj en","Ġk n","o ve","hi c","Ġis n","Ġon es","Ġreal m","Ġsound s","Ġsee k","Ġem er","Ġking dom","Ġd u","Ġhe aven","Ġh ot","Ġel i","Ð »","or n","Ġi ll","Ġf as","Ġt em","Ġwhis pe","Ġdisco very","Ġsim ple","Ġp op","Ġsymbol s","Ġunex pected","Ġ ess","Ġp ay","Ġpro cess","ction s","Ġnat ural","Ġspe cial","v in","Ġwh om","Ġde pend","th orne","Ġhaw thorne","Ġand y","Ġbro ken","Ġwho le","Ġinte rest","Ġsp ea","Ġpro bab","Ġexpl ained","ain ing","Ġmus ic","Ġheart s","Ġdif f","Ġdream s","Ġte xt","\" .","Ġm ach","Ġcomp ut","Ġmat ter","Ġinspir ing","Ġe as","ac y","Ġgo es","Ġca us","a red","Ġl ow","Ġanim als","Ġtrans form","re r","Ġst ore","os ed","Ġfe et","o y","as h","ac ts","Ġton ight","Ġe qu","Ġdra g","m ing","Ġt ill","Ġm ed","Ġp at","Ġwal king","Ġsle ep","i gh","Ġ round","Ġf ast","Ġstand ing","he red","Ġp ol","Ġan ge","Ġjo ke","Ġd ie","Ġp un","Ġperson al","Ġdaught er","p id","Ġfun ny","Ġmar ried","Ġsqu are","Ġjen kins","Ġd anc","Ġg round","Ġha ir","ro ve","Ġtal e","he ad","Ġpres ent","Ġse ver","Ġr ather","Ġcent er","Ġed ge","Ġvi br","Ġdescri be","f ort","Ġs ix","ut ion","ud e","m other","Ġcl ass","Ġapp eared","Ġst ars","Ġex ist","ord inary","Ġfin al","Ġher it","Ġb right","Ġab ilities","Ġun like","a ir","Ġex am","pl ace","m at","Ġp ack","rid ge","Ġb urned","il ed","Ġex act","or row","ol o","Ġad v","Ġwis h","Ġpo int","m er","Ġphy s","Ġ `","Ġb reat","Ġf al","ir d","Ġcle an","ac ing","ri st","Ġherit age","Ġsever al","Ġcl ot","Ġlong er","Ġste pped","Ġ x","as ure","Ġextra ordinary","Ġwho a","Ġrem ained","Ġsw ord","i ans","Ġcl im","Ġdr ink","c om","Ġse x","Ġent ire","Ġen s","w hat","Ġt ent","Ã ³","Ġo oh","Ġd am","Ġp ull","Ġflow ers","Ġt all","Ġse ven","Ġta kes","Ġvis it","n ot","Ġd ate","Ġli ft","ig ate","read y","Ġab ility","Ġec ho","Ġal t","Ġmo ved","itt en","Ġfind ing","Ġwal ked","Ġg e","oo se","Ġth reat","Ġemb ark","ro om","Ġbl ue","Ġc ir","Ġco ver","Ġsing le","Ġca ve","Ġar ri","Ġche st","Ġal ready","Ġcontro l","t ers","ent y","dddd dddd","Ġvibr ant","f ace","Ġo rig","Ġl ine","Ġsol ve","f riend","i ke","Ġfa ir","cccc cccc","h or","re ct","Ġg ent","Ġwe alth","Ġhe s","Ġj an","a im","Ġgr ow","Ġspec ific","Ġdre ss","Ġfoll owing","Ġfas c","at hered","Ġse a","f ully","Ġem ot","Ġreas on","Ġo cc","Ġsh ort","Ġd ad","Ġhe al","ac her","Ġf aced","Ġres pect","Ġper fect","Ġab ove","Ġbl ood","Ġcommun ic","Ġwhispe red","Ñ ı","er y","Ġri ver","ren ts","f fe","Ġw ild","ac ter","as ed","Ġpro f","Ġpaint ed","is m","Ġser ies","Ġob ject","s k","Ġher o","Ġsp ace","us hed","Ġstr u","Ġbas ed","Ġint ric","Ġfo ot","Ġwork ed","Ġ 8","Ġl ate","Ġn ations","Ġbl ack","Ġmyster ies","Ġrel ations","Ġwhis pers","Ġsil ver","Ġha ng","Ġcur se","Ġlar ge","Ġgent le","r act","Ġhar mon","ter n","Ġgi ving","Ġfal se","pp ing","Ġrem ind","ent ial","Ġchi ef","Ġta ught","Ġinclud ing","Ġs am","itt ing","Ġwat ching","Ġcol or","Ġcol ors","Ġconne ct","a i","Ġfr ont","Ġqu iet","Ġw ed","Ġwe ird","Ġexperi ence","Ġp ra","Ġse lf","Ġland sc","Ġwal k","Ġm outh","Ġde al","Ġ 9","at es","Ġun cle","Ġbrother s","mo st","Ġmo ving","Ġte aching","Ġbeg in","Ġdes ign","Ġha lf","Ġre ce","Ġsoft ly","Ġty pe","Ġdiff ic","Ð º","Ġdes ire","Ġchar acter","Ġprobab ly","Ġf aint","Ġoh h","ag ed","Ġsha ring","Ġgrand mother","c han","Ġn et","iz ation","Ġfl o","Ġatt ack","Ġst ones","Ġcomm on","Ġatt ention","Ġdire ct","Ġmach ine","ĠâĢ ĺ","Ġe f","Ġbe ast","Ġby e","Ġwr itten","Ġbra very","p es","Ġpart ic","i ent","Ġha ven","iv ity","Ġf ell","ri b","Ġsc ro","Ġsou ght","Ġd iv","Ġgl ad","Ġmin ute","Ġhes it","Ã Ń","Ġs ort","Ġmy self","Ġma ster","iz ing","Ġmess age","Ġpa rents","u it","er v","et y","Ġgre en","Ġbal ance","a ke","Ġst ories","is ed","Ġartif acts","Ġsch ool","Ġde velop","Ġwould n","Ġmount ains","Ġvent ured","Ġd in","it er","know n","Ġper form","Ġef fect","c he","Ñ Į","Ġab s","Ġlook s","Ġcor rect","Ġap art","b it","Ġwe ight","Ġal ive","Ġb and","id es","ear s","ix ed","Ġcomple x","r or","Ġkind a","g an","w here","Ġto wer","Ġbra ve","le t","Ġco ld","Ġquest ions","Ġinsp ired","Ġph one","Ġm ir","Ġri dd","Ġchan ce","Ġt urning","Ġ 7","Ġf il","le y","Ġtw enty","Ġcreat ure","olo gy","Ġsupp ort","Ġtom orrow","pri se","Ġexact ly","Ġj es","Ġnot e","Ġcl aim","Ġdark ness","Ġf ate","Ġan g","av or","Ġsk ill","um p","Ġdisco ver","Ġstre am","g o","Ġm ist","Ġj ack","Ġpr ay","Ã ¤","Ġfl ight","m en","Ġ $","un ch","Ġbel ong","Ġtot ally","Ġsh ut","Ġco nd","Ġstu pid","Ġtou ch","Ġf re","Ġhum ans","Ġmem ory","Ġfasc inated","Ġdis app","Ġwr ath","Ġpr in","Ġprodu ct","Ġuni verse","Ġm il","at s","Ġk iss","Ġsor ce","Ġfriends hip","ffe e","ot e","Ġst ra","ĠÐ ¿","Ġc ook","Ġin cre","ro du","Ġdep ic","Ġdrag on","Ġalt ar","Ġsee ing","Ġfor ce","Ġey e","Ġf if","Ġde v","Ġsu per","Ġco vered","Ġwhi te","ol og","Ġgu ide","Ġprov ide","Ġo pp","ot s","Ġbu y","Ġfather s","Ġdiffic ult","Ġwant s","Ġpr act","Ġfun ction","Ġv an","Ġtell ing","Ġte am","Ġcreat ed","Ġartif act","b es","Ġun known","Ġpro per","Ġsu cc","Ġco ffee","Ġbl ess","Ġp et","Ġwr iting","Ġess ence","Ġintric ate","Ã ¡","Ġl ad","Ġp iqu","Ġu nd","Ġcle aring","Ġshimm ering","Ġpiqu ed","Ġval ue","Ġpu zz","Ġwed ding","Ġhi t","Ġcom b","Ġsee king","b all","s ing","it her","it ive","r p","Ã ¼","Ġb read","Ġexc it","o ff","Ġa head","Ġplay ing","Ġsurround ed","p ort","Ġt erm","Ġgi ves","Ġsur prise","Ġcoll e","Ġp en","Ġp ict","Ġme ant","Ġse ed","Ġsa ve","un k","Ġdifferen ce","ish ment","Ġj ac","Ġv ast","Ġal most","Ġpre p","Ġaut hor","Ġexcit ement","Ġshe ep",".. ..","Ġmark et","Ġoffer ings","at or","pt ion","Ġear ly","Ġkind ness","Ġtr ad","Ġgr ant","ut es","Ġa v","Ġli m","Ġhat e","Ġref le","a x","Ġcra zy","Ġt as","Ġr ach","Ġsupp osed","Ġb ound","Ġb ag","Ġm ine","Ġo x","an e","Ġmo vie","Ġpri son","Ġc am","Ġd ense","Ġsa ul","Ġtr ust","w are","Ġe in","Ġtrou ble","c hes","Ġget s","Ġread ing","Ġans w","igh b","b ed","Ġne ighb","Ġsent ence","Ġstre ets","Ġgold en","l t","ore d","Ġw ond","Ġb ri","es h","Ġre pl","Ġfor ces","Ġwee k","Ġsl ow","Ġimag ination","Ġocc ur","Ġrece i","Ġjac ob","Ġro ck","Ġtal ent","hic al","r al","ic h","id er","00 0","Ġhop ing","Ġd ry","ro p","Ġpot ential","Ġarri ved","Ġp ub","Ġint rodu","Ġpass ion","Ġexc ited","im e","Ġunderst ood","Ġdef in","Ġorig in","Ġsorce rer","Ġre co","Ġbreat h","Ġe ff","Ġcha m","Ġmr s","Ġch rist","Ġbir ds","Ġdel ved","Ġrec ord","Ġsm ell","Ġmyster y","Ġter ri","Ġf avor","Ġuncle an","Ġm ass","Ġg ri","Ġn or","Ġexperi ences","Ġmer cy","Ġsist er","Ġl au","Ġp ha","iv al","Ġfa ith","Ġsal es","l on","Ġdec ision","Ġ =","Ġn av","am ent","Ġtre mb","Ġspir its","Ġpriest s","Ġexc use","Ġemer ged","Ġsucc ess","Ġb urning","ct or","m s","m ore","Ġl oud","Ġp ound","Ġ1 2","Ġcomput er","Ġp he","pl es","Ġinv ol","Ġdra w","u ries","Ġj os","ar on","ak ed","Ġimport ance","Ġspea k","Ġharmon y","e bs","Ġh ur","Ġm ult","Ġdeterm ination","Ġnumb ers","Ġchallen ge","Ġfor get","Ġland s","v as","Ġw ine","Ġg athered","um e","Ġass ist","in ing","Ġl uck","Ġup right","be red","Ġmin utes","Ġshad ow","Ġs i","e e","Ġs ara","Ġpro found","Ġcar ry","Ġord inary","Ġsun ny","Ġleg acy","r am","Ñ ĭ","Ġv ide","our ce","Ġse c","Ġmount ain","Ġpain ter","Ġphe ebs","Ġe ight","Ġan n","Ġcom fort","Ġlo ved","Ġworld s","Ġport al","Ġapp re","a a","Ġover come","Ġstre t","Ġevent s","d le","Ġkeep er","Ġpath s","s ed","Ġst ar","Ġbo nd","Ġcaus ing","! \"","Ġr ain","Ġrep res","on ed","Ġcon st","Ġcur rent","Ġfoll owed","Ġth ri","ad ed","Ġsome body","Ġsha me","Ġcont ained","Ġafter no","Ġtri ed","Ġagre ed","Ġpra ise","Ġa aron","Ġi de","Ġc ult","Ġfoll ow","Ġthi ck","Ġo il","Ġdo ll","Ġsur face","a pe","Ġc op","Ġl os","Ġtw ist","Ġneed s","Ġwhen ever","Ġarm ies","Ġappre ci","Ġs ir","Ġgl ory","Ġb a","Ġsha rp","Ġrespons ib","Ġguid ance","um ent","Ġcon vers","Ġpl ant","Ġembr ace","Ġafterno on","o c","o ld","Ġs ens","Ġm ill","Ġcan vas","Ġsp end","b re","Ġ ver","Ġof fe","Ġhe aring","Ġf at","Ġf ant","Ġst orm","Ġint ell","Ġr y","Ġam er","Ġcent uries","Ġc ust","Ġc ard","Ġpro ject","Ġsu gg","Ġany more","Ġinvest igate","Ġke vin","u g","Ġo per","Ġm ale","Ġk ings","Ġwor th","Ġpl aced","Ġwat ers","Ġthought s","acher ous","Ġskill s","Ġsugg est","ha m","Ġme al","Ġ1 5","Ġpri ce","Ġbir d","Ġecho ed","Ġtremb ling","Ġsara h","oun ter","Ġstrong er","Ġpun ishment","h n","y le","Ġan t","Ġcan not","Ġlea st","Ġcu p","Ġthir d","Ġ +","Ġp ara","Ġdo ors","Ġrelations hip","Ġin ner","Ġcon c","00 00","p ut","Ġ1 8","Ġbr anc","Ġhelp ing","Ġacc ount","Ġexp ress","Ġs outh","Ġca ut","Ġtre acherous","Ġdin ner","Ġt iny","ous ness","Ġcertain ly","Ġbranc hes","b its","i en","Ġ Ñģ","Ġwind ow","Ð ²","Ġun ity","Ġfo cus","Ġcou ple","Ġmid dle","Ġdust y","Ġjes us","g en","s h","Ġhi g","Ġdra wn","Ġarm y","Ġfamil iar","v ation","Ġd ar","Ġdes p","Ġgr ain","Ġsk et","Ġagre ement","Ġlift ed","Ġpray er","Ġoffe red","Ġd ue","Ġmat er","n et","Ġy ell","al y","Ġind ivid","Ġmem ories","Ġsit u","Ġeas y","z a","Ġd ise","st e","ation al","Ġun a","Ġle v","Ġgod s","Ġgif ts","u nd","Ġas king","Ġwond ers","l ish","Ġb ase","Ġc ru","Ġhe av","Ġli e","Ġseem s","Ġrest ing","Ġtable t","Ġens uring","Ġd ou","Ġear s","vie w","Ġfamil ies","Ġstra ight","Ġbe ha","Ġbe th","Ġse at","pl ay","Ġbirth day","Ġcelebr ated","Ġbless ing","Ġc ross","Ġp red","Ġit em","Ġor gan","Ġpo or","wel come","Ġdanc ed","Ġreco gn","e v","u el","Ġo ath","Ġc ri","Ġe ager","Ġpro ving","Ġkid s","ðŁ Ĵ","Ġrepres ent","w ho","Ð ¼","Ġi st","Ġre se","Ġco st","Ġra re","Ġchar act","Ġwel come","Ñ ĩ","Ġm ain","Ġto ol","Ġwor s","Ġtransform ed","r ay","Ġb le","Ġd er","Ġn um","Ġfr uit","Ġlet ters","Ġle vel","Ġpart s","Ġscen e","Ġd an","Ġde fe","Ġrecei ved","c ing","Ġs and","Ġf est","Ġsm iled","Ġsc ri","cri pt","Ġcharact ers","Ġs itting","Ġm ad","es e","id ence","ke y","all ey","is ions","ight ly","Ġcall ing","Ġrul es","Ġstat es","Ġintell ig","u able","Ġl l","Ġp age","Ġphys ical","Ġt reat","el s","Ġro le","ps on","Ġac cept","Ġvis ion","b a","n ers","Ġp ark","ac on","Ġfam ous","Ġeld er","Ġcust om",") .","Ġc ott","Ġe ither","Ġli es","Ġv alley","Ġcha ir","Ġad or","Ġwarm ly","Ġry an","Ġt it","Ġh mm","Ġun us","Ġlo ck","Ġany way","hu a","Ġange la","Ġb oss","Ġp ill","Ġh us","m y","r d","Ġbl ock","Ġmet ho","Ġh y","Ġreal ity","Ġhold ing","Ġrequ est","Ġamaz ing","Ġthom pson","f or","Ġi ce","Ġf ly","Ġhe alth","Ġun ited","Ġen j","ci p","Ġcho ice","Ġembark ed","Ġang ry","Ġo sc","Ġapart ment","e k","i k","Ġ vers","Ġo bs","Ġb ath","Ġc iv","Ġf aded","Ġu r","Ġbro ke","Ġru ins","Ġpos ition","b and","se t","Ġright e","Ġser ious","t hat","Ġpo in","Ġvi ol","Ġ20 2","Ġcaut iously","s he","Ġb ur","Ġe ast","now ned","erm an","ĠÐ ½","Ġpri de","Ġforest s","Ġvide o","Ġciv il","c on","m as","ou ght","Ġl in","or k","as ing","Ġst an","Ġcl ues","ĠÐ ²","Ġre nowned","Ġbo b","Ġposs ess","l ine","Ġon to","Ġde ar","Ġyour s","Ġstre et","Ġinc red","Ġmy st","im ent","pt ic","Ġad m","Ġbelie ved","ap es","ĠâĢ ľ","Ġsign ific","i ence","Ġl ab","Ġn orm","ol k","ig ned","Ġjo hn","Ġcoll ect","Ġn one","Ġso ci","Ġarm ed","Ġbaby lon","Ġkid ding","Ġphil ist","Ġosc ar","e xt","u x","Ġin f","Ġbe acon","Ġst ri","Ġpre ss","Ġhar ness","Ġlist ened","Ġhist or","Ġbat tle","Ġs ize","Ġthom as","o ved","Ġd im","it ions","Ġhappen ing","Ġ Ġ","Ġa ge","at ure","om on","Ġsol omon","Ġid ent","Ġcap ital","Ġin vent","am a","Ġr ing","h ouse","ll is","Ġexplore d","Ø §","Ġrun ning","Ġcast ing","Ġpop ular","Ġfavor ite","Ġs ource","Ġchan ges","te red","Ġdist ant","Ġe gg","us hing","Ġgl ass","Ġho ll","Ġwit ness","Ġpartic ular","p or","Ġe u","Ġbu ried","Ġmis chi","Ġexam ple","ad o","Ġapp les","Ġdel ic","Ġphy llis","Ġrespons ible","Ġdirect ly","Ġc ute","Ġbe ings","Ġgreat er","Ġlandsc apes","Ġbeast s","Ġansw ers","Ġa ud","Ġto w","Ġqu ite","Ġlo g","Ġf ing","Ġde b","Ġv ol","Ġman aged","Ġen v","Ġsm art","Ġnor th","Ġrighte ousness","hi e","Ġcontin ue","Ġele ct","Ġprophe t","Ġdepic ted","s p","Ġm ot","Ġhi ll","Ġma j","Ġover w","Ġbr an","Ġeng lish","Ġmult i","ha b","Ġm m","Ġst yle","ad a","ul f","Ġr um","Ġcomp ass","Ġfeel ings","Ġcare fully","Ġprogram ming","l s","Ġw ound","Ġg ames","Ġh ol","Ġwor ry","Ġfl ock","Ġwat ched","Ġfield s","Ġtot al","Ġcott age","Ġt ents","Ġst ate","Ġpres ident","Ġet ched","Ġchrist mas","Ġador ned","Ġunus ual","Ġhus band","Ġs ad","Ġf it","Ġv es","Ġn a","un e","ous es","Ġchi ck","Ġcont ext","Ġrul er","Ġridd le","Ð ´","Ġb ott","Ġg ather","Ġex cept","Ġsc re","Ġprom ise","Ġunco vered","a ur","Ġd ance","Ġwe ar","Ġex pect","Ġsp ark","Ġsc r","Ġfear s","Ġes c","Ġtou ched","Ġtechn ology","Ġsear ch","Ġstan ley","Ġoverw hel","Ġf ool","art ed","Ġide as","g est","i el","Ġs us","Ġf acing","Ġd ig","ri a","Ġme asure","Ġmom ents","Ġeld ridge","Ġflow er","Ġpick ed","Ġmyst ical","os p","Ġim age","Ġch oose","Ġval uable","Ġstep s","Ġspell s","Ġfest ival","s ha","s en","Ġc and","il ing","Ġca se","Ġthir ty","Ġclot hing","Ġintellig ence","Ġd ed","Ġwe ren","Ġj ose","Ġro ad","Ġ1 00","Ġdepend s","Ġcham ber","Ġpha ra","h mm","v al","Ġs ci","Ġv ivid","il t","Ġcon cept","Ġdep th","d er","Ġn on","Ġha ll","al ity","Ġare a","Ġv ie","Ġpict ure","Ġbeha vi","Ġphara oh","Ġwe aring","Ġman ager","Ġhead s","Ġsoft ware","Ġprof ess","Ġabs ol","Ġrese ar","Ġbran ch","p a","Ã ¶","us ed","Ġgu ided","Ġsal vation","Ġlegend ary","Ġcomplete ly","Ã³ n","Ġjose ph","w a","ve led","ea st","Ġlike ly","Ġcreat ivity","Ġkeep ing","Ġcar ried","wor ld","Ġdress ed","Ġs n","Ġm ike","st ac","Ġse vent","Ġem ily","Ġcry ing","Ġmoon light","Ġtrou b","Ġsitu ation","ev ous","Ġenj oy","Ġves sel","c ent","l ook","Ġk ill","ra p","Ġal g","Ġ1 1","Ġcapt uring","Ġcast le","Ġsear ching","Ġs cient","Ġf ixed","Ġre ward","ic ated","ul ous","Ġapp le","Ġsk in","Ġenc ounter","Ġrac ed","Ġtrans port","Ġposs ib","Ġstru gg","Ġdesp ite","b ot","Ġf ile","Ġis s","Ġdo ctor","Ġwhere ver","ite ly","Ġple asure","Ġabsol ute","x im","Ġc hat","Ġab and","Ġorigin al","Ġjos hua","Ġconvers ation","Ġmischi evous","g ra","p o","Ġint ently","Ġtal ked","Ġrequ ire","Ġfight ing","\" ,","k er","Ġca ught","Ġ1 4","Ġapp ear","Ġhelp ed","ĠÐ ¸","Ġje ho","Ġdest ro","Ġdise ase","Ġb orn","Ġde cip","dddddddd dddddddd","cccccccc cccccccc","Ġlev ites","om m","om ed","Ġun f","Ġle ather","Ġele ments","Ġl am","Ġl unch","os op","Ġim ages","Ġer in","Ġdaught ers","Ġdoll ars","Ġincred ible","he mat","Ġme re","Ġje wel","Ġphil osop","Ġpub lic","Ġo pt","Ġv ict","Ġwind ows","Ġcount less","Ġhon our","Ġt ick","Ġb an","Ġdes k","Ġpie ces","Ġcal cul","Ġphilist ines","m ar","Ġb ow","Ġp ul","ic an","Ġare n","Ġlight s","Ġmat hemat","Ġrun es","Ġbright er","Ġrefle ct","n al","Ġp al","ll ed","Ġin fl","Ġre vel","Ġme chan","ĠÐ º","Ġhu es","Ġty p","ir ts","Ġdis g","ÑĤ Ð¾","Ġdanger ous","he y","Ġmy t","ight s","Ġz e","Ġcry ptic","Ġarm s","Ġcir c","Ġgrow th","Ġflo or","Ġassist ant","re t","Ġknow s","Ġbo ard","Ġsor row","Ġbel oved","Ġsim p","Ġeff ort","Ġsoci ety","Ġb es","Ġj ap","Ġme lo","un a","ep ing","Ġfall ing","Ġlau gh","g round","k et","Ġp s","Ġre new","Ġdis cus","Ġfl esh","by e","Ġtrans l","Ġproblem s","Ġcommunic ate","t his","Ġy ork","Ġl um","Ġqu ant","Ġfast er","Ġremind ing","Ġtrad ition","um ents","Ġ1 6","Ġinterest ing","c l","h ow","p ar","Ġs ick","Ġf east","Ġn ar","ho l","ust ing","Ġar g","Ġbel ow","hu h","Ġto by","feren ce","Ġprom ised","Ġdam n","Ġoccur ren","Ġsci ence","Ġaband oned","b u","Ġt ears","en ing","Ġn ames","Ġth row","Ġbut t","un t","us ion","Ġ1 3","Ġsc ott","ang ers","less ly","Ġda wn","Ġfact ors","Ġscro ll","a king","Ġm al","Ġh ouses","ir on","Ġfe ather","Ġem ma","Ġmiss ing","Ġanim al","Ġintrodu ced","Ġg erman","Ġwhe ther","Ġhapp ens","Ġcomm and","Ġstart ing","Ġguard ians","Ġhor iz","Ġbelong ed","Ġmater ial","Ġwors hip","Ġtow ering","Ġ &","Ġp an","it ude","Ġgood s","Ġvis ions","Ġabsolute ly","Ġan aly","Ġr ad","ry l","Ġlo se","Ġsm ile","Ġdec isions","Ġpri v","Ġdest iny","Ġob stac","Ġcho se","Ġter r","y m","Ġb ill","Ġg ained","et h","Ġman age","ber t","Ġsl ightly","Ġrec omm","Ġhesit ation","Ġcarry ing","Ġsimp ly","Ġp or","Ġany body","Ġreg ular","Ġguid ing","Ġj ord","Ġar k","Ġstru ct","Ġhang ing","Ġenv iron","b ut","Ġin de","Ġwe a","Ġput ting","Ġbl o","Ġwood en","!! !","ke nd","is ing","Ġno body","ul ations","Ġr om","end ed","Ġcomp et","Ġser iously","Ġac hie","Ġcor ner","Ġport ra","Ġscri pt","Ġ Ã","Ġa ctions","Ġw est","re m","Ġh ung","Ġv ir","Ġim m","Ġbr ush","Ġpres er","Ġph ot","m in","u c","w s","ut s","if y","Ġpro s","Ġdestro y","p ing","Ġf aces","Ġe ph","Ġinv ited","Ġbring ing","Ġnorm al","Ġoverwhel med","\" ?","r t","he ll","Ġhat ers","Ġcons ider","Ġimag ine","Ġru le","Ġemot ions","Ġscro lls","Ġlim it","Ġstret ched","Ġoccurren ces","f ather","Ġp ure","an a","st one","ho st","il ar","Ġout sk","ell ing","Ġunlock ing","Ġoutsk irts","Ġ ing","Ġo ri","Ġis land","ie ce","Ġshi ft","Ġref ers","Ġsho p","Ġscen es","ã ģ","ci ous","Ġhapp iness","Ġgener ation","Ġwise ly","Ġcolle ction","Ġterri ble","Ġdar ryl","Ġelder ly","Ġjord an","Ġa st","Ġf ulf","Ġre le","Ġall owed","ell y","Ġreal izing","Ġgirl friend","uck ed","Ġmark ed","Ġstud y","Ġbat t","Ġsong s","Ġwel com","Ġill um","Ġheav y","Ġfool ish","g ress","i um","v ol","an ces","if fl","Ġtri p","Ġopen ing","Ġhor se","Ġdefin itely","Ġgri ef","Ġwelcom ed","e c","i or","Ġf ict","Ġ1 7","Ġem p","Ġent r","Ġacc ess","Ġjap an","g s","Ġw ings","Ġc y","Ġy ep","Ġp i","Ġp iz","Ġshe l","Ġun c","Ġtr aining","Ġdeep ly","Ġhar m","Ġpo st","Ġjud ge","Ġartist s","Ġdri ve","Ġsist ers","tern al","iffl in","st ep","as es","Ġsm o","Ġstop ped","Ġp ushed","Ġtw el","Ġmag n","Ġgr owing","Ġcu bits","Ġact s","Ġplay ed","Ġ3 0","Ġpres ence","Ġloc ation","Ġdu nder","Ġfif ty","Ġslow ly","Ġalg or","Ġdecip her","i ents","Ġwe eping","th ur","Ġserv ice","Ġdist ance","Ġlad y","Ġenviron ment","Ġt ucked","Ġs ac","Ġd ro","am ing","Ġse as","Ġam ount","ĠÐ ´","Ġwis hes","Ġspe ed","Ġsim ilar","Ġcra ft","Ġcre ation","Ġappreci ate","Ġitem s","f olk","w w","ver age","Ġj u","am in","Ġsp r","Ġold er","Ð½ Ð¸","Ġsystem s","cha rd","do ing","Ġpred ict",") ,","Ġsp ot","Ġ2 4","aught er","Ġwarm th","Ġmess ages","Ġsub ject","Ġfant ast","s a","er ie","Ġd en","on se","Ġl es","Ġst ick","oo f","Ġno vel","Ġpe op","Ġpo nd","air s","Ġpack ed","Ġsignific ant","Ġdisg usting","c ol","i j","s es","Ġd ude","Ġl oose","Ġwe ather","Ġgr ate","Ġsol ving","Ġadv ice","Ġproper ty","Ġt ur","Ġg host","at er","ur ous","Ġar thur","pe ople","Ġsc ent","Ġadvent urous","Ġbit ter","f er","n ight","Ġb ree","Ġg ay","Ġnot ice","Ġde m","Ġr ust","Ġpro ve","Ġpre gn","Ġah h","Ġsafe ly","Ġmil k","Ġdev ice","Ġmyt hical","Ġ *","Ġ ×","at o","om s","Ġu gh","Ġr an","Ġta p","Ġpl ants","Ġremem bered","Ġresponsib ility","w ood","ha ps","Ġjo e","Ġjo in","ak er","ree k","Ġtri als","Ġinst r","Ġinst ruction","Ġtowns folk","Ġlaw s","Ġhig her","Ġrevel ation","Ġfeather s","ra im","ĠÐ ¾","Ġtri ck","Ġnet work","Ġjewel s","Ġhoriz on","l it","Ã ±","Ġg rove","Ġshould n","Ġinsp ire","1 0","Ġf le","it ch","Ġapp lic","Ġ2 3","Ġgr ass","Ġz ep","Ðµ ÑĤ","Ġdri ving","Ġobject s","Ġauthor ity","Ġtas k","c hen","h ood","Ġne g","Ġmo ab","Ġear li","Ġcho sen","Ġeng ine","Ġque en","Ġfair y","Ġprep ared","t es","Ġwho ever","Ġsh owed","Ġcar ved","Ġguard ed","Ġexper t","Ġconnect ed","Ġalgor ith","b ook","Ġa u","Ġc ord","Ġc row","Ġg un","Ġg ently","ic ation","âĢ Ŀ","Ġse ll","ul ation","pl oy","Ġsha ll","Ġgr ace","Ġgirl s","Ġben j","Ġclos ed","Ġdire ction","Ġkn ock","Ġchief s","Ġentr ance","Ġpeop les","b ack","Ġha n","Ġj av","Ġno pe","Ġsp ort","Ġte ach","Ġbre ast","Ġindivid ual","Ġgrate ful","i ves","Ġa verage","Ġex ce","Ġwr ote","Ġown er","Ġfo x","Ġsurround ing","Ġdisapp ear","Ġvan ished","Ġrepl ied","Ġbath room","Ġvie w","Ġi ron","Ġb ridge","Ġbe ar","rou d","Ġam u","ak es","Ġimp rove","Ġsur p","Ġtri be","Ġch uck","Ġmetho d","Ġrenew ed","Ġeph raim","Ġs an","ur y","Ġstr anger","Ġper haps","Ġwee kend","Ġresp onse","Ġcr ack","Ġstud ying","Ġprophe ts","Ġfaint ly","Ġl oss","ver n","ad es","ant on","Ġcon side","Ġca ke","Ġro ot","Ġ2 00","ðŁ ¤","Ġbree ze","' .","p iece","Ġ Ã©","Ġus ual","Ġen velop","ci ally","Ġcat ch","Ġclot hes","Ġlandsc ape","b l","s is","Ġm ur","Ġri d","ist s","Ġob v","Ġtravel er","Ġ ,","Ġc ed","Ġli kes","Ġca b","Ġput s","Ġuh h","Ġche ris","Ġadd ress","Ġcap able","Ġentire ly","Ġhur t","Ġsket ching","Ġeu ro","Ġtwel ve","Ġamu let","Ġconside red","a iah","n el","Ġt ong","Ġm ixed","Ġf ro","Ġyour selves","end ing","ens ion","Ġcur sed","Ġwand ered","Ġrul ers",". ï¿½","w r","z er","Ñ Ī","ra se","Ġpl us","Ġbo at","ru pt","Ġes pe","Ġbas ket","Ġaw a","Ġprom pt","Ġhon est","Ġinspir ation","Ġopp os","Ġdraw ing","Ġscr anton","a an","b el","t ime","Ġ Â","Ġa ction","Ġw ha","Ġm ac","Ġm mm","om es","Ġor ange","Ġcom pl","Ġjour nal","Ġdoor way","Ġtowns people","Ġboy friend","Ġrequ ired","Ġtem ple","Ġav ail","Ġlum ina","Ġp ush","ar ian","Ġe p","Ġso cial","us s","Ġta x","ren ch","Ġcl oud"]}}