{"version":"1.0","truncation":null,"padding":null,"added_tokens":[{"id":0,"content":"<PAD>","single_word":false,"lstrip":false,"rstrip":false,"normalized":false,"special":true},{"id":1,"content":"<BOS>","single_word":false,"lstrip":false,"rstrip":false,"normalized":false,"special":true},{"id":2,"content":"<EOS>","single_word":false,"lstrip":false,"rstrip":false,"normalized":false,"special":true},{"id":3,"content":"<UNK>","single_word":false,"lstrip":false,"rstrip":false,"normalized":false,"special":true},{"id":4,"content":"{","single_word":false,"lstrip":false,"rstrip":false,"normalized":false,"special":true},{"id":5,"content":"}","single_word":false,"lstrip":false,"rstrip":false,"normalized":false,"special":true},{"id":6,"content":"[","single_word":false,"lstrip":false,"rstrip":false,"normalized":false,"special":true},{"id":7,"content":"]","single_word":false,"lstrip":false,"rstrip":false,"normalized":false,"special":true},{"id":8,"content":":","single_word":false,"lstrip":false,"rstrip":false,"normalized":false,"special":true},{"id":9,"content":",","single_word":false,"lstrip":false,"rstrip":false,"normalized":false,"special":true},{"id":10,"content":"\"","single_word":false,"lstrip":false,"rstrip":false,"normalized":false,"special":true},{"id":11,"content":"\n","single_word":false,"lstrip":false,"rstrip":false,"normalized":false,"special":true}],"normalizer":{"type":"Sequence","normalizers":[{"type":"NFC"},{"type":"Lowercase"}]},"pre_tokenizer":{"type":"ByteLevel","add_prefix_space":true,"trim_offsets":true,"use_regex":true},"post_processor":{"type":"TemplateProcessing","single":[{"SpecialToken":{"id":"<BOS>","type_id":0}},{"Sequence":{"id":"A","type_id":0}},{"SpecialToken":{"id":"<EOS>","type_id":0}}],"pair":[{"SpecialToken":{"id":"<BOS>","type_id":0}},{"Sequence":{"id":"A","type_id":0}},{"SpecialToken":{"id":"<EOS>","type_id":0}},{"Sequence":{"id":"B","type_id":1}},{"SpecialToken":{"id":"<EOS>","type_id":1}}],"special_tokens":{"<BOS>":{"id":"<BOS>","ids":[1],"tokens":["<BOS>"]},"<EOS>":{"id":"<EOS>","ids":[2],"tokens":["<EOS>"]}}},"decoder":{"type":"ByteLevel","add_prefix_space":true,"trim_offsets":true,"use_regex":true},"model":{"type":"BPE","dropout":null,"unk_token":null,"continuing_subword_prefix":null,"end_of_word_suffix":null,"fuse_unk":false,"byte_fallback":false,"ignore_merges":false,"vocab":{"<PAD>":0,"<BOS>":1,"<EOS>":2,"<UNK>":3,"{":4,"}":5,"[":6,"]":7,":":8,",":9,"\"":10,"\n":11,"!":12,"$":13,"%":14,"&":15,"'":16,"(":17,")":18,"*":19,"+":20,"-":21,".":22,"/":23,"0":24,"1":25,"2":26,"3":27,"4":28,"5":29,"6":30,"7":31,"8":32,"9":33,";":34,"<":35,"=":36,">":37,"?":38,"@":39,"_":40,"`":41,"a":42,"b":43,"c":44,"d":45,"e":46,"f":47,"g":48,"h":49,"i":50,"j":51,"k":52,"l":53,"m":54,"n":55,"o":56,"p":57,"q":58,"r":59,"s":60,"t":61,"u":62,"v":63,"w":64,"x":65,"y":66,"z":67,"¢":68,"¦":69,"µ":70,"¶":71,"¼":72,"¿":73,"Â":74,"Ã":75,"Ï":76,"â":77,"Ċ":78,"Ġ":79,"Ģ":80,"Ħ":81,"Ĩ":82,"ī":83,"Ĵ":84,"ĵ":85,"Ķ":86,"Ĺ":87,"ĺ":88,"Ļ":89,"ľ":90,"Ŀ":91,"ł":92,"Ġt":93,"he":94,"Ġa":95,"Ġthe":96,"Ġo":97,"Ġw":98,"in":99,"nd":100,"Ġs":101,"Ġand":102,"Ġof":103,"Ġh":104,"or":105,"Ġb":106,"ou":107,"Ġm":108,"Ġf":109,"er":110,"is":111,"Ġto":112,"re":113,"ing":114,"Ġg":115,"Ġl":116,"Ġy":117,"Ġp":118,"Ġc":119,"on":120,"it":121,"en":122,"at":123,"Ġyou":124,"es":125,"ll":126,"Ġd":127,"Ġin":128,"Ġn":129,"ar":130,"Ġbe":131,"Ġha":132,"om":133,"Ġth":134,"ve":135,"Ġhe":136,"Ġe":137,"Ġis":138,"se":139,"ut":140,"an":141,"Ġfor":142,"le":143,"ay":144,"Ġwh":145,"ill":146,"ord":147,"Ġno":148,"id":149,"ke":150,"as":151,"Ġon":152,"Ġgo":153,"am":154,"Ġwill":155,"Ġi":156,"Ġyour":157,"Ġhis":158,"ed":159,"ent":160,"im":161,"Ġu":162,"ac":163,"ir":164,"Ġlord":165,"ith":166,"et":167,"Ġit":168,"ad":169,"Ġsa":170,"il":171,"ver":172,"gh":173,"Ġwith":174,"Ġj":175,"Ġse":176,"ic":177,"ion":178,"th":179,"el":180,"Ġgi":181,"Ġhave":182,"Ġfr":183,"Ġall":184,"ra":185,"Ġare":186,"Ġwas":187,"st":188,"ro":189,"Ġmy":190,"king":191,"her":192,"Ġnot":193,"ake":194,"ah":195,"Ġthey":196,"Ġfrom":197,"Ġhim":198,"ur":199,"ght":200,"al":201,"Ġwho":202,"Ġthem":203,"Ġtheir":204,"Ġme":205,"Ġre":206,"Ġan":207,"Ġcom":208,"Ġsaid":209,"ow":210,"ame":211,"ri":212,"Ġthat":213,"Ġ-":214,"Ġst":215,"Ġso":216,"Ġas":217,"Ġli":218,"Ġput":219,"Ġson":220,"and":221,"od":222,"ers":223,"op":224,"Ġgod":225,"ain":226,"Ġup":227,"Ġking":228,"Ġor":229,"Ġch":230,"Ġby":231,"Ġgive":232,"ven":233,"ly":234,"Ġbut":235,"Ġthis":236,"ath":237,"Ġdo":238,"Ġpe":239,"ts":240,"ich":241,"ru":242,"Ġout":243,"ade":244,"Ġwhe":245,"Ġhas":246,"ace":247,"Ġde":248,"Ġmade":249,"Ġlet":250,"Ġwe":251,"Ġhad":252,"Ġwhich":253,"ere":254,"Ġman":255,"ep":256,"au":257,"ore":258,"Ġpeop":259,"Ġisra":260,"Ġcome":261,"Ġisrael":262,"Ġwere":263,"ct":264,"ter":265,"ch":266,"ild":267,"Ġpeople":268,"Ġthen":269,"est":270,"Ġne":271,"Ġpl":272,"ok":273,"Ġag":274,"ge":275,"Ġsay":276,"Ġmake":277,"'s":278,"Ġwhen":279,"ther":280,"Ġtake":281,"Ġland":282,"Ġat":283,"os":284,"Ġam":285,"ld":286,"ong":287,"ren":288,"Ġthere":289,"ose":290,"one":291,"Ġear":292,"Ġbec":293,"Ġv":294,"Ġar":295,"ak":296,"Ġwent":297,"Ġever":298,"Ġchild":299,"Ġke":300,"Ġfi":301,"ation":302,"ab":303,"ear":304,"Ġagain":305,"Ġone":306,"Ġmay":307,"Ġher":308,"Ġcame":309,"ack":310,"Ġsh":311,"Ġab":312,"Ġday":313,"âĢ":314,"Ġoff":315,"to":316,"ave":317,"Ġfat":318,"ering":319,"fore":320,"reat":321,"Ġif":322,"Ġover":323,"Ġhou":324,"Ġbefore":325,"pt":326,"Ġgave":327,"Ġchildren":328,"ause":329,"all":330,"us":331,"Ġwor":332,"rou":333,"Ġmen":334,"Ġshe":335,"Ġnow":336,"ide":337,"way":338,"ess":339,"Ġwhat":340,"Ġinto":341,"fe":342,"ving":343,"art":344,"Ġsee":345,"ight":346,"Ġhouse":347,"Ġhand":348,"urn":349,"Ġword":350,"sel":351,"iah":352,"ud":353,"Ġfather":354,"ment":355,"van":356,"Ġus":357,"wn":358,"Ġser":359,"Ġpro":360,"Ġevery":361,"av":362,"Ġlo":363,"ood":364,"Ġtook":365,"Ġtw":366,"ry":367,"Ġour":368,"Ġplace":369,"Ġaway":370,"Ġk":371,"Ġagainst":372,"out":373,"Ġdeath":374,"Ġkeep":375,"Ġgreat":376,"Ġback":377,"ction":378,"Ġservan":379,"qu":380,"ree":381,"right":382,"Ġlike":383,"Ġev":384,"Ġthose":385,"20":386,"ph":387,"Ġgiven":388,"Ġsons":389,"um":390,"Ġoffering":391,"Ġway":392,"Ġbecause":393,"Ġtown":394,"Ġpr":395,"Ġtim":396,"pp":397,"Ġdav":398,"Ġdavid":399,"Ġevil":400,"ul":401,"ves":402,"nt":403,"te":404,"our":405,"Ġ(":406,"Ġmo":407,"ome":408,"Ġtak":409,"âĢĻ":410,"Ġbeen":411,"Ġget":412,"Ġal":413,"Ġjud":414,"un":415,"Ġaf":416,"Ġho":417,"ings":418,"own":419,"Ġwr":420,"Ġearth":421,"Ġthese":422,"Ġfl":423,"ce":424,"ale":425,"red":426,"Ġafter":427,"ble":428,"ount":429,"Ġsp":430,"ous":431,"Ġbro":432,"Ġord":433,"ie":434,"Ġgood":435,"age":436,"Ġwat":437,"Ġbl":438,"ise":439,"ies":440,"Ġwork":441,"Ġro":442,"Ġdown":443,"Ġru":444,"ind":445,"ting":446,"Ġfe":447,"Ġdid":448,"Ġsent":449,"ites":450,"Ġany":451,"ine":452,"Ġun":453,"Ġsin":454,"Ġle":455,"Ġits":456,"ard":457,"urned":458,"ol":459,"ig":460,"Ġliving":461,"Ġyear":462,"oses":463,"Ġtime":464,"Ġz":465,"ist":466,"thing":467,"Ġcon":468,"ish":469,"Ġpri":470,"Ġsu":471,"Ġcan":472,"ort":473,"Ġright":474,"nder":475,"Ġjer":476,"Ġarm":477,"ase":478,"Ġmoses":479,"Ġjo":480,"Ġname":481,"ast":482,"ould":483,"Ġholy":484,"ite":485,"Ġbo":486,"ull":487,"Ġfood":488,"Ġtent":489,"Ġrest":490,"ty":491,"ure":492,"Ġtaken":493,"Ġco":494,"Ġother":495,"Ġjudah":496,"Ġeven":497,"Ġtwo":498,"Ġqu":499,"Ġstr":500,"sh":501,"ice":502,"gy":503,"Ġkn":504,"Ġdone":505,"be":506,"ate":507,"Ġwords":508,"pl":509,"ple":510,"Ġte":511,"Ġph":512,"Ġje":513,"Ġey":514,"ations":515,"ag":516,"igh":517,"Ġsou":518,"Ġamong":519,"Ġheart":520,"Ġfam":521,"Ġhands":522,"self":523,"Ġfamil":524,"Ġdes":525,"Ġex":526,"irst":527,"umb":528,"ws":529,"Ġfear":530,"Ġknow":531,"ory":532,"led":533,"Ġsend":534,"Ġabout":535,"Ġad":536,"get":537,"Ġhu":538,"Ġhow":539,"Ġservant":540,"Ġca":541,"Ġegy":542,"Ġegypt":543,"Ġeyes":544,"Ġnumb":545,"Ġunder":546,"Ġwhere":547,"ng":548,"ire":549,"Ġend":550,"aking":551,"ust":552,"dom":553,"Ġbrother":554,"ach":555,"hed":556,"Ġjerus":557,"ndred":558,"alem":559,"Ġhundred":560,"Ġjerusalem":561,"Ġfirst":562,"Ġuse":563,"Ġservants":564,"Ġthan":565,"Ġpo":566,"Ġwould":567,"Ġorders":568,"Ġthings":569,"Ġlife":570,"Ġsaying":571,"rough":572,"Ġfull":573,"les":574,"ob":575,"Ġwar":576,"ive":577,"Ġwithout":578,"ret":579,"ign":580,"Ġthrough":581,"ass":582,"Ġmore":583,"Ġcl":584,"ff":585,"ledge":586,"gether":587,"Ġtogether":588,"Ġknowledge":589,"Ġcle":590,"ub":591,"Ġneed":592,"Ġsec":593,"mon":594,"Ġen":595,"Ġhead":596,"ck":597,"arch":598,"Ġonly":599,"Ġtru":600,"Ġim":601,"sp":602,"Ġwom":603,"ile":604,"Ġac":605,"rain":606,"aught":607,"Ġwater":608,"Ġel":609,"Ġdays":610,"Ġdaught":611,"Ġfo":612,"ity":613,"Ġgot":614,"Ġnumber":615,"Ġyears":616,"ions":617,"Ġgl":618,"br":619,"Ġprop":620,"Ġdest":621,"ant":622,"aven":623,"Ġhigh":624,"ruction":625,"Ġstrong":626,"Ġ/":627,"ert":628,"Ġdestruction":629,"Ġwi":630,"Ġbu":631,"Ġthous":632,"Ġthousand":633,"ief":634,"esh":635,"Ġwaste":636,"Ġop":637,"ot":638,"wer":639,"aces":640,"Ġsays":641,"urning":642,"Ġburned":643,"Ġsaw":644,"Ġread":645,"Ġwhom":646,"Ġcut":647,"Ġtill":648,"Ġsw":649,"Ġbre":650,"Ġ1":651,"Ġpriest":652,"Ġmer":653,"Ġlong":654,"Ġwhose":655,"Ġans":656,"ower":657,"Ġhel":658,"Ġchief":659,"Ġtrou":660,"Ġmar":661,"Ġdoor":662,"Ġsome":663,"Ġpart":664,"Ġbet":665,"az":666,"Ġgold":667,"Ġface":668,"Ġkept":669,"ick":670,"orn":671,"Ġsearch":672,"Ġtowns":673,"Ġhear":674,"Ġfire":675,"Ġside":676,"Ġhelp":677,"ness":678,"Ġr":679,"Ġah":680,"ue":681,"Ġsaul":682,"Ġapp":683,"Ġpur":684,"selves":685,"Ġpra":686,"tar":687,"Ġold":688,"Ġgone":689,"Ġcause":690,"Ġherit":691,"ai":692,"Ġbir":693,"ft":694,"Ġsi":695,"iting":696,"Ġheritage":697,"Ġbook":698,"Ġheaven":699,"Ġhere":700,"Ġbecame":701,"Ġ[":702,"Ġturned":703,"Ġyoung":704,"Ġthou":705,"Ġatt":706,"Ġgen":707,"row":708,"Ġrul":709,"do":710,"ne":711,"able":712,"Ġver":713,"Ġsm":714,"Ġaltar":715,"ans":716,"ip":717,"Ġla":718,"Ġfathers":719,"ains":720,"round":721,"em":722,"Ġwell":723,"oh":724,"ests":725,"ang":726,"Ġunc":727,"Ġcur":728,"ked":729,"Ġmount":730,"Ġvo":731,"Ġofferings":732,"Ġgener":733,"oth":734,"Ġanswer":735,"aron":736,"Ġjeh":737,"ses":738,"cy":739,"Ġfa":740,"its":741,"Ġbod":742,"Ġtrouble":743,"si":744,"enty":745,"Ġcover":746,"Ġthree":747,"Ġcomes":748,"Ġaaron":749,"Ġfamily":750,"ial":751,"Ġwhy":752,"ds":753,"place":754,"Ġseen":755,"Ġsol":756,"akes":757,"Ġopen":758,"Ġlev":759,"ines":760,"Ġorder":761,"Ġfar":762,"pe":763,"res":764,"Ġbuild":765,"Ġpower":766,"Ġcry":767,"ated":768,"for":769,"Ġcru":770,"Ġdi":771,"Ġpurp":772,"Ġinc":773,"ĠâĢ":774,"ition":775,"Ġplaces":776,"Ġpraise":777,"Ġwife":778,"Ġvoice":779,"Ġox":780,"ountry":781,"ever":782,"Ġed":783,"osh":784,"Ġwrath":785,"ond":786,"ken":787,"other":788,"Ġpray":789,"Ġpriests":790,"Ġround":791,"Ġseven":792,"Ġbr":793,"Ġjac":794,"Ġbless":795,"Ġpeace":796,"Ġcreat":797,"Ġwoman":798,"Ġthir":799,"Ġmercy":800,"Ġjacob":801,"Ġanother":802,"Ġstill":803,"een":804,"Ġ<":805,"ertain":806,"Ġhimself":807,"Ġmeet":808,"Ġang":809,"Ġlight":810,"Ġnear":811,"Ġ/>":812,"ze":813,"ink":814,"Ġfiel":815,"Ġwrong":816,"gth":817,"oking":818,"xt":819,"Ġmou":820,"Ġprophe":821,"tle":822,"Ġoverc":823,"Ġways":824,"Ġbrothers":825,"Ġclear":826,"Ġhat":827,"Ġrec":828,"Ġcertain":829,"Ġsafe":830,"Ġsheep":831,"ec":832,"ia":833,"Ġnight":834,"Ġupright":835,"Ġbroken":836,"Ġmouth":837,"Ġsame":838,"Ġpos":839,"Ġtri":840,"Ġsam":841,"ash":842,"Ġdec":843,"Ġlove":844,"Ġmeeting":845,"Ġfun":846,"Ġnations":847,"Ġcont":848,"Ġben":849,"Ġfight":850,"Ġsoul":851,"Ġgr":852,"Ġper":853,"ments":854,"Ġblessing":855,"omon":856,"Ġphil":857,"sible":858,"Ġsolomon":859,"uch":860,"Ġmind":861,"Ġple":862,"Ġphilist":863,"ward":864,"Ġsc":865,"Ġresp":866,"Ġdoes":867,"Ġadd":868,"Ġsword":869,"Ġbody":870,"du":871,"Ġfal":872,"Ġstren":873,"Ġdesign":874,"Ġdaughter":875,"](":876,"Ġsal":877,"Ġsupp":878,"Ġmon":879,"Ġfalse":880,"Ġwhile":881,"Ġkings":882,"Ġcare":883,"Ġsecret":884,"wor":885,"Ġnothing":886,"Ġgives":887,"Ġbecome":888,"Ġstrength":889,"lean":890,"ision":891,"Ġnam":892,"Ġsim":893,"Ġsil":894,"Ġnews":895,"Ġagree":896,"Ġable":897,"Ġfamilies":898,"if":899,"ps":900,"Ġhon":901,"asure":902,"Ġcomp":903,"Ġgoing":904,"Ġass":905,"Ġunclean":906,"aph":907,"Ġmakes":908,"Ġfunction":909,"Ġsilver":910,"Ġgu":911,"eth":912,"Ġfaith":913,"Ġfour":914,"Ġgoes":915,"Ġlooking":916,"Ġfree":917,"Ġbirth":918,"Ġdead":919,"ally":920,"Ġagreement":921,"ary":922,"Ġnew":923,"Ġtents":924,"Ġpurpose":925,"Ġmonth":926,"side":927,"ua":928,"ara":929,"Ġele":930,"Ġtwenty":931,"Ġtakes":932,"Ġbread":933,"Ġsix":934,"Ġvery":935,"Ġoath":936,"ages":937,"Ġmeal":938,"Ġprayer":939,"Ġoil":940,"Ġthing":941,"Ġworsh":942,"Ġflight":943,"Ġarmy":944,"Ġlaw":945,"00":946,"Ġwall":947,"Ġgrain":948,"vation":949,"Ġwis":950,"Ġcommon":951,"Ġjoy":952,"eous":953,"Ġmother":954,"Ġlevites":955,"are":956,"act":957,"ison":958,"Ġpun":959,"Ġmaking":960,"Ġrighteous":961,"Ġphara":962,"Ġpharaoh":963,"Ġdr":964,"Ġdis":965,"Ġdat":966,"Ġquick":967,"Ġsor":968,"Ġthought":969,"aiah":970,"Ġmight":971,"Ġcountry":972,"rah":973,"Ġcapt":974,"Ġacc":975,"Ġglory":976,"Ġpunish":977,"Ġgods":978,"Ġtrue":979,"ms":980,"Ġbest":981,"oud":982,"Ġblood":983,"Ġphilistines":984,"ange":985,"Ġthemselves":986,"oney":987,"Ġready":988,"Ġrighteousness":989,"ely":990,"Ġtruly":991,"Ġpunishment":992,"man":993,"Ġhard":994,"ones":995,"Ġeph":996,"Ġsound":997,"Ġtal":998,"Ġseed":999,"Ġsalvation":1000,"so":1001,"Ġdesire":1002,"Ġsea":1003,"Ġeli":1004,"ween":1005,"xed":1006,"Ġdire":1007,"Ġark":1008,"Ġbetween":1009,"ap":1010,"Ġmat":1011,"alth":1012,"Ġshame":1013,"ream":1014,"Ġinst":1015,"Ġexp":1016,"kiah":1017,"Ġburning":1018,"Ġbeth":1019,"Ġkingdom":1020,"ased":1021,"ray":1022,"Ġtimes":1023,"Ġresting":1024,"Ġbuilding":1025,"Ġwisdom":1026,"Ġfif":1027,"Ġdata":1028,"ef":1029,"off":1030,"ence":1031,"Ġsuch":1032,"Ġwise":1033,"Ġwaters":1034,"Ġval":1035,"Ġarmies":1036,"Ġjosh":1037,"Ġovercome":1038,"ched":1039,"uth":1040,"Ġclean":1041,"ound":1042,"essel":1043,"Ġvessel":1044,"Ġhearing":1045,"Ġspir":1046,"Ġimp":1047,"Ġfield":1048,"og":1049,"Ġtr":1050,"Ġhor":1051,"Ġlist":1052,"Ġgiving":1053,"Ġprison":1054,"Ġhonour":1055,"Ġsong":1056,"âĢĿ":1057,"Ġeverything":1058,"fted":1059,"ba":1060,"Ġjoshua":1061,"Ġmorn":1062,"Ġjose":1063,"Ġjoseph":1064,"men":1065,"Ġpers":1066,"ime":1067,"Ġwealth":1068,"Ġsmall":1069,"ail":1070,"Ġmorning":1071,"Ġsev":1072,"iz":1073,"Ġbas":1074,"Ġcomple":1075,"eping":1076,"de":1077,"othing":1078,"Ġwood":1079,"Ġmuch":1080,"ont":1081,"Ġnever":1082,"Ġdaughters":1083,"ĠâĢľ":1084,"lon":1085,"Ġturning":1086,"Ġpar":1087,"Ġears":1088,"Ġfive":1089,"Ġhaters":1090,"Ġsign":1091,"Ġstart":1092,"Ġlifted":1093,"Ġglad":1094,"Ġdrink":1095,"ect":1096,"Ġhill":1097,"Ġmus":1098,"Ġmem":1099,"Ġpoor":1100,"isions":1101,"offering":1102,"bb":1103,"uel":1104,"Ġwa":1105,"Ġrel":1106,"Ġrespon":1107,"ved":1108,"Ġfru":1109,"Ġfeet":1110,"Ġsecond":1111,"Ġdise":1112,"bes":1113,"Ġfool":1114,"ner":1115,"Ġcall":1116,"enth":1117,"Ġrequ":1118,"Ġarray":1119,"Ġfoolish":1120,"els":1121,"athan":1122,"Ġprodu":1123,"Ġused":1124,"Ġcurse":1125,"Ġband":1126,"ough":1127,"Ġmid":1128,"Ġty":1129,"Ġwine":1130,"Ġbit":1131,"Ġresponsible":1132,"aan":1133,"jam":1134,"hem":1135,"Ġlow":1136,"Ġchiefs":1137,"Ġgra":1138,"Ġalso":1139,"Ġworship":1140,"Ġ\"":1141,"Ġstret":1142,"Ġmost":1143,"Ġhearts":1144,"Ġspirit":1145,"ordan":1146,"Ġjordan":1147,"Ġhash":1148,"ning":1149,"Ġhop":1150,"Ġflesh":1151,"Ġmusic":1152,"ors":1153,"Ġbab":1154,"Ġdar":1155,"ars":1156,"sal":1157,"Ġmod":1158,"Ġmoney":1159,"Ġstore":1160,"Ġmale":1161,"Ġclothing":1162,"ock":1163,"ows":1164,"Ġfrie":1165,"ching":1166,"Ġruler":1167,"Ġbenjam":1168,"Ġfriend":1169,"Ġwind":1170,"Ġsl":1171,"rees":1172,"Ġbetter":1173,"Ġincre":1174,"Ġbaby":1175,"bo":1176,"Ġ3":1177,"Ġten":1178,"Ġwomen":1179,"lt":1180,"Ġpill":1181,"Ġperson":1182,"bs":1183,"gor":1184,"jah":1185,"ention":1186,"alle":1187,"Ġstrange":1188,"Ġthirty":1189,"Ġrecord":1190,"Ġbabylon":1191,"Ġri":1192,"Ġgri":1193,"Ġstor":1194,"Ġweeping":1195,"work":1196,"day":1197,"ron":1198,"Ġjust":1199,"Ġdeep":1200,"Ġwaiting":1201,"Ġact":1202,"asts":1203,"Ġvalle":1204,"Ġprophet":1205,"Ġvalley":1206,"Ġcoming":1207,"Ġcons":1208,"Ġquickly":1209,"lf":1210,"Ġpride":1211,"Ġtribe":1212,"raham":1213,"..":1214,"Ġlin":1215,"ices":1216,"Ġabraham":1217,"Ġattack":1218,"Ġangry":1219,"Ġfruit":1220,"Ġsen":1221,"Ġdry":1222,"Ġones":1223,"Ġshut":1224,"Ġprice":1225,"Ġmountain":1226,"Ġbenjamin":1227,"sing":1228,"iness":1229,"Ġdisease":1230,"Ġpay":1231,"ari":1232,"aster":1233,"Ġmemory":1234,"Ġdark":1235,"cess":1236,"asse":1237,"Ġyourself":1238,"owing":1239,"Ġalgor":1240,"Ġrun":1241,"Ġsorrow":1242,"Ġalgorith":1243,"Ġdel":1244,"irc":1245,"Ġtext":1246,"Ġmoab":1247,"Ġteach":1248,"iour":1249,"Ġwriting":1250,"Ġrock":1251,"Ġnamed":1252,"Ġ&":1253,"Ġtaking":1254,"Ġcar":1255,"Ġeach":1256,"Ġseat":1257,"Ġwhatever":1258,"Ġcanaan":1259,"ffer":1260,"Ġsupport":1261,"Ġ2":1262,"Ġma":1263,"Ġform":1264,"ls":1265,"Ġstones":1266,"Ġjudg":1267,"Ġriver":1268,"oam":1269,"Ġlit":1270,"ents":1271,"Ġflock":1272,"Ġbitter":1273,"Ġhope":1274,"Ġba":1275,"Ġcub":1276,"Ġdiv":1277,"ae":1278,"back":1279,"Ġsk":1280,"Ġlim":1281,"ance":1282,"Ġheads":1283,"Ġoxen":1284,"Ġvessels":1285,"Ġinter":1286,"Ġjoab":1287,"Ġpleasure":1288,"gt":1289,"Ġset":1290,"Ġdoing":1291,"Ġmanasse":1292,"Ġbrass":1293,"Ġfighting":1294,"Ġmanasseh":1295,"iel":1296,"land":1297,"miah":1298,"Ġauth":1299,"Ġsort":1300,"Ġhorn":1301,"Ġtoday":1302,"Ġjeho":1303,"Ġwant":1304,"Ġfall":1305,"Ġreward":1306,"Ġattention":1307,"Ġlittle":1308,"ces":1309,"Ġweight":1310,"Ġquest":1311,"Ġposition":1312,"Ġcaptains":1313,"ighb":1314,"oboam":1315,"Ġedit":1316,"__":1317,"over":1318,"Ġtree":1319,"Ġfind":1320,"raim":1321,"ode":1322,"Ġvide":1323,"Ġaram":1324,"Ġconne":1325,"Ġfifty":1326,"ring":1327,"hes":1328,"Ġpre":1329,"Ġpass":1330,"Ġhouses":1331,"fect":1332,"arden":1333,"Ġthough":1334,"Ġai":1335,"Ġtop":1336,"Ġcat":1337,"Ġbeing":1338,"Ġjon":1339,"Ġjere":1340,"Ġmoved":1341,"Ġgoods":1342,"Ġfeed":1343,"Ġnumbered":1344,"Ġsamuel":1345,"Ġgrief":1346,"go":1347,"lic":1348,"Ġ+":1349,"Ġfixed":1350,"Ġothers":1351,"Ġenough":1352,"Ġcruel":1353,"Ġephraim":1354,"Ġdirection":1355,"vel":1356,"Ġeng":1357,"Ġcovered":1358,"Ġteaching":1359,"Ġwit":1360,"Ġworks":1361,"gin":1362,"ram":1363,"Ġwide":1364,"Ġtool":1365,"Ġpeoples":1366,"Ġlook":1367,"Ġspec":1368,"doing":1369,"Ġdiffer":1370,"Ġprophets":1371,"Ġauthor":1372,"Ġwitness":1373,"Ġche":1374,"Ġdust":1375,"Ġmany":1376,"ular":1377,"Ġexam":1378,"ress":1379,"Ġaccount":1380,"li":1381,"mo":1382,"Ġsun":1383,"Ġhalf":1384,"Ġyourselves":1385,"com":1386,"ced":1387,"Ġef":1388,"Ġeast":1389,"Ġneighb":1390,"Ġze":1391,"form":1392,"Ġinstru":1393,"Ġjeremiah":1394,"shed":1395,"int":1396,"Ġnet":1397,"ience":1398,"ss":1399,"Ġtable":1400,"ket":1401,"Ġstream":1402,"Ġevening":1403,"Ġgeneration":1404,"Ġvalue":1405,"Ġsense":1406,"Ġcattle":1407,"Ġeveryone":1408,"Ġtwel":1409,"Ġanyone":1410,"Ġacts":1411,"Ġcreate":1412,"Ġstretched":1413,"zz":1414,"Ġhus":1415,"Ġheze":1416,"Ġjudge":1417,"Ġanything":1418,"Ġproper":1419,"Ġrulers":1420,"Ġdecisions":1421,"Ġsimple":1422,"Ġhezekiah":1423,"Ġpub":1424,"Ġusing":1425,"Ġcrushed":1426,"Ġcubits":1427,"lud":1428,"Ġinside":1429,"Ġem":1430,"Ġforty":1431,"Ġart":1432,"Ġwatch":1433,"Ġcrying":1434,"ians":1435,"up":1436,"Ġparts":1437,"Ġbaal":1438,"Ġjonathan":1439,"ib":1440,"ical":1441,"usiness":1442,"Ġgrass":1443,"Ġguid":1444,"ered":1445,"Ġgrow":1446,"Ġcord":1447,"Ġcau":1448,"Ġovert":1449,"Ġfeast":1450,"Ġrequest":1451,"Ġneighbour":1452,"Ġeight":1453,"Ġitem":1454,"Ġstone":1455,"Ġlonger":1456,"ma":1457,"Ġdri":1458,"Ġnation":1459,"Ġbeasts":1460,"Ġwives":1461,"Ġcutting":1462,"Ġdoorway":1463,"Ġpayment":1464,"yri":1465,"Ġind":1466,"Ġstep":1467,"Ġputs":1468,"Ġrule":1469,"ures":1470,"Ġmark":1471,"Ġinclud":1472,"Ġassyri":1473,".&":1474,"ell":1475,"eet":1476,"hel":1477,"Ġown":1478,"Ġbal":1479,"Ġloud":1480,"Ġsav":1481,"Ġmeasure":1482,"Ġred":1483,"Ġroom":1484,"Ġthird":1485,"Ġdisg":1486,"Ġalgorithm":1487,"Ġfeedback":1488,"Ġauthority":1489,"Ġproperty":1490,"la":1491,"oke":1492,"Ġra":1493,"Ġwound":1494,"Ġmaster":1495,"ates":1496,"lech":1497,"asing":1498,"Ġprof":1499,"Ġcloud":1500,"Ġdifferent":1501,"Ġdisgust":1502,".)":1503,"ti":1504,"Ġtrees":1505,"Ġpain":1506,"Ġham":1507,"Ġputting":1508,"Ġammon":1509,"Ġfile":1510,"Ġimage":1511,"Ġsweet":1512,"ful":1513,"ian":1514,"ners":1515,"ariah":1516,"Ġsheke":1517,"Ġgraph":1518,"Ġvideo":1519,"Ġwo":1520,"ative":1521,"ribe":1522,"Ġchang":1523,"Ġvine":1524,"ney":1525,"Ġpillars":1526,"Ġsaviour":1527,"ber":1528,"cus":1529,"Ġsy":1530,"Ġlear":1531,"Ġplan":1532,"Ġlands":1533,"Ġvi":1534,"Ġsins":1535,"Ġeffect":1536,"lo":1537,"Ġbusiness":1538,"Ġcode":1539,"Ġlips":1540,"Ġdelight":1541,"Ġtwelve":1542,"aut":1543,"ists":1544,"Ġpull":1545,"Ġearly":1546,"aker":1547,"Ġmarked":1548,"Ġimport":1549,"aac":1550,"ual":1551,"vie":1552,"Ġpast":1553,"Ġdam":1554,"lead":1555,"Ġreg":1556,"vant":1557,"Ġgetting":1558,"Ġarms":1559,"Ġcontent":1560,"Ġrecorded":1561,"Ġcausing":1562,"Ġassyria":1563,"Ġsis":1564,"Ġbeast":1565,"Ġkeeping":1566,"Ġdoors":1567,"resent":1568,"pes":1569,"ats":1570,"Ġhair":1571,"Ġisaac":1572,"ics":1573,"Ġgilead":1574,"Ġzion":1575,"Ġarmed":1576,"Ġfoot":1577,"doers":1578,"Ġcertainly":1579,"ser":1580,"Ġseated":1581,"ross":1582,"Ġshaking":1583,"Ġabsal":1584,"Ġlaws":1585,"Ġmountains":1586,"Ġabsalom":1587,"band":1588,"Ġtong":1589,"Ġcase":1590,"Ġnote":1591,"Ġsouth":1592,"Ġtroubled":1593,"Ġfalling":1594,"Ġviol":1595,"zer":1596,"Ġlam":1597,"Ġforward":1598,"Ġoutside":1599,"Ġcoll":1600,"Ġaddition":1601,"iet":1602,"the":1603,"Ġyours":1604,"riages":1605,"Ġheavens":1606,"Ġexample":1607,"ipp":1608,"Ġes":1609,"Ġtou":1610,"Ġaz":1611,"Ġob":1612,"Ġquiet":1613,"Ġprisoners":1614,"af":1615,"par":1616,"ining":1617,"Ġbase":1618,"Ġish":1619,"ason":1620,"Ġjour":1621,"Ġkind":1622,"Ġgenerations":1623,"Ġdecision":1624,"Ġnames":1625,"Ġseventh":1626,"autif":1627,"Ġviolent":1628,"gs":1629,"Ġsle":1630,"Ġcould":1631,"Ġdan":1632,"Ġedom":1633,"aniah":1634,"Ġfront":1635,"shing":1636,"Ġdesigns":1637,"Ġhusband":1638,"Ġdisgusting":1639,"erial":1640,"Ġnor":1641,"Ġeas":1642,"let":1643,"chang":1644,"Ġkeeps":1645,"Ġacross":1646,"ĠâĢ¢":1647,"Ġfriends":1648,"autiful":1649,"Ġtest":1650,"Ġbed":1651,"Ġmyself":1652,"Ġgets":1653,"Ġperf":1654,"Ġmaterial":1655,"Ġengine":1656,"Ġshekels":1657,"Ġimportant":1658,"ating":1659,"Ġdef":1660,"tern":1661,"Ġworking":1662,"Ġworld":1663,"Ġgreater":1664,"Ġspace":1665,"Ġrod":1666,"Ġlimit":1667,"lands":1668,"Ġperfum":1669,"but":1670,"ci":1671,"cts":1672,"Ġrain":1673,"ides":1674,"Ġdece":1675,"Ġuser":1676,"aeans":1677,"Ġjehoi":1678,"Ġjourney":1679,"gi":1680,"Ġ4":1681,"Ġlast":1682,"Ġwrit":1683,"Ġfields":1684,"Ġcontro":1685,"aphat":1686,"Ġbin":1687,"read":1688,"Ġdist":1689,"Ġhaving":1690,"Ġhapp":1691,"Ġreason":1692,"ries":1693,"Ġjeroboam":1694,"Ġsamar":1695,"Ġexper":1696,"Ġeditor":1697,"Ġinstruments":1698,"80":1699,"ijah":1700,"Ġdon":1701,"Ġgibe":1702,"Ġnext":1703,"Ġkey":1704,"Ġrules":1705,"Ġfeat":1706,"Ġ10":1707,"Ġahab":1708,"imelech":1709,"Ġpublic":1710,"Ġdriving":1711,"Ġdeceit":1712,"Ġsamaria":1713,"sion":1714,"Ġcam":1715,"Ġbeh":1716,"Ġhan":1717,"Ġforce":1718,"ames":1719,"Ġsabb":1720,"Ġrobes":1721,"Ġnumbers":1722,"Ġimages":1723,"Ġconnection":1724,"Ġsabbath":1725,"ush":1726,"Ġunchang":1727,"Ġtenth":1728,"spring":1729,"Ġtribes":1730,"world":1731,"Ġskin":1732,"aam":1733,"Ġ5":1734,"Ġwand":1735,"Ġgame":1736,"Ġmidd":1737,"book":1738,"ared":1739,"Ġide":1740,"Ġmet":1741,"Ġrem":1742,"Ġprov":1743,"Ġordered":1744,"Ġpossible":1745,"Ġgrace":1746,"Ġmiddle":1747,"gr":1748,"Ġdet":1749,"Ġsham":1750,"Ġshould":1751,"Ġzer":1752,"Ġthoughts":1753,"Ġdirect":1754,"Ġhorse":1755,"Ġseventy":1756,"Ġincreased":1757,"Ġsteps":1758,"Ġunchanging":1759,"car":1760,"ted":1761,"Ġgad":1762,"ather":1763,"ality":1764,"Ġreub":1765,"Ġcomm":1766,"Ġstop":1767,"Ġvari":1768,"Ġshar":1769,"Ġcaptain":1770,"Ġreuben":1771,"10":1772,"ura":1773,"Ġer":1774,"Ġbig":1775,"Ġmul":1776,"Ġdream":1777,"Ġbeautiful":1778,"Ġamor":1779,"Ġprocess":1780,"Ġloc":1781,"Ġflowing":1782,"Ġsinners":1783,"Ġjehosh":1784,"Ġcomplete":1785,"Ġnorth":1786,"Ġbinary":1787,"country":1788,"ches":1789,"tw":1790,"Ġsur":1791,"Ġmi":1792,"reen":1793,"Ġlab":1794,"Ġinte":1795,"Ġneb":1796,"Ġtech":1797,"Ġegyptians":1798,"Ġelish":1799,"aziah":1800,"Ġconsid":1801,"Ġsister":1802,"fort":1803,"Ġline":1804,"als":1805,"Ġplac":1806,"bron":1807,"Ġram":1808,"Ġfair":1809,"Ġcovering":1810,"Ġbran":1811,"Ġangel":1812,"Ġrelation":1813,"...":1814,"Ġjehoshaphat":1815,"ired":1816,"ined":1817,"Ġcr":1818,"Ġhebron":1819,"Ġshem":1820,"Ġproj":1821,"Ġrobe":1822,"Ġleft":1823,"Ġtype":1824,"Ġgrowth":1825,"cu":1826,"garden":1827,"Ġve":1828,"Ġhar":1829,"Ġloose":1830,"Ġapps":1831,"Ġedge":1832,"Ġhorns":1833,"Ġesau":1834,"two":1835,"fl":1836,"iv":1837,"Ġhig":1838,"Ġgrou":1839,"Ġcirc":1840,"Ġinv":1841,"search":1842,"Ġfeel":1843,"Ġsearching":1844,"Ġruling":1845,"Ġrespect":1846,"Ġtalk":1847,"of":1848,"she":1849,"Ġjes":1850,"Ġsepar":1851,"Ġfate":1852,"Ġlot":1853,"Ġwrongdoing":1854,"Ġtalking":1855,"Ġcomplet":1856,"Ġwonder":1857,"hon":1858,"ton":1859,"Ġ0":1860,"Ġless":1861,"Ġmoving":1862,"Ġjews":1863,"Ġunderworld":1864,"Ġbirds":1865,"Ġlinked":1866,"Ġrunning":1867,"Ġquestion":1868,"Ġwandering":1869,"ks":1870,"pr":1871,"Ġcol":1872,"sed":1873,"Ġreh":1874,"Ġcomfort":1875,"Ġasa":1876,"Ġshec":1877,"selah":1878,"Ġproble":1879,"Ġroad":1880,"Ġfee":1881,"Ġsuppose":1882,"Ġtongue":1883,"30":1884,"?)":1885,"Ġach":1886,"Ġsn":1887,"itt":1888,"Ġiron":1889,"Ġwashed":1890,"Ġstra":1891,"Ġstru":1892,"Ġbox":1893,"Ġpleasing":1894,"Ġwalls":1895,"Ġdivision":1896,"Ġtools":1897,"Ġregular":1898,"Ġbehav":1899,"Ġcompletely":1900,"99":1901,"ters":1902,"Ġter":1903,"Ġwal":1904,"Ġmil":1905,"Ġpath":1906,"Ġonce":1907,"Ġlif":1908,"Ġwrite":1909,"doer":1910,"Ġsongs":1911,"Ġzeb":1912,"law":1913,"Ġstraight":1914,"aim":1915,"ban":1916,"ex":1917,"Ġent":1918,"Ġ...":1919,"Ġsom":1920,"Ġbar":1921,"keting":1922,"Ġres":1923,"Ġshort":1924,"Ġoffspring":1925,"ways":1926,"azar":1927,"Ġelements":1928,"Ġeleazar":1929,"Ġelijah":1930,"Ġbases":1931,"Ġcalled":1932,"Ġproduct":1933,"Ġlinen":1934,"carriages":1935,"bl":1936,"cri":1937,"iath":1938,"Ġtab":1939,"Ġopt":1940,"Ġhate":1941,"Ġlang":1942,"Ġforgi":1943,"Ġuzz":1944,"stand":1945,"Ġjob":1946,"Ġbodies":1947,"Ġhorses":1948,"offerings":1949,"Ġcursed":1950,"Ġlangu":1951,"pu":1952,"tal":1953,"Ġmine":1954,"Ġpresent":1955,"Ġseem":1956,"Ġovercame":1957,"Ġworshipp":1958,"apter":1959,"Ġexpert":1960,"Ġflocks":1961,"Ġmulti":1962,"Ġtechn":1963,"me":1964,"orah":1965,"Ġcro":1966,"Ġdra":1967,"Ġdro":1968,"Ġdang":1969,"Ġsees":1970,"Ġsele":1971,"Ġbutton":1972,"Ġflow":1973,"Ġsub":1974,"Ġboard":1975,"Ġfeeble":1976,"ues":1977,"Ġbad":1978,"Ġbones":1979,"Ġfre":1980,"Ġhang":1981,"ede":1982,"Ġrep":1983,"ribut":1984,"Ġchar":1985,"202":1986,"Ġneeds":1987,"Ġsmell":1988,"Ġsecretly":1989,"Ġsigns":1990,"Ġbands":1991,"velop":1992,"Ġmaterials":1993,"Ġamorites":1994,"Ġforgiven":1995,"Ġdanger":1996,"mer":1997,"maker":1998,"Ġtar":1999,"Ġaw":2000,"Ġmic":2001,"rows":2002,"aliah":2003,"Ġcho":2004,"Ġoffered":2005,"Ġseems":2006,"Ġpost":2007,"Ġmidian":2008,"Ġdirections":2009,"Ġlearn":2010,"nah":2011,"oked":2012,"ually":2013,"Ġest":2014,"Ġwid":2015,"Ġwest":2016,"Ġabimelech":2017,"Ġprom":2018,"teen":2019,"Ġspear":2020,"Ġsport":2021,"Ġbreath":2022,"Ġtexture":2023,"ives":2024,"Ġwond":2025,"Ġmesh":2026,"Ġlion":2027,"ada":2028,"iles":2029,"ility":2030,"ict":2031,"Ġsoft":2032,"Ġasses":2033,"Ġchapter":2034,"Ġrods":2035,"Ġmarketing":2036,"Ġovertake":2037,"Ġsleep":2038,"Ġhappy":2039,"Ġsharp":2040,"Ġerr":2041,"Ġconsider":2042,"Ġshechem":2043,"Ġwalking":2044,"Ġlifting":2045,"Ġforgiveness":2046,"cial":2047,"heth":2048,"Ġaud":2049,"ints":2050,"ases":2051,"Ġsell":2052,"Ġmeat":2053,"Ġtem":2054,"Ġreading":2055,"Ġhigher":2056,"mar":2057,"nam":2058,"Ġtra":2059,"Ġtrain":2060,"omes":2061,"Ġsex":2062,"ody":2063,"Ġabner":2064,"Ġusers":2065,"Ġspe":2066,"Ġneeded":2067,"Ġprais":2068,"Ġsize":2069,"Ġlevi":2070,"Ġspecif":2071,"Ġchanged":2072,"Ġmixed":2073,"po":2074,"ped":2075,"sk":2076,"ten":2077,"ured":2078,"Ġ$":2079,"Ġfut":2080,"Ġfact":2081,"Ġlau":2082,"Ġpity":2083,"acking":2084,"irts":2085,"Ġresearch":2086,"Ġdevelop":2087,"Ġletter":2088,"eph":2089,"Ġvis":2090,"Ġsure":2091,"ails":2092,"Ġprofit":2093,"Ġmetal":2094,"40":2095,"cover":2096,"five":2097,"ware":2098,"Ġtry":2099,"Ġmal":2100,"adab":2101,"Ġsales":2102,"stem":2103,"Ġwhoever":2104,"Ġneck":2105,"Ġsending":2106,"Ġunderstand":2107,"Ġbreast":2108,"Ġappro":2109,"Ġrecur":2110,"Ġmodel":2111,"Ġquestions":2112,"ternal":2113,"Ġcontrol":2114,"Ġwonders":2115,"den":2116,"first":2117,"pro":2118,"Ġopp":2119,"Ġbag":2120,"Ġmah":2121,"Ġmass":2122,"Ġfin":2123,"Ġpsal":2124,"ities":2125,"Ġinde":2126,"ional":2127,"Ġstate":2128,"Ġleban":2129,"Ġzi":2130,"Ġpot":2131,"Ġansw":2132,"Ġjehu":2133,"Ġcrushing":2134,"Ġcreative":2135,"Ġhater":2136,"Ġloved":2137,"Ġintegr":2138,"Ġelisha":2139,"Ġstruct":2140,"Ġcrown":2141,"Ġselection":2142,"),":2143,"Ġ`":2144,"Ġav":2145,"Ġmord":2146,"Ġfon":2147,"reet":2148,"Ġyoke":2149,"Ġstack":2150,"Ġhole":2151,"Ġsinner":2152,"Ġoldest":2153,"ecai":2154,"Ġguide":2155,"Ġsounding":2156,"Ġspecial":2157,"Ġbalaam":2158,"Ġexperience":2159,"ural":2160,"Ġpsalm":2161,"Ġmordecai":2162,"Ġfonts":2163,"ins":2164,"Ġhum":2165,"Ġtower":2166,"Ġyes":2167,"Ġeternal":2168,"Ġwasted":2169,"Ġstory":2170,"akim":2171,"Ġshare":2172,"Ġjoined":2173,"ips":2174,"Ġsixty":2175,"Ġcommonplace":2176,"Ġjudging":2177,"Ġcheck":2178,"Ġinclude":2179,"Ġishma":2180,"Ġseparate":2181,"Ġlanguage":2182,"Ġlebanon":2183,").":2184,"24":2185,"gpu":2186,"kah":2187,"oram":2188,"oured":2189,"Ġmel":2190,"Ġge":2191,"Ġgarden":2192,"Ġced":2193,"Ġhaz":2194,"Ġshime":2195,"Ġabram":2196,"Ġseeing":2197,"que":2198,"Ġcurt":2199,"Ġcompan":2200,"Ġproduce":2201,"Ġfuture":2202,"Ġishmael":2203,"88":2204,"ca":2205,"wh":2206,"Ġsar":2207,"Ġbow":2208,"ater":2209,"Ġvir":2210,"Ġshall":2211,"Ġoverse":2212,"Ġlog":2213,"Ġalways":2214,"Ġpurposes":2215,"ething":2216,"Ġfourth":2217,"Ġsorts":2218,"Ġpillar":2219,"Ġplaced":2220,"11":2221,"put":2222,"Ġwing":2223,"inking":2224,"Ġpage":2225,"ons":2226,"Ġrender":2227,"Ġash":2228,"Ġlibr":2229,"Ġplant":2230,"Ġconc":2231,"Ġeye":2232,"ects":2233,"Ġcomput":2234,"Ġjudges":2235,"Ġguiding":2236,"view":2237,"Ġvarious":2238,"Ġsomething":2239,"circ":2240,"pah":2241,"ply":2242,"tree":2243,"Ġbent":2244,"Ġmed":2245,"verage":2246,"Ġrele":2247,"Ġanim":2248,"icho":2249,"Ġshining":2250,"Ġgreatly":2251,"Ġblog":2252,"Ġzede":2253,"Ġjericho":2254,"ustom":2255,"Ġfold":2256,"ashan":2257,"Ġcompon":2258,"Ġrelations":2259,"Ġarrays":2260,"most":2261,"formation":2262,"Ġlaban":2263,"Ġbranches":2264,"Ġerror":2265,"Ġzedekiah":2266,"44":2267,"app":2268,"bon":2269,"lam":2270,"sive":2271,"trees":2272,"Ġtas":2273,"Ġhoney":2274,"Ġbashan":2275,"Ġfiles":2276,"Ġlos":2277,"lled":2278,"Ġnaph":2279,"vers":2280,"Ġchal":2281,"Ġplay":2282,"Ġearli":2283,"Ġunw":2284,"Ġboth":2285,"Ġhowever":2286,"avened":2287,"Ġmarket":2288,"Ġsimply":2289,"Ġnewslet":2290,"Ġgrapes":2291,"Ġfeatures":2292,"Ġproblem":2293,"cript":2294,"Ġesther":2295,"fer":2296,"gu":2297,"non":2298,"Ġmiz":2299,"Ġint":2300,"Ġnah":2301,"Ġneth":2302,"Ġthink":2303,"Ġforces":2304,"ently":2305,"Ġupd":2306,"Ġdeb":2307,"ept":2308,"Ġelement":2309,"cessary":2310,"Ġtouching":2311,"Ġshamed":2312,"Ġmelody":2313,"ael":2314,"cing":2315,"gg":2316,"town":2317,"llow":2318,"Ġhaman":2319,"Ġforced":2320,"Ġunt":2321,"Ġmeans":2322,"Ġchat":2323,"Ġamale":2324,"Ġbecomes":2325,"teenth":2326,"Ġqueen":2327,"Ġlights":2328,"Ġaccess":2329,"Ġincrease":2330,"Ġaramaeans":2331,"Ġsystem":2332,"Ġlamb":2333,"Ġjehoiada":2334,"Ġdistribut":2335,"Ġcommun":2336,"Ġdraw":2337,"Ġamalek":2338,"'t":2339,"ho":2340,"lah":2341,"na":2342,"Ġfaces":2343,"Ġlists":2344,"Ġbeer":2345,"Ġheat":2346,"Ġnode":2347,"Ġjos":2348,"Ġreal":2349,"Ġoutc":2350,"Ġoutsk":2351,"Ġspices":2352,"aged":2353,"Ġthousands":2354,"Ġscribe":2355,"Ġmodels":2356,"Ġdivisions":2357,"Ġlambs":2358,"Ġeasy":2359,"Ġzebul":2360,"Ġoutskirts":2361,"han":2362,"ious":2363,"son":2364,"ys":2365,"Ġwgpu":2366,"Ġsud":2367,"Ġtom":2368,"Ġtoo":2369,"Ġcustom":2370,"Ġinformation":2371,"Ġwhite":2372,"Ġgoats":2373,"Ġuri":2374,"achel":2375,"adok":2376,"ically":2377,"Ġweb":2378,"Ġzadok":2379,"oted":2380,"ember":2381,"Ġopening":2382,"Ġstretching":2383,"Ġacting":2384,"Ġnetwork":2385,"Ġcords":2386,"Ġgroup":2387,"Ġmilk":2388,"Ġjosiah":2389,"Ġsudden":2390,"gal":2391,"ize":2392,"Ġap":2393,"era":2394,"acher":2395,"Ġvie":2396,"Ġvision":2397,"akers":2398,"Ġmoon":2399,"Ġblue":2400,"Ġblows":2401,"Ġjoash":2402,"Ġjez":2403,"Ġpoint":2404,"forman":2405,"Ġwalled":2406,"Ġhills":2407,"Ġtypes":2408,"Ġpassover":2409,"Ġprovide":2410,"Ġproject":2411,"Ġrehoboam":2412,"Ġtables":2413,"tali":2414,"Ġhanging":2415,"Ġwinged":2416,"circle":2417,"Ġloss":2418,"Ġchald":2419,"formance":2420,"64":2421,"gan":2422,"per":2423,"Ġhitt":2424,"Ġbright":2425,"Ġgil":2426,"Ġlay":2427,"Ġlater":2428,"Ġcale":2429,"Ġcakes":2430,"Ġbel":2431,"Ġet":2432,"Ġnoise":2433,"amar":2434,"add":2435,"Ġjab":2436,"Ġjesh":2437,"Ġnecessary":2438,"Ġsends":2439,"Ġrachel":2440,"Ġbird":2441,"Ġcanaanites":2442,"common":2443,"Ġpulling":2444,"Ġperfumes":2445,"Ġcedar":2446,"Ġnaphtali":2447,"towns":2448,"bu":2449,"cc":2450,"con":2451,"des":2452,"ping":2453,"wood":2454,"Ġara":2455,"Ġsqu":2456,"Ġsides":2457,"orrow":2458,"Ġmin":2459,"Ġmich":2460,"Ġcy":2461,"iring":2462,"uring":2463,"Ġret":2464,"Ġstick":2465,"Ġsocial":2466,"Ġlives":2467,"Ġmanage":2468,"Ġplat":2469,"Ġshow":2470,"Ġkir":2471,"isted":2472,"000":2473,"Ġstored":2474,"Ġlimits":2475,"Ġconnect":2476,"Ġpassion":2477,"Ġitems":2478,"Ġwriters":2479,"Ġgibeon":2480,"Ġremember":2481,"Ġboards":2482,"Ġvirgin":2483,"14":2484,"ground":2485,"line":2486,"vice":2487,"Ġ6":2488,"ouse":2489,"Ġyet":2490,"Ġcries":2491,"Ġbegin":2492,"Ġiss":2493,"lehem":2494,"leavened":2495,"iram":2496,"ried":2497,"Ġask":2498,"Ġasaph":2499,"rent":2500,"Ġarrows":2501,"Ġloop":2502,"Ġkorah":2503,"Ġunleavened":2504,"ateg":2505,"Ġjeb":2506,"Ġcap":2507,"Ġoper":2508,"Ġbooks":2509,"Ġattacking":2510,"Ġfifth":2511,"Ġstarting":2512,"Ġrequire":2513,"Ġstorm":2514,"Ġinterest":2515,"Ġidea":2516,"Ġoppos":2517,"\",":2518,"bles":2519,"ique":2520,"sort":2521,"word":2522,"Ġwings":2523,"reel":2524,"Ġgir":2525,"Ġgers":2526,"Ġgide":2527,"Ġgreen":2528,"Ġlep":2529,"Ġinit":2530,"Ġhist":2531,"ential":2532,"ily":2533,"Ġjeph":2534,"Ġwash":2535,"Ġchance":2536,"Ġdocu":2537,"Ġtwisted":2538,"Ġkoh":2539,"pping":2540,"Ġpriv":2541,"Ġpoet":2542,"Ġstronger":2543,"Ġrather":2544,"Ġquicksort":2545,"Ġephod":2546,"ized":2547,"Ġslow":2548,"Ġperfume":2549,"Ġcamels":2550,"Ġbehaviour":2551,"Ġtarget":2552,"Ġaudience":2553,"Ġtemple":2554,"Ġpraised":2555,"Ġjezreel":2556,"Ġjebus":2557,"Ġgideon":2558,"Ġkohath":2559,"cision":2560,"house":2561,"mi":2562,"tion":2563,"Ġta":2564,"Ġbased":2565,"Ġfont":2566,"Ġged":2567,"Ġnab":2568,"Ġnathan":2569,"Ġez":2570,"Ġequ":2571,"Ġgoat":2572,"Ġitself":2573,"Ġjah":2574,"Ġmeas":2575,"Ġstreet":2576,"Ġornam":2577,"Ġchains":2578,"Ġdear":2579,"Ġshad":2580,"Ġshil":2581,"Ġundert":2582,"Ġwherever":2583,"Ġdrinking":2584,"Ġimpro":2585,"Ġalgorithms":2586,"Ġazariah":2587,"Ġhorsemen":2588,"Ġstopped":2589,"Ġveil":2590,"Ġjesse":2591,"Ġmultiple":2592,"Ġshimei":2593,"Ġopposite":2594,"280":2595,"cut":2596,"eon":2597,"eight":2598,"Ġ=":2599,"here":2600,"Ġfount":2601,"itions":2602,"Ġeth":2603,"Ġnoah":2604,"ilt":2605,"Ġseo":2606,"Ġdoings":2607,"Ġshade":2608,"Ġsubs":2609,"Ġque":2610,"Ġexc":2611,"Ġends":2612,"Ġenc":2613,"ertile":2614,"othed":2615,"Ġaltars":2616,"Ġpleased":2617,"Ġsimeon":2618,"Ġcommonos":2619,"Ġwounded":2620,"ready":2621,"Ġshemaiah":2622,"sheba":2623,"Ġfreely":2624,"Ġcomputer":2625,"Ġzebulun":2626,"Ġtomorrow":2627,"Ġchaldaeans":2628,"Ġetc":2629,"four":2630,"Ġmach":2631,"reation":2632,"Ġcop":2633,"Ġthu":2634,"keep":2635,"rand":2636,"riage":2637,"Ġasher":2638,"alled":2639,"umcision":2640,"ieve":2641,"Ġfocus":2642,"Ġrings":2643,"Ġprayers":2644,"Ġperformance":2645,"Ġprisoner":2646,"Ġstores":2647,"Ġbalak":2648,"Ġlearning":2649,"views":2650,"servant":2651,"gardens":2652,"Ġcircumcision":2653,"Ġawake":2654,"Ġanswering":2655,"Ġview":2656,"Ġleper":2657,"Ġhistory":2658,"Ġwashing":2659,"ied":2660,"mah":2661,"no":2662,"ouds":2663,"Ġfertile":2664,"Ġthick":2665,"Ġthorn":2666,"Ġstars":2667,"chariah":2668,"Ġwhenever":2669,"Ġherds":2670,"âĢĶ":2671,"Ġseek":2672,"Ġkeepers":2673,"Ġbackground":2674,"tex":2675,"text":2676,"Ġmotion":2677,"Ġconf":2678,"Ġclouds":2679,"Ġopin":2680,"Ġreaders":2681,"Ġpurple":2682,"pect":2683,"Ġbenaiah":2684,"uchad":2685,"Ġfunctions":2686,"Ġtalents":2687,"Ġtrans":2688,"Ġzechariah":2689,"zzar":2690,"Ġguided":2691,"Ġgibeah":2692,"Ġnebuchad":2693,"Ġcompany":2694,"Ġnewsletter":2695,"Ġkiriath":2696,"54":2697,"60":2698,"bd":2699,"ead":2700,"had":2701,"io":2702,"ier":2703,"Ġwave":2704,"Ġfing":2705,"Ġfast":2706,"Ġfaster":2707,"Ġgath":2708,"Ġpop":2709,"Ġcreation":2710,"Ġinner":2711,"Ġframe":2712,"Ġvia":2713,"Ġabish":2714,"Ġwatching":2715,"Ġquality":2716,"Ġjew":2717,"Ġmarried":2718,"Ġahaz":2719,"Ġsmoke":2720,"Ġminds":2721,"Ġphilistine":2722,"Ġscen":2723,"Ġmonths":2724,"Ġkingdoms":2725,"ogle":2726,"Ġtrad":2727,"ontro":2728,"Ġstreams":2729,"cious":2730,"Ġwidow":2731,"Ġmizpah":2732,"98":2733,"ik":2734,"less":2735,"oy":2736,"Ġ20":2737,"Ġbru":2738,"Ġbud":2739,"Ġmaker":2740,"Ġfac":2741,"Ġdrain":2742,"Ġnin":2743,"Ġsaf":2744,"vants":2745,"Ġalready":2746,"Ġadon":2747,"Ġended":2748,"achar":2749,"Ġmerari":2750,"Ġtroubles":2751,"Ġahaziah":2752,"Ġcreator":2753,"Ġsamson":2754,"Ġbreadth":2755,"Ġrivers":2756,"Ġdamaged":2757,"servants":2758,"Ġcolor":2759,"Ġsoftware":2760,"cape":2761,"Ġcaleb":2762,"Ġissachar":2763,"Ġqueue":2764,"50":2765,"cher":2766,"fo":2767,"ges":2768,"ien":2769,"val":2770,"Ġill":2771,"Ġith":2772,"ndering":2773,"Ġcount":2774,"Ġsand":2775,"Ġreph":2776,"Ġorgan":2777,"Ġamaziah":2778,"abor":2779,"Ġprog":2780,"Ġmove":2781,"Ġblind":2782,"play":2783,"Ġteam":2784,"Ġdesiring":2785,"Ġvalu":2786,"Ġjudged":2787,"Ġeighty":2788,"Ġdistribution":2789,"Ġsuddenly":2790,"Ġarab":2791,"Ġmanagement":2792,"keepers":2793,"34":2794,"37":2795,"59":2796,"aa":2797,"ient":2798,"tribe":2799,"Ġaut":2800,"Ġoften":2801,"Ġcal":2802,"Ġgoogle":2803,"Ġjed":2804,"Ġseir":2805,"Ġarch":2806,"Ġargu":2807,"Ġsho":2808,"Ġload":2809,"Ġken":2810,"Ġkad":2811,"Ġkeeper":2812,"Ġprint":2813,"Ġboy":2814,"Ġcond":2815,"Ġads":2816,"Ġhundreds":2817,"Ġenv":2818,"Ġ100":2819,"Ġfacebook":2820,"Ġgenerate":2821,"Ġhonoured":2822,"Ġsounds":2823,"Ġinstead":2824,"Ġactually":2825,"Ġtextures":2826,"Ġmaj":2827,"Ġformat":2828,"Ġsetup":2829,"Ġinstrument":2830,"Ġsyn":2831,"load":2832,"Ġsarah":2833,"Ġrelevant":2834,"Ġunwalled":2835,"Ġsquare":2836,"Ġcopy":2837,"16":2838,"56":2839,"bed":2840,"face":2841,"ha":2842,"live":2843,"rings":2844,"time":2845,"hest":2846,"Ġair":2847,"Ġhil":2848,"Ġpen":2849,"atural":2850,"Ġisaiah":2851,"Ġwasting":2852,"uri":2853,"Ġreally":2854,"aves":2855,"Ġfew":2856,"Ġsugg":2857,"type":2858,"Ġphone":2859,"ffic":2860,"Ġhelper":2861,"Ġgrid":2862,"Ġhamm":2863,"Ġpulled":2864,"Ġkeyword":2865,"Ġsurpr":2866,"Ġramah":2867,"Ġrepresent":2868,"Ġmedia":2869,"Ġoutcry":2870,"Ġoperations":2871,"Ġinitial":2872,"Ġsuggest":2873,"48":2874,"bre":2875,"fru":2876,"min":2877,"ots":2878,"ups":2879,"xes":2880,"your":2881,"Ġ7":2882,"Ġturn":2883,"Ġolive":2884,"Ġsad":2885,"Ġsum":2886,"Ġbat":2887,"Ġbrand":2888,"ern":2889,"icate":2890,"Ġtheirs":2891,"Ġstand":2892,"Ġworked":2893,"Ġuses":2894,"Ġkis":2895,"Ġblow":2896,"olic":2897,"ullam":2898,"plement":2899,"Ġclothed":2900,"Ġsihon":2901,"Ġvertex":2902,"Ġcurrent":2903,"Ġscale":2904,"Ġcorded":2905,"Ġplanting":2906,"Ġobj":2907,"Ġdirectory":2908,"Ġsnake":2909,"Ġchoose":2910,"point":2911,"Ġrecursive":2912,"Ġstructure":2913,"Ġoverseers":2914,"Ġplanted":2915,"hanan":2916,"Ġgilgal":2917,"Ġmajor":2918,"Ġhilkiah":2919,"ew":2920,"end":2921,"mf":2922,"not":2923,"heart":2924,"Ġfound":2925,"ished":2926,"Ġlines":2927,"Ġlink":2928,"Ġcor":2929,"Ġcup":2930,"atives":2931,"aries":2932,"Ġhesh":2933,"Ġice":2934,"adiah":2935,"ilah":2936,"Ġstem":2937,"Ġchange":2938,"Ġwear":2939,"Ġmango":2940,"osheth":2941,"took":2942,"Ġprim":2943,"Ġalong":2944,"Ġflag":2945,"Ġspring":2946,"Ġworkers":2947,"Ġunique":2948,"Ġsinai":2949,"Ġparted":2950,"Ġsalt":2951,"Ġmeasures":2952,"Ġlandscape":2953,"Ġcollabor":2954,"Ġtraining":2955,"Ġcurtain":2956,"Ġlibrary":2957,"Ġearlier":2958,"Ġuriah":2959,"Ġfountain":2960,"Ġsafely":2961,"hearted":2962,".\"":2963,".âĢĿ":2964,"67":2965,"97":2966,"awn":2967,"ek":2968,"gile":2969,"hu":2970,"how":2971,"ogy":2972,"ÃĹ":2973,"Ġhur":2974,"Ġlar":2975,"Ġpa":2976,"Ġpip":2977,"Ġnine":2978,"Ġthread":2979,"Ġhebre":2980,"Ġnodes":2981,"idon":2982,"ascus":2983,"Ġur":2984,"Ġsear":2985,"Ġself":2986,"three":2987,"stret":2988,"athite":2989,"Ġfig":2990,"vessel":2991,"Ġblack":2992,"Ġrust":2993,"Ġleg":2994,"Ġleah":2995,"Ġlegs":2996,"ology":2997,"Ġcooked":2998,"Ġtell":2999,"Ġcloth":3000,"Ġimplement":3001,"Ġsmo":3002,"Ġuncontro":3003,"Ġcreating":3004,"Ġmouths":3005,"Ġbenef":3006,"Ġsuppor":3007,"aphan":3008,"Ġtrack":3009,"Ġconscious":3010,"goats":3011,"Ġpubl":3012,"Ġprofess":3013,"Ġdamage":3014,"Ġdamascus":3015,"Ġwriter":3016,"Ġzerah":3017,"Ġinvol":3018,"Ġmicah":3019,"Ġmales":3020,"Ġindeed":3021,"Ġmeasured":3022,"Ġshiloh":3023,"fruits":3024,"Ġheshbon":3025,"gilead":3026,"27":3027,"cl":3028,"Ġtired":3029,"Ġbits":3030,"Ġmess":3031,"Ġmeth":3032,"Ġlower":3033,"Ġcou":3034,"eline":3035,"urther":3036,"oks":3037,"Ġarts":3038,"Ġrushing":3039,"Ġlead":3040,"Ġteeth":3041,"ighth":3042,"Ġexpl":3043,"Ġsomeone":3044,"Ġbuilder":3045,"Ġwindow":3046,"workers":3047,"Ġcarriage":3048,"Ġmaac":3049,"Ġindia":3050,"Ġwool":3051,"Ġplants":3052,"Ġviolently":3053,"Ġdefin":3054,"Ġjehoiakim":3055,"Ġlocal":3056,"Ġjesus":3057,"Ġlaugh":3058,"Ġintro":3059,"Ġupdate":3060,"Ġapi":3061,"Ġreturn":3062,"Ġgirl":3063,"Ġpoetry":3064,"Ġopinion":3065,"Ġweariness":3066,"Ġuncontrolled":3067,"bab":3068,"cies":3069,"ection":3070,"hol":3071,"mel":3072,"oc":3073,"Ġtir":3074,"Ġtall":3075,"Ġhated":3076,"Ġfurther":3077,"Ġpi":3078,"lling":3079,"Ġnun":3080,"ution":3081,"ani":3082,"ann":3083,"ilar":3084,"Ġja":3085,"Ġsection":3086,"rable":3087,"Ġrebe":3088,"venue":3089,"Ġsayings":3090,"Ġarrow":3091,"Ġabiath":3092,"Ġsheba":3093,"Ġhandl":3094,"Ġevent":3095,"tem":3096,"Ġflat":3097,"Ġfeared":3098,"Ġzidon":3099,"Ġconst":3100,"Ġcost":3101,"ples":3102,"places":3103,"Ġext":3104,"Ġundergo":3105,"Ġscreen":3106,"Ġsimilar":3107,"Ġmatt":3108,"baal":3109,"Ġcalls":3110,"Ġpersons":3111,"Ġemail":3112,"Ġowner":3113,"Ġgraphics":3114,"Ġsleeping":3115,"Ġtesting":3116,"Ġcrit":3117,"Ġboxes":3118,"Ġbehavi":3119,"Ġworshippers":3120,"Ġspecify":3121,"Ġdevelopment":3122,"Ġstatement":3123,"Ġhittite":3124,"Ġjeshua":3125,"Ġgershon":3126,"Ġprivate":3127,"Ġthorns":3128,"Ġlaughing":3129,"Ġabiathar":3130,"15":3131,"28":3132,"43":3133,"90":3134,"loth":3135,"ming":3136,"ract":3137,"where":3138,"Ġtv":3139,"head":3140,"Ġsing":3141,"Ġhome":3142,"Ġber":3143,"Ġbath":3144,"Ġbind":3145,"Ġpict":3146,"Ġdawn":3147,"Ġeighth":3148,"seven":3149,"acter":3150,"Ġston":3151,"Ġplated":3152,"Ġaround":3153,"ability":3154,"Ġtwice":3155,"Ġkish":3156,"Ġcoat":3157,"aging":3158,"Ġbuilt":3159,"durable":3160,"Ġdiscus":3161,"Ġdiscover":3162,"Ġproducts":3163,"Ġattackers":3164,"Ġshutting":3165,"Ġeditors":3166,"Ġrooms":3167,"Ġchanges":3168,"Ġobed":3169,"Ġdeter":3170,"Ġdetails":3171,"Ġfeeling":3172,"Ġterms":3173,"Ġworshipping":3174,"Ġvisual":3175,"Ġcomponent":3176,"lambs":3177,"Ġcommunity":3178,"ategory":3179,"Ġgedaliah":3180,"Ġundertaking":3181,"Ġpopular":3182,"Ġfacing":3183,"Ġrebekah":3184,"Ġsingle":3185,"\":":3186,"68":3187,"col":3188,"har":3189,"oah":3190,"vious":3191,"with":3192,"Âł":3193,"Ġ__":3194,"Ġhin":3195,"isting":3196,"Ġcred":3197,"itor":3198,"itors":3199,"ately":3200,"Ġner":3201,"Ġnatural":3202,"Ġeg":3203,"anah":3204,"asting":3205,"enti":3206,"Ġui":3207,"thah":3208,"stor":3209,"Ġnotation":3210,"alm":3211,"Ġreviews":3212,"Ġdev":3213,"Ġletters":3214,"Ġbacks":3215,"Ġpract":3216,"Ġleast":3217,"Ġleather":3218,"Ġapplic":3219,"Ġpositions":3220,"Ġcontin":3221,"Ġadded":3222,"Ġguess":3223,"Ġsounded":3224,"Ġinstant":3225,"Ġsmaller":3226,"ailable":3227,"Ġstarted":3228,"Ġslot":3229,"Ġincreasing":3230,"Ġcarriages":3231,"Ġincluding":3232,"Ġwounds":3233,"flowing":3234,"ivot":3235,"Ġcharacter":3236,"Ġmesha":3237,"Ġseller":3238,"Ġfactor":3239,"build":3240,"Ġplatform":3241,"Ġjephthah":3242,"Ġdocument":3243,"Ġtauri":3244,"Ġimprove":3245,"Ġcorre":3246,"Ġprofessional":3247,"25":3248,"35":3249,"bel":3250,"cf":3251,"ees":3252,"flo":3253,"ged":3254,"ible":3255,"pa":3256,"zah":3257,"Ġ8":3258,"Ġesh":3259,"Ġsat":3260,"Ġgames":3261,"Ġpivot":3262,"Ġcategory":3263,"ited":3264,"ength":3265,"Ġinput":3266,"Ġna":3267,"Ġnile":3268,"Ġnaam":3269,"asu":3270,"Ġwithin":3271,"Ġreach":3272,"Ġcomb":3273,"Ġdep":3274,"Ġdepe":3275,"Ġked":3276,"Ġmaybe":3277,"Ġourselves":3278,"Ġhollow":3279,"iezer":3280,"Ġfem":3281,"Ġlevel":3282,"Ġleverage":3283,"Ġteacher":3284,"Ġpoints":3285,"Ġhighly":3286,"Ġvert":3287,"Ġuncover":3288,"Ġlevite":3289,"Ġediting":3290,"asha":3291,"Ġscal":3292,"ify":3293,"Ġdisplay":3294,"Ġvalid":3295,"izz":3296,"Ġbasins":3297,"Ġfruits":3298,"Ġexamples":3299,"Ġtongues":3300,"Ġrelationsh":3301,"Ġoptions":3302,"Ġseemed":3303,"Ġavailable":3304,"which":3305,"Ġshallum":3306,"Ġkadesh":3307,"Ġstandard":3308,"Ġsmooth":3309,"Ġdeterm":3310,"Ġdepend":3311,"):":3312,"77":3313,"94":3314,"bf":3315,"bar":3316,"based":3317,"cm":3318,"df":3319,"gir":3320,"has":3321,"hah":3322,"top":3323,"Ġ>":3324,"Ġaction":3325,"Ġhy":3326,"Ġhiv":3327,"Ġmain":3328,"erus":3329,"Ġlu":3330,"Ġlions":3331,"Ġdou":3332,"Ġjoram":3333,"raph":3334,"rop":3335,"Ġrendering":3336,"Ġsodom":3337,"rus":3338,"ctive":3339,"Ġamnon":3340,"Ġshaphan":3341,"Ġlover":3342,"Ġkid":3343,"Ġroot":3344,"Ġunable":3345,"Ġsince":3346,"Ġahasu":3347,"Ġgeneral":3348,"Ġbride":3349,"Ġoaths":3350,"Ġmatthe":3351,"Ġcomplex":3352,"Ġwoods":3353,"Ġtyre":3354,"board":3355,"worker":3356,"Ġbaasha":3357,"Ġvideos":3358,"like":3359,"Ġartic":3360,"Ġzeru":3361,"cused":3362,"Ġresul":3363,"Ġposts":3364,"Ġmalch":3365,"Ġapproval":3366,"Ġrecursion":3367,"Ġequal":3368,"Ġstreets":3369,"Ġthunder":3370,"hadad":3371,"Ġprogram":3372,"stretched":3373,"Ġstoned":3374,"floor":3375,"Ġahasuerus":3376,"Ġmatthew":3377,"hous":3378,"iop":3379,"kk":3380,"makers":3381,"now":3382,"pher":3383,"shem":3384,"test":3385,"tings":3386,"yle":3387,"Ġid":3388,"Ġfit":3389,"Ġyew":3390,"Ġcush":3391,"Ġded":3392,"ants":3393,"tham":3394,"ahaz":3395,"Ġanal":3396,"Ġstation":3397,"Ġstud":3398,"oding":3399,"Ġwhether":3400,"osing":3401,"Ġvines":3402,"abad":3403,"Ġabi":3404,"Ġworst":3405,"Ġkit":3406,"201":3407,"Ġflames":3408,"inehas":3409,"Ġunse":3410,"ully":3411,"Ġphinehas":3412,"Ġexpect":3413,"ilee":3414,"Ġfocused":3415,"nezzar":3416,"Ġversion":3417,"Ġcursing":3418,"six":3419,"Ġedges":3420,"Ġblessings":3421,"Ġdoesn":3422,"Ġaddress":3423,"aper":3424,"Ġmode":3425,"Ġactive":3426,"Ġcarmel":3427,"Ġintern":3428,"Ġprep":3429,"Ġhush":3430,"Ġtouched":3431,"Ġconnections":3432,"Ġideas":3433,"Ġnebat":3434,"Ġplacing":3435,"Ġramoth":3436,"Ġprojects":3437,"Ġshortest":3438,"Ġprompt":3439,"Ġmeshullam":3440,"market":3441,"Ġcomponents":3442,"Ġamalekites":3443,"hole":3444,"Ġezra":3445,"Ġethiop":3446,"Ġnebuchadnezzar":3447,"Ġabishai":3448,"Ġbrush":3449,"Ġadonijah":3450,"Ġrephaim":3451,"Ġkeywords":3452,"Ġstems":3453,"Ġprimary":3454,"Ġzeruiah":3455,"33":3456,"bc":3457,"cribe":3458,"da":3459,"dress":3460,"eb":3461,"fall":3462,"hor":3463,"log":3464,"ni":3465,"press":3466,"ta":3467,"Ġaverage":3468,"Ġog":3469,"Ġbur":3470,"Ġmust":3471,"Ġgent":3472,"Ġgaz":3473,"Ġport":3474,"ither":3475,"ens":3476,"Ġdig":3477,"Ġins":3478,"Ġhairc":3479,"omi":3480,"Ġthin":3481,"Ġisn":3482,"set":3483,"anel":3484,"ansp":3485,"Ġonline":3486,"immon":3487,"ication":3488,"Ġallow":3489,"Ġallows":3490,"Ġouter":3491,"Ġoutput":3492,"Ġoutstretched":3493,"Ġovertook":3494,"Ġoverflowing":3495,"ource":3496,"Ġholes":3497,"Ġhooks":3498,"Ġflame":3499,"Ġworkmen":3500,"Ġroof":3501,"aseiah":3502,"Ġboaz":3503,"plate":3504,"Ġfearing":3505,"Ġfoll":3506,"Ġfollow":3507,"Ġbuy":3508,"Ġ16":3509,"Ġadding":3510,"Ġswords":3511,"Ġcountrymen":3512,"Ġlowlands":3513,"Ġconsist":3514,"Ġcubit":3515,"Ġwitnesses":3516,"Ġrequesting":3517,"Ġhamath":3518,"Ġexperien":3519,"Ġhananiah":3520,"Ġlocust":3521,"Ġuzziah":3522,"Ġmicaiah":3523,"Ġtrained":3524,"Ġunderstanding":3525,"Ġhumans":3526,"Ġcurtains":3527,"Ġtaste":3528,"Ġjabesh":3529,"Ġornaments":3530,"Ġfinger":3531,"Ġjewels":3532,"Ġvaluable":3533,"Ġfemale":3534,"houses":3535,"Ġhaircloth":3536,"29":3537,"49":3538,"78":3539,"by":3540,"gar":3541,"gree":3542,"hud":3543,"nch":3544,"sc":3545,"uph":3546,"Ġtamar":3547,"ndom":3548,"Ġmill":3549,"Ġtops":3550,"Ġlach":3551,"Ġcent":3552,"Ġduring":3553,"Ġinmost":3554,"omach":3555,"Ġhez":3556,"ety":3557,"Ġsave":3558,"Ġwhole":3559,"Ġanath":3560,"Ġstam":3561,"Ġstomach":3562,"Ġplate":3563,"Ġamount":3564,"Ġarnon":3565,"ables":3566,"Ġsha":3567,"Ġabijah":3568,"Ġoffer":3569,"Ġlooked":3570,"Ġlovers":3571,"Ġevents":3572,"pped":3573,"Ġalmost":3574,"Ġfeasts":3575,"Ġzo":3576,"Ġjohanan":3577,"Ġknees":3578,"ategy":3579,"Ġpool":3580,"Ġahijah":3581,"Ġolder":3582,"Ġjehoram":3583,"ressed":3584,"Ġperizz":3585,"Ġsixth":3586,"Ġdesires":3587,"Ġspirits":3588,"Ġtransp":3589,"Ġbasic":3590,"Ġbasket":3591,"Ġlowland":3592,"Ġmaaseiah":3593,"Ġsorted":3594,"Ġprevious":3595,"Ġlooks":3596,"Ġwatchmen":3597,"Ġrandom":3598,"Ġcollect":3599,"Ġsnow":3600,"blog":3601,"Ġdropping":3602,"Ġflowers":3603,"Ġindex":3604,"Ġuntil":3605,"Ġargument":3606,"Ġenvy":3607,"Ġrepresentatives":3608,"Ġlinks":3609,"Ġmethod":3610,"Ġdepth":3611,"shemesh":3612,"Ġlachish":3613,"ax":3614,"biah":3615,"creat":3616,"iff":3617,"wr":3618,"Ġx":3619,"Ġess":3620,"hen":3621,"Ġale":3622,"Ġbill":3623,"Ġbone":3624,"oun":3625,"Ġmas":3626,"Ġmap":3627,"Ġgain":3628,"itive":3629,"Ġinsp":3630,"aming":3631,"edom":3632,"ilities":3633,"Ġnotice":3634,"Ġreview":3635,"Ġrevenue":3636,"Ġlib":3637,"Ġupro":3638,"Ġdew":3639,"Ġletting":3640,"Ġamas":3641,"aken":3642,"Ġherd":3643,"Ġshush":3644,"pty":3645,"Ġours":3646,"Ġhobb":3647,"Ġflower":3648,"Ġspo":3649,"Ġfeasting":3650,"Ġjoining":3651,"Ġjotham":3652,"Ġbot":3653,"Ġstrategy":3654,"Ġegyptian":3655,"Ġpoison":3656,"Ġ15":3657,"Ġcurses":3658,"Ġpowerful":3659,"Ġsouls":3660,"Ġdesigned":3661,"Ġmonthly":3662,"Ġvalues":3663,"ization":3664,"Ġgrip":3665,"Ġvalleys":3666,"Ġjehoahaz":3667,"Ġempty":3668,"Ġincludes":3669,"Ġgraphs":3670,"Ġfeature":3671,"Ġgroups":3672,"Ġproblems":3673,"Ġbaruch":3674,"Ġtechnology":3675,"Ġspecific":3676,"covers":3677,"Ġpotential":3678,"Ġintegrations":3679,"Ġhazael":3680,"Ġconcept":3681,"Ġsystems":3682,"Ġcapac":3683,"Ġnaboth":3684,"Ġshader":3685,"ikam":3686,"chers":3687,"Ġcountries":3688,"Ġarabah":3689,"Ġmaacah":3690,"Ġconstant":3691,"Ġvertices":3692,"Ġuncovered":3693,"ropy":3694,"Ġshushan":3695,"26":3696,"31":3697,"74":3698,"co":3699,"ger":3700,"nothing":3701,"pers":3702,"wind":3703,"you":3704,"Ġath":3705,"Ġori":3706,"Ġoph":3707,"Ġwin":3708,"Ġhit":3709,"Ġhiram":3710,"Ġbil":3711,"Ġmis":3712,"Ġfart":3713,"Ġlength":3714,"Ġpains":3715,"Ġpaper":3716,"Ġcake":3717,"enc":3718,"Ġheight":3719,"ute":3720,"Ġnoble":3721,"ided":3722,"ama":3723,"adan":3724,"Ġsaints":3725,"Ġseg":3726,"Ġseas":3727,"step":3728,"Ġref":3729,"rue":3730,"adezer":3731,"Ġwebs":3732,"Ġhadadezer":3733,"epts":3734,"ctor":3735,"change":3736,"Ġplough":3737,"Ġattem":3738,"abiah":3739,"Ġtaker":3740,"Ġsinning":3741,"shish":3742,"Ġjeze":3743,"Ġdesired":3744,"Ġthank":3745,"Ġenj":3746,"Ġtroubl":3747,"Ġhelping":3748,"Ġvoices":3749,"forms":3750,"Ġdesigning":3751,"Ġfourteenth":3752,"Ġsixteen":3753,"acters":3754,"Ġephah":3755,"rays":3756,"Ġstartup":3757,"Ġrelated":3758,"Ġmidpoint":3759,"Ġtyp":3760,"Ġslop":3761,"Ġslots":3762,"Ġpersonal":3763,"Ġinteract":3764,"Ġstreaming":3765,"Ġartists":3766,"Ġrab":3767,"Ġsisera":3768,"Ġcollection":3769,"Ġeasily":3770,"Ġeasier":3771,"Ġinvest":3772,"Ġachish":3773,"Ġtechnical":3774,"Ġcharacters":3775,"Ġtarshish":3776,"Ġfolder":3777,"Ġuntrue":3778,"Ġjebusite":3779,"Ġnabal":3780,"Ġmachir":3781,"Ġscene":3782,"Ġdrained":3783,"Ġithamar":3784,"Ġsummer":3785,"Ġkiss":3786,"building":3787,"Ġsatan":3788,"Ġnaomi":3789,"Ġunsexed":3790,"Ġgentle":3791,"Ġanathoth":3792,"Ġfarthest":3793,"Ġjezebel":3794,"--":3795,"69":3796,"73":3797,"apt":3798,"dc":3799,"fa":3800,"iam":3801,"kanah":3802,"list":3803,"oz":3804,"oid":3805,"och":3806,"oting":3807,"oci":3808,"Ġahead":3809,"ination":3810,"Ġtoken":3811,"Ġpret":3812,"Ġcows":3813,"Ġcups":3814,"onite":3815,"ller":3816,"Ġinf":3817,"Ġinno":3818,"Ġnative":3819,"Ġnadab":3820,"Ġek":3821,"Ġeither":3822,"kets":3823,"Ġux":3824,"acy":3825,"iration":3826,"ades":3827,"Ġjub":3828,"Ġseer":3829,"sting":3830,"Ġrefer":3831,"Ġlive":3832,"oph":3833,"Ġlets":3834,"Ġweek":3835,"erez":3836,"âĢľ":3837,"Ġworth":3838,"Ġshel":3839,"Ġserver":3840,"Ġprotest":3841,"ources":3842,"Ġbrow":3843,"Ġordering":3844,"Ġzim":3845,"Ġsuc":3846,"Ġjoel":3847,"Ġcold":3848,"Ġpoem":3849,"Ġelam":3850,"Ġelkanah":3851,"Ġbreak":3852,"Ġmercies":3853,"Ġahim":3854,"Ġyoungest":3855,"Ġgenerative":3856,"sib":3857,"Ġperfect":3858,"Ġassoci":3859,"Ġeliab":3860,"apes":3861,"Ġlisted":3862,"Ġbasin":3863,"degree":3864,"Ġskill":3865,"Ġsettings":3866,"Ġtested":3867,"Ġdistance":3868,"Ġ50":3869,"Ġachieve":3870,"Ġentropy":3871,"Ġhangings":3872,"Ġbreastplate":3873,"Ġearliest":3874,"Ġnethaniah":3875,"Ġlayout":3876,"context":3877,"Ġcyrus":3878,"cutting":3879,"Ġshoes":3880,"Ġsuggestion":3881,"Ġobjects":3882,"Ġpipeline":3883,"Ġsearched":3884,"Ġbenefits":3885,"Ġcritical":3886,"Ġ____":3887,"storm":3888,"Ġdoub":3889,"Ġenjoy":3890,",)":3891,"'re":3892,"58":3893,"71":3894,"di":3895,"ee":3896,"eenth":3897,"ghed":3898,"hi":3899,"map":3900,"pts":3901,"ric":3902,"venth":3903,"wise":3904,"Ïī":3905,"Ġ202":3906,"ĠÃĹ":3907,"Ġtail":3908,"Ġwon":3909,"Ġwaves":3910,"Ġbes":3911,"Ġmir":3912,"Ġmag":3913,"Ġtow":3914,"Ġga":3915,"Ġgom":3916,"Ġpat":3917,"Ġpick":3918,"ency":3919,"ator":3920,"Ġiso":3921,"Ġiz":3922,"Ġlords":3923,"ithop":3924,"Ġsaved":3925,"vert":3926,"Ġjok":3927,"though":3928,"Ġframes":3929,"Ġstar":3930,"Ġstiff":3931,"ichri":3932,"chan":3933,"chab":3934,"earim":3935,"Ġshim":3936,"Ġships":3937,"Ġabel":3938,"Ġsheb":3939,"Ġsheph":3940,"Ġshelah":3941,"fects":3942,"Ġloving":3943,"ult":3944,"Ġruled":3945,"ortun":3946,"Ġexchange":3947,"Ġadvant":3948,"Ġhighway":3949,"Ġbuff":3950,"Ġpartic":3951,"Ġahikam":3952,"Ġahithop":3953,"Ġyounger":3954,"Ġsolve":3955,"Ġbring":3956,"Ġfunctionality":3957,"Ġpersia":3958,"box":3959,"Ġdeeper":3960,"Ġrocks":3961,"Ġseats":3962,"aean":3963,"Ġsetting":3964,"Ġfinding":3965,"cedural":3966,"Ġoverturned":3967,"Ġobadiah":3968,"Ġdirectly":3969,"Ġbranch":3970,"Ġpaths":3971,"Ġoptim":3972,"Ġuzziel":3973,"Ġpromot":3974,"Ġspeed":3975,"Ġfinally":3976,"Ġanswers":3977,"Ġgeba":3978,"8859":3979,"Ġlibraries":3980,"Ġdebt":3981,"Ġjebusites":3982,"Ġornament":3983,"Ġorganic":3984,"Ġintrodu":3985,"Ġhezron":3986,"Ġpretty":3987,"Ġekron":3988,"Ġjubilee":3989,"Ġahithophel":3990,"08":3991,"19":3992,"23":3993,"72":3994,"?âĢĿ":3995,"cond":3996,"dod":3997,"fit":3998,"give":3999,"haz":4000,"iver":4001,"iled":4002,"jearim":4003,"tu":4004,"ug":4005,"uah":4006,"ype":4007,"Ġrough":4008,"Ġom":4009,"inim":4010,"Ġhos":4011,"Ġbmf":4012,"ounder":4013,"Ġml":4014,"Ġmes":4015,"Ġmakers":4016,"Ġfish":4017,"rets":4018,"Ġger":4019,"Ġyum":4020,"Ġpc":4021,"Ġperez":4022,"Ġcow":4023,"atype":4024,"oming":4025,"omme":4026,"Ġnose":4027,"imes":4028,"Ġmean":4029,"Ġmeph":4030,"Ġasse":4031,"Ġdove":4032,"Ġfigs":4033,"Ġherself":4034,"Ġshob":4035,"pting":4036,"Ġseries":4037,"Ġgreatest":4038,"tend":4039,"Ġalthough":4040,"Ġaff":4041,"Ġspice":4042,"Ġdownfall":4043,"Ġsucc":4044,"Ġending":4045,"achin":4046,"Ġneedle":4047,"icks":4048,"Ġhelps":4049,"Ġring":4050,"Ġahimelech":4051,"aioth":4052,"neh":4053,"new":4054,"Ġclearly":4055,"Ġrecomme":4056,"Ġpossib":4057,"Ġdesigner":4058,"ific":4059,"ified":4060,"arest":4061,"Ġformed":4062,"goat":4063,"comp":4064,"Ġeffects":4065,"Ġnets":4066,"Ġartist":4067,"Ġeighteen":4068,"Ġindust":4069,"Ġindices":4070,"Ġchanging":4071,"Ġprovides":4072,"Ġdreams":4073,"Ġsurve":4074,"Ġharan":4075,"Ġcircle":4076,"Ġcoloured":4077,"Ġasahel":4078,"Ġbuttons":4079,"Ġtrave":4080,"Ġavoid":4081,"Ġhuman":4082,"Ġoverseer":4083,"Ġashdod":4084,"Ġnahor":4085,"Ġnethinim":4086,"Ġcustomer":4087,"commonplace":4088,"Ġplatforms":4089,"Ġarchite":4090,"Ġsync":4091,"Ġhammered":4092,"Ġsurpris":4093,"Ġbathed":4094,"Ġpaid":4095},"merges":["Ġ t","h e","Ġ a","Ġt he","Ġ o","Ġ w","i n","n d","Ġ s","Ġa nd","Ġo f","Ġ h","o r","Ġ b","o u","Ġ m","Ġ f","e r","i s","Ġt o","r e","in g","Ġ g","Ġ l","Ġ y","Ġ p","Ġ c","o n","i t","e n","a t","Ġy ou","e s","l l","Ġ d","Ġ in","Ġ n","a r","Ġb e","Ġh a","o m","Ġt h","v e","Ġ he","Ġ e","Ġ is","s e","u t","a n","Ġf or","l e","a y","Ġw h","i ll","or d","Ġn o","i d","k e","a s","Ġo n","Ġg o","a m","Ġw ill","Ġ i","Ġyou r","Ġh is","e d","en t","i m","Ġ u","a c","i r","Ġl ord","it h","e t","Ġ it","a d","Ġs a","i l","v er","g h","Ġw ith","Ġ j","Ġs e","i c","i on","t h","e l","Ġg i","Ġha ve","Ġf r","Ġa ll","r a","Ġa re","Ġw as","s t","r o","Ġm y","k ing","he r","Ġno t","a ke","a h","Ġthe y","Ġfr om","Ġh im","u r","gh t","a l","Ġwh o","Ġthe m","Ġthe ir","Ġm e","Ġ re","Ġa n","Ġc om","Ġsa id","o w","am e","r i","Ġth at","Ġ -","Ġs t","Ġs o","Ġa s","Ġl i","Ġp ut","Ġs on","a nd","o d","er s","o p","Ġgo d","a in","Ġu p","Ġ king","Ġo r","Ġc h","Ġb y","Ġgi ve","v en","l y","Ġb ut","Ġth is","at h","Ġd o","Ġp e","t s","ic h","r u","Ġo ut","ad e","Ġw he","Ġha s","ac e","Ġd e","Ġm ade","Ġl et","Ġw e","Ġha d","Ġwh ich","er e","Ġm an","e p","a u","or e","Ġpe op","Ġis ra","Ġcom e","Ġisra el","Ġw ere","c t","t er","c h","il d","Ġpeop le","Ġthe n","es t","Ġn e","Ġp l","o k","Ġa g","g e","Ġs ay","Ġm ake","' s","Ġwhe n","t her","Ġt ake","Ġl and","Ġa t","o s","Ġa m","l d","on g","re n","Ġthe re","o se","on e","Ġe ar","Ġbe c","Ġ v","Ġa r","a k","Ġw ent","Ġe ver","Ġch ild","Ġ ke","Ġf i","at ion","a b","e ar","Ġag ain","Ġon e","Ġm ay","Ġhe r","Ġc ame","ac k","Ġs h","Ġa b","Ġd ay","â Ģ","Ġof f","t o","a ve","Ġf at","er ing","f ore","re at","Ġi f","Ġo ver","Ġh ou","Ġbe fore","p t","Ġg ave","Ġchild ren","au se","a ll","u s","Ġw or","r ou","Ġm en","Ġs he","Ġno w","id e","w ay","es s","Ġwh at","Ġin to","f e","v ing","ar t","Ġse e","i ght","Ġhou se","Ġha nd","ur n","Ġw ord","se l","i ah","u d","Ġfat her","m ent","v an","Ġu s","w n","Ġs er","Ġp ro","Ġever y","a v","Ġl o","o od","Ġto ok","Ġt w","r y","Ġo ur","Ġpl ace","Ġa way","Ġ k","Ġagain st","ou t","Ġde ath","Ġke ep","Ġg reat","Ġb ack","ct ion","Ġser van","q u","re e","ri ght","Ġli ke","Ġe v","Ġth ose","2 0","p h","Ġgi ven","Ġson s","u m","Ġoff ering","Ġw ay","Ġbec ause","Ġto wn","Ġp r","Ġt im","p p","Ġd av","Ġdav id","Ġev il","u l","v es","n t","t e","ou r","Ġ (","Ġm o","om e","Ġt ak","âĢ Ļ","Ġbe en","Ġg et","Ġa l","Ġj ud","u n","Ġa f","Ġh o","ing s","ow n","Ġw r","Ġear th","Ġthe se","Ġf l","c e","a le","re d","Ġaf ter","b le","ou nt","Ġs p","ou s","Ġb ro","Ġor d","i e","Ġgo od","a ge","Ġw at","Ġb l","is e","i es","Ġwor k","Ġ ro","Ġd own","Ġ ru","in d","t ing","Ġf e","Ġd id","Ġs ent","it es","Ġan y","in e","Ġu n","Ġs in","Ġl e","Ġit s","ar d","urn ed","o l","i g","Ġli ving","Ġy ear","os es","Ġtim e","Ġ z","is t","th ing","Ġc on","is h","Ġp ri","Ġs u","Ġc an","or t","Ġ right","nd er","Ġj er","Ġar m","a se","Ġm oses","Ġj o","Ġn ame","as t","ou ld","Ġho ly","it e","Ġb o","u ll","Ġf ood","Ġt ent","Ġre st","t y","u re","Ġtak en","Ġc o","Ġo ther","Ġjud ah","Ġe ven","Ġtw o","Ġ qu","Ġst r","s h","ic e","g y","Ġk n","Ġd one","b e","at e","Ġword s","p l","p le","Ġt e","Ġp h","Ġj e","Ġe y","ation s","a g","i gh","Ġs ou","Ġam ong","Ġhe art","Ġf am","Ġhand s","sel f","Ġfam il","Ġd es","Ġe x","ir st","um b","w s","Ġf ear","Ġkn ow","or y","le d","Ġse nd","Ġab out","Ġa d","g et","Ġh u","Ġh ow","Ġservan t","Ġc a","Ġe gy","Ġegy pt","Ġey es","Ġn umb","Ġu nder","Ġwhe re","n g","i re","Ġe nd","a king","u st","d om","Ġbro ther","ac h","he d","Ġjer us","nd red","ale m","Ġhu ndred","Ġjerus alem","Ġf irst","Ġu se","Ġservan ts","Ġth an","Ġp o","Ġw ould","Ġord ers","Ġth ings","Ġli fe","Ġsay ing","rou gh","Ġf ull","l es","o b","Ġw ar","i ve","Ġwith out","re t","ig n","Ġth rough","as s","Ġm ore","Ġc l","f f","led ge","get her","Ġto gether","Ġknow ledge","Ġc le","u b","Ġne ed","Ġse c","m on","Ġ en","Ġhe ad","c k","ar ch","Ġon ly","Ġt ru","Ġi m","s p","Ġw om","i le","Ġa c","ra in","au ght","Ġwat er","Ġe l","Ġday s","Ġd aught","Ġf o","it y","Ġgo t","Ġnumb er","Ġyear s","ion s","Ġg l","b r","Ġpro p","Ġd est","an t","a ven","Ġh igh","ru ction","Ġstr ong","Ġ /","er t","Ġdest ruction","Ġw i","Ġb u","Ġth ous","Ġthous and","ie f","es h","Ġwas te","Ġo p","o t","w er","ac es","Ġsay s","urn ing","Ġb urned","Ġsa w","Ġre ad","Ġwh om","Ġc ut","Ġt ill","Ġs w","Ġb re","Ġ 1","Ġpri est","Ġm er","Ġl ong","Ġwho se","Ġan s","ow er","Ġhe l","Ġch ief","Ġt rou","Ġm ar","Ġdo or","Ġs ome","Ġp art","Ġbe t","a z","Ġgo ld","Ġf ace","Ġke pt","ic k","or n","Ġse arch","Ġtown s","Ġhe ar","Ġfi re","Ġs ide","Ġhel p","n ess","Ġ r","Ġa h","u e","Ġsa ul","Ġa pp","Ġp ur","sel ves","Ġp ra","t ar","Ġo ld","Ġg one","Ġc ause","Ġher it","a i","Ġb ir","f t","Ġs i","it ing","Ġherit age","Ġbo ok","Ġhe aven","Ġhe re","Ġbec ame","Ġ [","Ġt urned","Ġyou ng","Ġth ou","Ġat t","Ġg en","ro w","Ġru l","d o","n e","ab le","Ġ ver","Ġs m","Ġal tar","an s","i p","Ġl a","Ġfather s","ain s","rou nd","e m","Ġwe ll","o h","es ts","an g","Ġun c","Ġc ur","ke d","Ġm ount","Ġv o","Ġoffering s","Ġgen er","o th","Ġans wer","ar on","Ġje h","s es","c y","Ġf a","it s","Ġb od","Ġtrou ble","s i","ent y","Ġco ver","Ġth ree","Ġcom es","Ġa aron","Ġfamil y","i al","Ġwh y","d s","pl ace","Ġse en","Ġso l","ak es","Ġop en","Ġle v","in es","Ġord er","Ġf ar","p e","re s","Ġbu ild","Ġp ower","Ġc ry","at ed","f or","Ġc ru","Ġd i","Ġpur p","Ġin c","Ġ âĢ","it ion","Ġpl aces","Ġpra ise","Ġwi fe","Ġvo ice","Ġo x","ount ry","e ver","Ġe d","os h","Ġwr ath","o nd","k en","o ther","Ġpr ay","Ġpri ests","Ġ round","Ġse ven","Ġb r","Ġj ac","Ġbl ess","Ġpe ace","Ġc reat","Ġwom an","Ġth ir","Ġmer cy","Ġjac ob","Ġan other","Ġst ill","e en","Ġ <","ert ain","Ġhim self","Ġme et","Ġan g","Ġli ght","Ġne ar","Ġ/ >","z e","in k","Ġfi el","Ġwr ong","g th","o king","x t","Ġm ou","Ġprop he","t le","Ġover c","Ġway s","Ġbrother s","Ġcle ar","Ġh at","Ġre c","Ġc ertain","Ġsa fe","Ġshe ep","e c","i a","Ġn ight","Ġup right","Ġbro ken","Ġmou th","Ġs ame","Ġp os","Ġt ri","Ġs am","as h","Ġde c","Ġlo ve","Ġmeet ing","Ġf un","Ġn ations","Ġcon t","Ġb en","Ġfi ght","Ġsou l","Ġg r","Ġp er","ment s","Ġbless ing","om on","Ġph il","si ble","Ġsol omon","u ch","Ġm ind","Ġp le","Ġphil ist","w ard","Ġs c","Ġre sp","Ġdo es","Ġad d","Ġsw ord","Ġbod y","d u","Ġf al","Ġst ren","Ġdes ign","Ġdaught er","] (","Ġsa l","Ġsu pp","Ġm on","Ġfal se","Ġwh ile","Ġking s","Ġca re","Ġsec ret","w or","Ġno thing","Ġgi ves","Ġbec ome","Ġstren gth","le an","is ion","Ġn am","Ġs im","Ġs il","Ġne ws","Ġag ree","Ġab le","Ġfamil ies","i f","p s","Ġh on","as ure","Ġcom p","Ġgo ing","Ġas s","Ġunc lean","a ph","Ġm akes","Ġfun ction","Ġsil ver","Ġg u","et h","Ġfa ith","Ġf our","Ġgo es","Ġlo oking","Ġf ree","Ġbir th","Ġde ad","all y","Ġagree ment","ar y","Ġne w","Ġtent s","Ġpurp ose","Ġmon th","s ide","u a","ar a","Ġe le","Ġtw enty","Ġtak es","Ġbre ad","Ġsi x","Ġver y","Ġo ath","ag es","Ġme al","Ġpray er","Ġo il","Ġth ing","Ġwor sh","Ġfl ight","Ġarm y","Ġla w","0 0","Ġw all","Ġg rain","v ation","Ġw is","Ġcom mon","Ġjo y","e ous","Ġmo ther","Ġlev ites","a re","ac t","is on","Ġp un","Ġm aking","Ġright eous","Ġph ara","Ġphara oh","Ġd r","Ġd is","Ġd at","Ġqu ick","Ġs or","Ġthou ght","a iah","Ġm ight","Ġc ountry","ra h","Ġca pt","Ġac c","Ġgl ory","Ġpun ish","Ġgod s","Ġtru e","m s","Ġb est","ou d","Ġbl ood","Ġphilist ines","an ge","Ġthem selves","one y","Ġread y","Ġrighteous ness","el y","Ġtru ly","Ġpunish ment","m an","Ġh ard","on es","Ġe ph","Ġsou nd","Ġt al","Ġse ed","Ġsal vation","s o","Ġdes ire","Ġse a","Ġel i","w een","x ed","Ġd ire","Ġar k","Ġbet ween","a p","Ġm at","al th","Ġsh ame","re am","Ġin st","Ġex p","k iah","Ġb urning","Ġbe th","Ġking dom","ase d","r ay","Ġtim es","Ġrest ing","Ġbuild ing","Ġwis dom","Ġfi f","Ġdat a","e f","o ff","en ce","Ġsu ch","Ġw ise","Ġwat ers","Ġv al","Ġarm ies","Ġj osh","Ġoverc ome","c hed","ut h","Ġcle an","ou nd","es sel","Ġv essel","Ġhear ing","Ġsp ir","Ġim p","Ġfiel d","o g","Ġt r","Ġh or","Ġl ist","Ġgi ving","Ġpr ison","Ġhon our","Ġson g","âĢ Ŀ","Ġevery thing","ft ed","b a","Ġjosh ua","Ġm orn","Ġj ose","Ġjose ph","m en","Ġp ers","im e","Ġwe alth","Ġsm all","a il","Ġmorn ing","Ġse v","i z","Ġb as","Ġcom ple","ep ing","d e","o thing","Ġw ood","Ġm uch","on t","Ġne ver","Ġdaught ers","ĠâĢ ľ","l on","Ġt urning","Ġp ar","Ġear s","Ġfi ve","Ġhat ers","Ġs ign","Ġst art","Ġli fted","Ġgl ad","Ġdr ink","e ct","Ġh ill","Ġm us","Ġme m","Ġpo or","is ions","off ering","b b","u el","Ġw a","Ġre l","Ġresp on","ve d","Ġfr u","Ġfe et","Ġsec ond","Ġd ise","b es","Ġfo ol","n er","Ġc all","ent h","Ġre qu","Ġar ray","Ġfool ish","el s","ath an","Ġpro du","Ġuse d","Ġcur se","Ġb and","ou gh","Ġm id","Ġt y","Ġw ine","Ġb it","Ġrespon sible","a an","j am","he m","Ġl ow","Ġchief s","Ġg ra","Ġal so","Ġworsh ip","Ġ \"","Ġst ret","Ġmo st","Ġhear ts","Ġspir it","ord an","Ġj ordan","Ġhas h","n ing","Ġh op","Ġfl esh","Ġmus ic","or s","Ġb ab","Ġd ar","ar s","s al","Ġm od","Ġm oney","Ġst ore","Ġm ale","Ġcl othing","o ck","ow s","Ġfr ie","ch ing","Ġrul er","Ġben jam","Ġfrie nd","Ġw ind","Ġs l","re es","Ġbet ter","Ġinc re","Ġbab y","b o","Ġ 3","Ġt en","Ġwom en","l t","Ġp ill","Ġpers on","b s","g or","j ah","ent ion","all e","Ġstr ange","Ġthir ty","Ġrec ord","Ġbaby lon","Ġ ri","Ġg ri","Ġst or","Ġwe eping","wor k","d ay","r on","Ġj ust","Ġde ep","Ġwa iting","Ġa ct","as ts","Ġv alle","Ġprophe t","Ġvalle y","Ġcom ing","Ġcon s","Ġquick ly","l f","Ġpr ide","Ġtri be","rah am",". .","Ġl in","ic es","Ġab raham","Ġatt ack","Ġang ry","Ġfru it","Ġs en","Ġd ry","Ġon es","Ġsh ut","Ġpr ice","Ġmount ain","Ġbenjam in","s ing","in ess","Ġdise ase","Ġp ay","ar i","as ter","Ġmem ory","Ġdar k","c ess","as se","Ġyour self","ow ing","Ġal gor","Ġru n","Ġsor row","Ġalgor ith","Ġd el","ir c","Ġte xt","Ġmo ab","Ġte ach","i our","Ġwr iting","Ġro ck","Ġnam ed","Ġ &","Ġt aking","Ġc ar","Ġe ach","Ġse at","Ġwhat ever","Ġcan aan","ff er","Ġsupp ort","Ġ 2","Ġm a","Ġfor m","l s","Ġst ones","Ġjud g","Ġri ver","o am","Ġl it","ent s","Ġfl ock","Ġbit ter","Ġhop e","Ġb a","Ġc ub","Ġdi v","a e","b ack","Ġs k","Ġl im","an ce","Ġhead s","Ġox en","Ġvessel s","Ġin ter","Ġjo ab","Ġple asure","g t","Ġs et","Ġdo ing","Ġman asse","Ġbr ass","Ġfight ing","Ġmanasse h","i el","l and","m iah","Ġa uth","Ġs ort","Ġh orn","Ġto day","Ġjeh o","Ġw ant","Ġf all","Ġre ward","Ġatt ention","Ġlit tle","c es","Ġwe ight","Ġqu est","Ġpos ition","Ġcapt ains","igh b","ob oam","Ġed it","_ _","o ver","Ġt ree","Ġf ind","ra im","od e","Ġv ide","Ġar am","Ġcon ne","Ġfif ty","r ing","he s","Ġp re","Ġp ass","Ġhou ses","fe ct","ard en","Ġthou gh","Ġa i","Ġto p","Ġc at","Ġbe ing","Ġj on","Ġj ere","Ġmo ved","Ġgood s","Ġfe ed","Ġnumber ed","Ġsam uel","Ġgri ef","g o","l ic","Ġ +","Ġfi xed","Ġother s","Ġen ough","Ġcru el","Ġeph raim","Ġdire ction","ve l","Ġen g","Ġcover ed","Ġteach ing","Ġw it","Ġwork s","g in","r am","Ġw ide","Ġto ol","Ġpeop les","Ġlo ok","Ġsp ec","do ing","Ġdi ffer","Ġprophe ts","Ġauth or","Ġwit ness","Ġc he","Ġd ust","Ġman y","ul ar","Ġex am","res s","Ġacc ount","l i","m o","Ġs un","Ġha lf","Ġyour selves","c om","c ed","Ġe f","Ġe ast","Ġne ighb","Ġz e","for m","Ġinst ru","Ġjere miah","s hed","in t","Ġn et","i ence","s s","Ġt able","ke t","Ġst ream","Ġeven ing","Ġgener ation","Ġval ue","Ġsen se","Ġcat tle","Ġevery one","Ġtw el","Ġany one","Ġac ts","Ġcreat e","Ġstret ched","z z","Ġh us","Ġhe ze","Ġjud ge","Ġany thing","Ġprop er","Ġrul ers","Ġdec isions","Ġsim ple","Ġheze kiah","Ġp ub","Ġus ing","Ġcru shed","Ġcub its","l ud","Ġin side","Ġe m","Ġfor ty","Ġar t","Ġwat ch","Ġcry ing","i ans","u p","Ġpar ts","Ġba al","Ġjon athan","i b","ic al","us iness","Ġgr ass","Ġgu id","er ed","Ġg row","Ġc ord","Ġc au","Ġover t","Ġfe ast","Ġrequ est","Ġneighb our","Ġe ight","Ġit em","Ġst one","Ġlong er","m a","Ġd ri","Ġn ation","Ġbe asts","Ġwi ves","Ġcut ting","Ġdoor way","Ġpay ment","y ri","Ġin d","Ġst ep","Ġput s","Ġru le","ure s","Ġmar k","Ġinc lud","Ġass yri",". &","e ll","e et","he l","Ġo wn","Ġb al","Ġl oud","Ġsa v","Ġme asure","Ġre d","Ġro om","Ġthir d","Ġdis g","Ġalgorith m","Ġfeed back","Ġauthor ity","Ġproper ty","l a","o ke","Ġ ra","Ġw ound","Ġm aster","at es","le ch","as ing","Ġpro f","Ġcl oud","Ġdiffer ent","Ġdisg ust",". )","t i","Ġt rees","Ġp ain","Ġha m","Ġput ting","Ġam mon","Ġfi le","Ġim age","Ġsw eet","f ul","i an","n ers","ar iah","Ġshe ke","Ġgra ph","Ġvide o","Ġw o","at ive","ri be","Ġch ang","Ġv ine","ne y","Ġpill ars","Ġsav iour","b er","c us","Ġs y","Ġl ear","Ġpl an","Ġland s","Ġv i","Ġsin s","Ġef fect","l o","Ġb usiness","Ġc ode","Ġli ps","Ġdel ight","Ġtwel ve","a ut","is ts","Ġp ull","Ġear ly","ak er","Ġmar ked","Ġimp ort","a ac","u al","v ie","Ġp ast","Ġd am","le ad","Ġre g","van t","Ġget ting","Ġarm s","Ġcont ent","Ġrecord ed","Ġcau sing","Ġassyri a","Ġs is","Ġbe ast","Ġkeep ing","Ġdoor s","res ent","p es","at s","Ġha ir","Ġis aac","ic s","Ġgi lead","Ġz ion","Ġarm ed","Ġfo ot","do ers","Ġcertain ly","s er","Ġse ated","ro ss","Ġsh aking","Ġab sal","Ġla ws","Ġmount ains","Ġabsal om","b and","Ġto ng","Ġc ase","Ġnot e","Ġsou th","Ġtrouble d","Ġfall ing","Ġvi ol","z er","Ġl am","Ġfor ward","Ġout side","Ġco ll","Ġadd ition","i et","t he","Ġyour s","ri ages","Ġheaven s","Ġexam ple","i pp","Ġ es","Ġt ou","Ġa z","Ġo b","Ġqu iet","Ġprison ers","a f","p ar","in ing","Ġb ase","Ġis h","as on","Ġj our","Ġk ind","Ġgener ations","Ġdec ision","Ġnam es","Ġsev enth","aut if","Ġviol ent","g s","Ġs le","Ġc ould","Ġd an","Ġe dom","an iah","Ġfr ont","sh ing","Ġdesign s","Ġhus band","Ġdisgust ing","er ial","Ġn or","Ġe as","le t","ch ang","Ġkeep s","Ġac ross","ĠâĢ ¢","Ġfriend s","autif ul","Ġt est","Ġbe d","Ġmy self","Ġget s","Ġper f","Ġmat erial","Ġeng ine","Ġsheke ls","Ġimport ant","at ing","Ġde f","ter n","Ġwor king","Ġwor ld","Ġgreat er","Ġsp ace","Ġro d","Ġlim it","land s","Ġperf um","b ut","c i","c ts","Ġ rain","id es","Ġde ce","Ġus er","ae ans","Ġjeho i","Ġjour ney","g i","Ġ 4","Ġl ast","Ġwr it","Ġfiel ds","Ġcont ro","aph at","Ġb in","re ad","Ġd ist","Ġha ving","Ġha pp","Ġre ason","ri es","Ġjer oboam","Ġsam ar","Ġexp er","Ġedit or","Ġinstru ments","8 0","i jah","Ġd on","Ġgi be","Ġne xt","Ġke y","Ġru les","Ġfe at","Ġ1 0","Ġah ab","ime lech","Ġpub lic","Ġdri ving","Ġdece it","Ġsamar ia","s ion","Ġc am","Ġbe h","Ġha n","Ġfor ce","am es","Ġsa bb","Ġro bes","Ġnumb ers","Ġim ages","Ġconne ction","Ġsabb ath","us h","Ġun chang","Ġtent h","sp ring","Ġtri bes","wor ld","Ġsk in","a am","Ġ 5","Ġw and","Ġg ame","Ġmid d","bo ok","a red","Ġ ide","Ġm et","Ġre m","Ġpro v","Ġorder ed","Ġpos sible","Ġgr ace","Ġmidd le","g r","Ġd et","Ġsh am","Ġsh ould","Ġz er","Ġthought s","Ġdire ct","Ġhor se","Ġsev enty","Ġincre ased","Ġstep s","Ġunchang ing","c ar","t ed","Ġg ad","at her","al ity","Ġre ub","Ġcom m","Ġst op","Ġv ari","Ġsh ar","Ġcapt ain","Ġreub en","1 0","u ra","Ġ er","Ġb ig","Ġm ul","Ġd ream","Ġbe autiful","Ġam or","Ġpro cess","Ġlo c","Ġfl owing","Ġsin ners","Ġjeh osh","Ġcomple te","Ġnor th","Ġbin ary","c ountry","c hes","t w","Ġs ur","Ġm i","re en","Ġl ab","Ġin te","Ġne b","Ġte ch","Ġegypt ians","Ġel ish","az iah","Ġcons id","Ġsis ter","f ort","Ġl ine","al s","Ġpl ac","br on","Ġr am","Ġfa ir","Ġcover ing","Ġbr an","Ġang el","Ġrel ation",".. .","Ġjehosh aphat","i red","in ed","Ġc r","Ġhe bron","Ġshe m","Ġpro j","Ġro be","Ġle ft","Ġty pe","Ġgrow th","c u","g arden","Ġ ve","Ġh ar","Ġlo ose","Ġapp s","Ġed ge","Ġhorn s","Ġes au","tw o","f l","i v","Ġh ig","Ġg rou","Ġc irc","Ġin v","se arch","Ġfe el","Ġsearch ing","Ġrul ing","Ġresp ect","Ġtal k","o f","s he","Ġj es","Ġse par","Ġfat e","Ġlo t","Ġwrong doing","Ġtal king","Ġcomple t","Ġwo nder","h on","t on","Ġ 0","Ġl ess","Ġmo ving","Ġje ws","Ġunder world","Ġbir ds","Ġlin ked","Ġrun ning","Ġquest ion","Ġwand ering","k s","p r","Ġc ol","se d","Ġre h","Ġcom fort","Ġas a","Ġshe c","sel ah","Ġpro ble","Ġro ad","Ġfe e","Ġsupp ose","Ġtong ue","3 0","? )","Ġa ch","Ġs n","it t","Ġi ron","Ġwas hed","Ġst ra","Ġst ru","Ġbo x","Ġple asing","Ġwall s","Ġdiv ision","Ġtool s","Ġreg ular","Ġbeh av","Ġcomplet ely","9 9","t ers","Ġt er","Ġw al","Ġm il","Ġp ath","Ġon ce","Ġli f","Ġwr ite","do er","Ġsong s","Ġze b","la w","Ġstra ight","a im","b an","e x","Ġ ent","Ġ ...","Ġs om","Ġb ar","ke ting","Ġre s","Ġsh ort","Ġoff spring","way s","az ar","Ġele ments","Ġele azar","Ġeli jah","Ġbas es","Ġcall ed","Ġprodu ct","Ġlin en","car riages","b l","c ri","i ath","Ġt ab","Ġo pt","Ġh ate","Ġl ang","Ġfor gi","Ġu zz","st and","Ġjo b","Ġbod ies","Ġhor ses","offering s","Ġcurse d","Ġlang u","p u","t al","Ġm ine","Ġp resent","Ġsee m","Ġoverc ame","Ġworsh ipp","ap ter","Ġexp ert","Ġflock s","Ġmul ti","Ġtech n","m e","or ah","Ġc ro","Ġd ra","Ġd ro","Ġd ang","Ġse es","Ġse le","Ġbut ton","Ġfl ow","Ġsu b","Ġbo ard","Ġfee ble","u es","Ġb ad","Ġb ones","Ġf re","Ġha ng","ed e","Ġre p","ri but","Ġch ar","20 2","Ġneed s","Ġsm ell","Ġsecret ly","Ġsign s","Ġband s","vel op","Ġmaterial s","Ġamor ites","Ġforgi ven","Ġdang er","m er","m aker","Ġt ar","Ġa w","Ġm ic","ro ws","al iah","Ġch o","Ġoff ered","Ġsee ms","Ġpo st","Ġmid ian","Ġdirection s","Ġlear n","n ah","o ked","u ally","Ġ est","Ġw id","Ġw est","Ġab imelech","Ġpr om","te en","Ġsp ear","Ġsp ort","Ġbre ath","Ġtext ure","i ves","Ġw ond","Ġm esh","Ġl ion","ad a","il es","il ity","ic t","Ġso ft","Ġas ses","Ġch apter","Ġro ds","Ġmar keting","Ġovert ake","Ġsle ep","Ġhapp y","Ġshar p","Ġer r","Ġconsid er","Ġshec hem","Ġwal king","Ġlif ting","Ġforgiven ess","c ial","he th","Ġa ud","in ts","as es","Ġse ll","Ġme at","Ġte m","Ġread ing","Ġhig her","m ar","n am","Ġt ra","Ġt rain","om es","Ġse x","od y","Ġab ner","Ġus ers","Ġsp e","Ġneed ed","Ġpra is","Ġsi ze","Ġlev i","Ġspec if","Ġchang ed","Ġmi xed","p o","p ed","s k","t en","u red","Ġ $","Ġf ut","Ġf act","Ġl au","Ġp ity","ac king","ir ts","Ġre search","Ġde velop","Ġlet ter","ep h","Ġv is","Ġsu re","ail s","Ġprof it","Ġmet al","4 0","c over","f ive","w are","Ġt ry","Ġm al","ad ab","Ġsa les","st em","Ġwho ever","Ġne ck","Ġsend ing","Ġunder stand","Ġbre ast","Ġapp ro","Ġrec ur","Ġmod el","Ġquest ions","tern al","Ġcontro l","Ġwond ers","d en","f irst","p ro","Ġo pp","Ġb ag","Ġm ah","Ġm ass","Ġf in","Ġp sal","it ies","Ġin de","ion al","Ġst ate","Ġle ban","Ġz i","Ġpo t","Ġans w","Ġjeh u","Ġcru shing","Ġcreat ive","Ġhat er","Ġlove d","Ġinte gr","Ġelish a","Ġstru ct","Ġcro wn","Ġsele ction",") ,","Ġ `","Ġa v","Ġm ord","Ġf on","re et","Ġy oke","Ġst ack","Ġho le","Ġsin ner","Ġold est","ec ai","Ġgu ide","Ġsound ing","Ġspec ial","Ġbal aam","Ġexper ience","ura l","Ġpsal m","Ġmord ecai","Ġfon ts","in s","Ġh um","Ġto wer","Ġy es","Ġe ternal","Ġwas ted","Ġst ory","ak im","Ġsh are","Ġjo ined","ip s","Ġsix ty","Ġcommon place","Ġjudg ing","Ġche ck","Ġinclud e","Ġish ma","Ġsepar ate","Ġlangu age","Ġleban on",") .","2 4","g pu","k ah","or am","ou red","Ġm el","Ġg e","Ġg arden","Ġc ed","Ġha z","Ġsh ime","Ġab ram","Ġsee ing","qu e","Ġcur t","Ġcomp an","Ġprodu ce","Ġfut ure","Ġishma el","8 8","c a","w h","Ġs ar","Ġb ow","at er","Ġv ir","Ġsh all","Ġover se","Ġlo g","Ġal ways","Ġpurp oses","eth ing","Ġfour th","Ġsor ts","Ġpill ar","Ġplac ed","1 1","p ut","Ġw ing","in king","Ġp age","on s","Ġre nder","Ġas h","Ġli br","Ġpl ant","Ġcon c","Ġey e","ec ts","Ġcomp ut","Ġjudg es","Ġguid ing","vie w","Ġvari ous","Ġsom ething","c irc","p ah","p ly","t ree","Ġb ent","Ġm ed","ver age","Ġre le","Ġan im","ich o","Ġsh ining","Ġgreat ly","Ġbl og","Ġz ede","Ġjer icho","ust om","Ġfo ld","ash an","Ġcomp on","Ġrel ations","Ġarray s","mo st","form ation","Ġlab an","Ġbran ches","Ġerr or","Ġzede kiah","4 4","a pp","b on","l am","s ive","t rees","Ġt as","Ġh oney","Ġb ashan","Ġf iles","Ġl os","ll ed","Ġn aph","ver s","Ġch al","Ġpl ay","Ġear li","Ġun w","Ġbo th","Ġhow ever","aven ed","Ġmar ket","Ġsim ply","Ġnews let","Ġgra pes","Ġfeat ures","Ġproble m","cri pt","Ġest her","f er","g u","n on","Ġm iz","Ġin t","Ġn ah","Ġn eth","Ġth ink","Ġfor ces","ent ly","Ġup d","Ġde b","ep t","Ġele ment","cess ary","Ġtou ching","Ġsham ed","Ġmel ody","a el","c ing","g g","t own","ll ow","Ġha man","Ġfor ced","Ġu nt","Ġme ans","Ġch at","Ġam ale","Ġbec omes","te enth","Ġqu een","Ġlight s","Ġacc ess","Ġincre ase","Ġaram aeans","Ġsy stem","Ġlam b","Ġjehoi ada","Ġdist ribut","Ġcomm un","Ġdra w","Ġamale k","' t","h o","l ah","n a","Ġf aces","Ġl ists","Ġbe er","Ġhe at","Ġno de","Ġj os","Ġre al","Ġout c","Ġout sk","Ġsp ices","ag ed","Ġthousand s","Ġsc ribe","Ġmod els","Ġdiv isions","Ġlam bs","Ġeas y","Ġzeb ul","Ġoutsk irts","h an","i ous","s on","y s","Ġw gpu","Ġs ud","Ġto m","Ġto o","Ġc ustom","Ġin formation","Ġwh ite","Ġgo ats","Ġu ri","ac hel","ad ok","ic ally","Ġwe b","Ġz adok","ot ed","em ber","Ġopen ing","Ġstret ching","Ġact ing","Ġnet work","Ġcord s","Ġgrou p","Ġmil k","Ġjos iah","Ġsud den","g al","i ze","Ġa p","er a","ac her","Ġv ie","Ġv ision","ak ers","Ġmo on","Ġbl ue","Ġbl ows","Ġjo ash","Ġje z","Ġpo int","for man","Ġwall ed","Ġhill s","Ġty pes","Ġpass over","Ġprov ide","Ġproj ect","Ġreh oboam","Ġtab les","tal i","Ġhang ing","Ġwing ed","circ le","Ġlos s","Ġchal d","forman ce","6 4","g an","p er","Ġh itt","Ġb right","Ġg il","Ġl ay","Ġl ater","Ġc ale","Ġc akes","Ġbe l","Ġe t","Ġno ise","am ar","ad d","Ġj ab","Ġj esh","Ġne cessary","Ġsend s","Ġr achel","Ġbir d","Ġcanaan ites","com mon","Ġpull ing","Ġperfum es","Ġced ar","Ġnaph tali","town s","b u","c c","c on","d es","p ing","w ood","Ġa ra","Ġs qu","Ġs ides","or row","Ġm in","Ġm ich","Ġc y","ir ing","ur ing","Ġre t","Ġst ick","Ġso cial","Ġli ves","Ġman age","Ġpl at","Ġsh ow","Ġk ir","ist ed","00 0","Ġstor ed","Ġlim its","Ġconne ct","Ġpass ion","Ġitem s","Ġwrit ers","Ġgibe on","Ġrem ember","Ġboard s","Ġvir gin","1 4","g round","l ine","v ice","Ġ 6","ou se","Ġy et","Ġc ries","Ġbe gin","Ġis s","le hem","le avened","ir am","ri ed","Ġas k","Ġas aph","ren t","Ġar rows","Ġlo op","Ġk orah","Ġun leavened","ate g","Ġje b","Ġca p","Ġop er","Ġbook s","Ġatt acking","Ġfif th","Ġstart ing","Ġrequ ire","Ġstor m","Ġinter est","Ġide a","Ġopp os","\" ,","b les","i que","s ort","w ord","Ġw ings","re el","Ġg ir","Ġg ers","Ġg ide","Ġg reen","Ġl ep","Ġin it","Ġhis t","ent ial","il y","Ġj eph","Ġwas h","Ġch ance","Ġdo cu","Ġtw isted","Ġk oh","pp ing","Ġpri v","Ġpo et","Ġstrong er","Ġr ather","Ġquick sort","Ġeph od","iz ed","Ġsl ow","Ġperfum e","Ġcam els","Ġbehav iour","Ġtar get","Ġaud ience","Ġtem ple","Ġprais ed","Ġjez reel","Ġjeb us","Ġgide on","Ġkoh ath","c ision","h ouse","m i","t ion","Ġt a","Ġb ased","Ġf ont","Ġg ed","Ġn ab","Ġn athan","Ġe z","Ġe qu","Ġgo at","Ġit self","Ġj ah","Ġme as","Ġst reet","Ġor nam","Ġch ains","Ġde ar","Ġsh ad","Ġsh il","Ġunder t","Ġwhere ver","Ġdr inking","Ġimp ro","Ġalgorith ms","Ġaz ariah","Ġhorse men","Ġstop ped","Ġve il","Ġjes se","Ġmulti ple","Ġshime i","Ġoppos ite","2 80","c ut","e on","e ight","Ġ =","he re","Ġf ount","it ions","Ġe th","Ġno ah","il t","Ġse o","Ġdo ings","Ġsh ade","Ġsu bs","Ġqu e","Ġex c","Ġend s","Ġen c","ert ile","ot hed","Ġaltar s","Ġple ased","Ġsim eon","Ġcommon os","Ġwound ed","read y","Ġshem aiah","she ba","Ġfre ely","Ġcomput er","Ġzebul un","Ġtom orrow","Ġchald aeans","Ġet c","f our","Ġm ach","re ation","Ġc op","Ġth u","ke ep","ra nd","ri age","Ġas her","all ed","um cision","ie ve","Ġfo cus","Ġr ings","Ġpray ers","Ġper formance","Ġprison er","Ġstor es","Ġbal ak","Ġlear ning","vie ws","ser vant","garden s","Ġcirc umcision","Ġaw ake","Ġansw ering","Ġvie w","Ġlep er","Ġhist ory","Ġwash ing","i ed","m ah","n o","ou ds","Ġf ertile","Ġth ick","Ġth orn","Ġst ars","ch ariah","Ġwhen ever","Ġher ds","âĢ Ķ","Ġsee k","Ġkeep ers","Ġback ground","te x","te xt","Ġmo tion","Ġcon f","Ġcl ouds","Ġop in","Ġread ers","Ġpur ple","pe ct","Ġben aiah","uch ad","Ġfunction s","Ġtal ents","Ġtr ans","Ġze chariah","zz ar","Ġguid ed","Ġgibe ah","Ġneb uchad","Ġcompan y","Ġnewslet ter","Ġkir iath","5 4","6 0","b d","e ad","h ad","i o","i er","Ġw ave","Ġf ing","Ġf ast","Ġf aster","Ġg ath","Ġp op","Ġc reation","Ġin ner","Ġfr ame","Ġv ia","Ġab ish","Ġwat ching","Ġqu ality","Ġje w","Ġmar ried","Ġah az","Ġsm oke","Ġmind s","Ġphilist ine","Ġsc en","Ġmonth s","Ġkingdom s","og le","Ġtr ad","ont ro","Ġstream s","ci ous","Ġwid ow","Ġmiz pah","9 8","i k","l ess","o y","Ġ 20","Ġb ru","Ġb ud","Ġm aker","Ġf ac","Ġd rain","Ġn in","Ġsa f","van ts","Ġal ready","Ġad on","Ġend ed","ach ar","Ġmer ari","Ġtrou bles","Ġah aziah","Ġcreat or","Ġsam son","Ġbread th","Ġriver s","Ġdam aged","ser vants","Ġcol or","Ġsoft ware","ca pe","Ġcale b","Ġiss achar","Ġque ue","5 0","c her","f o","g es","i en","v al","Ġ ill","Ġ ith","nd ering","Ġc ount","Ġsa nd","Ġre ph","Ġor gan","Ġam aziah","ab or","Ġpro g","Ġmo ve","Ġbl ind","pl ay","Ġte am","Ġdes iring","Ġval u","Ġjudg ed","Ġeight y","Ġdistribut ion","Ġsudden ly","Ġara b","Ġmanage ment","keep ers","3 4","3 7","5 9","a a","i ent","t ribe","Ġa ut","Ġof ten","Ġc al","Ġgo ogle","Ġj ed","Ġse ir","Ġar ch","Ġar gu","Ġsh o","Ġlo ad","Ġk en","Ġk ad","Ġkeep er","Ġpr int","Ġbo y","Ġco nd","Ġad s","Ġhundred s","Ġen v","Ġ1 00","Ġface book","Ġgener ate","Ġhon oured","Ġsound s","Ġinst ead","Ġact ually","Ġtext ures","Ġma j","Ġform at","Ġset up","Ġinstru ment","Ġsy n","lo ad","Ġsar ah","Ġrele vant","Ġunw alled","Ġsqu are","Ġcop y","1 6","5 6","b ed","f ace","h a","l ive","r ings","t ime","he st","Ġa ir","Ġh il","Ġp en","at ural","Ġis aiah","Ġwas ting","ur i","Ġre ally","av es","Ġfe w","Ġsu gg","ty pe","Ġph one","ff ic","Ġhelp er","Ġgr id","Ġham m","Ġpull ed","Ġkey word","Ġsur pr","Ġram ah","Ġrep resent","Ġmed ia","Ġoutc ry","Ġoper ations","Ġinit ial","Ġsugg est","4 8","b re","f ru","m in","o ts","u ps","x es","y our","Ġ 7","Ġt urn","Ġo live","Ġs ad","Ġs um","Ġb at","Ġb rand","er n","ic ate","Ġtheir s","Ġst and","Ġwor ked","Ġus es","Ġk is","Ġbl ow","ol ic","ull am","ple ment","Ġcl othed","Ġsi hon","Ġver tex","Ġcur rent","Ġsc ale","Ġcord ed","Ġplan ting","Ġob j","Ġdirect ory","Ġsn ake","Ġcho ose","po int","Ġrecur sive","Ġstruct ure","Ġoverse ers","Ġplant ed","han an","Ġgil gal","Ġmaj or","Ġhil kiah","e w","e nd","m f","n ot","he art","Ġf ound","is hed","Ġl ines","Ġl ink","Ġc or","Ġc up","at ives","ar ies","Ġhe sh","Ġi ce","ad iah","il ah","Ġst em","Ġch ange","Ġwe ar","Ġman go","os heth","to ok","Ġpr im","Ġal ong","Ġfl ag","Ġsp ring","Ġwork ers","Ġun ique","Ġsin ai","Ġpart ed","Ġsal t","Ġmeasure s","Ġlands cape","Ġcoll abor","Ġtrain ing","Ġcurt ain","Ġlibr ary","Ġearli er","Ġuri ah","Ġfount ain","Ġsaf ely","heart ed",". \"",". âĢĿ","6 7","9 7","a wn","e k","g ile","h u","h ow","o gy","Ã Ĺ","Ġh ur","Ġl ar","Ġp a","Ġp ip","Ġn ine","Ġth read","Ġhe bre","Ġno des","id on","as cus","Ġu r","Ġse ar","Ġse lf","th ree","st ret","ath ite","Ġfi g","ves sel","Ġbl ack","Ġru st","Ġle g","Ġle ah","Ġle gs","ol ogy","Ġco oked","Ġte ll","Ġcl oth","Ġim plement","Ġsm o","Ġunc ontro","Ġcreat ing","Ġmouth s","Ġben ef","Ġsupp or","aph an","Ġtr ack","Ġcons cious","go ats","Ġpub l","Ġprof ess","Ġdam age","Ġdam ascus","Ġwrit er","Ġzer ah","Ġinv ol","Ġmic ah","Ġmal es","Ġinde ed","Ġmeas ured","Ġshil oh","fru its","Ġhesh bon","gile ad","2 7","c l","Ġt ired","Ġb its","Ġm ess","Ġm eth","Ġl ower","Ġc ou","el ine","ur ther","ok s","Ġar ts","Ġru shing","Ġle ad","Ġte eth","igh th","Ġex pl","Ġsome one","Ġbuild er","Ġwind ow","work ers","Ġcar riage","Ġma ac","Ġind ia","Ġwo ol","Ġplan ts","Ġviolent ly","Ġdef in","Ġjehoi akim","Ġloc al","Ġjes us","Ġlau gh","Ġint ro","Ġupd ate","Ġap i","Ġret urn","Ġgir l","Ġpoet ry","Ġopin ion","Ġwear iness","Ġuncontro lled","b ab","c ies","e ction","h ol","m el","o c","Ġt ir","Ġt all","Ġh ated","Ġf urther","Ġp i","ll ing","Ġn un","ut ion","an i","an n","il ar","Ġj a","Ġse ction","ra ble","Ġre be","ven ue","Ġsay ings","Ġar row","Ġab iath","Ġshe ba","Ġhand l","Ġev ent","te m","Ġfl at","Ġfe ared","Ġz idon","Ġcon st","Ġco st","pl es","pl aces","Ġex t","Ġunder go","Ġsc reen","Ġsim ilar","Ġmat t","ba al","Ġcall s","Ġperson s","Ġem ail","Ġown er","Ġgraph ics","Ġsle eping","Ġtest ing","Ġcr it","Ġbox es","Ġbehav i","Ġworshipp ers","Ġspecif y","Ġdevelop ment","Ġstate ment","Ġhitt ite","Ġjesh ua","Ġgers hon","Ġpriv ate","Ġthorn s","Ġlaugh ing","Ġabiath ar","1 5","2 8","4 3","9 0","l oth","m ing","r act","w here","Ġt v","he ad","Ġs ing","Ġh ome","Ġb er","Ġb ath","Ġb ind","Ġp ict","Ġd awn","Ġe ighth","se ven","ac ter","Ġst on","Ġpl ated","Ġar ound","ab ility","Ġtw ice","Ġk ish","Ġco at","ag ing","Ġbu ilt","du rable","Ġdis cus","Ġdis cover","Ġprodu cts","Ġattack ers","Ġshut ting","Ġedit ors","Ġroom s","Ġchang es","Ġob ed","Ġdet er","Ġdet ails","Ġfeel ing","Ġter ms","Ġworshipp ing","Ġvis ual","Ġcompon ent","lam bs","Ġcommun ity","ateg ory","Ġged aliah","Ġundert aking","Ġpop ular","Ġfac ing","Ġrebe kah","Ġsing le","\" :","6 8","c ol","h ar","o ah","v ious","w ith","Â ł","Ġ __","Ġh in","is ting","Ġc red","it or","it ors","at ely","Ġn er","Ġn atural","Ġe g","an ah","as ting","ent i","Ġu i","th ah","st or","Ġnot ation","al m","Ġre views","Ġde v","Ġlet ters","Ġback s","Ġpr act","Ġle ast","Ġle ather","Ġapp lic","Ġpos itions","Ġcont in","Ġadd ed","Ġgu ess","Ġsound ed","Ġinst ant","Ġsmall er","ail able","Ġstart ed","Ġsl ot","Ġincre asing","Ġcar riages","Ġinclud ing","Ġwound s","fl owing","iv ot","Ġchar acter","Ġmesh a","Ġsell er","Ġfact or","bu ild","Ġplat form","Ġjeph thah","Ġdocu ment","Ġta uri","Ġimpro ve","Ġcor re","Ġprofess ional","2 5","3 5","b el","c f","e es","f lo","g ed","i ble","p a","z ah","Ġ 8","Ġ esh","Ġs at","Ġg ames","Ġp ivot","Ġc ategory","it ed","en gth","Ġin put","Ġn a","Ġn ile","Ġn aam","as u","Ġwith in","Ġre ach","Ġcom b","Ġde p","Ġde pe","Ġke d","Ġmay be","Ġour selves","Ġho llow","ie zer","Ġfe m","Ġle vel","Ġle verage","Ġte acher","Ġpo ints","Ġhigh ly","Ġver t","Ġunc over","Ġlev ite","Ġed iting","ash a","Ġsc al","if y","Ġdis play","Ġval id","iz z","Ġbas ins","Ġfru its","Ġexam ples","Ġtong ues","Ġrelation sh","Ġopt ions","Ġseem ed","Ġav ailable","wh ich","Ġshall um","Ġkad esh","Ġstand ard","Ġsmo oth","Ġdeter m","Ġdepe nd",") :","7 7","9 4","b f","b ar","b ased","c m","d f","g ir","h as","h ah","t op","Ġ >","Ġa ction","Ġh y","Ġh iv","Ġm ain","er us","Ġl u","Ġl ions","Ġd ou","Ġj oram","ra ph","ro p","Ġre ndering","Ġso dom","ru s","ct ive","Ġam non","Ġsh aphan","Ġlo ver","Ġk id","Ġro ot","Ġun able","Ġsin ce","Ġah asu","Ġgener al","Ġbr ide","Ġoath s","Ġmat the","Ġcomple x","Ġwood s","Ġty re","bo ard","work er","Ġba asha","Ġvide os","li ke","Ġart ic","Ġzer u","cu sed","Ġres ul","Ġpost s","Ġmal ch","Ġappro val","Ġrecur sion","Ġequ al","Ġstreet s","Ġthu nder","had ad","Ġprog ram","stret ched","Ġston ed","flo or","Ġahasu erus","Ġmatthe w","h ous","i op","k k","m akers","n ow","p her","s hem","t est","t ings","y le","Ġ id","Ġf it","Ġy ew","Ġc ush","Ġd ed","an ts","th am","ah az","Ġan al","Ġst ation","Ġst ud","od ing","Ġwhe ther","os ing","Ġv ines","ab ad","Ġab i","Ġwor st","Ġk it","20 1","Ġfl ames","ine has","Ġun se","ull y","Ġph inehas","Ġex pect","ile e","Ġfo cused","ne zzar","Ġver sion","Ġcur sing","si x","Ġed ges","Ġbless ings","Ġdoes n","Ġadd ress","ap er","Ġmod e","Ġact ive","Ġcar mel","Ġinter n","Ġpre p","Ġhus h","Ġtou ched","Ġconnection s","Ġide as","Ġneb at","Ġplac ing","Ġram oth","Ġproj ects","Ġshort est","Ġprom pt","Ġmesh ullam","mar ket","Ġcompon ents","Ġamalek ites","ho le","Ġez ra","Ġeth iop","Ġnebuchad nezzar","Ġabish ai","Ġbru sh","Ġadon ijah","Ġreph aim","Ġkeyword s","Ġstem s","Ġprim ary","Ġzeru iah","3 3","b c","c ribe","d a","d ress","e b","f all","h or","l og","n i","p ress","t a","Ġa verage","Ġo g","Ġb ur","Ġm ust","Ġg ent","Ġg az","Ġp ort","it her","en s","Ġd ig","Ġin s","Ġha irc","om i","Ġth in","Ġis n","se t","an el","an sp","Ġon line","im mon","ic ation","Ġall ow","Ġall ows","Ġout er","Ġout put","Ġout stretched","Ġover took","Ġover flowing","our ce","Ġho les","Ġho oks","Ġfl ame","Ġwork men","Ġro of","ase iah","Ġbo az","pl ate","Ġfear ing","Ġfo ll","Ġfo llow","Ġbu y","Ġ1 6","Ġadd ing","Ġsword s","Ġcountry men","Ġlow lands","Ġcons ist","Ġcub it","Ġwitness es","Ġrequest ing","Ġham ath","Ġexper ien","Ġhan aniah","Ġloc ust","Ġuzz iah","Ġmic aiah","Ġtrain ed","Ġunderstand ing","Ġhum ans","Ġcurt ains","Ġtas te","Ġjab esh","Ġornam ents","Ġfing er","Ġjew els","Ġvalu able","Ġfem ale","hous es","Ġhairc loth","2 9","4 9","7 8","b y","g ar","g ree","h ud","n ch","s c","u ph","Ġt amar","nd om","Ġm ill","Ġto ps","Ġl ach","Ġc ent","Ġd uring","Ġin most","om ach","Ġhe z","et y","Ġsa ve","Ġwho le","Ġan ath","Ġst am","Ġst omach","Ġpl ate","Ġam ount","Ġar non","ab les","Ġsh a","Ġab ijah","Ġoff er","Ġlo oked","Ġlo vers","Ġev ents","pp ed","Ġal most","Ġfe asts","Ġz o","Ġjo hanan","Ġkn ees","ate gy","Ġpo ol","Ġah ijah","Ġold er","Ġjeh oram","res sed","Ġper izz","Ġsix th","Ġdesire s","Ġspir its","Ġtr ansp","Ġbas ic","Ġbas ket","Ġlow land","Ġma aseiah","Ġsort ed","Ġpre vious","Ġlook s","Ġwatch men","Ġra ndom","Ġcoll ect","Ġsn ow","bl og","Ġdro pping","Ġflow ers","Ġinde x","Ġunt il","Ġargu ment","Ġenv y","Ġrepresent atives","Ġlink s","Ġmeth od","Ġdep th","shem esh","Ġlach ish","a x","b iah","c reat","i ff","w r","Ġ x","Ġ ess","he n","Ġa le","Ġb ill","Ġb one","ou n","Ġm as","Ġm ap","Ġg ain","it ive","Ġin sp","am ing","ed om","il ities","Ġnot ice","Ġre view","Ġre venue","Ġli b","Ġup ro","Ġde w","Ġlet ting","Ġam as","ak en","Ġher d","Ġsh ush","pt y","Ġour s","Ġho bb","Ġfl ower","Ġsp o","Ġfe asting","Ġjo ining","Ġjo tham","Ġbo t","Ġstr ategy","Ġegypt ian","Ġpo ison","Ġ1 5","Ġcur ses","Ġpower ful","Ġsoul s","Ġdesign ed","Ġmonth ly","Ġval ues","iz ation","Ġgri p","Ġvalley s","Ġjeho ahaz","Ġem pty","Ġinclud es","Ġgraph s","Ġfeat ure","Ġgrou ps","Ġproble ms","Ġbar uch","Ġtechn ology","Ġspecif ic","cover s","Ġpot ential","Ġintegr ations","Ġhaz ael","Ġconc ept","Ġsystem s","Ġcap ac","Ġnab oth","Ġshad er","ik am","cher s","Ġcount ries","Ġarab ah","Ġmaac ah","Ġconst ant","Ġvert ices","Ġuncover ed","rop y","Ġshush an","2 6","3 1","7 4","c o","g er","n othing","p ers","w ind","y ou","Ġa th","Ġo ri","Ġo ph","Ġw in","Ġh it","Ġh iram","Ġb il","Ġm is","Ġf art","Ġl ength","Ġp ains","Ġp aper","Ġc ake","en c","Ġhe ight","ut e","Ġno ble","id ed","am a","ad an","Ġsa ints","Ġse g","Ġse as","st ep","Ġre f","ru e","ade zer","Ġwe bs","Ġhad adezer","ep ts","ct or","ch ange","Ġpl ough","Ġat tem","ab iah","Ġtak er","Ġsin ning","sh ish","Ġje ze","Ġdes ired","Ġthan k","Ġen j","Ġtrou bl","Ġhelp ing","Ġvo ices","for ms","Ġdesign ing","Ġfour teenth","Ġsix teen","act ers","Ġeph ah","ray s","Ġstart up","Ġrel ated","Ġmid point","Ġty p","Ġsl op","Ġsl ots","Ġperson al","Ġinter act","Ġstream ing","Ġart ists","Ġra b","Ġsis era","Ġcoll ection","Ġeas ily","Ġeas ier","Ġinv est","Ġach ish","Ġtechn ical","Ġchar acters","Ġtar shish","Ġfold er","Ġunt rue","Ġjebus ite","Ġnab al","Ġmach ir","Ġscen e","Ġdrain ed","Ġith amar","Ġsum mer","Ġkis s","build ing","Ġsat an","Ġna omi","Ġunse xed","Ġgent le","Ġanath oth","Ġfart hest","Ġjeze bel","- -","6 9","7 3","a pt","d c","f a","i am","k anah","l ist","o z","o id","o ch","o ting","o ci","Ġa head","in ation","Ġto ken","Ġp ret","Ġc ows","Ġc ups","on ite","ll er","Ġin f","Ġin no","Ġn ative","Ġn adab","Ġe k","Ġe ither","ke ts","Ġu x","ac y","ir ation","ad es","Ġj ub","Ġse er","st ing","Ġre fer","Ġli ve","op h","Ġlet s","Ġwe ek","ere z","âĢ ľ","Ġwor th","Ġshe l","Ġser ver","Ġpro test","our ces","Ġbro w","Ġord ering","Ġz im","Ġsu c","Ġjo el","Ġco ld","Ġpo em","Ġel am","Ġel kanah","Ġbre ak","Ġmer cies","Ġah im","Ġyoung est","Ġgener ative","si b","Ġper fect","Ġass oci","Ġeli ab","ap es","Ġlist ed","Ġbas in","de gree","Ġsk ill","Ġset tings","Ġtest ed","Ġdist ance","Ġ5 0","Ġach ieve","Ġent ropy","Ġhang ings","Ġbreast plate","Ġearli est","Ġneth aniah","Ġlay out","con text","Ġcy rus","cut ting","Ġsho es","Ġsuggest ion","Ġobj ects","Ġpip eline","Ġsear ched","Ġbenef its","Ġcrit ical","Ġ__ __","stor m","Ġdou b","Ġenj oy",", )","' re","5 8","7 1","d i","e e","e enth","g hed","h i","m ap","p ts","r ic","v enth","w ise","Ï ī","Ġ 202","Ġ ÃĹ","Ġt ail","Ġw on","Ġw aves","Ġb es","Ġm ir","Ġm ag","Ġto w","Ġg a","Ġg om","Ġp at","Ġp ick","en cy","at or","Ġis o","Ġi z","Ġlord s","ith op","Ġsa ved","ver t","Ġj ok","th ough","Ġfr ames","Ġst ar","Ġst iff","ich ri","ch an","ch ab","ear im","Ġsh im","Ġsh ips","Ġab el","Ġshe b","Ġshe ph","Ġshe lah","fe cts","Ġlo ving","ul t","Ġru led","ort un","Ġex change","Ġad vant","Ġhigh way","Ġbu ff","Ġpart ic","Ġah ikam","Ġah ithop","Ġyoung er","Ġsol ve","Ġbr ing","Ġfunction ality","Ġpers ia","bo x","Ġdeep er","Ġrock s","Ġseat s","ae an","Ġset ting","Ġfind ing","ced ural","Ġovert urned","Ġob adiah","Ġdirect ly","Ġbran ch","Ġpath s","Ġopt im","Ġuzz iel","Ġprom ot","Ġspe ed","Ġfin ally","Ġansw ers","Ġge ba","88 59","Ġlibr aries","Ġdeb t","Ġjebus ites","Ġornam ent","Ġorgan ic","Ġintro du","Ġhez ron","Ġpret ty","Ġek ron","Ġjub ilee","Ġahithop hel","0 8","1 9","2 3","7 2","? âĢĿ","c ond","d od","f it","g ive","h az","i ver","i led","j earim","t u","u g","u ah","y pe","Ġ rough","Ġo m","in im","Ġh os","Ġb mf","ou nder","Ġm l","Ġm es","Ġm akers","Ġf ish","re ts","Ġg er","Ġy um","Ġp c","Ġp erez","Ġc ow","at ype","om ing","om me","Ġno se","im es","Ġme an","Ġme ph","Ġas se","Ġdo ve","Ġfi gs","Ġher self","Ġsh ob","pt ing","Ġser ies","Ġgreat est","te nd","Ġal though","Ġaf f","Ġsp ice","Ġdown fall","Ġsu cc","Ġend ing","ach in","Ġneed le","ick s","Ġhelp s","Ġr ing","Ġah imelech","ai oth","ne h","ne w","Ġclear ly","Ġrec omme","Ġpos sib","Ġdesign er","if ic","if ied","are st","Ġform ed","go at","com p","Ġef fects","Ġnet s","Ġart ist","Ġeight een","Ġind ust","Ġind ices","Ġchang ing","Ġprov ides","Ġdream s","Ġsur ve","Ġhar an","Ġcirc le","Ġcol oured","Ġasa hel","Ġbutton s","Ġtra ve","Ġav oid","Ġhum an","Ġoverse er","Ġash dod","Ġnah or","Ġneth inim","Ġcustom er","common place","Ġplat forms","Ġarch ite","Ġsyn c","Ġhamm ered","Ġsurpr is","Ġbat hed","Ġpa id"]}}