{"version":"1.0","truncation":null,"padding":null,"added_tokens":[{"id":0,"content":"<PAD>","single_word":false,"lstrip":false,"rstrip":false,"normalized":false,"special":true},{"id":1,"content":"<BOS>","single_word":false,"lstrip":false,"rstrip":false,"normalized":false,"special":true},{"id":2,"content":"<EOS>","single_word":false,"lstrip":false,"rstrip":false,"normalized":false,"special":true},{"id":3,"content":"<UNK>","single_word":false,"lstrip":false,"rstrip":false,"normalized":false,"special":true},{"id":4,"content":"{","single_word":false,"lstrip":false,"rstrip":false,"normalized":false,"special":true},{"id":5,"content":"}","single_word":false,"lstrip":false,"rstrip":false,"normalized":false,"special":true},{"id":6,"content":"[","single_word":false,"lstrip":false,"rstrip":false,"normalized":false,"special":true},{"id":7,"content":"]","single_word":false,"lstrip":false,"rstrip":false,"normalized":false,"special":true},{"id":8,"content":":","single_word":false,"lstrip":false,"rstrip":false,"normalized":false,"special":true},{"id":9,"content":",","single_word":false,"lstrip":false,"rstrip":false,"normalized":false,"special":true},{"id":10,"content":"\"","single_word":false,"lstrip":false,"rstrip":false,"normalized":false,"special":true},{"id":11,"content":"\n","single_word":false,"lstrip":false,"rstrip":false,"normalized":false,"special":true}],"normalizer":{"type":"Sequence","normalizers":[{"type":"NFC"},{"type":"Lowercase"}]},"pre_tokenizer":{"type":"ByteLevel","add_prefix_space":true,"trim_offsets":true,"use_regex":true},"post_processor":{"type":"TemplateProcessing","single":[{"SpecialToken":{"id":"<BOS>","type_id":0}},{"Sequence":{"id":"A","type_id":0}},{"SpecialToken":{"id":"<EOS>","type_id":0}}],"pair":[{"SpecialToken":{"id":"<BOS>","type_id":0}},{"Sequence":{"id":"A","type_id":0}},{"SpecialToken":{"id":"<EOS>","type_id":0}},{"Sequence":{"id":"B","type_id":1}},{"SpecialToken":{"id":"<EOS>","type_id":1}}],"special_tokens":{"<BOS>":{"id":"<BOS>","ids":[1],"tokens":["<BOS>"]},"<EOS>":{"id":"<EOS>","ids":[2],"tokens":["<EOS>"]}}},"decoder":{"type":"ByteLevel","add_prefix_space":true,"trim_offsets":true,"use_regex":true},"model":{"type":"BPE","dropout":null,"unk_token":null,"continuing_subword_prefix":null,"end_of_word_suffix":null,"fuse_unk":false,"byte_fallback":false,"ignore_merges":false,"vocab":{"<PAD>":0,"<BOS>":1,"<EOS>":2,"<UNK>":3,"{":4,"}":5,"[":6,"]":7,":":8,",":9,"\"":10,"\n":11,"!":12,"#":13,"$":14,"%":15,"&":16,"'":17,"(":18,")":19,"*":20,"+":21,"-":22,".":23,"/":24,"0":25,"1":26,"2":27,"3":28,"4":29,"5":30,"6":31,"7":32,"8":33,"9":34,";":35,"<":36,"=":37,">":38,"?":39,"@":40,"\\":41,"^":42,"_":43,"`":44,"a":45,"b":46,"c":47,"d":48,"e":49,"f":50,"g":51,"h":52,"i":53,"j":54,"k":55,"l":56,"m":57,"n":58,"o":59,"p":60,"q":61,"r":62,"s":63,"t":64,"u":65,"v":66,"w":67,"x":68,"y":69,"z":70,"|":71,"~":72,"¡":73,"¢":74,"£":75,"¤":76,"¥":77,"¦":78,"§":79,"¨":80,"©":81,"ª":82,"«":83,"¬":84,"®":85,"¯":86,"°":87,"±":88,"²":89,"³":90,"´":91,"µ":92,"¶":93,"·":94,"¸":95,"¹":96,"º":97,"»":98,"¼":99,"½":100,"¾":101,"¿":102,"Â":103,"Ã":104,"Ä":105,"Å":106,"Æ":107,"Ç":108,"È":109,"É":110,"Ê":111,"Ë":112,"Ì":113,"Í":114,"Î":115,"Ï":116,"Ð":117,"Ñ":118,"×":119,"Ø":120,"Ù":121,"Ú":122,"Û":123,"à":124,"á":125,"â":126,"ã":127,"ä":128,"å":129,"æ":130,"ç":131,"è":132,"é":133,"ê":134,"ë":135,"ì":136,"í":137,"ï":138,"ð":139,"Ā":140,"ā":141,"Ă":142,"ă":143,"Ą":144,"ą":145,"Ć":146,"ć":147,"Ĉ":148,"ĉ":149,"Ċ":150,"ċ":151,"Č":152,"č":153,"Ď":154,"ď":155,"Đ":156,"đ":157,"Ē":158,"ē":159,"Ĕ":160,"ĕ":161,"Ė":162,"ė":163,"Ġ":164,"Ģ":165,"ģ":166,"Ĥ":167,"ĥ":168,"Ħ":169,"ħ":170,"Ĩ":171,"ĩ":172,"Ī":173,"ī":174,"Ĭ":175,"ĭ":176,"Į":177,"į":178,"İ":179,"ı":180,"Ĳ":181,"ĳ":182,"Ĵ":183,"ĵ":184,"Ķ":185,"ķ":186,"ĸ":187,"Ĺ":188,"ĺ":189,"Ļ":190,"ļ":191,"Ľ":192,"ľ":193,"Ŀ":194,"ŀ":195,"Ł":196,"ł":197,"Ń":198,"Ġt":199,"Ġa":200,"he":201,"in":202,"Ġthe":203,"re":204,"Ġs":205,"on":206,"Ġc":207,"er":208,"at":209,"Ġw":210,"Ġo":211,"ĠĠ":212,"nd":213,"Ġi":214,"Ġp":215,"es":216,"Ġf":217,"or":218,"Ġb":219,"Ġm":220,"en":221,"ou":222,"ing":223,"Ġand":224,"Ġd":225,"an":226,"Ġto":227,"al":228,"Ġin":229,"it":230,"le":231,"Ġof":232,"ar":233,"Ġth":234,"Ġh":235,"ed":236,"st":237,"ion":238,"ro":239,"ic":240,"Ġn":241,"Ġe":242,"Ġl":243,"Ġy":244,"Ġg":245,"is":246,"Ġre":247,"as":248,"ent":249,"ct":250,"om":251,"Ġu":252,"ve":253,"Ġis":254,"ll":255,"ĠĠĠĠ":256,"Ġyou":257,"et":258,"ut":259,"Ġfor":260,"ow":261,"Ġthat":262,"se":263,"Ġst":264,"Ġbe":265,"ra":266,"ot":267,"id":268,"ĠĊ":269,"ce":270,"Ġhe":271,"ig":272,"ly":273,"Ġit":274,"Ġon":275,"ch":276,"im":277,"Ġwh":278,"am":279,"ation":280,"ay":281,"ith":282,"Ġpro":283,"ur":284,"il":285,"ir":286,"Ġan":287,"ver":288,"od":289,"Ġwith":290,"ad":291,"Ġwe":292,"ol":293,"Ġcon":294,"ĠĠĠ":295,"ate":296,"Ġas":297,"Ġ1":298,"ke":299,"Ġcom":300,"ers":301,"..":302,"um":303,"ge":304,"ess":305,"Ġse":306,"Ġde":307,"ul":308,"Ġv":309,"Ġcan":310,"Ġex":311,"Ġ\"":312,"ri":313,"Ġj":314,"âĢ":315,"Ġare":316,"Ġha":317,"qu":318,"Ġthis":319,"Ġor":320,"if":321,"ab":322,"ld":323,"pe":324,"th":325,"Ġr":326,"Ġ=":327,"em":328,"ht":329,"Ġch":330,"est":331,"her":332,"nt":333,"Ġsu":334,"ore":335,"Ġsh":336,"ck":337,"Ġ(":338,"Ġus":339,"ple":340,"ment":341,"ist":342,"us":343,"ill":344,"un":345,"Ġne":346,"pp":347,"ive":348,"ter":349,"ain":350,"Ġle":351,"Ġ2":352,"Ġk":353,"res":354,"ction":355,"Ġnot":356,"art":357,"Ġme":358,"rom":359,"pt":360,"ight":361,"ant":362,"Ġal":363,"ity":364,"Ġby":365,"Ġyour":366,"lo":367,"Ġma":368,"iv":369,"Ġfrom":370,"Ġ`":371,"Ġdo":372,"Ġhave":373,"'s":374,"all":375,"ould":376,"Ġall":377,"ort":378,"el":379,"ust":380,"Ġif":381,"Ġwor":382,"age":383,"ies":384,"and":385,"os":386,"ĠĠĠĠĠĠĠ":387,"Ġso":388,"ure":389,"Ġat":390,"Ġad":391,"Ġlo":392,"âĢĻ":393,"Ġtheir":394,"Ġ-":395,"Ġpl":396,"Ġwhe":397,"Ġint":398,"pl":399,"ine":400,"Ġim":401,"Ġthey":402,"out":403,"ud":404,"Ġwill":405,"iz":406,"Ġab":407,"Ġen":408,"Ġwhat":409,"per":410,"Ġwas":411,"ame":412,"Ġgo":413,"ial":414,"00":415,"for":416,"Ġcomp":417,"ie":418,"ect":419,"Ġte":420,"red":421,"Ġ3":422,"ind":423,"cc":424,"ich":425,"Ġar":426,"ue":427,"ide":428,"Ġbut":429,"Ġhow":430,"ime":431,"ome":432,"Ġman":433,"ile":434,"able":435,"ok":436,"Ġmy":437,"Ġout":438,"form":439,"int":440,"Ġcont":441,"our":442,"Ġtr":443,"ag":444,"Ġup":445,"ult":446,"ard":447,"ps":448,"ff":449,"are":450,"ach":451,"act":452,"ally":453,"ase":454,"Ġthem":455,"Ġsa":456,"Ġli":457,"ast":458,"ther":459,"Ġwhich":460,"du":461,"ord":462,"Ġthere":463,"Ġco":464,"Ġun":465,"ack":466,"Ġhas":467,"Ġres":468,"Ġhis":469,"cl":470,"Ġno":471,"....":472,"ice":473,"ound":474,"one":475,"ace":476,"Ġqu":477,"Ġone":478,"Ġsy":479,"ions":480,"Ġmore":481,"Ġstr":482,"umb":483,"ations":484,"Ġcl":485,"oug":486,"Ġsc":487,"now":488,"ak":489,"reat":490,"ass":491,"ign":492,"Ġwho":493,"ah":494,"Ġadd":495,"ac":496,"ance":497,"ence":498,"Ġpr":499,"Ġfo":500,"urn":501,"Ġapp":502,"Ġro":503,"Ġpe":504,"so":505,"ap":506,"Ġfe":507,"ans":508,"Ġhel":509,"ong":510,"ble":511,"Ġwhen":512,"ite":513,"ous":514,"ount":515,"ode":516,"Ġ4":517,"Ġpo":518,"Ġuse":519,"ata":520,"xt":521,"Ġmo":522,"Ġfun":523,"Ġlike":524,"Ġimp":525,"av":526,"Ġtime":527,"ere":528,"Ġev":529,"ory":530,"Ġspe":531,"Ġ{":532,"Ġabout":533,"Ġdis":534,"Ġ5":535,"Ġsp":536,"ep":537,"Ġ0":538,"Ġ$":539,"Ġstart":540,"Ġsome":541,"stem":542,"ĠĠĠĠĠĠĠĠ":543,"Ġnumb":544,"Ġother":545,"Ġdes":546,"Ġye":547,"Ġam":548,"ated":549,"ire":550,"ild":551,"Ġper":552,"ry":553,"ical":554,"ram":555,"Ġprov":556,"ary":557,"Ġknow":558,"ition":559,"put":560,"con":561,"ress":562,"Ġany":563,"Ġbu":564,"au":565,"up":566,"te":567,"de":568,"str":569,"Ġwork":570,"Ġser":571,"ings":572,"cess":573,"Ġval":574,"Ġsystem":575,"Ġ``":576,"Ġret":577,"Ġnew":578,"Ġ```":579,"Ġfunction":580,"ents":581,"Ġtra":582,"Ġinto":583,"Ġover":584,"Ġacc":585,"og":586,"Ġtw":587,"ough":588,"Ġem":589,"Ġeach":590,"Ġmake":591,"Ġget":592,"ang":593,"very":594,"ree":595,"Ġpeo":596,"Ġthen":597,"we":598,"Ġhim":599,"ath":600,"Ġpeople":601,"Ġthese":602,"ces":603,"led":604,"Ġ}":605,"Ġdata":606,"Ġcomm":607,"Ġalso":608,"ph":609,"eth":610,"--":611,"()":612,"ific":613,"Ġusing":614,"ip":615,"Ġthan":616,"Ġlet":617,"ft":618,"Ġke":619,"fere":620,"'t":621,"Ġbec":622,"Ġwould":623,"ors":624,"get":625,"ail":626,"Ġshe":627,"ĠâĢ":628,"Ġhere":629,"Ġexam":630,"Ġpre":631,"Ġhelp":632,"ays":633,"ink":634,"Ġneed":635,"ari":636,"Ġra":637,"ark":638,"Ġshould":639,"Ġwr":640,"Ġ|":641,"Ġmay":642,"Ġbet":643,"clud":644,"ake":645,"Ġher":646,"Ġreturn":647,"Ġpart":648,"Ġph":649,"Ġ#":650,"Ġag":651,"\",":652,"Ġoff":653,"Ġcre":654,"Ġ<":655,"Ġdif":656,"Ġjust":657,"ick":658,"nder":659,"ose":660,"lf":661,"Ġset":662,"Ġbo":663,"Ġlist":664,"ub":665,"ne":666,"ments":667,"Ġ+":668,"Ġits":669,"Ġnumber":670,"les":671,"ize":672,"ause":673,"Ġrec":674,"ject":675,"Ġwere":676,"Ġx":677,"Ġ[":678,"Ġtwo":679,"Ġinter":680,"ual":681,"Ġmod":682,"ys":683,"ates":684,"Ġwant":685,"Ġprocess":686,"lic":687,"Ġprodu":688,"ens":689,"Ġ'":690,"Ġspec":691,");":692,"Ġcode":693,"fore":694,"Ġcompan":695,"irst":696,"Ġwhere":697,"...":698,"ert":699,"Ġsuch":700,"ars":701,"op":702,"Ġinclud":703,"Ġcons":704,"Ġ6":705,"Ġdef":706,"ating":707,"Ġhad":708,"Ġsm":709,"Ġ/":710,"\\_":711,"ise":712,"old":713,"Ġwell":714,"ning":715,"Ġfl":716,"Ġprog":717,"end":718,"Ġpos":719,"Ġ*":720,"Ġunt":721,"Ġcal":722,"Ġsaid":723,"ange":724,"ĠĠĠĠĠĠĠĠĠĠĠ":725,"ased":726,"Ġfirst":727,"Ġcreate":728,"Ġused":729,"Ġword":730,"Ġind":731,"Ġele":732,"Ġgiv":733,"Ġcould":734,"vers":735,"read":736,"ia":737,"Ġour":738,"llow":739,"Ġgen":740,"rib":741,"Ġmat":742,"Ġright":743,"Ġdiffere":744,"ade":745,"own":746,"Ġinc":747,"Ġthr":748,"........":749,"row":750,"Ġcol":751,"Ġfind":752,"Ġnow":753,"Ġserv":754,"Ġgod":755,"Ġunder":756,"ish":757,"Ġstartup":758,"Ġsee":759,"Ġrem":760,"Ġ\\":761,"Ġhand":762,"Ġaf":763,"ices":764,"Ġhig":765,"Ġche":766,"Ġjo":767,"Ġform":768,"Ġsub":769,"oth":770,"Ġsim":771,"Ġchar":772,"Ġthrough":773,"Ġprogram":774,"Ġob":775,"Ġrequ":776,"ient":777,"ren":778,"ks":779,"Ġoh":780,"Ġgu":781,"Ġsol":782,"Ġact":783,"erm":784,"Ġtrans":785,"Ġexample":786,"Ġdon":787,"its":788,"Ġway":789,").":790,"Ġgreat":791,"ility":792,"Ġ10":793,"ov":794,"Ġgr":795,"Ġfollow":796,"Ġeff":797,"Ġdet":798,"Ġimport":799,"Ġcur":800,"Ġevery":801,"arch":802,"ons":803,"Ġbecause":804,"Ġlook":805,"Ġbuild":806,"ower":807,"li":808,"Ġinv":809,"Ġbeen":810,"Ġgood":811,"Ġsay":812,"Ġtake":813,"Ġap":814,"Ġvari":815,"ible":816,"Ġdid":817,"Ġonly":818,"err":819,"Ġ7":820,"ict":821,"Ġgener":822,"Ġty":823,"yth":824,"Ġinform":825,"ities":826,"Ġdoes":827,"Ġprovide":828,"Ġgive":829,"Ġpers":830,"che":831,"ray":832,"the":833,"ues":834,"vel":835,"Ġback":836,"wn":837,"eng":838,"com":839,"Ġprint":840,"ows":841,"ative":842,"ures":843,"ython":844,"Ġbr":845,"Ġmade":846,"Ġcome":847,"velo":848,"Ġrep":849,"Ġmem":850,"Ġoper":851,"cial":852,"),":853,"king":854,"ption":855,"Ġdifferent":856,"Ġok":857,"Ġ8":858,"iness":859,"ract":860,"Ġgiven":861,"Ġbus":862,"ween":863,"ustom":864,"wer":865,"Ġmark":866,"itt":867,"Ġje":868,"ci":869,"Ġrel":870,"Ġmin":871,"Ġproduct":872,"Ġbetween":873,"cy":874,"Ġreg":875,"ful":876,"Ġwhile":877,"Ġass":878,"Ġafter":879,"Ġvalue":880,"ull":881,"Ġshall":882,"(\"":883,"gg":884,"Ġbefore":885,".\"":886,"ics":887,"Ġdec":888,"Ġprovid":889,"ving":890,"Ġans":891,"ather":892,"Ġread":893,"Ġinformation":894,"der":895,"Ġeven":896,"Ġcreat":897,"Ġent":898,"ib":899,"Ġday":900,"Ġsupp":901,"Ġsent":902,"Ġagain":903,"ute":904,"Ġcomple":905,"Ġcompany":906,"Ġfile":907,"Ġel":908,"Ġdevelo":909,"ru":910,"Ġresult":911,"Ġend":912,"Ġinst":913,"Ġcustom":914,"ced":915,"Ġ20":916,"Ġinput":917,"Ġcor":918,"als":919,"Ġname":920,"wor":921,"ution":922,"ness":923,"Ġlord":924,"ify":925,"Ġrun":926,"ular":927,"Ġput":928,"Ġsign":929,"ife":930,"ater":931,"ty":932,"Ġplat":933,"olog":934,"Ġthink":935,"pect":936,"Ġhigh":937,"Ġexp":938,"Ġho":939,"Ġfin":940,"Ġmany":941,"Ġtech":942,"Ġexper":943,"):":944,"Ġid":945,"rent":946,"self":947,"Ġear":948,"Ġbl":949,"Ġunto":950,"Ġtak":951,"Ġstring":952,"Ġdesign":953,"Ġgra":954,"ms":955,"Ġaw":956,"Ġplatform":957,"ss":958,"ix":959,"Ġdevelop":960,"cus":961,"Ġmon":962,"Ġexpl":963,"Ġdown":964,"Ġclass":965,"Ġmost":966,"Ġz":967,"Ġair":968,"Ġbusiness":969,"Ġcount":970,"ience":971,"Ġeng":972,"ages":973,"Ġuser":974,"Ġple":975,"Ġperson":976,"lect":977,"Ġstud":978,"ctions":979,"'m":980,"Ġatt":981,"Ġmult":982,"ential":983,"bo":984,"ting":985,"ines":986,"Ġtechn":987,"uct":988,"\":":989,"other":990,"Ġequ":991,"ves":992,"Ġins":993,"Ġworld":994,"Ġanswer":995,"Ġac":996,"val":997,"âĢĿ":998,"be":999,"Ġquest":1000,"ved":1001,"Ġ.":1002,"gor":1003,"Ġcharact":1004,"Ġboth":1005,"Ġmed":1006,"Ġstate":1007,"Ġpri":1008,"gy":1009,"Ġwrite":1010,"iqu":1011,"Ġmain":1012,"Ġart":1013,"iew":1014,"Ġaut":1015,"Ġpass":1016,"Ġtext":1017,"ĠâĢľ":1018,"Ġlong":1019,"'re":1020,"oc":1021,"Ġav":1022,"line":1023,"uring":1024,"hed":1025,"Ġpar":1026,"ethod":1027,"ex":1028,"Ġcall":1029,"Ġreal":1030,"Ġed":1031,"Ġla":1032,"na":1033,"Ġ//":1034,"ized":1035,"Ġspecific":1036,"Ġinte":1037,"Ġsmall":1038,"Ġplay":1039,"Ġsure":1040,"Ġloc":1041,"ven":1042,"lock":1043,"Ġwhy":1044,"Ġproble":1045,"Ġappro":1046,"Ġchild":1047,"Ġlear":1048,"ware":1049,"Ġ9":1050,"ern":1051,"Ġsame":1052,"Ġmarket":1053,"Ġtas":1054,"Ġmethod":1055,"Ġjeh":1056,"stand":1057,"ied":1058,"Ġsum":1059,"ber":1060,"alth":1061,"Ġpoint":1062,"Ġfil":1063,"Ġperform":1064,"iss":1065,"Ġbel":1066,"Ġmanage":1067,"10":1068,"pr":1069,"pro":1070,"Ġdire":1071,"Ġcheck":1072,"cond":1073,"pend":1074,"Ġcommun":1075,"Ġyeah":1076,"Ġplease":1077,"Ġmean":1078,"Ġcar":1079,"Ġown":1080,"Ġsin":1081,"Ġdist":1082,"Ġaddition":1083,"Ġop":1084,"Ġaccess":1085,"000":1086,"Ġmu":1087,"Ġstep":1088,"Ġokay":1089,"ious":1090,"Ġcle":1091,"bs":1092,"Ġkey":1093,"ouse":1094,"cept":1095,"----":1096,"Ġthose":1097,"word":1098,"Ġhelps":1099,"ily":1100,"Ġide":1101,"Ġca":1102,"gorith":1103,"Ġcurrent":1104,"Ġopt":1105,"Ġtest":1106,"Ġalgorith":1107,"Ġline":1108,"name":1109,"Ġking":1110,"Ġlife":1111,"ian":1112,"Ġsal":1113,"ond":1114,"Ġoutput":1115,"co":1116,"ples":1117,"Ġsk":1118,"Ġimple":1119,"cri":1120,"Ġplace":1121,"resent":1122,"Ġtool":1123,"Ġland":1124,"ave":1125,"Ġbased":1126,"ovah":1127,"to":1128,"gr":1129,"Ġjehovah":1130,"Ġcr":1131,"Ġfollowing":1132,"hes":1133,"Ġunderstand":1134,"ought":1135,"ns":1136,"ield":1137,"Ġanal":1138,"Ġeffect":1139,"error":1140,"gan":1141,"ward":1142,"ĠĠĠĠĠ":1143,"Ġref":1144,"ever":1145,"Ġincre":1146,"Ġeas":1147,"ron":1148,"ering":1149,"Ġfound":1150,"Ġvis":1151,"Ġmodel":1152,"ye":1153,"Ġfact":1154,"igure":1155,"Ġcho":1156,"Ġwithout":1157,"ger":1158,"Ġmess":1159,"ï¬":1160,"Ġimplement":1161,"Ġlar":1162,"Ġpower":1163,"Ġwords":1164,"cul":1165,"Ġcontain":1166,"riend":1167,"Ġposs":1168,"Ġbeing":1169,"Ġpot":1170,"Ġresp":1171,"Ġhealth":1172,"ality":1173,"ody":1174,"Ġmight":1175,"itive":1176,"Ġobject":1177,"Ġbest":1178,"Ġorder":1179,"Ġ:":1180,"Ġmust":1181,"Ġthings":1182,"Ġsom":1183,"sh":1184,"Ġplan":1185,"Ġkeep":1186,"ner":1187,"Ġpa":1188,"ax":1189,"ature":1190,"Ġmemory":1191,"Ġhey":1192,"ts":1193,"',":1194,"Ġtable":1195,"imes":1196,"Ġve":1197,"Ġsecond":1198,"ired":1199,"Ġbre":1200,"Ġthree":1201,"Ġsec":1202,"Ġnumbers":1203,"Ġ19":1204,"Ġconf":1205,"ef":1206,"20":1207,"Ġarray":1208,"Ġself":1209,"Ġpub":1210,"Ġsupport":1211,"ec":1212,"Ġcase":1213,"Ġreally":1214,"ually":1215,"ength":1216,"ivid":1217,"Ġsl":1218,"Ġtry":1219,"ove":1220,"Ġtell":1221,"Ġconst":1222,"ants":1223,"Ġcomput":1224,"gin":1225,"Ġbook":1226,"Ġinstr":1227,"oup":1228,"fl":1229,"Ġanother":1230,"Ġhum":1231,"Ġyes":1232,"tal":1233,"Ġdev":1234,"Ġident":1235,"ash":1236,"Ġbra":1237,"Ġinclude":1238,"Ġbeh":1239,"Ġbuilding":1240,"Ġnet":1241,"Ġcame":1242,"io":1243,"br":1244,"ability":1245,"Ġshow":1246,"Ġmuch":1247,"))":1248,"ital":1249,"Ġteam":1250,"iting":1251,"Ġhouse":1252,"Ġusers":1253,"work":1254,"Ġprom":1255,"Ġimpro":1256,"po":1257,"ertain":1258,"Ġdirect":1259,"Ġmulti":1260,"Ġadv":1261,"Ġopen":1262,"day":1263,"ten":1264,"Ġproblem":1265,"Ġbro":1266,"Ġste":1267,"Ġcalled":1268,"Ġsur":1269,"Ġtop":1270,"string":1271,"ically":1272,"ets":1273,"ases":1274,"Ġsystems":1275,"Ġlead":1276,"rael":1277,"Ġnext":1278,"ery":1279,"Ġpython":1280,"nce":1281,"ization":1282,"Ġisrael":1283,"und":1284,"Ġgot":1285,"plo":1286,"ural":1287,"Ġfeel":1288,"vert":1289,"Ġdi":1290,"Ġfam":1291,"Ġstore":1292,"................":1293,"Ġagainst":1294,"Ġincluding":1295,"par":1296,"Ġson":1297,"Ġcontro":1298,"Ġpat":1299,"Ġsocial":1300,"angu":1301,"Ġtrue":1302,"Ġwater":1303,"Ġbetter":1304,"mat":1305,"Ġhowever":1306,"Ġprof":1307,"Ġthou":1308,"Ġtyp":1309,"ier":1310,"ined":1311,"Ġfood":1312,"Ġvery":1313,"ational":1314,"Ġmax":1315,"Ġmen":1316,"ider":1317,"Ġsoft":1318,"Ġext":1319,"ique":1320,"ency":1321,"Ġcost":1322,"Ġfigure":1323,"=\"":1324,"Ġpur":1325,"Ġ12":1326,"Ġallow":1327,"Ġapplic":1328,"of":1329,"Ġtal":1330,"Ġturn":1331,"ric":1332,"Ġgoing":1333,"ology":1334,"Ġthy":1335,"Ġens":1336,"Ġcalcul":1337,"ator":1338,"Ġaddress":1339,"Ġhapp":1340,"son":1341,"Ġdig":1342,"ables":1343,"ï¬ģ":1344,"Ġhead":1345,"Ġlight":1346,"Ġrest":1347,"Ġtotal":1348,"Ġmus":1349,"Ġhard":1350,"Ġdri":1351,"ource":1352,"Ġchildren":1353,"view":1354,"Ġstruct":1355,"Ġquestion":1356,"Ġsearch":1357,"ited":1358,"Ġlangu":1359,"\")":1360,"Ġtype":1361,"Ġduring":1362,"nect":1363,"Ġterm":1364,"Ġwent":1365,"ips":1366,"Ġtem":1367,"Ġsort":1368,"Ġalgorithm":1369,"ense":1370,"rect":1371,"tern":1372,"cle":1373,"ins":1374,"Ġlove":1375,"Ġredu":1376,"Ġben":1377,"Ġenc":1378,"ĠĠĠĠĠĠĠĠĠĠĠĠĠĠĠ":1379,"Ġgl":1380,"Ġless":1381,"Ġlog":1382,"Ġtoget":1383,"Ġtogether":1384,"ccess":1385,"ives":1386,"Ġpartic":1387,"Ġaway":1388,"Ġvalues":1389,"ret":1390,"sc":1391,"Ġsing":1392,"Ġyears":1393,"ention":1394,"by":1395,"Ġmet":1396,"Ġstand":1397,"ety":1398,"Ġfocus":1399,"Ġcompanies":1400,"Ġlevel":1401,"Ġpay":1402,"python":1403,"oney":1404,"Ġcare":1405,"Ġfriend":1406,"Ġpotential":1407,"tain":1408,"11":1409,"Ġsentence":1410,"mon":1411,"ething":1412,"verse":1413,"Ġpol":1414,"Ġstill":1415,"ames":1416,"data":1417,"Ġpossible":1418,"ser":1419,"Ġwind":1420,"dd":1421,"Ġsince":1422,"Ġwar":1423,"ument":1424,"Ġwa":1425,"Ġsomething":1426,"cho":1427,"place":1428,"Ġrange":1429,"Ġproject":1430,"Ġallows":1431,"Ġfa":1432,"Ġchang":1433,"Ġservice":1434,"ists":1435,"Ġelse":1436,"Ġexec":1437,"Ġpublic":1438,"Ġbelie":1439,"ining":1440,"Ġdeterm":1441,"Ġcontin":1442,"ared":1443,"ream":1444,"Ġwithin":1445,"Ġcomplex":1446,"utes":1447,"ems":1448,"Ġcomb":1449,"Ġ==":1450,"ified":1451,"thing":1452,"Ġmaking":1453,"__":1454,"Ġelements":1455,"Ġspace":1456,"Ġfield":1457,"Ġlast":1458,"Ġcertain":1459,"Ġcontent":1460,"Ġproper":1461,"Ġcent":1462,"not":1463,"Ġcharacter":1464,"Ġsw":1465,"Ġâ":1466,"ision":1467,"Ġpract":1468,"Ġinde":1469,"ird":1470,"ross":1471,"Ġsoftware":1472,"Ġdat":1473,"Ġmach":1474,"Ġyear":1475,"Ġorgan":1476,"ml":1477,"Ġprev":1478,"oid":1479,"Ġcontrol":1480,"raft":1481,"ources":1482,"amp":1483,"Ġaround":1484,"py":1485,"Ġnum":1486,"Ġleft":1487,"atch":1488,"ost":1489,"Ġchange":1490,"ication":1491,"ason":1492,"12":1493,"kes":1494,"search":1495,"Ġfull":1496,"me":1497,"Ġupd":1498,"Ġindivid":1499,"Ġ&":1500,"apter":1501,"az":1502,"Ġgrow":1503,"cing":1504,"Ġtrack":1505,"pos":1506,"ways":1507,"Ġinit":1508,"play":1509,"Ġimportant":1510,"Ġ15":1511,"ank":1512,"Ġpage":1513,"Ġclo":1514,"Ġcour":1515,"Ġemplo":1516,"Ġfree":1517,"sel":1518,"Ġblock":1519,"jo":1520,"Ġener":1521,"Ġtask":1522,"Ġcond":1523,"Ġbreak":1524,"set":1525,"Ġpop":1526,"ences":1527,"Ġlanguage":1528,"Ġexamples":1529,"Ġnor":1530,"urs":1531,"let":1532,"ggest":1533,"Ġfather":1534,"erc":1535,"ood":1536,"Ġtri":1537,"ote":1538,"ered":1539,"list":1540,"ism":1541,"Ġupon":1542,"hing":1543,"Ġuntil":1544,"Ġindividual":1545,"ately":1546,"crib":1547,"imum":1548,"Ġmessage":1549,"Ġhome":1550,"aces":1551,"Ġgroup":1552,"arget":1553,"time":1554,"Ġconnect":1555,"Ġnon":1556,"Ġcommon":1557,"itions":1558,"Ġest":1559,"aut":1560,"ittle":1561,"Ġsuggest":1562,"Ġimpact":1563,"Ġinstru":1564,"ites":1565,"vir":1566,"Ġuh":1567,"Ġconsider":1568,"Ġelement":1569,"Ġphys":1570,"Ġsize":1571,"Ġcorrect":1572,"Ġai":1573,"âĢĶ":1574,"ma":1575,"ale":1576,"Ġavail":1577,"'ll":1578,"Ġsuccess":1579,"Ġocc":1580,"Ġuses":1581,"onna":1582,"Ġpost":1583,"Ġsignific":1584,"Ġtoo":1585,"Ġold":1586,"Ġlength":1587,"Ġearth":1588,"ton":1589,"ndom":1590,"Ġstat":1591,"ional":1592,"Ġlearning":1593,"Ġside":1594,"Ġenergy":1595,"Ġce":1596,"Ġlittle":1597,"Ġgame":1598,"Ġconc":1599,"ivity":1600,"Ġheart":1601,"Ġ11":1602,"Ġmar":1603,"Ġrequire":1604,"aring":1605,"Ġmeas":1606,"Ġlarge":1607,"ling":1608,"Ġmove":1609,"ming":1610,"Ġcap":1611,"Ġidea":1612,"Ġface":1613,"Ġgonna":1614,"Ġarg":1615,"Ġexperience":1616,"Ġfre":1617,"Ġexplain":1618,"Ġlim":1619,"viron":1620,"Ġstory":1621,"Ġbusinesses":1622,"port":1623,"Ġhist":1624,"Ġchall":1625,"rix":1626,"ither":1627,"Ġhour":1628,"fe":1629,"Ġdescrib":1630,"gn":1631,"Ġdra":1632,"Ġtakes":1633,",\"":1634,"ients":1635,"wh":1636,"less":1637,"Ġthought":1638,"Ġdays":1639,"Ġoften":1640,"Ġprovides":1641,"bu":1642,"count":1643,"erest":1644,"Ġimprove":1645,"Ġiss":1646,"Ġsolution":1647,"Ġmind":1648,"Ġrequest":1649,"Ġchapter":1650,"new":1651,"Ġstrate":1652,"Ġthee":1653,"\".":1654,"Ġhuman":1655,"aging":1656,"Ġclear":1657,"Ġinvol":1658,"imal":1659,"Ġwom":1660,"ze":1661,"Ġbas":1662,"Ġaccount":1663,"Ġes":1664,"Ġrece":1665,"Ġalways":1666,"els":1667,"Ġrele":1668,"Ġerror":1669,"Ġris":1670,"Ġgre":1671,"Ġvide":1672,"Ġnever":1673,"ording":1674,"Ġenviron":1675,"Ġpersonal":1676,"Ġcommand":1677,"Ġinvest":1678,"Ġsend":1679,"Ġfour":1680,"ledge":1681,"mb":1682,"Ġvers":1683,"ift":1684,"ĠâĢ¢":1685,"//":1686,"Ġonce":1687,"::":1688,"Ġensure":1689,"Ġvir":1690,"Ġmonth":1691,"cript":1692,"Ġonline":1693,"Ġjud":1694,"Ġstor":1695,"atures":1696,"Ġselect":1697,"Ġservices":1698,"Ġcustomers":1699,"ext":1700,"Ġtimes":1701,"Ġunique":1702,"Ġtook":1703,"key":1704,"Ġtree":1705,"Ġprot":1706,"inal":1707,"ination":1708,"ries":1709,"Ġavailable":1710,"Ġcharacters":1711,"iter":1712,"Ġbig":1713,"Ġmultiple":1714,"Ġsimple":1715,"Ġthread":1716,"tr":1717,"Ġdiv":1718,"Ġamong":1719,"Ġthing":1720,"man":1721,"alse":1722,"Ġcity":1723,"por":1724,"Ġfew":1725,"face":1726,"Ġmusic":1727,"ails":1728,"Ġproducts":1729,"Ġtherefore":1730,"Ġpath":1731,"Ġtre":1732,"Ġdr":1733,"Ġinterest":1734,"Ġlow":1735,"Ġred":1736,"wr":1737,"Ġdone":1738,"Ġdevelopment":1739,"Ġwants":1740,"app":1741,"Ġsaying":1742,"Ġevent":1743,"add":1744,"Ġmoney":1745,"Ġuni":1746,"yn":1747,"mm":1748,"Ġvarious":1749,"Ġanaly":1750,"Ġsound":1751,"Ġable":1752,"Ġtarget":1753,"Ġaccording":1754,"uc":1755,"Ġver":1756,"raph":1757,"Ġmeet":1758,"Ġmakes":1759,"ides":1760,"Ġ16":1761,"Ġshort":1762,"yle":1763,"Ġsingle":1764,"Ġknown":1765,"Ġdep":1766,"Ġrepresent":1767,"hip":1768,"Ġremain":1769,"ler":1770,"Ġorig":1771,"Ġprob":1772,"Ġmeans":1773,"Ġcir":1774,"ob":1775,"Ġways":1776,"Ġexpress":1777,"Ġinitial":1778,"Ġsever":1779,"Ġport":1780,"'ve":1781,"lish":1782,"ws":1783,"ilar":1784,"iving":1785,"text":1786,"Ġcult":1787,"back":1788,"('":1789,"Ġworking":1790,"Ġidentify":1791,"hor":1792,"Ġsumm":1793,"Ġnetwork":1794,"Ġtrad":1795,"Ġdigital":1796,"Ġ100":1797,"Ġrandom":1798,"onse":1799,"âĢĵ":1800,"Ġach":1801,"Ġmarketing":1802,"Ġamount":1803,"Ġgave":1804,"cuss":1805,"idd":1806,"</":1807,"Ġkind":1808,"Ġwee":1809,"Ġperformance":1810,"Ġpres":1811,"craft":1812,"Ġknowledge":1813,"Ġabove":1814,"Ġsignificant":1815,"ule":1816,"itle":1817,"Ġlearn":1818,"Ġarea":1819,"Ġstrong":1820,"know":1821,"aug":1822,"value":1823,"Ġmanagement":1824,"llo":1825,"Ġmedia":1826,"Ġtechnology":1827,"Ġneg":1828,"Ġever":1829,"Ġdepend":1830,"Ġindust":1831,"();":1832,"Ġseveral":1833,"Ġweb":1834,"Ġask":1835,"Ġenvironment":1836,"Ġlooking":1837,"Ġess":1838,"abor":1839,"Ġht":1840,"Ġspecial":1841,"omm":1842,"ee":1843,"Ġeffic":1844,"min":1845,"Ġcustomer":1846,"med":1847,"Ġhaving":1848,"15":1849,"Ġwebs":1850,"Ġpresent":1851,"Ġneeds":1852,"Ġlocal":1853,"Ġeffective":1854,"based":1855,"Ġnode":1856,"Ġlink":1857,"Ġpositive":1858,"Ġhold":1859,"Ġcook":1860,"pped":1861,"Ġ30":1862,"eter":1863,"Ġintern":1864,"Ġă":1865,"Ġwal":1866,"Ġdiscuss":1867,"],":1868,"eric":1869,"Ġmil":1870,"Ġworks":1871,"Ġbit":1872,"Ġbegin":1873,"Ġoffer":1874,"log":1875,"Ġachie":1876,"Ġgenerate":1877,"aste":1878,"Ġsell":1879,"Ġaud":1880,"Ġsimilar":1881,"ches":1882,"right":1883,"Ġhy":1884,"here":1885,"Ġopp":1886,"Ġtasks":1887,"Ġbenef":1888,"rodu":1889,"Ġrelations":1890,"Ġstudents":1891,"Ġappe":1892,"ctor":1893,"Ġfar":1894,"Ġsit":1895,"ude":1896,"Ġengine":1897,"Ġprovided":1898,"ior":1899,"oud":1900,"Ġstructure":1901,"Ġdoing":1902,"Ġapproach":1903,"Ġsqu":1904,"ready":1905,"Ġcolum":1906,"iction":1907,"erial":1908,"ript":1909,"Ġexpect":1910,"ĠĂ":1911,"Ġbal":1912,"Ġapplication":1913,"Ġresearch":1914,"Ġfore":1915,"Ġemploye":1916,"iled":1917,"Ġscript":1918,"Ġjob":1919,"air":1920,"Ġshare":1921,"way":1922,"Ġnight":1923,"Ġmachine":1924,"Ġcreating":1925,"Ġfalse":1926,"ats":1927,"load":1928,"fer":1929,"Ġfur":1930,"Ġpress":1931,"Ġdav":1932,"col":1933,"Ġ14":1934,"Ġcy":1935,"ards":1936,"ills":1937,"Ġquick":1938,"inary":1939,"Ġautom":1940,"Ġsat":1941,"Ġdeath":1942,"ilt":1943,"file":1944,"Ġcut":1945,"Ġsection":1946,"ead":1947,"Ġweight":1948,"Ġconcept":1949,"ume":1950,"Ġrunning":1951,"ql":1952,"urity":1953,"Ġbody":1954,"Ġalready":1955,"ances":1956,"no":1957,"Ġjav":1958,"verage":1959,"Ġexerc":1960,"Ġprior":1961,"Ġcolor":1962,"Ġlay":1963,"ng":1964,"Ġcomplete":1965,"Ġresults":1966,"Ġge":1967,"Ġfast":1968,"Ġaircraft":1969,"Ġfeatures":1970,"Ġiter":1971,"Ġ>":1972,"Ġvirt":1973,"Ġque":1974,"Ġsteps":1975,"ots":1976,"Ġbecome":1977,"Ġcontext":1978,"Ġelect":1979,"Ġdavid":1980,"Ġsequ":1981,"Ġmaterial":1982,"rame":1983,"att":1984,"pping":1985,"Ġeasy":1986,"Ġfamily":1987,"--------":1988,"Ġtypes":1989,"num":1990,"ysis":1991,"Ġq":1992,"Ġinstead":1993,"Ġunderstanding":1994,"Ġaff":1995,"50":1996,"off":1997,"Ġchanges":1998,"Ġloop":1999,"Ġfr":2000,"Ġcompon":2001,"Ġbuy":2002,"Ġlibr":2003,"ken":2004,"pri":2005,"Ġsor":2006,"Ġminutes":2007,"Ġ18":2008,"Ġothers":2009,"Ġexce":2010,"Ġexist":2011,"ĠĠĠĠĠĠĠĠĠĠĠĠĠĠĠĠ":2012,"Ġoptions":2013,"19":2014,"Ġoperating":2015,"ouble":2016,"Ġgraph":2017,"cent":2018,"aking":2019,"Ġreturns":2020,"Ġdel":2021,"Ġoverall":2022,"bit":2023,"Ġwon":2024,"ug":2025,"Ġbring":2026,"Ġprofess":2027,"Ġsays":2028,"Ġmill":2029,"Ġpred":2030,"Ġvariable":2031,"Ġhandle":2032,"yes":2033,"input":2034,"Ġview":2035,"ster":2036,"Ġchalleng":2037,"Ġspeed":2038,"Ġadditionally":2039,"rist":2040,"Ġleast":2041,"Ġcourse":2042,"Ġdest":2043,"Ġimage":2044,"path":2045,"Ġsomeone":2046,"sy":2047,"nding":2048,"go":2049,"Ġbi":2050,"Ġquestions":2051,"Ġinfl":2052,"ember":2053,"Ġfut":2054,"book":2055,"Ġcalculate":2056,"Ġur":2057,"://":2058,"resp":2059,"Ġindic":2060,"plic":2061,"Ġresources":2062,"selves":2063,"Ġą":2064,"Ġcomputer":2065,"usion":2066,"ges":2067,"Ġsam":2068,"Ġflight":2069,"Ġpoints":2070,"Ġheav":2071,"Ġnote":2072,"cont":2073,"Ġfurther":2074,"bal":2075,"Ġanalysis":2076,"Ġhi":2077,"arent":2078,"Ġreport":2079,"Ġnecess":2080,"Ġflo":2081,"ished":2082,"head":2083,"my":2084,"Ġintrodu":2085,"Ġphysical":2086,"Ġfinally":2087,"do":2088,"Ġpack":2089,"chool":2090,"Ġtools":2091,"Ġdetermine":2092,"ental":2093,"Ġmiss":2094,"land":2095,"Ġdoc":2096,"izing":2097,"ilities":2098,"nds":2099,"Ġload":2100,"arr":2101,"uck":2102,"istic":2103,"enc":2104,"gs":2105,"Ġvol":2106,"Ġadditional":2107,"Ġwhether":2108,"25":2109,"Ġvideo":2110,"Ġparam":2111,"ush":2112,"Ġwin":2113,"Ġbehav":2114,"Ġparticular":2115,"Ġut":2116,"utions":2117,"Ġthank":2118,"Ġalt":2119,"Ġfac":2120,"Ġvirtual":2121,"ape":2122,"Ġdisplay":2123,"Ġwait":2124,"Ġroom":2125,"Ġĉ":2126,"Ġresponse":2127,"Ġdiff":2128,"Ġmaintain":2129,"Ġdate":2130,"Ġindex":2131,"Ġposition":2132,"fra":2133,"ĠÐ":2134,"igh":2135,"ott":2136,"Ġcoll":2137,"Ġbar":2138,"fs":2139,"Ġemail":2140,"Ġstates":2141,"Ġevil":2142,"Ġnat":2143,"duct":2144,"Ġvalid":2145,"ference":2146,"Ġintegr":2147,"30":2148,"itude":2149,"Ġthus":2150,"Ġcause":2151,"Ġliving":2152,"Ġsense":2153,"Ġfire":2154,"pose":2155,"avor":2156,"body":2157,"ls":2158,"Ġreason":2159,"Ġtaken":2160,"aught":2161,"ister":2162,"itional":2163,"Ġpast":2164,"Ġrecomm":2165,"Ġincrease":2166,"Ġsou":2167,"Ġfuture":2168,"Ġmer":2169,"Ġtoday":2170,"Ġsche":2171,"pre":2172,"Ġrecommend":2173,"numb":2174,"Ġmor":2175,"iah":2176,"ised":2177,"Ġclean":2178,"Ġoptim":2179,"Ġdidn":2180,"abase":2181,"ipe":2182,"Ġlaw":2183,"16":2184,"pper":2185,"Ġspir":2186,"cription":2187,"Ġfund":2188,"itical":2189,"Ġrole":2190,"Ġcaus":2191,"Ġ%":2192,"Ġlot":2193,"Ġsales":2194,"Ġsource":2195,"Ġjour":2196,"Ġsepar":2197,"Ġpriv":2198,"Ġprime":2199,"Ġvo":2200,"Ġpie":2201,"Ġprin":2202,"ived":2203,"Ġschool":2204,"ane":2205,"Ġwebsite":2206,"dom":2207,"print":2208,"uation":2209,"Ġacross":2210,"Ġhistory":2211,"ann":2212,"Ġmeasure":2213,"Ġfriends":2214,"Ġmic":2215,"Ġhal":2216,"oss":2217,"Ġcolle":2218,"Ġhor":2219,"idence":2220,"Ġdead":2221,"Ġmot":2222,"sp":2223,"amed":2224,"Ġdem":2225,"Ġreview":2226,"Ġoperations":2227,"Ġfiles":2228,"ones":2229,"Ġsecurity":2230,"Ġnegative":2231,"itten":2232,"cu":2233,"Ġrequired":2234,"Ġblack":2235,"Ġscen":2236,"`.":2237,"ident":2238,"Ġtim":2239,"Ġlower":2240,"Ġsaw":2241,"Ġround":2242,"Ġapi":2243,"Ġpain":2244,"Ġsons":2245,"acc":2246,"Ġ13":2247,"struct":2248,"Ġcontains":2249,"ched":2250,"Ġcommunity":2251,"Ġfive":2252,"Ġconsum":2253,"Ġtravel":2254,"Ġconne":2255,"Ġmov":2256,"asing":2257,"Ġversion":2258,"Ġswe":2259,"Ġjer":2260,"Ġwriting":2261,"Ġfunctions":2262,"Ġhar":2263,"icle":2264,"Ġmom":2265,"Ġmob":2266,"ires":2267,"Ġseen":2268,"Ġchoose":2269,"Ġeyes":2270,"Ġrespons":2271,"Ġformat":2272,"Ġhappen":2273,"come":2274,"itor":2275,"ffic":2276,"Ġrout":2277,"Ġsho":2278,"Ġrul":2279,"Ġindustry":2280,"Ġevents":2281,"ww":2282,"Ġsolve":2283,"Ġactiv":2284,"Ġincor":2285,"ĠâĢĵ":2286,"Ġtaking":2287,"Ġactually":2288,"Ġaction":2289,"Ġmatrix":2290,"Ġhours":2291,"Ġrad":2292,"oh":2293,"Ġing":2294,"Ġdevice":2295,"Ġadj":2296,"nces":2297,"Ġcreated":2298,"Ġguys":2299,"Ġbase":2300,"Ġprocesses":2301,"Ġinstructions":2302,"Ġtalk":2303,".,":2304,"imate":2305,"Ġenough":2306,"Ġlab":2307,"Ġinflu":2308,"Ġtransl":2309,"Ġsn":2310,"ibility":2311,"Ġauthor":2312,"pty":2313,"Ġerr":2314,"ently":2315,"Ġglo":2316,"Ġ200":2317,"Ġcamp":2318,"Ġoriginal":2319,"ulation":2320,"Ġ25":2321,"Ġï¬ģ":2322,"Ġemot":2323,"Ġremember":2324,"cal":2325,"Ġstay":2326,"Ġcapt":2327,"Ġserver":2328,"Ġmaximum":2329,"Ġreduce":2330,"action":2331,"Ġ!":2332,"Ġdoesn":2333,"soci":2334,"Ġexperi":2335,"Ġstrateg":2336,"Ġ50":2337,"iment":2338,"type":2339,"Ġhath":2340,"Ġsorry":2341,"Ġgold":2342,"Ġjes":2343,"fect":2344,"ral":2345,"Ġstatement":2346,"Ġcommunication":2347,"Ġtown":2348,"oses":2349,"Ġmount":2350,"Ġblo":2351,"mer":2352,"Ġanything":2353,"$.":2354,"Ġeither":2355,"Ġassoci":2356,"date":2357,"ium":2358,"':":2359,"Ġdeli":2360,"tps":2361,"Ġ17":2362,"fo":2363,"conom":2364,"Ġill":2365,"Ġlive":2366,"alt":2367,"->":2368,"Ġhope":2369,"Ġfactors":2370,"14":2371,"mod":2372,"ael":2373,"Ġhands":2374,"Ġbuilt":2375,"Ġah":2376,"Ġarch":2377,"Ġbab":2378,"!!":2379,"Ġyet":2380,"point":2381,"Ġcred":2382,"index":2383,"Ġavoid":2384,"==":2385,"Ġroot":2386,"Ġvisual":2387,"Ġimplementation":2388,"su":2389,"Ġnear":2390,"Ġrecord":2391,"Ġhot":2392,"ache":2393,"ises":2394,"ortun":2395,"Ġfeet":2396,"light":2397,"orn":2398,"Ġhu":2399,"ification":2400,"Ġmatch":2401,"Ġnatural":2402,"Ġnecessary":2403,"Ġquality":2404,"iod":2405,"Ġjson":2406,"Ġmethods":2407,"side":2408,"Ġabs":2409,"Ġassign":2410,"Ġeduc":2411,"Ġtrying":2412,"icult":2413,"Ġdetails":2414,"Ġquant":2415,".\\":2416,"Ġcou":2417,"Ġrate":2418,"pu":2419,"gen":2420,"32":2421,"ney":2422,"Ġarr":2423,"Ġoccur":2424,"ask":2425,"ters":2426,"Ġpil":2427,"Ġoil":2428,"Ġgeneral":2429,"Ġfall":2430,"Ġdistrib":2431,"Ġequation":2432,"Ġhost":2433,"Ġstyle":2434,"Ġsuper":2435,"Ã©":2436,"unch":2437,"Ġameric":2438,"Ġindividuals":2439,"Ġprim":2440,"ux":2441,"Ġmich":2442,"aries":2443,"##":2444,"Ġsle":2445,"Ġdeep":2446,"Ġchrist":2447,"hn":2448,"Ġemployees":2449,"22":2450,"Ġdatabase":2451,"lex":2452,"Ġreplace":2453,"uments":2454,"Ġneeded":2455,"Ġri":2456,"Ġefficient":2457,"Ġgetting":2458,"Ġmaybe":2459,"Ġstack":2460,"Ġbelieve":2461,"Ġstop":2462,"Ġrather":2463,"Ġsave":2464,"Ġmobile":2465,"Ġtraining":2466,"itch":2467,"Ġprice":2468,"Ġcannot":2469,"Ġregular":2470,"ged":2471,"Ġeverything":2472,"ison":2473,"Ġoption":2474,"Ġpopular":2475,"izes":2476,"Ġdifficult":2477,"vern":2478,"Ġeconom":2479,"Ġbrother":2480,"iques":2481,"Ġconvert":2482,"Ġgreater":2483,"Ġachieve":2484,"ores":2485,"Ġcontrib":2486,"Ġinteger":2487,"uted":2488,"Ġsens":2489,"Ġideas":2490,"Ġdecision":2491,"Ġmeaning":2492,"ograph":2493,"Ġequal":2494,"Ġprogramming":2495,"`,":2496,"Ġsun":2497,"Ġstudy":2498,"Ġpaper":2499,"ina":2500,"Ġmanag":2501,"lt":2502,"Ġyoung":2503,"Ġbox":2504,"ernel":2505,"Ġterms":2506,"?!":2507,"Ġprevious":2508,"Ġoperation":2509,"Ġbenefits":2510,"Ġ=>":2511,"apt":2512,"Ġaverage":2513,"Ġskills":2514,"over":2515,"Ġflow":2516,"Ġdue":2517,"Ġweek":2518,"ims":2519,"Ġalong":2520,"Ġcolumn":2521,"resh":2522,"Ġwoman":2523,"zz":2524,"Ġwritten":2525,"Ġnothing":2526,"\">":2527,"Ġcompet":2528,"Ġdesigned":2529,"Ġwindows":2530,"ley":2531,"array":2532,"order":2533,"vant":2534,"Ġstra":2535,"Ġcomes":2536,"Ġeval":2537,"anced":2538,"18":2539,"])":2540,"ese":2541,"Ġtitle":2542,"Ġeat":2543,"Ġang":2544,"rop":2545,"Ġtemper":2546,"Ġlocation":2547,"Ġspirit":2548,"Ġtoward":2549,"Ġgreen":2550,"bers":2551,"Ġsched":2552,"Ġdevices":2553,"Ġcontinue":2554,"Ġcry":2555,"Ġcurrently":2556,"Ġhigher":2557,"Ġsequence":2558,"Ġtreat":2559,"Ġjesus":2560,"atic":2561,"Ġeasier":2562,"gers":2563,"Ġbeaut":2564,"Ġtechniques":2565,"Ġperiod":2566,"Ġ</":2567,"Ġconditions":2568,"Ġphil":2569,"17":2570,"Ġthanks":2571,"words":2572,"ula":2573,"Ġgovern":2574,"Ġet":2575,"Ġwatch":2576,"olution":2577,"Ġschedul":2578,"Ġsubject":2579,"ners":2580,"Ġphot":2581,"Ġnone":2582,"Ġmix":2583,"lling":2584,"Ġdisco":2585,"Ġnamed":2586,"Ġ...":2587,"Ġbehavior":2588,"Ġthird":2589,"Ġpriest":2590,"chan":2591,"Ġprote":2592,"Ġlisten":2593,"lying":2594,"ĠĠĠĠĊ":2595,"reng":2596,"itect":2597,"Ġnav":2598,"Ġfear":2599,"Ġdyn":2600,"Ġrespect":2601,"Ġ24":2602,"vent":2603,"Ġvoice":2604,"Ġcup":2605,"Ð¾":2606,"ids":2607,"Ġitems":2608,"()`":2609,"Ġmichael":2610,"Ġstandard":2611,"Ġmicro":2612,"full":2613,"Ġincludes":2614,"Ġlibrary":2615,"uff":2616,"ains":2617,"Ġfeed":2618,"this":2619,"cd":2620,"Ġsil":2621,"Ġthemselves":2622,"Ġcountry":2623,"}{":2624,"ta":2625,"Ġchallenges":2626,"Ġstreng":2627,"eters":2628,"Ġproblems":2629,"Ġcell":2630,"Ġkernel":2631,"Ġproviding":2632,"Ġclient":2633,"Ġpredict":2634,"Ġscience":2635,"23":2636,"Ġfactor":2637,"Ġwhole":2638,"Ġhardware":2639,"Ġbad":2640,"Ġground":2641,"ront":2642,"Ġholy":2643,"ault":2644,"Ġmaj":2645,"Ġrob":2646,"Ġfrequ":2647,"sequ":2648,"Ġsquare":2649,"Ġready":2650,"Ġcard":2651,"Ġbinary":2652,"Ġalgorithms":2653,"Ġsmart":2654,"\\*":2655,"Ġemb":2656,"Ġdescribe":2657,"Ġenter":2658,"bl":2659,"Ġcloud":2660,"Ġdocument":2661,"Ġda":2662,"mal":2663,"ising":2664,"rupt":2665,"Ġbound":2666,"Ġtips":2667,"Ġgoals":2668,"Ġwrong":2669,"mbol":2670,"Ġtraditional":2671,"Ġburn":2672,"ried":2673,"aling":2674,"fact":2675,"map":2676,"Ġpolic":2677,"ĠÂ":2678,"etic":2679,"Ġlimit":2680,"Ġdom":2681,"sum":2682,"Ġappropri":2683,"Ġenjo":2684,"Ġperfect":2685,"Ġseries":2686,"cre":2687,"Ġfru":2688,"ai":2689,"Åĵ":2690,"13":2691,"Ġsea":2692,"Ġsto":2693,"Ġempty":2694,"ailed":2695,"uel":2696,"Ġsong":2697,"Ġclose":2698,"Ġshows":2699,"Ġdark":2700,"omes":2701,"Ġphone":2702,"Ġissues":2703,"Ġoffers":2704,"Ġpair":2705,"Ġhalf":2706,"Ġer":2707,"Ġmechan":2708,"Ġleg":2709,"Ġquery":2710,"Ġparent":2711,"Ġwide":2712,"Ġnames":2713,"Ġconvers":2714,"ump":2715,"Ġspeak":2716,"Ġstorage":2717,"Ġlater":2718,"'d":2719,"spe":2720,"Ġpick":2721,"Ġfinan":2722,"Ġmillion":2723,"Ġbrow":2724,"ively":2725,"Ġaudience":2726,"Ġunivers":2727,"Ġaffect":2728,"Ġdifference":2729,"Ġexercise":2730,"Ġearly":2731,"Ġbur":2732,"ousand":2733,"Ġstrategies":2734,"sv":2735,"Ġeveryone":2736,"Ġprompt":2737,"size":2738,"Ġlines":2739,"Ġnull":2740,"Ġlikely":2741,"Ġupdate":2742,"Ġdynam":2743,"Ġage":2744,"aps":2745,"Ġincorpor":2746,"**":2747,"Ġthough":2748,"Ġmoses":2749,"board":2750,"Ġthousand":2751,"Ġ--":2752,"Ġability":2753,"Ġdrink":2754,"Ġrisk":2755,"iddle":2756,"Ġadded":2757,"Ġgir":2758,"Ġfinal":2759,"Ġhund":2760,"aur":2761,"Ġjava":2762,"ators":2763,"inter":2764,"Ġord":2765,"................................":2766,"100":2767,"Ġ<<":2768,"gypt":2769,"miss":2770,"Ġtransform":2771,"Ġexact":2772,"Ġhundred":2773,"Ġframe":2774,"Ġgoal":2775,"Ġfix":2776,"oura":2777,"ogn":2778,"Ġcertainly":2779,"Ġpurpose":2780,"ration":2781,"Ġdefine":2782,"Ġenjoy":2783,"Ġrow":2784,"Ġdistance":2785,"Ġegypt":2786,"frac":2787,"].":2788,"Ġdu":2789,"')":2790,"Ġrev":2791,"Ġwaste":2792,"Ġarchitect":2793,"Ġwhite":2794,"Ġentire":2795,"aching":2796,"Ġcomplexity":2797,"ffee":2798,"Ġopportun":2799,"length":2800,"idth":2801,"Ġadjust":2802,"case":2803,"gment":2804,"Ġsafe":2805,"Ġlogic":2806,"Ġjoe":2807,"Ġsatis":2808,"Ġapplications":2809,"ably":2810,"Ġfit":2811,"Ġletter":2812,"respond":2813,"ocol":2814,"Ġconnection":2815,"ories":2816,"Ġmid":2817,"ero":2818,"Ġparts":2819,"isions":2820,"ground":2821,"Ġmention":2822,"Ġremove":2823,"++":2824,"Ġwhose":2825,".)":2826,"21":2827,"Ġmi":2828,"Ġmajor":2829,"Ġpressure":2830,"ups":2831,"Ġtheory":2832,"ele":2833,"ement":2834,"Ġbread":2835,"Ġessential":2836,"osp":2837,"Ġgrowth":2838,"Ġinstall":2839,"sub":2840,"hips":2841,"Ġlat":2842,"clude":2843,"Ġenglish":2844,"Ġaltern":2845,"Ġprop":2846,"Ġrecurs":2847,"Ġheight":2848,"aves":2849,"\");":2850,"tp":2851,"tend":2852,"Ġoffering":2853,"fil":2854,"char":2855,"akes":2856,"Ġaccept":2857,"Ġtou":2858,"hen":2859,"Ġsymbol":2860,"Ġvi":2861,"Ġinside":2862,"Ġassist":2863,"Ġnut":2864,"Ġareas":2865,"Ġbaby":2866,"hers":2867,"Ġinstance":2868,"Ġcoffee":2869,"Ġyourself":2870,"Ġedge":2871,"odes":2872,"Ġnews":2873,"Ġcorrespond":2874,"fully":2875,"Ġappropriate":2876,"Ġactivities":2877,"but":2878,"Ġled":2879,"Ġprograms":2880,"Ġconstant":2881,"Ġcollabor":2882,"Ġscient":2883,"Ġdefin":2884,"Ġcases":2885,"Ġgar":2886,"wise":2887,"het":2888,"Ġitem":2889,"Ġdam":2890,"Ġprivate":2891,"ned":2892,"Ġblue":2893,"Ġprobability":2894,"Ġross":2895,"Ġwhom":2896,"ica":2897,"Ġclick":2898,"Ġingred":2899,"Ġglobal":2900,"Ġencoura":2901,"Ġvariables":2902,"Ð°":2903,"Ġcate":2904,"Ġgives":2905,"Ġobser":2906,"ging":2907,"Ġinstruction":2908,"Ġfinancial":2909,"hens":2910,"Ġstd":2911,"Ġallowing":2912,"Ġfib":2913,"oken":2914,"Ġdirectly":2915,"uth":2916,"\";":2917,"ogle":2918,"Ġobjects":2919,"cer":2920,"Ġten":2921,"Ġdraw":2922,"Ġrecogn":2923,"Ġcam":2924,"usal":2925,"Ġveget":2926,"Ġbasic":2927,"Ġdisk":2928,"Ġrelated":2929,"gre":2930,"Ġprevent":2931,"gest":2932,"Ġfeature":2933,"Ġinn":2934,"Ġfine":2935,"ored":2936,"Ġdoor":2937,"Ġpractice":2938,"medi":2939,"Ġbrand":2940,"Ġ?":2941,"oups":2942,"Ġum":2943,"Ġoffice":2944,"Ġexpected":2945,"Ġheat":2946,"comp":2947,"empt":2948,"Ġmembers":2949,"Ġant":2950,"Ġdiction":2951,"Ġcover":2952,"fun":2953,"Ġsix":2954,"ression":2955,"Ġinteract":2956,"ffer":2957,"Ġarticle":2958,"cket":2959,"ological":2960,"Ġfail":2961,"Ġimag":2962,"Ġanalyze":2963,"ascript":2964,"ĠâĪ":2965,"Ġlen":2966,"vered":2967,"box":2968,"aign":2969,"user":2970,"Ġstrength":2971,"rel":2972,"['":2973,"Ġstrings":2974,"Ġcalls":2975,"Ġbelow":2976,"Ġadding":2977,"sole":2978,"usalem":2979,"Ġjerusalem":2980,":\\":2981,"Ġconsist":2982,"Ġstream":2983,"clusion":2984,"Ġestab":2985,"Ġattack":2986,"Ġshown":2987,"Ġunited":2988,"Ġparty":2989,"Ġ40":2990,"Ġjudah":2991,"Ġimages":2992,"Ġcommunic":2993,"Ġrequirements":2994,"Ġblood":2995,"Ġquickly":2996,"uro":2997,"Ġwall":2998,"Ġproperty":2999,"Ġcampaign":3000,"Ġseed":3001,"Ðµ":3002,"Ġsorted":3003,"ĠÃ":3004,"room":3005,"Ġsolutions":3006,"Ġchoice":3007,"aced":3008,"result":3009,"Ġhimself":3010,"Ġmodify":3011,"Ġseem":3012,"Ġcla":3013,"Ġdw":3014,"45":3015,"Ġlin":3016,"most":3017,"Ġinterface":3018,"Ġsleep":3019,"Ġ+=":3020,"Ġwalk":3021,"60":3022,"Ġbill":3023,"Ġshared":3024,"Ġdirectory":3025,"Ġcat":3026,"Ġmother":3027,"Ġ$\\":3028,"Ġattrib":3029,"Ġmatter":3030,"Ġdream":3031,"uration":3032,"ring":3033,"inst":3034,"where":3035,"fort":3036,"Ġcoming":3037,"Ġmodern":3038,"Ġinsert":3039,"edd":3040,"Ġfoot":3041,"Ġengage":3042,"Ġformula":3043,"Ġden":3044,"ller":3045,"Ġguide":3046,"Ġnavig":3047,"200":3048,"Ġstarted":3049,"Ġamaz":3050,"Ġwomen":3051,"Ġguy":3052,"Ġstudent":3053,"Ġ},":3054,"ius":3055,"Ġmag":3056,"Ġrestaur":3057,"Ġmental":3058,"Ġcool":3059,"ny":3060,"aches":3061,"Ġproced":3062,"Ġprotect":3063,"Ġevalu":3064,"div":3065,"Ġuniverse":3066,"Ġshalt":3067,"Ġsetting":3068,"40":3069,"top":3070,"ym":3071,"Ġsust":3072,"plit":3073,"Ġassociated":3074,"Ġcompre":3075,"change":3076,"Ġlonger":3077,"Ġtemperature":3078,"Ġpeace":3079,"json":3080,"Ġdouble":3081,"Ġminimum":3082,"Ġ@":3083,"Ġcondition":3084,"Ġchick":3085,"cks":3086,"Ġstarting":3087,"like":3088,"Ġbud":3089,"ik":3090,"la":3091,"tra":3092,"Ġrelationship":3093,"care":3094,"Ġhello":3095,"Ġenh":3096,"Ġsweet":3097,"Ġdaught":3098,"Ġjohn":3099,"Ġintegers":3100,"Ġalloc":3101,"ties":3102,"Ġvariety":3103,"Ġfamil":3104,"Ġcross":3105,"Ġrelevant":3106,"sort":3107,"ury":3108,"Ġscre":3109,"Ġmodels":3110,"Ġbow":3111,"Ġlevels":3112,"Ġphr":3113,"Ġhappy":3114,"Ġprep":3115,"Ġpun":3116,"Ġhear":3117,"Ġann":3118,"Ġball":3119,"Ġbooks":3120,"Ġplaces":3121,"Ġthroughout":3122,"Ġissue":3123,"?\"":3124,"Ġcenter":3125,"sec":3126,"ival":3127,"Ġseven":3128,"];":3129,"Ġmaterials":3130,"uce":3131,"imately":3132,"Ġsubst":3133,"Ġattention":3134,"cast":3135,"Ġcra":3136,"Ġrecipe":3137,"Ġvar":3138,"0000":3139,"bt":3140,"Ġones":3141,"Ġexpression":3142,"ued":3143,"Ġdetailed":3144,"ugg":3145,"Ġfavor":3146,"Ġupdated":3147,"Ġsustain":3148,"Ġ,":3149,"Ġcand":3150,"ĠĠĠĠĠĠĠĠĠ":3151,"Ġtables":3152,"Ġreach":3153,"Ġbutton":3154,"lection":3155,"Ġthinking":3156,"Ġtypically":3157,"Ġdescription":3158,"ension":3159,"Ġcritical":3160,"Ġcredit":3161,"Ġaspect":3162,"Ġhtml":3163,"ians":3164,"Ġmass":3165,"Ġpriority":3166,"Ġitself":3167,"Ġcollect":3168,"Ġrequires":3169,"ply":3170,"Ġextract":3171,"Ġcru":3172,"Ġheard":3173,"Ġconsole":3174,"Ġstrategy":3175,"Ġpan":3176,"Ġcomponents":3177,"rt":3178,"oe":3179,"ief":3180,"Ġbecame":3181,"Ġhon":3182,"Ġsoci":3183,"Ġcosts":3184,"Ġexperiences":3185,"Ġsources":3186,"Ġexplan":3187,"Ġeffects":3188,"number":3189,"unt":3190,"Ġ**":3191,"tes":3192,"llig":3193,"Ġbalance":3194,"istics":3195,"Ġpercent":3196,"Ġsimpl":3197,"Ġbrought":3198,"Ġcomprehens":3199,"html":3200,"Ġpilot":3201,"80":3202,"Ġbott":3203,"write":3204,"Ġeasily":3205,"Ġrod":3206,"Ġrepe":3207,"Ġwow":3208,"Ġnice":3209,"Ġeffort":3210,"rs":3211,"Ġdesired":3212,"max":3213,"rie":3214,"round":3215,"Ġturned":3216,"24":3217,"iation":3218,"Ġtold":3219,"Ġgoogle":3220,"Ġseems":3221,"Ġsyn":3222,"Ġpages":3223,"Ġpurch":3224,"af":3225,"js":3226,"Ġnature":3227,"Ġimportance":3228,"Ġtrust":3229,"uction":3230,"Ġplayer":3231,"hold":3232,"step":3233,"Ġutil":3234,"ying":3235,"Ġdeal":3236,"Ġoutside":3237,"Ġpattern":3238,"Ġassum":3239,"Ġbehind":3240,"Ġinvolves":3241,"Ġforward":3242,"Ġsummary":3243,"idered":3244,"ferences":3245,"Ġfaith":3246,"Ġprogress":3247,"Ġingredients":3248,"Ġdictionary":3249,"des":3250,"ÑĤ":3251,"Ġvert":3252,"Ġmodule":3253,"Ġange":3254,"irth":3255,"Ġrules":3256,"Ġleave":3257,"Ġaccur":3258,"angle":3259,"Ġcub":3260,"Ġcpu":3261,"Ġtur":3262,"Ġweather":3263,"product":3264,"node":3265,"Ġstatic":3266,"Ġtransport":3267,"Ġband":3268,"Ġvoid":3269,"Ġagre":3270,"Ġsatisf":3271,"test":3272,"Ġfra":3273,"mit":3274,"Ġpow":3275,"Ġproduce":3276,"Ġconsidered":3277,"Ġsets":3278,"matrix":3279,"Ġgames":3280,"Ġtalking":3281,"ork":3282,"Ġsecret":3283,"itting":3284,"Ġclos":3285,"Ġmorning":3286,"ball":3287,"Ġprofessional":3288,"Ġfeedback":3289,"Ġplant":3290,"Ġban":3291,"andler":3292,"Ġ32":3293,"Ġexpand":3294,"Ġseparate":3295,"with":3296,"Ġfight":3297,"Ġgroups":3298,"Ġcopy":3299,"Ġpark":3300,"code":3301,"Ġrom":3302,"Ġdecisions":3303,"Ġchat":3304,"Ġremov":3305,"vation":3306,"Ġmovie":3307,"Ġjoey":3308,"Ġgiving":3309,"Ġsituation":3310,"requ":3311,"Ġpromot":3312,"cur":3313,"level":3314,"tex":3315,"Ġconfig":3316,"Ġsurface":3317,"Ġtrees":3318,"iring":3319,"Ġreflect":3320,"Ġhelping":3321,"Ġforce":3322,"Ġegg":3323,"Ġanim":3324,"osed":3325,"Ġfollows":3326,"Ġmedical":3327,"Ġcomponent":3328,"Ġfront":3329,"oring":3330,"Ġjourney":3331,"you":3332,"Ġ21":3333,"Ġapprox":3334,"artment":3335,"Ġsimply":3336,"use":3337,"Ġconclusion":3338,"Ġadapt":3339,"Ġleading":3340,"Ġguess":3341,"Ġund":3342,"Ġsides":3343,"Ġbehold":3344,"Ġsounds":3345,"rief":3346,"Ġresource":3347,"Ġreceive":3348,"Ġdemand":3349,"Ġeducation":3350,"othes":3351,"Ġincreased":3352,"Ġlives":3353,"Ġschedu":3354,"Ġemer":3355,"Ġ;":3356,"what":3357,"Ġsmo":3358,"Ġreading":3359,"Ġjim":3360,"ĠĠĠĠĠĠĠĠĠĠĠĠĠĠĠĠĠĠĠ":3361,"alle":3362,"query":3363,"def":3364,"!\"":3365,"Ġtag":3366,"Ġlets":3367,"Ġmoment":3368,"Ġsmaller":3369,"']":3370,"64":3371,"Ġusually":3372,"cially":3373,"Ġwife":3374,"izations":3375,"Ġextra":3376,"Ġpractices":3377,"Ġserve":3378,"Ġtesting":3379,"works":3380,"Ġnp":3381,"Ġactivity":3382,"Ġwat":3383,"Ġwood":3384,"chel":3385,"Ġsomet":3386,"Ġintellig":3387,"Ġinnov":3388,"Ġter":3389,"Ġsalt":3390,"Ġbird":3391,"Ġarm":3392,"Ġmeeting":3393,"\"]":3394,"Ð¸":3395,"Ġprojects":3396,"Ġgovernment":3397,"Ġrich":3398,"Ġmonitor":3399,"down":3400,"Ġlarger":3401,"Ġanyone":3402,"actions":3403,"Ġusage":3404,"Ġexcept":3405,"cles":3406,"Ġlooks":3407,"Ġguid":3408,"semb":3409,"agram":3410,"Ġpoly":3411,"Ġsecure":3412,"lete":3413,"Ġcreates":3414,"iency":3415,"Ġdog":3416,"Ġtruth":3417,"Ġ60":3418,"Ġdie":3419,"Ġimmedi":3420,"friend":3421,"Ġox":3422,"eness":3423,"xa":3424,"Ġcompare":3425,"Ġamerican":3426,"Ġgoes":3427,"Ġprocessing":3428,"Ġhighlight":3429,"Ġmanager":3430,"elt":3431,"class":3432,"Ġactual":3433,"Ġexplore":3434,"Ġsuccessful":3435,"gar":3436,"rap":3437,"Ġmiddle":3438,"pecially":3439,"ura":3440,"Ġbirth":3441,"Ġdise":3442,"Ġhyp":3443,"Ġquantum":3444,"Ġconstruct":3445,"Ġ:=":3446,"opt":3447,"Ġevidence":3448,"Ġseason":3449,"Ġrelationships":3450,"Ġmis":3451,"Ġstress":3452,"ulate":3453,"Ġservant":3454,"process":3455,"resents":3456,"\\*\\*":3457,"your":3458,"Ġsql":3459,"Ġproduction":3460,"Ġfruit":3461,"Ġlinked":3462,"pass":3463,"Ġurl":3464,"Ġmap":3465,"Ġheaven":3466,"Ġremote":3467,"Ġbits":3468,"outh":3469,"iful":3470,"gra":3471,"Ġparticip":3472,"Ġfields":3473,"ford":3474,"Ġspecified":3475,"Ġbran":3476,"Ġsaith":3477,"Ġapply":3478,"Ġfresh":3479,"Ġrepresents":3480,"oo":3481,"https":3482,"Ġuseful":3483,"lished":3484,"Ġvisit":3485,"Ġcast":3486,"Ġcontract":3487,"Ġlinear":3488,"ana":3489,"ights":3490,"Ġexisting":3491,"valid":3492,"Ġcultural":3493,"Ġforth":3494,"Ġdemon":3495,"Ġsaf":3496,"Ġchecks":3497,"next":3498,"Ġproperties":3499,"Ġstri":3500,"append":3501,"Ġrachel":3502,"Ġsubt":3503,"Ġbackground":3504,"Ġfill":3505,"Ġinf":3506,"Ġreward":3507,"Ġespecially":3508,"Ġcorresponding":3509,"Ġpray":3510,"part":3511,"Ġwanted":3512,"pers":3513,"($":3514,"Ġprocessor":3515,"Ġpassage":3516,"uly":3517,"Ġunit":3518,"Ġsometimes":3519,"Ġreven":3520,"Ġdrive":3521,"Ġpiece":3522,"Ġgone":3523,"Ġdefault":3524,"Ġclients":3525,"Ġargument":3526,"Ġsouth":3527,"Ġteams":3528,"Ġ]":3529,"Ġprinci":3530,"Ġ!=":3531,"Ġ<=":3532,"though":3533,"Ġrepl":3534,"itable":3535,"Ġtax":3536,"ara":3537,"Ġgain":3538,"ously":3539,"Ġeffectively":3540,"Ġrock":3541,"Ġadvant":3542,"Ġcircu":3543,"mess":3544,"item":3545,"abel":3546,"ensive":3547,"Ġdecre":3548,"ln":3549,"hest":3550,"ustr":3551,"Ġimm":3552,"Ġdynamic":3553,"Ġscheduling":3554,"she":3555,"Ġcountries":3556,"Ġthreads":3557,"Ġ\\*":3558,"Ġregist":3559,"Ġbed":3560,"99":3561,"osh":3562,"Ġcache":3563,"Ġcomfort":3564,"Ġmagn":3565,"Ġprimary":3566,"Ġdim":3567,"len":3568,"any":3569,"Ġtrain":3570,"Ġexactly":3571,"Ġregard":3572,"Ġappear":3573,"Â°":3574,"Ġactions":3575,"Ġrule":3576,"hemat":3577,"Ġkept":3578,"Ġ[]":3579,"Ġincreasing":3580,"Ġtowards":3581,"Ġcontact":3582,"Ġqueue":3583,"Ġdivid":3584,"Ġattempt":3585,"Ġinternet":3586,"Ġarchitecture":3587,"Ġpra":3588,"ipp":3589,"ted":3590,"conf":3591,"Ġculture":3592,"Ġliter":3593,"iling":3594,"Ġmessages":3595,"inct":3596,"Ġbank":3597,"ole":3598,"Ġinterrupt":3599,"field":3600,"Ġmode":3601,"Ġpowerful":3602,"},":3603,"hello":3604,"Ġtheore":3605,"Ġmentioned":3606,"irm":3607,"une":3608,"Ġsett":3609,"$,":3610,"Ġcapital":3611,"Ġparameters":3612,"^^":3613,"net":3614,"aa":3615,"Ġcomprehensive":3616,"ðŁ":3617,"ologies":3618,"Ġwaiting":3619,"dis":3620,"equ":3621,"Ġsafety":3622,"Ġaims":3623,"Ġpict":3624,"encies":3625,"][":3626,"Ġuniversity":3627,"eous":3628,"Ġslow":3629,"Ġdwight":3630,"urance":3631,"Ġmultip":3632,"29":3633,"Ġdry":3634,"Ġknew":3635,"Ġmoving":3636,"Ġdemonstr":3637,"Ġhash":3638,"Ġvertex":3639,"more":3640,"Ġcities":3641,"ĠĠĠĠĠĠ":3642,"Ġexplanation":3643,"olute":3644,"cient":3645,"onacc":3646,"flow":3647,"Ġsan":3648,"start":3649,"ession":3650,"zy":3651,"Ġcheese":3652,"Ġdetect":3653,"Ġstatus":3654,"Ġfaster":3655,"Ġsite":3656,"acy":3657,"Ġregion":3658,"Ġdaily":3659,"33":3660,"Ġwine":3661,"terns":3662,"Ġfair":3663,"Ġalthough":3664,"astic":3665,"Ġexecut":3666,"Ġhol":3667,"ached":3668,"Ġprec":3669,"que":3670,"abilities":3671,"Ġinsp":3672,"itation":3673,"Ġzero":3674,"Ġmonths":3675,"Ġspread":3676,"Ġisn":3677,"amb":3678,"Ġalternative":3679,"Ġhealthy":3680,"Ġbeautiful":3681,"bb":3682,"etch":3683,"Ġstuff":3684,"Ġpropos":3685,"\\_\\_":3686,"Ġexecution":3687,"raint":3688,"Ġbecomes":3689,"Ġremaining":3690,"Ġservants":3691,"Ġparticularly":3692,"Ġerrors":3693,"ung":3694,"Ġwest":3695,"Ġbreat":3696,"phas":3697,"Ġfilm":3698,"Ġstored":3699,"Ġwonder":3700,"sl":3701,"Ġmanaging":3702,"Ġaware":3703,"onacci":3704,"loc":3705,"Ġmathemat":3706,"Ġraise":3707,"Ġcontaining":3708,"mark":3709,"Ġboard":3710,"attle":3711,"enge":3712,"Ġinputs":3713,"free":3714,"Ġmouth":3715,"Ġnations":3716,"Ġsharing":3717,"Ġlayer":3718,"Ġfinding":3719,"Ġsignal":3720,"Ġorders":3721,"Ġtoken":3722,"Ġhair":3723,"Ġinvolved":3724,"anna":3725,"Ġmath":3726,"Ġgets":3727,"Ġcreative":3728,"Ġlift":3729,"Ġreference":3730,"ternal":3731,"Ġvia":3732,"Ġmyself":3733,"Ġhoney":3734,"Ġoffic":3735,"system":3736,"db":3737,"Ġeast":3738,"Ġkeys":3739,"apan":3740,"Ġ_":3741,"ception":3742,"Ġhast":3743,"phone":3744,"Ġconcern":3745,"Ġdepending":3746,"Ġder":3747,"enty":3748,"Ġstructures":3749,"Ġsauce":3750,"Ġloss":3751,"title":3752,"rc":3753,"sql":3754,"Ġep":3755,"gory":3756,"Ġult":3757,"Ġstre":3758,"Ġjac":3759,"Ġemphas":3760,"Ġobtain":3761,"Ġdirection":3762,"Ġchicken":3763,"Ġkingdom":3764,"ops":3765,"Ġfuel":3766,"Ġmeal":3767,"ordin":3768,"Ġabsolute":3769,"Ġtouch":3770,"Ġchann":3771,"struction":3772,"Ġbroken":3773,"Ġneither":3774,"Ġ22":3775,"Ġplatforms":3776,"arily":3777,"oper":3778,".âĢĿ":3779,"Ġcert":3780,"enced":3781,"ham":3782,"Ġregister":3783,"lly":3784,"osing":3785,"Ġretail":3786,"df":3787,"Ġwild":3788,"Ġchandler":3789,"Ġmiles":3790,"anc":3791,"Ġnorth":3792,"allel":3793,"Ġpatterns":3794,"Ġpolicy":3795,"65":3796,"Ġstage":3797,"Ġ->":3798,"Ġotherwise":3799,"term":3800,"Ġcomputing":3801,"lesh":3802,"ban":3803,"Ġtrib":3804,"Ġhistor":3805,"include":3806,"Ġrent":3807,"ctors":3808,"Ġcirc":3809,"Ġlinux":3810,"Ġclimate":3811,"Ġdivide":3812,"Ġlists":3813,"Ġsample":3814,"Ġscenari":3815,"Ġscreen":3816,"Ġletters":3817,"Ġprem":3818,"Ġpassword":3819,"ighb":3820,"Ġpret":3821,"Ġpsy":3822,"ams":3823,"anger":3824,"Ġcolors":3825,"Ġoptimal":3826,"Ġparameter":3827,"Ġrevenue":3828,"Ġpal":3829,"Ġstraight":3830,"Ġscore":3831,"Ġroad":3832,"ipment":3833,"Ġtransfer":3834,"Ġcompar":3835,"Ġdeveloping":3836,"Ġwarm":3837,"75":3838,"bon":3839,"jav":3840,"ses":3841,"Ġmist":3842,"ufact":3843,"Ġexecute":3844,"mt":3845,"Ġble":3846,"Ġlock":3847,"Ġhealthcare":3848,"Ġrequests":3849,"da":3850,"rst":3851,"urt":3852,"Ġresulting":3853,"Ġfocused":3854,"Ġcycle":3855,"Ġnormal":3856,"asons":3857,"Ġstar":3858,"illed":3859,"Ġretrie":3860,"Ġlimited":3861,"vin":3862,"state":3863,"select":3864,"Ġdecl":3865,"Ġjapan":3866,"Ġjoy":3867,"ont":3868,"icing":3869,"Ġexc":3870,"Ġcounter":3871,"Ġindepend":3872,"Ġpen":3873,"Ġtraffic":3874,"Ġfat":3875,"Ġflex":3876,"Ġmaster":3877,"true":3878,"element":3879,"Ġtick":3880,"Ġsand":3881,"Ġplans":3882,"34":3883,"Ġadvert":3884,"Ġram":3885,"Ġlost":3886,"Ġir":3887,"asure":3888,"url":3889,"Ġadmin":3890,"vi":3891,"Ġeuro":3892,"Ġjacob":3893,"Ġgirl":3894,"nam":3895,"Ġrot":3896,"Ġperspect":3897,"Ġrelative":3898,"Ġallowed":3899,"Ġjourn":3900,"table":3901,"trans":3902,"Ġinvent":3903,"Ġalright":3904,"Ġworth":3905,"Ġ80":3906,"Ġvector":3907,"sm":3908,"orm":3909,"bre":3910,"oint":3911,"inner":3912,"Ġfif":3913,"ba":3914,"Ġbrain":3915,"Ġinteresting":3916,"Ġsty":3917,"Ġalph":3918,"Ġmanufact":3919,"color":3920,"Ġodd":3921,"left":3922,"Ġtrade":3923,"Ġconstraint":3924,"Ñģ":3925,"Ġmotiv":3926,"Ġreceived":3927,"vice":3928,"70":3929,"Ġmine":3930,"Ġnumer":3931,"Ġetc":3932,"Ġintelligence":3933,"Ġpet":3934,"Ġbless":3935,"Ġfish":3936,"Ġpoem":3937,"Ġencry":3938,"Ġglory":3939,"Ġtent":3940,"cending":3941,"Ġsport":3942,"Ġstudies":3943,"Ġreli":3944,"Ġsuppose":3945,"Ġtopic":3946,"Ġillustr":3947,"Ġ23":3948,"Ġtrouble":3949,"Ġblocks":3950,"Ġbat":3951,"world":3952,"90":3953,"arc":3954,"Ġenable":3955,"cious":3956,"Ġfathers":3957,"Ġvan":3958,"Ġ26":3959,"Ġmac":3960,"Ġmilk":3961,"init":3962,"create":3963,"Ġcm":3964,"Ġchart":3965,"Ġdatas":3966,"ek":3967,"Ġfacebook":3968,"iced":3969,"Ġgate":3970,"Ġdefined":3971,"Ġreality":3972,"Ġadvanced":3973,"Ġelectric":3974,"host":3975,"Ġthrow":3976,"Ġmonica":3977,"Ġdevelopers":3978,"Ġcompute":3979,"Ġviol":3980,"Ġapple":3981,"Ġtom":3982,"icles":3983,"hent":3984,"Ġ###":3985,"Ġgenerally":3986,"ulations":3987,"Ġcontra":3988,"Ġjavascript":3989,"iveness":3990,"clus":3991,"Ġapps":3992,"Ġorganization":3993,"aw":3994,"Ġgard":3995,"Ġfeeling":3996,"Ð½":3997,"www":3998,"Ġdeveloped":3999,"Ġpromote":4000,"Ġchallenge":4001,"Ġprocedure":4002,"Ġham":4003,"Ġplanning":4004,"numbers":4005,"Ġeconomic":4006,"pret":4007,"Ġskin":4008,"Ġasked":4009,"Ġremind":4010,"yed":4011,"Ġparallel":4012,"Ġplayers":4013,"Ġconnected":4014,"dat":4015,"Ġsold":4016,"chron":4017,"oding":4018,"[\"":4019,"ened":4020,"Ġrighteous":4021,"Ġengineering":4022,"ĠĠĊ":4023,"stat":4024,"Ġaccom":4025,"za":4026,"Ġforms":4027,"Ġsoul":4028,"println":4029,"Ġhighest":4030,"Ġcombination":4031,"Ġemotional":4032,"main":4033,"Ġ\"\"":4034,"Ġ28":4035,"qrt":4036,"reci":4037,"image":4038,"Ġreverse":4039,"token":4040,"Ġengaging":4041,"message":4042,"Ġpu":4043,"irect":4044,"Ġswitch":4045,"Ġinternational":4046,"Ġrefer":4047,"year":4048,"Ġreducing":4049,"Ġhandling":4050,"/.":4051,"hel":4052,"aving":4053,"dddd":4054,"Ġwanna":4055,"Ġpam":4056,"Ġnu":4057,"Ġneighb":4058,"Ġexpert":4059,"Ġlate":4060,"Ġsolar":4061,"Ġchoices":4062,"Ġefficiency":4063,"met":4064,"cccc":4065,"Ġthereof":4066,"Ġexercises":4067,"Ġbrief":4068,"Ġfilter":4069,"Ġdaughter":4070,"math":4071,"lebr":4072,"Ġlif":4073,"Ġpayment":4074,"Ġdepth":4075,"mission":4076,"Ġmal":4077,"Ġopportunities":4078,"Ġfloat":4079,"Ġeye":4080,"Ġschedule":4081,"Ġassemb":4082,"api":4083,"find":4084,"Ġcrow":4085,"unk":4086,"Ġexception":4087,"Ġsustainable":4088,"aph":4089,"Ġassess":4090,"Ġip":4091,"Ġprotocol":4092,"Ġwis":4093,"Ġteac":4094,"ares":4095},"merges":["Ġ t","Ġ a","h e","i n","Ġt he","r e","Ġ s","o n","Ġ c","e r","a t","Ġ w","Ġ o","Ġ Ġ","n d","Ġ i","Ġ p","e s","Ġ f","o r","Ġ b","Ġ m","e n","o u","in g","Ġa nd","Ġ d","a n","Ġt o","a l","Ġ in","i t","l e","Ġo f","a r","Ġt h","Ġ h","e d","s t","i on","r o","i c","Ġ n","Ġ e","Ġ l","Ġ y","Ġ g","i s","Ġ re","a s","en t","c t","o m","Ġ u","v e","Ġi s","l l","ĠĠ ĠĠ","Ġy ou","e t","u t","Ġf or","o w","Ġth at","s e","Ġs t","Ġb e","r a","o t","i d","Ġ Ċ","c e","Ġ he","i g","l y","Ġi t","Ġ on","c h","i m","Ġw h","a m","at ion","a y","it h","Ġp ro","u r","i l","i r","Ġa n","v er","o d","Ġw ith","a d","Ġw e","o l","Ġc on","ĠĠ Ġ","at e","Ġa s","Ġ 1","k e","Ġc om","er s",". .","u m","g e","es s","Ġs e","Ġd e","u l","Ġ v","Ġc an","Ġe x","Ġ \"","r i","Ġ j","â Ģ","Ġa re","Ġh a","q u","Ġth is","Ġo r","i f","a b","l d","p e","t h","Ġ r","Ġ =","e m","h t","Ġc h","es t","he r","n t","Ġs u","o re","Ġs h","c k","Ġ (","Ġu s","p le","m ent","i st","u s","i ll","u n","Ġn e","p p","i ve","t er","a in","Ġ le","Ġ 2","Ġ k","re s","ct ion","Ġn ot","ar t","Ġm e","ro m","p t","ig ht","an t","Ġa l","it y","Ġb y","Ġyou r","l o","Ġm a","i v","Ġf rom","Ġ `","Ġd o","Ġha ve","' s","al l","ou ld","Ġa ll","or t","e l","u st","Ġi f","Ġw or","a ge","i es","a nd","o s","ĠĠĠĠ ĠĠĠ","Ġs o","u re","Ġa t","Ġa d","Ġl o","âĢ Ļ","Ġthe ir","Ġ -","Ġp l","Ġw he","Ġin t","p l","in e","Ġi m","Ġthe y","ou t","u d","Ġw ill","i z","Ġa b","Ġ en","Ġwh at","p er","Ġw as","am e","Ġg o","i al","0 0","f or","Ġcom p","i e","e ct","Ġt e","re d","Ġ 3","in d","c c","ic h","Ġa r","u e","id e","Ġb ut","Ġh ow","im e","om e","Ġm an","i le","ab le","o k","Ġm y","Ġo ut","for m","in t","Ġcon t","ou r","Ġt r","a g","Ġu p","ul t","ar d","p s","f f","a re","a ch","a ct","al ly","as e","Ġthe m","Ġs a","Ġl i","a st","t her","Ġwh ich","d u","or d","Ġthe re","Ġc o","Ġu n","a ck","Ġh as","Ġre s","Ġh is","c l","Ġn o",".. ..","ic e","ou nd","on e","a ce","Ġ qu","Ġon e","Ġs y","ion s","Ġm ore","Ġst r","um b","ation s","Ġc l","ou g","Ġs c","n ow","a k","re at","as s","ig n","Ġwh o","a h","Ġad d","a c","an ce","en ce","Ġp r","Ġf o","ur n","Ġa pp","Ġ ro","Ġp e","s o","a p","Ġf e","an s","Ġhe l","on g","b le","Ġwhe n","it e","ou s","ou nt","od e","Ġ 4","Ġp o","Ġu se","at a","x t","Ġm o","Ġf un","Ġli ke","Ġim p","a v","Ġt ime","e re","Ġe v","or y","Ġs pe","Ġ {","Ġab out","Ġd is","Ġ 5","Ġs p","e p","Ġ 0","Ġ $","Ġst art","Ġs ome","st em","ĠĠĠĠ ĠĠĠĠ","Ġn umb","Ġo ther","Ġd es","Ġy e","Ġa m","at ed","i re","il d","Ġp er","r y","ic al","ra m","Ġpro v","ar y","Ġk now","it ion","p ut","c on","res s","Ġan y","Ġb u","a u","u p","t e","d e","st r","Ġwor k","Ġs er","ing s","c ess","Ġv al","Ġsy stem","Ġ` `","Ġre t","Ġne w","Ġ`` `","Ġfun ction","ent s","Ġt ra","Ġint o","Ġo ver","Ġa cc","o g","Ġt w","oug h","Ġe m","Ġe ach","Ġma ke","Ġg et","an g","ver y","re e","Ġpe o","Ġthe n","w e","Ġh im","at h","Ġpeo ple","Ġthe se","c es","le d","Ġ }","Ġd ata","Ġcom m","Ġal so","p h","et h","- -","( )","if ic","Ġus ing","i p","Ġth an","Ġle t","f t","Ġ ke","f ere","' t","Ġbe c","Ġw ould","or s","g et","a il","Ġs he","Ġ âĢ","Ġhe re","Ġex am","Ġp re","Ġhel p","ay s","in k","Ġne ed","ar i","Ġ ra","ar k","Ġsh ould","Ġw r","Ġ |","Ġm ay","Ġb et","cl ud","a ke","Ġhe r","Ġret urn","Ġp art","Ġp h","Ġ #","Ġa g","\" ,","Ġof f","Ġc re","Ġ <","Ġd if","Ġj ust","ic k","nd er","o se","l f","Ġs et","Ġb o","Ġl ist","u b","n e","ment s","Ġ +","Ġit s","Ġnumb er","l es","iz e","au se","Ġre c","j ect","Ġwe re","Ġ x","Ġ [","Ġtw o","Ġin ter","u al","Ġm od","y s","at es","Ġw ant","Ġpro cess","l ic","Ġpro du","en s","Ġ '","Ġspe c",") ;","Ġc ode","f ore","Ġcomp an","ir st","Ġwhe re",".. .","er t","Ġsu ch","ar s","o p","Ġin clud","Ġcon s","Ġ 6","Ġde f","at ing","Ġh ad","Ġs m","Ġ /","\\ _","is e","ol d","Ġwe ll","n ing","Ġf l","Ġpro g","e nd","Ġp os","Ġ *","Ġu nt","Ġc al","Ġsa id","an ge","ĠĠĠĠ ĠĠĠĠĠĠĠ","as ed","Ġf irst","Ġcre ate","Ġus ed","Ġwor d","Ġin d","Ġe le","Ġg iv","Ġc ould","ver s","re ad","i a","Ġo ur","ll ow","Ġg en","ri b","Ġm at","Ġr ight","Ġdif fere","ad e","ow n","Ġin c","Ġth r",".... ....","ro w","Ġc ol","Ġf ind","Ġn ow","Ġser v","Ġg od","Ġu nder","is h","Ġstart up","Ġse e","Ġre m","Ġ \\","Ġha nd","Ġa f","ic es","Ġh ig","Ġc he","Ġj o","Ġfor m","Ġsu b","ot h","Ġs im","Ġch ar","Ġthr ough","Ġprog ram","Ġo b","Ġre qu","i ent","re n","k s","Ġo h","Ġg u","Ġs ol","Ġa ct","er m","Ġtr ans","Ġexam ple","Ġd on","it s","Ġw ay",") .","Ġg reat","il ity","Ġ1 0","o v","Ġg r","Ġfo llow","Ġe ff","Ġd et","Ġimp ort","Ġc ur","Ġe very","ar ch","on s","Ġbec ause","Ġlo ok","Ġbu ild","ow er","l i","Ġin v","Ġbe en","Ġgo od","Ġs ay","Ġt ake","Ġa p","Ġv ari","i ble","Ġd id","Ġon ly","er r","Ġ 7","ic t","Ġgen er","Ġt y","y th","Ġin form","it ies","Ġdo es","Ġprov ide","Ġg ive","Ġp ers","c he","ra y","t he","u es","ve l","Ġb ack","w n","en g","c om","Ġpr int","ow s","at ive","u res","yth on","Ġb r","Ġm ade","Ġcom e","ve lo","Ġre p","Ġm em","Ġo per","c ial",") ,","k ing","pt ion","Ġdiffere nt","Ġo k","Ġ 8","in ess","ra ct","Ġgiv en","Ġb us","we en","ust om","w er","Ġm ark","it t","Ġj e","c i","Ġre l","Ġm in","Ġprodu ct","Ġbet ween","c y","Ġre g","f ul","Ġwh ile","Ġas s","Ġaf ter","Ġval ue","u ll","Ġsh all","( \"","g g","Ġbe fore",". \"","ic s","Ġde c","Ġprov id","v ing","Ġan s","at her","Ġre ad","Ġinform ation","d er","Ġev en","Ġc reat","Ġ ent","i b","Ġd ay","Ġsu pp","Ġs ent","Ġag ain","ut e","Ġcom ple","Ġcompan y","Ġf ile","Ġe l","Ġde velo","r u","Ġres ult","Ġe nd","Ġin st","Ġc ustom","c ed","Ġ2 0","Ġin put","Ġc or","al s","Ġn ame","w or","ut ion","n ess","Ġl ord","if y","Ġr un","ul ar","Ġp ut","Ġs ign","if e","at er","t y","Ġpl at","ol og","Ġth ink","pe ct","Ġhig h","Ġex p","Ġh o","Ġf in","Ġman y","Ġte ch","Ġex per",") :","Ġi d","re nt","se lf","Ġe ar","Ġb l","Ġunt o","Ġt ak","Ġstr ing","Ġdes ign","Ġg ra","m s","Ġa w","Ġplat form","s s","i x","Ġdevelo p","c us","Ġm on","Ġex pl","Ġd own","Ġcl ass","Ġmo st","Ġ z","Ġa ir","Ġbus iness","Ġc ount","i ence","Ġen g","ag es","Ġus er","Ġp le","Ġpers on","le ct","Ġst ud","ction s","' m","Ġat t","Ġm ult","ent ial","b o","t ing","in es","Ġtech n","u ct","\" :","ot her","Ġe qu","v es","Ġin s","Ġwor ld","Ġans wer","Ġa c","v al","âĢ Ŀ","b e","Ġqu est","v ed","Ġ .","g or","Ġchar act","Ġb oth","Ġm ed","Ġst ate","Ġp ri","g y","Ġwr ite","i qu","Ġm ain","Ġar t","ie w","Ġa ut","Ġp ass","Ġte xt","ĠâĢ ľ","Ġl ong","' re","o c","Ġa v","l ine","ur ing","he d","Ġp ar","eth od","e x","Ġc all","Ġre al","Ġ ed","Ġl a","n a","Ġ/ /","iz ed","Ġspec ific","Ġint e","Ġsm all","Ġpl ay","Ġsu re","Ġlo c","v en","lo ck","Ġwh y","Ġpro ble","Ġapp ro","Ġch ild","Ġle ar","w are","Ġ 9","er n","Ġs ame","Ġmark et","Ġt as","Ġm ethod","Ġje h","st and","i ed","Ġs um","b er","al th","Ġpo int","Ġf il","Ġper form","is s","Ġbe l","Ġman age","1 0","p r","p ro","Ġd ire","Ġche ck","con d","pe nd","Ġcomm un","Ġye ah","Ġple ase","Ġme an","Ġc ar","Ġo wn","Ġs in","Ġd ist","Ġadd ition","Ġo p","Ġacc ess","00 0","Ġm u","Ġst ep","Ġok ay","i ous","Ġc le","b s","Ġke y","ou se","ce pt","-- --","Ġth ose","w ord","Ġhel ps","i ly","Ġi de","Ġc a","gor ith","Ġcur rent","Ġo pt","Ġt est","Ġal gorith","Ġl ine","n ame","Ġk ing","Ġl ife","i an","Ġs al","on d","Ġout put","c o","pl es","Ġs k","Ġim ple","c ri","Ġpl ace","res ent","Ġto ol","Ġl and","a ve","Ġb ased","ov ah","t o","g r","Ġjeh ovah","Ġc r","Ġfollow ing","he s","Ġunder stand","oug ht","n s","ie ld","Ġan al","Ġeff ect","err or","g an","w ard","ĠĠĠĠ Ġ","Ġre f","e ver","Ġinc re","Ġe as","r on","er ing","Ġf ound","Ġv is","Ġmod el","y e","Ġf act","ig ure","Ġch o","Ġwith out","g er","Ġm ess","ï ¬","Ġimple ment","Ġl ar","Ġp ower","Ġword s","c ul","Ġcont ain","ri end","Ġpos s","Ġbe ing","Ġp ot","Ġres p","Ġhe alth","al ity","od y","Ġm ight","it ive","Ġob ject","Ġb est","Ġor der","Ġ :","Ġm ust","Ġth ings","Ġs om","s h","Ġpl an","Ġke ep","n er","Ġp a","a x","at ure","Ġmem ory","Ġhe y","t s","' ,","Ġt able","im es","Ġ ve","Ġse cond","i red","Ġb re","Ġth ree","Ġse c","Ġnumb ers","Ġ1 9","Ġcon f","e f","2 0","Ġar ray","Ġse lf","Ġp ub","Ġsupp ort","e c","Ġc ase","Ġre ally","u ally","eng th","iv id","Ġs l","Ġtr y","o ve","Ġte ll","Ġcon st","ant s","Ġcomp ut","g in","Ġbo ok","Ġin str","ou p","f l","Ġan other","Ġh um","Ġy es","t al","Ġde v","Ġid ent","as h","Ġb ra","Ġinclud e","Ġbe h","Ġbuild ing","Ġn et","Ġc ame","i o","b r","ab ility","Ġsh ow","Ġmu ch",") )","it al","Ġte am","it ing","Ġh ouse","Ġus ers","wor k","Ġpro m","Ġimp ro","p o","ert ain","Ġdire ct","Ġmult i","Ġad v","Ġop en","d ay","t en","Ġproble m","Ġb ro","Ġst e","Ġcal led","Ġs ur","Ġto p","str ing","ic ally","et s","as es","Ġsystem s","Ġle ad","ra el","Ġne xt","er y","Ġp ython","n ce","iz ation","Ġis rael","u nd","Ġg ot","p lo","ur al","Ġfe el","ver t","Ġd i","Ġf am","Ġst ore","........ ........","Ġagain st","Ġinclud ing","p ar","Ġs on","Ġcont ro","Ġp at","Ġso cial","ang u","Ġtr ue","Ġw ater","Ġbet ter","m at","Ġhow ever","Ġpro f","Ġth ou","Ġty p","i er","in ed","Ġfo od","Ġ very","ation al","Ġma x","Ġm en","id er","Ġso ft","Ġex t","iqu e","en cy","Ġco st","Ġf igure","= \"","Ġp ur","Ġ1 2","Ġall ow","Ġapp lic","o f","Ġt al","Ġt urn","r ic","Ġgo ing","olog y","Ġth y","Ġen s","Ġcal cul","at or","Ġadd ress","Ġha pp","s on","Ġd ig","ab les","ï¬ ģ","Ġhe ad","Ġl ight","Ġre st","Ġto tal","Ġm us","Ġh ard","Ġd ri","our ce","Ġchild ren","v iew","Ġstr uct","Ġquest ion","Ġse arch","it ed","Ġl angu","\" )","Ġty pe","Ġd uring","n ect","Ġt erm","Ġw ent","i ps","Ġt em","Ġs ort","Ġalgorith m","en se","re ct","ter n","c le","in s","Ġlo ve","Ġre du","Ġb en","Ġen c","ĠĠĠĠĠĠĠĠ ĠĠĠĠĠĠĠ","Ġg l","Ġl ess","Ġlo g","Ġto get","Ġtoget her","cc ess","iv es","Ġpart ic","Ġaw ay","Ġval ues","re t","s c","Ġs ing","Ġye ars","ent ion","b y","Ġm et","Ġst and","et y","Ġfo cus","Ġcompan ies","Ġle vel","Ġp ay","p ython","one y","Ġc are","Ġf riend","Ġpot ential","t ain","1 1","Ġsent ence","m on","eth ing","ver se","Ġp ol","Ġst ill","am es","d ata","Ġposs ible","s er","Ġw ind","d d","Ġsin ce","Ġw ar","um ent","Ġw a","Ġsom ething","ch o","pl ace","Ġr ange","Ġpro ject","Ġall ows","Ġf a","Ġch ang","Ġserv ice","ist s","Ġel se","Ġex ec","Ġpub lic","Ġbel ie","in ing","Ġdet erm","Ġcont in","a red","re am","Ġwith in","Ġcomple x","ut es","em s","Ġcom b","Ġ= =","if ied","th ing","Ġma king","_ _","Ġele ments","Ġsp ace","Ġf ield","Ġl ast","Ġc ertain","Ġcont ent","Ġpro per","Ġc ent","n ot","Ġcharact er","Ġs w","Ġ â","is ion","Ġp ract","Ġin de","ir d","ro ss","Ġsoft ware","Ġd at","Ġma ch","Ġye ar","Ġor gan","m l","Ġpre v","o id","Ġcontro l","ra ft","our ces","am p","Ġar ound","p y","Ġn um","Ġle ft","at ch","o st","Ġch ange","ic ation","as on","1 2","k es","se arch","Ġf ull","m e","Ġup d","Ġind ivid","Ġ &","ap ter","a z","Ġg row","c ing","Ġtra ck","p os","w ays","Ġin it","pl ay","Ġimport ant","Ġ1 5","an k","Ġp age","Ġc lo","Ġc our","Ġem plo","Ġf ree","se l","Ġb lock","j o","Ġen er","Ġtas k","Ġcon d","Ġbre ak","s et","Ġpo p","en ces","Ġlangu age","Ġexam ples","Ġn or","ur s","le t","gg est","Ġf ather","er c","o od","Ġt ri","ot e","e red","l ist","is m","Ġup on","h ing","Ġunt il","Ġindivid ual","ate ly","c rib","im um","Ġmess age","Ġh ome","ac es","Ġgr oup","ar get","t ime","Ġcon nect","Ġn on","Ġcomm on","it ions","Ġ est","a ut","itt le","Ġsu ggest","Ġimp act","Ġinstr u","it es","v ir","Ġu h","Ġcons ider","Ġele ment","Ġph ys","Ġs ize","Ġcor rect","Ġa i","âĢ Ķ","m a","al e","Ġav ail","' ll","Ġsu ccess","Ġo cc","Ġus es","on na","Ġpo st","Ġsign ific","Ġto o","Ġo ld","Ġl ength","Ġear th","t on","nd om","Ġst at","ion al","Ġlear ning","Ġs ide","Ġener gy","Ġc e","Ġl ittle","Ġg ame","Ġcon c","iv ity","Ġhe art","Ġ1 1","Ġm ar","Ġrequ ire","ar ing","Ġme as","Ġlar ge","l ing","Ġmo ve","m ing","Ġc ap","Ġide a","Ġf ace","Ġg onna","Ġar g","Ġexper ience","Ġf re","Ġexpl ain","Ġl im","vir on","Ġst ory","Ġbusiness es","p ort","Ġh ist","Ġch all","ri x","it her","Ġh our","f e","Ġdes crib","g n","Ġd ra","Ġtak es",", \"","i ents","w h","l ess","Ġth ought","Ġd ays","Ġof ten","Ġprovid es","b u","c ount","ere st","Ġimpro ve","Ġis s","Ġsol ution","Ġm ind","Ġrequ est","Ġch apter","ne w","Ġstr ate","Ġthe e","\" .","Ġhum an","ag ing","Ġcle ar","Ġinv ol","im al","Ġw om","z e","Ġb as","Ġacc ount","Ġ es","Ġre ce","Ġal ways","el s","Ġre le","Ġ error","Ġr is","Ġg re","Ġv ide","Ġne ver","ord ing","Ġen viron","Ġperson al","Ġcomm and","Ġinv est","Ġse nd","Ġf our","led ge","m b","Ġ vers","if t","ĠâĢ ¢","/ /","Ġon ce",": :","Ġens ure","Ġv ir","Ġmon th","cri pt","Ġon line","Ġj ud","Ġst or","at ures","Ġse lect","Ġserv ices","Ġcustom ers","e xt","Ġt imes","Ġun ique","Ġto ok","ke y","Ġt ree","Ġpro t","in al","in ation","ri es","Ġavail able","Ġcharact ers","it er","Ġb ig","Ġmulti ple","Ġsim ple","Ġth read","t r","Ġd iv","Ġam ong","Ġth ing","m an","al se","Ġc ity","p or","Ġfe w","f ace","Ġmus ic","ail s","Ġproduct s","Ġthere fore","Ġp ath","Ġt re","Ġd r","Ġint erest","Ġl ow","Ġre d","w r","Ġd one","Ġdevelop ment","Ġwant s","a pp","Ġsay ing","Ġev ent","ad d","Ġm oney","Ġun i","y n","m m","Ġvari ous","Ġanal y","Ġs ound","Ġab le","Ġt arget","Ġacc ording","u c","Ġ ver","ra ph","Ġme et","Ġma kes","id es","Ġ1 6","Ġsh ort","y le","Ġsing le","Ġknow n","Ġde p","Ġrep resent","h ip","Ġrem ain","l er","Ġor ig","Ġpro b","Ġme ans","Ġc ir","o b","Ġw ays","Ġexp ress","Ġinit ial","Ġse ver","Ġp ort","' ve","l ish","w s","il ar","iv ing","te xt","Ġc ult","b ack","( '","Ġwork ing","Ġident ify","h or","Ġsum m","Ġnet work","Ġtra d","Ġdig ital","Ġ1 00","Ġra ndom","on se","âĢ ĵ","Ġa ch","Ġmarket ing","Ġam ount","Ġg ave","cus s","id d","< /","Ġk ind","Ġwe e","Ġperform ance","Ġp res","c raft","Ġknow ledge","Ġab ove","Ġsignific ant","u le","it le","Ġlear n","Ġare a","Ġstr ong","k now","au g","val ue","Ġmanage ment","ll o","Ġmed ia","Ġtechn ology","Ġne g","Ġe ver","Ġde pend","Ġind ust","() ;","Ġsever al","Ġwe b","Ġas k","Ġenviron ment","Ġlook ing","Ġ ess","ab or","Ġh t","Ġspec ial","om m","e e","Ġeff ic","m in","Ġcustom er","m ed","Ġha ving","1 5","Ġwe bs","Ġp resent","Ġneed s","Ġloc al","Ġeffect ive","b ased","Ġn ode","Ġl ink","Ġpos itive","Ġh old","Ġco ok","pp ed","Ġ3 0","et er","Ġinter n","Ġ ă","Ġw al","Ġdis cuss","] ,","er ic","Ġm il","Ġwork s","Ġb it","Ġbe gin","Ġoff er","lo g","Ġach ie","Ġgener ate","ast e","Ġse ll","Ġa ud","Ġsim ilar","che s","r ight","Ġh y","he re","Ġo pp","Ġtas ks","Ġben ef","ro du","Ġrel ations","Ġstud ents","Ġap pe","ct or","Ġf ar","Ġs it","ud e","Ġeng ine","Ġprovid ed","i or","ou d","Ġstruct ure","Ġdo ing","Ġappro ach","Ġs qu","read y","Ġcol um","ict ion","er ial","ri pt","Ġex pect","Ġ Ă","Ġb al","Ġapplic ation","Ġre search","Ġf ore","Ġemplo ye","ile d","Ġsc ript","Ġjo b","a ir","Ġsh are","w ay","Ġn ight","Ġmach ine","Ġcreat ing","Ġf alse","at s","lo ad","f er","Ġf ur","Ġp ress","Ġd av","c ol","Ġ1 4","Ġc y","ard s","ill s","Ġqu ick","in ary","Ġaut om","Ġs at","Ġde ath","il t","f ile","Ġc ut","Ġse ction","e ad","Ġwe ight","Ġcon cept","um e","Ġrun ning","q l","ur ity","Ġb ody","Ġal ready","an ces","n o","Ġj av","ver age","Ġex erc","Ġpri or","Ġcol or","Ġl ay","n g","Ġcomple te","Ġresult s","Ġg e","Ġf ast","Ġair craft","Ġfe atures","Ġit er","Ġ >","Ġvir t","Ġqu e","Ġste ps","ot s","Ġbec ome","Ġcont ext","Ġele ct","Ġdav id","Ġse qu","Ġmat erial","ram e","at t","pp ing","Ġeas y","Ġfam ily","---- ----","Ġtyp es","n um","ys is","Ġ q","Ġinst ead","Ġunderstand ing","Ġa ff","5 0","o ff","Ġchang es","Ġlo op","Ġf r","Ġcomp on","Ġbu y","Ġli br","k en","p ri","Ġs or","Ġmin utes","Ġ1 8","Ġother s","Ġex ce","Ġex ist","ĠĠĠĠĠĠĠĠ ĠĠĠĠĠĠĠĠ","Ġopt ions","1 9","Ġoper ating","ou ble","Ġgra ph","c ent","ak ing","Ġreturn s","Ġde l","Ġover all","b it","Ġw on","u g","Ġbr ing","Ġprof ess","Ġs ays","Ġm ill","Ġp red","Ġvari able","Ġhand le","y es","in put","Ġv iew","st er","Ġchall eng","Ġspe ed","Ġaddition ally","ri st","Ġle ast","Ġcour se","Ġd est","Ġim age","p ath","Ġsome one","s y","nd ing","g o","Ġb i","Ġquest ions","Ġin fl","em ber","Ġf ut","bo ok","Ġcalcul ate","Ġu r",": //","res p","Ġind ic","pl ic","Ġres ources","sel ves","Ġ ą","Ġcomput er","us ion","g es","Ġs am","Ġfl ight","Ġpoint s","Ġhe av","Ġnot e","con t","Ġfur ther","b al","Ġanal ysis","Ġh i","are nt","Ġrep ort","Ġne cess","Ġf lo","is hed","he ad","m y","Ġint rodu","Ġphys ical","Ġfin ally","d o","Ġp ack","cho ol","Ġtool s","Ġdeterm ine","ent al","Ġm iss","l and","Ġdo c","iz ing","il ities","nd s","Ġlo ad","ar r","u ck","ist ic","en c","g s","Ġv ol","Ġaddition al","Ġwhe ther","2 5","Ġvide o","Ġpar am","us h","Ġw in","Ġbeh av","Ġpartic ular","Ġu t","ut ions","Ġthan k","Ġal t","Ġf ac","Ġvirt ual","a pe","Ġdis play","Ġwa it","Ġro om","Ġ ĉ","Ġresp onse","Ġdif f","Ġmain tain","Ġd ate","Ġinde x","Ġpos ition","f ra","Ġ Ð","ig h","ot t","Ġco ll","Ġb ar","f s","Ġem ail","Ġst ates","Ġev il","Ġn at","du ct","Ġval id","fere nce","Ġinte gr","3 0","it ude","Ġth us","Ġc ause","Ġl iving","Ġs ense","Ġf ire","p ose","av or","b ody","l s","Ġre ason","Ġtak en","aug ht","ist er","ition al","Ġp ast","Ġrec omm","Ġincre ase","Ġs ou","Ġfut ure","Ġm er","Ġto day","Ġsc he","p re","Ġrecomm end","n umb","Ġm or","i ah","is ed","Ġcle an","Ġopt im","Ġdid n","ab ase","i pe","Ġla w","1 6","pp er","Ġsp ir","cri ption","Ġf und","it ical","Ġro le","Ġca us","Ġ %","Ġl ot","Ġsal es","Ġs ource","Ġj our","Ġse par","Ġpri v","Ġpr ime","Ġv o","Ġp ie","Ġpr in","iv ed","Ġs chool","an e","Ġwebs ite","d om","pr int","u ation","Ġac ross","Ġhist ory","an n","Ġmeas ure","Ġfriend s","Ġm ic","Ġh al","os s","Ġcol le","Ġh or","id ence","Ġde ad","Ġm ot","s p","am ed","Ġde m","Ġre view","Ġoper ations","Ġfil es","on es","Ġsec urity","Ġneg ative","itt en","c u","Ġrequ ired","Ġbl ack","Ġsc en","` .","id ent","Ġt im","Ġl ower","Ġsa w","Ġr ound","Ġap i","Ġp ain","Ġs ons","a cc","Ġ1 3","str uct","Ġcontain s","che d","Ġcommun ity","Ġf ive","Ġcons um","Ġtra vel","Ġcon ne","Ġmo v","as ing","Ġvers ion","Ġs we","Ġj er","Ġwr iting","Ġfunction s","Ġh ar","ic le","Ġm om","Ġmo b","i res","Ġse en","Ġcho ose","Ġe yes","Ġresp ons","Ġform at","Ġhapp en","c ome","it or","ff ic","Ġr out","Ġsh o","Ġr ul","Ġindust ry","Ġev ents","w w","Ġsol ve","Ġact iv","Ġinc or","ĠâĢ ĵ","Ġtak ing","Ġact ually","Ġa ction","Ġmat rix","Ġhour s","Ġra d","o h","Ġ ing","Ġdev ice","Ġad j","n ces","Ġcreat ed","Ġgu ys","Ġb ase","Ġprocess es","Ġinstru ctions","Ġtal k",". ,","im ate","Ġen ough","Ġl ab","Ġinfl u","Ġtrans l","Ġs n","ib ility","Ġaut hor","pt y","Ġ err","ent ly","Ġg lo","Ġ2 00","Ġc amp","Ġorig inal","ul ation","Ġ2 5","Ġ ï¬ģ","Ġem ot","Ġrem ember","c al","Ġst ay","Ġca pt","Ġser ver","Ġmax imum","Ġredu ce","a ction","Ġ !","Ġdoes n","so ci","Ġexper i","Ġstrate g","Ġ5 0","im ent","ty pe","Ġh ath","Ġsor ry","Ġg old","Ġj es","f ect","r al","Ġstate ment","Ġcommun ication","Ġto wn","os es","Ġm ount","Ġb lo","m er","Ġany thing","$ .","Ġe ither","Ġas soci","d ate","i um","' :","Ġde li","t ps","Ġ1 7","f o","con om","Ġi ll","Ġl ive","al t","- >","Ġho pe","Ġfact ors","1 4","m od","a el","Ġhand s","Ġbu ilt","Ġa h","Ġar ch","Ġb ab","! !","Ġy et","po int","Ġc red","ind ex","Ġav oid","= =","Ġro ot","Ġvis ual","Ġimplement ation","s u","Ġne ar","Ġrec ord","Ġh ot","ac he","is es","ort un","Ġfe et","l ight","or n","Ġh u","ific ation","Ġmat ch","Ġnat ural","Ġnecess ary","Ġqu ality","i od","Ġj son","Ġmethod s","s ide","Ġab s","Ġass ign","Ġed uc","Ġtry ing","ic ult","Ġdet ails","Ġqu ant",". \\","Ġc ou","Ġr ate","p u","g en","3 2","ne y","Ġar r","Ġocc ur","as k","t ers","Ġp il","Ġo il","Ġgener al","Ġf all","Ġdist rib","Ġequ ation","Ġho st","Ġst yle","Ġsu per","Ã ©","un ch","Ġam eric","Ġindividual s","Ġpr im","u x","Ġm ich","ar ies","# #","Ġs le","Ġde ep","Ġch rist","h n","Ġemploye es","2 2","Ġdat abase","le x","Ġre place","um ents","Ġneed ed","Ġ ri","Ġeffic ient","Ġget ting","Ġmay be","Ġst ack","Ġbelie ve","Ġst op","Ġr ather","Ġsa ve","Ġmob ile","Ġtra ining","it ch","Ġpr ice","Ġcan not","Ġreg ular","g ed","Ġevery thing","is on","Ġo ption","Ġpop ular","iz es","Ġdiff icult","ver n","Ġe conom","Ġbro ther","iqu es","Ġcon vert","Ġgreat er","Ġachie ve","ore s","Ġcont rib","Ġinte ger","ut ed","Ġs ens","Ġide as","Ġdec ision","Ġmean ing","og raph","Ġequ al","Ġprogram ming","` ,","Ġsu n","Ġstud y","Ġpa per","in a","Ġman ag","l t","Ġyou ng","Ġbo x","ern el","Ġterm s","? !","Ġprev ious","Ġoper ation","Ġbenef its","Ġ= >","a pt","Ġa verage","Ġsk ills","o ver","Ġfl ow","Ġd ue","Ġwee k","im s","Ġal ong","Ġcolum n","res h","Ġwom an","z z","Ġwr itten","Ġnot hing","\" >","Ġcomp et","Ġdesign ed","Ġwind ows","le y","ar ray","ord er","v ant","Ġst ra","Ġcom es","Ġev al","an ced","1 8","] )","es e","Ġt itle","Ġe at","Ġan g","ro p","Ġtem per","Ġloc ation","Ġspir it","Ġto ward","Ġgre en","b ers","Ġsc hed","Ġdev ices","Ġcontin ue","Ġc ry","Ġcurrent ly","Ġhig her","Ġsequ ence","Ġt reat","Ġjes us","at ic","Ġeas ier","g ers","Ġbe aut","Ġtechn iques","Ġper iod","Ġ< /","Ġcond itions","Ġph il","1 7","Ġthan ks","word s","ul a","Ġgo vern","Ġe t","Ġw atch","ol ution","Ġsched ul","Ġsub ject","n ers","Ġph ot","Ġn one","Ġm ix","ll ing","Ġdis co","Ġn amed","Ġ ...","Ġbehav ior","Ġth ird","Ġpri est","ch an","Ġpro te","Ġlist en","ly ing","ĠĠĠĠ Ċ","ren g","it ect","Ġn av","Ġfe ar","Ġd yn","Ġres pect","Ġ2 4","v ent","Ġvo ice","Ġc up","Ð ¾","id s","Ġit ems","() `","Ġmich ael","Ġstand ard","Ġmic ro","f ull","Ġinclud es","Ġlibr ary","u ff","ain s","Ġfe ed","th is","c d","Ġs il","Ġthem selves","Ġcount ry","} {","t a","Ġchalleng es","Ġst reng","et ers","Ġproble ms","Ġce ll","Ġk ernel","Ġprovid ing","Ġcl ient","Ġpred ict","Ġsc ience","2 3","Ġfact or","Ġwho le","Ġhard ware","Ġb ad","Ġgr ound","ron t","Ġho ly","a ult","Ġma j","Ġro b","Ġfre qu","se qu","Ġsqu are","Ġread y","Ġc ard","Ġb inary","Ġalgorith ms","Ġsm art","\\ *","Ġem b","Ġdescrib e","Ġent er","b l","Ġcl oud","Ġdoc ument","Ġd a","m al","is ing","ru pt","Ġb ound","Ġt ips","Ġgo als","Ġwr ong","mb ol","Ġtrad itional","Ġb urn","ri ed","al ing","f act","m ap","Ġpol ic","Ġ Â","et ic","Ġlim it","Ġd om","s um","Ġappro pri","Ġen jo","Ġper fect","Ġser ies","c re","Ġf ru","a i","Å ĵ","1 3","Ġse a","Ġst o","Ġem pty","a iled","u el","Ġs ong","Ġclo se","Ġsh ows","Ġd ark","om es","Ġph one","Ġiss ues","Ġoff ers","Ġpa ir","Ġhal f","Ġ er","Ġme chan","Ġle g","Ġqu ery","Ġp arent","Ġw ide","Ġn ames","Ġcon vers","um p","Ġspe ak","Ġstor age","Ġl ater","' d","s pe","Ġp ick","Ġfin an","Ġmill ion","Ġb row","ive ly","Ġaud ience","Ġuni vers","Ġaff ect","Ġdiffere nce","Ġexerc ise","Ġear ly","Ġb ur","ous and","Ġstrateg ies","s v","Ġevery one","Ġprom pt","s ize","Ġl ines","Ġn ull","Ġlike ly","Ġupd ate","Ġdyn am","Ġa ge","a ps","Ġincor por","* *","Ġth ough","Ġm oses","bo ard","Ġth ousand","Ġ- -","Ġab ility","Ġdr ink","Ġris k","idd le","Ġadd ed","Ġg ir","Ġfin al","Ġh und","a ur","Ġjav a","at ors","in ter","Ġor d","................ ................","1 00","Ġ< <","gy pt","m iss","Ġtrans form","Ġex act","Ġhund red","Ġf rame","Ġgo al","Ġf ix","ou ra","og n","Ġcertain ly","Ġpur pose","r ation","Ġdef ine","Ġenjo y","Ġro w","Ġdist ance","Ġe gypt","fra c","] .","Ġd u","' )","Ġre v","Ġw aste","Ġarch itect","Ġwh ite","Ġent ire","ach ing","Ġcomplex ity","ff ee","Ġopp ortun","l ength","id th","Ġadj ust","c ase","g ment","Ġsa fe","Ġlog ic","Ġjo e","Ġsat is","Ġapplic ations","ab ly","Ġf it","Ġlet ter","resp ond","oc ol","Ġconne ction","or ies","Ġm id","er o","Ġpart s","is ions","gr ound","Ġm ention","Ġrem ove","+ +","Ġwho se",". )","2 1","Ġm i","Ġmaj or","Ġpress ure","u ps","Ġthe ory","e le","em ent","Ġb read","Ġess ential","os p","Ġgrow th","Ġinst all","s ub","h ips","Ġl at","clud e","Ġeng lish","Ġal tern","Ġpro p","Ġrec urs","Ġhe ight","av es","\" );","t p","te nd","Ġoff ering","f il","ch ar","ak es","Ġac cept","Ġt ou","he n","Ġsy mbol","Ġv i","Ġins ide","Ġass ist","Ġn ut","Ġare as","Ġbab y","her s","Ġinst ance","Ġco ffee","Ġyour self","Ġed ge","od es","Ġnew s","Ġcor respond","full y","Ġappropri ate","Ġactiv ities","b ut","Ġle d","Ġprogram s","Ġconst ant","Ġcoll abor","Ġsc ient","Ġdef in","Ġc ases","Ġg ar","w ise","he t","Ġit em","Ġd am","Ġpriv ate","n ed","Ġbl ue","Ġprob ability","Ġro ss","Ġwh om","ic a","Ġcl ick","Ġing red","Ġglo bal","Ġenc oura","Ġvari ables","Ð °","Ġc ate","Ġgiv es","Ġob ser","g ing","Ġinstru ction","Ġfinan cial","he ns","Ġst d","Ġallow ing","Ġf ib","ok en","Ġdirect ly","ut h","\" ;","og le","Ġobject s","c er","Ġt en","Ġdra w","Ġrec ogn","Ġc am","us al","Ġve get","Ġbas ic","Ġdis k","Ġrel ated","g re","Ġprev ent","g est","Ġfe ature","Ġin n","Ġf ine","ore d","Ġdo or","Ġpract ice","med i","Ġbra nd","Ġ ?","ou ps","Ġu m","Ġoff ice","Ġexpect ed","Ġhe at","com p","em pt","Ġmem bers","Ġan t","Ġd iction","Ġco ver","f un","Ġs ix","ress ion","Ġinter act","ff er","Ġart icle","ck et","olog ical","Ġf ail","Ġim ag","Ġanaly ze","as cript","Ġâ Ī","Ġl en","ve red","bo x","a ign","us er","Ġstreng th","re l","[ '","Ġstr ings","Ġcall s","Ġbel ow","Ġadd ing","so le","usal em","Ġjer usalem",": \\","Ġcons ist","Ġst ream","cl usion","Ġest ab","Ġatt ack","Ġsh own","Ġun ited","Ġpart y","Ġ4 0","Ġjud ah","Ġim ages","Ġcommun ic","Ġrequire ments","Ġblo od","Ġquick ly","u ro","Ġw all","Ġproper ty","Ġcamp aign","Ġse ed","Ð µ","Ġsort ed","Ġ Ã","ro om","Ġsol utions","Ġcho ice","ac ed","res ult","Ġhim self","Ġmod ify","Ġse em","Ġcl a","Ġd w","4 5","Ġl in","m ost","Ġinter face","Ġsle ep","Ġ+ =","Ġwal k","6 0","Ġb ill","Ġsh ared","Ġdirect ory","Ġc at","Ġm other","Ġ$ \\","Ġatt rib","Ġmat ter","Ġd ream","ur ation","r ing","in st","w here","f ort","Ġcom ing","Ġmod ern","Ġins ert","ed d","Ġfo ot","Ġeng age","Ġform ula","Ġd en","ll er","Ġgu ide","Ġnav ig","2 00","Ġstart ed","Ġam az","Ġwom en","Ġgu y","Ġstud ent","Ġ} ,","i us","Ġma g","Ġrest aur","Ġm ental","Ġco ol","n y","ac hes","Ġpro ced","Ġprot ect","Ġeval u","d iv","Ġuni verse","Ġsh alt","Ġset ting","4 0","t op","y m","Ġsu st","pl it","Ġassoci ated","Ġcomp re","ch ange","Ġlong er","Ġtemper ature","Ġpe ace","j son","Ġd ouble","Ġmin imum","Ġ @","Ġcond ition","Ġch ick","ck s","Ġstart ing","li ke","Ġb ud","i k","l a","t ra","Ġrelations hip","c are","Ġhe llo","Ġen h","Ġswe et","Ġd aught","Ġjo hn","Ġinte gers","Ġall oc","t ies","Ġvari ety","Ġfam il","Ġc ross","Ġrele vant","s ort","ur y","Ġsc re","Ġmodel s","Ġb ow","Ġlevel s","Ġph r","Ġhapp y","Ġpre p","Ġp un","Ġhe ar","Ġan n","Ġb all","Ġbook s","Ġpl aces","Ġthrough out","Ġiss ue","? \"","Ġcent er","se c","iv al","Ġse ven","] ;","Ġmaterial s","u ce","im ately","Ġsub st","Ġatt ention","c ast","Ġc ra","Ġrec ipe","Ġv ar","00 00","b t","Ġon es","Ġexpress ion","u ed","Ġdet ailed","u gg","Ġf avor","Ġupd ated","Ġsust ain","Ġ ,","Ġc and","ĠĠĠĠĠĠĠĠ Ġ","Ġt ables","Ġre ach","Ġbut ton","le ction","Ġthink ing","Ġtyp ically","Ġdes cription","ens ion","Ġcr itical","Ġcred it","Ġas pect","Ġht ml","i ans","Ġm ass","Ġprior ity","Ġit self","Ġcol lect","Ġrequ ires","p ly","Ġext ract","Ġc ru","Ġhe ard","Ġcon sole","Ġstrate gy","Ġp an","Ġcompon ents","r t","o e","ie f","Ġbec ame","Ġh on","Ġso ci","Ġcost s","Ġexperi ences","Ġs ources","Ġexpl an","Ġeffect s","numb er","u nt","Ġ* *","t es","ll ig","Ġbal ance","ist ics","Ġper cent","Ġsim pl","Ġbr ought","Ġcompre hens","ht ml","Ġpil ot","8 0","Ġb ott","wr ite","Ġeas ily","Ġro d","Ġre pe","Ġw ow","Ġn ice","Ġeff ort","r s","Ġdes ired","m ax","ri e","r ound","Ġturn ed","2 4","i ation","Ġto ld","Ġgo ogle","Ġse ems","Ġsy n","Ġp ages","Ġpur ch","a f","j s","Ġn ature","Ġimport ance","Ġtr ust","u ction","Ġplay er","h old","st ep","Ġut il","y ing","Ġde al","Ġout side","Ġpat tern","Ġass um","Ġbeh ind","Ġinvol ves","Ġfor ward","Ġsumm ary","ide red","fere nces","Ġfa ith","Ġprog ress","Ġingred ients","Ġdiction ary","d es","Ñ Ĥ","Ġ vert","Ġmod ule","Ġan ge","ir th","Ġrul es","Ġle ave","Ġacc ur","ang le","Ġc ub","Ġc pu","Ġt ur","Ġwe ather","pro duct","n ode","Ġstat ic","Ġtrans port","Ġb and","Ġv oid","Ġag re","Ġsatis f","t est","Ġf ra","m it","Ġp ow","Ġprodu ce","Ġcons idered","Ġset s","mat rix","Ġg ames","Ġtal king","or k","Ġsec ret","itt ing","Ġclo s","Ġmor ning","b all","Ġprofess ional","Ġfeed back","Ġpl ant","Ġb an","and ler","Ġ3 2","Ġexp and","Ġsepar ate","w ith","Ġf ight","Ġgr oups","Ġco py","Ġp ark","c ode","Ġ rom","Ġdec isions","Ġch at","Ġrem ov","v ation","Ġmov ie","Ġjoe y","Ġgiv ing","Ġsit uation","re qu","Ġprom ot","c ur","le vel","te x","Ġconf ig","Ġsur face","Ġtre es","ir ing","Ġref lect","Ġhelp ing","Ġfor ce","Ġe gg","Ġan im","os ed","Ġfollow s","Ġmed ical","Ġcompon ent","Ġf ront","or ing","Ġjour ney","y ou","Ġ2 1","Ġappro x","art ment","Ġsim ply","u se","Ġcon clusion","Ġad apt","Ġlead ing","Ġgu ess","Ġu nd","Ġs ides","Ġbeh old","Ġsound s","ri ef","Ġres ource","Ġrece ive","Ġdem and","Ġeduc ation","ot hes","Ġincre ased","Ġl ives","Ġsche du","Ġem er","Ġ ;","wh at","Ġsm o","Ġread ing","Ġj im","ĠĠĠĠĠĠĠĠ ĠĠĠĠĠĠĠĠĠĠĠ","al le","qu ery","de f","! \"","Ġt ag","Ġlet s","Ġmom ent","Ġsmall er","' ]","6 4","Ġus ually","cial ly","Ġw ife","iz ations","Ġext ra","Ġpract ices","Ġser ve","Ġtest ing","wor ks","Ġn p","Ġact ivity","Ġw at","Ġw ood","che l","Ġsom et","Ġinte llig","Ġinn ov","Ġt er","Ġsal t","Ġb ird","Ġar m","Ġmeet ing","\" ]","Ð ¸","Ġproject s","Ġgovern ment","Ġr ich","Ġmon itor","d own","Ġlar ger","Ġany one","a ctions","Ġus age","Ġex cept","cl es","Ġlook s","Ġgu id","se mb","ag ram","Ġpo ly","Ġsec ure","le te","Ġcreat es","i ency","Ġdo g","Ġtr uth","Ġ6 0","Ġd ie","Ġim medi","f riend","Ġo x","en ess","x a","Ġcomp are","Ġameric an","Ġgo es","Ġprocess ing","Ġhigh light","Ġmanag er","el t","cl ass","Ġact ual","Ġexpl ore","Ġsuccess ful","g ar","ra p","Ġm iddle","pe cially","u ra","Ġb irth","Ġdis e","Ġhy p","Ġquant um","Ġcon struct","Ġ: =","o pt","Ġev idence","Ġse ason","Ġrelations hips","Ġm is","Ġst ress","ul ate","Ġserv ant","pro cess","res ents","\\* \\*","y our","Ġs ql","Ġprodu ction","Ġfru it","Ġlink ed","p ass","Ġur l","Ġma p","Ġheav en","Ġrem ote","Ġb its","ou th","if ul","g ra","Ġpartic ip","Ġfield s","for d","Ġspec ified","Ġbr an","Ġsa ith","Ġapp ly","Ġf resh","Ġrep resents","o o","ht tps","Ġuse ful","l ished","Ġvis it","Ġc ast","Ġcont ract","Ġline ar","an a","ight s","Ġexist ing","val id","Ġcult ural","Ġfor th","Ġde mon","Ġsa f","Ġcheck s","ne xt","Ġproper ties","Ġst ri","ap pend","Ġra chel","Ġsub t","Ġback ground","Ġf ill","Ġin f","Ġre ward","Ġes pecially","Ġcorrespond ing","Ġp ray","p art","Ġwant ed","p ers","( $","Ġprocess or","Ġpass age","u ly","Ġun it","Ġsomet imes","Ġre ven","Ġdri ve","Ġpie ce","Ġg one","Ġdef ault","Ġcl ients","Ġarg ument","Ġsou th","Ġteam s","Ġ ]","Ġprin ci","Ġ! =","Ġ< =","th ough","Ġre pl","it able","Ġt ax","ar a","Ġg ain","ous ly","Ġeffective ly","Ġro ck","Ġadv ant","Ġcir cu","m ess","it em","ab el","ens ive","Ġdec re","l n","he st","ust r","Ġim m","Ġdynam ic","Ġschedul ing","s he","Ġcount ries","Ġthread s","Ġ\\ *","Ġreg ist","Ġb ed","9 9","os h","Ġc ache","Ġcom fort","Ġma gn","Ġprim ary","Ġd im","l en","an y","Ġtra in","Ġexact ly","Ġreg ard","Ġappe ar","Â °","Ġa ctions","Ġr ule","he mat","Ġke pt","Ġ[ ]","Ġincre asing","Ġtoward s","Ġcont act","Ġque ue","Ġd ivid","Ġatt empt","Ġintern et","Ġarchitect ure","Ġp ra","i pp","t ed","con f","Ġcult ure","Ġl iter","il ing","Ġmess ages","in ct","Ġb ank","o le","Ġinter rupt","f ield","Ġm ode","Ġpower ful","} ,","he llo","Ġthe ore","Ġmention ed","ir m","un e","Ġset t","$ ,","Ġcap ital","Ġparam eters","^ ^","n et","a a","Ġcomprehens ive","ð Ł","olog ies","Ġwa iting","d is","e qu","Ġsaf ety","Ġa ims","Ġp ict","enc ies","] [","Ġunivers ity","e ous","Ġsl ow","Ġdw ight","ur ance","Ġmult ip","2 9","Ġd ry","Ġk new","Ġmo ving","Ġdemon str","Ġhas h","Ġver tex","m ore","Ġc ities","ĠĠĠĠ ĠĠ","Ġexplan ation","ol ute","c ient","on acc","fl ow","Ġs an","st art","ess ion","z y","Ġche ese","Ġdet ect","Ġstat us","Ġfast er","Ġs ite","ac y","Ġreg ion","Ġda ily","3 3","Ġw ine","ter ns","Ġfa ir","Ġal though","ast ic","Ġexec ut","Ġh ol","ac hed","Ġpre c","qu e","ab ilities","Ġins p","it ation","Ġz ero","Ġmonth s","Ġsp read","Ġis n","am b","Ġaltern ative","Ġhealth y","Ġbeaut iful","b b","et ch","Ġst uff","Ġpro pos","\\_ \\_","Ġexec ution","ra int","Ġbec omes","Ġremain ing","Ġserv ants","Ġparticular ly","Ġerr ors","un g","Ġw est","Ġb reat","ph as","Ġfil m","Ġstore d","Ġwon der","s l","Ġman aging","Ġaw are","onacc i","lo c","Ġmat hemat","Ġra ise","Ġcontain ing","m ark","Ġbo ard","att le","en ge","Ġinput s","f ree","Ġm outh","Ġn ations","Ġsh aring","Ġlay er","Ġfind ing","Ġsign al","Ġord ers","Ġto ken","Ġha ir","Ġinvol ved","an na","Ġm ath","Ġget s","Ġcreat ive","Ġl ift","Ġre ference","tern al","Ġv ia","Ġmy self","Ġh oney","Ġoff ic","sy stem","d b","Ġe ast","Ġke ys","ap an","Ġ _","ce ption","Ġha st","ph one","Ġconc ern","Ġdepend ing","Ġd er","ent y","Ġstruct ures","Ġsa uce","Ġl oss","t itle","r c","s ql","Ġe p","g ory","Ġu lt","Ġst re","Ġj ac","Ġem phas","Ġob tain","Ġdire ction","Ġchick en","Ġking dom","o ps","Ġf uel","Ġme al","ord in","Ġabs olute","Ġtou ch","Ġch ann","str uction","Ġbro ken","Ġne ither","Ġ2 2","Ġplatform s","ari ly","o per",". âĢĿ","Ġc ert","en ced","h am","Ġreg ister","ll y","os ing","Ġret ail","d f","Ġw ild","Ġch andler","Ġmil es","an c","Ġnor th","alle l","Ġpat terns","Ġpolic y","6 5","Ġst age","Ġ- >","Ġother wise","ter m","Ġcomput ing","les h","b an","Ġt rib","Ġhist or","in clude","Ġre nt","ct ors","Ġcir c","Ġlin ux","Ġcl imate","Ġdiv ide","Ġlist s","Ġsam ple","Ġscen ari","Ġscre en","Ġlet ters","Ġpre m","Ġpass word","igh b","Ġpre t","Ġp sy","am s","ang er","Ġcol ors","Ġopt imal","Ġparam eter","Ġreven ue","Ġp al","Ġstra ight","Ġsc ore","Ġro ad","ip ment","Ġtrans fer","Ġcomp ar","Ġdevelop ing","Ġwar m","7 5","b on","j av","s es","Ġm ist","u fact","Ġexec ute","m t","Ġb le","Ġlo ck","Ġhealth care","Ġrequest s","d a","r st","ur t","Ġresult ing","Ġfocus ed","Ġcy cle","Ġnor mal","as ons","Ġst ar","il led","Ġret rie","Ġlim ited","v in","st ate","se lect","Ġde cl","Ġj apan","Ġjo y","on t","ic ing","Ġex c","Ġcount er","Ġinde pend","Ġp en","Ġtra ffic","Ġf at","Ġf lex","Ġma ster","tr ue","ele ment","Ġt ick","Ġs and","Ġpl ans","3 4","Ġad vert","Ġ ram","Ġlo st","Ġi r","as ure","ur l","Ġad min","v i","Ġe uro","Ġjac ob","Ġgir l","n am","Ġro t","Ġpers pect","Ġrel ative","Ġallow ed","Ġjour n","t able","tr ans","Ġinv ent","Ġal right","Ġwor th","Ġ8 0","Ġve ctor","s m","or m","b re","o int","in ner","Ġf if","b a","Ġbra in","Ġinterest ing","Ġst y","Ġal ph","Ġman ufact","col or","Ġo dd","le ft","Ġtra de","Ġconst raint","Ñ ģ","Ġmot iv","Ġrece ived","v ice","7 0","Ġm ine","Ġnum er","Ġet c","Ġintellig ence","Ġp et","Ġbl ess","Ġf ish","Ġpo em","Ġenc ry","Ġgl ory","Ġt ent","ce nding","Ġsp ort","Ġstud ies","Ġre li","Ġsupp ose","Ġtop ic","Ġill ustr","Ġ2 3","Ġtr ouble","Ġblock s","Ġb at","wor ld","9 0","ar c","Ġen able","ci ous","Ġfather s","Ġv an","Ġ2 6","Ġma c","Ġmil k","in it","cre ate","Ġc m","Ġch art","Ġdat as","e k","Ġface book","ic ed","Ġg ate","Ġdef ined","Ġreal ity","Ġadv anced","Ġelect ric","h ost","Ġth row","Ġmon ica","Ġdevelop ers","Ġcomp ute","Ġvi ol","Ġap ple","Ġto m","ic les","he nt","Ġ# ##","Ġgener ally","ul ations","Ġcont ra","Ġjav ascript","iv eness","cl us","Ġapp s","Ġorgan ization","a w","Ġg ard","Ġfeel ing","Ð ½","ww w","Ġdevelop ed","Ġprom ote","Ġchall enge","Ġproced ure","Ġh am","Ġplan ning","numb ers","Ġeconom ic","p ret","Ġsk in","Ġask ed","Ġrem ind","y ed","Ġpar allel","Ġplay ers","Ġconnect ed","d at","Ġs old","ch ron","od ing","[ \"","en ed","Ġright eous","Ġengine ering","ĠĠ Ċ","st at","Ġacc om","z a","Ġform s","Ġsou l","print ln","Ġhig hest","Ġcomb ination","Ġemot ional","m ain","Ġ\" \"","Ġ2 8","q rt","re ci","im age","Ġre verse","t oken","Ġeng aging","mess age","Ġp u","ire ct","Ġsw itch","Ġintern ational","Ġref er","ye ar","Ġredu cing","Ġhand ling","/ .","he l","av ing","dd dd","Ġw anna","Ġp am","Ġn u","Ġne ighb","Ġexper t","Ġl ate","Ġsol ar","Ġcho ices","Ġeffic iency","m et","cc cc","Ġthere of","Ġexerc ises","Ġb rief","Ġfil ter","Ġdaught er","m ath","le br","Ġl if","Ġpay ment","Ġdep th","miss ion","Ġm al","Ġopportun ities","Ġflo at","Ġe ye","Ġschedu le","Ġas semb","ap i","f ind","Ġc row","un k","Ġexce ption","Ġsustain able","ap h","Ġass ess","Ġi p","Ġprot ocol","Ġw is","Ġte ac","a res"]}}