{"version":"1.0","truncation":null,"padding":null,"added_tokens":[{"id":0,"content":"<PAD>","single_word":false,"lstrip":false,"rstrip":false,"normalized":false,"special":true},{"id":1,"content":"<BOS>","single_word":false,"lstrip":false,"rstrip":false,"normalized":false,"special":true},{"id":2,"content":"<EOS>","single_word":false,"lstrip":false,"rstrip":false,"normalized":false,"special":true},{"id":3,"content":"<UNK>","single_word":false,"lstrip":false,"rstrip":false,"normalized":false,"special":true}],"normalizer":{"type":"Sequence","normalizers":[{"type":"NFC"},{"type":"Lowercase"}]},"pre_tokenizer":{"type":"ByteLevel","add_prefix_space":true,"trim_offsets":true,"use_regex":true},"post_processor":{"type":"TemplateProcessing","single":[{"SpecialToken":{"id":"<BOS>","type_id":0}},{"Sequence":{"id":"A","type_id":0}},{"SpecialToken":{"id":"<EOS>","type_id":0}}],"pair":[{"SpecialToken":{"id":"<BOS>","type_id":0}},{"Sequence":{"id":"A","type_id":0}},{"SpecialToken":{"id":"<EOS>","type_id":0}},{"Sequence":{"id":"B","type_id":1}},{"SpecialToken":{"id":"<EOS>","type_id":1}}],"special_tokens":{"<BOS>":{"id":"<BOS>","ids":[1],"tokens":["<BOS>"]},"<EOS>":{"id":"<EOS>","ids":[2],"tokens":["<EOS>"]}}},"decoder":{"type":"ByteLevel","add_prefix_space":true,"trim_offsets":true,"use_regex":true},"model":{"type":"BPE","dropout":null,"unk_token":null,"continuing_subword_prefix":null,"end_of_word_suffix":null,"fuse_unk":false,"byte_fallback":false,"ignore_merges":false,"vocab":{"<PAD>":0,"<BOS>":1,"<EOS>":2,"<UNK>":3,"!":4,"\"":5,"#":6,"$":7,"%":8,"&":9,"'":10,"(":11,")":12,"*":13,"+":14,",":15,"-":16,".":17,"/":18,"0":19,"1":20,"2":21,"3":22,"4":23,"5":24,"6":25,"7":26,"8":27,"9":28,":":29,";":30,"<":31,"=":32,">":33,"?":34,"@":35,"[":36,"\\":37,"]":38,"^":39,"_":40,"`":41,"a":42,"b":43,"c":44,"d":45,"e":46,"f":47,"g":48,"h":49,"i":50,"j":51,"k":52,"l":53,"m":54,"n":55,"o":56,"p":57,"q":58,"r":59,"s":60,"t":61,"u":62,"v":63,"w":64,"x":65,"y":66,"z":67,"{":68,"|":69,"}":70,"~":71,"¡":72,"¢":73,"£":74,"¤":75,"¥":76,"¦":77,"§":78,"¨":79,"©":80,"ª":81,"«":82,"¬":83,"®":84,"¯":85,"°":86,"±":87,"²":88,"³":89,"´":90,"µ":91,"¶":92,"·":93,"¸":94,"¹":95,"º":96,"»":97,"¼":98,"½":99,"¾":100,"¿":101,"Â":102,"Ã":103,"Ä":104,"Å":105,"Ç":106,"É":107,"Ê":108,"Î":109,"Ï":110,"Ñ":111,"Ø":112,"Ù":113,"á":114,"â":115,"ä":116,"å":117,"æ":118,"ç":119,"è":120,"é":121,"ê":122,"ë":123,"í":124,"Ċ":125,"Ġ":126,"Ģ":127,"ģ":128,"Ĥ":129,"ĥ":130,"Ħ":131,"ħ":132,"Ĩ":133,"ĩ":134,"Ī":135,"ī":136,"Ĭ":137,"ĭ":138,"Į":139,"į":140,"İ":141,"ı":142,"Ĳ":143,"ĳ":144,"Ĵ":145,"ĵ":146,"Ķ":147,"ķ":148,"Ĺ":149,"ĺ":150,"Ļ":151,"Ľ":152,"ľ":153,"Ŀ":154,"ŀ":155,"Ł":156,"ł":157,"Ń":158,"Ġt":159,"Ġa":160,"he":161,"Ġi":162,"Ġthe":163,"Ġo":164,"Ġs":165,"re":166,"Ġw":167,"in":168,"Ġc":169,"er":170,"an":171,"Ġm":172,"Ġb":173,"on":174,"es":175,"''":176,"ou":177,"at":178,"Ġp":179,"Ġan":180,"Ġf":181,"en":182,"or":183,"Ġl":184,"Ġof":185,"Ġin":186,"al":187,"Ġis":188,"ar":189,"ed":190,"Ġand":191,"Ġth":192,"ing":193,"it":194,"Ġd":195,"Ġh":196,"om":197,"Ġto":198,"is":199,"ic":200,"as":201,"Ġn":202,"le":203,"Ġy":204,"ve":205,"Ġe":206,"Ġg":207,"Ġit":208,"us":209,"Ġbe":210,"Ġyou":211,"'''":212,"ion":213,"ll":214,"ot":215,"et":216,"Ġon":217,"ow":218,"ver":219,"ay":220,"Ġare":221,"ly":222,"op":223,"ent":224,"am":225,"st":226,"Ġfor":227,"Ġhe":228,"ut":229,"Ġthat":230,"ri":231,"Ġre":232,"ac":233,"Ġwh":234,"Ġlo":235,"Ġst":236,"un":237,"th":238,"ad":239,"gh":240,"im":241,"ld":242,"Ġor":243,"ur":244,"um":245,"se":246,"her":247,"Ġli":248,"id":249,"ir":250,"Ġ'''":251,"ct":252,"ol":253,"ith":254,"Ġk":255,"ce":256,"Ġas":257,"Ġus":258,"od":259,"Ġcan":260,"Ġwith":261,"Ġ(":262,"Ġr":263,"Ġme":264,"all":265,"Ġwor":266,"Ġha":267,"ch":268,"ak":269,"and":270,"ag":271,"Ġwe":272,"ght":273,"ers":274,"Ġmo":275,"oun":276,"Ġwas":277,"Ġlove":278,"Ġ1":279,"Ġcom":280,"ist":281,"Ġal":282,"Ġnot":283,"Ġpe":284,"Ġsom":285,"Ġse":286,"ation":287,"Ġthey":288,"il":289,"ul":290,"ain":291,"est":292,"Ġfr":293,"art":294,"ople":295,"Ġpeople":296,"ap":297,"âĢ":298,"Ġj":299,"Ġby":300,"ill":301,"Ġun":302,"umb":303,"Ġpr":304,"Ġwhe":305,"fe":306,"Ġch":307,"Ġde":308,"Ġhave":309,"Ġfrom":310,"Ġen":311,"Ġne":312,"'s":313,"ate":314,"ter":315,"Ġsh":316,"Ġsp":317,"ant":318,"ang":319,"Ġ\"":320,"Ġdo":321,"ther":322,"Ġat":323,"Ġone":324,"Ġcon":325,"ess":326,"Ġthis":327,"if":328,"Ġbut":329,"00":330,"Ġyour":331,"Ġ*":332,"ity":333,"ia":334,"ure":335,"ich":336,"Ġex":337,"os":338,"Ġ''":339,"Ġv":340,"Ġother":341,"ren":342,"Ġsome":343,"Ġall":344,"Ġpl":345,"Ġso":346,"em":347,"Ġwhen":348,"out":349,"Ġman":350,"ear":351,"ame":352,"one":353,"ke":354,"Ġab":355,"el":356,"Ġtr":357,"ci":358,"ig":359,"Ġwho":360,"up":361,"Ġ2":362,"Ġthumb":363,"Ġthere":364,"ud":365,"ab":366,"ust":367,"so":368,"Ġgo":369,"ally":370,"Ġar":371,"Ġhas":372,"ish":373,"ds":374,"Ġwhich":375,"ount":376,"qu":377,"ans":378,"ake":379,"ast":380,"ould":381,"ong":382,"Ġcall":383,"very":384,"age":385,"res":386,"Ġle":387,"ies":388,"now":389,"Ġbec":390,"ings":391,"ok":392,"Ġalso":393,"og":394,"ory":395,"ry":396,"aus":397,"Ġused":398,"Ġcalled":399,"ie":400,"ind":401,"Ġmy":402,"ive":403,"Ġgr":404,"Ġsu":405,"Ġmany":406,"Ġtim":407,"Ġtheir":408,"Ġlike":409,"ade":410,"Ġcomp":411,"Ġif":412,"Ġknow":413,"pp":414,"red":415,"ound":416,"Ġpart":417,"Ġwill":418,"right":419,"ary":420,"Ġcl":421,"Ġ19":422,"ays":423,"Ġmost":424,"ight":425,"Ġhis":426,"ace":427,"Ġmore":428,"rit":429,"'t":430,"iv":431,"ment":432,"Ġabout":433,"Ġfo":434,"ten":435,"Ġthem":436,"Ġam":437,"Ġcount":438,"ip":439,"our":440,"ide":441,"Ġwhat":442,"ause":443,"ect":444,"ort":445,"Ġeng":446,"Ġworld":447,"ous":448,"ian":449,"Ġno":450,"âĢĻ":451,"ical":452,"land":453,"Ġsomet":454,"rent":455,"ine":456,"ions":457,"erson":458,"ell":459,"ard":460,"Ġhow":461,"Ġperson":462,"ub":463,"to":464,"Ġtime":465,"ach":466,"Ġthan":467,"ough":468,"ue":469,"Ġdif":470,"Ġyear":471,"the":472,"Ġany":473,"reat":474,"ass":475,").":476,"ber":477,"Ġits":478,"Ġonly":479,"der":480,"Ġmade":481,"Ġev":482,"Ġup":483,"oc":484,"av":485,"pl":486,"cl":487,"Ġbecause":488,"Ġevery":489,"ge":490,"ree":491,"are":492,"Ġmay":493,"hing":494,"ple":495,"Ġher":496,"Ġfe":497,"Ġthings":498,"ose":499,"Ġcomm":500,"Ġdiffe":501,"Ġmake":502,"ink":503,"Ġlife":504,"Ġshe":505,"Ġaf":506,"ĠâĢ":507,"Ġpo":508,"Ġnor":509,"ually":510,"Ġtw":511,"mp":512,"ater":513,"Ġsy":514,"ack":515,"act":516,"Ġwere":517,"ore":518,"Ġbr":519,"px":520,"angu":521,"Ġdifferent":522,"iz":523,"lish":524,"ved":525,"]]":526,"ond":527,"Ġear":528,"Ġsou":529,"end":530,"Ġcont":531,"we":532,"ates":533,"Ġfir":534,"Ġword":535,"Ġad":536,"Ġsm":537,"Ġbl":538,"Ġlangu":539,"Ġag":540,"Ġout":541,"Ġcity":542,"[[":543,"ik":544,"Ġover":545,"Ġsa":546,"Ġph":547,"Ġco":548,"Ġbet":549,"Ġspe":550,"Ġfirst":551,"Ġwant":552,"als":553,"ire":554,"Ġchang":555,"de":556,"Ġenglish":557,"Ġbo":558,"ence":559,"Ġtwo":560,"ving":561,"pt":562,"Ġpro":563,"ble":564,"sel":565,"ance":566,"Ġinto":567,"Ġgod":568,"Ġusually":569,"Ġfl":570,"ra":571,"ft":572,"Ġwork":573,"Ġthese":574,"ated":575,"Ġlar":576,"Ġper":577,"..":578,"per":579,"Ġte":580,"ces":581,"ves":582,"ome":583,"ries":584,"ages":585,"Ġdes":586,"for":587,"ite":588,"able":589,"Ġway":590,"ice":591,"akes":592,"ult":593,"Ġsuch":594,"Ġac":595,"Ġ-":596,"Ġuse":597,"Ġsame":598,"Ġele":599,"Ġ|":600,"Ġwrit":601,"ens":602,"Ġhim":603,"Ġbel":604,"Ġmet":605,"other":606,"eric":607,"Ġdis":608,"ics":609,"Ġwould":610,"ope":611,"Ġrel":612,"ict":613,"les":614,"Ġunit":615,"Ġexam":616,"uch":617,"olog":618,"Ġmat":619,"vel":620,"ial":621,"Ġlong":622,"Ġdon":623,"Ġheart":624,"be":625,"yp":626,"Ġthink":627,"vers":628,"Ġjust":629,"gest":630,"ody":631,".\"":632,"Ġmar":633,"ep":634,"wn":635,"Ġoften":636,"Ġnew":637,"Ġsomeone":638,"Ġour":639,"Ġbeen":640,"Ġmeans":641,"Ġsomething":642,"clud":643,"erm":644,"sp":645,"Ġ[[":646,"Ġmean":647,"Ġearth":648,"ru":649,"Ġeach":650,"Ġsee":651,"Ġnorth":652,"ĠâĢĵ":653,"Ġlanguage":654,"ons":655,"iss":656,"Ġwhere":657,"Ġnever":658,"hem":659,"Ġcap":660,"Ġday":661,"Ġdoes":662,"li":663,"Ġinclud":664,"ign":665,"Ġqu":666,"Ġameric":667,"ents":668,"imes":669,"ateg":670,"ile":671,"ro":672,"Ġmuch":673,"get":674,"Ġget":675,"ild":676,"Ġmon":677,"ick":678,"Ġtyp":679,"Ġcateg":680,"Ġwords":681,"ations":682,"Ġcountry":683,"int":684,"edia":685,"Ġ20":686,"Ġcommon":687,"te":688,"ways":689,"Ġ3":690,"Ġcol":691,"own":692,"Ġsim":693,"Ġright":694,"Ġcould":695,"Ġcategory":696,"Ġvery":697,"Ġimp":698,"''.":699,"Ġpre":700,"Ġlook":701,"Ġhapp":702,"Ġcent":703,"ows":704,"Ġunder":705,"Ġri":706,"ween":707,"urn":708,"Ġeven":709,"Ġoff":710,"ital":711,"stem":712,"Ġyears":713,"Ġstud":714,"Ġgood":715,"Ġbetween":716,"Ġnumb":717,"Ġname":718,"ms":719,"Ġthen":720,"ern":721,"Ġro":722,"Ġafter":723,"Ġpres":724,"Ġla":725,"thing":726,"Ġsometimes":727,"Ġsmall":728,"ition":729,"Ġhad":730,"Ġwater":731,"ase":732,"Ġexample":733,"\".":734,"ne":735,"ys":736,"Ġind":737,"Ġalways":738,"Ġsouth":739,"self":740,"Ġstates":741,"uc":742,"ather":743,"Ġho":744,"Ġsystem":745,"),":746,"day":747,"Ġact":748,"vern":749,"Ġknown":750,"Ġcountries":751,"gin":752,"ject":753,"ath":754,"Ġanother":755,"Ġrep":756,"Ġthr":757,"000":758,"Ġhum":759,"Ġhist":760,"oss":761,"Ġart":762,"Ġsay":763,"Ġpop":764,"Ġaround":765,"Ġsc":766,"Ġlet":767,"Ġown":768,"Ġbot":769,"Ġcapital":770,"Ġsci":771,"Ġwik":772,"Ġstart":773,"Ġlive":774,"Ġwithout":775,"Ġ18":776,"Ġcomput":777,"ty":778,"Ġbu":779,"Ġstate":780,"Ġuni":781,"ood":782,"ps":783,"side":784,"Ġbor":785,"ower":786,"Ġunited":787,"fore":788,"Ġgen":789,"Ġbeing":790,"mb":791,"hes":792,"Ġob":793,"Ġcar":794,"Ġeur":795,"illion":796,"Ġsaid":797,"Ġpopul":798,"ks":799,"arch":800,"50":801,"Ġapp":802,"Ġgre":803,"ction":804,"ful":805,"lic":806,"ors":807,"Ġlight":808,"Ġaw":809,"Ġjo":810,"ism":811,"Ġarea":812,"Ġend":813,"tern":814,"Ġsur":815,"cial":816,"Ġgovern":817,"Ġgrou":818,"Ġfeel":819,"ists":820,"Ġsec":821,"Ġagain":822,"ology":823,"Ġwar":824,"Ġdist":825,"Ġfam":826,"alk":827,"Ġthose":828,"Ġneed":829,"ogr":830,"not":831,"Ġcal":832,"ness":833,"'',":834,"Ġlit":835,"Ġthrough":836,"ph":837,"Ġmus":838,"Ġnow":839,"tle":840,"hed":841,"Ġfind":842,"Ġshould":843,"ible":844,"Ġser":845,"Ġcreat":846,"ature":847,"Ġisland":848,"Ġgive":849,"Ġrem":850,"form":851,"ise":852,"Ġhistory":853,"co":854,"ric":855,"Ġform":856,"Ġhel":857,"Ġeurope":858,"Ġold":859,"Ġmain":860,"Ġgreat":861,"ince":862,"Ġmin":863,"Ġplay":864,"Ġfoot":865,"ail":866,"ix":867,"oman":868,"gan":869,"lo":870,"Ġsun":871,"ert":872,"Ġmakes":873,"Ġfound":874,"Ġthing":875,"Ġtoo":876,"Ġweb":877,"Ġchange":878,"Ġke":879,"Ġplace":880,"ave":881,"ff":882,"ars":883,"Ġtoget":884,"Ġbefore":885,"ipedia":886,"Ġlargest":887,"Ġgovernment":888,"Ġtogether":889,"hip":890,"ull":891,"Ġbody":892,"ities":893,"Ġdid":894,"Ġhand":895,"Ġ200":896,"hy":897,"Ġanim":898,"ames":899,"Ġloved":900,"'re":901,"ron":902,"Ġed":903,"Ġchem":904,"Ġback":905,"ark":906,"Ġwest":907,"any":908,"Ġfall":909,"its":910,"asure":911,"Ġnumber":912,"aking":913,"Ġadd":914,"ily":915,"ines":916,"ural":917,"ress":918,"Ġever":919,"ains":920,"--":921,"ball":922,"Ġmillion":923,"Ġpage":924,"Ġreal":925,"Ġothers":926,"ock":927,"Ġbelie":928,"ting":929,"Ġair":930,"aut":931,"me":932,"Ġcr":933,"Ġbas":934,"Ġeast":935,"''',":936,"Ġcomes":937,"Ġplan":938,"Ġelect":939,"Ġstudy":940,"ug":941,"Ġsol":942,"Ġinst":943,"Ġel":944,"Ġgiv":945,"Ġsea":946,"ai":947,"com":948,"less":949,"Ġset":950,"ational":951,"Ġprot":952,"Ġriver":953,"Ġcomputer":954,"Ġaway":955,"Ġtake":956,"ought":957,"con":958,"Ġ'":959,"rong":960,"Ġoce":961,"Ġlist":962,"Ġwikipedia":963,"ning":964,"Ġcome":965,"Ġbook":966,"Ġbig":967,"Ġdec":968,"ual":969,"Ġ4":970,"Ġ6":971,"'''.":972,"Ġdef":973,"ific":974,"ral":975,"Ġtell":976,"Ġsup":977,"Ġpol":978,"ets":979,"Ġwell":980,"Ġimport":981,"bo":982,"uary":983,"Ġpain":984,"Ġpages":985,"Ġgerm":986,"Ġreg":987,"Ġcannot":988,"ember":989,"Ġsub":990,"Ġhelp":991,"ger":992,"wor":993,"here":994,"ense":995,"ublic":996,"Ġsl":997,"Ġfa":998,"Ġland":999,"Ġey":1000,"Ġge":1001,"Ġhead":1002,"Ġres":1003,"ants":1004,"read":1005,"ins":1006,"Ġbrit":1007,"ating":1008,"Ġliving":1009,"Ġjan":1010,"Ġboth":1011,"Ġocean":1012,",\"":1013,"mber":1014,"xt":1015,"Ġnat":1016,"Ġgl":1017,"ondon":1018,"Ġmeaning":1019,"Ġsecond":1020,"Ġimportant":1021,"Ġim":1022,"Ġsk":1023,"Ġmil":1024,"Ġfri":1025,"Ġdown":1026,"Ġartic":1027,"Ġgener":1028,"Ġlittle":1029,"Ġz":1030,"Ġpower":1031,"Ġdr":1032,"verse":1033,"odu":1034,"Ġeverything":1035,"Ġpoint":1036,"...":1037,"Ġgroup":1038,"br":1039,"sh":1040,"ww":1041,"Ġide":1042,"Ġfour":1043,"Ġemp":1044,"Ġonce":1045,"cept":1046,"fect":1047,"Ġmust":1048,"Ġfar":1049,"Ġref":1050,"Ġking":1051,"Ġhuman":1052,"19":1053,"cy":1054,"Ġsw":1055,"ina":1056,"ury":1057,"Ġnear":1058,"Ġwritten":1059,"Ġlaw":1060,"formation":1061,"Ġcur":1062,"Ġpar":1063,"Ġinv":1064,"rib":1065,"Ġmeasure":1066,"Ġphys":1067,"Ġamerica":1068,"Ġhold":1069,"Ġobject":1070,"ah":1071,"ied":1072,"ium":1073,"ost":1074,"Ġcell":1075,"Ġmod":1076,"âĢĿ":1077,"Ġtype":1078,"Ġfootball":1079,"Ġelse":1080,"ax":1081,"cc":1082,"ier":1083,"led":1084,"tt":1085,"Ġpri":1086,"Ġang":1087,"Ġeas":1088,"uring":1089,"Ġtimes":1090,"Ġunderst":1091,"Ġoffic":1092,"Ġchemical":1093,"gy":1094,"io":1095,"igh":1096,"pen":1097,"rist":1098,"Ġ.":1099,"Ġ5":1100,"Ġ7":1101,"owing":1102,"Ġshap":1103,"Ġtrans":1104,"Ġacc":1105,"Ġsimple":1106,"Ġmusic":1107,"Ġjanuary":1108,"20":1109,"Ġap":1110,"Ġtrue":1111,"Ġfood":1112,"Ġamerican":1113,"gth":1114,"ious":1115,"amed":1116,"Ġstill":1117,"Ġkind":1118,"Ġchar":1119,"Ġclub":1120,"Ġ199":1121,"Ġprov":1122,"Ġlarge":1123,"Ġtem":1124,"Ġbegin":1125,"Ġrun":1126,"ague":1127,"Ġatom":1128,"Ġsoul":1129,"Ġchanges":1130,"Ġmatter":1131,"Ġkeep":1132,"az":1133,"ton":1134,"Ġu":1135,"ale":1136,"Ġhard":1137,"oney":1138,"Ġmonth":1139,"Ġcalend":1140,"ts":1141,"Ġinformation":1142,"Ġthree":1143,"ures":1144,"Ġexp":1145,"Ġparts":1146,"aves":1147,"Ġtypes":1148,"Ġbuild":1149,"fl":1150,"tr":1151,"Ġsince":1152,"Ġways":1153,"iness":1154,"Ġlear":1155,"Ġhome":1156,"ason":1157,"Ġstand":1158,"Ġenough":1159,"Ġsoft":1160,"Ġuniverse":1161,".]]":1162,"au":1163,"til":1164,"Ġter":1165,"Ġfin":1166,"Ġlondon":1167,"Ġprop":1168,"ield":1169,"ruct":1170,"mbol":1171,"Ġunderstand":1172,"'ll":1173,"200":1174,"Ġ8":1175,"Ġthought":1176,"ases":1177,"uss":1178,"aces":1179,"âĢĶ":1180,"ments":1181,"Ġlanguages":1182,"ven":1183,"hest":1184,"Ġwon":1185,"Ġbest":1186,"omet":1187,"ams":1188,"ution":1189,"Ġyourself":1190,"iew":1191,"Ġfore":1192,"Ġspecial":1193,"Ġdesc":1194,"Ġpopulation":1195,"'m":1196,"ib":1197,"Ġent":1198,"Ġtalk":1199,"Ġcor":1200,"Ġpass":1201,"Ġlast":1202,"uth":1203,"Ġread":1204,"ident":1205,"Ġscience":1206,"ograp":1207,"Ġanimals":1208,"body":1209,"dom":1210,"ians":1211,"}}":1212,"Ġaust":1213,"Ġbeaut":1214,"rie":1215,"apan":1216,"Ġchild":1217,"els":1218,"Ġclass":1219,"Ġcommun":1220,"selves":1221,"Ġ201":1222,"Ġside":1223,"Ġmount":1224,"Ġfather":1225,"Ġlat":1226,"Ġintern":1227,"Ġdiv":1228,"Ġem":1229,"Ġred":1230,"Ġcanad":1231,"Ġuntil":1232,"Ġbetter":1233,"Ġrelig":1234,"Ġinclude":1235,"air":1236,"cent":1237,"ying":1238,"Ġbre":1239,"ese":1240,"Ġgree":1241,"Ġorgan":1242,"Ġleague":1243,"velop":1244,"Ġbritish":1245,"'ve":1246,"cle":1247,"ane":1248,"ones":1249,"Ġpap":1250,"ision":1251,"let":1252,"Ġgu":1253,"Ġprodu":1254,"Ġspace":1255,"ize":1256,"Ġcalendar":1257,"\",":1258,"ared":1259,"hen":1260,"Ġsing":1261,"Ġdire":1262,"und":1263,"idd":1264,"Ġkiss":1265,"Ġchrist":1266,"oken":1267,"Ġhappen":1268,"ertain":1269,"port":1270,"wh":1271,"Ġ&":1272,"Ġdevelop":1273,"Ġcons":1274,"Ġvol":1275,"cient":1276,"ĠâĢľ":1277,"Ġcontr":1278,"Ġphil":1279,"ever":1280,"|[[":1281,"inds":1282,"ouse":1283,"Ġput":1284,"Ġfree":1285,"Ġhur":1286,"Ġret":1287,"Ġstop":1288,"Ġusing":1289,"Ġnothing":1290,"ules":1291,"Ġval":1292,"Ġbecome":1293,"Ġsymbol":1294,"Ġfamous":1295,"Ġeyes":1296,"aw":1297,"iet":1298,"war":1299,"Ġterm":1300,"Ġori":1301,"ann":1302,"Ġmom":1303,"alth":1304,"Ġnight":1305,"Ġyet":1306,"Ġstars":1307,"Ġcho":1308,"Ġwhole":1309,"Ġleg":1310,"Ġanything":1311,"Ġcontin":1312,"Ġ9":1313,"Ġma":1314,"Ġmaking":1315,"ories":1316,"Ġinde":1317,"Ġnamed":1318,"Ġhere":1319,"Ġwhy":1320,"ids":1321,"Ġkill":1322,"Ġshow":1323,"Ġengland":1324,"Ġscient":1325,"pe":1326,"uly":1327,"Ġturn":1328,"Ġopen":1329,"Ġmed":1330,"Ġmoney":1331,"Ġwee":1332,"Ġjapan":1333,"Ġdep":1334,"Ġlead":1335,"Ġfoll":1336,"Ġsurf":1337,"Ġnatural":1338,"//":1339,"18":1340,"ches":1341,"ware":1342,"wik":1343,"Ġve":1344,"Ġcame":1345,"Ġmight":1346,"ats":1347,"Ġfight":1348,"orian":1349,"Ġhar":1350,"Ġtop":1351,"amm":1352,"Ġheav":1353,"Ġwhile":1354,"Ġroman":1355,"Ġexper":1356,"Ġcomple":1357,"iction":1358,"Ġfamily":1359,"Ġeuropean":1360,"Ġdefin":1361,"Ġorigin":1362,"://":1363,"rop":1364,"Ġsqu":1365,"Ġsign":1366,"ank":1367,"Ġbi":1368,"Ġpen":1369,"Ġancient":1370,"ley":1371,"Ġuses":1372,"Ġunion":1373,"Ġshall":1374,"thern":1375,"Ġatt":1376,"Ġconst":1377,"Ġunivers":1378,"Ġofficial":1379,"Ġpaper":1380,"go":1381,"you":1382,"Ġwind":1383,"Ġcour":1384,"ative":1385,"Ġposs":1386,"Ġfear":1387,"Ġlot":1388,"Ġtoday":1389,"ung":1390,"thumb":1391,"aps":1392,"iful":1393,"Ġfew":1394,"ized":1395,"like":1396,"Ġgreen":1397,"Ġcanada":1398,"250":1399,"af":1400,"ced":1401,"gorian":1402,"most":1403,"ner":1404,"Ġast":1405,"Ġsent":1406,"Ġinside":1407,"Ġ17":1408,"Ġchina":1409,"ange":1410,"osop":1411,"Ġleft":1412,"Ġpresident":1413,"Ġgregorian":1414,"htt":1415,"nb":1416,"Ġoper":1417,"Ġcre":1418,"Ġmind":1419,"Ġbus":1420,"ends":1421,"ord":1422,"Ġdone":1423,"Ġdays":1424,"lect":1425,"ird":1426,"Ġkinds":1427,"ility":1428,"Ġproc":1429,"Ġexpl":1430,"Ġbecame":1431,"Ġcentury":1432,"Ġstarted":1433,"Ġcreated":1434,"gr":1435,"Ġwoman":1436,"Ġcities":1437,"Ġduring":1438,"Ġhig":1439,"ices":1440,"ash":1441,"Ġgas":1442,"''')":1443,"Ġmathem":1444,"Ġpolit":1445,"Ġbeautiful":1446,"Ġgreek":1447,"nbsp":1448,"Ġmathemat":1449,"10":1450,"avel":1451,"min":1452,"par":1453,"ring":1454,"west":1455,"Ġcare":1456,"Ġcult":1457,"Ġcertain":1458,"Ġmater":1459,"Ġpast":1460,"Ġpie":1461,"Ġless":1462,"Ġreally":1463,"imate":1464,"Ġdeath":1465,"udd":1466,"Ġspeak":1467,"Ġincludes":1468,"Ġ202":1469,"Ġrepublic":1470,"Ġcells":1471,"ward":1472,"Ġwood":1473,"Ġfact":1474,"Ġfull":1475,"Ġthough":1476,"Ġhigh":1477,"Ġital":1478,"ote":1479,"une":1480,"ides":1481,"Ġmove":1482,"Ġseen":1483,"ular":1484,"âĢĵ":1485,"rench":1486,"new":1487,"Ġbelieve":1488,"Ġlearn":1489,"Ġmoment":1490,"ck":1491,"ove":1492,"Ġtakes":1493,"Ġtheory":1494,"Ġcop":1495,"alt":1496,"ither":1497,"Ġequ":1498,"amb":1499,"ute":1500,"Ġresp":1501,"Ġliqu":1502,"Ġwithin":1503,"Ġgoing":1504,"Ġ197":1505,"Ġwrite":1506,"Ġcolor":1507,"Ġprotect":1508,"Ġkingdom":1509,"Ġphilosop":1510,"hn":1511,"mer":1512,"mon":1513,"Ġsch":1514,"Ġmiss":1515,"Ġlen":1516,"ished":1517,"Ġnational":1518,"Ġbeh":1519,"Ġste":1520,"ided":1521,"Ġask":1522,"Ġdev":1523,"Ġgrow":1524,"Ġthemselves":1525,"ples":1526,"Ġincluding":1527,"Ġagainst":1528,"Ġserv":1529,"Ġwebs":1530,"Ġgiven":1531,"Ġfaith":1532,"Ġglass":1533,"Ġmodern":1534,"Ġsurface":1535,"30":1536,"?\"":1537,"ling":1538,"Ġest":1539,"Ġsour":1540,"Ġche":1541,"ergy":1542,"ata":1543,"Ġdri":1544,"Ġhour":1545,"Ġstrong":1546,"Ġseem":1547,"Ġprogr":1548,"Ġclose":1549,"Ġhowever":1550,"Ġafric":1551,"Ġblack":1552,"Ġpress":1553,"Ġhumans":1554,"Ġborn":1555,"Ġarticle":1556,"Ġidea":1557,"by":1558,"ii":1559,"ool":1560,"Ġsum":1561,"Ġmag":1562,"Ġple":1563,"omy":1564,"Ġgame":1565,"amp":1566,"Ġforg":1567,"Ġrec":1568,"Ġcond":1569,"Ġplants":1570,"orts":1571,"ousand":1572,"Ġdesign":1573,"Ġmarch":1574,"Ġsimil":1575,"uck":1576,"Ġislands":1577,"Ġremember":1578,"Ġdirect":1579,"iddle":1580,"man":1581,"pr":1582,"Ġsays":1583,"Ġwalk":1584,"Ġinter":1585,"Ġthousand":1586,"Ġdie":1587,"Ġdark":1588,"Ġhal":1589,"Ġhot":1590,"Ġlives":1591,"Ġenergy":1592,"Ġanyone":1593,"Ġtele":1594,"Ġdoesn":1595,"Ġnumbers":1596,"Ġstarting":1597,"Ġpopular":1598,"Ġgerman":1599,"Ġshape":1600,"Ġsoftware":1601,"Ġaustral":1602,"Ġlatin":1603,"Ġweek":1604,"Ġprocess":1605,"bs":1606,"of":1607,"ted":1608,"Ġ[":1609,"Ġopp":1610,"Ġwrong":1611,"Ġcat":1612,"Ġcir":1613,"Ġmass":1614,"Ġbad":1615,"eds":1616,"Ġnet":1617,"ament":1618,"ried":1619,"Ġwhite":1620,"Ġlived":1621,"Ġruss":1622,"Ġhaw":1623,"Ġdece":1624,"osp":1625,"Ġrelated":1626,"Ġmonarch":1627,"Ġgroups":1628,"Ġsquare":1629,"lf":1630,"met":1631,"ux":1632,"ues":1633,"Ġtest":1634,"Ġage":1635,"Ġwr":1636,"Ġwat":1637,"Ġcy":1638,"Ġcaus":1639,"ering":1640,"ances":1641,"Ġmiddle":1642,"ences":1643,"Ġdre":1644,"Ġhor":1645,"Ġgal":1646,"veral":1647,"rid":1648,"ril":1649,"Ġloving":1650,"Ġrom":1651,"Ġrad":1652,"Ġrain":1653,"Ġalong":1654,"Ġalmost":1655,"Ġseveral":1656,"Ġevents":1657,"Ġquest":1658,"Ġplanet":1659,"Ġlaws":1660,"Ġsimilar":1661,"ech":1662,"iod":1663,"Ġsil":1664,"Ġfrench":1665,"Ġlater":1666,"Ġinc":1667,"Ġnames":1668,"Ġeat":1669,"Ġecon":1670,"Ġlost":1671,"that":1672,"Ġasia":1673,"Ġhair":1674,"Ġ15":1675,"Ġsex":1676,"Ġpray":1677,"Ġvo":1678,"rence":1679,"Ġbecom":1680,"Ġengine":1681,"Ġeveryone":1682,"Ġmark":1683,"Ġgermany":1684,"Ġgeneral":1685,"Ġchildren":1686,"300":1687,"can":1688,"pos":1689,"Ġes":1690,"Ġbir":1691,"Ġfire":1692,"itions":1693,"Ġdi":1694,"ots":1695,"Ġmoon":1696,"Ġ16":1697,"Ġpeace":1698,"Ġvar":1699,"Ġpartic":1700,"Ġproble":1701,"Ġworks":1702,"ugust":1703,"Ġbiggest":1704,"Ġforever":1705,"Ġhurt":1706,"my":1707,"nect":1708,"oes":1709,"ters":1710,"Ġsat":1711,"outh":1712,"org":1713,"Ġbegan":1714,"Ġloves":1715,"ounds":1716,"Ġexist":1717,"Ġ196":1718,"Ġwriting":1719,"Ġbelong":1720,"Ġdise":1721,"Ġrelations":1722,"Ġhappens":1723,"Ġdistance":1724,"Ġbooks":1725,"www":1726,"Ġapril":1727,"Ġbreak":1728,"Ġsingle":1729,"Ġhawai":1730,"sy":1731,"rees":1732,"Ġmen":1733,"Ġmic":1734,"esus":1735,"Ġfun":1736,"Ġface":1737,"Ġreason":1738,"Ġrules":1739,"aph":1740,"Ġjud":1741,"antic":1742,"Ġconf":1743,"Ġconnect":1744,"Ġtravel":1745,"Ġcompany":1746,"Ġbox":1747,"ford":1748,"Ġelement":1749,"Ġlonger":1750,"Ġrepres":1751,"Ġjohn":1752,"Ġarticles":1753,"ledge":1754,"Ġtemper":1755,"http":1756,"Ġsource":1757,"'d":1758,"bl":1759,"bru":1760,"dr":1761,"fr":1762,"na":1763,"Ġtou":1764,"Ġsure":1765,"ret":1766,"Ġcry":1767,"Ġmix":1768,"ont":1769,"Ġpa":1770,"Ġpat":1771,"Ġfre":1772,"Ġfive":1773,"Ġlic":1774,"Ġlake":1775,"Ġline":1776,"Ġhouse":1777,"ented":1778,"Ġstr":1779,"cts":1780,"Ġ10":1781,"app":1782,"Ġconside":1783,"Ġplaces":1784,"Ġtrad":1785,"cies":1786,"Ġgoes":1787,"Ġleave":1788,"Ġseek":1789,"Ġcomputers":1790,"love":1791,"Ġanimal":1792,"Ġelectr":1793,"Ġsolar":1794,"Ġobjects":1795,"Ġcontrol":1796,"Ġreturn":1797,"Ġmaj":1798,"Ġafrica":1799,"Ġdecember":1800,"Ġconsidered":1801,"ma":1802,"ox":1803,"view":1804,"Ġvers":1805,"Ġaugust":1806,"ined":1807,"Ġfield":1808,"ison":1809,"Ġeither":1810,"ime":1811,"Ġworth":1812,"aken":1813,"Ġ14":1814,"Ġsepar":1815,"ained":1816,"Ġjesus":1817,"Ġprom":1818,"Ġspir":1819,"Ġsoci":1820,"elt":1821,"bert":1822,"Ġmaybe":1823,"Ġpoor":1824,"raft":1825,"Ġmetal":1826,"Ġexamples":1827,"Ġfriends":1828,"Ġcomplete":1829,"Ġlength":1830,"ered":1831,"oy":1832,"ros":1833,"tom":1834,"Ġav":1835,"Ġoil":1836,"rest":1837,"Ġce":1838,"Ġpict":1839,"ene":1840,"vered":1841,"Ġgn":1842,"ental":1843,"acter":1844,"Ġstay":1845,"Ġhaving":1846,"Ġje":1847,"Ġtry":1848,"Ġblue":1849,"Ġago":1850,"Ġprof":1851,"Ġregion":1852,"Ġsubst":1853,"Ġcurrent":1854,"Ġterrit":1855,"Ġdescri":1856,"Ġmountain":1857,"Ġrelationship":1858,"Ġmajor":1859,"hol":1860,"light":1861,"mary":1862,"nd":1863,"sw":1864,"where":1865,"Ġtree":1866,"Ġmess":1867,"Ġdata":1868,"eth":1869,"Ġones":1870,"Ġhealth":1871,"Ġloc":1872,"Ġknew":1873,"Ġrather":1874,"ister":1875,"Ġatl":1876,"Ġvis":1877,"Ġable":1878,"Ġtrust":1879,"Ġsuff":1880,"Ġamong":1881,"Ġ|-":1882,"Ġlooking":1883,"Ġsmaller":1884,"Ġindia":1885,"Ġdidn":1886,"ography":1887,"Ġastron":1888,"Ġhalf":1889,"Ġoppos":1890,"70":1891,"bre":1892,"but":1893,"ex":1894,"gs":1895,"ham":1896,"ser":1897,"Ġten":1898,"Ġocc":1899,"Ġsin":1900,"Ġwide":1901,"Ġcle":1902,"Ġmor":1903,"Ġmad":1904,"ator":1905,"atic":1906,"Ġpull":1907,"ork":1908,"Ġlim":1909,"Ġlink":1910,"iter":1911,"Ġdet":1912,"Ġhate":1913,"Ġgames":1914,"Ġrest":1915,"Ġstren":1916,"ctic":1917,"Ġrich":1918,"Ġmemb":1919,"Ġalone":1920,"Ġfru":1921,"Ġshort":1922,"Ġspell":1923,"Ġspoken":1924,"Ġtruth":1925,"Ġlevel":1926,"ogen":1927,"Ġknowledge":1928,"Ġclot":1929,"Ġ198":1930,"Ġdiff":1931,"Ġfebru":1932,"Ġchanged":1933,"ptember":1934,"Ġperiod":1935,"Ġtext":1936,"Ġsky":1937,"Ġideas":1938,"Ġheaven":1939,"ictionary":1940,"Ġuniversity":1941,"Ġpossible":1942,"Ġgalax":1943,"bon":1944,"hic":1945,"ient":1946,"sc":1947,"vent":1948,"vision":1949,"Ġsix":1950,"eral":1951,"Ġburn":1952,"Ġthird":1953,"ites":1954,"Ġforget":1955,"Ġstruct":1956,"Ġorder":1957,"Ġ(''":1958,"Ġself":1959,"Ġdem":1960,"Ġext":1961,"rences":1962,"Ġsocial":1963,"Ġabove":1964,"Ġground":1965,"ellow":1966,"Ġnorm":1967,"Ġwanted":1968,"Ġperfect":1969,"Ġcenter":1970,"Ġwestern":1971,"Ġbased":1972,"Ġgives":1973,"Ġphysical":1974,"wards":1975,"Ġfebruary":1976,"91":1977,"cess":1978,"ged":1979,"ky":1980,"know":1981,"lin":1982,"ross":1983,"Ã©":1984,"Ġ#":1985,"Ġver":1986,"Ġtit":1987,"Ġice":1988,"Ġwis":1989,"Ġcri":1990,"Ġmult":1991,"Ġpet":1992,"Ġpur":1993,"Ġlin":1994,"ited":1995,"Ġtot":1996,"Ġtool":1997,"icult":1998,"lec":1999,"Ġitself":2000,"ety":2001,"Ġareas":2002,"Ġforce":2003,"Ġreact":2004,"Ġstar":2005,"ode":2006,"Ġseptember":2007,"ilt":2008,"Ġnext":2009,"Ġview":2010,"ement":2011,"Ġ194":2012,"tend":2013,"Ġamount":2014,"Ġevil":2015,"ization":2016,"ending":2017,"Ġteach":2018,".\"\"":2019,"Ġque":2020,"Ġprem":2021,"Ġcentral":2022,"Ġlau":2023,"Ġplayed":2024,"Ġfriend":2025,"Ġrefer":2026,"Ġinternet":2027,"Ġbusiness":2028,"Ġcopy":2029,"Ġliquid":2030,"Ġaustralia":2031,"24":2032,"ires":2033,"ience":2034,"old":2035,"Ã¼":2036,"Ġtri":2037,"Ġire":2038,"Ġox":2039,"Ġsle":2040,"Ġsize":2041,"Ġwa":2042,"Ġcause":2043,"Ġbreat":2044,"orn":2045,"Ġint":2046,"Ġdest":2047,"Ġhon":2048,"Ġhund":2049,"Ġtown":2050,"Ġrese":2051,"Ġlog":2052,"Ġlos":2053,"ume":2054,"Ġkil":2055,"Ġkore":2056,"Ġrock":2057,"Ġmem":2058,"Ġmeet":2059,"ude":2060,"Ġarms":2061,"Ġleast":2062,"ivity":2063,"Ġpoet":2064,"Ġcontain":2065,"Ġblood":2066,"Ġcold":2067,"Ġacross":2068,"Ġmeth":2069,"ucle":2070,"Ġdrink":2071,"Ġuk":2072,"Ġexpect":2073,"Ġproper":2074,"Ġreligions":2075,"Ġindeed":2076,"Ġmaterial":2077,"Ġtemperature":2078,"Ġireland":2079,"ders":2080,"ead":2081,"gen":2082,"iation":2083,"ipp":2084,"list":2085,"nes":2086,"row":2087,"zy":2088,"Ġur":2089,"rect":2090,"Ġwall":2091,"Ġbillion":2092,"Ġpay":2093,"Ġpublic":2094,"iting":2095,"Ġdictionary":2096,"ask":2097,"ased":2098,"aster":2099,"Ġeth":2100,"Ġgot":2101,"ional":2102,"opes":2103,"Ġstat":2104,"Ġcomb":2105,"istr":2106,"apor":2107,"Ġshows":2108,"Ġexcept":2109,"Ġsomebody":2110,"que":2111,"Ġmyself":2112,"Ġmostly":2113,"Ġnorthern":2114,"Ġbro":2115,"Ġhappy":2116,"Ġroad":2117,"Ġgreater":2118,"Ġhands":2119,"Ġbasic":2120,"Ġinstead":2121,"Ġeasy":2122,"Ġbegins":2123,"Ġpiece":2124,"Ġwebsite":2125,"Ġtelevision":2126,"Ġbecomes":2127,"Ġdescribe":2128,"Ġstrength":2129,"Ġmembers":2130,"11":2131,"14":2132,"fer":2133,"ml":2134,"tc":2135,"zer":2136,"Ġx":2137,"Ġir":2138,"Ġill":2139,"Ġsal":2140,"Ġsong":2141,"Ġwaves":2142,"Ġmot":2143,"Ġmother":2144,"esc":2145,"Ġisn":2146,"Ġgir":2147,"Ġrele":2148,"aced":2149,"Ġstra":2150,"irt":2151,"Ġ12":2152,"Ġseason":2153,"Ġfrance":2154,"Ġvict":2155,"Ġplant":2156,"Ġabs":2157,"Ġleaves":2158,"Ġblock":2159,"roll":2160,"Ġresult":2161,"Ġphysics":2162,"Ġatoms":2163,"Ġscientists":2164,"Ġpolitical":2165,"Ġbirth":2166,"Ġdisease":2167,"Ġrepresent":2168,"Ġdifficult":2169,"ae":2170,"bab":2171,"gar":2172,"ng":2173,"oot":2174,"put":2175,"Ġtast":2176,"Ġauth":2177,"Ġsense":2178,"Ġcup":2179,"Ġbar":2180,"Ġhy":2181,"Ġnature":2182,"though":2183,"cto":2184,"Ġass":2185,"ods":2186,"Ġmolec":2187,"Ġsearch":2188,"Ġdeep":2189,"Ġatm":2190,"Ġtruly":2191,"cially":2192,"Ġcontains":2193,"Ġsmile":2194,"Ġcoast":2195,"Ġspeech":2196,"Ġspecies":2197,"Ġflo":2198,"Ġlooked":2199,"Ġappear":2200,"Ġneeds":2201,"Ġcreator":2202,"cohol":2203,"Ġfounded":2204,"Ġfalling":2205,"Ġplanets":2206,"Ġskin":2207,"Ġempire":2208,"Ġmeasured":2209,"Ġbuildings":2210,"Ġstandard":2211,"Ġdescrib":2212,"Ġinternational":2213,"Ġchoose":2214,"Ġjapanese":2215,"Ġleader":2216,"Ġfollow":2217,"Ġoperating":2218,"Ġhighest":2219,"Ġitalian":2220,"Ġbehind":2221,"Ġwrote":2222,".,":2223,"16":2224,"39":2225,"ares":2226,"bb":2227,"ein":2228,"ius":2229,"mar":2230,"oe":2231,"uk":2232,"wan":2233,"ze":2234,"Ġ!":2235,"anish":2236,"Ġball":2237,"ators":2238,"Ġpos":2239,"Ġansw":2240,"Ġfelt":2241,"itary":2242,"Ġdom":2243,"Ġnucle":2244,"ument":2245,"see":2246,"Ġmel":2247,"chn":2248,"Ġweight":2249,"istry":2250,"Ġalthough":2251,"Ġshare":2252,"Ġspread":2253,"Ġallow":2254,"ems":2255,"Ġknows":2256,"Ġ195":2257,"Ġearly":2258,"Ġoutside":2259,"Ġaccept":2260,"Ġelements":2261,"Ġunits":2262,"Ġstudies":2263,"Ġindust":2264,"Ġborder":2265,"Ġsecret":2266,"Ġaddress":2267,"Ġelectric":2268,"Ġdecade":2269,"Ġtransl":2270,"Ġprovince":2271,"Ġatomic":2272,"Ġdivided":2273,"Ġvalue":2274,"Ġphilosophy":2275,"Ġprogram":2276,"Ġvoice":2277,"Ġproblems":2278,"Ġmicros":2279,"Ġlicense":2280,"Ġprofess":2281,"Ġopposite":2282,"ctober":2283,"Ġatmosp":2284,".âĢĿ":2285,"26":2286,"bour":2287,"cul":2288,"Ġtear":2289,"Ġtel":2290,"Ġtreat":2291,"heast":2292,"Ġswe":2293,"Ġwin":2294,"ination":2295,"ana":2296,"Ġmur":2297,"Ġmine":2298,"Ġmach":2299,"Ġbc":2300,"Ġfig":2301,"Ġlab":2302,"Ġdam":2303,"Ġdry":2304,"Ġhope":2305,"Ġnoun":2306,"Ġnations":2307,"Ġyellow":2308,"etic":2309,"Ġrefe":2310,"olution":2311,"Ġru":2312,"Ġmov":2313,"Ġ11":2314,"Ġ100":2315,"Ġalread":2316,"ula":2317,"Ġdoing":2318,"Ġexact":2319,"osed":2320,"Ġarg":2321,"Ġarm":2322,"Ġevent":2323,"Ġupon":2324,"Ġphr":2325,"Ġphot":2326,"Ġproject":2327,"Ġflat":2328,"Ġtechn":2329,"Ġdisco":2330,"Ġ30":2331,"Ġbuilt":2332,"Ġoldest":2333,"work":2334,"Ġmiles":2335,"Ġapart":2336,"Ġwonder":2337,"Ġrespect":2338,"Ġeconom":2339,"Ġspirit":2340,"Ġatlantic":2341,"known":2342,"Ġpremier":2343,"Ġkilomet":2344,"Ġauthor":2345,"Ġalready":2346,"ges":2347,"hab":2348,"line":2349,"mc":2350,"no":2351,"oid":2352,"ture":2353,"way":2354,"Ġ$":2355,"Ġer":2356,"Ġtur":2357,"Ġtable":2358,"Ġaut":2359,"Ġwish":2360,"Ġcit":2361,"Ġcub":2362,"Ġber":2363,"Ġlow":2364,"Ġinf":2365,"aring":2366,"ised":2367,"Ġbell":2368,"this":2369,"Ġris":2370,"aged":2371,"Ġwasn":2372,"Ġ13":2373,"Ġalcohol":2374,"Ġsell":2375,"Ġjuly":2376,"Ġjune":2377,"Ġwhether":2378,"Ġchur":2379,"Ġvi":2380,"Ġarch":2381,"Ġmyth":2382,"Ġgrav":2383,"ounded":2384,"Ġbroken":2385,"Ġadmin":2386,"Ġspec":2387,"bec":2388,"liament":2389,"Ġquick":2390,"Ġhappiness":2391,"Ġsystems":2392,"Ġactually":2393,"Ġscre":2394,"Ġbottom":2395,"Ġborders":2396,"Ġcarbon":2397,"Ġsurr":2398,"Ġformed":2399,"ression":2400,"Ġbelief":2401,"cycl":2402,"Ġswit":2403,"Ġbeginning":2404,"Ġentire":2405,"Ġreligion":2406,"Ġdefinition":2407,"Ġcreate":2408,"Ġmathematics":2409,"Ġschool":2410,"Ġtouch":2411,"Ġversion":2412,"Ġtotal":2413,"Ġsweet":2414,"13":2415,"25":2416,"eur":2417,"how":2418,"haps":2419,"mes":2420,"more":2421,"pend":2422,"ror":2423,"she":2424,"tar":2425,"Â°":2426,"head":2427,"Ġid":2428,"Ġoctober":2429,"Ġsnow":2430,"Ġsaus":2431,"Ġsick":2432,"Ġcut":2433,"Ġmer":2434,"Ġbible":2435,"Ġport":2436,"Ġfat":2437,"itu":2438,"Ġnon":2439,"Ġetc":2440,"ama":2441,"Ġforms":2442,"Ġheld":2443,"Ġreach":2444,"Ġlose":2445,"Ġstad":2446,"Ġstep":2447,"idence":2448,"Ġkm":2449,"Ġuser":2450,"Ġrose":2451,"Ġmeant":2452,"Ġweak":2453,"istan":2454,"istics":2455,"Ġalph":2456,"iles":2457,"ills":2458,"ified":2459,"Ġplays":2460,"Ġarab":2461,"ogn":2462,"Ġknowing":2463,"Ġclimate":2464,"Ġpoly":2465,"Ġbran":2466,"Ġsouthern":2467,"Ġspeed":2468,"Ġlarger":2469,"ological":2470,"Ġgets":2471,"Ġlooks":2472,"Ġpresent":2473,"Ġ188":2474,"Ġborough":2475,"Ġcarry":2476,"Ġchemistry":2477,"Ġsolid":2478,"Ġslow":2479,"Ġimm":2480,"Ġfarm":2481,"Ġinvol":2482,"Ġprime":2483,"Ġangel":2484,"Ġchristian":2485,"Ġhappened":2486,"Ġvolcan":2487,"pecially":2488,"Ġhigher":2489,"Ġthousands":2490,"Ġmultip":2491,"Ġresearch":2492,"Ġgirl":2493,"Ġatmosphere":2494,"Ġadministr":2495,"Ġstadium":2496,".''":2497,"99":2498,"mas":2499,"ole":2500,"rain":2501,"top":2502,"val":2503,"hel":2504,"Ġsides":2505,"ania":2506,"Ġfish":2507,"enn":2508,"Ġdance":2509,"Ġyork":2510,"vember":2511,"ster":2512,"Ġheal":2513,"ria":2514,"Ġstory":2515,"agn":2516,"Ġcoming":2517,"Ġpract":2518,"Ġenem":2519,"anger":2520,"Ġdoc":2521,"Ġ**":2522,"Ġsold":2523,"Ġwhose":2524,"Ġ24":2525,"astic":2526,"oking":2527,"Ġsucc":2528,"Ġnovember":2529,"ubl":2530,"Ġfeet":2531,"Ġpole":2532,"Ġoverview":2533,"Ġworking":2534,"itional":2535,"Ġletters":2536,"Ġfeeling":2537,"Ġliter":2538,"----":2539,"Ġsupport":2540,"Ġeye":2541,"Ġmilitary":2542,"Ġaccount":2543,"rief":2544,"Ġcommunic":2545,"Ġdeveloped":2546,"Ġvolume":2547,"Ġfollowing":2548,"wiki":2549,"Ġwindows":2550,"Ġcourse":2551,"Ġsentence":2552,"Ġrussia":2553,"Ġwatch":2554,"ridge":2555,"Ġradio":2556,"Ġquestions":2557,"Ġpicture":2558,"Ġjew":2559,"Ġstructure":2560,"Ġkorea":2561,"Ġstraight":2562,"cyclop":2563,"Ġsuccess":2564,"12":2565,"36":2566,"aur":2567,"ec":2568,"ht":2569,"ials":2570,"po":2571,"Ġ0":2572,"Ġtaken":2573,"Ġii":2574,"Ġwild":2575,"Ġca":2576,"erve":2577,"anc":2578,"Ġmill":2579,"Ġbur":2580,"ony":2581,"Ġpy":2582,"Ġfill":2583,"ales":2584,"Ġden":2585,"Ġtold":2586,"asons":2587,"Ġgard":2588,"use":2589,"owers":2590,"Ġrequ":2591,"Ġrepl":2592,"ached":2593,"Ġstre":2594,"Ġstri":2595,"Ġlips":2596,"ctor":2597,"olit":2598,"Ġrare":2599,"Ġmoving":2600,"Ġdeg":2601,"Ġenv":2602,"Ġ27":2603,"Ġ28":2604,"Ġbring":2605,"Ġbrows":2606,"Ġprobab":2607,"Ġperform":2608,"Ġperhaps":2609,"Ġdesp":2610,"Ġthinking":2611,"uced":2612,"Ġsurv":2613,"Ġmainly":2614,"Ġ2004":2615,"Ġimag":2616,"Ġbuilding":2617,"Ġpassion":2618,"Ġkilled":2619,"Ġexperim":2620,"Ġbiology":2621,"Ġexplain":2622,"Ġculture":2623,"Ġcircle":2624,"Ġcauses":2625,"Ġfruit":2626,"Ġlinux":2627,"Ġhundred":2628,"Ġtelesc":2629,".)":2630,"110":2631,"78":2632,"bas":2633,"col":2634,"craft":2635,"hi":2636,"ores":2637,"ored":2638,"ply":2639,"ship":2640,"Ġ{":2641,"Ġsand":2642,"Ġciv":2643,"erv":2644,"atory":2645,"Ġann":2646,"Ġfle":2647,"Ġfly":2648,"Ġfif":2649,"orge":2650,"Ġlines":2651,"Ġdra":2652,"ica":2653,"ically":2654,"Ġegy":2655,"ention":2656,"ami":2657,"Ġusers":2658,"Ġrul":2659,"Ġdead":2660,"Ġshown":2661,"Ġtrying":2662,"Ġ25":2663,"Ġ29":2664,"Ġgold":2665,"Ġleap":2666,"Ġclou":2667,"ives":2668,"ocks":2669,"Ġaffect":2670,"acks":2671,"action":2672,"Ġearli":2673,"Ġblind":2674,"Ġsave":2675,"Ġboy":2676,"Ġbelow":2677,"ologists":2678,"Ġ31":2679,"Ġindian":2680,"Ġhistor":2681,"Ġletter":2682,"Ġjoy":2683,"Ġended":2684,"Ġdistr":2685,"Ġgreatest":2686,"Ġminister":2687,"Ġaddition":2688,"board":2689,"Ġpowerful":2690,"Ġparliament":2691,"Ġeastern":2692,"Ġlearning":2693,"aught":2694,"Ġcorrect":2695,"Ġorganis":2696,"which":2697,"Ġindepend":2698,"uddh":2699,"Ġservice":2700,"Ġservices":2701,"Ġespecially":2702,"Ġhawaii":2703,"Ġpromise":2704,"Ġsubstance":2705,"Ġgalaxies":2706,"Ġtitle":2707,"Ġqueen":2708,"Ġlaugh":2709,"Ġsleep":2710,"zerland":2711,"Ġhydr":2712,"Ġdiscovered":2713,"Ġcitiz":2714,"Ġspecific":2715,"Ġswitzerland":2716,"Ġegypt":2717,"21":2718,"car":2719,"gn":2720,"ially":2721,"ired":2722,"lim":2723,"men":2724,"mit":2725,"rich":2726,"tion":2727,"time":2728,"uries":2729,"xic":2730,"Ġtre":2731,"Ġsad":2732,"Ġsudd":2733,"Ġmac":2734,"Ġmist":2735,"Ġmouth":2736,"Ġbat":2737,"Ġbed":2738,"'')":2739,"Ġpot":2740,"Ġfell":2741,"Ġlakes":2742,"Ġlower":2743,"Ġinte":2744,"Ġinfl":2745,"edom":2746,"itution":2747,"itude":2748,"Ġdied":2749,"omen":2750,"isl":2751,"Ġeight":2752,"Ġgave":2753,"oph":2754,"ops":2755,"Ġheat":2756,"Ġhell":2757,"Ġrece":2758,"aches":2759,"Ġwhis":2760,"ump":2761,"hers":2762,"ider":2763,"Ġ('''":2764,"Ġmember":2765,"Ġalign":2766,"Ġfront":2767,"fection":2768,"Ġship":2769,"Ġsports":2770,"Ġspanish":2771,"key":2772,"upid":2773,"Ġ26":2774,"soci":2775,"Ġparty":2776,"lands":2777,"Ġadv":2778,"Ġagre":2779,"Ġflows":2780,"Ġteam":2781,"enses":2782,"Ġhearts":2783,"Ġroom":2784,"ney":2785,"Ġbuy":2786,"Ġobser":2787,"Ġwarm":2788,"load":2789,"Ġtells":2790,"book":2791,"Ġnative":2792,"Ġparad":2793,"ribut":2794,"Ġholding":2795,"Ġshapes":2796,"Ġruns":2797,"Ġmonths":2798,"Ġthoughts":2799,"Ġmountains":2800,"Ġproducts":2801,"Ġchoice":2802,"Ġcontinent":2803,"Ġpenins":2804,"Ġfearless":2805,"Ġpieces":2806,"Ġitaly":2807,"Ġhours":2808,"Ġsummer":2809,"Ġplease":2810,"Ġrussian":2811,"Ġquestion":2812,"Ġparent":2813,"ndash":2814,"Ġquickly":2815,"Ġsudden":2816,"&#":2817,"22":2818,"27":2819,"bur":2820,"cise":2821,"do":2822,"gal":2823,"ler":2824,"lar":2825,"mail":2826,"pect":2827,"vious":2828,"wing":2829,"with":2830,"when":2831,"inci":2832,"Ġmedia":2833,"Ġmamm":2834,"Ġbit":2835,"Ġbread":2836,"onic":2837,"Ġpal":2838,"Ġpark":2839,"Ġfu":2840,"Ġlay":2841,"Ġinse":2842,"Ġinhab":2843,"Ġdou":2844,"Ġdim":2845,"Ġdies":2846,"Ġtook":2847,"icine":2848,"vere":2849,"Ġep":2850,"Ġyoung":2851,"ently":2852,"Ġheight":2853,"acy":2854,"acific":2855,"Ġstupid":2856,"imb":2857,"Ġorb":2858,"Ġrome":2859,"ander":2860,"Ġdeb":2861,"Ġends":2862,"Ġvapor":2863,"Ġplat":2864,"Ġtrade":2865,"ustom":2866,"Ġ190":2867,"Ġpersonal":2868,"Ġanymore":2869,"izes":2870,"Ġcover":2871,"dered":2872,"Ġmetrop":2873,"Ġdisc":2874,"Ġourselves":2875,"Ġcommonly":2876,"Ġcolle":2877,"Ġappro":2878,"ully":2879,"Ġgiving":2880,"Ġsuper":2881,"Ġbritain":2882,"Ġimage":2883,"Ġmilk":2884,"Ġnearly":2885,"Ġinvented":2886,"Ġcharacter":2887,"ometry":2888,"Ġemot":2889,"Ġvehic":2890,"Ġoriginal":2891,"ording":2892,"Ġmaterials":2893,"Ġestab":2894,"Ġmagn":2895,"Ġdesigned":2896,"Ġseparate":2897,"Ġsociety":2898,"Ġterritories":2899,"Ġoccur":2900,"Ġspelling":2901,"Ġmemory":2902,"Ġmolecules":2903,"Ġposition":2904,"Ġreferences":2905,"Ġphrase":2906,"Ġgarden":2907,"Ġcivil":2908,"\")":2909,"fully":2910,"gans":2911,"miss":2912,"ners":2913,"ov":2914,"ram":2915,"viet":2916,"well":2917,"wise":2918,"yl":2919,"yal":2920,"Ġ>":2921,"Ġtall":2922,"Ġoh":2923,"Ġsout":2924,"Ġsound":2925,"reg":2926,"reme":2927,"ino":2928,"iny":2929,"ining":2930,"inces":2931,"Ġcode":2932,"Ġbod":2933,"Ġbene":2934,"Ġpacific":2935,"aries":2936,"itable":2937,"Ġdue":2938,"Ġhit":2939,"omb":2940,"llar":2941,"Ġrev":2942,"unt":2943,"Ġlie":2944,"ctions":2945,"Ġra":2946,"Ġrange":2947,"ape":2948,"Ġshor":2949,"osm":2950,"Ġcompan":2951,"ivid":2952,"Ġamaz":2953,"Ġcounty":2954,"ocr":2955,"plan":2956,"Ġsyn":2957,"Ġcontroll":2958,"Ġcost":2959,"Ġchanging":2960,"raid":2961,"Ġdesire":2962,"Ġnorthwest":2963,"Ġcolumb":2964,"Ġcollect":2965,"Ġsmallest":2966,"Ġholy":2967,"Ġeduc":2968,"Ġadding":2969,"Ġinstance":2970,"aiwan":2971,"ification":2972,"Ġgeorge":2973,"Ġswed":2974,"Ġcurren":2975,"Ġprovinces":2976,"Ġunderstanding":2977,"Ġdivision":2978,"Ġcomplex":2979,"Ġdefined":2980,"Ġoriginally":2981,"Ġseems":2982,"Ġrecogn":2983,"poses":2984,"Ġconnected":2985,"Ġfreedom":2986,"Ġcompletely":2987,"Ġgnu":2988,"Ġcurrently":2989,"Ġoxford":2990,"Ġchristianity":2991,"olitan":2992,"largest":2993,"Ġmetropolitan":2994,"'.":2995,",âĢĿ":2996,"cast":2997,"cond":2998,"cons":2999,"ched":3000,"eal":3001,"eous":3002,"ior":3003,"iers":3004,"may":3005,"ned":3006,"nic":3007,"oft":3008,"sim":3009,"such":3010,"xx":3011,"Ġess":3012,"Ġ}}":3013,"Ġtor":3014,"Ġtax":3015,"Ġthee":3016,"Ġsalt":3017,"Ġcam":3018,"Ġcase":3019,"Ġcustom":3020,"Ġmile":3021,"Ġbank":3022,"Ġbuddh":3023,"Ġpan":3024,"Ġpath":3025,"Ġfix":3026,"oria":3027,"ara":3028,"arl":3029,"itants":3030,"Ġhill":3031,"Ġtowards":3032,"ises":3033,"Ġnut":3034,"lex":3035,"Ġyes":3036,"Ġec":3037,"Ġgall":3038,"verage":3039,"Ġforces":3040,"Ġhear":3041,"Ġstone":3042,"iron":3043,"oduced":3044,"Ġ()":3045,"Ġwel":3046,"Ġweap":3047,"Ġalb":3048,"iling":3049,"ille":3050,"ulf":3051,"âĢľ":3052,"Ġjul":3053,"Ġunlike":3054,"Ġprint":3055,"Ġchance":3056,"Ġdecl":3057,"Ġspain":3058,"Ġspend":3059,"Ġspaces":3060,"ify":3061,"Ġvir":3062,"Ġplastic":3063,"Ġsoap":3064,"Ġ21":3065,"Ġarr":3066,"Ġsug":3067,"Ġcompass":3068,"Ġfool":3069,"ideo":3070,"Ġcontent":3071,"Ġsafe":3072,"Ġwants":3073,"roy":3074,"Ġgetting":3075,"Ġsimpl":3076,"Ġgoods":3077,"Ġroots":3078,"Ġindivid":3079,"Ġsaying":3080,"Ġhelps":3081,"Ġpaint":3082,"Ġgeometry":3083,"Ġfourth":3084,"Ġaccording":3085,"Ġ1990":3086,"rieved":3087,"Ġdevelopment":3088,"Ġretrieved":3089,"Ġsymbols":3090,"Ġlegal":3091,"Ġlegisl":3092,"Ġturns":3093,"Ġmedicine":3094,"Ġexperience":3095,"Ġwebsites":3096,"Ġpressure":3097,"Ġdirectly":3098,"Ġcycle":3099,"Ġsexual":3100,"Ġvarious":3101,"Ġparticular":3102,"from":3103,"Ġhealthy":3104,"Ġclear":3105,"Ġlinks":3106,"Ġdemocr":3107,"Ġnormally":3108,"Ġbroad":3109,"Ġtaste":3110,"Ġgravity":3111,"Ġslowly":3112,"html":3113,"Ġpyth":3114,"Ġpeninsula":3115,"Ġsoutheast":3116,"17":3117,"35":3118,"bi":3119,"bor":3120,"chest":3121,"den":3122,"ffe":3123,"ffect":3124,"jo":3125,"london":3126,"mun":3127,"niv":3128,"oll":3129,"off":3130,"rm":3131,"rane":3132,"sol":3133,"tain":3134,"Ã¡":3135,"Ã¶":3136,"Ġ\\":3137,"Ġ50":3138,"Ġtrees":3139,"Ġip":3140,"Ġop":3141,"Ġsight":3142,"Ġwake":3143,"Ġwomen":3144,"inary":3145,"Ġmental":3146,"Ġband":3147,"Ġfut":3148,"Ġfast":3149,"eness":3150,"Ġlu":3151,"Ġlate":3152,"arc":3153,"ingu":3154,"Ġdig":3155,"Ġdanger":3156,"Ġhom":3157,"Ġhol":3158,"Ġhumb":3159,"isions":3160,"Ġnin":3161,"Ġnation":3162,"Ġemb":3163,"Ġeffect":3164,"vert":3165,"opical":3166,"stein":3167,"rial":3168,"Ġrecent":3169,"ades":3170,"imet":3171,"uments":3172,"olf":3173,"Ġassoci":3174,"Ġrub":3175,"Ġmexic":3176,"Ġseven":3177,"ili":3178,"ils":3179,"Ġdelet":3180,"Ġneg":3181,"Ġshowing":3182,"angle":3183,"Ġ\"'''":3184,"Ġconcept":3185,"essed":3186,"Ġbutter":3187,"ured":3188,"Ġexists":3189,"Ġsoviet":3190,"Ġtrain":3191,"Ġ2000":3192,"Ġtherefore":3193,"Ġarctic":3194,"Ġgrass":3195,"ived":3196,"iving":3197,"Ġfold":3198,"Ġanybody":3199,"Ġevolution":3200,"Ġeveryday":3201,"Ġafraid":3202,"Ġbrain":3203,"Ġagree":3204,"Ġsaw":3205,"Ġcoll":3206,"Ġpercent":3207,"Ġ||":3208,"Ġmetals":3209,"Ġmars":3210,"Ġearthqu":3211,"lied":3212,"Ġrighteous":3213,"Ġpret":3214,"Ġrobert":3215,"Ġpresence":3216,"Ġcalcul":3217,"Ġmuslim":3218,"Ġremo":3219,"Ġsunday":3220,"erties":3221,"rony":3222,"inese":3223,"Ġcross":3224,"Ġsett":3225,"box":3226,"Ġregions":3227,"Ġgenerally":3228,"Ġtransport":3229,"Ġcharles":3230,"ograph":3231,"Ġaustria":3232,"Ġdirection":3233,"Ġconstitution":3234,"Ġpolitics":3235,"Ġlearned":3236,"Ġliquids":3237,"Ġforgot":3238,"Ġnetwork":3239,"Ġcaused":3240,"Ġdream":3241,"Ġdreams":3242,"Ġhoriz":3243,"Ġsilver":3244,"Ġeconomy":3245,"Ġhawaiian":3246,"Ġjudg":3247,"Ġterritory":3248,"Ġastronomy":3249,"Ġnormal":3250,"Ġpurposes":3251,"Ġtools":3252,"Ġdescribed":3253,"Ġanswer":3254,"Ġmachine":3255,"Ġalphab":3256,"cyclopedia":3257,"Ġenviron":3258,"basic":3259,"Ġhydrogen":3260,"Ġinflu":3261,"Ġinhabitants":3262,"Ġbodies":3263,"Ġlegislature":3264,"15":3265,"aim":3266,"bile":3267,"fire":3268,"field":3269,"lit":3270,"oz":3271,"oint":3272,"por":3273,"ped":3274,"ued":3275,"water":3276,"yle":3277,"Ġtries":3278,"Ġtiss":3279,"Ġath":3280,"Ġaverage":3281,"Ġiron":3282,"Ġwine":3283,"Ġcard":3284,"Ġcamb":3285,"anks":3286,"Ġmir":3287,"Ġmap":3288,"atural":3289,"Ġpun":3290,"Ġpubl":3291,"Ġfem":3292,"orm":3293,"Ġly":3294,"Ġisl":3295,"Ġder":3296,"Ġdav":3297,"Ġhung":3298,"omagn":3299,"Ġnur":3300,"Ġgif":3301,"Ġgone":3302,"Ġgases":3303,"ush":3304,"ential":3305,"utes":3306,"Ġlies":3307,"alled":3308,"aked":3309,"Ġweather":3310,"Ġmoved":3311,"Ġpron":3312,"Ġdel":3313,"Ġnecess":3314,"Ġvul":3315,"Ġvideo":3316,"abb":3317,"Ġcompet":3318,"Ġcompounds":3319,"Ġevidence":3320,"play":3321,"Ġcovered":3322,"ption":3323,"ulture":3324,"ensus":3325,"Ġdisapp":3326,"Ġmarx":3327,"Ġcolors":3328,"Ġsimply":3329,"Ġimper":3330,"Ġimposs":3331,"Ġcenturies":3332,"Ġrivers":3333,"Ġstudied":3334,"Ġsouthwest":3335,"Ġactivity":3336,"Ġscot":3337,"Ġfeelings":3338,"Ġneeded":3339,"Ġthroughout":3340,"Ġremain":3341,"Ġminor":3342,"ailable":3343,"Ġhandle":3344,"Ġadded":3345,"Ġaircraft":3346,"Ġprote":3347,"Ġfair":3348,"Ġemper":3349,"Ġempty":3350,"Ġrefers":3351,"Ġrunning":3352,"Ġproperties":3353,"ructions":3354,"Ġ850":3355,"Ġbeauty":3356,"Ġcommunist":3357,"Ġcommunity":3358,"Ġemail":3359,"what":3360,"Ġscientist":3361,"Ġscientific":3362,"wikipedia":3363,"Ġprotection":3364,"Ġprograms":3365,"Ġforgive":3366,"Ġcirc":3367,"Ġradiation":3368,"Ġincre":3369,"Ġparticles":3370,"Ġcere":3371,"acteria":3372,"Ġwisdom":3373,"Ġreferred":3374,"Ġdestroy":3375,"Ġproperty":3376,"Ġfloor":3377,"Ġmicrosoft":3378,"Ġtears":3379,"Ġlabor":3380,"Ġmovies":3381,"Ġexactly":3382,"Ġwonderful":3383,"mcm":3384,"Ġchurch":3385,"europe":3386,"Ġenemies":3387,"Ġliterature":3388,"Ġjews":3389,"Ġprobably":3390,"Ġtelescope":3391,"Ġ{|":3392,"Ġdistrict":3393,"Ġinterest":3394,"Ġfuture":3395,"\").":3396,"29":3397,"32":3398,"38":3399,"65":3400,"bel":3401,"bra":3402,"che":3403,"come":3404,"cury":3405,"dis":3406,"fact":3407,"foot":3408,"ga":3409,"iant":3410,"oh":3411,"oke":3412,"tic":3413,"writ":3414,"Ġ,":3415,"Ġtaiwan":3416,"Ġok":3417,"Ġos":3418,"Ġsor":3419,"Ġslo":3420,"Ġsitu":3421,"Ġwed":3422,"Ġwent":3423,"Ġcas":3424,"Ġcra":3425,"Ġcath":3426,"Ġcases":3427,"Ġbright":3428,"Ġbase":3429,"Ġbacteria":3430,"onia":3431,"oul":3432,"Ġpack":3433,"Ġanal":3434,"Ġanthe":3435,"ency":3436,"Ġled":3437,"itation":3438,"itive":3439,"Ġda":3440,"Ġdan":3441,"Ġdust":3442,"Ġdwar":3443,"Ġhun":3444,"Ġeff":3445,"used":3446,"Ġbeings":3447,"americ":3448,"str":3449,"sts":3450,"Ġhen":3451,"rible":3452,"Ġstories":3453,"unk":3454,"ola":3455,"ithmet":3456,"Ġkim":3457,"Ġmeat":3458,"Ġworship":3459,"Ġmoves":3460,"istic":3461,"aint":3462,"Ġchamp":3463,"Ġshared":3464,"Ġspent":3465,"Ġexc":3466,"Ġven":3467,"Ġtropical":3468,"upiter":3469,"aby":3470,"ability":3471,"ieve":3472,"Ġgrown":3473,"Ġgrows":3474,"ube":3475,"then":3476,"thew":3477,"cles":3478,"Ġcommand":3479,"Ġdifference":3480,"ĠâĢĺ":3481,"Ġbrings":3482,"Ġbrother":3483,"Ġflight":3484,"Ġacid":3485,"Ġmeters":3486,"rug":3487,"ruction":3488,"Ġqual":3489,"Ġpreci":3490,"Ġcentre":3491,"Ġrepe":3492,"Ġscale":3493,"Ġdistin":3494,"Ġminute":3495,"Ġminutes":3496,"Ġkey":3497,"Ġkept":3498,"Ġ2001":3499,"Ġelected":3500,"Ġinstructions":3501,"Ġgeography":3502,"Ġresour":3503,"Ġpoints":3504,"ribution":3505,"Ġpriv":3506,"Ġangle":3507,"Ġeasily":3508,"Ġchemicals":3509,"Ġfinally":3510,"Ġcontract":3511,"Ġattention":3512,"govern":3513,"Ġcourt":3514,"https":3515,"Ġmathematical":3516,"Ġasked":3517,"Ġdevice":3518,"Ġdrive":3519,"Ġstronger":3520,"Ġpleasure":3521,"Ġdarkness":3522,"Ġcatal":3523,"Ġromance":3524,"Ġprayer":3525,"Ġproblem":3526,"Ġavailable":3527,"Ġastronom":3528,"brev":3529,"Ġclothes":3530,"Ġcopyright":3531,"Ġwaiting":3532,"Ġhonor":3533,"Ġmethods":3534,"Ġreleased":3535,"Ġprofessional":3536,"Ġwinter":3537,"Ġfigure":3538,"Ġrule":3539,"Ġeconomics":3540,"Ġauthority":3541,"Ġrisk":3542,"because":3543,"Ġsurrounded":3544,"Ġpractice":3545,"Ġorganisms":3546,"Ġcitizens":3547,"vereign":3548,"mission":3549,"Ġsuggest":3550,"Ġforgotten":3551,"Ġcambridge":3552,"Ġislam":3553,"omagnetic":3554,"Ġdwarf":3555,"ithmetic":3556,"100":3557,"80":3558,"__":3559,"arent":3560,"called":3561,"ding":3562,"ih":3563,"jan":3564,"la":3565,"mi":3566,"med":3567,"ny":3568,"page":3569,"pro":3570,"sk":3571,"ses":3572,"wich":3573,"Äģ":3574,"Ġ:":3575,"Ġach":3576,"Ġalex":3577,"rer":3578,"Ġwid":3579,"inc":3580,"inal":3581,"Ġcraft":3582,"Ġcosm":3583,"erals":3584,"aning":3585,"Ġmi":3586,"Ġmaps":3587,"Ġbay":3588,"Ġbang":3589,"Ġbound":3590,"Ġpsy":3591,"Ġantar":3592,"Ġfit":3593,"Ġfur":3594,"Ġfil":3595,"Ġfuck":3596,"eng":3597,"ened":3598,"Ġlack":3599,"Ġins":3600,"Ġinner":3601,"Ġiss":3602,"arg":3603,"arr":3604,"edy":3605,"Ġthom":3606,"itect":3607,"Ġdy":3608,"Ġdate":3609,"omach":3610,"Ġtow":3611,"isp":3612,"ising":3613,"asia":3614,"Ġnort":3615,"Ġgun":3616,"Ġgrief":3617,"''':":3618,"Ġonto":3619,"Ġstick":3620,"uni":3621,"ady":3622,"imedia":3623,"Ġorgans":3624,"herlands":3625,"idents":3626,"ctors":3627,"Ġcand":3628,"Ġ(\"":3629,"Ġraw":3630,"Ġrocks":3631,"agram":3632,"Ġwear":3633,"ounter":3634,"Ġnote":3635,"âĢ¦":3636,"Ġjump":3637,"Ġprinci":3638,"Ġproduced":3639,"Ġchinese":3640,"Ġdeeds":3641,"Ġenzy":3642,"atever":3643,"Ġshoes":3644,"Ġsport":3645,"Ġspring":3646,"Ġdogs":3647,"Ġdollar":3648,"Ġconv":3649,"Ġconfl":3650,"iff":3651,"osh":3652,"osy":3653,"Ġ'''''":3654,"Ġallows":3655,"Ġsovereign":3656,"igan":3657,"Ġ23":3658,"Ġarithmetic":3659,"ogle":3660,"Ġgrant":3661,"Ġgrowing":3662,"Ġcompos":3663,"Ġclos":3664,"Ġclick":3665,"Ġfoc":3666,"Ġnobody":3667,"ionship":3668,"avor":3669,"aving":3670,"Ġfeature":3671,"Ġcommit":3672,"ĠâĢĶ":3673,"onday":3674,"Ġages":3675,"Ġcovers":3676,"Ġboard":3677,"Ġfles":3678,"Ġflower":3679,"Ġflowers":3680,"Ġteams":3681,"Ġteeth":3682,"Ġdeserve":3683,"Ġacrony":3684,"Ġmete":3685,"Ġmath":3686,"Ġmatthew":3687,"Ġnewton":3688,"Ġquite":3689,"Ġcouldn":3690,"Ġimpro":3691,"Ġholl":3692,"Ġ189":3693,"Ġpopulous":3694,"Ġapplic":3695,"Ġjob":3696,"Ġjoin":3697,"Ġdistances":3698,"Ġremains":3699,"Ġolder":3700,"Ġplayer":3701,"Ġplayers":3702,"Ġgovernments":3703,"Ġreality":3704,"Ġbelieved":3705,"Ġelectron":3706,"Ġinstr":3707,"Ġbigger":3708,"Ġ60":3709,"Ġsubject":3710,"Ġreflect":3711,"Ġmeasurement":3712,"Ġholds":3713,"Ġprimary":3714,"Ġangels":3715,"Ġstands":3716,"Ġclassical":3717,"Ġclassification":3718,"Ġ2011":3719,"Ġproduct":3720,"Ġchristmas":3721,"Ġvalley":3722,"Ġweeks":3723,"Ġdepth":3724,"Ġleaders":3725,"Ġveget":3726,"Ġfighting":3727,"Ġheavy":3728,"Ġexperi":3729,"Ġcourage":3730,"Ġsentences":3731,"ground":3732,"Ġcultures":3733,"?\"\"":3734,"Ġnetherlands":3735,"Ġromans":3736,"Ġengineering":3737,"Ġmixed":3738,"Ġtraditional":3739,"Ġelectrons":3740,"Ġavoid":3741,"Ġpictures":3742,"Ġgnome":3743,"Ġsubstances":3744,"Ġlocated":3745,"Ġvisit":3746,"Ġsuffer":3747,"Ġsuffering":3748,"Ġclothing":3749,"Ġgalaxy":3750,"Ġcrime":3751,"Ġreactions":3752,"Ġbreath":3753,"Ġpoetry":3754,"Ġukrain":3755,"Ġethnic":3756,"Ġnuclear":3757,"Ġelectricity":3758,"Ġturkey":3759,"Ġbeliefs":3760,"Ġsausages":3761,"Ġportug":3762,"Ġbranch":3763,"Ġdocument":3764,"Ġdegrees":3765,"Ġbrowser":3766,"Ġdespite":3767,"Ġsurvive":3768,"Ġclouds":3769,"Ġreceive":3770,"Ġsuddenly":3771,"Ġmammals":3772,"Ġeducation":3773,"Ġcurrency":3774,"simple":3775,"Ġweapons":3776,"Ġbroadcast":3777,"Ġrubber":3778,"Ġpretty":3779,"Ġalphabet":3780,"Ġenvironment":3781,"Ġfemale":3782,"Ġpronoun":3783,"Ġimpossible":3784,"Ġemperor":3785,"Ġanthem":3786,"Ġantarctic":3787,"Ġconflict":3788,"40":3789,"45":3790,";&#":3791,"cr":3792,"cer":3793,"di":3794,"dim":3795,"fort":3796,"house":3797,"iest":3798,"mo":3799,"mark":3800,"nor":3801,"nail":3802,"oa":3803,"pal":3804,"ray":3805,"rup":3806,"set":3807,"squ":3808,"some":3809,"tw":3810,"uff":3811,"vation":3812,"Ê»":3813,"Ġq":3814,"Ġtiny":3815,"Ġira":3816,"Ġsend":3817,"Ġsite":3818,"rel":3819,"real":3820,"ero":3821,"ery":3822,"Ġmal":3823,"Ġmich":3824,"Ġmale":3825,"Ġmonday":3826,"Ġbill":3827,"Ġbern":3828,"'').":3829,"''),":3830,"oured":3831,"atre":3832,"Ġpure":3833,"Ġpig":3834,"Ġpred":3835,"Ġpair":3836,"Ġfing":3837,"Ġfres":3838,"enger":3839,"oric":3840,"Ġlux":3841,"Ġinj":3842,"alse":3843,"alia":3844,"ards":3845,"itr":3846,"icy":3847,"ician":3848,"asa":3849,"Ġnav":3850,"lebr":3851,"Ġetern":3852,"oto":3853,"verty":3854,"Ġforced":3855,"Ġhem":3856,"Ġrect":3857,"Ġreasons":3858,"Ġwhatever":3859,"Ġlover":3860,"adem":3861,"Ġorange":3862,"Ġliver":3863,"Ġusa":3864,"Ġcanal":3865,"Ġron":3866,"Ġround":3867,"christ":3868,"ager":3869,"Ġwaste":3870,"isters":3871,"Ġalt":3872,"estic":3873,"Ġjupiter":3874,"Ġunless":3875,"Ġprince":3876,"Ġneut":3877,"Ġneigh":3878,"Ġshad":3879,"Ġconc":3880,"Ġconqu":3881,"iffe":3882,"Ġyours":3883,"Ġ*''":3884,"Ġexer":3885,"Ġvac":3886,"Ġotherwise":3887,"Ġsomewhere":3888,"Ġplate":3889,"Ġability":3890,"eless":3891,"Ġtra":3892,"Ġtrou":3893,"Ġ22":3894,"oked":3895,"ogue":3896,"Ġlikely":3897,"Ġclaim":3898,"iped":3899,"ours":3900,"plate":3901,"ploy":3902,"arest":3903,"Ġherm":3904,"Ġaffection":3905,"Ġpoem":3906,"Ġpoems":3907,"Ġpoverty":3908,"Ġsymp":3909,"anguage":3910,"Ġcool":3911,"Ġspeaking":3912,"Ġflag":3913,"ensional":3914,"Ġhimself":3915,"Ġbelg":3916,"Ġwouldn":3917,"Ġmeanings":3918,"Ġquant":3919,"Ġquiet":3920,"Ġamericas":3921,"ints":3922,"Ġrights":3923,"Ġprevious":3924,"Ġgoodby":3925,"Ġroyal":3926,"Ġsciences":3927,"Ġwiki":3928,"phone":3929,"Ġcreates":3930,"Ġcreating":3931,"Ġfoundation":3932,"Ġedit":3933,"comp":3934,"Ġprotons":3935,"cont":3936,"Ġsupern":3937,"Ġpolice":3938,"word":3939,"199":3940,"Ġprovide":3941,"Ġexpress":3942,"Ġreading":3943,"Ġ2012":3944,"Ġproduce":3945,"Ġkissed":3946,"Ġ&#":3947,"Ġmediter":3948,"Ġdepend":3949,"Ġdepending":3950,"wikitable":3951,"Ġattack":3952,"Ġattached":3953,"Ġpossess":3954,"Ġlots":3955,"Ġrespons":3956,"Ġcheck":3957,"Ġdirections":3958,"Ġbecoming":3959,"posed":3960,"Ġsaturn":3961,"Ġcryst":3962,"Ġpaul":3963,"Ġelectromagnetic":3964,"Ġcelebr":3965,"Ġvisible":3966,"Ġdeterm":3967,"Ġsixth":3968,"Ġextra":3969,"Ġbreathe":3970,"Ġcontainer":3971,"Ġwalls":3972,"Ġtechnology":3973,"Ġinfin":3974,"Ġscreen":3975,"Ġident":3976,"Ġvolcano":3977,"tionary":3978,"Ġparadox":3979,"Ġcollection":3980,"maybe":3981,"Ġwelsh":3982,"chester":3983,"ffee":3984,"ranean":3985,"Ġdavid":3986,"Ġimperial":3987,"Ġpsych":3988,"Ġimprove":3989,"Ġiraq":3990,"Ġmediterranean":3991,"!\"":3992,".'":3993,"150":3994,"23":3995,"230":3996,"41":3997,"ao":3998,"bc":3999,"cil":4000,"east":4001,"elect":4002,"hist":4003,"ias":4004,"ife":4005,"lished":4006,"mm":4007,"pes":4008,"son":4009,"tical":4010,"ule":4011,"uri":4012,"year":4013,"yond":4014,"Ġult":4015,"Ġtal":4016,"Ġtect":4017,"Ġson":4018,"Ġsav":4019,"Ġsizes":4020,"Ġsaint":4021,"Ġwet":4022,"intern":4023,"Ġcel":4024,"Ġcred":4025,"Ġcore":4026,"Ġcru":4027,"Ġchest":4028,"eration":4029,"Ġmut":4030,"Ġmart":4031,"Ġmaster":4032,"Ġbow":4033,"Ġbri":4034,"Ġbann":4035,"ono":4036,"'''''":4037,"Ġpope":4038,"Ġpick":4039,"Ġanger":4040,"Ġfed":4041,"orb":4042,"order":4043,"Ġintr":4044,"Ġthick":4045,"itam":4046,"Ġdut":4047,"Ġhu":4048,"Ġhop":4049,"Ġhide":4050,"Ġhoney":4051,"Ġtoward":4052,"asing":4053,"Ġnone":4054,"left":4055,"Ġgather":4056,"Ġbee":4057,"Ġbeyond":4058,"ota":4059,"oted":4060,"enth":4061,"utions":4062,"Ġreject":4063,"ache":4064,"Ġstock":4065,"Ġord":4066,"uman":4067,"sea":4068,"olute":4069,"Ġkn":4070,"Ġrh":4071,"Ġrod":4072,"aki":4073,"anda":4074,"aging":4075,"ghter":4076,"Ġmobile":4077,"Ġalive":4078,"Ġalbert":4079,"Ġseed":4080,"Ġseeds":4081,"Ġframe":4082,"Ġjames":4083,"Ġprison":4084,"Ġchap":4085,"Ġneck":4086,"ately":4087,"Ġsplit":4088,"Ġvan":4089,"Ġvill":4090,"Ġsoon":4091,"ably":4092,"abel":4093,"ables":4094,"ustr":4095},"merges":["Ġ t","Ġ a","h e","Ġ i","Ġt he","Ġ o","Ġ s","r e","Ġ w","i n","Ġ c","e r","a n","Ġ m","Ġ b","o n","e s","' '","o u","a t","Ġ p","Ġa n","Ġ f","e n","o r","Ġ l","Ġo f","Ġi n","a l","Ġi s","a r","e d","Ġan d","Ġt h","in g","i t","Ġ d","Ġ h","o m","Ġt o","i s","i c","a s","Ġ n","l e","Ġ y","v e","Ġ e","Ġ g","Ġi t","u s","Ġb e","Ġy ou","'' '","i on","l l","o t","e t","Ġo n","o w","v er","a y","Ġa re","l y","o p","en t","a m","s t","Ġf or","Ġ he","u t","Ġth at","r i","Ġ re","a c","Ġw h","Ġl o","Ġs t","u n","t h","a d","g h","i m","l d","Ġo r","u r","u m","s e","he r","Ġl i","i d","i r","Ġ '''","c t","o l","it h","Ġ k","c e","Ġa s","Ġ us","o d","Ġc an","Ġw ith","Ġ (","Ġ r","Ġm e","al l","Ġw or","Ġh a","c h","a k","an d","a g","Ġw e","gh t","er s","Ġm o","ou n","Ġw as","Ġlo ve","Ġ 1","Ġc om","is t","Ġa l","Ġn ot","Ġp e","Ġs om","Ġs e","at ion","Ġthe y","i l","u l","a in","es t","Ġf r","ar t","op le","Ġpe ople","a p","â Ģ","Ġ j","Ġb y","i ll","Ġ un","um b","Ġp r","Ġw he","f e","Ġc h","Ġd e","Ġha ve","Ġfr om","Ġ en","Ġn e","' s","at e","t er","Ġs h","Ġs p","an t","an g","Ġ \"","Ġd o","t her","Ġa t","Ġon e","Ġc on","es s","Ġth is","i f","Ġb ut","0 0","Ġyou r","Ġ *","it y","i a","u re","ic h","Ġe x","o s","Ġ ''","Ġ v","Ġo ther","re n","Ġsom e","Ġa ll","Ġp l","Ġs o","e m","Ġwhe n","ou t","Ġm an","e ar","am e","on e","k e","Ġa b","e l","Ġt r","c i","i g","Ġwh o","u p","Ġ 2","Ġth umb","Ġthe re","u d","a b","us t","s o","Ġg o","al ly","Ġa r","Ġh as","is h","d s","Ġwh ich","oun t","q u","an s","ak e","as t","ou ld","on g","Ġc all","ver y","ag e","re s","Ġl e","i es","n ow","Ġbe c","ing s","o k","Ġal so","o g","or y","r y","a us","Ġus ed","Ġcall ed","i e","in d","Ġm y","i ve","Ġg r","Ġs u","Ġman y","Ġt im","Ġthe ir","Ġli ke","ad e","Ġcom p","Ġi f","Ġk now","p p","re d","oun d","Ġp art","Ġw ill","ri ght","ar y","Ġc l","Ġ1 9","ay s","Ġmo st","i ght","Ġh is","ac e","Ġmo re","r it","' t","i v","m ent","Ġab out","Ġf o","t en","Ġthe m","Ġa m","Ġc ount","i p","ou r","id e","Ġwh at","aus e","e ct","or t","Ġen g","Ġwor ld","ou s","i an","Ġn o","âĢ Ļ","ic al","l and","Ġsom et","ren t","in e","ion s","ers on","e ll","ar d","Ġh ow","Ġp erson","u b","t o","Ġtim e","ac h","Ġth an","ou gh","u e","Ġd if","Ġy ear","t he","Ġan y","re at","as s",") .","b er","Ġit s","Ġon ly","d er","Ġm ade","Ġe v","Ġ up","o c","a v","p l","c l","Ġbec ause","Ġe very","g e","re e","a re","Ġm ay","h ing","p le","Ġhe r","Ġf e","Ġth ings","o se","Ġcom m","Ġdif fe","Ġm ake","in k","Ġli fe","Ġs he","Ġa f","Ġ âĢ","Ġp o","Ġn or","u ally","Ġt w","m p","at er","Ġs y","ac k","ac t","Ġwe re","o re","Ġb r","p x","ang u","Ġdiffe rent","i z","l ish","v ed","] ]","on d","Ġe ar","Ġs ou","en d","Ġcon t","w e","at es","Ġf ir","Ġwor d","Ġa d","Ġs m","Ġb l","Ġl angu","Ġa g","Ġo ut","Ġc ity","[ [","i k","Ġo ver","Ġs a","Ġp h","Ġc o","Ġbe t","Ġsp e","Ġfir st","Ġw ant","al s","i re","Ġch ang","d e","Ġeng lish","Ġb o","en ce","Ġtw o","v ing","p t","Ġpr o","b le","se l","an ce","Ġin to","Ġg od","Ġus ually","Ġf l","r a","f t","Ġwor k","Ġthe se","at ed","Ġl ar","Ġp er",". .","p er","Ġt e","c es","v es","om e","ri es","ag es","Ġd es","f or","it e","ab le","Ġw ay","ic e","ak es","ul t","Ġsu ch","Ġa c","Ġ -","Ġus e","Ġs ame","Ġe le","Ġ |","Ġw rit","en s","Ġh im","Ġbe l","Ġm et","ot her","er ic","Ġd is","ic s","Ġw ould","op e","Ġre l","ic t","l es","Ġun it","Ġex am","u ch","ol og","Ġm at","ve l","i al","Ġl ong","Ġd on","Ġhe art","b e","y p","Ġth ink","ver s","Ġj ust","g est","od y",". \"","Ġm ar","e p","w n","Ġof ten","Ġne w","Ġsome one","Ġo ur","Ġbe en","Ġme ans","Ġsomet hing","cl ud","er m","s p","Ġ [[","Ġme an","Ġear th","r u","Ġe ach","Ġse e","Ġnor th","ĠâĢ ĵ","Ġlangu age","on s","is s","Ġwhe re","Ġne ver","he m","Ġc ap","Ġd ay","Ġdo es","l i","Ġin clud","ig n","Ġ qu","Ġam eric","ent s","im es","ate g","i le","r o","Ġm uch","g et","Ġg et","i ld","Ġm on","ic k","Ġt yp","Ġc ateg","Ġwor ds","ation s","Ġcount ry","in t","ed ia","Ġ2 0","Ġcomm on","t e","w ays","Ġ 3","Ġc ol","ow n","Ġs im","Ġ right","Ġc ould","Ġcateg ory","Ġ very","Ġi mp","'' .","Ġp re","Ġlo ok","Ġha pp","Ġc ent","ow s","Ġun der","Ġ ri","we en","ur n","Ġev en","Ġof f","it al","st em","Ġyear s","Ġst ud","Ġgo od","Ġbet ween","Ġn umb","Ġn ame","m s","Ġthe n","er n","Ġr o","Ġaf ter","Ġp res","Ġl a","th ing","Ġsomet imes","Ġsm all","it ion","Ġh ad","Ġw ater","as e","Ġexam ple","\" .","n e","y s","Ġin d","Ġal ways","Ġsou th","sel f","Ġst ates","u c","at her","Ġh o","Ġsy stem",") ,","d ay","Ġa ct","ver n","Ġknow n","Ġcount ries","g in","j ect","at h","Ġan other","Ġre p","Ġth r","00 0","Ġh um","Ġh ist","os s","Ġar t","Ġs ay","Ġp op","Ġar ound","Ġs c","Ġl et","Ġo wn","Ġb ot","Ġcap ital","Ġs ci","Ġw ik","Ġst art","Ġli ve","Ġwith out","Ġ1 8","Ġcomp ut","t y","Ġb u","Ġst ate","Ġun i","o od","p s","s ide","Ġb or","ow er","Ġunit ed","f ore","Ġg en","Ġbe ing","m b","he s","Ġo b","Ġc ar","Ġe ur","ill ion","Ġsa id","Ġpop ul","k s","ar ch","5 0","Ġa pp","Ġg re","ct ion","f ul","l ic","or s","Ġli ght","Ġa w","Ġj o","is m","Ġare a","Ġen d","ter n","Ġs ur","ci al","Ġgo vern","Ġgr ou","Ġfe el","ist s","Ġse c","Ġag ain","olog y","Ġw ar","Ġd ist","Ġf am","al k","Ġth ose","Ġne ed","og r","n ot","Ġc al","n ess","'' ,","Ġl it","Ġthr ough","p h","Ġm us","Ġn ow","t le","he d","Ġf ind","Ġsh ould","i ble","Ġs er","Ġc reat","at ure","Ġis land","Ġg ive","Ġre m","for m","is e","Ġhist ory","c o","r ic","Ġfor m","Ġhe l","Ġeur ope","Ġo ld","Ġm ain","Ġg reat","in ce","Ġm in","Ġpl ay","Ġfo ot","a il","i x","om an","g an","l o","Ġs un","er t","Ġm akes","Ġf ound","Ġth ing","Ġto o","Ġwe b","Ġchang e","Ġk e","Ġpl ace","a ve","f f","ar s","Ġto get","Ġbe fore","ip edia","Ġlar gest","Ġgovern ment","Ġtoget her","h ip","u ll","Ġb ody","it ies","Ġd id","Ġh and","Ġ2 00","h y","Ġan im","am es","Ġlo ved","' re","r on","Ġ ed","Ġc hem","Ġb ack","ar k","Ġw est","an y","Ġf all","it s","as ure","Ġnumb er","ak ing","Ġad d","i ly","in es","ur al","res s","Ġe ver","ain s","- -","b all","Ġm illion","Ġp age","Ġre al","Ġother s","oc k","Ġbel ie","t ing","Ġa ir","a ut","m e","Ġc r","Ġb as","Ġe ast","''' ,","Ġcom es","Ġpl an","Ġele ct","Ġstud y","u g","Ġs ol","Ġin st","Ġe l","Ġg iv","Ġse a","a i","c om","l ess","Ġs et","ation al","Ġpr ot","Ġri ver","Ġcomput er","Ġaw ay","Ġt ake","ou ght","c on","Ġ '","r ong","Ġo ce","Ġl ist","Ġwik ipedia","n ing","Ġcom e","Ġbo ok","Ġb ig","Ġde c","u al","Ġ 4","Ġ 6","''' .","Ġde f","if ic","r al","Ġt ell","Ġs up","Ġp ol","et s","Ġwe ll","Ġimp ort","b o","u ary","Ġp ain","Ġp ages","Ġg erm","Ġre g","Ġcan not","em ber","Ġsu b","Ġhel p","g er","w or","he re","en se","ub lic","Ġs l","Ġf a","Ġl and","Ġe y","Ġg e","Ġhe ad","Ġre s","ant s","re ad","in s","Ġb rit","at ing","Ġli ving","Ġj an","Ġbot h","Ġoce an",", \"","m ber","x t","Ġn at","Ġg l","ond on","Ġmean ing","Ġsec ond","Ġimport ant","Ġi m","Ġs k","Ġm il","Ġf ri","Ġd own","Ġart ic","Ġgen er","Ġlit tle","Ġ z","Ġp ower","Ġd r","ver se","od u","Ġevery thing","Ġpo int",".. .","Ġgrou p","b r","s h","w w","Ġi de","Ġf our","Ġe mp","Ġon ce","ce pt","fe ct","Ġm ust","Ġf ar","Ġre f","Ġk ing","Ġhum an","1 9","c y","Ġs w","in a","ur y","Ġne ar","Ġwrit ten","Ġla w","form ation","Ġc ur","Ġp ar","Ġin v","ri b","Ġme asure","Ġph ys","Ġameric a","Ġho ld","Ġob ject","a h","i ed","i um","o st","Ġc ell","Ġm od","âĢ Ŀ","Ġtyp e","Ġfoot ball","Ġel se","a x","c c","i er","l ed","t t","Ġp ri","Ġan g","Ġe as","ur ing","Ġtim es","Ġunder st","Ġoff ic","Ġchem ical","g y","i o","i gh","p en","r ist","Ġ .","Ġ 5","Ġ 7","ow ing","Ġsh ap","Ġtr ans","Ġac c","Ġsim ple","Ġmus ic","Ġjan uary","2 0","Ġa p","Ġtr ue","Ġfo od","Ġameric an","g th","i ous","am ed","Ġst ill","Ġk ind","Ġch ar","Ġcl ub","Ġ19 9","Ġpro v","Ġlar ge","Ġt em","Ġbe gin","Ġr un","ag ue","Ġat om","Ġsou l","Ġchang es","Ġmat ter","Ġke ep","a z","t on","Ġ u","al e","Ġh ard","one y","Ġmon th","Ġcal end","t s","Ġin formation","Ġth ree","ure s","Ġex p","Ġpart s","av es","Ġtyp es","Ġbu ild","f l","t r","Ġs ince","Ġw ays","in ess","Ġl ear","Ġh ome","as on","Ġst and","Ġen ough","Ġso ft","Ġuni verse",". ]]","a u","t il","Ġt er","Ġf in","Ġl ondon","Ġpr op","ie ld","ru ct","mb ol","Ġunderst and","' ll","2 00","Ġ 8","Ġth ought","as es","us s","ac es","âĢ Ķ","ment s","Ġlangu ages","v en","he st","Ġw on","Ġb est","om et","am s","ut ion","Ġyour self","ie w","Ġfo re","Ġspe cial","Ġdes c","Ġpopul ation","' m","i b","Ġ ent","Ġt alk","Ġc or","Ġp ass","Ġl ast","ut h","Ġre ad","id ent","Ġsci ence","ogr ap","Ġanim als","b ody","d om","i ans","} }","Ġa ust","Ġbe aut","ri e","ap an","Ġch ild","el s","Ġcl ass","Ġcomm un","sel ves","Ġ20 1","Ġs ide","Ġm ount","Ġf ather","Ġl at","Ġin tern","Ġd iv","Ġe m","Ġre d","Ġcan ad","Ġun til","Ġbet ter","Ġrel ig","Ġinclud e","a ir","c ent","y ing","Ġb re","es e","Ġg ree","Ġor gan","Ġle ague","vel op","Ġbrit ish","' ve","c le","an e","on es","Ġp ap","is ion","le t","Ġg u","Ġpr odu","Ġsp ace","iz e","Ġcalend ar","\" ,","a red","he n","Ġs ing","Ġd ire","un d","id d","Ġk iss","Ġch rist","ok en","Ġhapp en","ert ain","p ort","w h","Ġ &","Ġde velop","Ġcon s","Ġv ol","ci ent","ĠâĢ ľ","Ġcont r","Ġph il","e ver","| [[","in ds","ou se","Ġp ut","Ġf ree","Ġh ur","Ġre t","Ġst op","Ġus ing","Ġnot hing","ul es","Ġv al","Ġbec ome","Ġsy mbol","Ġfam ous","Ġey es","a w","i et","w ar","Ġt erm","Ġo ri","an n","Ġm om","al th","Ġn ight","Ġy et","Ġst ars","Ġch o","Ġwho le","Ġle g","Ġany thing","Ġcont in","Ġ 9","Ġm a","Ġm aking","or ies","Ġin de","Ġn amed","Ġhe re","Ġwh y","id s","Ġk ill","Ġsh ow","Ġeng land","Ġsci ent","p e","u ly","Ġt urn","Ġo pen","Ġm ed","Ġm oney","Ġwe e","Ġj apan","Ġde p","Ġle ad","Ġfo ll","Ġsur f","Ġnat ural","/ /","1 8","c hes","w are","w ik","Ġ ve","Ġc ame","Ġm ight","at s","Ġf ight","or ian","Ġh ar","Ġto p","am m","Ġhe av","Ġwh ile","Ġr oman","Ġex per","Ġcomp le","ict ion","Ġfam ily","Ġeurope an","Ġdef in","Ġori gin",": //","r op","Ġs qu","Ġs ign","an k","Ġb i","Ġp en","Ġan cient","le y","Ġus es","Ġun ion","Ġsh all","ther n","Ġat t","Ġcon st","Ġuni vers","Ġoffic ial","Ġpap er","g o","y ou","Ġw ind","Ġc our","at ive","Ġp oss","Ġf ear","Ġl ot","Ġto day","un g","th umb","ap s","if ul","Ġfe w","iz ed","li ke","Ġgre en","Ġcanad a","2 50","a f","c ed","g orian","m ost","n er","Ġa st","Ġs ent","Ġin side","Ġ1 7","Ġch ina","ang e","os op","Ġle ft","Ġpres ident","Ġgre gorian","h tt","n b","Ġo per","Ġc re","Ġm ind","Ġb us","en ds","or d","Ġd one","Ġd ays","le ct","ir d","Ġk inds","il ity","Ġpr oc","Ġex pl","Ġbec ame","Ġcent ury","Ġstart ed","Ġcreat ed","g r","Ġw oman","Ġc ities","Ġd uring","Ġh ig","ic es","as h","Ġg as","''' )","Ġmat hem","Ġpol it","Ġbeaut iful","Ġgree k","nb sp","Ġmathem at","1 0","a vel","m in","p ar","r ing","w est","Ġc are","Ġc ult","Ġc ertain","Ġm ater","Ġp ast","Ġp ie","Ġl ess","Ġre ally","im ate","Ġde ath","ud d","Ġspe ak","Ġinclud es","Ġ20 2","Ġrep ublic","Ġcell s","w ard","Ġw ood","Ġf act","Ġf ull","Ġth ough","Ġh igh","Ġit al","ot e","un e","id es","Ġmo ve","Ġse en","ul ar","âĢ ĵ","ren ch","ne w","Ġbelie ve","Ġlear n","Ġmom ent","c k","o ve","Ġt akes","Ġthe ory","Ġc op","al t","it her","Ġe qu","am b","ut e","Ġre sp","Ġli qu","Ġwith in","Ġgo ing","Ġ19 7","Ġwrit e","Ġcol or","Ġprot ect","Ġking dom","Ġphil osop","h n","m er","m on","Ġs ch","Ġm iss","Ġl en","is hed","Ġn ational","Ġbe h","Ġst e","id ed","Ġas k","Ġde v","Ġgr ow","Ġthem selves","pl es","Ġinclud ing","Ġagain st","Ġser v","Ġweb s","Ġgiv en","Ġfa ith","Ġgl ass","Ġmod ern","Ġsurf ace","3 0","? \"","l ing","Ġ est","Ġs our","Ġc he","er gy","at a","Ġd ri","Ġh our","Ġst rong","Ġse em","Ġpr ogr","Ġcl ose","Ġhow ever","Ġaf ric","Ġbl ack","Ġpres s","Ġhum ans","Ġbor n","Ġartic le","Ġide a","b y","i i","o ol","Ġs um","Ġm ag","Ġp le","om y","Ġg ame","am p","Ġfor g","Ġre c","Ġcon d","Ġpl ants","ort s","ous and","Ġdes ign","Ġmar ch","Ġsim il","uc k","Ġisland s","Ġrem ember","Ġdire ct","idd le","m an","p r","Ġs ays","Ġw alk","Ġin ter","Ġth ousand","Ġd ie","Ġd ark","Ġh al","Ġh ot","Ġli ves","Ġen ergy","Ġany one","Ġte le","Ġdoes n","Ġnumb ers","Ġstart ing","Ġpopul ar","Ġgerm an","Ġshap e","Ġsoft ware","Ġaust ral","Ġlat in","Ġwee k","Ġproc ess","b s","o f","t ed","Ġ [","Ġo pp","Ġw rong","Ġc at","Ġc ir","Ġm ass","Ġb ad","ed s","Ġn et","am ent","ri ed","Ġwh ite","Ġli ved","Ġr uss","Ġha w","Ġde ce","os p","Ġrel ated","Ġmon arch","Ġgrou ps","Ġsqu are","l f","m et","u x","u es","Ġt est","Ġa ge","Ġw r","Ġw at","Ġc y","Ġc aus","er ing","an ces","Ġm iddle","en ces","Ġd re","Ġh or","Ġg al","ver al","ri d","ri l","Ġlo ving","Ġr om","Ġr ad","Ġr ain","Ġal ong","Ġal most","Ġse veral","Ġev ents","Ġqu est","Ġplan et","Ġlaw s","Ġsimil ar","e ch","i od","Ġs il","Ġf rench","Ġl ater","Ġin c","Ġn ames","Ġe at","Ġe con","Ġlo st","th at","Ġas ia","Ġha ir","Ġ1 5","Ġse x","Ġpr ay","Ġv o","ren ce","Ġbec om","Ġeng ine","Ġevery one","Ġmar k","Ġgerm any","Ġgener al","Ġchild ren","3 00","c an","p os","Ġ es","Ġb ir","Ġf ire","it ions","Ġd i","ot s","Ġmo on","Ġ1 6","Ġpe ace","Ġv ar","Ġpart ic","Ġpro ble","Ġwork s","ug ust","Ġbig gest","Ġfore ver","Ġhur t","m y","n ect","o es","t ers","Ġs at","ou th","or g","Ġbe gan","Ġlo ves","oun ds","Ġex ist","Ġ19 6","Ġwrit ing","Ġbel ong","Ġdis e","Ġrel ations","Ġhapp ens","Ġdist ance","Ġbook s","ww w","Ġap ril","Ġbre ak","Ġsing le","Ġhaw ai","s y","re es","Ġm en","Ġm ic","es us","Ġf un","Ġf ace","Ġre ason","Ġr ules","ap h","Ġj ud","ant ic","Ġcon f","Ġcon nect","Ġtr avel","Ġcomp any","Ġbo x","for d","Ġele ment","Ġlong er","Ġrep res","Ġjo hn","Ġartic les","led ge","Ġtem per","htt p","Ġsour ce","' d","b l","b ru","d r","f r","n a","Ġt ou","Ġs ure","re t","Ġc ry","Ġm ix","on t","Ġp a","Ġp at","Ġf re","Ġf ive","Ġl ic","Ġl ake","Ġl ine","Ġh ouse","ent ed","Ġst r","ct s","Ġ1 0","ap p","Ġcon side","Ġpl aces","Ġtr ad","ci es","Ġgo es","Ġle ave","Ġsee k","Ġcomput ers","lo ve","Ġanim al","Ġelect r","Ġsol ar","Ġobject s","Ġcontr ol","Ġret urn","Ġma j","Ġafric a","Ġdece mber","Ġconside red","m a","o x","v iew","Ġ vers","Ġa ugust","in ed","Ġf ield","is on","Ġe ither","im e","Ġwor th","ak en","Ġ1 4","Ġse par","ain ed","Ġj esus","Ġpr om","Ġsp ir","Ġso ci","el t","ber t","Ġmay be","Ġpo or","ra ft","Ġmet al","Ġexam ples","Ġfri ends","Ġcomple te","Ġlen gth","e red","o y","r os","t om","Ġa v","Ġo il","re st","Ġc e","Ġp ict","en e","ve red","Ġg n","ent al","ac ter","Ġst ay","Ġha ving","Ġj e","Ġtr y","Ġbl ue","Ġag o","Ġpro f","Ġreg ion","Ġsub st","Ġcur rent","Ġter rit","Ġdesc ri","Ġmount ain","Ġrelations hip","Ġmaj or","h ol","l ight","m ary","n d","s w","w here","Ġt ree","Ġm ess","Ġd ata","et h","Ġon es","Ġhe alth","Ġlo c","Ġk new","Ġr ather","ist er","Ġat l","Ġv is","Ġab le","Ġtr ust","Ġsu ff","Ġam ong","Ġ| -","Ġlook ing","Ġsmall er","Ġind ia","Ġdid n","ograp hy","Ġast ron","Ġhal f","Ġopp os","7 0","b re","b ut","e x","g s","h am","s er","Ġt en","Ġo cc","Ġs in","Ġw ide","Ġc le","Ġm or","Ġm ad","at or","at ic","Ġp ull","or k","Ġl im","Ġl ink","it er","Ġd et","Ġh ate","Ġg ames","Ġre st","Ġst ren","ct ic","Ġr ich","Ġme mb","Ġal one","Ġfr u","Ġsh ort","Ġsp ell","Ġsp oken","Ġtr uth","Ġle vel","og en","Ġknow ledge","Ġcl ot","Ġ19 8","Ġdif f","Ġfe bru","Ġchang ed","pt ember","Ġper iod","Ġte xt","Ġsk y","Ġide as","Ġheav en","iction ary","Ġunivers ity","Ġposs ible","Ġgal ax","b on","h ic","i ent","s c","v ent","v ision","Ġs ix","er al","Ġb urn","Ġth ird","it es","Ġfor get","Ġst ruct","Ġor der","Ġ( ''","Ġse lf","Ġde m","Ġex t","ren ces","Ġso cial","Ġab ove","Ġgr ound","ell ow","Ġnor m","Ġwant ed","Ġper fect","Ġcent er","Ġwest ern","Ġbas ed","Ġgiv es","Ġphys ical","war ds","Ġfebru ary","9 1","c ess","g ed","k y","k now","l in","r oss","Ã ©","Ġ #","Ġ ver","Ġt it","Ġi ce","Ġw is","Ġc ri","Ġm ult","Ġp et","Ġp ur","Ġl in","it ed","Ġto t","Ġto ol","ic ult","le c","Ġit self","et y","Ġare as","Ġfor ce","Ġre act","Ġst ar","od e","Ġse ptember","il t","Ġne xt","Ġv iew","em ent","Ġ19 4","ten d","Ġam ount","Ġev il","iz ation","end ing","Ġte ach",".\" \"","Ġqu e","Ġpre m","Ġcent ral","Ġla u","Ġplay ed","Ġfri end","Ġref er","Ġintern et","Ġbus iness","Ġcop y","Ġliqu id","Ġaustral ia","2 4","i res","i ence","o ld","Ã ¼","Ġt ri","Ġi re","Ġo x","Ġs le","Ġs ize","Ġw a","Ġc ause","Ġb reat","or n","Ġin t","Ġd est","Ġh on","Ġh und","Ġto wn","Ġre se","Ġlo g","Ġlo s","um e","Ġk il","Ġk ore","Ġr ock","Ġme m","Ġme et","ud e","Ġar ms","Ġle ast","iv ity","Ġpo et","Ġcont ain","Ġbl ood","Ġco ld","Ġac ross","Ġmet h","uc le","Ġdr ink","Ġu k","Ġexp ect","Ġprop er","Ġrelig ions","Ġinde ed","Ġmater ial","Ġtemper ature","Ġire land","d ers","e ad","g en","i ation","i pp","l ist","n es","r ow","z y","Ġ ur","re ct","Ġw all","Ġb illion","Ġp ay","Ġp ublic","it ing","Ġd ictionary","as k","as ed","as ter","Ġe th","Ġg ot","ion al","op es","Ġst at","Ġcom b","ist r","ap or","Ġsh ows","Ġex cept","Ġsome body","qu e","Ġmy self","Ġmost ly","Ġnor thern","Ġbr o","Ġhapp y","Ġro ad","Ġgreat er","Ġhand s","Ġbas ic","Ġinst ead","Ġeas y","Ġbegin s","Ġpie ce","Ġwebs ite","Ġtele vision","Ġbecom es","Ġdescri be","Ġstren gth","Ġmemb ers","1 1","1 4","f er","m l","t c","z er","Ġ x","Ġi r","Ġi ll","Ġs al","Ġs ong","Ġw aves","Ġm ot","Ġm other","es c","Ġis n","Ġg ir","Ġre le","ac ed","Ġst ra","ir t","Ġ1 2","Ġse ason","Ġfr ance","Ġv ict","Ġpl ant","Ġab s","Ġle aves","Ġbl ock","ro ll","Ġres ult","Ġphys ics","Ġatom s","Ġscient ists","Ġpolit ical","Ġbir th","Ġdise ase","Ġrepres ent","Ġdiff icult","a e","b ab","g ar","n g","o ot","p ut","Ġt ast","Ġa uth","Ġs ense","Ġc up","Ġb ar","Ġh y","Ġn ature","th ough","ct o","Ġas s","od s","Ġmo lec","Ġse arch","Ġde ep","Ġat m","Ġtr uly","ci ally","Ġcont ains","Ġsm ile","Ġco ast","Ġspe ech","Ġspe cies","Ġfl o","Ġlook ed","Ġapp ear","Ġneed s","Ġcreat or","co hol","Ġfound ed","Ġfall ing","Ġplan ets","Ġsk in","Ġemp ire","Ġmeasure d","Ġbuild ings","Ġstand ard","Ġdesc rib","Ġintern ational","Ġcho ose","Ġjapan ese","Ġlead er","Ġfoll ow","Ġoper ating","Ġhig hest","Ġital ian","Ġbeh ind","Ġwr ote",". ,","1 6","3 9","a res","b b","e in","i us","m ar","o e","u k","w an","z e","Ġ !","an ish","Ġb all","at ors","Ġp os","Ġan sw","Ġf elt","it ary","Ġd om","Ġn ucle","um ent","se e","Ġme l","ch n","Ġwe ight","ist ry","Ġal though","Ġsh are","Ġsp read","Ġall ow","em s","Ġknow s","Ġ19 5","Ġear ly","Ġout side","Ġac cept","Ġele ments","Ġunit s","Ġstud ies","Ġind ust","Ġbor der","Ġsec ret","Ġadd ress","Ġelect ric","Ġdec ade","Ġtrans l","Ġprov ince","Ġatom ic","Ġdiv ided","Ġval ue","Ġphilosop hy","Ġprogr am","Ġvo ice","Ġproble ms","Ġmic ros","Ġlic ense","Ġprof ess","Ġoppos ite","cto ber","Ġatm osp",". âĢĿ","2 6","b our","c ul","Ġt ear","Ġt el","Ġt reat","he ast","Ġs we","Ġw in","in ation","an a","Ġm ur","Ġm ine","Ġm ach","Ġb c","Ġf ig","Ġl ab","Ġd am","Ġd ry","Ġh ope","Ġn oun","Ġn ations","Ġy ellow","et ic","Ġre fe","ol ution","Ġr u","Ġmo v","Ġ1 1","Ġ1 00","Ġal read","ul a","Ġdo ing","Ġex act","os ed","Ġar g","Ġar m","Ġev ent","Ġup on","Ġph r","Ġph ot","Ġpro ject","Ġfl at","Ġte chn","Ġdis co","Ġ3 0","Ġbu ilt","Ġold est","wor k","Ġmil es","Ġap art","Ġwon der","Ġresp ect","Ġecon om","Ġspir it","Ġatl antic","know n","Ġprem ier","Ġkil omet","Ġauth or","Ġalread y","g es","h ab","l ine","m c","n o","o id","t ure","w ay","Ġ $","Ġ er","Ġt ur","Ġt able","Ġa ut","Ġw ish","Ġc it","Ġc ub","Ġb er","Ġl ow","Ġin f","ar ing","is ed","Ġbe ll","th is","Ġr is","ag ed","Ġwas n","Ġ1 3","Ġal cohol","Ġse ll","Ġj uly","Ġj une","Ġwhe ther","Ġch ur","Ġv i","Ġar ch","Ġmy th","Ġgr av","ound ed","Ġbr oken","Ġad min","Ġspe c","be c","li ament","Ġqu ick","Ġhapp iness","Ġsystem s","Ġact ually","Ġsc re","Ġbot tom","Ġbor ders","Ġcar bon","Ġsur r","Ġform ed","ress ion","Ġbelie f","cy cl","Ġsw it","Ġbegin ning","Ġent ire","Ġrelig ion","Ġdefin ition","Ġcre ate","Ġmathemat ics","Ġsch ool","Ġtou ch","Ġvers ion","Ġtot al","Ġswe et","1 3","2 5","e ur","h ow","h aps","m es","m ore","p end","r or","s he","t ar","Â °","he ad","Ġi d","Ġo ctober","Ġs now","Ġs aus","Ġs ick","Ġc ut","Ġm er","Ġb ible","Ġp ort","Ġf at","it u","Ġn on","Ġe tc","am a","Ġfor ms","Ġhe ld","Ġre ach","Ġlo se","Ġst ad","Ġst ep","id ence","Ġk m","Ġus er","Ġr ose","Ġme ant","Ġwe ak","ist an","ist ics","Ġal ph","il es","ill s","if ied","Ġpl ays","Ġar ab","og n","Ġknow ing","Ġcl imate","Ġpo ly","Ġbr an","Ġsou thern","Ġspe ed","Ġlar ger","olog ical","Ġget s","Ġlook s","Ġpres ent","Ġ18 8","Ġbor ough","Ġcar ry","Ġchem istry","Ġsol id","Ġsl ow","Ġim m","Ġfar m","Ġinv ol","Ġpri me","Ġang el","Ġchrist ian","Ġhappen ed","Ġvol can","pe cially","Ġhig her","Ġthousand s","Ġmult ip","Ġrese arch","Ġgir l","Ġatmosp here","Ġadmin istr","Ġstad ium",". ''","9 9","m as","o le","r ain","t op","v al","he l","Ġs ides","an ia","Ġf ish","en n","Ġd ance","Ġy ork","ve mber","st er","Ġhe al","ri a","Ġst ory","ag n","Ġcom ing","Ġpr act","Ġen em","ang er","Ġdo c","Ġ* *","Ġso ld","Ġwho se","Ġ2 4","ast ic","ok ing","Ġsu cc","Ġno vember","ub l","Ġfe et","Ġpo le","Ġover view","Ġwork ing","ition al","Ġlet ters","Ġfeel ing","Ġlit er","-- --","Ġsup port","Ġey e","Ġmil itary","Ġacc ount","rie f","Ġcommun ic","Ġdevelop ed","Ġvol ume","Ġfoll owing","wik i","Ġwind ows","Ġcour se","Ġsent ence","Ġruss ia","Ġwat ch","rid ge","Ġrad io","Ġquest ions","Ġpict ure","Ġje w","Ġstruct ure","Ġkore a","Ġstra ight","cycl op","Ġsucc ess","1 2","3 6","a ur","e c","h t","i als","p o","Ġ 0","Ġt aken","Ġi i","Ġw ild","Ġc a","er ve","an c","Ġm ill","Ġb ur","on y","Ġp y","Ġf ill","al es","Ġd en","Ġto ld","as ons","Ġg ard","us e","ow ers","Ġre qu","Ġre pl","ac hed","Ġst re","Ġst ri","Ġli ps","ct or","ol it","Ġr are","Ġmo ving","Ġde g","Ġen v","Ġ2 7","Ġ2 8","Ġbr ing","Ġbr ows","Ġpro bab","Ġper form","Ġper haps","Ġdes p","Ġthink ing","uc ed","Ġsur v","Ġmain ly","Ġ200 4","Ġim ag","Ġbuild ing","Ġpass ion","Ġkill ed","Ġexper im","Ġbi ology","Ġexpl ain","Ġcult ure","Ġcir cle","Ġcaus es","Ġfru it","Ġlin ux","Ġhund red","Ġtel esc",". )","1 10","7 8","b as","c ol","c raft","h i","o res","o red","p ly","s hip","Ġ {","Ġs and","Ġc iv","er v","at ory","Ġan n","Ġf le","Ġf ly","Ġf if","or ge","Ġl ines","Ġd ra","ic a","ic ally","Ġe gy","ent ion","am i","Ġus ers","Ġr ul","Ġde ad","Ġsh own","Ġtr ying","Ġ2 5","Ġ2 9","Ġgo ld","Ġle ap","Ġcl ou","iv es","oc ks","Ġaf fect","ack s","act ion","Ġear li","Ġbl ind","Ġsa ve","Ġbo y","Ġbel ow","olog ists","Ġ3 1","Ġind ian","Ġhist or","Ġlet ter","Ġjo y","Ġend ed","Ġdist r","Ġgreat est","Ġmin ister","Ġadd ition","bo ard","Ġpower ful","Ġpar liament","Ġeas tern","Ġlear ning","au ght","Ġcor rect","Ġorgan is","wh ich","Ġinde pend","udd h","Ġserv ice","Ġserv ices","Ġes pecially","Ġhawai i","Ġprom ise","Ġsubst ance","Ġgalax ies","Ġtit le","Ġque en","Ġlau gh","Ġsle ep","zer land","Ġhy dr","Ġdisco vered","Ġcit iz","Ġspec ific","Ġswit zerland","Ġegy pt","2 1","c ar","g n","i ally","i red","l im","m en","m it","r ich","t ion","t ime","u ries","x ic","Ġt re","Ġs ad","Ġs udd","Ġm ac","Ġm ist","Ġm outh","Ġb at","Ġb ed","'' )","Ġp ot","Ġf ell","Ġl akes","Ġl ower","Ġin te","Ġin fl","ed om","it ution","it ude","Ġd ied","om en","is l","Ġe ight","Ġg ave","op h","op s","Ġhe at","Ġhe ll","Ġre ce","ac hes","Ġwh is","um p","her s","id er","Ġ( '''","Ġme mber","Ġal ign","Ġfr ont","fe ction","Ġsh ip","Ġsp orts","Ġsp anish","ke y","up id","Ġ2 6","so ci","Ġpart y","land s","Ġad v","Ġag re","Ġfl ows","Ġte am","ens es","Ġheart s","Ġro om","ne y","Ġbu y","Ġob ser","Ġwar m","lo ad","Ġtell s","bo ok","Ġnat ive","Ġpar ad","rib ut","Ġhold ing","Ġshap es","Ġrun s","Ġmonth s","Ġthought s","Ġmount ains","Ġprodu cts","Ġcho ice","Ġcontin ent","Ġpen ins","Ġfear less","Ġpie ces","Ġital y","Ġhour s","Ġsum mer","Ġple ase","Ġruss ian","Ġquest ion","Ġpa rent","nd ash","Ġquick ly","Ġsudd en","& #","2 2","2 7","b ur","c ise","d o","g al","l er","l ar","m ail","p ect","v ious","w ing","w ith","w hen","in ci","Ġm edia","Ġm amm","Ġb it","Ġb read","on ic","Ġp al","Ġp ark","Ġf u","Ġl ay","Ġin se","Ġin hab","Ġd ou","Ġd im","Ġd ies","Ġto ok","ic ine","ve re","Ġe p","Ġyou ng","ent ly","Ġhe ight","ac y","ac ific","Ġst upid","im b","Ġor b","Ġr ome","and er","Ġde b","Ġen ds","Ġv apor","Ġpl at","Ġtr ade","ust om","Ġ19 0","Ġperson al","Ġany more","iz es","Ġco ver","de red","Ġmet rop","Ġdis c","Ġour selves","Ġcommon ly","Ġcol le","Ġapp ro","ull y","Ġgiv ing","Ġsup er","Ġbrit ain","Ġim age","Ġmil k","Ġnear ly","Ġinv ented","Ġchar acter","omet ry","Ġem ot","Ġve hic","Ġorigin al","ord ing","Ġmater ials","Ġest ab","Ġmag n","Ġdesign ed","Ġsepar ate","Ġsoci ety","Ġterrit ories","Ġocc ur","Ġspell ing","Ġmem ory","Ġmolec ules","Ġpos ition","Ġrefe rences","Ġphr ase","Ġgard en","Ġciv il","\" )","f ully","g ans","m iss","n ers","o v","r am","v iet","w ell","w ise","y l","y al","Ġ >","Ġt all","Ġo h","Ġs out","Ġs ound","re g","re me","in o","in y","in ing","in ces","Ġc ode","Ġb od","Ġb ene","Ġp acific","ar ies","it able","Ġd ue","Ġh it","om b","ll ar","Ġre v","un t","Ġli e","ct ions","Ġr a","Ġr ange","ap e","Ġsh or","os m","Ġcomp an","iv id","Ġam az","Ġcount y","oc r","pl an","Ġsy n","Ġcont roll","Ġco st","Ġchang ing","ra id","Ġdes ire","Ġnorth west","Ġcol umb","Ġcol lect","Ġsmall est","Ġho ly","Ġed uc","Ġadd ing","Ġinst ance","ai wan","ific ation","Ġge orge","Ġsw ed","Ġcur ren","Ġprov inces","Ġunderstand ing","Ġdiv ision","Ġcomple x","Ġdefin ed","Ġorigin ally","Ġseem s","Ġrec ogn","pos es","Ġconnect ed","Ġfre edom","Ġcomplete ly","Ġgn u","Ġcurrent ly","Ġox ford","Ġchristian ity","olit an","lar gest","Ġmetrop olitan","' .",", âĢĿ","c ast","c ond","c ons","c hed","e al","e ous","i or","i ers","m ay","n ed","n ic","o ft","s im","s uch","x x","Ġ ess","Ġ }}","Ġt or","Ġt ax","Ġthe e","Ġs alt","Ġc am","Ġc ase","Ġc ustom","Ġm ile","Ġb ank","Ġb uddh","Ġp an","Ġp ath","Ġf ix","or ia","ar a","ar l","it ants","Ġh ill","Ġto wards","is es","Ġn ut","le x","Ġy es","Ġe c","Ġg all","ver age","Ġfor ces","Ġhe ar","Ġst one","ir on","od uced","Ġ( )","Ġwe l","Ġwe ap","Ġal b","il ing","il le","ul f","âĢ ľ","Ġj ul","Ġun like","Ġpr int","Ġch ance","Ġde cl","Ġsp ain","Ġsp end","Ġsp aces","if y","Ġv ir","Ġpl astic","Ġso ap","Ġ2 1","Ġar r","Ġsu g","Ġcomp ass","Ġfo ol","ide o","Ġcont ent","Ġsa fe","Ġwant s","ro y","Ġget ting","Ġsim pl","Ġgood s","Ġro ots","Ġind ivid","Ġsay ing","Ġhel ps","Ġpain t","Ġge ometry","Ġfour th","Ġacc ording","Ġ199 0","rie ved","Ġdevelop ment","Ġret rieved","Ġsymbol s","Ġleg al","Ġleg isl","Ġturn s","Ġmed icine","Ġexper ience","Ġwebs ites","Ġpress ure","Ġdirect ly","Ġcy cle","Ġsex ual","Ġvar ious","Ġpartic ular","fr om","Ġhealth y","Ġcle ar","Ġlink s","Ġdem ocr","Ġnorm ally","Ġbro ad","Ġtast e","Ġgrav ity","Ġslow ly","ht ml","Ġpy th","Ġpenins ula","Ġsout heast","1 7","3 5","b i","b or","c hest","d en","f fe","f fect","j o","l ondon","m un","n iv","o ll","o ff","r m","r ane","s ol","t ain","Ã ¡","Ã ¶","Ġ \\","Ġ 50","Ġt rees","Ġi p","Ġo p","Ġs ight","Ġw ake","Ġw omen","in ary","Ġm ental","Ġb and","Ġf ut","Ġf ast","en ess","Ġl u","Ġl ate","ar c","ing u","Ġd ig","Ġd anger","Ġh om","Ġh ol","Ġh umb","is ions","Ġn in","Ġn ation","Ġe mb","Ġe ffect","ver t","op ical","st ein","ri al","Ġre cent","ad es","im et","um ents","ol f","Ġas soci","Ġr ub","Ġme xic","Ġse ven","il i","il s","Ġde let","Ġne g","Ġsh owing","ang le","Ġ\" '''","Ġcon cept","ess ed","Ġbut ter","ure d","Ġex ists","Ġso viet","Ġtr ain","Ġ2 000","Ġthere fore","Ġar ctic","Ġgr ass","iv ed","iv ing","Ġfo ld","Ġany body","Ġev olution","Ġevery day","Ġaf raid","Ġbr ain","Ġag ree","Ġsa w","Ġco ll","Ġper cent","Ġ| |","Ġmet als","Ġmar s","Ġearth qu","li ed","Ġright eous","Ġpre t","Ġro bert","Ġpres ence","Ġcal cul","Ġmus lim","Ġrem o","Ġsun day","ert ies","ron y","ines e","Ġcr oss","Ġset t","bo x","Ġreg ions","Ġgener ally","Ġtrans port","Ġchar les","ograp h","Ġaust ria","Ġdire ction","Ġconst itution","Ġpolit ics","Ġlearn ed","Ġliqu ids","Ġforg ot","Ġnet work","Ġcaus ed","Ġdre am","Ġdre ams","Ġhor iz","Ġsil ver","Ġecon omy","Ġhawai ian","Ġjud g","Ġterrit ory","Ġastron omy","Ġnorm al","Ġpur poses","Ġtool s","Ġdescrib ed","Ġansw er","Ġmach ine","Ġalph ab","cyclop edia","Ġenv iron","bas ic","Ġhydr ogen","Ġinfl u","Ġinhab itants","Ġbod ies","Ġlegisl ature","1 5","a im","b ile","f ire","f ield","l it","o z","o int","p or","p ed","u ed","w ater","y le","Ġt ries","Ġt iss","Ġa th","Ġa verage","Ġi ron","Ġw ine","Ġc ard","Ġc amb","an ks","Ġm ir","Ġm ap","at ural","Ġp un","Ġp ubl","Ġf em","or m","Ġl y","Ġis l","Ġd er","Ġd av","Ġh ung","om agn","Ġn ur","Ġg if","Ġg one","Ġg ases","us h","ent ial","ut es","Ġli es","all ed","ak ed","Ġwe ather","Ġmo ved","Ġpr on","Ġde l","Ġne cess","Ġv ul","Ġv ideo","ab b","Ġcomp et","Ġcomp ounds","Ġev idence","pl ay","Ġco vered","pt ion","ult ure","ens us","Ġdis app","Ġmar x","Ġcol ors","Ġsim ply","Ġimp er","Ġimp oss","Ġcent uries","Ġri vers","Ġstud ied","Ġsouth west","Ġact ivity","Ġsc ot","Ġfeel ings","Ġneed ed","Ġthrough out","Ġrem ain","Ġmin or","ail able","Ġhand le","Ġadd ed","Ġair craft","Ġprot e","Ġfa ir","Ġemp er","Ġemp ty","Ġref ers","Ġrun ning","Ġprop erties","ruct ions","Ġ8 50","Ġbeaut y","Ġcommun ist","Ġcommun ity","Ġem ail","wh at","Ġscient ist","Ġscient ific","wik ipedia","Ġprotect ion","Ġprogr ams","Ġforg ive","Ġcir c","Ġrad iation","Ġinc re","Ġpartic les","Ġce re","acter ia","Ġwis dom","Ġrefer red","Ġdest roy","Ġproper ty","Ġflo or","Ġmicros oft","Ġtear s","Ġlab or","Ġmov ies","Ġexact ly","Ġwonder ful","mc m","Ġchur ch","eur ope","Ġenem ies","Ġliter ature","Ġjew s","Ġprobab ly","Ġtelesc ope","Ġ{ |","Ġdistr ict","Ġinte rest","Ġfut ure","\" ).","2 9","3 2","3 8","6 5","b el","b ra","c he","c ome","c ury","d is","f act","f oot","g a","i ant","o h","o ke","t ic","w rit","Ġ ,","Ġt aiwan","Ġo k","Ġo s","Ġs or","Ġs lo","Ġs itu","Ġw ed","Ġw ent","Ġc as","Ġc ra","Ġc ath","Ġc ases","Ġb right","Ġb ase","Ġb acteria","on ia","ou l","Ġp ack","Ġan al","Ġan the","en cy","Ġl ed","it ation","it ive","Ġd a","Ġd an","Ġd ust","Ġd war","Ġh un","Ġe ff","us ed","Ġbe ings","am eric","st r","st s","Ġhe n","ri ble","Ġst ories","un k","ol a","ith met","Ġk im","Ġme at","Ġwor ship","Ġmo ves","ist ic","ain t","Ġch amp","Ġsh ared","Ġsp ent","Ġex c","Ġv en","Ġtr opical","up iter","ab y","ab ility","ie ve","Ġgr own","Ġgr ows","ub e","the n","the w","cl es","Ġcomm and","Ġdiffe rence","ĠâĢ ĺ","Ġbr ings","Ġbr other","Ġfl ight","Ġac id","Ġmet ers","ru g","ru ction","Ġqu al","Ġpre ci","Ġcent re","Ġrep e","Ġsc ale","Ġdist in","Ġmin ute","Ġmin utes","Ġke y","Ġke pt","Ġ200 1","Ġelect ed","Ġinst ructions","Ġge ography","Ġres our","Ġpoint s","rib ution","Ġpri v","Ġang le","Ġeas ily","Ġchemical s","Ġfin ally","Ġcontr act","Ġatt ention","go vern","Ġcour t","htt ps","Ġmathemat ical","Ġask ed","Ġdev ice","Ġdri ve","Ġstrong er","Ġple asure","Ġdark ness","Ġcat al","Ġrom ance","Ġpray er","Ġproble m","Ġav ailable","Ġastron om","bre v","Ġclot hes","Ġcopy right","Ġwa iting","Ġhon or","Ġmeth ods","Ġrele ased","Ġprofess ional","Ġwin ter","Ġfig ure","Ġru le","Ġeconom ics","Ġauthor ity","Ġris k","bec ause","Ġsurr ounded","Ġpract ice","Ġorganis ms","Ġcitiz ens","vere ign","miss ion","Ġsug gest","Ġforgot ten","Ġcamb ridge","Ġisl am","omagn etic","Ġdwar f","ithmet ic","1 00","8 0","_ _","a rent","c alled","d ing","i h","j an","l a","m i","m ed","n y","p age","p ro","s k","s es","w ich","Ä ģ","Ġ :","Ġa ch","Ġa lex","re r","Ġw id","in c","in al","Ġc raft","Ġc osm","er als","an ing","Ġm i","Ġm aps","Ġb ay","Ġb ang","Ġb ound","Ġp sy","Ġan tar","Ġf it","Ġf ur","Ġf il","Ġf uck","en g","en ed","Ġl ack","Ġin s","Ġin ner","Ġis s","ar g","ar r","ed y","Ġth om","it ect","Ġd y","Ġd ate","om ach","Ġto w","is p","is ing","as ia","Ġn ort","Ġg un","Ġg rief","''' :","Ġon to","Ġst ick","un i","ad y","im edia","Ġor gans","her lands","id ents","ct ors","Ġcan d","Ġ( \"","Ġr aw","Ġr ocks","ag ram","Ġwe ar","oun ter","Ġnot e","âĢ ¦","Ġj ump","Ġpr inci","Ġpr oduced","Ġch inese","Ġde eds","Ġen zy","ate ver","Ġsh oes","Ġsp ort","Ġsp ring","Ġdo gs","Ġdo llar","Ġcon v","Ġcon fl","if f","os h","os y","Ġ'' '''","Ġall ows","Ġso vereign","ig an","Ġ2 3","Ġar ithmetic","og le","Ġgr ant","Ġgr owing","Ġcomp os","Ġcl os","Ġcl ick","Ġfo c","Ġno body","ions hip","av or","av ing","Ġfe ature","Ġcomm it","ĠâĢ Ķ","ond ay","Ġag es","Ġco vers","Ġbo ard","Ġfl es","Ġfl ower","Ġfl owers","Ġte ams","Ġte eth","Ġdes erve","Ġac rony","Ġmet e","Ġmat h","Ġmat thew","Ġnew ton","Ġqu ite","Ġcould n","Ġimp ro","Ġho ll","Ġ18 9","Ġpopul ous","Ġapp lic","Ġjo b","Ġjo in","Ġdist ances","Ġrem ains","Ġold er","Ġplay er","Ġplay ers","Ġgovernment s","Ġreal ity","Ġbelie ved","Ġelect ron","Ġinst r","Ġbig ger","Ġ6 0","Ġsub ject","Ġref lect","Ġmeasure ment","Ġhold s","Ġpri mary","Ġang els","Ġstand s","Ġclass ical","Ġclass ification","Ġ201 1","Ġprodu ct","Ġchrist mas","Ġval ley","Ġwee ks","Ġdep th","Ġlead ers","Ġve get","Ġfight ing","Ġheav y","Ġexper i","Ġcour age","Ġsent ences","gr ound","Ġcult ures","?\" \"","Ġnet herlands","Ġrom ans","Ġengine ering","Ġmix ed","Ġtrad itional","Ġelectr ons","Ġav oid","Ġpict ures","Ġgn ome","Ġsubst ances","Ġloc ated","Ġvis it","Ġsuff er","Ġsuff ering","Ġclot hing","Ġgalax y","Ġcri me","Ġreact ions","Ġbreat h","Ġpoet ry","Ġuk rain","Ġeth nic","Ġnucle ar","Ġelectric ity","Ġtur key","Ġbelief s","Ġsaus ages","Ġport ug","Ġbran ch","Ġdoc ument","Ġdeg rees","Ġbrows er","Ġdesp ite","Ġsurv ive","Ġclou ds","Ġrece ive","Ġsudden ly","Ġmamm als","Ġeduc ation","Ġcurren cy","sim ple","Ġweap ons","Ġbroad cast","Ġrub ber","Ġpret ty","Ġalphab et","Ġenviron ment","Ġfem ale","Ġpron oun","Ġimposs ible","Ġemper or","Ġanthe m","Ġantar ctic","Ġconfl ict","4 0","4 5","; &#","c r","c er","d i","d im","f ort","h ouse","i est","m o","m ark","n or","n ail","o a","p al","r ay","r up","s et","s qu","s ome","t w","u ff","v ation","Ê »","Ġ q","Ġt iny","Ġi ra","Ġs end","Ġs ite","re l","re al","er o","er y","Ġm al","Ġm ich","Ġm ale","Ġm onday","Ġb ill","Ġb ern","'' ).","'' ),","ou red","at re","Ġp ure","Ġp ig","Ġp red","Ġp air","Ġf ing","Ġf res","en ger","or ic","Ġl ux","Ġin j","al se","al ia","ar ds","it r","ic y","ic ian","as a","Ġn av","le br","Ġe tern","ot o","ver ty","Ġfor ced","Ġhe m","Ġre ct","Ġre asons","Ġwh atever","Ġlo ver","ad em","Ġor ange","Ġli ver","Ġus a","Ġcan al","Ġr on","Ġr ound","ch rist","ag er","Ġwas te","ist ers","Ġal t","est ic","Ġj upiter","Ġun less","Ġpr ince","Ġne ut","Ġne igh","Ġsh ad","Ġcon c","Ġcon qu","if fe","Ġyour s","Ġ* ''","Ġex er","Ġv ac","Ġother wise","Ġsome where","Ġpl ate","Ġab ility","el ess","Ġtr a","Ġtr ou","Ġ2 2","ok ed","og ue","Ġlike ly","Ġcl aim","ip ed","our s","pl ate","pl oy","are st","Ġher m","Ġaf fection","Ġpo em","Ġpo ems","Ġpo verty","Ġsy mp","angu age","Ġco ol","Ġspe aking","Ġfl ag","ens ional","Ġhim self","Ġbel g","Ġwould n","Ġmean ings","Ġqu ant","Ġqu iet","Ġameric as","int s","Ġright s","Ġpre vious","Ġgood by","Ġro yal","Ġsci ences","Ġwik i","ph one","Ġcreat es","Ġcreat ing","Ġfound ation","Ġed it","com p","Ġprot ons","con t","Ġsup ern","Ġpol ice","wor d","19 9","Ġprov ide","Ġexp ress","Ġread ing","Ġ201 2","Ġprodu ce","Ġkiss ed","Ġ& #","Ġmed iter","Ġdep end","Ġdep ending","wik itable","Ġatt ack","Ġatt ached","Ġposs ess","Ġlot s","Ġresp ons","Ġche ck","Ġdirect ions","Ġbecom ing","pos ed","Ġsat urn","Ġcry st","Ġpa ul","Ġelectr omagnetic","Ġce lebr","Ġvis ible","Ġdet erm","Ġsix th","Ġext ra","Ġbreat he","Ġcontain er","Ġwall s","Ġtechn ology","Ġinf in","Ġscre en","Ġid ent","Ġvolcan o","tion ary","Ġparad ox","Ġcolle ction","may be","Ġwel sh","chest er","ffe e","rane an","Ġdav id","Ġimper ial","Ġpsy ch","Ġimpro ve","Ġira q","Ġmediter ranean","! \"",". '","1 50","2 3","2 30","4 1","a o","b c","c il","e ast","e lect","h ist","i as","i fe","l ished","m m","p es","s on","t ical","u le","u ri","y ear","y ond","Ġ ult","Ġt al","Ġt ect","Ġs on","Ġs av","Ġs izes","Ġs aint","Ġw et","in tern","Ġc el","Ġc red","Ġc ore","Ġc ru","Ġc hest","er ation","Ġm ut","Ġm art","Ġm aster","Ġb ow","Ġb ri","Ġb ann","on o","'' '''","Ġp ope","Ġp ick","Ġan ger","Ġf ed","or b","or der","Ġin tr","Ġth ick","it am","Ġd ut","Ġh u","Ġh op","Ġh ide","Ġh oney","Ġto ward","as ing","Ġn one","le ft","Ġg ather","Ġbe e","Ġbe yond","ot a","ot ed","ent h","ut ions","Ġre ject","ac he","Ġst ock","Ġor d","um an","se a","ol ute","Ġk n","Ġr h","Ġr od","ak i","and a","ag ing","ght er","Ġmo bile","Ġal ive","Ġal bert","Ġse ed","Ġse eds","Ġfr ame","Ġj ames","Ġpr ison","Ġch ap","Ġne ck","ate ly","Ġsp lit","Ġv an","Ġv ill","Ġso on","ab ly","ab el","ab les","ust r"]}}