{"version":"1.0","truncation":null,"padding":null,"added_tokens":[{"id":0,"content":"<PAD>","single_word":false,"lstrip":false,"rstrip":false,"normalized":false,"special":true},{"id":1,"content":"<BOS>","single_word":false,"lstrip":false,"rstrip":false,"normalized":false,"special":true},{"id":2,"content":"<EOS>","single_word":false,"lstrip":false,"rstrip":false,"normalized":false,"special":true},{"id":3,"content":"<UNK>","single_word":false,"lstrip":false,"rstrip":false,"normalized":false,"special":true},{"id":4,"content":"{","single_word":false,"lstrip":false,"rstrip":false,"normalized":false,"special":true},{"id":5,"content":"}","single_word":false,"lstrip":false,"rstrip":false,"normalized":false,"special":true},{"id":6,"content":"[","single_word":false,"lstrip":false,"rstrip":false,"normalized":false,"special":true},{"id":7,"content":"]","single_word":false,"lstrip":false,"rstrip":false,"normalized":false,"special":true},{"id":8,"content":":","single_word":false,"lstrip":false,"rstrip":false,"normalized":false,"special":true},{"id":9,"content":",","single_word":false,"lstrip":false,"rstrip":false,"normalized":false,"special":true},{"id":10,"content":"\"","single_word":false,"lstrip":false,"rstrip":false,"normalized":false,"special":true},{"id":11,"content":"\n","single_word":false,"lstrip":false,"rstrip":false,"normalized":false,"special":true}],"normalizer":{"type":"Sequence","normalizers":[{"type":"NFC"},{"type":"Lowercase"}]},"pre_tokenizer":{"type":"ByteLevel","add_prefix_space":true,"trim_offsets":true,"use_regex":true},"post_processor":{"type":"TemplateProcessing","single":[{"SpecialToken":{"id":"<BOS>","type_id":0}},{"Sequence":{"id":"A","type_id":0}},{"SpecialToken":{"id":"<EOS>","type_id":0}}],"pair":[{"SpecialToken":{"id":"<BOS>","type_id":0}},{"Sequence":{"id":"A","type_id":0}},{"SpecialToken":{"id":"<EOS>","type_id":0}},{"Sequence":{"id":"B","type_id":1}},{"SpecialToken":{"id":"<EOS>","type_id":1}}],"special_tokens":{"<BOS>":{"id":"<BOS>","ids":[1],"tokens":["<BOS>"]},"<EOS>":{"id":"<EOS>","ids":[2],"tokens":["<EOS>"]}}},"decoder":{"type":"ByteLevel","add_prefix_space":true,"trim_offsets":true,"use_regex":true},"model":{"type":"BPE","dropout":null,"unk_token":null,"continuing_subword_prefix":null,"end_of_word_suffix":null,"fuse_unk":false,"byte_fallback":false,"ignore_merges":false,"vocab":{"<PAD>":0,"<BOS>":1,"<EOS>":2,"<UNK>":3,"{":4,"}":5,"[":6,"]":7,":":8,",":9,"\"":10,"\n":11,"!":12,"#":13,"$":14,"%":15,"&":16,"'":17,"(":18,")":19,"*":20,"+":21,"-":22,".":23,"/":24,"0":25,"1":26,"2":27,"3":28,"4":29,"5":30,"6":31,"7":32,"8":33,"9":34,";":35,"<":36,"=":37,">":38,"?":39,"@":40,"\\":41,"^":42,"_":43,"`":44,"a":45,"b":46,"c":47,"d":48,"e":49,"f":50,"g":51,"h":52,"i":53,"j":54,"k":55,"l":56,"m":57,"n":58,"o":59,"p":60,"q":61,"r":62,"s":63,"t":64,"u":65,"v":66,"w":67,"x":68,"y":69,"z":70,"|":71,"~":72,"¡":73,"¢":74,"£":75,"¤":76,"¥":77,"¦":78,"§":79,"¨":80,"©":81,"ª":82,"«":83,"¬":84,"®":85,"¯":86,"°":87,"±":88,"²":89,"³":90,"´":91,"µ":92,"¶":93,"·":94,"¸":95,"¹":96,"º":97,"»":98,"¼":99,"½":100,"¾":101,"¿":102,"Â":103,"Ã":104,"Ä":105,"Å":106,"Æ":107,"Ç":108,"È":109,"É":110,"Ê":111,"Ë":112,"Ì":113,"Í":114,"Î":115,"Ï":116,"Ð":117,"Ñ":118,"Ó":119,"Ö":120,"×":121,"Ø":122,"Ù":123,"Ú":124,"Û":125,"à":126,"á":127,"â":128,"ã":129,"ä":130,"å":131,"æ":132,"ç":133,"è":134,"é":135,"ê":136,"ë":137,"ì":138,"í":139,"ï":140,"ð":141,"Ă":142,"ĉ":143,"Ċ":144,"ċ":145,"Ġ":146,"Ģ":147,"ģ":148,"Ĥ":149,"ĥ":150,"Ħ":151,"ħ":152,"Ĩ":153,"ĩ":154,"Ī":155,"ī":156,"Ĭ":157,"ĭ":158,"Į":159,"į":160,"İ":161,"ı":162,"Ĳ":163,"ĳ":164,"Ĵ":165,"ĵ":166,"Ķ":167,"ķ":168,"ĸ":169,"Ĺ":170,"ĺ":171,"Ļ":172,"ļ":173,"Ľ":174,"ľ":175,"Ŀ":176,"ŀ":177,"Ł":178,"ł":179,"Ń":180,"Ġt":181,"Ġa":182,"in":183,"he":184,"ĠĠ":185,"re":186,"Ġthe":187,"on":188,"Ġs":189,"Ġc":190,"er":191,"at":192,"en":193,"or":194,"es":195,"Ġp":196,"Ġw":197,"it":198,"Ġf":199,"nd":200,"Ġo":201,"is":202,"ing":203,"al":204,"Ġm":205,"ou":206,"Ġb":207,"Ġin":208,"an":209,"le":210,"Ġd":211,"Ġand":212,"Ġto":213,"ion":214,"ar":215,"ed":216,"Ġof":217,"ic":218,"ĠĠĠĠ":219,"ro":220,"Ġe":221,"Ġth":222,"as":223,"ct":224,"ent":225,"Ġh":226,"Ġre":227,"Ġn":228,"ĠĊ":229,"Ġl":230,"us":231,"Ġi":232,"ve":233,"om":234,"et":235,"Ġg":236,"Ġy":237,"il":238,"Ġis":239,"st":240,"ut":241,"Ġst":242,"ra":243,"ĠĠĠ":244,"Ġyou":245,"Ġfor":246,"ce":247,"id":248,"ow":249,"ch":250,"ation":251,"el":252,"ol":253,"ur":254,"ot":255,"am":256,"Ġ\"":257,"Ġthat":258,"Ġpro":259,"ig":260,"Ġon":261,"ly":262,"ers":263,"Ġbe":264,"im":265,"Ġcon":266,"un":267,"Ġit":268,"ith":269,"um":270,"ul":271,"ate":272,"Ġan":273,"Ġv":274,"Ġ=":275,"od":276,"Ġ1":277,"Ġhe":278,"Ġwith":279,"Ġas":280,"Ġus":281,"Ġcan":282,"ir":283,"ad":284,"ay":285,"Ġex":286,"se":287,"qu":288,"ge":289,"if":290,"Ġwh":291,"Ġor":292,"ess":293,"Ġal":294,"ab":295,"Ġde":296,"ment":297,"Ġcom":298,"ri":299,"Ġthis":300,"Ġ`":301,"th":302,"ist":303,"ke":304,"ver":305,"ĠĠĠĠĠĠĠ":306,"pp":307,"est":308,"Ġare":309,"Ġ(":310,"Ġwe":311,"Ġsu":312,"ld":313,"mp":314,"res":315,"Ġch":316,"Ġ-":317,"pe":318,"Ġ2":319,"ction":320,"ive":321,"Ġne":322,"ore":323,"ter":324,"ck":325,"Ġr":326,"iv":327,"ity":328,"Ġse":329,"ain":330,"Ġen":331,"her":332,"Ġha":333,"lo":334,"ort":335,"pt":336,"Ġle":337,"nt":338,"Ġj":339,"Ġad":340,"igh":341,"Ġsh":342,"ill":343,"ies":344,"ould":345,"rom":346,"ple":347,"age":348,"ant":349,"Ġby":350,"Ġif":351,"em":352,"Ġyour":353,"ud":354,"ial":355,"te":356,"os":357,"iz":358,"pl":359,"Ġwor":360,"Ġu":361,"ure":362,"Ġfrom":363,"art":364,"ust":365,"Ġma":366,"ue":367,"Ġimp":368,"Ġ3":369,"fe":370,"and":371,"Ġnot":372,"Ġte":373,"Ġar":374,"out":375,"all":376,"00":377,"ine":378,"oc":379,"ight":380,"end":381,"int":382,"act":383,"Ġat":384,"ide":385,"ult":386,"per":387,"Ġpl":388,"Ġab":389,"âĢ":390,"'s":391,"Ġme":392,"ame":393,"Ġhave":394,"for":395,"Ġk":396,"able":397,"cl":398,"ind":399,"Ġ{":400,"ile":401,"ome":402,"red":403,"Ġtheir":404,"ase":405,"Ġhow":406,"oo":407,"ag":408,"cc":409,"Ġres":410,"our":411,"Ġstr":412,"Ġint":413,"Ġun":414,"ĠĠĠĠĠĠĠĠ":415,"ions":416,"ence":417,"Ġwhe":418,"put":419,"du":420,"Ġtr":421,"ie":422,"``":423,"Ġ```":424,"ach":425,"Ġ$":426,"og":427,"form":428,"Ġcont":429,"Ġadd":430,"Ġnum":431,"ical":432,"low":433,"Ġqu":434,"Ġpr":435,"ber":436,"ost":437,"Ġwas":438,"Ġcre":439,"ime":440,"Ġcl":441,"Ġmore":442,"xt":443,"Ġthey":444,"Ġapp":445,"Ġfun":446,"ass":447,"ps":448,"Ġsc":449,"ance":450,"rou":451,"Ġwill":452,"ther":453,"ich":454,"ations":455,"urn":456,"Ġ4":457,"Ġ}":458,"Ġdo":459,"ode":460,"Ġuse":461,"ack":462,"ated":463,"ata":464,"ite":465,"Ġout":466,"ard":467,"--":468,"are":469,"ice":470,"ast":471,"ib":472,"ans":473,"gh":474,"Ġret":475,"Ġ5":476,"ces":477,"Ġfunction":478,"av":479,"ign":480,"Ġprov":481,"king":482,"()":483,"\",":484,"con":485,"Ġso":486,"Ġro":487,"so":488,"Ġval":489,"Ġbut":490,"ition":491,"ount":492,"Ġdis":493,"Ġ#":494,"Ġhas":495,"ell":496,"ect":497,"Ġwhich":498,"ous":499,"ary":500,"ks":501,"Ġsome":502,"Ġcomp":503,"ep":504,"Ġman":505,"Ġspe":506,"Ġsp":507,"Ġfe":508,"Ġwhat":509,"Ġ|":510,"Ġ<":511,"str":512,"one":513,"Ġup":514,"Ġreturn":515,"ace":516,"ram":517,"Ġnew":518,"ong":519,"Ġ+":520,"ific":521,"ress":522,"ord":523,"ents":524,"ang":525,"Ġusing":526,"Ġother":527,"Ġper":528,"clud":529,"ound":530,"ally":531,"Ġev":532,"Ġdes":533,"Ġli":534,"Ġabout":535,"Ġall":536,"Ġgo":537,"rent":538,"lement":539,"Ġtra":540,"get":541,"ĠĠĠĠĠĠĠĠĠĠĠ":542,"Ġ*":543,"Ġ0":544,"Ġeach":545,"ac":546,"Ġ'":547,"de":548,"ail":549,"op":550,"ap":551,"\\_":552,"Ġalso":553,"Ġone":554,"Ġthere":555,"ory":556,"Ġexam":557,"ire":558,"Ġsy":559,"ry":560,"Ġmy":561,"Ġhel":562,"Ġthese":563,"Ġcomm":564,"ip":565,"Ġ\\":566,"Ġ[":567,"Ġpre":568,"Ġacc":569,"yth":570,"Ġcol":571,");":572,"Ġshould":573,"we":574,"Ġthem":575,"Ġdata":576,"ub":577,"com":578,"Ġover":579,"ne":580,"Ġinclud":581,"ak":582,"ove":583,"ings":584,"ject":585,"ates":586,"ff":587,"Ġdef":588,"Ġlist":589,"ors":590,"âĢĻ":591,"Ġspec":592,"Ġhere":593,"Ġtime":594,"elf":595,"lic":596,"Ġdif":597,"ize":598,"Ġany":599,"Ġcode":600,"ating":601,"Ġ/":602,"Ġinto":603,"ari":604,"Ġnumber":605,"Ġneed":606,"Ġpe":607,"now":608,"Ġsuch":609,"Ġmod":610,"led":611,"ph":612,"ren":613,"Ġwho":614,"Ġam":615,"les":616,"Ġser":617,"Ġind":618,"ree":619,"Ġwhen":620,"Ġlike":621,"Ġpart":622,"cess":623,"Ġits":624,"ange":625,"Ġwr":626,"Ġbet":627,"ual":628,"Ġwould":629,"Ġcreate":630,"ens":631,"ater":632,"Ġke":633,"Ġcons":634,"ython":635,"Ġra":636,"ark":637,"Ġhelp":638,"Ġtw":639,"Ġ6":640,"Ġprint":641,"Ġimport":642,"err":643,"Ġprodu":644,"Ġset":645,"Ġprog":646,"Ġmake":647,".\"":648,"ia":649,"ds":650,"Ġfol":651,"Ġgen":652,"Ġpos":653,"eth":654,"ath":655,"ays":656,"Ġcal":657,"Ġchar":658,"Ġhis":659,"(\"":660,"Ġform":661,"Ġx":662,"Ġcould":663,"irst":664,"Ġpo":665,"nder":666,"ative":667,"ful":668,"fect":669,"ys":670,"Ġinc":671,"ased":672,"Ġthan":673,"lect":674,"Ġget":675,"Ġprovide":676,"):":677,"Ġdiffe":678,"ient":679,"stem":680,"Ġche":681,"\":":682,"ility":683,"ook":684,"ert":685,"Ġrec":686,"ars":687,"ick":688,"row":689,"Ġsa":690,"ict":691,"eng":692,"ild":693,"Ġdet":694,"Ġinform":695,"Ġem":696,"Ġph":697,"Ġfollow":698,"Ġfirst":699,"rib":700,"Ġfind":701,"Ġknow":702,"ract":703,"Ġused":704,"ript":705,"Ġrem":706,"ues":707,"Ġaf":708,"Ġsol":709,"Ġinter":710,"Ġthen":711,"Ġmay":712,"Ġprogram":713,"ray":714,"Ġco":715,"ish":716,"arch":717,"rough":718,"ning":719,"Ġshe":720,"Ġgre":721,"ities":722,"ft":723,"Ġsystem":724,"Ġexample":725,"Ġwhere":726,"Ġher":727,"Ġunder":728,"ll":729,"Ġvari":730,"Ġsub":731,"Ġstring":732,"Ġour":733,"Ġgiv":734,"Ġtwo":735,"ty":736,"Ġinv":737,"Ġoff":738,"Ġwork":739,"oth":740,"ices":741,"velo":742,"erm":743,"Ġvalue":744,"Ġtrans":745,"ics":746,"Ġrequ":747,").":748,"enc":749,"Ġpers":750,"gg":751,"ise":752,"Ġty":753,"Ġbu":754,"Ġrel":755,"Ġresult":756,"Ġob":757,"Ġinput":758,"Ġsim":759,"ely":760,"Ġcur":761,"Ġgener":762,"pon":763,"ov":764,"the":765,"wer":766,"Ġinformation":767,"Ġact":768,"Ġclass":769,"Ġinte":770,"ures":771,"name":772,"Ġthrough":773,"olog":774,"Ġ10":775,"Ġstud":776,"Ġexper":777,"Ġlet":778,"ake":779,"Ġag":780,"Ġrep":781,"aus":782,"Ġsm":783,"Ġdevelo":784,"ential":785,"ience":786,"Ġ7":787,"Ġopt":788,"ible":789,"),":790,"ify":791,"Ġdifferent":792,"val":793,"Ġno":794,"its":795,"Ġass":796,"cept":797,"Ġim":798,"ery":799,"Ġwhile":800,"Ġinst":801,"ments":802,"----":803,"ble":804,"der":805,"Ġel":806,"Ġtech":807,"ople":808,"bers":809,"Ġdevelop":810,"ular":811,"hes":812,"Ġexp":813,"Ġans":814,"ex":815,"pect":816,"Ġcomple":817,"Ġpeople":818,"Ġ20":819,"Ġid":820,"Ġsent":821,"ĠâĢ":822,"Ġfin":823,"Ġprocess":824,"Ġtechn":825,"Ġtext":826,"Ġgiven":827,"ough":828,"Ġ//":829,"Ġcor":830,"ob":831,"ting":832,"Ġcharact":833,"Ġ8":834,"Ġprovid":835,"ween":836,"..":837,"Ġelement":838,"Ġmin":839,"Ġbetween":840,"Ġreg":841,"ink":842,"Ġmat":843,"Ġstart":844,"fore":845,"uring":846,"Ġuser":847,"Ġexpl":848,"vel":849,"ns":850,"ution":851,"Ġeng":852,"Ġmed":853,"Ġdec":854,"ood":855,"Ġproduct":856,"als":857,"pport":858,"Ġhand":859,"Ġanswer":860,"Ġwant":861,"Ġquest":862,"Ġhad":863,"ru":864,"ethod":865,"ower":866,"sc":867,"pr":868,"iqu":869,"Ġwere":870,"Ġperson":871,"ustom":872,"'t":873,"Ġfl":874,"ose":875,"Ġart":876,"Ġbec":877,"lease":878,"Ġplay":879,"ctions":880,"Ġhigh":881,"iew":882,"Ġpar":883,"Ġmain":884,"Ġaddition":885,"Ġsoc":886,"ious":887,"read":888,"error":889,"Ġsum":890,"ĠĠĠĠĠ":891,"Ġonly":892,"vers":893,"own":894,"Ġgrou":895,"gy":896,"Ġend":897,"Ġbeen":898,"ality":899,"Ġjust":900,"Ġent":901,"Ġemp":902,"Ġye":903,"',":904,"Ġworld":905,"alth":906,"to":907,"Ġsign":908,"Ġcount":909,"Ġboth":910,"Ġac":911,"Ġwell":912,"Ġmethod":913,"Ġspecific":914,"ied":915,"Ġstep":916,"Ġmark":917,"ffect":918,"Ġname":919,"Ġwrite":920,"up":921,"Ġever":922,"Ġfile":923,"Ġkey":924,"cul":925,"word":926,"text":927,"ages":928,"stand":929,"wor":930,"Ġcustom":931,"anc":932,"))":933,"Ġmany":934,"ts":935,"Ġbl":936,"Ġequ":937,"Ġserv":938,"Ġaut":939,"Ġpot":940,"ade":941,"Ġdoes":942,"ness":943,"Ġsk":944,"ian":945,"Ġread":946,"Ġcheck":947,"Ġdisc":948,"Ġins":949,"pro":950,"Ġatt":951,"Ġlear":952,"ized":953,"ause":954,"Ġplease":955,"=\"":956,"Ġmost":957,"ix":958,"Ġgu":959,"Ġfil":960,"Ġpol":961,"Ġoutput":962,"ife":963,"ten":964,"Ġdesign":965,"iel":966,"num":967,"Ġself":968,"ines":969,"Ġcommun":970,"Ġbased":971,"Ġway":972,"Ġarray":973,"Ġtest":974,"Ġeffect":975,"Ġnow":976,"Ġdep":977,"Ġback":978,"Ġbel":979,"itive":980,"Ġ9":981,"Ġafter":982,"ples":983,"Ġav":984,"Ġcr":985,"wn":986,"Ġpython":987,"Ġsure":988,"Ġhealth":989,"Ġfollowing":990,"Ġloc":991,"gan":992,"ms":993,"Ġimplement":994,"Ġappro":995,"ivid":996,"hed":997,"Ġweb":998,"ature":999,"Ġgra":1000,"Ġanal":1001,"app":1002,"Ġunderstand":1003,"iss":1004,"Ġdist":1005,"Ġinclude":1006,"uct":1007,"Ġinteg":1008,"Ġstate":1009,"ss":1010,"son":1011,"Ġvis":1012,"string":1013,"Ġeven":1014,"ving":1015,"Ġz":1016,"ength":1017,"\")":1018,"Ġbr":1019,"Ġallow":1020,"Ġdesc":1021,"Ġmus":1022,"Ġpub":1023,"iness":1024,"Ġref":1025,"Ġhum":1026,"python":1027,"Ġrespon":1028,"Ġpoint":1029,"Ġcar":1030,"Ġconf":1031,"self":1032,"Ġimpro":1033,"Ġens":1034,"tal":1035,"Ġcalcul":1036,"line":1037,"Ġed":1038,"Ġfact":1039,"ĠĠĠĠĠĠĠĠĠĠĠĠĠĠĠ":1040,"data":1041,"old":1042,"Ġext":1043,"Ġsee":1044,"Ġmodel":1045,"Ġlead":1046,"Ġpass":1047,"Ġmult":1048,"Ġmarket":1049,"Ġperform":1050,"Ġlong":1051,"resent":1052,"ural":1053,"Ġbo":1054,"Ġconst":1055,"Ġcurrent":1056,"Ġrun":1057,"Ġsentence":1058,"Ġbre":1059,"Ġbus":1060,"000":1061,"ute":1062,"Ġcontain":1063,"Ġincre":1064,"Ġrev":1065,"Ġnumbers":1066,"ability":1067,"Ġsupport":1068,"Ġmon":1069,"Ġsal":1070,"ene":1071,"ational":1072,"ily":1073,"Ġident":1074,"Ġword":1075,"ax":1076,"ever":1077,"ward":1078,"Ġve":1079,"mon":1080,"Ġincluding":1081,"Ġla":1082,"io":1083,"mat":1084,"Ġop":1085,"Ġmem":1086,"Ġday":1087,"Ġredu":1088,"ider":1089,"Ġtotal":1090,"ins":1091,"ves":1092,"ional":1093,"Ġsocial":1094,"Ġinf":1095,"Ġtop":1096,"Ġtake":1097,"ved":1098,"ner":1099,"10":1100,"Ġwords":1101,"Ġmess":1102,"ric":1103,"Ġadv":1104,"tt":1105,"Ġobject":1106,"Ġcle":1107,"Ġloo":1108,"20":1109,"ically":1110,"ffic":1111,"ology":1112,"Ġpotential":1113,"Ġplan":1114,"Ġ==":1115,"Ġlar":1116,"Ġlife":1117,"uc":1118,"Ġgood":1119,"Ġtas":1120,"Ġfound":1121,"Ġposs":1122,"Ġtry":1123,"ason":1124,"Ġbefore":1125,"other":1126,"ips":1127,"ired":1128,"__":1129,"angu":1130,"Ġcase":1131,"ique":1132,"Ġduring":1133,"Ġsur":1134,"irect":1135,"Ġgreat":1136,"Ġaccess":1137,"Ġoper":1138,"Ġproble":1139,"air":1140,"par":1141,"ization":1142,"Ġhowever":1143,"Ġpract":1144,"Ġimpact":1145,"Ġ19":1146,"Ġste":1147,"Ġsmall":1148,"Ġide":1149,"ency":1150,"Ġenc":1151,"be":1152,"cur":1153,"ml":1154,"Ġvalues":1155,"gor":1156,"Ġquestion":1157,"imes":1158,"ases":1159,",\"":1160,"Ġreal":1161,"Ġrange":1162,"ron":1163,"Ġorder":1164,"Ġpat":1165,"Ġown":1166,"ergy":1167,"riend":1168,"Ġcomplex":1169,"Ġsame":1170,"date":1171,"Ġshow":1172,"Ġjo":1173,"ccess":1174,"Ġpartic":1175,"Ġpublic":1176,"Ġlangu":1177,"ator":1178,"ather":1179,"Ġline":1180,"ets":1181,"ton":1182,"Ġbra":1183,"Ġtype":1184,"rect":1185,"list":1186,"ited":1187,"ety":1188,"Ġteam":1189,"ye":1190,"Ġwrit":1191,"Ġbusiness":1192,"Ġtyp":1193,"tern":1194,"ertain":1195,"Ġment":1196,"Ġ:":1197,"ier":1198,"sh":1199,"ined":1200,"search":1201,"Ġtrue":1202,"Ġevery":1203,"ument":1204,"Ġpower":1205,"akes":1206,"ences":1207,"Ġdat":1208,"Ġenergy":1209,"Ġcost":1210,"Ġbeing":1211,"ull":1212,"cond":1213,"ield":1214,"Ġwater":1215,"Ġexamples":1216,"Ġbuild":1217,"ggest":1218,"Ġfeel":1219,"cho":1220,"Ġright":1221,"Ġprof":1222,"Ġbecause":1223,"Ġmade":1224,"Ġcompan":1225,"Ġdown":1226,"Ġtre":1227,"gin":1228,"ources":1229,"Ġcontin":1230,"aking":1231,"bo":1232,"vir":1233,"Ġeas":1234,"Ġindivid":1235,"Ġsuggest":1236,"Ġear":1237,"Ġmax":1238,"Ġmight":1239,"ives":1240,"Ġ.":1241,"Ġaw":1242,"Ġless":1243,"Ġsort":1244,"ense":1245,"Ġproject":1246,"Ġbest":1247,"play":1248,"Ġgr":1249,"Ġcharacter":1250,"Ġcent":1251,"Ġpop":1252,"Ġelse":1253,"rest":1254,"Ġtable":1255,"Ġindividual":1256,"Ġmean":1257,"ems":1258,"Ġcontent":1259,"Ġsignific":1260,"Ġchall":1261,"Ġ&":1262,"arget":1263,"Ġgroup":1264,"Ġcall":1265,"ash":1266,"viron":1267,"ining":1268,"ames":1269,"Ġelements":1270,"ables":1271,"Ġconsider":1272,"Ġensure":1273,"Ġmet":1274,"Ġterm":1275,"Ġap":1276,"ified":1277,"by":1278,"Ġmulti":1279,"Ġpri":1280,"Ġlog":1281,"Ġpost":1282,"Ġprev":1283,"ced":1284,"Ġstrate":1285,"Ġarg":1286,"Ġ12":1287,"ser":1288,"Ġwithout":1289,"po":1290,"Ġlevel":1291,"ody":1292,"Ġmust":1293,"rence":1294,"day":1295,"Ġmu":1296,"ted":1297,"Ġdel":1298,"Ġenviron":1299,"Ġdon":1300,"ocus":1301,"Ġsuccess":1302,"Ġmanage":1303,"Ġsom":1304,"Ġwithin":1305,"ists":1306,"raph":1307,"Ġblo":1308,"Ġlanguage":1309,"Ġapplic":1310,"new":1311,"Ġorgan":1312,"Ġopen":1313,"Ġcho":1314,"Ġca":1315,"ism":1316,"Ġdirect":1317,"Ġpur":1318,"tain":1319,"Ġgive":1320,"\".":1321,"Ġcomput":1322,"ince":1323,"âĢĿ":1324,"pos":1325,"Ġlength":1326,"utes":1327,"Ġcomb":1328,"comm":1329,"Ġnext":1330,"amp":1331,"Ġdiv":1332,"over":1333,"Ġsearch":1334,"Ġfam":1335,"jo":1336,"els":1337,"atures":1338,"Ġfocus":1339,"Ġproper":1340,"Ġgrow":1341,"itle":1342,"ually":1343,"oid":1344,"ĠâĢľ":1345,"Ġstruct":1346,"Ġbelie":1347,"Ġimprove":1348,"gorith":1349,"Ġerror":1350,"</":1351,"work":1352,"],":1353,"Ġdid":1354,"Ġprom":1355,"add":1356,"Ġexperience":1357,"Ġclo":1358,"tr":1359,"Ġcharacters":1360,"Ġpossible":1361,"ols":1362,"Ġbetter":1363,"Ġtri":1364,"Ġinit":1365,"Ġhuman":1366,"Ġinvol":1367,"aut":1368,"Ġalgorith":1369,"Ġchang":1370,"ource":1371,"Ġmessage":1372,"Ġgame":1373,"Ġcorrect":1374,"Ġthose":1375,"ending":1376,"Ġsecond":1377,"Ġscript":1378,"Ġunt":1379,"requ":1380,"ants":1381,"Ġthree":1382,"Ġactiv":1383,"ale":1384,"Ġtemp":1385,"ling":1386,"Ġdevelopment":1387,"Ġdeterm":1388,"set":1389,"ision":1390,"ndom":1391,"ret":1392,"ven":1393,"ital":1394,"Ġmaking":1395,"Ġagain":1396,"Ġess":1397,"uss":1398,"Ġbeh":1399,"Ġstory":1400,"('":1401,"Ġexpress":1402,"Ġaround":1403,"Ġunique":1404,"ec":1405,"Ġenvironment":1406,"yle":1407,"Ġmar":1408,"ze":1409,"Ġcult":1410,"Ġlearning":1411,"Ġwar":1412,"Ġchange":1413,"key":1414,"Ġsignificant":1415,"Ġfood":1416,"Ġplace":1417,"Ġvarious":1418,"Ġlast":1419,"--------":1420,"Ġproblem":1421,"12":1422,"Ġhist":1423,"Ġlo":1424,"Ġstore":1425,"Ġbene":1426,"Ġoften":1427,"Ġstat":1428,"value":1429,"Ġ15":1430,"inal":1431,"Ġanother":1432,"rac":1433,"itions":1434,"Ġcertain":1435,"Ġthough":1436,"lish":1437,"Ġmusic":1438,"stru":1439,"ails":1440,"ger":1441,"Ġiss":1442,"Ġstand":1443,"Ġthink":1444,"Ġuntil":1445,"Ġlight":1446,"Ġlim":1447,"ients":1448,"ote":1449,"Ġrepl":1450,"Ġdig":1451,"Ġdi":1452,"ken":1453,"ql":1454,"Ġrequire":1455,"Ġsw":1456,"ication":1457,"Ġhim":1458,"Ġvers":1459,"round":1460,"::":1461,"port":1462,"Ġtarget":1463,"Ġyears":1464,"py":1465,"Ġcommon":1466,"iction":1467,"();":1468,"ared":1469,"Ġmuch":1470,"Ġfriend":1471,"alse":1472,"Ġkeep":1473,"dition":1474,"hor":1475,"me":1476,"Ġcour":1477,"Ġselect":1478,"erc":1479,"Ġoptim":1480,"Ġsaid":1481,"Ġaddress":1482,"Ġidentify":1483,"file":1484,"nect":1485,"Ġsl":1486,"Ġgenerate":1487,"Ġadditionally":1488,"Ġcare":1489,"Ġpositive":1490,"ries":1491,"ately":1492,"ream":1493,"Ġpersonal":1494,"Ġcalled":1495,"Ġsince":1496,"ibr":1497,"arr":1498,"Ġusers":1499,"Ġwebs":1500,"back":1501,"Ġbenef":1502,"chie":1503,"eric":1504,"Ġorig":1505,"ĠĠĠĠĠĠĠĠĠĠĠĠĠĠĠĠ":1506,"Ġdra":1507,"tle":1508,"Ġmove":1509,"Ġoverall":1510,"Ġimportant":1511,"Ġtoo":1512,"Ġhour":1513,"ek":1514,"Ġnet":1515,"Ġindust":1516,"Ġnon":1517,"Ġconc":1518,"Ġlit":1519,"Ġlook":1520,"tml":1521,"Ġexplain":1522,"ern":1523,"aterial":1524,"vert":1525,"Ġ>":1526,"wr":1527,"ross":1528,"input":1529,"Ġneg":1530,"atch":1531,"//":1532,"ware":1533,"cript":1534,"Ġhy":1535,"Ġanaly":1536,"Ġyes":1537,"ides":1538,"ci":1539,"Ġĉ":1540,"not":1541,"Ġachie":1542,"Ġsit":1543,"Ġmedia":1544,"Ġhapp":1545,"url":1546,"of":1547,"Ġchild":1548,"Ġcalculate":1549,"Ġinterest":1550,"Ġmov":1551,"Ġchalleng":1552,"Ġresearch":1553,"rix":1554,"Ġeffective":1555,"Ġprovided":1556,"Ġyear":1557,"ons":1558,"count":1559,"min":1560,"ming":1561,"col":1562,"Ġtell":1563,"hip":1564,"yn":1565,"Ġcontro":1566,"time":1567,"Ġstill":1568,"Ġjav":1569,"Ġprote":1570,"und":1571,"Ġtakes":1572,"Ġhead":1573,"Ġabove":1574,"Ġocc":1575,"ills":1576,"Ġmind":1577,"ination":1578,"lu":1579,"Ġsing":1580,"Ġmaterial":1581,"Ġremain":1582,"Ġaud":1583,"ats":1584,"lab":1585,"Ġtoget":1586,"Ġtogether":1587,"Ġdri":1588,"Ġmeas":1589,"oun":1590,"Ġeffic":1591,"Ġsumm":1592,"Ġpa":1593,"Ġstudents":1594,"Ġtechnology":1595,"less":1596,"ething":1597,"Ġfew":1598,"let":1599,"Ġris":1600,"Ġâ":1601,"bu":1602,"Ġinde":1603,"iled":1604,"Ġmil":1605,"Ġinvest":1606,"Ġdev":1607,"dd":1608,"Ġcap":1609,"az":1610,"Ġcompany":1611,"Ġavail":1612,"load":1613,"'re":1614,"ways":1615,"ogn":1616,"Ġsomething":1617,"Ġ100":1618,"duct":1619,"Ġunderstanding":1620,"mb":1621,"Ġcolor":1622,"Ġoffer":1623,"li":1624,"Ġsolution":1625,"Ġest":1626,"aging":1627,"amet":1628,"clus":1629,"Ġoptions":1630,"==":1631,"Ġsize":1632,"ah":1633,"Ġonce":1634,"`.":1635,"Ġcolum":1636,"ivers":1637,"Ġbi":1638,"Ġwhy":1639,"Ġevent":1640,"aces":1641,"Ġai":1642,"kes":1643,"Ġuses":1644,"Ġconcept":1645,"Ġphys":1646,"ave":1647,"mod":1648,"Ġworks":1649,"Ġvery":1650,"$.":1651,"Ġsoft":1652,"Ġsay":1653,"Ġarea":1654,"Ġbas":1655,"Ġimage":1656,"Ġgl":1657,"Ġspace":1658,"Ġside":1659,"Ġclear":1660,"Ġbook":1661,"Ġplat":1662,"Ġfur":1663,"Ġhome":1664,"Ġlarge":1665,"idence":1666,"Ġreturns":1667,"ording":1668,"...":1669,"Ġrow":1670,"Ġinitial":1671,"ank":1672,"Ġlove":1673,"ior":1674,"cont":1675,"lev":1676,"Ġfeatures":1677,"Ġleft":1678,"ule":1679,"Ġrandom":1680,"Ġlearn":1681,"Ġsteps":1682,"Ġsound":1683,"Ġstor":1684,"Ġmarketing":1685,"Ġair":1686,"Ġfield":1687,"Ġsever":1688,"Ġsqu":1689,"Ġ30":1690,"rences":1691,"\\*":1692,"Ġcontext":1693,"Ġreason":1694,"Ġappe":1695,"por":1696,"Ġbro":1697,"Ġresults":1698,"50":1699,"ead":1700,"://":1701,"Ġminutes":1702,"Ġ%":1703,"Ġemplo":1704,"Ġknown":1705,"ma":1706,"ysis":1707,"Ġpresent":1708,"Ġresponse":1709,"Ġwebsite":1710,"Ġdisplay":1711,"Ġfinally":1712,"Ġrest":1713,"Ġvalid":1714,"Ġfalse":1715,"Ġhandle":1716,"Ġprob":1717,"Ġsystems":1718,"Ġjson":1719,"Ġtypes":1720,"wh":1721,"ouse":1722,"Ġformat":1723,"Ġamount":1724,"imum":1725,"verage":1726,"Ġrequest":1727,"Ġmanagement":1728,"Ġalgorithm":1729,"ights":1730,".\\":1731,"Ġiter":1732,"Ġmultiple":1733,"Ġrepresent":1734,"Ġpres":1735,"cing":1736,"Ġdescrib":1737,"ilities":1738,"Ġservices":1739,"ush":1740,"Ġcreating":1741,"Ġseveral":1742,"Ġaccount":1743,"Ġreport":1744,"Ġinstead":1745,"iment":1746,"Ġfut":1747,"Ġdiff":1748,"Ġresources":1749,"Ġdiscuss":1750,"Ġemot":1751,"Ġrelations":1752,"ption":1753,"Ġupd":1754,"izing":1755,"Ġbreak":1756,"Ġnode":1757,"ilar":1758,"index":1759,"Ġcommand":1760,"Ġmeans":1761,"Ġthings":1762,"Ġexpect":1763,"Ġplatform":1764,"net":1765,"che":1766,"':":1767,"Ġlab":1768,"Ġways":1769,"Ġneeds":1770,"Ġcontrol":1771,"cent":1772,"Ġdoc":1773,"Ġcity":1774,"Ġaccording":1775,"Ġincor":1776,"Ġadditional":1777,"`,":1778,"Ġflo":1779,"abase":1780,"Ġrecomm":1781,"Ġvide":1782,"Ġes":1783,"head":1784,"Ġboo":1785,"br":1786,"Ġanalysis":1787,"ding":1788,"Ġspecial":1789,"man":1790,"ope":1791,"Ġlocal":1792,"Ġlibr":1793,"resh":1794,"Ġfurther":1795,"Ġrecommend":1796,"lection":1797,"path":1798,"Ġwind":1799,"Ġcrit":1800,"Ġapproach":1801,"atural":1802,"Ġelect":1803,"Ġalways":1804,"type":1805,"Ġstudy":1806,"Ġview":1807,"Ġ18":1808,"cle":1809,"pre":1810,"Ġinflu":1811,"Ġstrateg":1812,"19":1813,"Ġquestions":1814,"utions":1815,"Ġable":1816,"htt":1817,"Ġface":1818,"Ġred":1819,"Ġsec":1820,"Ġfore":1821,"Ġconnect":1822,"Ġshort":1823,"print":1824,"Ġcommunity":1825,"pped":1826,"Ġrole":1827,"Ġothers":1828,"Ġeduc":1829,"Ġfac":1830,"Ġnegative":1831,"ailed":1832,"Ġbal":1833,"rame":1834,"bal":1835,"imal":1836,"Ġpred":1837,"Ġleg":1838,"gle":1839,"ape":1840,"Ġindex":1841,"Ġhig":1842,"Ġ16":1843,"Ġemail":1844,"Ġerr":1845,"avor":1846,"Ġavailable":1847,"Ġnote":1848,"Ġperformance":1849,"Ġfuture":1850,"Ġcompon":1851,"conom":1852,"oney":1853,"ograph":1854,"Ġvariable":1855,"Ġjob":1856,"Ġsimple":1857,"Ġaction":1858,"Ġpoints":1859,"Ġprime":1860,"Ġfree":1861,"istic":1862,"respon":1863,"Ġcustomer":1864,"med":1865,"Ġsense":1866,"\">":1867,"cal":1868,"curity":1869,"Ġproducts":1870,"Ġdate":1871,"Ġ</":1872,"ches":1873,"Ġexperi":1874,"Ġunivers":1875,"Ġhard":1876,"Ġtimes":1877,"Ġpath":1878,"25":1879,"temp":1880,"Ġtrack":1881,"Ġindividuals":1882,"Ġapplication":1883,"Ġreduce":1884,"ration":1885,"Ġmaintain":1886,"uation":1887,"Ġturn":1888,"Ġprofess":1889,"na":1890,"Ġ=>":1891,"Ġpay":1892,"ĠĠĠĠĊ":1893,"])":1894,"my":1895,"ulation":1896,"Ġstructure":1897,"Ġdr":1898,"Ġsimilar":1899,"Ġsam":1900,"Ġexist":1901,"urs":1902,"icle":1903,"Ġnecess":1904,"Ġold":1905,"->":1906,"ledge":1907,"Ġpack":1908,"Ġtask":1909,"Ġcontrib":1910,"hel":1911,"cial":1912,"imate":1913,"##":1914,"pper":1915,"Ġmach":1916,"Ġchanges":1917,"Ġservice":1918,"11":1919,"Ġskills":1920,"acc":1921,"rodu":1922,"ift":1923,"Ġstatement":1924,"Ġtal":1925,"Ġscho":1926,"co":1927,"Ġprovides":1928,"Ġparamet":1929,"land":1930,"Ġarr":1931,"oura":1932,"()`":1933,"Ġparticular":1934,"ention":1935,"oose":1936,"ral":1937,"Ġdescript":1938,"face":1939,"view":1940,"Ġindustry":1941,"Ġstates":1942,"**":1943,"ances":1944,"Ġfr":1945,"Ġeconom":1946,"Ġreview":1947,"Ġdetails":1948,"sv":1949,"Ġquality":1950,"idd":1951,"Ġing":1952,"array":1953,"action":1954,"log":1955,"Ġtransl":1956,"Ġauthor":1957,"Ġweek":1958,"Ġquant":1959,"Ġoriginal":1960,"nection":1961,"Ġut":1962,"Ġland":1963,"Ġpain":1964,"ident":1965,"Ġpie":1966,"Ġchallenges":1967,"15":1968,"Ġonline":1969,"Ġpast":1970,"aster":1971,"Ġleast":1972,"Ġcook":1973,"aring":1974,"Ġversion":1975,"Ġmag":1976,"Ġsat":1977,"Ġameric":1978,"Ġstyle":1979,"Ġrece":1980,"Ġnor":1981,"Ġask":1982,"Ġallows":1983,"ond":1984,"Ġdays":1985,"Ġinstru":1986,"ese":1987,"Ġcome":1988,"user":1989,"ibility":1990,"Ġlow":1991,"iques":1992,"Ġcamp":1993,"Ġmix":1994,"rie":1995,"Ġlay":1996,"ium":1997,"Ġdatabase":1998,"ird":1999,"Ġincrease":2000,"Ġ!":2001,"test":2002,"Ġnatural":2003,"Ġmonth":2004,"Ġstrong":2005,"ything":2006,"icate":2007,"Ġver":2008,"Ġloop":2009,"Ġfar":2010,"Ġbehav":2011,"Ġbegin":2012,"Ġexec":2013,"ww":2014,"Ġhours":2015,"')":2016,"Ġtips":2017,"Ġreally":2018,"ivity":2019,"sp":2020,"ault":2021,"here":2022,"Ġbenefits":2023,"Ġtitle":2024,"Ġwin":2025,"Ġ<<":2026,"Ġbody":2027,"ustain":2028,"wards":2029,"Ġ200":2030,"Ġtraining":2031,"Ġdetermine":2032,"olution":2033,"Ġput":2034,"}{":2035,":\\":2036,"pri":2037,"Ġchoose":2038,"ification":2039,"Ġrespons":2040,"Ġsuccessful":2041,"Ġpage":2042,"Ġmot":2043,"Ġsn":2044,"ters":2045,"ann":2046,"Ġsupp":2047,"Ġachieve":2048,"ug":2049,"Ġtechniques":2050,"Ġwal":2051,"Ġpopular":2052,"Ġdem":2053,"Ġcontinue":2054,"Ġwriting":2055,"iting":2056,"Ġ11":2057,"di":2058,"Ġport":2059,"Ġtools":2060,"ane":2061,"Ġincorpor":2062,"sy":2063,"Ġmethods":2064,"Ġinteger":2065,"Ġhistory":2066,"Ġsingle":2067,"Ġjour":2068,"Ġquery":2069,"erg":2070,"Ġcourse":2071,"pping":2072,"Ġsustain":2073,"Ġworking":2074,"Ġbar":2075,"ards":2076,"based":2077,"Ġtherefore":2078,"do":2079,"oot":2080,"Ġgover":2081,"Ġimplementation":2082,"Ġsubject":2083,"Ġfamily":2084,"itor":2085,"oci":2086,"Ġtradition":2087,"Ġadj":2088,"ception":2089,"Ġsoftware":2090,"Ġshare":2091,"ference":2092,"lex":2093,"Ġregular":2094,"Ġidea":2095,"Ġpriv":2096,"Ġstrategies":2097,"Ġreplace":2098,"icult":2099,"Ġlen":2100,"Ġmeaning":2101,"\";":2102,"Ġconsum":2103,"Ġingred":2104,"aries":2105,"Ġprice":2106,"Ġlower":2107,"Ġenjo":2108,"Ġsolve":2109,"Ġfour":2110,"Ġhar":2111,"Ġ50":2112,"Ġvisual":2113,"Ġknowledge":2114,"Ġvol":2115,"\\*\\*":2116,"['":2117,"Ġnever":2118,"quence":2119,"Ġ},":2120,"Ġfactors":2121,"Ġmo":2122,"Ġsuper":2123,"Ġintrodu":2124,"mpt":2125,"anced":2126,"Ġincludes":2127,"ished":2128,"Ġrequired":2129,"inary":2130,"Ġmiss":2131,"ots":2132,"Ġcustomers":2133,"Ġbecome":2134,"go":2135,"words":2136,"Ġge":2137,"Ġmatch":2138,"Ġevents":2139,"Ġposition":2140,"ctor":2141,"idth":2142,"Ġsecurity":2143,"Ġlik":2144,"rop":2145,"json":2146,"Ġ--":2147,"Ġeasy":2148,"Ġdue":2149,"uments":2150,"ember":2151,"Ġupdate":2152,"Ġ14":2153,"fer":2154,"div":2155,"Ġ$\\":2156,"pportun":2157,"ered":2158,"Ġbrand":2159,"gen":2160,"oss":2161,"Ġgrowth":2162,"30":2163,"Ġdocument":2164,"Ġblack":2165,"Ġcir":2166,"ney":2167,"Ġefficient":2168,"Ġgovern":2169,"ascript":2170,"Ġdou":2171,"asing":2172,"16":2173,"sub":2174,"arent":2175,"Ġgreen":2176,"ipe":2177,"Ġdefine":2178,"Ġopportun":2179,"Ġassoci":2180,"fil":2181,"Ġterms":2182,"Ġpolic":2183,"Ġenjoy":2184,"Ġnecessary":2185,"Ġsomeone":2186,"Ġcomplexity":2187,"frac":2188,"ering":2189,".,":2190,"Ġencoura":2191,"Ġequation":2192,"Ġaverage":2193,"Ġaudience":2194,"\"]":2195,"Ġglo":2196,"Ġdeep":2197,"Ġcy":2198,"Ġmom":2199,"Ġfunctions":2200,"fs":2201,"izes":2202,"'m":2203,"Ġveget":2204,"Ġdifficult":2205,"clude":2206,"Ġacross":2207,"ula":2208,"Ġoption":2209,"Ġblock":2210,"ng":2211,"Ġapi":2212,"Ġstrings":2213,"Ġagainst":2214,"Ġsou":2215,"Ġfrequ":2216,"Ġmental":2217,"Ġvir":2218,"ready":2219,"Ġprevious":2220,"Ġsto":2221,"Ġcreated":2222,"Ġfund":2223,"this":2224,"Ġwhether":2225,"Ġideas":2226,"come":2227,"Ġcell":2228,"']":2229,"erature":2230,"Ġnut":2231,"Ġnav":2232,"orn":2233,"length":2234,"Ġremove":2235,"Ġlink":2236,"Ġsepar":2237,"Ġ**":2238,"Ġ25":2239,"struct":2240,"Ġemploye":2241,"ĠâĢĵ":2242,"sum":2243,"Ġeval":2244,"ditions":2245,"Ġavoid":2246,"Ġheart":2247,"Ġschool":2248,"result":2249,"Ġdiction":2250,"Ġfinal":2251,"Ġautom":2252,"Ġissues":2253,"Ġbase":2254,"Ġce":2255,"ived":2256,"Ġaffect":2257,"'ve":2258,"hens":2259,"Ġenglish":2260,"Ġquick":2261,"Ġ+=":2262,"iety":2263,"ires":2264,"Ġmakes":2265,"Ġscience":2266,"Ġmeet":2267,"++":2268,"point":2269,"\");":2270,"su":2271,"ges":2272,"Ġbuilding":2273,"Ġessential":2274,"Ġcup":2275,"book":2276,"Ġabs":2277,"apt":2278,"Ġjava":2279,"ends":2280,"Ġtim":2281,"Ġclean":2282,"Ġlaw":2283,"Ġflow":2284,"Ġneeded":2285,"Ġoil":2286,"Ġcolumn":2287,"Ġtravel":2288,"Ġwon":2289,"iod":2290,"Ġconvert":2291,"Ġequal":2292,"Ġvideo":2293,"Ġcaus":2294,"Ġbrow":2295,"Ġsun":2296,"Ġinstall":2297,"ina":2298,"Ġmention":2299,"'ll":2300,"Ġsource":2301,"Ġproviding":2302,"fun":2303,"Ġfull":2304,"Ġalong":2305,"Ġmoney":2306,"amed":2307,"Ġconclus":2308,"Ġgoing":2309,"number":2310,"Ġoccur":2311,"uce":2312,"oud":2313,"Ġbig":2314,"but":2315,"Ġhelps":2316,"Ġalready":2317,"Ġfactor":2318,"Ġphot":2319,"hn":2320,"Ġnetwork":2321,"aling":2322,"Ġ13":2323,"Ġcontains":2324,"atic":2325,"Ġcommunication":2326,"ott":2327,"verse":2328,"Ġgraph":2329,"ume":2330,"Ġmachine":2331,"ground":2332,"aw":2333,"Ġengage":2334,"ids":2335,"23":2336,"Ġbeaut":2337,"Ġprim":2338,"Ġfeed":2339,"order":2340,"uck":2341,"Ġpress":2342,"Ġingredients":2343,"Ġtransform":2344,"fact":2345,"Ġrelev":2346,"Ġengine":2347,"Ġcertainly":2348,"sole":2349,"light":2350,"no":2351,"Ġconvers":2352,"Ġroom":2353,"Ġq":2354,"Ġcompre":2355,"comes":2356,"Ġenh":2357,"Ġcompet":2358,"Ġactivities":2359,"side":2360,"ffe":2361,"Ġtraditional":2362,"size":2363,"Ġrecord":2364,"ask":2365,"Ġsche":2366,"Ġexerc":2367,"Ġrisk":2368,"arg":2369,"Ġserver":2370,"Ġperiod":2371,"ently":2372,"ĠĠĠĠĠĠĠĠĠĠĠĠĠĠĠĠĠĠĠ":2373,"Ġtasks":2374,"Ġseries":2375,"ither":2376,"Ġvar":2377,"Ġhol":2378,"pass":2379,"vent":2380,"Ġitems":2381,"pose":2382,"Ġtree":2383,"Ġstd":2384,"Ġsens":2385,"Ġsquare":2386,"tra":2387,"Ġphysical":2388,"Ġbehavior":2389,"Ġpair":2390,"ises":2391,"Ġload":2392,"Ġwom":2393,"Ġscient":2394,"zz":2395,"pective":2396,"aign":2397,"Ġ@":2398,"mit":2399,"Ġarticle":2400,"Ġdom":2401,"Ġhope":2402,"Ġmatrix":2403,"Ġdetailed":2404,"uro":2405,"Ġrelated":2406,"ising":2407,"Ġmor":2408,"Ġ[]":2409,"Ġbox":2410,"Ġpractices":2411,"weet":2412,"Ġdecision":2413,"ules":2414,"angle":2415,"Ġmemory":2416,"ised":2417,"Ġmeasure":2418,"Ġhouse":2419,"lying":2420,"Ġitem":2421,"ilt":2422,"ners":2423,"Ġurl":2424,"ological":2425,"Ġlibrary":2426,"Ġet":2427,"Ġchildren":2428,"Ġcomprehens":2429,"Ġrecogn":2430,"Ġpaper":2431,"Ġhot":2432,"box":2433,"Ġlittle":2434,"Ġage":2435,"Ġadjust":2436,"cre":2437,"Ġletter":2438,"Ġdigital":2439,"Ġmill":2440,"Ġnone":2441,"Ġmaterials":2442,"Ġprogress":2443,"cd":2444,"xa":2445,"Ġgoals":2446,"Ġ24":2447,"Ġlimit":2448,"Ġadded":2449,"Ġareas":2450,"Ġamong":2451,"Ġcut":2452,"Ġbutton":2453,"Ġconnection":2454,"Ġdistrib":2455,"Ġevidence":2456,"Ġconfig":2457,"Ġlikely":2458,"Ġconditions":2459,"14":2460,"iving":2461,"ude":2462,"Ġemb":2463,"Ġsorted":2464,"hips":2465,"Ġhal":2466,"Ġcapt":2467,"Ġimportance":2468,"Ġextract":2469,"plit":2470,"ler":2471,"Ġprobability":2472,"Ġseason":2473,"Ġcampaign":2474,"ik":2475,"Ġconclusion":2476,"Ġrate":2477,"Ġappropri":2478,"Ġexpression":2479,"Ã©":2480,"Ġroot":2481,"Ġperfect":2482,"ties":2483,"Ġfeature":2484,"Ġfriends":2485,"Ġlocation":2486,"Ġsong":2487,"Ġhtml":2488,"Ġconsole":2489,"Ġintegers":2490,"Ġrecipe":2491,"Ġthought":2492,"Ġsmo":2493,"bs":2494,"].":2495,"code":2496,"Ġpractice":2497,"ators":2498,"Ġfiles":2499,"Ġmaximum":2500,"Ġhtt":2501,"Ġgreater":2502,"title":2503,"ories":2504,"ugh":2505,"Ġkind":2506,"Ġspeed":2507,"?\"":2508,"Ġformula":2509,"Ġprin":2510,"Ġstay":2511,"Ġant":2512,"Ġmaj":2513,"ls":2514,"Ġparticip":2515,"opt":2516,"Ġdictionary":2517,"html":2518,"Ġtoday":2519,"Ġempty":2520,"Ġsales":2521,"Ġupdated":2522,"Ġrelevant":2523,"Ġhaving":2524,"Ġaway":2525,"Ġaltern":2526,"Ġplayer":2527,"22":2528,"Ġwindow":2529,"Ġability":2530,"Ġthin":2531,"af":2532,"Ġround":2533,"Ġmodify":2534,"Ġinstructions":2535,"Ġimag":2536,"Ġcra":2537,"Ġmic":2538,"Ġphr":2539,"Ġenough":2540,"query":2541,"Ġstrategy":2542,"Ġinn":2543,"orts":2544,"Ġsources":2545,"ender":2546,"char":2547,"top":2548,"item":2549,"Ġadding":2550,"has":2551,"Ġcases":2552,"âĢĶ":2553,"Ġfit":2554,"Ġchick":2555,"Ġremember":2556,"ounter":2557,"Ġprevent":2558,"met":2559,"Ġhigher":2560,"Ġsav":2561,"unch":2562,"Ġpredict":2563,"Ġnature":2564,"Ġscen":2565,"Ġtool":2566,"Ġdraw":2567,"},":2568,"Ġwhite":2569,"cket":2570,"Ġlooking":2571,"ields":2572,"Ġdescription":2573,"Ġinstance":2574,"Ġrunning":2575,"Ġpromot":2576,"Ġtaking":2577,"100":2578,"18":2579,"Ġill":2580,"Ġfresh":2581,"Ġgeneral":2582,"Ġbusinesses":2583,"reen":2584,"Ġeducation":2585,"uted":2586,"Ġproduction":2587,"oogle":2588,"ury":2589,"ored":2590,"append":2591,"Ġclient":2592,"Ġcomplete":2593,"Ġeff":2594,"cture":2595,"Ġpolit":2596,"des":2597,"Ġrather":2598,"ones":2599,"Ġnames":2600,"inst":2601,"Ġexperiences":2602,"rypt":2603,"Ġanalyze":2604,"ugg":2605,"Ġinteract":2606,"Ġsimpl":2607,"rap":2608,"Ġ17":2609,"Ġdesigned":2610,"Ġprograms":2611,"ferences":2612,"Ġcountry":2613,"Ġprivate":2614,"Ġlat":2615,"Ġsave":2616,"Ġcate":2617,"elt":2618,"Ġmembers":2619,"labor":2620,"init":2621,"($":2622,"Ġtrying":2623,"Ġeffects":2624,"right":2625,"Ġdistance":2626,"Ġconsist":2627,"Ġrequirements":2628,"Ġgar":2629,"Ġanim":2630,"Ġintern":2631,"Ġassign":2632,"ym":2633,"change":2634,"Ġsymb":2635,"Ġbit":2636,"Ġreach":2637,"Ġmajor":2638,"Ġegg":2639,"ament":2640,"Ġarch":2641,"element":2642,"Ġunited":2643,"isf":2644,"bl":2645,"Ġri":2646,"Ġnull":2647,"Ġappropriate":2648,"Ġdog":2649,"Ġdu":2650,"Ġfinanc":2651,"Ġprior":2652,"Ġaspect":2653,"Ġoffers":2654,"Ġcollabor":2655,"rel":2656,"Ġnavig":2657,"your":2658,"Ġsolutions":2659,"product":2660,"Ġmen":2661,"sel":2662,"Ġenter":2663,"node":2664,"21":2665,"miss":2666,"ression":2667,"aim":2668,"Ġnamed":2669,"Ġprogramming":2670,"Ġlevels":2671,"Ġaccept":2672,"case":2673,"Ġbat":2674,"Ġcannot":2675,"Ġbelow":2676,"Ġguide":2677,"Ġexpected":2678,"Ġground":2679,"Ġ:=":2680,"Ġdoesn":2681,"Ġamerican":2682,"Ġdone":2683,"uration":2684,"imately":2685,"Ġheat":2686,"^^":2687,"max":2688,"https":2689,"fort":2690,"erse":2691,"Ġ!=":2692,"Ġcoo":2693,"Ġlot":2694,"rate":2695,"Ġsequence":2696,"Ġhor":2697,"Ġcop":2698,"Ġfru":2699,"ĠĠĠĠĠĠĠĠĠ":2700,"Ġleading":2701,"way":2702,"Ġadapt":2703,"Ġnight":2704,"ying":2705,"Ġ...":2706,"step":2707,"Ġtransport":2708,"Ġeither":2709,"Ġexplan":2710,"Ġissue":2711,"cer":2712,"Ġimages":2713,"Ġsql":2714,"care":2715,"map":2716,"Ġusage":2717,"ait":2718,"board":2719,"Ġestab":2720,"yes":2721,"Ġthroughout":2722,"Ġwritten":2723,"Ġdyn":2724,"start":2725,"Ġsustainable":2726,"Ġframe":2727,"Ġhold":2728,"Ġweight":2729,"Ġcontinu":2730,"Ġcomprehensive":2731,"hen":2732,"ront":2733,"Ġchoice":2734,"room":2735,"Ġdesired":2736,"off":2737,"$,":2738,"Ġcomputer":2739,"Ġgroups":2740,"13":2741,"ched":2742,"Ġfive":2743,"body":2744,"Ġquantum":2745,"ging":2746,"Ġsauce":2747,"Ġgovernment":2748,"ln":2749,"Ġvo":2750,"Ġblue":2751,"matrix":2752,"Ġinvolves":2753,"mal":2754,"60":2755,"Ġprofessional":2756,"rt":2757,"Ġsides":2758,"Ġevalu":2759,"valid":2760,"ites":2761,"Ġsalt":2762,"chan":2763,"inter":2764,"ump":2765,"Ġpan":2766,"Ġdifference":2767,"Ġmi":2768,"Ġcorrespon":2769,"pot":2770,"reng":2771,"Ġreflect":2772,"Ġdescribe":2773,"selves":2774,"Ġutil":2775,"Ġdouble":2776,"aves":2777,"Ġstudent":2778,"Ġvisit":2779,"Ġcenter":2780,"Ġexce":2781,"Ġcultural":2782,"Ġvirt":2783,"Ġearly":2784,"Ġfilm":2785,"Ġexplore":2786,"down":2787,"hers":2788,"Ġmodern":2789,"ension":2790,"Ġfinancial":2791,"Ġlive":2792,"Ġbuilt":2793,"[\"":2794,"Ġcam":2795,"itude":2796,"ring":2797,"Ġdark":2798,"Ġmodule":2799,"Ġ40":2800,"Ġbring":2801,"ison":2802,"Ġclick":2803,"Ġfall":2804,"Ġgoal":2805,"Ġcat":2806,"Ġinside":2807,"Ġtowards":2808,"Ġ\"\"":2809,"Ġcolle":2810,"oring":2811,"Ġvoid":2812,"Ġclos":2813,"Ġmodels":2814,"200":2815,"izations":2816,"Ġbooks":2817,"ster":2818,"Ġstandard":2819,"Ġglobal":2820,"ero":2821,"Ġcred":2822,"js":2823,"Ġstreng":2824,"Ġprotect":2825,"image":2826,"osp":2827,"Ġhost":2828,"sort":2829,"Ġheight":2830,"Ġsubst":2831,"Ġgot":2832,"Ġstra":2833,"Ġfeedback":2834,"cy":2835,"Ġtreat":2836,"friend":2837,"Ġsetting":2838,"Ġpattern":2839,"class":2840,"Ġsummary":2841,"itch":2842,"math":2843,"istics":2844,"Ġvariety":2845,"inf":2846,"loc":2847,"place":2848,"jav":2849,"Ġpow":2850,"leep":2851,"Ġcosts":2852,"ili":2853,"Ġdemon":2854,"serv":2855,"oes":2856,"rast":2857,"Ġ###":2858,"elling":2859,"Ġyourself":2860,"ended":2861,"17":2862,"Ġcollect":2863,"Ġdoing":2864,"Ġindic":2865,"Ġfill":2866,"Ġexcept":2867,"Ġattrib":2868,"ĠĠĊ":2869,"Ġlin":2870,"Ġthird":2871,"Ġimm":2872,"Ġapplications":2873,"Ġĉĉ":2874,"Ġbud":2875,"Ġnear":2876,"Ġcru":2877,"Ġwhole":2878,"Ġparent":2879,"Ġfig":2880,"Ġemphas":2881,"Ġargument":2882,"hing":2883,"sql":2884,"Ġprompt":2885,"iddle":2886,"Ġassociated":2887,"Ġinnov":2888,"Ġproblems":2889,"Ġcheese":2890,"reg":2891,"Ġbelieve":2892,"Ġsatisf":2893,"Ġprep":2894,"gest":2895,"Ġgoogle":2896,"Ġoperations":2897,"Ġthing":2898,"Ġguid":2899,"Ġdest":2900,"sequ":2901,"Ġpercent":2902,"Ġaccur":2903,"32":2904,"spe":2905,"itation":2906,"Ġdeg":2907,"ager":2908,"aps":2909,"Ġtour":2910,"Ġann":2911,"acy":2912,"Ġpurch":2913,"Ġmechan":2914,"Ġdynam":2915,"bon":2916,"Ġju":2917,"idered":2918,"Ġplant":2919,"!\"":2920,"Ġbasic":2921,"enced":2922,"Ġbalance":2923,"mt":2924,"Ġ?":2925,"Ġstudies":2926,"Ġseem":2927,"Ġgames":2928,"Ġmath":2929,"ography":2930,"lear":2931,"pan":2932,"Ġchecks":2933,"dis":2934,"Ġconsidered":2935,"true":2936,"Ġstress":2937,"ival":2938,"Ġseg":2939,"include":2940,"Ġrob":2941,"40":2942,"Ġbackground":2943,"ged":2944,"values":2945,"Ġentire":2946,"Ġ\\*":2947,"Ġmentioned":2948,"vey":2949,"odes":2950,"ologies":2951,"gar":2952,"Ġ->":2953,"Ġupon":2954,"Ġeconomic":2955,"ellig":2956,"aken":2957,"gn":2958,"Ġcondition":2959,"Ġsection":2960,"Ġtag":2961,"Ġlines":2962,"actions":2963,"rem":2964,"Ġgold":2965,"eds":2966,"hello":2967,"Ġhalf":2968,"Ġtheory":2969,"use":2970,"Ġstarting":2971,"Ġcompanies":2972,"Ġeffectively":2973,"Ġball":2974,"Ġassist":2975,"80":2976,"mess":2977,"Ġcoffe":2978,"Ġfire":2979,"wise":2980,"Ġserve":2981,"Ġseen":2982,"Ġchicken":2983,"enge":2984,"def":2985,"Ġessay":2986,"Ġrom":2987,"Ġemotional":2988,"Ġcause":2989,"Ġexact":2990,"Ġdefault":2991,"Ġculture":2992,"coming":2993,"Ġsaf":2994,"Ġcomponent":2995,"Ġseems":2996,"aches":2997,"Ġcoffee":2998,"iver":2999,"Ġfields":3000,"ulate":3001,"Ġincreased":3002,"icial":3003,"ams":3004,"Ġhistor":3005,"Ġrock":3006,"Ġhom":3007,"Ġsil":3008,"Ġcountries":3009,"Ġyoung":3010,"[]":3011,"ana":3012,"Ġreducing":3013,"part":3014,"ux":3015,"dom":3016,"Ġmoment":3017,"ball":3018,"Ġgain":3019,"Ġbow":3020,"Ġspecif":3021,"Ġclose":3022,"ned":3023,"99":3024,"ply":3025,"ork":3026,"ably":3027,"next":3028,"Ġearth":3029,"Ġparameters":3030,"Ġer":3031,"Ġstack":3032,"Ġspir":3033,"Ġinsp":3034,"Ġled":3035,"Ġcomponents":3036,"ont":3037,"Ġpoem":3038,"Ġstop":3039,"Ġengaging":3040,"len":3041,"Ġur":3042,"Ġcomes":3043,"mar":3044,"64":3045,"Ġactions":3046,"Ġtesting":3047,"Ġrelationship":3048,"Ġvariables":3049,"uth":3050,"Ġgetting":3051,"Ġpassword":3052,"conf":3053,"Ġdemonstr":3054,"Ġspecified":3055,"hesis":3056,"Ġtemperature":3057,"isions":3058,"select":3059,"Ġhappen":3060,"Ġcontact":3061,"Ġmicro":3062,"Ġmid":3063,"Ġsty":3064,"Ġscore":3065,"====":3066,"Ġparts":3067,"Ġremov":3068,"Ġactivity":3069,"Ġjavascript":3070,"Ġbehind":3071,"Ġfoot":3072,"cast":3073,"db":3074,"ipp":3075,"ley":3076,"Ġclimate":3077,"Ġparticularly":3078,"dat":3079,"Ġexperiment":3080,"Ġhypot":3081,"Ġremaining":3082,"Ġrelationships":3083,"Ġfix":3084,"Ġaccom":3085,"Ġtrain":3086,"Ġmob":3087,"Ġcard":3088,"----------------":3089,"Ġult":3090,"ok":3091,"Ġplayers":3092,"Ġobjects":3093,"Ġsample":3094,"Ġpu":3095,"Ġproperty":3096,"Ġdemand":3097,"Ġhealthy":3098,"iet":3099,"Ġden":3100,"ister":3101,"Ġque":3102,"Ġscenari":3103,"erv":3104,"aset":3105,"abilities":3106,"Ġdivid":3107,"aily":3108,"];":3109,"lete":3110,"aced":3111,"field":3112,"iency":3113,"resents":3114,"Ġeveryone":3115,"Ġrepe":3116,"emic":3117,"Ġactually":3118,"Ġstatic":3119,"run":3120,"Ġrenew":3121,"content":3122,"Ġ[\"":3123,"Ġrepresents":3124,"Ġpiece":3125,"Ġexplanation":3126,"Ġeuro":3127,"terns":3128,"Ġnational":3129,"Ġapply":3130,"Ġextra":3131,")\\":3132,"Ġdream":3133,"gra":3134,"Ġmis":3135,"racy":3136,"color":3137,"with":3138,"Ġfavor":3139,"encies":3140,"Ġattention":3141,"que":3142,"Ġrecurs":3143,"enue":3144,"dict":3145,"Ġfra":3146,"Ġsounds":3147,"Ġful":3148,"Ġthank":3149,"Ġpowerful":3150,"Ġsituation":3151,"Ġpromote":3152,"Ġstorage":3153,"qrt":3154,"Ġcogn":3155,"Ġyet":3156,"api":3157,"Ġcommit":3158,"Ġjourney":3159,"Ġpepper":3160,"Ġrout":3161,"Ġprem":3162,"Ġ<=":3163,"Ġ60":3164,"une":3165,"Ġagree":3166,"Ġep":3167,"Ġheav":3168,"term":3169,"Ġmovie":3170,"etime":3171,"Ġchr":3172,"ession":3173,"flow":3174,"Ġrequires":3175,"ĠâĢ¢":3176,"Ġconstant":3177,"Ġbir":3178,"Ġmap":3179,"format":3180,"Ġstarted":3181,"Ġfast":3182,"stat":3183,"model":3184,"Ġproperties":3185,"eness":3186,"Ġopportunities":3187,"grou":3188,"Ġflavor":3189,"Ġslow":3190,"Ġliving":3191,"struction":3192,"Ġprec":3193,"Ġregard":3194,"Ġpurpose":3195,"Ġenvironmental":3196,"ĠÃ":3197,"Ġerrors":3198,"Ġenhance":3199,"Ġvirtual":3200,"45":3201,"Ġbrain":3202,"Ġdirectly":3203,"bit":3204,"mer":3205,"tings":3206,"aged":3207,"Ġ---":3208,"Ġintellig":3209,"Ġlisten":3210,"Ġprocesses":3211,"Ġrich":3212,"email":3213,"Ġsimply":3214,"Ġpsy":3215,"itable":3216,"Ġang":3217,"Ġplatforms":3218,"Ġsecure":3219,"Ġprinci":3220,"Ġdaily":3221,"Ġsets":3222,"Ġmonitor":3223,"Ġrules":3224,"ups":3225,"Ġtables":3226,"Ġfre":3227,"println":3228,"sl":3229,"Ġtoken":3230,"Ġemployees":3231,"Ġfib":3232,"Ġpropos":3233,"Ġretrie":3234,"Ġproduce":3235,"Ġtopic":3236,"Ġbinary":3237,"Ġinvolved":3238,"Ġencourage":3239,"Ġstatus":3240,"Ġlives":3241,"pecial":3242,"Ġpatterns":3243,"Ġtypically":3244,"Ġfeet":3245,"token":3246,"Ġfilter":3247,"most":3248,"px":3249,"Ġcover":3250,"Ġlater":3251,"Ġradi":3252,"know":3253,"astic":3254,"Ġthemselves":3255,"Ġitself":3256,"Ġfloat":3257,"Ġalternative":3258,"Ġcand":3259,"lock":3260,"Ġnews":3261,"Ġprimary":3262,"Ġones":3263,"Ġcolors":3264,"equ":3265,"Ġclaim":3266,"Ġaim":3267,"Ġdise":3268,"Ġaware":3269,"Ġfollows":3270,"Ġdam":3271,"Ġspeak":3272,"Ġdiscover":3273,"numbers":3274,"Ġchoices":3275,"Ġ_":3276,"pecially":3277,"Ġamaz":3278,"label":3279,"uff":3280,"Ġnumer":3281,"Ġcreative":3282,"button":3283,"bre":3284,"Ġsite":3285,"Ġexisting":3286,"Ġparameter":3287,"write":3288,"hy":3289,"illed":3290,"trans":3291,"hemat":3292,"Ġtrust":3293,"Ġconstruct":3294,"Ġje":3295,"Ġsociety":3296,"Ġincreasing":3297,"win":3298,"Ġjohn":3299,"Ġarchite":3300,"gs":3301,"Ġbill":3302,"arc":3303,"Ġwaste":3304,"current":3305,"Ġarguments":3306,"host":3307,"iful":3308,"Ġchallenge":3309,"][":3310,"Ġconver":3311,"())":3312,"Ġcirc":3313,"ai":3314,"lished":3315,"tag":3316,"etch":3317,"ensive":3318,"Ġsleep":3319,"Ġemerg":3320,"Ġeverything":3321,"rics":3322,"Ġconduct":3323,"Ġexc":3324,"Ġcompare":3325,"Ġletters":3326,"what":3327,"Ġ__":3328,"Ġloss":3329,"Ġanything":3330,"Ġfrequency":3331,"atives":3332,"Ġbur":3333,"apan":3334,"erman":3335,"Ġstrength":3336,"find":3337,"cles":3338,"client":3339,"script":3340,"left":3341,"amb":3342,"df":3343,"password":3344,"ĠĠĠĠĠĠ":3345,"world":3346,"gory":3347,"ache":3348,"Ġspread":3349,"Ġlimited":3350,"Ġespecially":3351,"eter":3352,"Ġinsert":3353,"Ġcritical":3354,"pers":3355,"epend":3356,"Ġmotiv":3357,"works":3358,"Ġeasily":3359,"artment":3360,"Ġcorresponding":3361,"Ġassum":3362,"Ġwarm":3363,"iter":3364,"overed":3365,"Ġhelpful":3366,"Ġslic":3367,"icles":3368,"width":3369,"Ġbuy":3370,"Ġseparate":3371,"aur":3372,"Ġsweet":3373,"Ġnove":3374,"Ġwatch":3375,"Ġfail":3376,"Ġreality":3377,"Ġcreates":3378,"Ġthinking":3379,"Ġparty":3380,"Ġphil":3381,"Ġsentences":3382,"Ġuniversity":3383,"Ġcontaining":3384,"hent":3385,"irm":3386,"emp":3387,"Ġvegetables":3388,"Ġsmooth":3389,"Ġnp":3390,"Ġdirectory":3391,"mark":3392,"Ġpun":3393,"Ġsymbol":3394,".)":3395,"inct":3396,"Ġroad":3397,"Ġregion":3398,"Ġallowing":3399,"Ġsays":3400,"raint":3401,"Ġsho":3402,"Ġprocessing":3403,"Ġprojects":3404,"Ġactive":3405,"ban":3406,"gr":3407,"ford":3408,"fl":3409,"Ġalph":3410,"Ġexpand":3411,"friendly":3412,"za":3413,"Ġecho":3414,"ocol":3415,"agraph":3416,"Ġeurope":3417,"year":3418,"Ġchann":3419,"Ġjapan":3420,"Ġquickly":3421,"att":3422,"Ġdim":3423,"Ġcloud":3424,"table":3425,"Ġcross":3426,"ellow":3427,"Ġvi":3428,"Ġban":3429,"Ġ{\"":3430,"Ġsmaller":3431,"Ġsend":3432,"Ġpolitical":3433,"Ġ)":3434,"Ġbad":3435,"ube":3436,"prime":3437,"Ġbound":3438,"Ġeyes":3439,"Ġdeveloping":3440,"Ġadvanced":3441,"message":3442,"Ġactual":3443,"Ġpopulation":3444,"Ġlarger":3445,"Ġol":3446,"Ġstrugg":3447,"Ġhandling":3448,"Ġhealthcare":3449,"iced":3450,"conds":3451,"Ġresulting":3452,"Ġdepend":3453,"da":3454,"Ġthanks":3455,"Ġvoice":3456,"Ġsurface":3457,"Ġmass":3458,"Ġpassage":3459,"Ġstream":3460,"Ġappl":3461,"Ġscreen":3462,"Ġsuggestions":3463,"Ġdivis":3464,"ares":3465,"Ġspaces":3466,"Ġcognitive":3467,"Ġtruth":3468,"Ġcream":3469,"http":3470,"medi":3471,"Ġbeautiful":3472,"post":3473,"Ġappre":3474,"www":3475,"main":3476,"ils":3477,"Ġoutside":3478,"Ġmaybe":3479,"Ġflex":3480,"Ġmathemat":3481,"Ġtrend":3482,"fol":3483,"Ġspecies":3484,"Ġoperation":3485,"Ġmillion":3486,"level":3487,"csv":3488,"Ġwood":3489,"Ġscientific":3490,"Ġpark":3491,"Ġir":3492,"Ġsafety":3493,"Ġsmart":3494,"Ġfunc":3495,"ef":3496,"Ġpal":3497,"():":3498,"Ġweather":3499,"Ġdeliver":3500,"Ġdevices":3501,"ample":3502,"Ġmatter":3503,"Ġalgorithms":3504,"Ġvalu":3505,"price":3506,"like":3507,"object":3508,"Ġreading":3509,"Ġrenewable":3510,"free":3511,"usion":3512,"Ġpick":3513,"eline":3514,"Ġorganizations":3515,"Ġsand":3516,"Ġopp":3517,"Ġscene":3518,"().":3519,"Ġcrucial":3520,"status":3521,"ename":3522,"0000":3523,"Ġgir":3524,"Ġmer":3525,"Ġrates":3526,"Ġassess":3527,"frame":3528,"Ġuseful":3529,"Ġexercise":3530,"output":3531,"Ġscal":3532,"Ġappear":3533,"Ġtransportation":3534,"Ġreverse":3535,"agram":3536,"Ġdetect":3537,"Ġgod":3538,"Ġtook":3539,"function":3540,"Ġphrase":3541,"33":3542,"Ġalign":3543,"Ġanimals":3544,"you":3545,"Ġ});":3546,"Ġcou":3547,"Ġmeasures":3548,"ached":3549,"Ġcoord":3550,"Ġraise":3551,"Ġparagraph":3552,"Ġpreferences":3553,"Ġtaken":3554,"loy":3555,"Ġefficiency":3556,"Ġhighly":3557,"Ġapprox":3558,"icks":3559,"Ġinsights":3560,"Ġcapital":3561,"hest":3562,"roll":3563,"75":3564,"Ġtax":3565,"Ġacad":3566,"Ġrows":3567,"Ġemotions":3568,"Ġlack":3569,"iveness":3570,"plic":3571,"Ġsentiment":3572,"Ġetc":3573,"';":3574,"Ġreact":3575,"build":3576,"Ġpackage":3577,"Ġensuring":3578,"icious":3579,"Ġelectric":3580,"Ġpolicy":3581,"((":3582,"Ġfront":3583,"Ġpsych":3584,"Ġtone":3585,"Ġappreci":3586,"}$.":3587,"Ġsus":3588,"Ġdefin":3589,"Ġ]":3590,"Ġanc":3591,"Ġadmin":3592,"Ġmodified":3593,"Ġmiles":3594,"position":3595,"hand":3596,"Ġbott":3597,"Ġplot":3598,"Ġdesp":3599,"known":3600,"asc":3601,"Ġdecisions":3602,"Ġspecifically":3603,"Ġmount":3604,"Ġroll":3605,"Ġbutter":3606,"Ġdish":3607,"Ġlonger":3608,"Ġrevenue":3609,"group":3610,"Ġwide":3611,"eria":3612,"Ġwidth":3613,"Ġadvant":3614,"Ġpractical":3615,"onacc":3616,"Ġdance":3617,"Ġadvert":3618,"Ġfeeling":3619,"request":3620,"Ġiterate":3621,"Ġstri":3622,"Ġeasier":3623,"Ġcombination":3624,"Ġtur":3625,"state":3626,"ured":3627,"Ġfinding":3628,"Ġcool":3629,"Ġsalad":3630,"Ġlabel":3631,"Ġcompos":3632,"Ġ####":3633,"Ġmobile":3634,"Ġhighlight":3635,"Ġconflic":3636,"tot":3637,"Ġdepending":3638,"ta":3639,"Ġinternational":3640,"Ġforms":3641,"Ġgenerated":3642,"Ġinfluence":3643,"Ġhistorical":3644,"Ġchrist":3645,"hol":3646,"cos":3647,"ores":3648,"Ġ22":3649,"Ġspirit":3650,"bt":3651,"Ġmessages":3652,"Ġdevice":3653,"Ġbrown":3654,"Ġrese":3655,"Ġlif":3656,"Ġdeath":3657,"Ġintegr":3658,"fully":3659,"process":3660,"Ġmilk":3661,"Ġabsol":3662,"Ġincorporate":3663,"Ġgerman":3664,"Ġexpert":3665,"Ġphone":3666,"Ġbowl":3667,"Ġwall":3668,"Ġfish":3669,"Ġattemp":3670,"Ġbecame":3671,"onacci":3672,"aching":3673,"ians":3674,"Ġplayed":3675,"ously":3676,"create":3677,"Ġwest":3678,"ulations":3679,"Ġzero":3680,"iring":3681,"Ġprotein":3682,"Ġund":3683,"ox":3684,"otes":3685,"Ġcarbon":3686,"90":3687,"Ġcm":3688,"Ġwrong":3689,"Ġfu":3690,"Ġattack":3691,"Ġhumans":3692,"Ġevaluate":3693,"Ġcounter":3694,"Ġstories":3695,"icing":3696,"Ġmedical":3697,"Ġbudget":3698,"Ġ21":3699,"Ġplaying":3700,"Ġauthent":3701,"Ġcolumns":3702,"ios":3703,"lebr":3704,"Ġstre":3705,"where":3706,"Ġminimum":3707,"Ġcommunities":3708,"Ġorganization":3709,"Ġtaste":3710,")^":3711,"Ġprints":3712,"Ġmel":3713,"Ġsynt":3714,"Ġbroad":3715,"Ġlov":3716,"Ġking":3717,"Ġtrade":3718,"Ġmovement":3719,"Ġdomain":3720,"Ġmit":3721,"Ġbegan":3722,"aff":3723,"Ġlos":3724,"Ġlooks":3725,"Ġinvolve":3726,"Ġcareer":3727,"Ġ\"\"\"":3728,"arily":3729,"het":3730,"Ġstage":3731,"Ġforce":3732,"Ġdefined":3733,"Ġbeliefs":3734,"Ġcatch":3735,"Ġcontract":3736,"Ġintelligence":3737,"Ġtou":3738,"Ġodd":3739,"Ġmiddle":3740,"enter":3741,"Ġshape":3742,"Ġestablish":3743,"lib":3744,"etimes":3745,"range":3746,"force":3747,"Ġcollection":3748,"Ġreli":3749,"inte":3750,"fit":3751,"lines":3752,"icon":3753,"unk":3754,"Ġbread":3755,"xture":3756,"Ġremind":3757,"Ġengagement":3758,"Ġaccurate":3759,"ype":3760,"Ġshared":3761,"Ġknew":3762,"rench":3763,"Ġcontainer":3764,"Ġcomfort":3765,"Ġbreath":3766,"Ġmonths":3767,"Ġlinked":3768,"24":3769,"Ġallowed":3770,"Ġlargest":3771,"uations":3772,"Ġboard":3773,"Ġyog":3774,"Ġjack":3775,"poon":3776,"Ġcomplet":3777,"Ġwalk":3778,"Ġforward":3779,"rome":3780,"Ġinteresting":3781,"abet":3782,"Ġsuggests":3783,"bb":3784,"ifications":3785,"pes":3786,"Ġok":3787,"Ġhappy":3788,"erate":3789,"Ġtechnologies":3790,"Ġcorrectly":3791,"pack":3792,"phone":3793,"='":3794,"late":3795,"Ġoffice":3796,"eks":3797,"ipment":3798,"hood":3799,"Ġjourn":3800,"Ġvolume":3801,"Ġoptimize":3802,"Ġrat":3803,"rs":3804,"Ġpand":3805,"Ġthrow":3806,"Ġconstraint":3807,"can":3808,"Ġincluded":3809,"Ġlocated":3810,"ded":3811,"ses":3812,"Ġwild":3813,"Ġconcepts":3814,"Ġtalk":3815,"Ġdire":3816,"Ġcopy":3817,"Ġsky":3818,"Ġadvent":3819,"Ġcelebr":3820,"uracy":3821,"Ġrecent":3822,"Ġrecursive":3823,"ny":3824,"td":3825,"Ġsouth":3826,"65":3827,"ĠÐ":3828,"sqrt":3829,"inate":3830,"Ġpict":3831,"Ġcurrently":3832,"Ġnarr":3833,"Ġdecl":3834,"Ġten":3835,"Ġoutcomes":3836,"Ġlibraries":3837,"Ġcontribute":3838,"iation":3839,"oding":3840,"Ġdeveloped":3841,"Ġdataset":3842,"Ġinvestig":3843,"Ġgives":3844,"more":3845,"Ġmaster":3846,"Ġreceive":3847,"Ġhttps":3848,"Ġmedium":3849,"Ġgram":3850,"Ġunc":3851,"Ġobser":3852,"Ġplanning":3853,"Ġwomen":3854,"Ġhypothesis":3855,"Ġcame":3856,"rays":3857,"ifying":3858,"Ġmatches":3859,"ðŁ":3860,"Ġgarlic":3861,"Ġcooking":3862,"orate":3863,"Ġthread":3864,"Ġrespective":3865,"Ġvan":3866,"Ġlists":3867,"Ġdidn":3868,"semb":3869,"Ġhun":3870,"sol":3871,"Ġpars":3872,"Ġchem":3873,"Ġfruit":3874,"split":3875,"wers":3876,"Ġchain":3877,"pu":3878,"Ġbecomes":3879,"Ġcombined":3880,"Ġeggs":3881,"aten":3882,"Ġsecret":3883,"Ġlayer":3884,"Ġcamer":3885,"Ġbul":3886,"Ġdress":3887,"Ġmultip":3888,"Ġglass":3889,"Ġpush":3890,"life":3891,".\")":3892,"70":3893,"from":3894,"org":3895,"Ġfelt":3896,"Ġrefers":3897,"tered":3898,"Ġtraffic":3899,"Ġrestaur":3900,"Ġrod":3901,"ĠâĪ":3902,"Ġschedu":3903,"Ġband":3904,"Ġwoman":3905,"}$":3906,"Ġtomat":3907,"style":3908,"Ġbey":3909,"Ġplain":3910,"Ġimplementing":3911,"Ġimproving":3912,"Ġcombine":3913,"clo":3914,"Ġotherwise":3915,"Ġpieces":3916,"pace":3917,"Ġnest":3918,"Ġsafe":3919,"Ġdetail":3920,"Ġafric":3921,"Ġsurround":3922,"leg":3923,"Ġrecip":3924,"Ġintroduction":3925,"Ġder":3926,"Ġscale":3927,"Ġconsidering":3928,"Ġsummar":3929,"Ġmixture":3930,"'d":3931,"34":3932,"Ġciv":3933,"Ġsea":3934,"Ġshap":3935,"sequences":3936,"urt":3937,"rief":3938,"Ġgard":3939,"Ġ80":3940,"Ġjoin":3941,")(":3942,"Ġrule":3943,"Ġworth":3944,"Ġusually":3945,"Ġdistinct":3946,"Ġshows":3947,"Ġhighest":3948,"ows":3949,"Ġaspects":3950,"ky":3951,"Ġhab":3952,"fficient":3953,"Ġapple":3954,"Ġcompared":3955,"Ġthre":3956,"**:":3957,"Ġwid":3958,"Ġeth":3959,"Ġgas":3960,"Ġpolicies":3961,"iling":3962,"ync":3963,"Ġrequests":3964,"ka":3965,"Ġsometimes":3966,"she":3967,"osop":3968,"Ġthoughts":3969,"Ġmother":3970,"Ġ1000":3971,"connect":3972,"Ġinstit":3973,"Ġtechnical":3974,"ÏĢ":3975,"Ġcompar":3976,"Ġmindful":3977,"Ġdespite":3978,"Ġded":3979,"Ġrad":3980,"wrong":3981,"aks":3982,"Ġsolar":3983,"Ġforest":3984,"Ġsnipp":3985,"Ġenable":3986,"\\*\\*\\*\\*":3987,"Ġanx":3988,"Ġhands":3989,"Ġattract":3990,"Ġsix":3991,"Ġunit":3992,"ried":3993,"Ġillust":3994,"Ġrevolution":3995,"Ġreference":3996,"random":3997,"Ġconcer":3998,"Ġvaluable":3999,"tes":4000,"Ġleave":4001,"Ġclasses":4002,"Ġasked":4003,"Ġalex":4004,"Ġbag":4005,"Ġrational":4006,"Ġhash":4007,"response":4008,"Ġopportunity":4009,"page":4010,"ino":4011,"Ġspr":4012,"Ġdrive":4013,"Ġresource":4014,"anger":4015,"Ġcentral":4016,"Ġexchange":4017,"ancing":4018,"Ġvector":4019,"Ġreasoning":4020,"67":4021,"pret":4022,"Ġms":4023,"Ġtown":4024,"Ġprices":4025,"Ġimplemented":4026,"Ġelectron":4027,"zzle":4028,"Ġbeyond":4029,"Ġfrench":4030,"Ġ23":4031,"config":4032,"Ġ,":4033,"ony":4034,"though":4035,"Ġresol":4036,"Ġ};":4037,"Ġspo":4038,"Ġelab":4039,"ref":4040,"root":4041,"oms":4042,"Ġskin":4043,"Ġphilosop":4044,"Ġexh":4045,"Ġimproved":4046,"Ġcells":4047,"base":4048,"lin":4049,"umb":4050,"idden":4051,"arian":4052,"ev":4053,"lim":4054,"Ġmist":4055,"Ġlost":4056,"xy":4057,"Ġprefer":4058,"Ġhelped":4059,"zy":4060,"Ġunits":4061,"car":4062,"Ġdivide":4063,"Ġfactorial":4064,"imize":4065,"Ġfavorite":4066,"Ġrele":4067,"Ġsubstit":4068,"Ġexactly":4069,"Ġdru":4070,"Ġplants":4071,"ffer":4072,"([":4073,"itory":4074,"Ġdownload":4075,"Ġvary":4076,"Ġstyles":4077,"Ġstir":4078,"iff":4079,"Ġuniverse":4080,"Ġwent":4081,"Ġsheet":4082,"check":4083,"cdot":4084,"sm":4085,"Ġtheme":4086,"Ġgrand":4087,"Ġcategor":4088,"rees":4089,"Ġweeks":4090,"Ġsem":4091,"Ġyork":4092,"Ġchina":4093,"Ġjud":4094,"Ġcentury":4095},"merges":["Ġ t","Ġ a","i n","h e","Ġ Ġ","r e","Ġt he","o n","Ġ s","Ġ c","e r","a t","e n","o r","e s","Ġ p","Ġ w","i t","Ġ f","n d","Ġ o","i s","in g","a l","Ġ m","o u","Ġ b","Ġ in","a n","l e","Ġ d","Ġa nd","Ġt o","i on","a r","e d","Ġo f","i c","ĠĠ ĠĠ","r o","Ġ e","Ġt h","a s","c t","en t","Ġ h","Ġ re","Ġ n","Ġ Ċ","Ġ l","u s","Ġ i","v e","o m","e t","Ġ g","Ġ y","i l","Ġ is","s t","u t","Ġs t","r a","ĠĠ Ġ","Ġy ou","Ġf or","c e","i d","o w","c h","at ion","e l","o l","u r","o t","a m","Ġ \"","Ġth at","Ġp ro","i g","Ġ on","l y","er s","Ġb e","i m","Ġc on","u n","Ġ it","it h","u m","u l","at e","Ġa n","Ġ v","Ġ =","o d","Ġ 1","Ġ he","Ġw ith","Ġa s","Ġ us","Ġc an","i r","a d","a y","Ġe x","s e","q u","g e","i f","Ġw h","Ġ or","es s","Ġa l","a b","Ġd e","m ent","Ġc om","r i","Ġth is","Ġ `","t h","is t","k e","v er","ĠĠĠĠ ĠĠĠ","p p","es t","Ġa re","Ġ (","Ġw e","Ġs u","l d","m p","re s","Ġc h","Ġ -","p e","Ġ 2","ct ion","i ve","Ġn e","o re","t er","c k","Ġ r","i v","it y","Ġs e","a in","Ġ en","he r","Ġh a","l o","or t","p t","Ġ le","n t","Ġ j","Ġa d","ig h","Ġs h","il l","i es","ou ld","ro m","p le","a ge","an t","Ġb y","Ġi f","e m","Ġyou r","u d","i al","t e","o s","i z","p l","Ġw or","Ġ u","u re","Ġf rom","ar t","us t","Ġm a","u e","Ġi mp","Ġ 3","f e","a nd","Ġn ot","Ġt e","Ġa r","ou t","al l","0 0","in e","o c","igh t","en d","in t","a ct","Ġa t","id e","ul t","p er","Ġp l","Ġa b","â Ģ","' s","Ġm e","am e","Ġha ve","f or","Ġ k","ab le","c l","in d","Ġ {","i le","om e","re d","Ġthe ir","as e","Ġh ow","o o","a g","c c","Ġre s","ou r","Ġst r","Ġin t","Ġ un","ĠĠĠĠ ĠĠĠĠ","ion s","en ce","Ġw he","p ut","d u","Ġt r","i e","` `","Ġ` ``","a ch","Ġ $","o g","for m","Ġcon t","Ġad d","Ġn um","ic al","l ow","Ġ qu","Ġp r","b er","o st","Ġw as","Ġc re","im e","Ġc l","Ġm ore","x t","Ġthe y","Ġa pp","Ġf un","as s","p s","Ġs c","an ce","r ou","Ġw ill","t her","ic h","ation s","ur n","Ġ 4","Ġ }","Ġd o","od e","Ġus e","a ck","at ed","at a","it e","Ġo ut","ar d","- -","a re","ic e","as t","i b","an s","g h","Ġre t","Ġ 5","c es","Ġfun ction","a v","ig n","Ġpro v","k ing","( )","\" ,","c on","Ġs o","Ġ ro","s o","Ġv al","Ġb ut","it ion","ou nt","Ġd is","Ġ #","Ġh as","el l","e ct","Ġwh ich","ou s","ar y","k s","Ġs ome","Ġcom p","e p","Ġm an","Ġs pe","Ġs p","Ġf e","Ġwh at","Ġ |","Ġ <","st r","on e","Ġu p","Ġret urn","a ce","ra m","Ġne w","on g","Ġ +","if ic","res s","or d","ent s","an g","Ġus ing","Ġo ther","Ġp er","cl ud","ou nd","al ly","Ġe v","Ġd es","Ġl i","Ġab out","Ġal l","Ġg o","re nt","le ment","Ġt ra","g et","ĠĠĠĠ ĠĠĠĠĠĠĠ","Ġ *","Ġ 0","Ġe ach","a c","Ġ '","d e","a il","o p","a p","\\ _","Ġal so","Ġon e","Ġthe re","or y","Ġex am","i re","Ġs y","r y","Ġm y","Ġhe l","Ġthe se","Ġcom m","i p","Ġ \\","Ġ [","Ġp re","Ġa cc","y th","Ġc ol",") ;","Ġsh ould","w e","Ġthe m","Ġd ata","u b","c om","Ġo ver","n e","Ġin clud","a k","o ve","ing s","j ect","at es","f f","Ġde f","Ġl ist","or s","âĢ Ļ","Ġspe c","Ġhe re","Ġt ime","el f","l ic","Ġd if","iz e","Ġan y","Ġc ode","at ing","Ġ /","Ġint o","ar i","Ġnum ber","Ġne ed","Ġp e","n ow","Ġsu ch","Ġm od","le d","p h","re n","Ġwh o","Ġa m","l es","Ġs er","Ġin d","re e","Ġwhe n","Ġli ke","Ġp art","c ess","Ġit s","an ge","Ġw r","Ġb et","u al","Ġw ould","Ġcre ate","en s","at er","Ġ ke","Ġcon s","yth on","Ġ ra","ar k","Ġhel p","Ġt w","Ġ 6","Ġpr int","Ġimp ort","er r","Ġpro du","Ġs et","Ġpro g","Ġma ke",". \"","i a","d s","Ġf ol","Ġg en","Ġp os","et h","at h","ay s","Ġc al","Ġch ar","Ġh is","( \"","Ġfor m","Ġ x","Ġc ould","ir st","Ġp o","nd er","at ive","f ul","fe ct","y s","Ġin c","as ed","Ġth an","le ct","Ġg et","Ġprov ide",") :","Ġdif fe","i ent","st em","Ġc he","\" :","il ity","oo k","er t","Ġre c","ar s","ic k","ro w","Ġs a","ic t","en g","il d","Ġd et","Ġin form","Ġe m","Ġp h","Ġfol low","Ġf irst","ri b","Ġf ind","Ġk now","ra ct","Ġus ed","ri pt","Ġre m","u es","Ġa f","Ġs ol","Ġin ter","Ġthe n","Ġm ay","Ġprog ram","ra y","Ġc o","is h","ar ch","rou gh","n ing","Ġs he","Ġg re","it ies","f t","Ġsy stem","Ġexam ple","Ġwhe re","Ġhe r","Ġu nder","l l","Ġv ari","Ġsu b","Ġstr ing","Ġo ur","Ġg iv","Ġtw o","t y","Ġin v","Ġof f","Ġwor k","ot h","ic es","ve lo","er m","Ġval ue","Ġtr ans","ic s","Ġre qu",") .","en c","Ġp ers","g g","is e","Ġt y","Ġb u","Ġre l","Ġres ult","Ġo b","Ġin put","Ġs im","el y","Ġc ur","Ġgen er","p on","o v","t he","w er","Ġinform ation","Ġa ct","Ġcl ass","Ġin te","u res","n ame","Ġth rough","ol og","Ġ1 0","Ġst ud","Ġex per","Ġle t","a ke","Ġa g","Ġre p","a us","Ġs m","Ġde velo","ent ial","i ence","Ġ 7","Ġo pt","ib le",") ,","if y","Ġdiffe rent","v al","Ġn o","it s","Ġas s","ce pt","Ġi m","er y","Ġwh ile","Ġin st","ment s","-- --","b le","d er","Ġe l","Ġte ch","o ple","b ers","Ġdevelo p","ul ar","he s","Ġex p","Ġan s","e x","pe ct","Ġcom ple","Ġpe ople","Ġ2 0","Ġi d","Ġs ent","Ġ âĢ","Ġf in","Ġpro cess","Ġtech n","Ġte xt","Ġgiv en","ou gh","Ġ/ /","Ġc or","o b","t ing","Ġchar act","Ġ 8","Ġprov id","we en",". .","Ġe lement","Ġm in","Ġbet ween","Ġre g","in k","Ġm at","Ġst art","f ore","ur ing","Ġus er","Ġex pl","ve l","n s","ut ion","Ġen g","Ġm ed","Ġde c","o od","Ġprodu ct","al s","pp ort","Ġha nd","Ġans wer","Ġw ant","Ġqu est","Ġh ad","r u","eth od","ow er","s c","p r","i qu","Ġwe re","Ġpers on","ust om","' t","Ġf l","o se","Ġar t","Ġbe c","le ase","Ġpl ay","ction s","Ġh igh","ie w","Ġp ar","Ġm ain","Ġadd ition","Ġs oc","i ous","re ad","err or","Ġs um","ĠĠĠĠ Ġ","Ġon ly","v ers","ow n","Ġg rou","g y","Ġen d","Ġbe en","al ity","Ġj ust","Ġ ent","Ġe mp","Ġy e","' ,","Ġwor ld","al th","t o","Ġs ign","Ġc ount","Ġb oth","Ġa c","Ġw ell","Ġm ethod","Ġspec ific","i ed","Ġst ep","Ġm ark","f fect","Ġn ame","Ġwr ite","u p","Ġe ver","Ġf ile","Ġke y","c ul","w ord","te xt","ag es","st and","w or","Ġc ustom","an c",") )","Ġman y","t s","Ġb l","Ġe qu","Ġser v","Ġa ut","Ġp ot","ad e","Ġdo es","n ess","Ġs k","i an","Ġre ad","Ġche ck","Ġdis c","Ġin s","p ro","Ġat t","Ġle ar","iz ed","aus e","Ġp lease","= \"","Ġm ost","i x","Ġg u","Ġf il","Ġp ol","Ġout put","if e","t en","Ġdes ign","i el","n um","Ġs elf","in es","Ġcomm un","Ġb ased","Ġw ay","Ġar ray","Ġt est","Ġe ffect","Ġn ow","Ġde p","Ġb ack","Ġb el","it ive","Ġ 9","Ġaf ter","pl es","Ġa v","Ġc r","w n","Ġp ython","Ġsu re","Ġhe alth","Ġfollow ing","Ġl oc","g an","m s","Ġimp lement","Ġapp ro","iv id","he d","Ġwe b","at ure","Ġg ra","Ġan al","a pp","Ġunder stand","is s","Ġd ist","Ġinclud e","u ct","Ġinte g","Ġst ate","s s","s on","Ġv is","str ing","Ġev en","v ing","Ġ z","eng th","\" )","Ġb r","Ġal low","Ġdes c","Ġm us","Ġp ub","in ess","Ġre f","Ġh um","p ython","Ġres pon","Ġpo int","Ġc ar","Ġcon f","s elf","Ġimp ro","Ġen s","t al","Ġcal cul","l ine","Ġ ed","Ġf act","ĠĠĠĠĠĠĠĠ ĠĠĠĠĠĠĠ","d ata","ol d","Ġex t","Ġse e","Ġmod el","Ġle ad","Ġp ass","Ġm ult","Ġmark et","Ġper form","Ġl ong","res ent","ur al","Ġb o","Ġcon st","Ġcur rent","Ġr un","Ġsent ence","Ġb re","Ġb us","00 0","ut e","Ġcont ain","Ġinc re","Ġre v","Ġnum bers","ab ility","Ġsu pport","Ġm on","Ġs al","en e","ation al","il y","Ġid ent","Ġwor d","a x","e ver","w ard","Ġ ve","m on","Ġinclud ing","Ġl a","i o","m at","Ġo p","Ġm em","Ġd ay","Ġre du","id er","Ġto tal","in s","v es","ion al","Ġsoc ial","Ġin f","Ġto p","Ġt ake","v ed","n er","1 0","Ġwor ds","Ġm ess","r ic","Ġad v","t t","Ġob ject","Ġc le","Ġl oo","2 0","ical ly","ff ic","olog y","Ġpot ential","Ġpl an","Ġ= =","Ġl ar","Ġl ife","u c","Ġgo od","Ġt as","Ġf ound","Ġpos s","Ġtr y","as on","Ġbe fore","ot her","i ps","i red","_ _","ang u","Ġc ase","iqu e","Ġd uring","Ġs ur","ire ct","Ġgre at","Ġacc ess","Ġo per","Ġpro ble","a ir","p ar","iz ation","Ġhow ever","Ġp ract","Ġimp act","Ġ1 9","Ġst e","Ġsm all","Ġi de","enc y","Ġen c","b e","c ur","m l","Ġval ues","g or","Ġquest ion","im es","as es",", \"","Ġre al","Ġr ange","r on","Ġor der","Ġp at","Ġo wn","er gy","ri end","Ġcomple x","Ġs ame","d ate","Ġsh ow","Ġj o","cc ess","Ġpart ic","Ġpub lic","Ġl angu","at or","at her","Ġl ine","et s","t on","Ġb ra","Ġty pe","re ct","l ist","it ed","et y","Ġte am","y e","Ġwr it","Ġbus iness","Ġty p","ter n","ert ain","Ġm ent","Ġ :","i er","s h","in ed","se arch","Ġtr ue","Ġever y","um ent","Ġp ower","ak es","en ces","Ġd at","Ġen ergy","Ġc ost","Ġbe ing","ul l","con d","iel d","Ġw ater","Ġexam ples","Ġbu ild","gg est","Ġfe el","ch o","Ġr ight","Ġpro f","Ġbec ause","Ġm ade","Ġcomp an","Ġd own","Ġt re","g in","our ces","Ġcont in","a king","b o","v ir","Ġe as","Ġind ivid","Ġsu ggest","Ġe ar","Ġma x","Ġm ight","iv es","Ġ .","Ġa w","Ġl ess","Ġs ort","en se","Ġpro ject","Ġb est","pl ay","Ġg r","Ġcharact er","Ġc ent","Ġp op","Ġel se","re st","Ġt able","Ġindivid ual","Ġme an","em s","Ġcont ent","Ġsign ific","Ġch all","Ġ &","ar get","Ġgrou p","Ġc all","as h","vir on","in ing","am es","Ġelement s","ab les","Ġcons ider","Ġens ure","Ġm et","Ġt erm","Ġa p","if ied","b y","Ġmult i","Ġp ri","Ġl og","Ġp ost","Ġpre v","c ed","Ġstr ate","Ġar g","Ġ1 2","s er","Ġwith out","p o","Ġle vel","od y","Ġm ust","ren ce","d ay","Ġm u","t ed","Ġd el","Ġen viron","Ġd on","oc us","Ġsu ccess","Ġman age","Ġs om","Ġwith in","ist s","ra ph","Ġb lo","Ġlangu age","Ġapp lic","ne w","Ġor gan","Ġop en","Ġch o","Ġc a","is m","Ġd irect","Ġp ur","t ain","Ġg ive","\" .","Ġcom put","in ce","âĢ Ŀ","p os","Ġl ength","ut es","Ġcom b","com m","Ġne xt","am p","Ġd iv","o ver","Ġse arch","Ġf am","j o","el s","at ures","Ġf ocus","Ġpro per","Ġg row","it le","u ally","o id","ĠâĢ ľ","Ġstr uct","Ġbel ie","Ġimpro ve","gor ith","Ġ error","< /","wor k","] ,","Ġd id","Ġpro m","ad d","Ġexper ience","Ġc lo","t r","Ġcharact ers","Ġposs ible","ol s","Ġbet ter","Ġt ri","Ġin it","Ġhum an","Ġinv ol","a ut","Ġal gorith","Ġch ang","our ce","Ġmess age","Ġg ame","Ġcor rect","Ġth ose","end ing","Ġse cond","Ġsc ript","Ġun t","re qu","ant s","Ġth ree","Ġact iv","al e","Ġte mp","l ing","Ġdevelop ment","Ġdet erm","s et","is ion","nd om","re t","v en","it al","Ġma king","Ġag ain","Ġ ess","us s","Ġbe h","Ġst ory","( '","Ġexp ress","Ġar ound","Ġun ique","e c","Ġenviron ment","y le","Ġm ar","z e","Ġc ult","Ġlear ning","Ġw ar","Ġch ange","ke y","Ġsignific ant","Ġf ood","Ġpl ace","Ġvari ous","Ġl ast","---- ----","Ġproble m","1 2","Ġh ist","Ġl o","Ġst ore","Ġb ene","Ġof ten","Ġst at","val ue","Ġ1 5","in al","Ġan other","ra c","it ions","Ġc ertain","Ġth ough","l ish","Ġmus ic","str u","ail s","g er","Ġis s","Ġst and","Ġth ink","Ġunt il","Ġl ight","Ġl im","i ents","ot e","Ġre pl","Ġd ig","Ġd i","k en","q l","Ġrequ ire","Ġs w","ic ation","Ġh im","Ġv ers","rou nd",": :","p ort","Ġt arget","Ġye ars","p y","Ġcomm on","ict ion","() ;","a red","Ġmu ch","Ġf riend","al se","Ġke ep","d ition","h or","m e","Ġc our","Ġse lect","er c","Ġopt im","Ġsa id","Ġadd ress","Ġident ify","f ile","n ect","Ġs l","Ġgener ate","Ġaddition ally","Ġc are","Ġpos itive","ri es","at ely","re am","Ġperson al","Ġcal led","Ġs ince","ib r","ar r","Ġus ers","Ġweb s","b ack","Ġbene f","ch ie","er ic","Ġor ig","ĠĠĠĠĠĠĠĠ ĠĠĠĠĠĠĠĠ","Ġd ra","t le","Ġm ove","Ġover all","Ġimport ant","Ġto o","Ġh our","e k","Ġn et","Ġind ust","Ġn on","Ġcon c","Ġl it","Ġl ook","t ml","Ġexpl ain","er n","ater ial","ver t","Ġ >","w r","ro ss","in put","Ġne g","at ch","/ /","w are","c ript","Ġh y","Ġanal y","Ġy es","id es","c i","Ġ ĉ","n ot","Ġa chie","Ġs it","Ġmed ia","Ġha pp","ur l","o f","Ġch ild","Ġcalcul ate","Ġinte rest","Ġm ov","Ġchall eng","Ġre search","ri x","Ġeffect ive","Ġprovid ed","Ġye ar","on s","c ount","m in","m ing","c ol","Ġt ell","h ip","y n","Ġcont ro","t ime","Ġst ill","Ġj av","Ġpro te","u nd","Ġt akes","Ġhe ad","Ġab ove","Ġo cc","ill s","Ġm ind","in ation","l u","Ġs ing","Ġm aterial","Ġrem ain","Ġa ud","at s","l ab","Ġto get","Ġtoget her","Ġd ri","Ġme as","ou n","Ġe ffic","Ġsum m","Ġp a","Ġstud ents","Ġtechn ology","l ess","eth ing","Ġfe w","le t","Ġr is","Ġ â","b u","Ġin de","ile d","Ġm il","Ġinv est","Ġde v","d d","Ġc ap","a z","Ġcompan y","Ġav ail","lo ad","' re","w ays","og n","Ġsom ething","Ġ1 00","du ct","Ġunderstand ing","m b","Ġcol or","Ġoff er","l i","Ġsol ution","Ġ est","ag ing","am et","cl us","Ġopt ions","= =","Ġs ize","a h","Ġon ce","` .","Ġcol um","iv ers","Ġb i","Ġwh y","Ġev ent","a ces","Ġa i","k es","Ġus es","Ġcon cept","Ġph ys","a ve","m od","Ġwor ks","Ġv ery","$ .","Ġso ft","Ġs ay","Ġare a","Ġb as","Ġim age","Ġg l","Ġsp ace","Ġs ide","Ġcle ar","Ġb ook","Ġpl at","Ġf ur","Ġh ome","Ġlar ge","id ence","Ġreturn s","ord ing",".. .","Ġro w","Ġinit ial","an k","Ġl ove","i or","con t","le v","Ġfe atures","Ġle ft","u le","Ġra ndom","Ġlear n","Ġste ps","Ġs ound","Ġst or","Ġmarket ing","Ġa ir","Ġf ield","Ġse ver","Ġs qu","Ġ3 0","ren ces","\\ *","Ġcon text","Ġre ason","Ġapp e","p or","Ġb ro","Ġresult s","5 0","e ad",": //","Ġmin utes","Ġ %","Ġemp lo","Ġknow n","m a","ys is","Ġp resent","Ġrespon se","Ġwebs ite","Ġdis play","Ġfin ally","Ġre st","Ġval id","Ġf alse","Ġhand le","Ġpro b","Ġsystem s","Ġj son","Ġtyp es","w h","ou se","Ġform at","Ġam ount","im um","ver age","Ġrequ est","Ġmanage ment","Ġalgorith m","ight s",". \\","Ġit er","Ġmulti ple","Ġrep resent","Ġp res","c ing","Ġdesc rib","il ities","Ġserv ices","us h","Ġcre ating","Ġsever al","Ġacc ount","Ġrep ort","Ġinst ead","im ent","Ġf ut","Ġdif f","Ġres ources","Ġdisc uss","Ġem ot","Ġrel ations","pt ion","Ġup d","iz ing","Ġbre ak","Ġn ode","il ar","ind ex","Ġcomm and","Ġme ans","Ġth ings","Ġex pect","Ġplat form","n et","c he","' :","Ġl ab","Ġw ays","Ġneed s","Ġcontro l","c ent","Ġd oc","Ġc ity","Ġacc ording","Ġinc or","Ġaddition al","` ,","Ġf lo","ab ase","Ġre comm","Ġv ide","Ġ es","he ad","Ġb oo","b r","Ġanal ysis","d ing","Ġspec ial","m an","o pe","Ġloc al","Ġl ibr","res h","Ġfur ther","Ġrecomm end","le ction","p ath","Ġw ind","Ġcr it","Ġappro ach","at ural","Ġe lect","Ġal ways","ty pe","Ġstud y","Ġv iew","Ġ1 8","c le","p re","Ġinf lu","Ġstrate g","1 9","Ġquest ions","ut ions","Ġab le","h tt","Ġf ace","Ġre d","Ġse c","Ġf ore","Ġcon nect","Ġsh ort","pr int","Ġcommun ity","pp ed","Ġro le","Ġother s","Ġed uc","Ġf ac","Ġneg ative","a iled","Ġb al","ram e","b al","im al","Ġp red","Ġle g","g le","a pe","Ġinde x","Ġh ig","Ġ1 6","Ġem ail","Ġ err","av or","Ġavail able","Ġnot e","Ġperform ance","Ġfut ure","Ġcomp on","con om","one y","og raph","Ġvari able","Ġj ob","Ġsim ple","Ġa ction","Ġpoint s","Ġpr ime","Ġf ree","ist ic","res pon","Ġcustom er","m ed","Ġs ense","\" >","c al","cur ity","Ġproduct s","Ġd ate","Ġ< /","c hes","Ġexper i","Ġun ivers","Ġh ard","Ġt imes","Ġp ath","2 5","te mp","Ġtra ck","Ġindividual s","Ġapplic ation","Ġredu ce","r ation","Ġmain tain","u ation","Ġt urn","Ġprof ess","n a","Ġ= >","Ġp ay","ĠĠĠĠ Ċ","] )","m y","ul ation","Ġstruct ure","Ġd r","Ġsim ilar","Ġs am","Ġex ist","ur s","ic le","Ġne cess","Ġo ld","- >","led ge","Ġp ack","Ġtas k","Ġcont rib","he l","c ial","im ate","# #","pp er","Ġma ch","Ġchang es","Ġserv ice","1 1","Ġsk ills","a cc","ro du","if t","Ġstate ment","Ġt al","Ġs cho","c o","Ġprovid es","Ġpar amet","l and","Ġar r","ou ra","() `","Ġpartic ular","ent ion","oo se","r al","Ġdesc ript","f ace","v iew","Ġindust ry","Ġst ates","* *","an ces","Ġf r","Ġe conom","Ġrev iew","Ġdet ails","s v","Ġqu ality","id d","Ġ ing","ar ray","a ction","lo g","Ġtrans l","Ġaut hor","Ġwe ek","Ġqu ant","Ġorig inal","ne ction","Ġ ut","Ġl and","Ġp ain","id ent","Ġp ie","Ġchalleng es","1 5","Ġon line","Ġp ast","as ter","Ġle ast","Ġc ook","ar ing","Ġvers ion","Ġma g","Ġs at","Ġam eric","Ġst yle","Ġre ce","Ġn or","Ġas k","Ġallow s","on d","Ġd ays","Ġin stru","es e","Ġcom e","us er","ib ility","Ġl ow","iqu es","Ġc amp","Ġm ix","ri e","Ġl ay","i um","Ġdat abase","ir d","Ġincre ase","Ġ !","t est","Ġn atural","Ġmon th","Ġstr ong","yth ing","ic ate","Ġv er","Ġloo p","Ġf ar","Ġbeh av","Ġbe gin","Ġex ec","w w","Ġhour s","' )","Ġt ips","Ġre ally","iv ity","s p","a ult","he re","Ġbenef its","Ġt itle","Ġw in","Ġ< <","Ġb ody","ust ain","ward s","Ġ2 00","Ġtra ining","Ġdeterm ine","ol ution","Ġp ut","} {",": \\","p ri","Ġch oose","ific ation","Ġrespon s","Ġsuccess ful","Ġp age","Ġm ot","Ġs n","t ers","an n","Ġsu pp","Ġachie ve","u g","Ġtechn iques","Ġw al","Ġpop ular","Ġde m","Ġcontin ue","Ġwrit ing","it ing","Ġ1 1","d i","Ġp ort","Ġto ols","an e","Ġincor por","s y","Ġmethod s","Ġinteg er","Ġhist ory","Ġsing le","Ġj our","Ġqu ery","er g","Ġcour se","pp ing","Ġs ustain","Ġwor king","Ġb ar","ard s","b ased","Ġthere fore","d o","o ot","Ġgo ver","Ġimplement ation","Ġsub ject","Ġfam ily","it or","oc i","Ġtra dition","Ġad j","cept ion","Ġsoft ware","Ġsh are","fe rence","le x","Ġreg ular","Ġide a","Ġpri v","Ġstrateg ies","Ġrepl ace","ic ult","Ġl en","Ġmean ing","\" ;","Ġcons um","Ġing red","ar ies","Ġpr ice","Ġl ower","Ġen jo","Ġsol ve","Ġf our","Ġh ar","Ġ5 0","Ġvis ual","Ġknow ledge","Ġv ol","\\* \\*","[ '","Ġne ver","qu ence","Ġ} ,","Ġfact ors","Ġm o","Ġsu per","Ġint rodu","mp t","anc ed","Ġinclud es","is hed","Ġrequ ired","in ary","Ġm iss","ot s","Ġcustom ers","Ġbec ome","g o","word s","Ġg e","Ġmat ch","Ġev ents","Ġpos ition","ct or","id th","Ġse curity","Ġli k","ro p","j son","Ġ- -","Ġeas y","Ġd ue","um ents","em ber","Ġup date","Ġ1 4","f er","d iv","Ġ$ \\","pport un","e red","Ġbra nd","g en","os s","Ġgrow th","3 0","Ġdoc ument","Ġbl ack","Ġc ir","ne y","Ġeffic ient","Ġgover n","as cript","Ġd ou","as ing","1 6","s ub","are nt","Ġgre en","i pe","Ġdef ine","Ġo pportun","Ġass oci","f il","Ġterm s","Ġpol ic","Ġenjo y","Ġnecess ary","Ġsome one","Ġcomplex ity","f rac","er ing",". ,","Ġenc oura","Ġequ ation","Ġa verage","Ġaud ience","\" ]","Ġg lo","Ġde ep","Ġc y","Ġm om","Ġfunction s","f s","iz es","' m","Ġve get","Ġdiff icult","clud e","Ġac ross","ul a","Ġopt ion","Ġblo ck","n g","Ġap i","Ġstr ings","Ġagain st","Ġs ou","Ġf requ","Ġment al","Ġv ir","read y","Ġprev ious","Ġst o","Ġcre ated","Ġf und","th is","Ġwhe ther","Ġide as","c ome","Ġc ell","' ]","er ature","Ġn ut","Ġn av","or n","l ength","Ġrem ove","Ġl ink","Ġse par","Ġ* *","Ġ2 5","str uct","Ġemplo ye","ĠâĢ ĵ","s um","Ġev al","d itions","Ġav oid","Ġhe art","Ġscho ol","res ult","Ġd iction","Ġfin al","Ġaut om","Ġiss ues","Ġb ase","Ġc e","iv ed","Ġaf fect","' ve","he ns","Ġeng lish","Ġqu ick","Ġ+ =","i ety","i res","Ġma kes","Ġsc ience","Ġme et","+ +","po int","\" );","s u","g es","Ġbuild ing","Ġess ential","Ġc up","b ook","Ġab s","a pt","Ġjav a","end s","Ġt im","Ġcle an","Ġla w","Ġf low","Ġneed ed","Ġo il","Ġcolum n","Ġtra vel","Ġw on","i od","Ġcon vert","Ġequ al","Ġvide o","Ġc aus","Ġb row","Ġs un","Ġinst all","in a","Ġment ion","' ll","Ġs ource","Ġprovid ing","f un","Ġf ull","Ġal ong","Ġm oney","am ed","Ġcon clus","Ġgo ing","num ber","Ġocc ur","u ce","ou d","Ġb ig","b ut","Ġhel ps","Ġal ready","Ġfact or","Ġph ot","h n","Ġnet work","al ing","Ġ1 3","Ġcontain s","at ic","Ġcommun ication","ot t","vers e","Ġgra ph","um e","Ġmach ine","g round","a w","Ġeng age","id s","2 3","Ġbe aut","Ġpr im","Ġfe ed","ord er","u ck","Ġp ress","Ġingred ients","Ġtrans form","f act","Ġre lev","Ġeng ine","Ġcertain ly","so le","l ight","n o","Ġcon vers","Ġro om","Ġ q","Ġcomp re","com es","Ġen h","Ġcomp et","Ġactiv ities","s ide","f fe","Ġtradition al","s ize","Ġrec ord","as k","Ġsc he","Ġex erc","Ġris k","ar g","Ġser ver","Ġper iod","ent ly","ĠĠĠĠĠĠĠĠ ĠĠĠĠĠĠĠĠĠĠĠ","Ġtas ks","Ġser ies","it her","Ġv ar","Ġh ol","p ass","v ent","Ġit ems","p ose","Ġt ree","Ġst d","Ġs ens","Ġsqu are","t ra","Ġphys ical","Ġbehav ior","Ġp air","is es","Ġlo ad","Ġw om","Ġsc ient","z z","pect ive","a ign","Ġ @","m it","Ġart icle","Ġd om","Ġh ope","Ġmat rix","Ġdet ailed","u ro","Ġrel ated","is ing","Ġm or","Ġ[ ]","Ġbo x","Ġpract ices","we et","Ġdec ision","ul es","ang le","Ġmem ory","is ed","Ġmeas ure","Ġh ouse","ly ing","Ġit em","il t","n ers","Ġ url","olog ical","Ġlibr ary","Ġe t","Ġchild ren","Ġcompre hens","Ġrec ogn","Ġpa per","Ġh ot","bo x","Ġlit tle","Ġa ge","Ġadj ust","c re","Ġlet ter","Ġdig ital","Ġm ill","Ġn one","Ġmaterial s","Ġprog ress","c d","x a","Ġgo als","Ġ2 4","Ġlim it","Ġadd ed","Ġare as","Ġam ong","Ġc ut","Ġbut ton","Ġcon nection","Ġdist rib","Ġev idence","Ġconf ig","Ġlik ely","Ġcon ditions","1 4","iv ing","ud e","Ġem b","Ġsort ed","h ips","Ġh al","Ġca pt","Ġimport ance","Ġext ract","pl it","l er","Ġprob ability","Ġse ason","Ġcamp aign","i k","Ġconclus ion","Ġr ate","Ġappro pri","Ġexpress ion","Ã ©","Ġro ot","Ġper fect","t ies","Ġfe ature","Ġfriend s","Ġloc ation","Ġs ong","Ġh tml","Ġcon sole","Ġinteg ers","Ġrec ipe","Ġthough t","Ġsm o","b s","] .","c ode","Ġpract ice","at ors","Ġfil es","Ġmax imum","Ġh tt","Ġgre ater","t itle","or ies","u gh","Ġk ind","Ġspe ed","? \"","Ġform ula","Ġpr in","Ġst ay","Ġan t","Ġma j","l s","Ġpartic ip","o pt","Ġdiction ary","h tml","Ġto day","Ġemp ty","Ġsal es","Ġupd ated","Ġrelev ant","Ġha ving","Ġaw ay","Ġal tern","Ġplay er","2 2","Ġwind ow","Ġab ility","Ġth in","a f","Ġr ound","Ġmod ify","Ġinstru ctions","Ġim ag","Ġc ra","Ġm ic","Ġph r","Ġen ough","qu ery","Ġstrate gy","Ġin n","ort s","Ġs ources","end er","ch ar","t op","it em","Ġadd ing","h as","Ġc ases","âĢ Ķ","Ġf it","Ġch ick","Ġrem ember","oun ter","Ġprev ent","m et","Ġhig her","Ġs av","un ch","Ġpred ict","Ġn ature","Ġsc en","Ġto ol","Ġdra w","} ,","Ġwh ite","ck et","Ġloo king","iel ds","Ġdescript ion","Ġinst ance","Ġrun ning","Ġprom ot","Ġt aking","1 00","1 8","Ġi ll","Ġf resh","Ġgener al","Ġbusiness es","re en","Ġeduc ation","ut ed","Ġprodu ction","oo gle","ur y","ore d","app end","Ġcl ient","Ġcomple te","Ġe ff","ct ure","Ġpol it","d es","Ġr ather","on es","Ġn ames","in st","Ġexperi ences","ry pt","Ġanaly ze","u gg","Ġinter act","Ġsim pl","ra p","Ġ1 7","Ġdesign ed","Ġprogram s","fe rences","Ġcount ry","Ġpriv ate","Ġl at","Ġsa ve","Ġc ate","el t","Ġmem bers","lab or","in it","( $","Ġtry ing","Ġeffect s","r ight","Ġdist ance","Ġcons ist","Ġrequire ments","Ġg ar","Ġan im","Ġinter n","Ġass ign","y m","ch ange","Ġsy mb","Ġb it","Ġre ach","Ġmaj or","Ġe gg","am ent","Ġar ch","e lement","Ġun ited","is f","b l","Ġ ri","Ġn ull","Ġappropri ate","Ġd og","Ġd u","Ġfin anc","Ġpri or","Ġas pect","Ġoff ers","Ġcol labor","re l","Ġnav ig","y our","Ġsol utions","pro duct","Ġm en","s el","Ġent er","n ode","2 1","m iss","ress ion","a im","Ġn amed","Ġprogram ming","Ġlevel s","Ġac cept","c ase","Ġb at","Ġcan not","Ġbel ow","Ġgu ide","Ġexpect ed","Ġgrou nd","Ġ: =","Ġdoes n","Ġameric an","Ġd one","ur ation","im ately","Ġhe at","^ ^","m ax","htt ps","f ort","ers e","Ġ! =","Ġc oo","Ġl ot","r ate","Ġse quence","Ġh or","Ġc op","Ġf ru","ĠĠĠĠĠĠĠĠ Ġ","Ġlead ing","w ay","Ġad apt","Ġn ight","y ing","Ġ ...","st ep","Ġtrans port","Ġe ither","Ġexpl an","Ġiss ue","c er","Ġim ages","Ġs ql","c are","m ap","Ġus age","a it","bo ard","Ġest ab","y es","Ġthrough out","Ġwrit ten","Ġd yn","st art","Ġsustain able","Ġf rame","Ġh old","Ġwe ight","Ġcontin u","Ġcomprehens ive","he n","ron t","Ġcho ice","ro om","Ġdes ired","o ff","$ ,","Ġcomput er","Ġgrou ps","1 3","c hed","Ġf ive","b ody","Ġquant um","g ing","Ġsa uce","Ġgovern ment","l n","Ġv o","Ġbl ue","mat rix","Ġinvol ves","m al","6 0","Ġprofess ional","r t","Ġs ides","Ġeval u","val id","it es","Ġsal t","ch an","in ter","um p","Ġp an","Ġdiffe rence","Ġm i","Ġcor respon","p ot","ren g","Ġref lect","Ġdescrib e","sel ves","Ġut il","Ġdou ble","av es","Ġstud ent","Ġvis it","Ġcent er","Ġex ce","Ġcult ural","Ġvir t","Ġear ly","Ġfil m","Ġexpl ore","d own","her s","Ġmod ern","ens ion","Ġfinanc ial","Ġl ive","Ġbu ilt","[ \"","Ġc am","it ude","r ing","Ġd ark","Ġmod ule","Ġ4 0","Ġbr ing","is on","Ġcl ick","Ġf all","Ġgo al","Ġc at","Ġins ide","Ġto wards","Ġ\" \"","Ġcol le","or ing","Ġv oid","Ġclo s","Ġmodel s","2 00","iz ations","Ġboo ks","st er","Ġstand ard","Ġglo bal","er o","Ġc red","j s","Ġst reng","Ġprote ct","im age","os p","Ġh ost","s ort","Ġhe ight","Ġsub st","Ġg ot","Ġst ra","Ġfeed back","c y","Ġtre at","f riend","Ġset ting","Ġpat tern","cl ass","Ġsumm ary","it ch","m ath","ist ics","Ġvari ety","in f","lo c","pl ace","j av","Ġp ow","le ep","Ġcost s","il i","Ġde mon","ser v","o es","r ast","Ġ# ##","ell ing","Ġyour self","end ed","1 7","Ġcol lect","Ġdo ing","Ġind ic","Ġf ill","Ġex cept","Ġatt rib","ĠĠ Ċ","Ġl in","Ġth ird","Ġim m","Ġapplic ations","Ġĉ ĉ","Ġb ud","Ġne ar","Ġc ru","Ġwho le","Ġp arent","Ġf ig","Ġemp has","Ġarg ument","h ing","s ql","Ġpro mpt","idd le","Ġassoci ated","Ġinn ov","Ġproble ms","Ġche ese","re g","Ġbelie ve","Ġsat isf","Ġpre p","g est","Ġg oogle","Ġoper ations","Ġth ing","Ġgu id","Ġd est","se qu","Ġper cent","Ġacc ur","3 2","s pe","it ation","Ġde g","ag er","a ps","Ġt our","Ġan n","ac y","Ġpur ch","Ġme chan","Ġdyn am","b on","Ġj u","ide red","Ġpl ant","! \"","Ġbas ic","enc ed","Ġbal ance","m t","Ġ ?","Ġstud ies","Ġse em","Ġg ames","Ġm ath","ograph y","le ar","p an","Ġcheck s","d is","Ġcons idered","tr ue","Ġst ress","iv al","Ġse g","in clude","Ġro b","4 0","Ġback ground","g ed","val ues","Ġent ire","Ġ\\ *","Ġmention ed","ve y","od es","olog ies","g ar","Ġ- >","Ġup on","Ġeconom ic","ell ig","ak en","g n","Ġcon dition","Ġse ction","Ġt ag","Ġl ines","a ctions","re m","Ġg old","ed s","hel lo","Ġhal f","Ġthe ory","us e","Ġstart ing","Ġcompan ies","Ġeffective ly","Ġb all","Ġass ist","8 0","m ess","Ġco ffe","Ġf ire","w ise","Ġser ve","Ġse en","Ġchick en","en ge","de f","Ġess ay","Ġ rom","Ġemot ional","Ġc ause","Ġex act","Ġdef ault","Ġcult ure","com ing","Ġsa f","Ġcompon ent","Ġse ems","ac hes","Ġcoffe e","i ver","Ġf ields","ul ate","Ġincre ased","ic ial","am s","Ġhist or","Ġro ck","Ġh om","Ġs il","Ġcount ries","Ġyou ng","[ ]","an a","Ġredu cing","p art","u x","d om","Ġmom ent","b all","Ġg ain","Ġb ow","Ġspec if","Ġclo se","n ed","9 9","p ly","or k","ab ly","ne xt","Ġear th","Ġparamet ers","Ġ er","Ġst ack","Ġsp ir","Ġins p","Ġle d","Ġcompon ents","on t","Ġpo em","Ġst op","Ġeng aging","l en","Ġ ur","Ġcom es","m ar","6 4","Ġa ctions","Ġtest ing","Ġrelations hip","Ġvari ables","ut h","Ġget ting","Ġpass word","con f","Ġdemon str","Ġspec ified","hes is","Ġtemp erature","is ions","se lect","Ġhapp en","Ġcont act","Ġmic ro","Ġm id","Ġst y","Ġsc ore","== ==","Ġpart s","Ġrem ov","Ġactiv ity","Ġjav ascript","Ġbeh ind","Ġf oot","c ast","d b","i pp","le y","Ġcl imate","Ġparticular ly","d at","Ġexper iment","Ġhy pot","Ġremain ing","Ġrelations hips","Ġf ix","Ġacc om","Ġtra in","Ġm ob","Ġc ard","-------- --------","Ġ ult","o k","Ġplay ers","Ġobject s","Ġsam ple","Ġp u","Ġproper ty","Ġdem and","Ġhealth y","i et","Ġd en","ist er","Ġqu e","Ġscen ari","er v","as et","ab ilities","Ġd ivid","ail y","] ;","le te","ac ed","f ield","i ency","res ents","Ġevery one","Ġre pe","em ic","Ġact ually","Ġstat ic","r un","Ġre new","cont ent","Ġ[ \"","Ġrep resents","Ġpie ce","Ġexplan ation","Ġe uro","ter ns","Ġn ational","Ġapp ly","Ġext ra",") \\","Ġd ream","g ra","Ġm is","rac y","col or","w ith","Ġf avor","enc ies","Ġatt ention","qu e","Ġrec urs","en ue","d ict","Ġf ra","Ġsound s","Ġf ul","Ġthan k","Ġpower ful","Ġsit uation","Ġprom ote","Ġstor age","q rt","Ġc ogn","Ġy et","ap i","Ġcomm it","Ġjour ney","Ġpe pper","Ġr out","Ġpre m","Ġ< =","Ġ6 0","un e","Ġag ree","Ġe p","Ġhe av","ter m","Ġmov ie","et ime","Ġch r","ess ion","f low","Ġrequ ires","ĠâĢ ¢","Ġconst ant","Ġb ir","Ġma p","form at","Ġstart ed","Ġf ast","st at","mod el","Ġproper ties","en ess","Ġopportun ities","g rou","Ġfl avor","Ġs low","Ġl iving","stru ction","Ġpre c","Ġreg ard","Ġpur pose","Ġenvironment al","Ġ Ã","Ġerr ors","Ġenh ance","Ġvirt ual","4 5","Ġbra in","Ġdirect ly","b it","m er","t ings","ag ed","Ġ- --","Ġint ellig","Ġlist en","Ġprocess es","Ġr ich","em ail","Ġsim ply","Ġp sy","it able","Ġan g","Ġplatform s","Ġsec ure","Ġprin ci","Ġd aily","Ġset s","Ġmon itor","Ġr ules","u ps","Ġt ables","Ġf re","print ln","s l","Ġto ken","Ġemploye es","Ġf ib","Ġpro pos","Ġret rie","Ġprodu ce","Ġtop ic","Ġb inary","Ġinvol ved","Ġencoura ge","Ġstat us","Ġl ives","pe cial","Ġpat terns","Ġtyp ically","Ġfe et","to ken","Ġfil ter","m ost","p x","Ġco ver","Ġl ater","Ġra di","k now","ast ic","Ġthem selves","Ġits elf","Ġflo at","Ġaltern ative","Ġc and","lo ck","Ġnew s","Ġprim ary","Ġon es","Ġcol ors","e qu","Ġcl aim","Ġa im","Ġdis e","Ġaw are","Ġfollow s","Ġd am","Ġspe ak","Ġdisc over","num bers","Ġcho ices","Ġ _","pecial ly","Ġam az","lab el","u ff","Ġnum er","Ġcre ative","but ton","b re","Ġs ite","Ġexist ing","Ġparamet er","wr ite","h y","il led","tr ans","he mat","Ġtr ust","Ġcon struct","Ġj e","Ġsoc iety","Ġincre asing","w in","Ġjo hn","Ġarch ite","g s","Ġb ill","ar c","Ġwas te","cur rent","Ġarg uments","h ost","if ul","Ġchall enge","] [","Ġcon ver","() )","Ġcir c","a i","l ished","t ag","et ch","ens ive","Ġs leep","Ġem erg","Ġever ything","r ics","Ġcon duct","Ġex c","Ġcomp are","Ġlet ters","wh at","Ġ __","Ġl oss","Ġan ything","Ġfrequ ency","at ives","Ġb ur","ap an","erm an","Ġstreng th","f ind","cl es","cl ient","sc ript","le ft","am b","d f","pass word","ĠĠĠĠ ĠĠ","wor ld","g ory","ac he","Ġsp read","Ġlim ited","Ġes pecially","et er","Ġins ert","Ġcrit ical","p ers","ep end","Ġmot iv","wor ks","Ġeas ily","art ment","Ġcorrespon ding","Ġass um","Ġwar m","it er","ove red","Ġhelp ful","Ġs lic","ic les","w idth","Ġbu y","Ġsepar ate","a ur","Ġs weet","Ġn ove","Ġw atch","Ġf ail","Ġre ality","Ġcre ates","Ġthin king","Ġpart y","Ġph il","Ġsent ences","Ġunivers ity","Ġcontain ing","he nt","ir m","e mp","Ġveget ables","Ġsmo oth","Ġn p","Ġdirect ory","m ark","Ġp un","Ġsymb ol",". )","in ct","Ġro ad","Ġreg ion","Ġallow ing","Ġs ays","ra int","Ġsh o","Ġprocess ing","Ġproject s","Ġact ive","b an","g r","for d","f l","Ġal ph","Ġexp and","friend ly","z a","Ġe cho","oc ol","ag raph","Ġeuro pe","ye ar","Ġch ann","Ġj apan","Ġquick ly","at t","Ġd im","Ġcl oud","t able","Ġc ross","el low","Ġv i","Ġb an","Ġ{ \"","Ġsmall er","Ġs end","Ġpolit ical","Ġ )","Ġb ad","ub e","pr ime","Ġb ound","Ġe yes","Ġdevelop ing","Ġadv anced","mess age","Ġact ual","Ġpop ulation","Ġlar ger","Ġo l","Ġstr ugg","Ġhand ling","Ġhealth care","ic ed","con ds","Ġresult ing","Ġdep end","d a","Ġthan ks","Ġvo ice","Ġsur face","Ġm ass","Ġpass age","Ġst ream","Ġapp l","Ġsc reen","Ġsuggest ions","Ġdiv is","a res","Ġsp aces","Ġcogn itive","Ġtr uth","Ġcre am","htt p","med i","Ġbeaut iful","p ost","Ġapp re","ww w","m ain","il s","Ġout side","Ġmay be","Ġf lex","Ġmat hemat","Ġtre nd","f ol","Ġspec ies","Ġoper ation","Ġmill ion","le vel","c sv","Ġw ood","Ġscient ific","Ġp ark","Ġi r","Ġsaf ety","Ġsm art","Ġfun c","e f","Ġp al","() :","Ġwe ather","Ġdel iver","Ġdev ices","am ple","Ġmat ter","Ġalgorith ms","Ġval u","pr ice","li ke","ob ject","Ġread ing","Ġrenew able","f ree","us ion","Ġp ick","el ine","Ġorgan izations","Ġs and","Ġo pp","Ġsc ene","() .","Ġcru cial","stat us","en ame","00 00","Ġg ir","Ġm er","Ġr ates","Ġass ess","f rame","Ġuse ful","Ġexerc ise","out put","Ġsc al","Ġappe ar","Ġtransport ation","Ġre verse","ag ram","Ġdet ect","Ġg od","Ġtoo k","fun ction","Ġphr ase","3 3","Ġal ign","Ġanim als","y ou","Ġ} );","Ġc ou","Ġmeas ures","ac hed","Ġco ord","Ġra ise","Ġpar agraph","Ġpre ferences","Ġt aken","lo y","Ġeffic iency","Ġhigh ly","Ġappro x","ic ks","Ġins ights","Ġcap ital","he st","ro ll","7 5","Ġt ax","Ġac ad","Ġrow s","Ġemot ions","Ġl ack","iv eness","pl ic","Ġsent iment","Ġet c","' ;","Ġre act","bu ild","Ġpack age","Ġens uring","ic ious","Ġelect ric","Ġpolic y","( (","Ġf ront","Ġpsy ch","Ġt one","Ġappre ci","} $.","Ġs us","Ġdef in","Ġ ]","Ġan c","Ġad min","Ġmod ified","Ġmil es","pos ition","h and","Ġb ott","Ġpl ot","Ġdes p","know n","as c","Ġdec isions","Ġspecif ically","Ġm ount","Ġro ll","Ġbut ter","Ġdis h","Ġlong er","Ġrev enue","grou p","Ġw ide","er ia","Ġw idth","Ġadv ant","Ġpract ical","on acc","Ġd ance","Ġad vert","Ġfeel ing","requ est","Ġiter ate","Ġst ri","Ġeas ier","Ġcomb ination","Ġt ur","st ate","ure d","Ġfind ing","Ġco ol","Ġsal ad","Ġlab el","Ġcomp os","Ġ### #","Ġmob ile","Ġhigh light","Ġconf lic","t ot","Ġdep ending","t a","Ġintern ational","Ġform s","Ġgener ated","Ġinflu ence","Ġhistor ical","Ġchr ist","h ol","c os","o res","Ġ2 2","Ġspir it","b t","Ġmess ages","Ġdev ice","Ġbrow n","Ġre se","Ġl if","Ġde ath","Ġinteg r","ful ly","pro cess","Ġmil k","Ġabs ol","Ġincorpor ate","Ġg erman","Ġexper t","Ġph one","Ġbow l","Ġw all","Ġf ish","Ġat temp","Ġbec ame","onacc i","ach ing","i ans","Ġplay ed","ous ly","cre ate","Ġw est","ul ations","Ġz ero","ir ing","Ġprote in","Ġu nd","o x","ot es","Ġcar bon","9 0","Ġc m","Ġwr ong","Ġf u","Ġatt ack","Ġhum ans","Ġevalu ate","Ġc ounter","Ġstor ies","ic ing","Ġmed ical","Ġbud get","Ġ2 1","Ġplay ing","Ġaut hent","Ġcolum ns","i os","le br","Ġst re","w here","Ġmin imum","Ġcommun ities","Ġorgan ization","Ġtas te",") ^","Ġprint s","Ġm el","Ġsy nt","Ġbro ad","Ġl ov","Ġk ing","Ġtra de","Ġmove ment","Ġdom ain","Ġm it","Ġbe gan","a ff","Ġl os","Ġloo ks","Ġinvol ve","Ġcare er","Ġ\"\" \"","ar ily","he t","Ġst age","Ġfor ce","Ġdef ined","Ġbelie fs","Ġc atch","Ġcont ract","Ġintellig ence","Ġt ou","Ġo dd","Ġm iddle","ent er","Ġsh ape","Ġestab lish","l ib","et imes","r ange","for ce","Ġcol lection","Ġrel i","in te","f it","l ines","ic on","un k","Ġb read","xt ure","Ġrem ind","Ġengage ment","Ġaccur ate","y pe","Ġsh ared","Ġk new","ren ch","Ġcontain er","Ġcom fort","Ġbre ath","Ġmonth s","Ġlink ed","2 4","Ġallow ed","Ġlar gest","u ations","Ġbo ard","Ġy og","Ġj ack","po on","Ġcomple t","Ġwal k","Ġfor ward","rom e","Ġinterest ing","ab et","Ġsuggest s","b b","ific ations","p es","Ġo k","Ġhapp y","er ate","Ġtechn ologies","Ġcorrect ly","p ack","ph one","= '","l ate","Ġoff ice","e ks","ip ment","h ood","Ġjour n","Ġvol ume","Ġoptim ize","Ġr at","r s","Ġp and","Ġth row","Ġconst raint","c an","Ġinclud ed","Ġloc ated","d ed","s es","Ġw ild","Ġconcept s","Ġtal k","Ġd ire","Ġcop y","Ġsk y","Ġadv ent","Ġce lebr","u racy","Ġrec ent","Ġrecurs ive","n y","t d","Ġsou th","6 5","Ġ Ð","s qrt","in ate","Ġp ict","Ġcurrent ly","Ġn arr","Ġde cl","Ġt en","Ġout comes","Ġlibr aries","Ġcontrib ute","i ation","od ing","Ġdevelop ed","Ġdat aset","Ġinvest ig","Ġgiv es","m ore","Ġm aster","Ġrece ive","Ġhtt ps","Ġmed ium","Ġg ram","Ġun c","Ġob ser","Ġplan ning","Ġwom en","Ġhypot hesis","Ġc ame","ra ys","ify ing","Ġmat ches","ð Ł","Ġgar lic","Ġcoo king","or ate","Ġth read","Ġres pective","Ġv an","Ġlist s","Ġdid n","se mb","Ġh un","s ol","Ġp ars","Ġche m","Ġfru it","s plit","w ers","Ġch ain","p u","Ġbe comes","Ġcomb ined","Ġegg s","at en","Ġsec ret","Ġlay er","Ġcam er","Ġb ul","Ġd ress","Ġmult ip","Ġgl ass","Ġp ush","l ife",".\" )","7 0","f rom","or g","Ġf elt","Ġref ers","te red","Ġtra ffic","Ġrest aur","Ġro d","Ġâ Ī","Ġsche du","Ġb and","Ġwom an","} $","Ġto mat","st yle","Ġbe y","Ġpl ain","Ġimplement ing","Ġimpro ving","Ġcomb ine","c lo","Ġother wise","Ġpie ces","p ace","Ġn est","Ġsa fe","Ġdet ail","Ġaf ric","Ġsur round","le g","Ġrec ip","Ġintrodu ction","Ġd er","Ġsc ale","Ġconsider ing","Ġsumm ar","Ġmi xture","' d","3 4","Ġc iv","Ġse a","Ġsh ap","sequ ences","ur t","rie f","Ġg ard","Ġ8 0","Ġjo in",") (","Ġr ule","Ġwor th","Ġus ually","Ġdist inct","Ġshow s","Ġhig hest","ow s","Ġaspect s","k y","Ġh ab","ffic ient","Ġapp le","Ġcomp ared","Ġth re","** :","Ġw id","Ġe th","Ġg as","Ġpolic ies","il ing","yn c","Ġrequest s","k a","Ġsom etimes","s he","os op","Ġthough ts","Ġm other","Ġ1 000","con nect","Ġinst it","Ġtechn ical","Ï Ģ","Ġcomp ar","Ġmind ful","Ġdesp ite","Ġd ed","Ġra d","wr ong","a ks","Ġsol ar","Ġfore st","Ġsn ipp","Ġen able","\\*\\* \\*\\*","Ġan x","Ġhand s","Ġatt ract","Ġs ix","Ġun it","ri ed","Ġill ust","Ġrev olution","Ġre ference","ra ndom","Ġconc er","Ġvalu able","t es","Ġle ave","Ġclass es","Ġask ed","Ġa lex","Ġb ag","Ġr ational","Ġhas h","respon se","Ġopportun ity","p age","in o","Ġsp r","Ġdri ve","Ġres ource","ang er","Ġcent ral","Ġex change","anc ing","Ġve ctor","Ġreason ing","6 7","p ret","Ġm s","Ġto wn","Ġpr ices","Ġimplement ed","Ġelect ron","zz le","Ġbey ond","Ġf rench","Ġ2 3","conf ig","Ġ ,","on y","th ough","Ġres ol","Ġ} ;","Ġsp o","Ġel ab","re f","ro ot","om s","Ġsk in","Ġphil osop","Ġex h","Ġimpro ved","Ġcell s","b ase","l in","um b","idd en","ari an","e v","l im","Ġm ist","Ġl ost","x y","Ġpre fer","Ġhelp ed","z y","Ġun its","c ar","Ġdiv ide","Ġfactor ial","im ize","Ġfavor ite","Ġre le","Ġsubst it","Ġexact ly","Ġd ru","Ġpl ants","ff er","( [","it ory","Ġdown load","Ġv ary","Ġsty les","Ġst ir","if f","Ġunivers e","Ġw ent","Ġshe et","che ck","cd ot","s m","Ġthem e","Ġgra nd","Ġcate gor","re es","Ġwe eks","Ġse m","Ġy ork","Ġch ina","Ġj ud","Ġcent ury"]}}