{"version":"1.0","truncation":null,"padding":null,"added_tokens":[{"id":0,"content":"<PAD>","single_word":false,"lstrip":false,"rstrip":false,"normalized":false,"special":true},{"id":1,"content":"<BOS>","single_word":false,"lstrip":false,"rstrip":false,"normalized":false,"special":true},{"id":2,"content":"<EOS>","single_word":false,"lstrip":false,"rstrip":false,"normalized":false,"special":true},{"id":3,"content":"<UNK>","single_word":false,"lstrip":false,"rstrip":false,"normalized":false,"special":true},{"id":4,"content":"{","single_word":false,"lstrip":false,"rstrip":false,"normalized":false,"special":true},{"id":5,"content":"}","single_word":false,"lstrip":false,"rstrip":false,"normalized":false,"special":true},{"id":6,"content":"[","single_word":false,"lstrip":false,"rstrip":false,"normalized":false,"special":true},{"id":7,"content":"]","single_word":false,"lstrip":false,"rstrip":false,"normalized":false,"special":true},{"id":8,"content":":","single_word":false,"lstrip":false,"rstrip":false,"normalized":false,"special":true},{"id":9,"content":",","single_word":false,"lstrip":false,"rstrip":false,"normalized":false,"special":true},{"id":10,"content":"\"","single_word":false,"lstrip":false,"rstrip":false,"normalized":false,"special":true},{"id":11,"content":"\n","single_word":false,"lstrip":false,"rstrip":false,"normalized":false,"special":true}],"normalizer":{"type":"Sequence","normalizers":[{"type":"NFC"},{"type":"Lowercase"}]},"pre_tokenizer":{"type":"ByteLevel","add_prefix_space":true,"trim_offsets":true,"use_regex":true},"post_processor":{"type":"TemplateProcessing","single":[{"SpecialToken":{"id":"<BOS>","type_id":0}},{"Sequence":{"id":"A","type_id":0}},{"SpecialToken":{"id":"<EOS>","type_id":0}}],"pair":[{"SpecialToken":{"id":"<BOS>","type_id":0}},{"Sequence":{"id":"A","type_id":0}},{"SpecialToken":{"id":"<EOS>","type_id":0}},{"Sequence":{"id":"B","type_id":1}},{"SpecialToken":{"id":"<EOS>","type_id":1}}],"special_tokens":{"<BOS>":{"id":"<BOS>","ids":[1],"tokens":["<BOS>"]},"<EOS>":{"id":"<EOS>","ids":[2],"tokens":["<EOS>"]}}},"decoder":{"type":"ByteLevel","add_prefix_space":true,"trim_offsets":true,"use_regex":true},"model":{"type":"BPE","dropout":null,"unk_token":null,"continuing_subword_prefix":null,"end_of_word_suffix":null,"fuse_unk":false,"byte_fallback":false,"ignore_merges":false,"vocab":{"<PAD>":0,"<BOS>":1,"<EOS>":2,"<UNK>":3,"{":4,"}":5,"[":6,"]":7,":":8,",":9,"\"":10,"\n":11,"!":12,"#":13,"$":14,"%":15,"&":16,"'":17,"(":18,")":19,"*":20,"+":21,"-":22,".":23,"/":24,"0":25,"1":26,"2":27,"3":28,"4":29,"5":30,"6":31,"7":32,"8":33,"9":34,";":35,"<":36,"=":37,">":38,"?":39,"@":40,"_":41,"`":42,"a":43,"b":44,"c":45,"d":46,"e":47,"f":48,"g":49,"h":50,"i":51,"j":52,"k":53,"l":54,"m":55,"n":56,"o":57,"p":58,"q":59,"r":60,"s":61,"t":62,"u":63,"v":64,"w":65,"x":66,"y":67,"z":68,"¦":69,"§":70,"¨":71,"©":72,"±":73,"½":74,"¿":75,"Â":76,"Ã":77,"â":78,"ï":79,"Ċ":80,"Ġ":81,"Ģ":82,"ĵ":83,"Ķ":84,"ĺ":85,"Ļ":86,"ľ":87,"Ŀ":88,"ł":89,"Ń":90,"Ġt":91,"he":92,"Ġa":93,"in":94,"Ġw":95,"Ġs":96,"re":97,"ou":98,"Ġthe":99,"Ġo":100,"Ġi":101,"ha":102,"Ġb":103,"ed":104,"er":105,"ing":106,"nd":107,"Ġc":108,"Ġm":109,"Ġy":110,"Ġf":111,"Ġd":112,"Ġto":113,"on":114,"ll":115,"Ġl":116,"Ġhe":117,"Ġe":118,"Ġg":119,"Ġyou":120,"ar":121,"Ġp":122,"st":123,"Ġn":124,"en":125,"or":126,"ow":127,"an":128,"it":129,"Ġand":130,"hat":131,"es":132,"Ġof":133,"hi":134,"om":135,"Ġin":136,"at":137,"Ġit":138,"Ġbe":139,"Ġu":140,"ve":141,"Ġher":142,"ay":143,"al":144,"et":145,"gh":146,"Ġthat":147,"ot":148,"Ġha":149,"Ġshe":150,"ld":151,"as":152,"âĢ":153,"ri":154,"Ġre":155,"Ġon":156,"ac":157,"Ġwe":158,"oo":159,"..":160,"se":161,"Ġst":162,"le":163,"Ġli":164,"ver":165,"ic":166,"Ġk":167,"âĢĻ":168,"Ġj":169,"'s":170,"his":171,"ly":172,"ght":173,"ut":174,"Ġh":175,"Ġwit":176,"Ġth":177,"Ġwith":178,"==":179,"id":180,"ent":181,"Ġel":182,"out":183,"Ġfor":184,"ir":185,"am":186,"Ġwas":187,"Ġme":188,"ke":189,"ill":190,"now":191,"ro":192,"Ġwhat":193,"ec":194,"Ġan":195,"ust":196,"ion":197,"all":198,"Ġis":199,"ag":200,"ee":201,"ea":202,"Ġas":203,"ara":204,"Ġdo":205,"Ġso":206,"Ġelara":207,"Ġthis":208,"Ġnot":209,"ook":210,"Ġne":211,"is":212,"ho":213,"ould":214,"ur":215,"Ġknow":216,"Ġbut":217,"Ġno":218,"'t":219,"Ġmy":220,"ore":221,"ure":222,"ain":223,"Ġjust":224,"ome":225,"ce":226,"Ġgo":227,"Ġoh":228,"...":229,"her":230,"im":231,"Ġhi":232,"Ġv":233,"ad":234,"rou":235,"red":236,"Ġab":237,"ant":238,"Ġok":239,"Ġthey":240,"Ġal":241,"hing":242,"pp":243,"Ġwhe":244,"Ġhave":245,"Ġone":246,"rom":247,"and":248,"Ġint":249,"Ġwor":250,"ind":251,"Ġup":252,"han":253,"Ġwho":254,"one":255,"Ġex":256,"Ġall":257,"ood":258,"Ġcan":259,"ge":260,"very":261,"art":262,"ally":263,"Ġtr":264,"our":265,"Ġabout":266,"Ġun":267,"Ġsp":268,"Ġfrom":269,"ight":270,"qu":271,"ers":272,"Ġri":273,"Ġr":274,"Ġat":275,"ess":276,"ch":277,"br":278,"reat":279,"Ġdon":280,"Ġyour":281,"Ġare":282,"eah":283,"Ġhad":284,"Ġgu":285,"Ġout":286,"Ġyeah":287,"Ġthere":288,"Ġwill":289,"il":290,"ous":291,"un":292,"Ġlike":293,"um":294,"Ġby":295,"Ġsee":296,"Ġokay":297,"ul":298,"el":299,"op":300,"ear":301,"iz":302,"'m":303,"ss":304,"Ġhow":305,"Ġcon":306,"ter":307,"ation":308,"Ġwell":309,"Ġ\"":310,"Ġlo":311,"ard":312,"ack":313,"Ġen":314,"ity":315,"ound":316,"age":317,"ved":318,"Ġhey":319,"per":320,"ame":321,"if":322,"Ġright":323,"ck":324,"ink":325,"Ġtim":326,"Ġor":327,"lo":328,"ong":329,"Ġget":330,"Ġdid":331,"ect":332,"ell":333,"ry":334,"led":335,"Ġwould":336,"ate":337,"Ġro":338,"Ġevery":339,"wn":340,"ne":341,"ast":342,"nder":343,"Ġcould":344,"Ġany":345,"'re":346,"ab":347,"na":348,"Ġhere":349,"Ġtime":350,"Ġbec":351,"est":352,"Ġthan":353,"Ġtre":354,"Ġqu":355,"dd":356,"us":357,"Ġsa":358,"aint":359,"Ġcom":360,"Ġ==":361,"===":362,"Ġ=====":363,"ace":364,"Ġinto":365,"ake":366,"Ġif":367,"ned":368,"Ġwere":369,"Ġwillow":370,"Ġthink":371,"Ġday":372,"fe":373,"Ġpl":374,"ies":375,"Ġhis":376,"Ġtheir":377,"brook":378,"omet":379,"Ġwillowbrook":380,"ig":381,"hed":382,"Ġwhen":383,"au":384,"Ġlook":385,"ak":386,"Ġthem":387,"Ġwant":388,"ra":389,"ven":390,"Ġsomet":391,"sel":392,"rough":393,"Ġsh":394,"Ġsome":395,"Ġthrough":396,"ach":397,"th":398,"Ġam":399,"Ġar":400,"co":401,"Ġmo":402,"Ġus":403,"ory":404,"Ġman":405,"ct":406,"ie":407,"pl":408,"Ġunder":409,"Ġsu":410,"hy":411,"Ġuh":412,"Ġtal":413,"way":414,"Ġhim":415,"end":416,"Ġnew":417,"Ġback":418,"Ġcha":419,"ving":420,"Ġover":421,"ther":422,"Ġco":423,"Ġreal":424,"ts":425,"Ġreally":426,"round":427,"Ġsha":428,"Ġnow":429,"sp":430,"ide":431,"onna":432,"ice":433,"Ġgonna":434,"ap":435,"Ġpe":436,"self":437,"ist":438,"Ġdis":439,"dden":440,"amed":441,"Ġwhere":442,"Ġpro":443,"Ġgood":444,"ious":445,"Ġgot":446,"Ġag":447,"Ġjo":448,"Ġwhi":449,"Ġold":450,"Ġvill":451,"ren":452,"Ġcome":453,"Ġlea":454,"Ġlily":455,"mb":456,"Ġguy":457,"ue":458,"Ġsec":459,"Ġsomething":460,"Ġits":461,"Ġmean":462,"low":463,"ci":464,"Ġgreat":465,"Ġupon":466,"ive":467,"Ġmore":468,"Ġsm":469,"ings":470,"Ġlet":471,"mm":472,"Ġeach":473,"ark":474,"Ġad":475,"Ġmag":476,"âĢĶ":477,"Ġother":478,"Ġeven":479,"Ġbeen":480,"Ġle":481,"Ġwork":482,"Ġfore":483,"Ġstory":484,"ople":485,"Ġfin":486,"ause":487,"ep":488,"ol":489,"Ġgr":490,"Ġpow":491,"Ġthen":492,"ort":493,"Ġcont":494,"ling":495,"itt":496,"Ġworld":497,"Ġwhy":498,"Ġdec":499,"ng":500,"Ġmagic":501,"Ġway":502,"ose":503,"Ġsc":504,"Ġgoing":505,"Ġsay":506,"we":507,"Ġpre":508,"Ġpeople":509,"own":510,"ass":511,"vent":512,"Ġbet":513,"Ġnamed":514,"Ġart":515,"Ġoff":516,"ning":517,"ond":518,"Ġthou":519,"Ġthank":520,"riend":521,"Ġdee":522,"ves":523,"Ġheart":524,"ary":525,"be":526,"Ġwhis":527,"Ġcreat":528,"med":529,"Ġbook":530,"ick":531,"ures":532,"Ġsecre":533,"Ġhapp":534,"Ġse":535,"Ġhel":536,"Ġneed":537,"Ġtoo":538,"Ġonce":539,"fore":540,"Ġapp":541,"ft":542,"Ġeliz":543,"Ġsor":544,"Ġexpl":545,"are":546,"Ġhelp":547,"Ġfound":548,"Ġbefore":549,"Ġaf":550,"Ġonly":551,"Ġaround":552,"ran":553,"Ġeliza":554,"Ġmyst":555,"Ġvillage":556,"Ġcl":557,"ued":558,"know":559,"Ġgod":560,"Ġtell":561,"Ġyoung":562,"Ġfind":563,"Ġlived":564,"Ġdisco":565,"Ġhidden":566,"Ġpaint":567,"king":568,"ey":569,"Ġyes":570,"thing":571,"Ġclo":572,"urned":573,"ment":574,"Ġpower":575,"ered":576,"Ġlove":577,"os":578,"umb":579,"Ġdre":580,"get":581,"ait":582,"oun":583,"Ġtown":584,"Ġim":585,"cient":586,"dy":587,"Ġyear":588,"Ġbo":589,"Ġrealiz":590,"act":591,"Ġem":592,"side":593,"Ġagain":594,"Ġfriend":595,"uri":596,"Ġwhile":597,"Ġsaid":598,"Ġdown":599,"ided":600,"Ġbeg":601,"Ġret":602,"Ġmyster":603,"Ġthose":604,"ened":605,"ated":606,"Ġlife":607,"Ġancient":608,"Ġown":609,"Ġrem":610,"Ġcall":611,"Ġwood":612,"Ġwom":613,"Ġnight":614,"ath":615,"Ġfee":616,"Ġunderst":617,"ions":618,"Ġforest":619,"ire":620,"Ġafter":621,"Ġtw":622,"Ġour":623,"Ġguys":624,"Ġknown":625,"Ġhome":626,"'ll":627,"Ġmon":628,"Ġwithin":629,"Ġbecause":630,"Ġwis":631,"ways":632,"Ġac":633,"ance":634,"other":635,"?!":636,"so":637,"Ġthese":638,"vered":639,"ful":640,"Ġnever":641,"Ġmr":642,"ite":643,"Ġtrue":644,"Ġsorry":645,"Ġshould":646,"Ġjour":647,"Ġalways":648,"Ġdidn":649,"pt":650,"Ġlear":651,"Ġwait":652,"ble":653,"Ġhar":654,"Ġmu":655,"Ġact":656,"Ġmake":657,"ittle":658,"Ġde":659,"Ġlittle":660,"Ġdet":661,"Ġchan":662,"Ġwoman":663,"Ġmay":664,"Ġalso":665,"ney":666,"Ġtake":667,"ached":668,"Ġbel":669,"Ġkind":670,"Ġdecided":671,"ine":672,"!!":673,"Ġbecame":674,"Ġadvent":675,"ence":676,"Ġsmall":677,"Ġrealized":678,"gether":679,"ff":680,"Ġwoods":681,"ined":682,"Ġpart":683,"Ġread":684,"Ġenc":685,"Ġjourney":686,"irl":687,"Ġtogether":688,"ase":689,"erm":690,"Ġstu":691,"ian":692,"Ġunderstand":693,"ering":694,"illed":695,"Ġgirl":696,"ding":697,"new":698,"Ġbegan":699,"Ġherself":700,"Ġfir":701,"ward":702,"ount":703,"Ġhand":704,"Ġpo":705,"Ġwat":706,"Ġbr":707,"ave":708,"aut":709,"Ġquaint":710,"Ġsur":711,"Ġmuch":712,"Ġfirst":713,"ade":714,"Ġintri":715,"Ġho":716,"Ġdoes":717,"ations":718,"Ġche":719,"ree":720,"Ġreve":721,"ever":722,"ained":723,"Ġtreas":724,"ise":725,"Ġ1":726,"no":727,"Ġever":728,"Ġey":729,"Ġop":730,"Ġglow":731,"Ġlong":732,"read":733,"Ġcuri":734,"ness":735,"ked":736,"Ġsk":737,"Ġwr":738,"'ve":739,"ull":740,"ather":741,"Ġmic":742,"Ġyears":743,"able":744,"Ġfo":745,"Ġfilled":746,"Ġpass":747,"Ġross":748,"Ġthought":749,"umbled":750,"Ġseemed":751,"elt":752,"Ġcar":753,"Ġpr":754,"Ġlight":755,"Ġwhisper":756,"hael":757,"Ġthing":758,"Ġnat":759,"Ġstumbled":760,"Ġhu":761,"ween":762,"bo":763,"ted":764,"Ġknew":765,"Ġbetween":766,"Ġvery":767,"Ġmichael":768,"iv":769,"ting":770,"Ġdeterm":771,"Ġdes":772,"Ġfelt":773,"de":774,"Ġlist":775,"Ġcour":776,"Ġdiscovered":777,"found":778,"Ġland":779,"Ġstran":780,"Ġsecrets":781,"xt":782,"iss":783,"Ġbeh":784,"Ġset":785,"ott":786,"Ġbehind":787,"Ġmom":788,"ons":789,"Ġinside":790,"right":791,"dom":792,"Ġcontin":793,"Ġstart":794,"Ġbu":795,"Ġguard":796,"ledge":797,"Ġplace":798,"Ġbelie":799,"Ġimp":800,"ler":801,"Ġper":802,"day":803,"Ġdoing":804,"Ġreveal":805,"ually":806,"Ġword":807,"Ġknowledge":808,"Ġmysterious":809,"als":810,"Ġgre":811,"Ġend":812,"ors":813,"Ġwasn":814,"Ġfriends":815,"Ġdeep":816,"Ġhas":817,"ĠâĢ":818,"Ġtree":819,"Ġte":820,"Ġbeaut":821,"Ġwal":822,"Ġtwo":823,"hel":824,"Ġcomp":825,"Ġchi":826,"feren":827,"Ġfeel":828,"Ġmade":829,"Ġhop":830,"ins":831,"Ġple":832,"Ġwhispering":833,"Ġdr":834,"ged":835,"Ġothers":836,"Ġwar":837,"Ġjoey":838,"body":839,"Ġpi":840,"Ġeveryone":841,"Ġreturned":842,"by":843,"Ġexc":844,"Ġinsp":845,"Ġrac":846,"Ġeyes":847,"Ġmaybe":848,"Ġdif":849,"Ġroom":850,"ces":851,"Ġmost":852,"ense":853,"Ġquest":854,"ily":855,"Ġum":856,"Ġcame":857,"oth":858,"Ġkee":859,"Ġstill":860,"Ġcomm":861,"Ġeld":862,"les":863,"Ġsure":864,"ps":865,"ang":866,"Ġwithout":867,"Ġdeeper":868,"Ġtri":869,"Ġmor":870,"Ġnext":871,"Ġsomeone":872,"Ġintrig":873,"Ġanything":874,"Ġlast":875,"Ġpa":876,"Ġwisdom":877,"Ġfl":878,"ross":879,"sc":880,"Ġaway":881,"ks":882,"Ġmap":883,"Ġnear":884,"Ġstrange":885,"Ġdark":886,"urn":887,"ans":888,"av":889,"aking":890,"Ġplease":891,"Ġwee":892,"uring":893,"Ġmar":894,"Ġdifferen":895,"Ġbig":896,"ched":897,"Ġlearned":898,"Ġintrigued":899,"the":900,"Ġdw":901,"ating":902,"ica":903,"orm":904,"ical":905,"Ġdays":906,"Ġfam":907,"'d":908,"Ġdetermined":909,",\"":910,"Ġmagical":911,"Ġsudden":912,"llen":913,"Ġfun":914,"Ġfinally":915,"hh":916,"Ġcontinued":917,"Ġwhich":918,"Ġbl":919,"Ġnewfound":920,"Ġchallen":921,"Ġmorning":922,"Ġgive":923,"Ġtry":924,"Ġdwight":925,"Ġforg":926,"Ġpers":927,"Ġthings":928,"Ġbey":929,"Ġ-":930,"pped":931,"Ġbeyond":932,"Ġnature":933,"Ġactually":934,"Ġ'":935,"Ġboth":936,"Ġser":937,"iar":938,"Ġlay":939,"Ġsecret":940,"Ġeverything":941,"ser":942,"ial":943,"Ġplay":944,"Ġcry":945,"Ġhowever":946,"Ġtalk":947,"Ġdream":948,"ected":949,"hes":950,"Ġchand":951,"Ġcity":952,"Ġwow":953,"Ġshow":954,"Ġcle":955,"Ġthough":956,"Ġshi":957,"Ġbab":958,"Ġfig":959,"Ġsun":960,"Ġow":961,"aught":962,"ute":963,"Ġguardian":964,"ool":965,"Ġvis":966,"ms":967,"Ġlisten":968,"Ġtreasure":969,"Ġchandler":970,"ru":971,"Ġanother":972,"Ġspir":973,"oney":974,"Ġappro":975,"ty":976,"Ġalong":977,"Ġthanks":978,"ages":979,"Ġsaw":980,"ia":981,"Ġspirit":982,"Ġcare":983,"Ġfe":984,"ges":985,"mber":986,"Ġstop":987,"Ġpath":988,"Ġsy":989,"Ġgrand":990,"gend":991,"ny":992,"Ġben":993,"ching":994,"ord":995,"Ġperson":996,"Ġhell":997,"Ġmight":998,"lls":999,"Ġdifferent":1000,"ater":1001,"Ġlegend":1002,"Ġfar":1003,"osity":1004,"row":1005,"llow":1006,"Ġwhisp":1007,"less":1008,"ail":1009,"Ġusing":1010,"Ġspread":1011,"Ġtold":1012,"Ġbelieve":1013,"Ġunt":1014,"Ġbeing":1015,"Ġhum":1016,"Ġturned":1017,"Ġmoment":1018,"Ġshad":1019,"Ġleft":1020,"oke":1021,"Ġunderstanding":1022,"Ġcuriosity":1023,"Ġmonica":1024,"Ġacross":1025,"Ġuse":1026,"Ġjim":1027,"Ġadventure":1028,"ike":1029,"Ġgif":1030,"Ġpho":1031,"Ġrachel":1032,"Ġconn":1033,"Ġent":1034,"Ġprot":1035,"anna":1036,"Ġreached":1037,"ities":1038,"Ġair":1039,"Ġface":1040,"Ġinst":1041,"Ġpainting":1042,"Ġ2":1043,"Ġdoor":1044,"Ġsometim":1045,"Ġgen":1046,"aring":1047,"Ġkeep":1048,"Ġput":1049,"Ġexplore":1050,"Ġshadow":1051,"Ġused":1052,"ens":1053,"Ġartist":1054,"Ġwise":1055,"Ġtrees":1056,"Ġless":1057,"Ġnice":1058,"ead":1059,"Ġwanna":1060,"Ġhist":1061,"Ġfine":1062,"Ġalright":1063,"Ġresp":1064,"Ġsuddenly":1065,"Ġuni":1066,"Ġmind":1067,"ouse":1068,"Ġvo":1069,"Ġbetter":1070,"Ġreme":1071,"aced":1072,"Ġloc":1073,"Ġphoe":1074,"Ġid":1075,"ough":1076,"Ġbra":1077,"Ġpast":1078,"Ġstre":1079,"Ġlost":1080,"Ġfigure":1081,"Ġsometimes":1082,"Ġflow":1083,"Ġyet":1084,"Ġamong":1085,"ced":1086,"ird":1087,"Ġgrew":1088,"ner":1089,"agers":1090,"oring":1091,"Ġch":1092,"Ġpam":1093,"ild":1094,"Ġname":1095,"ple":1096,"Ġumm":1097,"Ġwand":1098,"Ġdep":1099,"Ġste":1100,"Ġhope":1101,"iced":1102,"Ġspent":1103,"Ġsound":1104,"ars":1105,"Ġcommun":1106,"Ġabil":1107,"Ġopen":1108,"Ġhour":1109,"Ġvillagers":1110,"Ġhold":1111,"Ġtalking":1112,"Ġcreatures":1113,"Ġprotect":1114,"Ġapproached":1115,"Ġnothing":1116,"Ġwanted":1117,"Ġphoebe":1118,"Ġmet":1119,"ecul":1120,"oh":1121,"ired":1122,"Ġenchan":1123,"Ġcourage":1124,"ited":1125,"Ġgold":1126,"Ġah":1127,"la":1128,"bs":1129,"Ġbaby":1130,"Ġmin":1131,"uth":1132,"inary":1133,"Ġlot":1134,"ried":1135,"Ġunco":1136,"Ġlibr":1137,"Ġmany":1138,"Ġready":1139,"Ġatt":1140,"Ġwind":1141,"Ġpecul":1142,"Ġpeculiar":1143,"Ġoak":1144,"Ġsoft":1145,"Ġelse":1146,"Ġcent":1147,"Ġinc":1148,"Ġsoon":1149,"ush":1150,"ination":1151,"Ġuntil":1152,"Ġhappened":1153,"ual":1154,"lock":1155,"Ġseen":1156,"Ġfollow":1157,"Ġowl":1158,"Ġwent":1159,"Ġstood":1160,"Ġgener":1161,"Ġimport":1162,"ets":1163,"Ġartif":1164,"Ġconnect":1165,"lling":1166,"Ġshared":1167,"Ġchild":1168,"Ġaw":1169,"Ġwall":1170,"uck":1171,"Ġexper":1172,"Ġpassed":1173,"Ġhuh":1174,"em":1175,"Ġnoticed":1176,"Ġcouldn":1177,"mbol":1178,"Ġwo":1179,"Ġcri":1180,"Ġglowing":1181,"Ġwarm":1182,"Ġdel":1183,"rought":1184,"Ġsymbol":1185,"az":1186,"Ġvoice":1187,"ip":1188,"ories":1189,"Ġkid":1190,"Ġhands":1191,"Ġfeeling":1192,"Ġres":1193,"Ġmeet":1194,"Ġclock":1195,"Ġbring":1196,"Ġsou":1197,"Ġpur":1198,"Ġcho":1199,"que":1200,"¿½":1201,"ï¿½":1202,"Ġbrought":1203,"air":1204,"Ġgl":1205,"Ġforward":1206,"Ġweeks":1207,"light":1208,"Ġnest":1209,"ict":1210,"Ġcap":1211,"Ġmiss":1212,"ece":1213,"Ġinv":1214,"oming":1215,"night":1216,"hip":1217,"eared":1218,"Ġhappen":1219,"otten":1220,"Ġtrave":1221,"Ġexp":1222,"--":1223,"Ġfear":1224,"reak":1225,"Ġheard":1226,"Ġbest":1227,"ths":1228,"Ġdoesn":1229,"ustling":1230,"Ġtales":1231,"Ġnestled":1232,"Ġext":1233,"Ġled":1234,"Ġce":1235,"Ġmat":1236,"Ġitself":1237,"Ġcor":1238,"Ġstand":1239,"Ġanyone":1240,"iness":1241,"ress":1242,"gy":1243,"Ġkey":1244,"Ġchallenges":1245,"Ġob":1246,"Ġcra":1247,"Ġagainst":1248,"Ġbene":1249,"Ġpeace":1250,"ible":1251,"Ġbus":1252,"Ġbeautif":1253,"ied":1254,"Ġgard":1255,"Ġforgotten":1256,"ex":1257,"Ġrest":1258,"vers":1259,"Ġenchanted":1260,"Ġspoke":1261,"Ġquick":1262,"Ġcalled":1263,"Ġrun":1264,"Ġsho":1265,"Ġthree":1266,"Ġbooks":1267,"ĠâĢĵ":1268,"Ġprom":1269,"Ġsw":1270,"Ġconf":1271,"Ġdreamed":1272,"Ġheld":1273,"Ġinspir":1274,"Ġtou":1275,"Ġfamily":1276,"Ġgott":1277,"Ġhard":1278,"Ġleaves":1279,"Ġhistory":1280,"Ġpret":1281,"Ġstuff":1282,"Ġhello":1283,"Ġsol":1284,"Ġlibrary":1285,"iously":1286,"Ġadventures":1287,"Ġstarted":1288,"come":1289,"Ġtook":1290,"Ġleading":1291,"mon":1292,"Ġemb":1293,"Ġnearby":1294,"ix":1295,"ition":1296,"Ġhills":1297,"orne":1298,"Ġsupp":1299,"Ġrolling":1300,"Ġtoday":1301,"Ġshar":1302,"Ġcryst":1303,"Ġstone":1304,"cc":1305,"Ġasked":1306,"Ġhouse":1307,"Ġfull":1308,"Ġforever":1309,"Ġsuch":1310,"ib":1311,"Ġfut":1312,"Ġrevealed":1313,"Ġmess":1314,"Ġimag":1315,"Ġguess":1316,"Ġsame":1317,"Ġstay":1318,"ign":1319,"Ġevening":1320,"wards":1321,"Ġtrans":1322,"Ġhead":1323,"Ġremember":1324,"ently":1325,"ured":1326,"Ġcol":1327,"Ġbad":1328,"Ġbeautiful":1329,"Ġgarden":1330,"Ġchar":1331,"Ġpick":1332,"Ġhaving":1333,"Ġsim":1334,"Ġhear":1335,"ev":1336,"Ġaut":1337,"Ġlater":1338,"Ġenough":1339,"Ġfur":1340,"Ġposs":1341,"Ġopened":1342,"Ġfuture":1343,"form":1344,"rid":1345,"Ġtruth":1346,"Ġdra":1347,"Ġgift":1348,"Ġexploring":1349,"Ġgenerations":1350,"Ġvi":1351,"Ġmust":1352,"Ġru":1353,"Ġpres":1354,"Ġ...":1355,"Ġrel":1356,"Ġlocal":1357,"Ġwandering":1358,"Ġer":1359,"Ġinstead":1360,"Ġcurious":1361,"ents":1362,"Ġbeneath":1363,"ron":1364,"Ġdest":1365,"Ġjob":1366,"Ġleave":1367,"Ġbeauty":1368,"Ġlooked":1369,"Ġhours":1370,"Ġthinking":1371,"oria":1372,"Ġuncover":1373,"Ġgotta":1374,"Ġcast":1375,"Ġgetting":1376,"Ġexperi":1377,"Ġcoll":1378,"Ġunique":1379,"ared":1380,"Ġchange":1381,"Ġgrou":1382,"Ġago":1383,"Ġwords":1384,"Ġshimm":1385,"Ġwonder":1386,"Ġencount":1387,"Ġshadows":1388,"wer":1389,"Ġsense":1390,"ural":1391,"Ġcloser":1392,"Ġacc":1393,"Ġtrying":1394,"umn":1395,"Ġswe":1396,"Ġextra":1397,"Ġport":1398,"Ġcoming":1399,"Ġsky":1400,"Ġpowerful":1401,"Ġidea":1402,"Ġfurther":1403,"Ġgroup":1404,"to":1405,"Ġear":1406,"att":1407,"Ġlessons":1408,"Ġter":1409,"Ġlooking":1410,"Ġshare":1411,"scap":1412,"Ġoutside":1413,"ger":1414,"Ġsecond":1415,"Ġautumn":1416,"Ġed":1417,"akes":1418,"Ġmoon":1419,"Ġgreatest":1420,"pe":1421,"Ġdan":1422,"pri":1423,"ert":1424,"Ġsurround":1425,"Ġcele":1426,"cept":1427,"Ġplan":1428,"Ġeldoria":1429,"?\"":1430,"ish":1431,"Ġbustling":1432,"Ġya":1433,"Ġord":1434,"Ġtreasures":1435,"Ġask":1436,"Ġph":1437,"Ġtowards":1438,"Ġparty":1439,"Ġencountered":1440,"selves":1441,"Ġanim":1442,"Ġdang":1443,"Ġpu":1444,"Ġeverybody":1445,"Ġmove":1446,"Ġoffice":1447,"Ġpaintings":1448,"Ġunlock":1449,"like":1450,"Ġpages":1451,"Ġchanged":1452,"Ġrevealing":1453,"Ġboy":1454,"Ġpretty":1455,"Ġvent":1456,"Ġcrisp":1457,"Ġturn":1458,"Ġcat":1459,"Ġcur":1460,"Ġstep":1461,"Ġunex":1462,"Ġcrystal":1463,"Ġembr":1464,"Ġcool":1465,"Ġheal":1466,"Ġmem":1467,"Ġhaw":1468,"Ġspec":1469,"00":1470,"Ġ.":1471,"Ġap":1472,"Ġproble":1473,"Ġtest":1474,"Ġthi":1475,"Ġlives":1476,"pected":1477,"use":1478,"Ġsal":1479,"arious":1480,"app":1481,"Ġbecoming":1482,"Ġsin":1483,"Ġneeded":1484,"Ġstr":1485,"cause":1486,"zy":1487,"vel":1488,"Ġleaving":1489,"thorne":1490,"Ġclose":1491,"Ġhawthorne":1492,"Ġwrong":1493,"Ġdu":1494,"ants":1495,"Ġhappy":1496,"ager":1497,"Ġunexpected":1498,"you":1499,"iny":1500,"Ġlate":1501,"Ġjen":1502,"reng":1503,"Ġfire":1504,"Ġandy":1505,"Ġalone":1506,"ier":1507,"Ġstreng":1508,"Ġhuman":1509,"Ġcapt":1510,"Ġcelebr":1511,"Ġtom":1512,"gn":1513,"kins":1514,"Ġpri":1515,"inated":1516,"Ġdist":1517,"Ġgi":1518,".\"":1519,"Ġexplained":1520,"Ġmonths":1521,"ah":1522,"vest":1523,"Ġinspiring":1524,"Ġknowing":1525,"Ġsing":1526,"Ġec":1527,"Ġpot":1528,"Ġorb":1529,"Ġmoney":1530,"Ġthom":1531,"sh":1532,"Ġcommunity":1533,"Ġsymbols":1534,"mo":1535,"Ġphy":1536,"Ġseek":1537,"Ġreturn":1538,"int":1539,"Ġduring":1540,"Ġpiece":1541,"Ġdone":1542,"Ġpurp":1543,"fect":1544,"ud":1545,"Ġfew":1546,"Ġjenkins":1547,"ully":1548,"Ġpowers":1549,"Ġdiscovery":1550,"Ġhat":1551,"Ġmaking":1552,"Ġmis":1553,"Ġmark":1554,"Ġwel":1555,"Ġhoney":1556,"wel":1557,"its":1558,"here":1559,"Ġbreak":1560,"Ġlive":1561,"Ġval":1562,"Ġwaiting":1563,"hered":1564,"Ġisn":1565,"Ġwatch":1566,"Ġwon":1567,"Ġliving":1568,"Ġthroughout":1569,"Ġsaying":1570,"Ġbusiness":1571,"Ġconnection":1572,"ches":1573,"ern":1574,"Ġref":1575,"Ġwater":1576,"Ġemer":1577,"Ġfas":1578,"Ġtonight":1579,"Ġappeared":1580,"Ġdreams":1581,"Ġstanding":1582,"Ġextraord":1583,"ably":1584,"Ġcheck":1585,"du":1586,"Ġbal":1587,"Ġwhole":1588,"Ġspell":1589,"sing":1590,"Ġimportant":1591,"mother":1592,"Ġtale":1593,"Ġleg":1594,"Ġwhoa":1595,"Ġextraordinary":1596,"Ġsat":1597,"Ġcompl":1598,"Ġsurpri":1599,"ere":1600,"Ġstepped":1601,"Ġans":1602,"ult":1603,"Ġremained":1604,"aces":1605,"Ġvibr":1606,"Ġsweet":1607,"Ġsch":1608,"iting":1609,"Ġener":1610,"Ġgrow":1611,"Ġvarious":1612,"Ġamaz":1613,"Ġquickly":1614,"Ġjoy":1615,"Ġguid":1616,"ric":1617,"Ġembark":1618,"Ġbro":1619,"Ġunlike":1620,"elf":1621,"Ġpaper":1622,"sed":1623,"ten":1624,"up":1625,"Ġooh":1626,"Ġabilities":1627,"Ġwalls":1628,"cate":1629,"Ġwish":1630,"acts":1631,"Ġlearn":1632,"Ġdrag":1633,"Ġsit":1634,"Ġcount":1635,"Ġevent":1636,"Ġecho":1637,"Ġbox":1638,"Ġz":1639,"Ġlead":1640,"aged":1641,"Ġhimself":1642,"Ġpain":1643,"vie":1644,"Ġsil":1645,"ridge":1646,"Ġsle":1647,"Ġground":1648,"Ġsign":1649,"ished":1650,"Ġpurpose":1651,"Ġcr":1652,"Ġwalked":1653,"Ġsince":1654,"Ġwhispered":1655,"Ġfaced":1656,"Ġoften":1657,"osed":1658,"Ġtot":1659,"Ġscen":1660,"cy":1661,"ork":1662,"athered":1663,"Ġchest":1664,"Ġsafe":1665,"igate":1666,"Ġev":1667,"Ġenergy":1668,"Ġcave":1669,"Ġess":1670,"aching":1671,"Ġcenter":1672,"pid":1673,"Ġdri":1674,"ject":1675,"head":1676,"Ġass":1677,"Ġflowers":1678,"Ġvibrant":1679,"Ġmysteries":1680,"Ġwhispers":1681,"ences":1682,"arth":1683,"Ġori":1684,"Ġpainted":1685,"sit":1686,"ues":1687,"Ġfinal":1688,"lect":1689,"Ġmatter":1690,"fully":1691,"Ġintricate":1692,"Ġcourse":1693,"Ġquestion":1694,"Ġcreate":1695,"Ġfasc":1696,"for":1697,"reed":1698,"Ġinvest":1699,"Ġrather":1700,"Ġfinding":1701,"Ġwin":1702,"Ġweird":1703,"Ġtaught":1704,"Ġentire":1705,"Ġbird":1706,"Ġthreat":1707,"rived":1708,"Ġhot":1709,"Ġtimes":1710,"Ġthemselves":1711,"Ġperfect":1712,"zz":1713,"Ġohh":1714,"Ġmarried":1715,"Ġsoftly":1716,"Ġearth":1717,"acy":1718,"Ġcontro":1719,"Ġremind":1720,"Ġfunny":1721,"Ġstrong":1722,"Ġcompan":1723,"Ġdanger":1724,"Ġstrength":1725,"Ġfaint":1726,"Ġdad":1727,"Ġwhatever":1728,"Ġbye":1729,"Ġbravery":1730,"gg":1731,"Ġphe":1732,"Ġanimals":1733,"Ġwh":1734,"ready":1735,"ific":1736,"Ġchildren":1737,"Ġalready":1738,"what":1739,"Ġgrandmother":1740,"Ġnumb":1741,"Ġparen":1742,"gr":1743,"Ġhesit":1744,"Ġsex":1745,"Ġsought":1746,"Ġcou":1747,"omed":1748,"Ġbuild":1749,"Ġventured":1750,"unch":1751,"Ġgent":1752,"Ġhaven":1753,"Ġartifacts":1754,"friend":1755,"Ġca":1756,"Ġdi":1757,"Ġvisit":1758,"Ġsharing":1759,"Ġproblem":1760,"Ġbright":1761,"Ġfree":1762,"chi":1763,"ove":1764,"Ġbit":1765,"Ġscro":1766,"Ġlandscap":1767,"Ġgentle":1768,"let":1769,"Ġill":1770,"Ġtru":1771,"ump":1772,"Ġbran":1773,"ley":1774,"Ġharmon":1775,"ĠâĢĺ":1776,"Ġgame":1777,"Ġkinda":1778,"aster":1779,"cri":1780,"Ġwouldn":1781,"ones":1782,"Ġrec":1783,"Ġhor":1784,"Ġprob":1785,"Ġedge":1786,"Ġstars":1787,"ech":1788,"iled":1789,"Ġcla":1790,"Ġwed":1791,"orrow":1792,"Ġprobably":1793,"Ġhero":1794,"Ġdress":1795,"room":1796,"Ġens":1797,"Ġdust":1798,"Ġspecial":1799,"Ġhigh":1800,"Ġworking":1801,"Ġwalking":1802,"cha":1803,"Ġbatt":1804,"Ġability":1805,"Ġtotally":1806,"ains":1807,"aining":1808,"Ġspea":1809,"Ġworked":1810,"artment":1811,"Ġmeans":1812,"Ġsorce":1813,"Ġnatural":1814,"Ġexact":1815,"Ġdeal":1816,"acher":1817,"urning":1818,"Ġworks":1819,"Ġtab":1820,"Ġrealm":1821,"Ġinspired":1822,"Ġbalance":1823,"Ġalive":1824,"Ġdarkness":1825,"Ġsounds":1826,"Ġminute":1827,"Ġfascinated":1828,"Ġtruly":1829,"rer":1830,"Ġstupid":1831,"Ġparents":1832,"Ġfell":1833,"Ġwide":1834,"ending":1835,"Ġbrave":1836,"ibil":1837,"Ġcreature":1838,"Ġfriendship":1839,"Ġwalk":1840,"Ġabove":1841,"Ġcolors":1842,"fl":1843,"Ġinter":1844,"Ġartifact":1845,"Ġwild":1846,"Ġstories":1847,"known":1848,"Ġshimmering":1849,"Ġessence":1850,"Ġpack":1851,"qued":1852,"Ġpiqued":1853,"Ġfall":1854,"Ġda":1855,"Ġphone":1856,"ging":1857,"Ġdire":1858,"ete":1859,"Ġseeking":1860,"Ġbreat":1861,"Ġjan":1862,"rove":1863,"Ġcomes":1864,"Ġlang":1865,"acing":1866,"Ġbelong":1867,"Ġdepic":1868,"Ġrep":1869,"Ġdiscover":1870,"Ġcollect":1871,"Ġsqu":1872,"Ġbed":1873,"Ġtelling":1874,"Ġlangu":1875,"ile":1876,"man":1877,"Ġdate":1878,"cks":1879,"Ġkindness":1880,"Ġclaim":1881,"ze":1882,"owed":1883,"Ġdisapp":1884,"Ġwatching":1885,"Ġclearing":1886,"Ġpromis":1887,"Ġdin":1888,"Ġunknown":1889,"Ġtremb":1890,"Ġins":1891,"ention":1892,"Ġrach":1893,"Ġcrazy":1894,"Ġsurrounded":1895,"Ġbar":1896,"ront":1897,"Ġahead":1898,"Ġexcite":1899,"itting":1900,"Ġtravel":1901,"most":1902,"Ġexcitement":1903,"Ġmount":1904,"Ġpat":1905,"Ġstru":1906,"Ġpresent":1907,"Ġrece":1908,"....":1909,"Ġdragon":1910,"Ġfather":1911,"irth":1912,"Ġgrant":1913,"Ġclim":1914,"ments":1915,"ns":1916,"Ġeas":1917,"Ġwedding":1918,"iet":1919,"vice":1920,"Ġsupposed":1921,"Ġterri":1922,"Ġeat":1923,"Ġtouch":1924,"Ġimagination":1925,"Ġma":1926,"Ġlar":1927,"Ġsorcerer":1928,"Ġdelved":1929,"erest":1930,"ying":1931,"Ġfive":1932,"Ġmrs":1933,"Ġdirect":1934,"ular":1935,"Ġdense":1936,"Ġhal":1937,"Ġkiss":1938,"Ġform":1939,"Ġflo":1940,"Ġvast":1941,"ife":1942,"Ġexactly":1943,"Ġyourself":1944,"Ġlooks":1945,"Ġalmost":1946,"Ġsurprise":1947,"fort":1948,"rist":1949,"face":1950,"Ġexcuse":1951,"Ġrespons":1952,"bit":1953,"Ġbound":1954,"Ġgolden":1955,"Ġhoping":1956,"me":1957,"more":1958,"Ġbirth":1959,"Ġreg":1960,"Ġcold":1961,"Ġdetail":1962,"Ġexcited":1963,"Ġcontrol":1964,"Ġje":1965,"Ġange":1966,"Ġclear":1967,"Ġemerged":1968,"Ġmeant":1969,"ored":1970,"Ġmystery":1971,"Ġrespect":1972,"ebs":1973,"uh":1974,"Ġhang":1975,"Ġwants":1976,"used":1977,"Ġdetermination":1978,"Ġlad":1979,"icate":1980,"ident":1981,"Ġeli":1982,"pping":1983,"aughter":1984,"Ġharmony":1985,"oud":1986,"Ġfair":1987,"ason":1988,"Ġsleep":1989,"Ġfa":1990,"Ġgathered":1991,"Ġinterest":1992,"Ġskill":1993,"Ġpainter":1994,"Ġpheebs":1995,"Ġarrived":1996,"formed":1997,"Ġcaut":1998,"ield":1999,"Ġlegacy":2000,"Ġcompany":2001,"where":2002,"Ġmakes":2003,"Ġkev":2004,"Ġla":2005,"Ġwindow":2006,"Ġsimple":2007,"Ġ3":2008,"Ġemot":2009,"Ġpuzz":2010,"Ġportal":2011,"Ġsl":2012,"Ġfood":2013,"Ġdar":2014,"Ġjack":2015,"Ġtalent":2016,"Ġprofound":2017,"jo":2018,"Ġgave":2019,"Ġschool":2020,"ivid":2021,"Ġself":2022,"Ġmessage":2023,"Ġet":2024,"Ġforget":2025,"Ġcontained":2026,"Ġhearts":2027,"Ġordinary":2028,"rd":2029,"Ġfour":2030,"Ġsunny":2031,"Ġmist":2032,"Ġluck":2033,"Ġworlds":2034,"Ġunderstood":2035,"Ġpaths":2036,"ateful":2037,"Ġcarry":2038,"Ġones":2039,"Ġdef":2040,"Ġimportance":2041,"Ġtaking":2042,"ash":2043,"Ġsomebody":2044,"formation":2045,"Ġtomorrow":2046,"vas":2047,"ither":2048,"hic":2049,"ries":2050,"Ġsave":2051,"Ġmoved":2052,"Ġtried":2053,"bb":2054,"Ġdam":2055,"ional":2056,"Ġtrust":2057,"Ġocc":2058,"Ġmid":2059,"Ġtower":2060,"elling":2061,"Ġprop":2062,"Ġafterno":2063,"Ġlearning":2064,"Ġinvestigate":2065,"Ġrecei":2066,"Ġanymore":2067,"Ġechoed":2068,"acherous":2069,"Ġtrembling":2070,"Ġcanvas":2071,"Ġchance":2072,"Ġembrace":2073,"not":2074,"Ġmir":2075,"Ġfad":2076,"Ġpay":2077,"Ġblo":2078,"Ġbody":2079,"aa":2080,"Ġtech":2081,"Ġquiet":2082,"itten":2083,"Ġguidance":2084,"Ġbas":2085,"Ġguide":2086,"ept":2087,"Ġafternoon":2088,"kes":2089,"Ġ5":2090,"unk":2091,"Ġtreacherous":2092,"Ġmoving":2093,"Ġincl":2094,"Ġfollowed":2095,"!\"":2096,"ines":2097,"Ġking":2098,"Ġbegin":2099,"Ġreflect":2100,"io":2101,"Ġadd":2102,"Ġsir":2103,"Ġmus":2104,"Ġele":2105,"Ġnav":2106,"Ġstudy":2107,"Ġtall":2108,"Ġbond":2109,"Ġappre":2110,"Ġplaying":2111,"Ġpict":2112,"Ġeye":2113,"Ġstreets":2114,"Ġdusty":2115,"verse":2116,"Ġseeing":2117,"ized":2118,"Ġplaces":2119,"Ġnews":2120,"Ġkevin":2121,"Ġgone":2122,"orn":2123,"Ġprep":2124,"Ġfav":2125,"Ġexist":2126,"Ġstud":2127,"Ġsket":2128,"Ġpersonal":2129,"Ġsales":2130,"Ġhair":2131,"Ġchallenge":2132,"Ġexperiences":2133,"Ġnumber":2134,"cing":2135,"Ġimm":2136,"Ġseries":2137,"cle":2138,"Ġlau":2139,"ically":2140,"Ġcurse":2141,"Ġappreci":2142,"Ġdog":2143,"Ġridd":2144,"Ġspirits":2145,"Ġgifts":2146,"Ġry":2147,"Ġbecome":2148,"Ġagreed":2149,"Ġforgot":2150,"Ġsoul":2151,"Ġtablet":2152,"Ġtap":2153,"ery":2154,"Ġdrawn":2155,"Ġdanced":2156,"ize":2157,"Ġcoff":2158,"Ġmemories":2159,"bed":2160,"Ġhun":2161,"Ġmyself":2162,"Ġwond":2163,"Ġrepl":2164,"Ġcoffee":2165,"never":2166,"Ġsmiled":2167,"Ġtransformed":2168,"Ġslow":2169,"ety":2170,"ushed":2171,"Ġensuring":2172,"Ġdinner":2173,"Ġsent":2174,"Ġhur":2175,"Ġann":2176,"umin":2177,"Ġproving":2178,"welcome":2179,"Ġtiny":2180,"Ġdoll":2181,"Ġcouple":2182,"who":2183,"Ġtable":2184,"Ġside":2185,"Ġeager":2186,"Ġpull":2187,"utes":2188,"Ġcelebrated":2189,"Ġlanguage":2190,"Ġve":2191,"Ġunity":2192,"Ġwritten":2193,"Ġwarmly":2194,"Ġmeaning":2195,"Ġhelping":2196,"Ġhate":2197,"rew":2198,"Ġball":2199,"Ġwhenever":2200,"ival":2201,"Ġevil":2202,"Ġryan":2203,"een":2204,"Ġworth":2205,"Ġletter":2206,"Ġbuy":2207,"Ġangela":2208,"mer":2209,"Ġtop":2210,"oned":2211,"Ġsto":2212,"Ġchrist":2213,"Ġpark":2214,"acon":2215,"ears":2216,"Ġador":2217,"Ġembarked":2218,"Ġ4":2219,"Ġrare":2220,"Ġsays":2221,"Ġpassion":2222,"Ġfaded":2223,"Ġlonger":2224,"ivity":2225,"Ġreco":2226,"Ġpotent":2227,"Ġcautiously":2228,"Ġfest":2229,"Ġkeeper":2230,"pson":2231,"Ġeff":2232,"Ġanyway":2233,"Ġcalling":2234,"Ġdraw":2235,"Ġapartment":2236,"Ġhmm":2237,"Ġforces":2238,"Ġunus":2239,"Ġpoint":2240,"Ġruins":2241,"lex":2242,"Ġwhose":2243,"Ġminutes":2244,"Ġskills":2245,"Ġvan":2246,"Ġelder":2247,"Ġreceived":2248,"Ġahh":2249,"Ġriver":2250,"Ġcons":2251,"Ġsingle":2252,"Ġlies":2253,"ounter":2254,"Ġmeeting":2255,"Ġthompson":2256,"Ġcut":2257,"Ġbeacon":2258,"uries":2259,"Ġkidding":2260,"Ġorig":2261,"Ġbag":2262,"ister":2263,"Ġgreen":2264,"Ġbirthday":2265,"cked":2266,"Ġlistened":2267,"Ġdrink":2268,"Ġfamil":2269,"Ġclues":2270,"Ġforests":2271,"Ġharness":2272,"Ġbreath":2273,"Ġosc":2274,"ames":2275,"nowned":2276,"Ġfavor":2277,"Ġsear":2278,"Ġrenowned":2279,"Ġcomplete":2280,"Ġamazing":2281,"old":2282,"llis":2283,"rodu":2284,"Ġmovie":2285,"Ġdesp":2286,"Ġdescri":2287,"Ġinclu":2288,"Ġoscar":2289,"land":2290,"uable":2291,"Ġburi":2292,"Ġsub":2293,"Ġkids":2294,"Ġble":2295,"Ġcott":2296,"Ġnote":2297,"work":2298,"Ġcook":2299,"Ġcreated":2300,"Ġboss":2301,"Ġlands":2302,"Ġpossess":2303,"Ġphyllis":2304,"ices":2305,"Ġmischi":2306,"Ġwelcome":2307,"che":2308,"nal":2309,"ract":2310,"Ġnone":2311,"Ġloved":2312,"Ġpract":2313,"Ġexplored":2314,"Ġcasting":2315,"Ġthick":2316,"Ġbroke":2317,"Ġburied":2318,"Ġrob":2319,"Ġstronger":2320,"Ġoccur":2321,"Ġstan":2322,"Ġeng":2323,"Ġclass":2324,"but":2325,"mas":2326,"Ġmother":2327,"Ġfact":2328,"Ġbelieved":2329,"Ġserious":2330,"Ġlandscapes":2331,"Ġline":2332,"Ġhit":2333,"gest":2334,"Ġra":2335,"Ġcir":2336,"Ġcenturies":2337,"Ġphys":2338,"Ġetched":2339,"Ġadorned":2340,"ris":2341,"Ġabs":2342,"Ġcottage":2343,"that":2344,"ters":2345,"Ġten":2346,"Ġmine":2347,"Ġintrodu":2348,"Ġreading":2349,"Ġsurface":2350,"ruct":2351,"Ġincred":2352,"Ġbuilding":2353,"Ġfant":2354,"Ġcover":2355,"olk":2356,"Ġdistant":2357,"Ġsong":2358,"edic":2359,"stone":2360,"ane":2361,"Ġcompass":2362,"Ġholding":2363,"Ġhappening":2364,"Ġthomas":2365,"Ġhon":2366,"Ġdefe":2367,"Ġpotential":2368,"igh":2369,"Ġtick":2370,"Ġwatched":2371,"Ġeldridge":2372,"Ġpromise":2373,"Ġmountains":2374,"Ġunusual":2375,"using":2376,"Ġchristmas":2377,"Ġtran":2378,"Ġmanaged":2379,"Ġmusic":2380,"Ġstanley":2381,"ken":2382,"Ġdepicted":2383,"my":2384,"Ġfront":2385,"iter":2386,"Ġlie":2387,"Ġworry":2388,"Ġseem":2389,"Ġweren":2390,"Ġdisc":2391,"Ġsmell":2392,"Ġpartic":2393,"Ġfoot":2394,"Ġweek":2395,"Ġrelations":2396,"Ġspeak":2397,"hmm":2398,"wering":2399,"Ġspark":2400,"Ġmystical":2401,"Ġrememb":2402,"Ġspells":2403,"ank":2404,"Ġind":2405,"ots":2406,"Ġstones":2407,"Ġincluding":2408,"Ġsitting":2409,"fered":2410,"ptic":2411,"Ġfestival":2412,"Ġmm":2413,"Ġpen":2414,"Ġchamber":2415,"Ġreality":2416,"Ġaccept":2417,"ibility":2418,"fted":2419,"Ġcarefully":2420,"Ġfeet":2421,"Ġwelc":2422,"Ġhalf":2423,"Ġeither":2424,"Ġreason":2425,"Ġdecis":2426,"Ġwomen":2427,"Ġmoments":2428,"Ġpicked":2429,"Ġonto":2430,"Ġvivid":2431,"Ġadm":2432,"Ġattention":2433,"evous":2434,"Ġlarge":2435,"Ġdav":2436,"Ġrum":2437,"Ġouts":2438,"Ġgets":2439,"Ġteaching":2440,"Ġuniverse":2441,"Ġrecogn":2442,"Ġwife":2443,"ates":2444,"ote":2445,"Ġthrow":2446,"aked":2447,"Ġraced":2448,"Ġfears":2449,"Ġmoonlight":2450,"Ġcapturing":2451,"Ġwonders":2452,"Ġkill":2453,"Ġintently":2454,"Ġcarried":2455,"Ġcal":2456,"Ġpage":2457,"Ġinformation":2458,"Ġstorm":2459,"ately":2460,"Ġemily":2461,"Ġanswer":2462,"Ġmischievous":2463,"inite":2464,"alth":2465,"redit":2466,"log":2467,"Ġscr":2468,"Ġlegendary":2469,"ought":2470,"Ġstream":2471,"Ġfollowing":2472,"Ġexperience":2473,"Ġmarket":2474,"lly":2475,"ph":2476,"whel":2477,"Ġcute":2478,"Ġdance":2479,"Ġplaced":2480,"Ġdecip":2481,"Ġsharp":2482,"Ġerin":2483,"Ġaband":2484,"Ġoverwhel":2485,"mma":2486,"Ġpreser":2487,"Ġscene":2488,"set":2489,"ative":2490,"Ġbeings":2491,"Ġcreativity":2492,"Ġhelped":2493,"ĠĠ":2494,"Ġdead":2495,"itu":2496,"Ġinner":2497,"Ġblack":2498,"Ġevents":2499,"Ġsix":2500,"Ġfight":2501,"Ġwealth":2502,"Ġsquare":2503,"Ġdavid":2504,"Ġcaught":2505,"ulous":2506,"Ġcomfort":2507,"Ġencounter":2508,"Ġtouched":2509,"Ġsens":2510,"Ġoffered":2511,"Ġrequ":2512,"Ġkept":2513,"loved":2514,"Ġrunes":2515,"stac":2516,"Ġhues":2517,"Ġcryptic":2518,"Ġdressed":2519,"Ġfamiliar":2520,"Ġfr":2521,"Ġgather":2522,"velop":2523,"Ġcountless":2524,"Ġbranches":2525,"wers":2526,"Ġmad":2527,"Ġhumans":2528,"Ġsolve":2529,"Ġbeloved":2530,"Ġshel":2531,"key":2532,"Ġable":2533,"Ġtwist":2534,"Ġrevel":2535,"Ġcastle":2536,"Ġvaluable":2537,"Ġreminding":2538,"Ġbrighter":2539,"Ġmach":2540,"Ġmaster":2541,"Ġthri":2542,"Ġmere":2543,"Ġincredible":2544,"huh":2545,"Ġwearing":2546,"Ġleast":2547,"Ġtem":2548,"Ġflower":2549,"Ġeasy":2550,"Ġdamn":2551,"ience":2552,"Ġmike":2553,"Ġtoby":2554,"ale":2555,"Ġwrite":2556,"aren":2557,"Ġbath":2558,"Ġexcept":2559,"Ġlunch":2560,"Ġstri":2561,"bye":2562,"Ġterr":2563,"Ġpromised":2564,"Ġdespite":2565,"res":2566,"Ġforce":2567,"Ġenjo":2568,"Ġstreet":2569,"hey":2570,"Ġdim":2571,"ics":2572,"Ġdoct":2573,"Ġaren":2574,"aken":2575,"Ġbelonged":2576,"Ġpicture":2577,"Ġtowering":2578,"Ġpul":2579,"Ġstar":2580,"ulf":2581,"Ġways":2582,"Ġguardians":2583,"lessly":2584,"Ġearly":2585,"Ġknows":2586,"Ġspr":2587,"Ġhesitation":2588,"Ġscroll":2589,"Ġtears":2590,"Ġslight":2591,"ange":2592,"Ġquite":2593,"Ġsucc":2594,"Ġdirectly":2595,"Ġabandoned":2596,"ming":2597,"Ġclean":2598,"Ġexpect":2599,"ighb":2600,"Ġmen":2601,"Ġdear":2602,"Ġneighb":2603,"ryl":2604,"Ġanybody":2605,"Ġmater":2606,"Ġheav":2607,"Ġrenew":2608,"Ġquestions":2609,"Ġcarrying":2610,"Ġoccurren":2611,"Ġciv":2612,"Ġtowns":2613,"Ġstrugg":2614,"Ġcivil":2615,"Ġsara":2616,"olute":2617,"Ġteam":2618,"Ġseriously":2619,"Ġuncovered":2620,"Ġbirds":2621,"Ġemma":2622,"Ġsoci":2623,"Ġconc":2624,"Ġshut":2625,"!!!":2626,"Ġcontinue":2627,"ĠâĢľ":2628,"Ġchoo":2629,"Ġdestiny":2630,"ems":2631,"Ġcand":2632,"Ġvict":2633,"Ġmanager":2634,"hical":2635,"Ġdollars":2636,"Ġscott":2637,"rance":2638,"Ġcolor":2639,"Ġunlocking":2640,"Ġsuccess":2641,"Ġsarah":2642,"Ġsick":2643,"Ġcop":2644,"Ġbattle":2645,"Ġabsolute":2646,"Ġ8":2647,"Ġsn":2648,"Ġfing":2649,"Ġunf":2650,"Ġscenes":2651,"Ġdarryl":2652,"Ġoccurrences":2653,"Ġsum":2654,"idence":2655,"Ġasking":2656,"Ġsmile":2657,"Ġblue":2658,"ucked":2659,"Ġinvited":2660,"Ġportra":2661,"Ġtit":2662,"ining":2663,"Ġcause":2664,"Ġlumin":2665,"ster":2666,"Ġred":2667,"Ġcannot":2668,"Ġcovered":2669,"Ġbringing":2670,"Ġscrolls":2671,"Ġwelcomed":2672,"ially":2673,"look":2674,"Ġkn":2675,"Ġnobody":2676,"iffl":2677,"Ġtalked":2678,"Ġbrush":2679,"Ġchoice":2680,"Ġobstac":2681,"Ġdestro":2682,"Ġelderly":2683,"Ġfavorite":2684,"Ġphysical":2685,"Ġyep":2686,"Ġpar":2687,"Ġring":2688,"Ġrealizing":2689,"Ġpiec":2690,"Ġglad":2691,"Ġabsolutely":2692,"ifflin":2693,"logy":2694,"Ġleather":2695,"pi":2696,"Ġcard":2697,"Ġmill":2698,"Ġdue":2699,"Ġant":2700,"Ġwooden":2701,"Ġchose":2702,"Ġterrible":2703,"initely":2704,"Ġdou":2705,"Ġur":2706,"Ġconvers":2707,"Ġdunder":2708,"Ġciviliz":2709,"this":2710,"Ġtucked":2711,"Ġmix":2712,"Ġfre":2713,"Ġstore":2714,"arted":2715,"Ġcommunicate":2716,"Ġdecipher":2717,"folk":2718,"Ġgained":2719,"Ġjoke":2720,"Ġpress":2721,"Ġhistor":2722,"bl":2723,"ped":2724,"Ġinvent":2725,"Ġoverwhelmed":2726,"ax":2727,"house":2728,"ply":2729,"ator":2730,"Ġspend":2731,"Ġprof":2732,"Ġsimply":2733,"Ġslightly":2734,"Ġmyt":2735,"Ġcost":2736,"Ġvisions":2737,"Ġdoctor":2738,"Ġdiv":2739,"Ġloud":2740,"Ġwarmth":2741,"Ġanswers":2742,"Ġjewel":2743,"Ġtransp":2744,"ball":2745,"Ġsister":2746,"Ġdedic":2747,"Ġpos":2748,"Ġgoes":2749,"Ġguided":2750,"orted":2751,"Ġscent":2752,"Ġneeds":2753,"Ġemp":2754,"Ġwishes":2755,"Ġmissing":2756,"Ġassist":2757,"Ġintroduced":2758,"erie":2759,"Ġfulf":2760,"Ġpan":2761,"Ġugh":2762,"Ġcomb":2763,"Ġdesk":2764,"Ġartists":2765,"Ġcorner":2766,"Ġgiving":2767,"Ġcre":2768,"Ġsuper":2769,"Ġchair":2770,"Ġthoughts":2771,"Ġremembered":2772,"Ġtownsfolk":2773,"Ġtrad":2774,"Ġwriting":2775,"Ġ20":2776,"Ġwisely":2777,"Ġrelationship":2778,"og":2779,"Ġ9":2780,"Ġgra":2781,"ilt":2782,"ulations":2783,"Ġdude":2784,"Ġfantast":2785,"elly":2786,"Ġmod":2787,"Ġ19":2788,"Ġobject":2789,"Ġhoriz":2790,"Ġpacked":2791,"Ġdefinitely":2792,"Ġkingdom":2793,"Ġlaugh":2794,"Ġorigin":2795,"ior":2796,"Ġsour":2797,"Ġbree":2798,"Ġgrove":2799,"Ġpushed":2800,"ital":2801,"Ġunc":2802,"Ġpossible":2803,"Ġdawn":2804,"Ġ$":2805,"Ġopp":2806,"Ġpure":2807,"ening":2808,"host":2809,"urous":2810,"una":2811,"Ġarth":2812,"Ġadventurous":2813,"Ġcarved":2814,"Ġtrials":2815,"Ġlady":2816,"Ġsus":2817,"Ġwear":2818,"Ġseat":2819,"Ġfoc":2820,"Ġbranch":2821,"Ġrevelation":2822,"Ġnope":2823,"Ġseems":2824,"Ġshop":2825,"chard":2826,"Ġslowly":2827,"Ġenjoy":2828,"por":2829,"pes":2830,"Ġmer":2831,"Ġfacing":2832,"Ġgay":2833,"Ġlose":2834,"Ġcond":2835,"Ġwherever":2836,"Ġhappiness":2837,"rank":2838,"Ġguarded":2839,"Ġorder":2840,"Ġvanished":2841,"Ġmythical":2842,"Ġarthur":2843,"gan":2844,"Ġ7":2845,"Ġbur":2846,"Ġfly":2847,"Ġghost":2848,"rop":2849,"Ġamul":2850,"Ġ15":2851,"Ġinspire":2852,"ibly":2853,"itude":2854,"Ġmachine":2855,"Ġrenewed":2856,"Ġsort":2857,"Ġgrateful":2858,"Ġsever":2859,"Ġ10":2860,"Ġshowed":2861,"view":2862,"Ġfaintly":2863,"Ġprepared":2864,"pect":2865,"Ġcreation":2866,"Ġpoin":2867,"Ġfloor":2868,"Ġresponsibility":2869,"Ġappreciate":2870,"uss":2871,"Ġbri":2872,"Ġgently":2873,"Ġdeeply":2874,"Ġcomplex":2875,"Ġfamous":2876,"Ġvision":2877,"Ġentrance":2878,"Ġdangerous":2879,"Ġprophe":2880,"Ġreplied":2881,"piece":2882,"Ġturning":2883,"Ġkno":2884,"Ġdoors":2885,"Ġprodu":2886,"Ġstranger":2887,"Ġdisappear":2888,"father":2889,"iling":2890,"Ġuhh":2891,"Ġpregn":2892,"Ġappear":2893,"Ġcli":2894,"Ġshouldn":2895,"Ġsketching":2896,"Ġdecision":2897,"Ġdestroy":2898,"Ġhorizon":2899,"Ġamulet":2900,"ror":2901,"haps":2902,"Ġdie":2903,"Ġstra":2904,"anton":2905,"Ġenvelop":2906,"spe":2907,"Ġwandered":2908,"Ġinspiration":2909,"Ġmemory":2910,"Ġcollection":2911,".ï¿½":2912,"wor":2913,"Ġnec":2914,"ooo":2915,"roud":2916,"Ġspace":2917,"unt":2918,"ume":2919,"Ġgirlfriend":2920,"Ġpresence":2921,"Ġpatter":2922,"Ġscranton":2923,"Ġbreeze":2924,"she":2925,"sen":2926,"Ġmmm":2927,"Ġyell":2928,"Ġusual":2929,"Ġmagn":2930,"Ġheavy":2931,"Ġlumina":2932,"edi":2933,"Ġeight":2934,"Ġner":2935,"Ġbelow":2936,"airs":2937,"Ġtraveler":2938,"ertain":2939,"Ġhung":2940,"Ġparticular":2941,"dle":2942,"Ġice":2943,"ephy":2944,"Ġtownspe":2945,"Ġmessages":2946,"Ġgrowing":2947,"Ġtownspeople":2948,"Ġsand":2949,"Ġbre":2950,"Ġcam":2951,"Ġpol":2952,"Ġbutt":2953,"Ġrid":2954,"Ġsug":2955,"Ġclot":2956,"Ġsurrounding":2957,"Ġbathroom":2958,"Ġseveral":2959,"Ġide":2960,"Ġcust":2961,"Ġmass":2962,"Ġpound":2963,"Ġstat":2964,"Ġuhm":2965,"Ġzephy":2966,"Ġfairy":2967,"tim":2968,"Ġtaken":2969,"Ġaud":2970,"Ġfield":2971,"ider":2972,"Ġmeredit":2973,"Ġstudying":2974,"Ġmeredith":2975,"Ġwha":2976,"Ġglowed":2977,"Ġcausing":2978,"Ġsac":2979,"Ġbridge":2980,"ndred":2981,"Ġeerie":2982,"kend":2983,"Ġnodd":2984,"Ġspot":2985,"Ġoffer":2986,"Ġexpress":2987,"Ġorion":2988,"Ġsell":2989,"Ġpond":2990,"orts":2991,"Ġmelo":2992,"Ġyours":2993,"Ġbob":2994,"Ġperhaps":2995,"Ġweekend":2996,"Ġtechn":2997,"ww":2998,"Ġ6":2999,"Ġsad":3000,"Ġdared":3001,"Ġnorm":3002,"Ġrul":3003,"Ġrustling":3004,"pert":3005,"Ġhundred":3006,"Ġattic":3007,"Ġauth":3008,"Ġlaughter":3009,"ights":3010,"Ġrain":3011,"Ġadvice":3012,"Ġobv":3013,"aur":3014,"cess":3015,"ground":3016,"Ġcab":3017,"Ġescap":3018,"Ġallowed":3019,"Ġclosed":3020,"ption":3021,"Ġchanges":3022,"Ġinvol":3023,"Ġcharact":3024,"Ġentirely":3025,"Ġclaimed":3026,"Ġhurt":3027,"Ġpieces":3028,"Ġlow":3029,"Ġenter":3030,"Ġsearching":3031,"rect":3032,"Ġmifflin":3033,"Ġnar":3034,"Ġkelly":3035,"Ġjoin":3036,"Ġlights":3037,"Ġcharacters":3038,"hood":3039,"Ġage":3040,"Ġhaun":3041,"irts":3042,"Ġactions":3043,"Ġsurge":3044,"Ġwrote":3045,"Ġmaj":3046,"Ġcolder":3047,"Ġnavig":3048,"Ġzephyr":3049,"Ġson":3050,"Ġfast":3051,"Ġspe":3052,"Ġreturning":3053,"Ġboyfriend":3054,"Ġhesitated":3055,"cent":3056,"chan":3057,"Ġbott":3058,"Ġhall":3059,"iment":3060,"Ġprove":3061,"Ġproject":3062,"Ġcorn":3063,"Ġsolving":3064,"Ġlandscape":3065,"Ġfit":3066,"Ġinha":3067,"idst":3068,"Ġnotice":3069,"onest":3070,"Ġsaved":3071,"Ġamidst":3072,"Ġprin":3073,"Ġfeelings":3074,"Ġdancing":3075,"Ġpuzzles":3076,"Ġtapest":3077,"Ġmasterpiece":3078,"ber":3079,"book":3080,"Ġyork":3081,"Ġpants":3082,"Ġtwink":3083,"Ġjournal":3084,"Ġmarry":3085,"Ġshimmered":3086,"Ġcompassion":3087,"Ġconversation":3088,"Ġjewels":3089,"Ġcustom":3090,"Ġlab":3091,"izing":3092,"Ġmiddle":3093,"Ġdrawing":3094,"kirts":3095,"uation":3096,"Ġcross":3097,"Ġweight":3098,"Ġjud":3099,"col":3100,"Ġgirls":3101,"Ġstudio":3102,"Ġoutskirts":3103,"mat":3104,"vin":3105,"Ġcertain":3106,"Ġhonest":3107,"Ġexam":3108,"Ġsaf":3109,"rap":3110,"Ġsett":3111,"ificent":3112,"rished":3113,"Ġoriginal":3114,"Ġstraight":3115,"Ġmagnificent":3116,"ds":3117,"fic":3118,"how":3119,"tly":3120,"Ġï¿½":3121,"Ġcoo":3122,"Ġfreak":3123,"iculous":3124,"Ġunless":3125,"Ġperform":3126,"Ġriddles":3127,"Ġauthor":3128,"Ġfier":3129,"Ġpet":3130,"Ġnaked":3131,"Ġisland":3132,"Ġallow":3133,"aste":3134,"asts":3135,"Ġarmed":3136,"Ġharm":3137,"Ġ12":3138,"Ġdesire":3139,"Ġglass":3140,"Ġclosely":3141,"Ġsource":3142,"Ġideas":3143,"Ġtool":3144,"Ġpee":3145,"Ġdifference":3146,"Ġspreading":3147,"Ġdepths":3148,"Ġchosen":3149,"Ġmissed":3150,"Ġsilver":3151,"Ġemotions":3152,"min":3153,"ub":3154,"Ġmur":3155,"ament":3156,"Ġsmart":3157,"Ġsteal":3158,"Ġguiding":3159,"Ġdescribe":3160,"Ġtransported":3161,"Ġnodded":3162,"ef":3163,"Ġtreat":3164,"Ġbat":3165,"arian":3166,"Ġrela":3167,"Ġexhi":3168,"unning":3169,"Ġbrother":3170,"reek":3171,"Ġlistening":3172,"Ġsupport":3173,"Ġamazed":3174,"Ġdiscovering":3175,"Ġprophecy":3176,"Ġrelax":3177,"Ġmil":3178,"Ġdaughter":3179,"Ġlur":3180,"Ġwea":3181,"Ġpassage":3182,"Ġchick":3183,"Ġshowing":3184,"---":3185,"Ġembracing":3186,"Ġoneself":3187,"Ġpregnant":3188,"Ġtire":3189,"Ġreaching":3190,"Ġtrunk":3191,"Ġarea":3192,"Ġgrat":3193,"Ġcatch":3194,"Ġmaterial":3195,"Ġsociety":3196,"bel":3197,"Ġbes":3198,"Ġcase":3199,"Ġmal":3200,"cend":3201,"cket":3202,"Ġhappens":3203,"Ġperil":3204,"Ġconnected":3205,"Ġident":3206,"Ġrestore":3207,"Ġdriven":3208,"ibilities":3209,"Ġhanging":3210,"Ġhonor":3211,"Ġproduct":3212,"Ġfierce":3213,"do":3214,"Ġbase":3215,"Ġmural":3216,"izz":3217,"Ġgrab":3218,"Ġ18":3219,"Ġfox":3220,"Ġdesper":3221,"Ġapo":3222,"Ġsafely":3223,"Ġdrive":3224,"Ġelias":3225,"Ġgratitude":3226,"lit":3227,"ma":3228,"rt":3229,"Ġpred":3230,"Ġran":3231,"Ġchaos":3232,"rupt":3233,"ses":3234,"Ġcup":3235,"Ġinde":3236,"eller":3237,"Ġsmo":3238,"Ġfigures":3239,"Ġwhite":3240,"Ġelements":3241,"Ġclothes":3242,"rute":3243,"telling":3244,"Ġfan":3245,"Ġfail":3246,"esome":3247,"ism":3248,"ddy":3249,"Ġeman":3250,"Ġbabies":3251,"Ġsunlight":3252,"Ġriddle":3253,"ipped":3254,"eds":3255,"Ġfateful":3256,"Ġlush":3257,"Ġphi":3258,"itive":3259,"ides":3260,"enty":3261,"Ġplayed":3262,"ressed":3263,"Ġhealing":3264,"Ġdisappeared":3265,"eve":3266,"vis":3267,"vous":3268,"Ġav":3269,"Ġwiz":3270,"Ġdied":3271,"Ġrese":3272,"Ġstick":3273,"Ġletters":3274,"Ġwarned":3275,"Ġcorrect":3276,"Ġstopped":3277,"Ġchoose":3278,"Ġbak":3279,"Ġcrow":3280,"Ġfix":3281,"Ġthorne":3282,"Ġnotes":3283,"vings":3284,"Ġcode":3285,"Ġolder":3286,"Ġvisited":3287,"Ġdiscuss":3288,"Ġfulfill":3289,"Ġinhabit":3290,"flow":3291,"itions":3292,"Ġ11":3293,"Ġ14":3294,"Ġflick":3295,"Ġaccident":3296,"Ġgiven":3297,"Ġtechno":3298,"Ġtradition":3299,"Ġwizard":3300,"Ġcake":3301,"Ġcult":3302,"Ġfate":3303,"eted":3304,"Ġvol":3305,"Ġalar":3306,"Ġtra":3307,"ility":3308,"tering":3309,"acks":3310,"Ġlocation":3311,"Ġimagined":3312,"Ġdangers":3313,"Ġpubl":3314,"Ġdiary":3315,"Ġspeaking":3316,"Ġnervous":3317,"Ġtrou":3318,"Ġmarve":3319,"Ġanimal":3320,"Ġcalm":3321,"Ġsend":3322,"Ġboo":3323,"Ġfil":3324,"Ġlant":3325,"cial":3326,"Ġseven":3327,"Ġexplain":3328,"Ġmonth":3329,"Ġtrip":3330,"Ġmaps":3331,"Ġartistic":3332,"Ġidi":3333,"Ġawesome":3334,"Ġproblems":3335,"Ġinhabitants":3336,"Ġlantern":3337,"Ġpizz":3338,"Ġkick":3339,"Ġju":3340,"antly":3341,"Ġhanded":3342,"Ġteach":3343,"Ġtext":3344,"Ġlesson":3345,"Ġresil":3346,"Ġtraveled":3347,"Ġsignific":3348,"Ġthreatened":3349,"Ġnavigate":3350,"lier":3351,"Ġwore":3352,"Ġfle":3353,"athy":3354,"ooh":3355,"outh":3356,"Ġohhh":3357,"Ġdeath":3358,"Ġmirror":3359,"Ġblend":3360,"Ġdivor":3361,"vation":3362,"Ġtight":3363,"Ġdating":3364,"Ġproud":3365,"store":3366,"isco":3367,"Ġhig":3368,"Ġrichard":3369,"Ġprec":3370,"Ġentered":3371,"Ġcolle":3372,"Ġdepicting":3373,"Ġunfold":3374,"Ġske":3375,"Ġbing":3376,"Ġinno":3377,"Ġcongr":3378,"Ġshot":3379,"Ġhuge":3380,"Ġawait":3381,"Ġrepres":3382,"Ġpuzzle":3383,"Ġimmedi":3384,"Ġcirc":3385,"Ġsuggest":3386,"Ġresilience":3387,"Ġcongrat":3388,"lled":3389,"roke":3390,"Ġplant":3391,"Ġwriter":3392,"Ġcarol":3393,"Ġ24":3394,"Ġresol":3395,"Ġcapable":3396,"Ġtransform":3397,"Ġpatterns":3398,"Ġperilous":3399,"pack":3400,"Ġfired":3401,"Ġlila":3402,"uscri":3403,"igned":3404,"Ġmanuscri":3405,"Ġrunning":3406,"Ġworksho":3407,"Ġpromising":3408,"Ġpossessed":3409,"Ġfantastical":3410,"Ġindeed":3411,"gs":3412,"ym":3413,"Ġcreek":3414,"ased":3415,"see":3416,"icing":3417,"Ġrealms":3418,"Ġbookstore":3419,"Ġrealize":3420,"Ġ13":3421,"scri":3422,"Ġminds":3423,"Ġventure":3424,"Ġsituation":3425,"Ġobviously":3426,"iving":3427,"iries":3428,"wood":3429,"Ġwoke":3430,"eth":3431,"Ġworst":3432,"Ġgun":3433,"Ġexplaining":3434,"Ġcomput":3435,"Ġconfidence":3436,"Ġfully":3437,"Ġsilence":3438,"Ġfallen":3439,"Ġexistence":3440,"Ġdefeat":3441,"Ġprofess":3442,"Ġenveloped":3443,"Ġsafety":3444,"val":3445,"Ġtv":3446,"Ġhosp":3447,"Ġ17":3448,"Ġinteresting":3449,"Ġmistake":3450,"Ġpreserving":3451,"Ġdedicated":3452,"Ġassistant":3453,"well":3454,"Ġfaces":3455,"Ġfriendly":3456,"Ġfeels":3457,"Ġsweetie":3458,"'.":3459,"band":3460,"sure":3461,"Ġtea":3462,"Ġawe":3463,"Ġfif":3464,"Ġfab":3465,"Ġitems":3466,"Ġbeat":3467,"ousand":3468,"Ġorgan":3469,"Ġaff":3470,"Ġwarning":3471,"Ġturns":3472,"Ġtirelessly":3473,"con":3474,"kay":3475,"Ġware":3476,"Ġthousand":3477,"Ġenv":3478,"Ġsuck":3479,"Ġscared":3480,"Ġheartstone":3481,"Ġperched":3482,"Ġphot":3483,"Ġschrute":3484,"Ġfresh":3485,"hell":3486,"Ġast":3487,"Ġbill":3488,"Ġreach":3489,"cest":3490,"Ġworse":3491,"there":3492,"Ġcrack":3493,"Ġfairies":3494,"Ġidiot":3495,"bits":3496,"nel":3497,"your":3498,"Ġbark":3499,"Ġdare":3500,"usted":3501,"iff":3502,"Ġplans":3503,"Ġcozy":3504,"Ġshake":3505,"ference":3506,"Ġtrick":3507,"Ġlibrarian":3508,"Ġimagine":3509,"Ġbroken":3510,"Ġcompletely":3511,"Ġrobert":3512,"Ġwarehouse":3513,"ials":3514,"Ġing":3515,"Ġty":3516,"Ġsight":3517,"Ġbought":3518,"stem":3519,"Ġancest":3520,"raid":3521,"ortun":3522,"Ġowner":3523,"Ġ16":3524,"Ġdeser":3525,"Ġdelicate":3526,"Ġkeys":3527,"Ġnormal":3528,"Ġcollege":3529,"Ġhospital":3530,"\".":3531,"men":3532,"Ġtas":3533,"Ġlake":3534,"ances":3535,"rish":3536,"Ġkit":3537,"Ġallies":3538,"usband":3539,"Ġjoe":3540,"Ġadv":3541,"Ġprotector":3542,"Ġthird":3543,"Ġcircle":3544,"Ġcivilization":3545,"Ġopportun":3546,"Ġrepresent":3547,"tered":3548,"Ġwa":3549,"Ġfat":3550,"Ġfrank":3551,"Ġgeller":3552,"hol":3553,"Ġhadn":3554,"Ġpros":3555,"Ġscre":3556,"Ġafraid":3557,"Ġourselves":3558,"Ġexperiment":3559,"Ġcrystals":3560,"Ġwondering":3561,"Ġearlier":3562,"Ġtestament":3563,"Ġcapture":3564,"Ġreflecting":3565,"whoa":3566,"Ġhistorical":3567,"world":3568,"onment":3569,"Ġund":3570,"icious":3571,"Ġatop":3572,"Ġfinished":3573,"Ġseal":3574,"Ġclue":3575,"Ġmonkey":3576,"Ġgrandfather":3577,"Ġkeeping":3578,"Ġviol":3579,"Ġgiant":3580,"Ġgrowth":3581,"Ġrequired":3582,"Ġparticularly":3583,"Ġband":3584,"Ġborn":3585,"Ġreci":3586,"Ġthinks":3587,"place":3588,"Ġgreater":3589,"Ġstorytelling":3590,"Ġboat":3591,"Ġempt":3592,"Ġbuddy":3593,"Ġcommon":3594,"Ġrespected":3595,"Ġglim":3596,"Ġconfront":3597,"Ġtravelers":3598,"Ġraise":3599,"Ġterrain":3600,"Ġrom":3601,"Ġwound":3602,"Ġblow":3603,"Ġcru":3604,"Ġfro":3605,"Ġtor":3606,"Ġgab":3607,"Ġpop":3608,"âĢĿ":3609,"riage":3610,"Ġformed":3611,"Ġbutter":3612,"Ġvie":3613,"Ġalley":3614,"Ġrad":3615,"Ġlocked":3616,"Ġrock":3617,"ended":3618,"Ġcontaining":3619,"umble":3620,"Ġdem":3621,"Ġunlocked":3622,"Ġvalue":3623,"ique":3624,"Ġmed":3625,"asing":3626,"Ġ21":3627,"Ġ23":3628,"Ġaccount":3629,"Ġsinging":3630,"Ġillum":3631,"Ġemotion":3632,"Ġenvir":3633,"aw":3634,"ping":3635,"Ġgust":3636,"Ġgaz":3637,"itch":3638,"Ġweathered":3639,"ution":3640,"Ġwitness":3641,"cel":3642,"Ġorange":3643,"Ġsaving":3644,"Ġunderground":3645,"Ġoffering":3646,"Ġdesign":3647,"Ġflowed":3648,"Ġera":3649,"looking":3650,"Ġknock":3651,"Ġilluminated":3652,"mit":3653,"ray":3654,"son":3655,"Ġfame":3656,"Ġeh":3657,"aries":3658,"Ġinscri":3659,"Ġhusband":3660,"Ġwilling":3661,"Ġartwork":3662,"Ġholly":3663,"Ġpassing":3664,"Ġcarvings":3665,"Ġended":3666,"Ġinstruct":3667,"Ġ22":3668,"Ġechoing":3669,"Ġladies":3670,"Ġcorners":3671,"Ġtechnology":3672,"Ġpizza":3673,"step":3674,"elara":3675,"Ġprov":3676,"Ġguarding":3677,"Ġshift":3678,"Ġcommunic":3679,"Ġcorpor":3680,"Ġinterview":3681,"Ġdiscoveries":3682,"Ġterrif":3683,"Ġmerely":3684,"Ġfabric":3685,"Ġempty":3686,"Ġenvironment":3687,"uing":3688,"Ġwings":3689,"stairs":3690,"ustr":3691,"Ġlosing":3692,"Ġpriv":3693,"Ġgranted":3694,"Ġfault":3695,"Ġbrushst":3696,"flowers":3697,"nate":3698,"Ġodd":3699,"Ġced":3700,"Ġest":3701,"oof":3702,"Ġplants":3703,"Ġchap":3704,"Ġparts":3705,"Ġbuilt":3706,"Ġreson":3707,"Ġcraft":3708,"Ġtested":3709,"Ġwinter":3710,"Ġrecord":3711,"Ġfingers":3712,"Ġtapestry":3713,"ded":3714,"Ġ,":3715,"Ġbore":3716,"Ġgn":3717,"Ġpush":3718,"Ġlif":3719,"Ġhomet":3720,"Ġhide":3721,"Ġunra":3722,"Ġbelieving":3723,"Ġlaw":3724,"Ġfields":3725,"Ġrules":3726,"Ġresear":3727,"Ġhometown":3728,"Ġign":3729,"arr":3730,"Ġbear":3731,"pper":3732,"Ġrose":3733,"Ġsomewhere":3734,"Ġbackpack":3735,"Ġachi":3736,"Ġwonderful":3737,"Ġhorri":3738,"Ġmajest":3739,"Ġcongratulations":3740,"Ġcu":3741,"Ġesp":3742,"Ġinfl":3743,"uts":3744,"Ġtrace":3745,"Ġrivers":3746,"Ġamer":3747,"Ġcoursing":3748,"Ġstarting":3749,"Ġprotecting":3750,"Ġshoes":3751,"Ġcountry":3752,"Ġeventually":3753,"Ġfreely":3754,"Ġtickets":3755,"Ġaudition":3756,"Ġimmediately":3757,"Ġcedric":3758,"te":3759,"Ġlit":3760,"Ġgas":3761,"Ġgall":3762,"ency":3763,"sequ":3764,"Ġliked":3765,"Ġrab":3766,"Ġconst":3767,"Ġquit":3768,"Ġcoins":3769,"Ġfinish":3770,"actic":3771,"Ġmarriage":3772,"Ġpossibilities":3773,"Ġprecious":3774,"Ġawaited":3775,"Ġkitche":3776,"Ġtur":3777,"Ġment":3778,"hips":3779,"Ġjump":3780,"Ġfort":3781,"aming":3782,"Ġwash":3783,"Ġeveryday":3784,"ushing":3785,"Ġproved":3786,"Ġcontents":3787,"Ġdevice":3788,"Ġflou":3789,"Ġpurs":3790,"Ġhealth":3791,"Ġnumbers":3792,"Ġhaunted":3793,"Ġlurking":3794,"Ġgain":3795,"Ġwhether":3796,"Ġconsequ":3797,"Ġrole":3798,"Ġroad":3799,"ester":3800,"Ġcoin":3801,"Ġotherworld":3802,"Ġchanging":3803,"Ġhandle":3804,"Ġshadowy":3805,"Ġprice":3806,"Ġmirac":3807,"Ġdoub":3808,"Ġstatue":3809,"Ġapolog":3810,"iscovery":3811,"Ġkitchen":3812,"lies":3813,"sy":3814,"Ġtakes":3815,"Ġbread":3816,"oration":3817,"acter":3818,"Ġworried":3819,"Ġride":3820,"Ġrout":3821,"ung":3822,"Ġmoss":3823,"Ġshall":3824,"Ġgrown":3825,"Ġapparen":3826,"ission":3827,"Ġdrunk":3828,"Ġdreaming":3829,"mson":3830,"Ġcrimson":3831,"Ġbusy":3832,"Ġheroes":3833,"Ġmountain":3834,"Ġinterested":3835,"Ġneighbors":3836,"Ġportraits":3837,"Ġprosper":3838,"Ġotherworldly":3839,"discovery":3840,"fer":3841,"wic":3842,"Ġtough":3843,"Ġmention":3844,"Ġgri":3845,"oooo":3846,"Ġrich":3847,"une":3848,"Ġgoodbye":3849,"Ġcareful":3850,"Ġchildhood":3851,"Ġcursed":3852,"Ġlatest":3853,"Ġthreatening":3854,"Ġdimens":3855,"Ġobstacle":3856,"Ġnarrow":3857,"belie":3858,"Ġchapter":3859,"Ġconsequences":3860,"sion":3861,"Ġwield":3862,"Ġselling":3863,"Ġpal":3864,"Ġbeha":3865,"Ġstate":3866,"antic":3867,"Ġupset":3868,"Ġris":3869,"Ġroy":3870,"play":3871,"Ġnights":3872,"Ġchees":3873,"Ġattract":3874,"Ġconnections":3875,"Ġrestaur":3876,"Ġreminder":3877,"Ġjanice":3878,"ruction":3879,"Ġgabe":3880,"ker":3881,"ature":3882,"Ġjul":3883,"anta":3884,"Ġexce":3885,"ques":3886,"Ġenig":3887,"Ġcalls":3888,"Ġtex":3889,"Ġtele":3890,"Ġexplorer":3891,"Ġfigured":3892,"Ġshock":3893,"Ġthir":3894,"Ġperfectly":3895,"Ġwildflowers":3896,"Ġdetails":3897,"Ġshelves":3898,"Ġsandwic":3899,"Ġalaric":3900,"Ġskept":3901,"Ġmajestic":3902,"ina":3903,"Ġcoun":3904,"Ġdir":3905,"Ġroots":3906,"Ġagree":3907,"Ġwished":3908,"Ġshoot":3909,"Ġcharacter":3910,"Ġimportantly":3911,"Ġvisitors":3912,"Ġfloating":3913,"Ġaccepted":3914,"Ġcomputer":3915,"Ġcorporate":3916,"go":3917,"Ġfill":3918,"ternal":3919,"lost":3920,"Ġshh":3921,"Ġdescend":3922,"Ġpaid":3923,"Ġpeaceful":3924,"Ġuncovering":3925,"Ġclimbed":3926,"Ġsensation":3927,"Ġneck":3928,"wait":3929,"hearted":3930,"Ġoper":3931,"Ġliter":3932,"Ġweather":3933,"Ġlikes":3934,"ises":3935,"Ġgosh":3936,"Ġintell":3937,"Ġloves":3938,"Ġplus":3939,"Ġmanip":3940,"Ġdecide":3941,"Ġscrew":3942,"Ġprevent":3943,"Ġdeepest":3944,"Ġdiffic":3945,"Ġsystem":3946,"Ġmission":3947,"Ġclimactic":3948,"Ġcookies":3949,"Ġrecognized":3950,"fall":3951,"Ġsab":3952,"Ġban":3953,"Ġbunch":3954,"Ġfought":3955,"Ġeve":3956,"Ġnine":3957,"omes":3958,"entric":3959,"amp":3960,"Ġsold":3961,"ades":3962,"Ġspine":3963,"ument":3964,"ulate":3965,"Ġbucks":3966,"Ġflash":3967,"attered":3968,"Ġstormy":3969,"Ġdesperate":3970,"Ġprosperity":3971,"Ġrestaurant":3972,"mp":3973,"oid":3974,"Ġyester":3975,"Ġluna":3976,"asons":3977,"Ġsty":3978,"ams":3979,"Ġdoin":3980,"Ġroll":3981,"Ġoffic":3982,"Ġopening":3983,"Ġembarr":3984,"Ġsilent":3985,"grand":3986,"Ġbonds":3987,"Ġvictor":3988,"Ġportrait":3989,"Ġallowing":3990,"hello":3991,"Ġinflu":3992,"Ġskeptical":3993,"Ġyesterday":3994,"Ġembarrass":3995,"giving":3996,"Ġsanta":3997,"Ġmouth":3998,"arled":3999,"ows":4000,"ality":4001,"Ġmechan":4002,"ously":4003,"umer":4004,"Ġlock":4005,"Ġtwenty":4006,"Ġhollow":4007,"Ġplanning":4008,"Ġbased":4009,"Ġobstacles":4010,"Ġgnarled":4011,"ring":4012,"Ġcunning":4013,"Ġlined":4014,"seen":4015,"Ġthrived":4016,"aging":4017,"ishing":4018,"Ġwhoever":4019,"Ġeverywhere":4020,"Ġqueen":4021,"Ġchill":4022,"hhh":4023,"Ġstret":4024,"Ġwinding":4025,"Ġresist":4026,"Ġmarked":4027,"Ġdaddy":4028,"Ġwhoo":4029,"Ġclearly":4030,"Ġpulled":4031,"Ġrumored":4032,"Ġweaving":4033,"Ġtrouble":4034,"Ġmot":4035,"Ġlying":4036,"Ġecc":4037,"Ġna":4038,"Ġnur":4039,"Ġbeasts":4040,"Ġnovel":4041,"els":4042,"loy":4043,"Ġskin":4044,"Ġhug":4045,"Ġ--":4046,"Ġwallace":4047,"Ġobser":4048,"Ġapart":4049,"Ġhumanity":4050,"Ġinsights":4051,"Ġsummer":4052,"Ġclients":4053,"Ġhigher":4054,"Ġexcell":4055,"nings":4056,"Ġcas":4057,"Ġinf":4058,"Ġmansion":4059,"plic":4060,"Ġcliff":4061,"Ġattack":4062,"Ġglade":4063,"Ġaccess":4064,"Ġcelebrate":4065,"Ġstruck":4066,"Ġsongs":4067,"Ġpanic":4068,"Ġescape":4069,"Ġeccentric":4070,"iest":4071,"iques":4072,"ys":4073,"Ġsan":4074,"Ġbare":4075,"Ġbrid":4076,"esus":4077,"icke":4078,"Ġhin":4079,"Ġhook":4080,"Ġconference":4081,"Ġovercome":4082,"aps":4083,"Ġsmoke":4084,"Ġboard":4085,"Ġsurv":4086,"Ġcharge":4087,"Ġdaily":4088,"Ġhalpert":4089,"Ġregular":4090,"Ġbakery":4091,"Ġview":4092,"Ġexcellent":4093,"ral":4094,"taking":4095},"merges":["Ġ t","h e","Ġ a","i n","Ġ w","Ġ s","r e","o u","Ġt he","Ġ o","Ġ i","h a","Ġ b","e d","e r","in g","n d","Ġ c","Ġ m","Ġ y","Ġ f","Ġ d","Ġt o","o n","l l","Ġ l","Ġ he","Ġ e","Ġ g","Ġy ou","a r","Ġ p","s t","Ġ n","e n","o r","o w","a n","i t","Ġa nd","ha t","e s","Ġo f","h i","o m","Ġ in","a t","Ġi t","Ġb e","Ġ u","v e","Ġhe r","a y","a l","e t","g h","Ġt hat","o t","Ġ ha","Ġs he","l d","a s","â Ģ","r i","Ġ re","Ġo n","a c","Ġw e","o o",". .","s e","Ġs t","l e","Ġl i","v er","i c","Ġ k","âĢ Ļ","Ġ j","' s","hi s","l y","gh t","u t","Ġ h","Ġw it","Ġt h","Ġwit h","= =","i d","en t","Ġe l","ou t","Ġf or","i r","a m","Ġw as","Ġm e","k e","i ll","n ow","r o","Ġw hat","e c","Ġa n","u st","i on","a ll","Ġi s","a g","e e","e a","Ġa s","ar a","Ġd o","Ġs o","Ġel ara","Ġt his","Ġn ot","oo k","Ġn e","i s","h o","ou ld","u r","Ġk now","Ġb ut","Ġn o","' t","Ġm y","o re","u re","a in","Ġj ust","om e","c e","Ġg o","Ġo h",".. .","he r","i m","Ġ hi","Ġ v","a d","r ou","re d","Ġa b","an t","Ġo k","Ġthe y","Ġa l","h ing","p p","Ġw he","Ġha ve","Ġon e","r om","a nd","Ġin t","Ġw or","in d","Ġu p","ha n","Ġw ho","on e","Ġe x","Ġa ll","oo d","Ġc an","g e","ver y","ar t","all y","Ġt r","ou r","Ġab out","Ġu n","Ġs p","Ġf rom","i ght","q u","er s","Ġ ri","Ġ r","Ġa t","es s","c h","b r","re at","Ġd on","Ġyou r","Ġa re","ea h","Ġha d","Ġg u","Ġ out","Ġy eah","Ġthe re","Ġw ill","i l","ou s","u n","Ġli ke","u m","Ġb y","Ġs ee","Ġok ay","u l","e l","o p","e ar","i z","' m","s s","Ġh ow","Ġc on","t er","at ion","Ġwe ll","Ġ \"","Ġl o","ar d","ac k","Ġe n","it y","ou nd","ag e","v ed","Ġhe y","p er","am e","i f","Ġri ght","c k","in k","Ġt im","Ġo r","l o","on g","Ġg et","Ġd id","ec t","e ll","r y","l ed","Ġw ould","at e","Ġ ro","Ġe very","w n","n e","a st","nd er","Ġc ould","Ġan y","' re","a b","n a","Ġhe re","Ġtim e","Ġbe c","e st","Ġt han","Ġt re","Ġ qu","d d","u s","Ġs a","ain t","Ġc om","Ġ ==","== =","Ġ== ===","ac e","Ġint o","a ke","Ġi f","n ed","Ġwe re","Ġwill ow","Ġth ink","Ġd ay","f e","Ġp l","i es","Ġ his","Ġthe ir","br ook","om et","Ġwillow brook","i g","he d","Ġwhe n","a u","Ġl ook","a k","Ġthe m","Ġw ant","r a","v en","Ġs omet","se l","rou gh","Ġs h","Ġs ome","Ġth rough","ac h","t h","Ġa m","Ġa r","c o","Ġm o","Ġu s","or y","Ġm an","c t","i e","p l","Ġu nder","Ġs u","h y","Ġu h","Ġt al","w ay","Ġhi m","e nd","Ġne w","Ġb ack","Ġc ha","v ing","Ġo ver","t her","Ġc o","Ġre al","t s","Ġre ally","rou nd","Ġs ha","Ġn ow","s p","id e","on na","ic e","Ġg onna","a p","Ġp e","sel f","i st","Ġd is","dd en","am ed","Ġwhe re","Ġp ro","Ġg ood","i ous","Ġg ot","Ġa g","Ġj o","Ġw hi","Ġo ld","Ġv ill","re n","Ġc ome","Ġl ea","Ġli ly","m b","Ġgu y","u e","Ġs ec","Ġsomet hing","Ġit s","Ġme an","l ow","c i","Ġg reat","Ġup on","i ve","Ġm ore","Ġs m","ing s","Ġl et","m m","Ġe ach","ar k","Ġa d","Ġm ag","âĢ Ķ","Ġo ther","Ġe ven","Ġbe en","Ġl e","Ġwor k","Ġf ore","Ġst ory","op le","Ġf in","au se","e p","o l","Ġg r","Ġp ow","Ġthe n","or t","Ġcon t","l ing","it t","Ġwor ld","Ġw hy","Ġd ec","n g","Ġmag ic","Ġw ay","o se","Ġs c","Ġgo ing","Ġs ay","w e","Ġp re","Ġpe ople","ow n","as s","v ent","Ġbe t","Ġn amed","Ġar t","Ġof f","n ing","o nd","Ġth ou","Ġthan k","ri end","Ġd ee","v es","Ġhe art","ar y","b e","Ġw his","Ġc reat","m ed","Ġb ook","ic k","ure s","Ġsec re","Ġha pp","Ġs e","Ġhe l","Ġne ed","Ġto o","Ġon ce","f ore","Ġa pp","f t","Ġel iz","Ġs or","Ġex pl","a re","Ġhel p","Ġf ound","Ġbe fore","Ġa f","Ġon ly","Ġa round","r an","Ġeliz a","Ġmy st","Ġvill age","Ġc l","u ed","k now","Ġgo d","Ġt ell","Ġyou ng","Ġf ind","Ġli ved","Ġdis co","Ġhi dden","Ġp aint","k ing","e y","Ġy es","t hing","Ġc lo","ur ned","m ent","Ġpow er","e red","Ġlo ve","o s","um b","Ġd re","g et","a it","ou n","Ġto wn","Ġi m","ci ent","d y","Ġy ear","Ġb o","Ġreal iz","ac t","Ġe m","s ide","Ġag ain","Ġf riend","u ri","Ġwhi le","Ġsa id","Ġd own","id ed","Ġbe g","Ġre t","Ġmyst er","Ġth ose","en ed","at ed","Ġli fe","Ġan cient","Ġo wn","Ġre m","Ġc all","Ġw ood","Ġw om","Ġn ight","at h","Ġf ee","Ġunder st","ion s","Ġfore st","i re","Ġaf ter","Ġt w","Ġ our","Ġguy s","Ġknow n","Ġh ome","' ll","Ġm on","Ġwith in","Ġbec ause","Ġw is","way s","Ġa c","an ce","ot her","? !","s o","Ġthe se","ve red","f ul","Ġne ver","Ġm r","it e","Ġtr ue","Ġsor ry","Ġsh ould","Ġj our","Ġal ways","Ġdid n","p t","Ġl ear","Ġw ait","b le","Ġha r","Ġm u","Ġa ct","Ġm ake","itt le","Ġd e","Ġl ittle","Ġd et","Ġc han","Ġwom an","Ġm ay","Ġal so","ne y","Ġt ake","ac hed","Ġbe l","Ġk ind","Ġdec ided","in e","! !","Ġbec ame","Ġad vent","en ce","Ġsm all","Ġrealiz ed","get her","f f","Ġwood s","in ed","Ġp art","Ġre ad","Ġen c","Ġjour ney","ir l","Ġto gether","as e","er m","Ġst u","i an","Ġunderst and","er ing","ill ed","Ġg irl","d ing","ne w","Ġbeg an","Ġher self","Ġf ir","w ard","oun t","Ġha nd","Ġp o","Ġw at","Ġb r","a ve","a ut","Ġqu aint","Ġs ur","Ġmu ch","Ġfir st","ad e","Ġint ri","Ġh o","Ġdo es","ation s","Ġc he","re e","Ġre ve","e ver","ain ed","Ġtre as","i se","Ġ 1","n o","Ġe ver","Ġe y","Ġo p","Ġg low","Ġl ong","re ad","Ġc uri","n ess","k ed","Ġs k","Ġw r","' ve","u ll","at her","Ġm ic","Ġyear s","ab le","Ġf o","Ġf illed","Ġp ass","Ġro ss","Ġthou ght","umb led","Ġsee med","el t","Ġc ar","Ġp r","Ġli ght","Ġwhis per","ha el","Ġth ing","Ġn at","Ġst umbled","Ġh u","we en","b o","t ed","Ġk new","Ġbet ween","Ġ very","Ġmic hael","i v","t ing","Ġdet erm","Ġd es","Ġf elt","d e","Ġli st","Ġc our","Ġdisco vered","f ound","Ġl and","Ġst ran","Ġsecre ts","x t","is s","Ġbe h","Ġs et","ot t","Ġbeh ind","Ġm om","on s","Ġin side","ri ght","d om","Ġcont in","Ġst art","Ġb u","Ġgu ard","led ge","Ġpl ace","Ġbel ie","Ġim p","l er","Ġp er","d ay","Ġdo ing","Ġreve al","u ally","Ġwor d","Ġknow ledge","Ġmyster ious","al s","Ġg re","Ġe nd","or s","Ġwas n","Ġfriend s","Ġdee p","Ġha s","Ġ âĢ","Ġtre e","Ġt e","Ġbe aut","Ġw al","Ġtw o","he l","Ġcom p","Ġc hi","fe ren","Ġfee l","Ġm ade","Ġh op","in s","Ġp le","Ġwhisper ing","Ġd r","g ed","Ġother s","Ġw ar","Ġjo ey","bo dy","Ġp i","Ġevery one","Ġret urned","b y","Ġex c","Ġin sp","Ġr ac","Ġey es","Ġmay be","Ġd if","Ġro om","c es","Ġmo st","en se","Ġqu est","i ly","Ġu m","Ġc ame","ot h","Ġk ee","Ġst ill","Ġcom m","Ġe ld","l es","Ġs ure","p s","an g","Ġwith out","Ġdee per","Ġt ri","Ġm or","Ġne xt","Ġsome one","Ġintri g","Ġany thing","Ġl ast","Ġp a","Ġwis dom","Ġf l","ro ss","s c","Ġa way","k s","Ġm ap","Ġne ar","Ġstran ge","Ġd ark","ur n","an s","a v","ak ing","Ġple ase","Ġwe e","ur ing","Ġm ar","Ġdif feren","Ġb ig","c hed","Ġlear ned","Ġintrig ued","t he","Ġd w","at ing","ic a","or m","ic al","Ġday s","Ġf am","' d","Ġdeterm ined",", \"","Ġmagic al","Ġsu dden","ll en","Ġf un","Ġfin ally","h h","Ġcontin ued","Ġwhi ch","Ġb l","Ġnew found","Ġcha llen","Ġmor ning","Ġg ive","Ġtr y","Ġdw ight","Ġfor g","Ġp ers","Ġth ings","Ġbe y","Ġ -","pp ed","Ġbey ond","Ġnat ure","Ġact ually","Ġ '","Ġb oth","Ġs er","i ar","Ġl ay","Ġsecre t","Ġevery thing","s er","i al","Ġpl ay","Ġc ry","Ġhow ever","Ġtal k","Ġdre am","ect ed","he s","Ġcha nd","Ġc ity","Ġw ow","Ġsh ow","Ġc le","Ġthou gh","Ġs hi","Ġb ab","Ġf ig","Ġs un","Ġo w","au ght","ut e","Ġguard ian","oo l","Ġv is","m s","Ġlist en","Ġtreas ure","Ġchand ler","r u","Ġan other","Ġsp ir","one y","Ġapp ro","t y","Ġal ong","Ġthank s","ag es","Ġsa w","i a","Ġspir it","Ġc are","Ġf e","g es","mb er","Ġst op","Ġp ath","Ġs y","Ġgr and","ge nd","n y","Ġb en","c hing","or d","Ġpers on","Ġhe ll","Ġm ight","ll s","Ġdifferen t","at er","Ġle gend","Ġf ar","os ity","r ow","ll ow","Ġwhis p","l ess","a il","Ġus ing","Ġsp read","Ġto ld","Ġbelie ve","Ġun t","Ġbe ing","Ġh um","Ġt urned","Ġmom ent","Ġsha d","Ġle ft","o ke","Ġunderstand ing","Ġcuri osity","Ġmon ica","Ġac ross","Ġu se","Ġj im","Ġadvent ure","i ke","Ġg if","Ġp ho","Ġrac hel","Ġcon n","Ġen t","Ġpr ot","an na","Ġre ached","it ies","Ġa ir","Ġf ace","Ġin st","Ġpaint ing","Ġ 2","Ġdo or","Ġsomet im","Ġg en","ar ing","Ġkee p","Ġp ut","Ġexpl ore","Ġshad ow","Ġus ed","en s","Ġart ist","Ġw ise","Ġtre es","Ġl ess","Ġn ice","ea d","Ġw anna","Ġhi st","Ġfin e","Ġal right","Ġre sp","Ġsudden ly","Ġun i","Ġm ind","ou se","Ġv o","Ġbet ter","Ġrem e","ac ed","Ġlo c","Ġpho e","Ġi d","ou gh","Ġb ra","Ġp ast","Ġst re","Ġlo st","Ġfig ure","Ġsometim es","Ġf low","Ġy et","Ġam ong","c ed","ir d","Ġgre w","n er","ag ers","or ing","Ġc h","Ġp am","i ld","Ġn ame","p le","Ġu mm","Ġw and","Ġd ep","Ġst e","Ġhop e","ic ed","Ġsp ent","Ġs ound","ar s","Ġcomm un","Ġab il","Ġop en","Ġh our","Ġvill agers","Ġho ld","Ġtal king","Ġcreat ures","Ġprot ect","Ġappro ached","Ġnot hing","Ġwant ed","Ġphoe be","Ġm et","ec ul","o h","i red","Ġenc han","Ġcour age","it ed","Ġgo ld","Ġa h","l a","b s","Ġbab y","Ġm in","ut h","in ary","Ġl ot","ri ed","Ġun co","Ġli br","Ġman y","Ġread y","Ġat t","Ġw ind","Ġp ecul","Ġpecul iar","Ġo ak","Ġso ft","Ġel se","Ġc ent","Ġin c","Ġso on","us h","in ation","Ġunt il","Ġhapp ened","u al","lo ck","Ġse en","Ġfo llow","Ġow l","Ġw ent","Ġst ood","Ġgen er","Ġimp ort","et s","Ġart if","Ġconn ect","ll ing","Ġsha red","Ġchi ld","Ġa w","Ġw all","u ck","Ġex per","Ġpass ed","Ġhu h","e m","Ġnot iced","Ġcould n","mb ol","Ġw o","Ġc ri","Ġglow ing","Ġwar m","Ġd el","rou ght","Ġsy mbol","a z","Ġvo ice","i p","or ies","Ġk id","Ġhand s","Ġfee ling","Ġre s","Ġme et","Ġclo ck","Ġbr ing","Ġs ou","Ġp ur","Ġc ho","qu e","¿ ½","ï ¿½","Ġb rought","a ir","Ġg l","Ġfor ward","Ġwee ks","l ight","Ġne st","ic t","Ġc ap","Ġm iss","ec e","Ġin v","om ing","n ight","hi p","ea red","Ġhapp en","ott en","Ġtr ave","Ġex p","- -","Ġf ear","re ak","Ġhe ard","Ġbe st","th s","Ġdoes n","ust ling","Ġtal es","Ġnest led","Ġex t","Ġl ed","Ġc e","Ġm at","Ġit self","Ġc or","Ġst and","Ġany one","in ess","re ss","g y","Ġk ey","Ġchallen ges","Ġo b","Ġc ra","Ġagain st","Ġben e","Ġpe ace","i ble","Ġb us","Ġbeaut if","i ed","Ġg ard","Ġforg otten","e x","Ġre st","ver s","Ġenchan ted","Ġsp oke","Ġqu ick","Ġcall ed","Ġr un","Ġs ho","Ġth ree","Ġbook s","ĠâĢ ĵ","Ġp rom","Ġs w","Ġcon f","Ġdre amed","Ġhe ld","Ġinsp ir","Ġt ou","Ġfam ily","Ġgot t","Ġhar d","Ġlea ves","Ġhist ory","Ġpre t","Ġstu ff","Ġhell o","Ġso l","Ġlibr ary","ious ly","Ġadvent ures","Ġstart ed","c ome","Ġtoo k","Ġlea ding","m on","Ġe mb","Ġnear by","i x","it ion","Ġhi lls","or ne","Ġsu pp","Ġro lling","Ġto day","Ġsha r","Ġcry st","Ġst one","c c","Ġas ked","Ġh ouse","Ġf ull","Ġfore ver","Ġsu ch","i b","Ġf ut","Ġreveal ed","Ġm ess","Ġim ag","Ġgu ess","Ġs ame","Ġst ay","ig n","Ġeven ing","ward s","Ġtr ans","Ġhe ad","Ġreme mber","ent ly","ure d","Ġco l","Ġb ad","Ġbeautif ul","Ġgard en","Ġcha r","Ġp ick","Ġha ving","Ġs im","Ġhe ar","e v","Ġa ut","Ġl ater","Ġen ough","Ġf ur","Ġpo ss","Ġop ened","Ġfut ure","f orm","ri d","Ġtr uth","Ġd ra","Ġgif t","Ġexpl oring","Ġgener ations","Ġv i","Ġm ust","Ġr u","Ġpre s","Ġ ...","Ġre l","Ġloc al","Ġwand ering","Ġ er","Ġinst ead","Ġcuri ous","ent s","Ġbene ath","r on","Ġd est","Ġjo b","Ġlea ve","Ġbeaut y","Ġlook ed","Ġhour s","Ġthink ing","or ia","Ġunco ver","Ġgott a","Ġc ast","Ġget ting","Ġexper i","Ġco ll","Ġuni que","a red","Ġchan ge","Ġg rou","Ġag o","Ġword s","Ġshi mm","Ġwo nder","Ġenc ount","Ġshadow s","w er","Ġs ense","ur al","Ġclo ser","Ġac c","Ġtry ing","um n","Ġs we","Ġext ra","Ġp ort","Ġcom ing","Ġsk y","Ġpower ful","Ġid ea","Ġfur ther","Ġgrou p","t o","Ġe ar","at t","Ġless ons","Ġt er","Ġlook ing","Ġsha re","sc ap","Ġout side","g er","Ġsec ond","Ġaut umn","Ġ ed","ak es","Ġmo on","Ġgreat est","p e","Ġd an","p ri","er t","Ġsur round","Ġce le","ce pt","Ġpl an","Ġeld oria","? \"","is h","Ġb ustling","Ġy a","Ġor d","Ġtreas ures","Ġas k","Ġp h","Ġto wards","Ġpart y","Ġencount ered","sel ves","Ġan im","Ġd ang","Ġp u","Ġevery body","Ġmo ve","Ġoff ice","Ġpaint ings","Ġun lock","l ike","Ġp ages","Ġchan ged","Ġreveal ing","Ġbo y","Ġpret ty","Ġv ent","Ġcri sp","Ġt urn","Ġc at","Ġc ur","Ġst ep","Ġun ex","Ġcryst al","Ġem br","Ġc ool","Ġhe al","Ġme m","Ġha w","Ġsp ec","0 0","Ġ .","Ġa p","Ġpro ble","Ġt est","Ġt hi","Ġli ves","p ected","u se","Ġs al","ar ious","a pp","Ġbec oming","Ġs in","Ġneed ed","Ġst r","c ause","z y","ve l","Ġlea ving","th orne","Ġclo se","Ġhaw thorne","Ġwr ong","Ġd u","ant s","Ġhapp y","ag er","Ġunex pected","y ou","in y","Ġl ate","Ġj en","ren g","Ġf ire","Ġand y","Ġal one","i er","Ġst reng","Ġhum an","Ġcap t","Ġcele br","Ġto m","g n","k ins","Ġp ri","in ated","Ġd ist","Ġg i",". \"","Ġexpl ained","Ġmon ths","a h","ve st","Ġinspir ing","Ġknow ing","Ġs ing","Ġe c","Ġp ot","Ġor b","Ġm oney","Ġth om","s h","Ġcommun ity","Ġsymbol s","m o","Ġp hy","Ġsee k","Ġret urn","in t","Ġd uring","Ġpi ece","Ġd one","Ġpur p","f ect","u d","Ġfe w","Ġjen kins","ull y","Ġpow ers","Ġdisco very","Ġ hat","Ġm aking","Ġm is","Ġm ark","Ġwe l","Ġh oney","w el","it s","he re","Ġb reak","Ġli ve","Ġv al","Ġwait ing","he red","Ġis n","Ġwat ch","Ġw on","Ġli ving","Ġthrough out","Ġsay ing","Ġbus iness","Ġconnect ion","c hes","er n","Ġre f","Ġwat er","Ġem er","Ġf as","Ġto night","Ġapp eared","Ġdream s","Ġstand ing","Ġextra ord","ab ly","Ġche ck","d u","Ġb al","Ġwho le","Ġsp ell","s ing","Ġimport ant","m other","Ġtal e","Ġle g","Ġwho a","Ġextraord inary","Ġs at","Ġcom pl","Ġsur pri","e re","Ġste pped","Ġan s","ul t","Ġrem ained","ac es","Ġvi br","Ġswe et","Ġs ch","it ing","Ġen er","Ġgr ow","Ġv arious","Ġam az","Ġquick ly","Ġjo y","Ġgu id","ri c","Ġemb ark","Ġb ro","Ġun like","el f","Ġpa per","s ed","t en","u p","Ġo oh","Ġabil ities","Ġwall s","c ate","Ġwis h","ac ts","Ġlear n","Ġdr ag","Ġs it","Ġc ount","Ġe vent","Ġec ho","Ġbo x","Ġ z","Ġlea d","ag ed","Ġhim self","Ġp ain","v ie","Ġs il","rid ge","Ġs le","Ġg round","Ġs ign","is hed","Ġpurp ose","Ġc r","Ġwal ked","Ġsin ce","Ġwhisp ered","Ġf aced","Ġof ten","os ed","Ġto t","Ġsc en","c y","or k","at hered","Ġche st","Ġsa fe","ig ate","Ġe v","Ġener gy","Ġc ave","Ġe ss","ac hing","Ġcent er","p id","Ġd ri","j ect","he ad","Ġas s","Ġflow ers","Ġvibr ant","Ġmyster ies","Ġwhisp ers","en ces","art h","Ġo ri","Ġpaint ed","s it","u es","Ġfin al","le ct","Ġmat ter","f ully","Ġintri cate","Ġcour se","Ġquest ion","Ġcreat e","Ġfas c","f or","re ed","Ġin vest","Ġr ather","Ġfind ing","Ġw in","Ġwe ird","Ġt aught","Ġent ire","Ġb ird","Ġth reat","ri ved","Ġh ot","Ġtim es","Ġthem selves","Ġper fect","z z","Ġoh h","Ġmar ried","Ġsoft ly","Ġe arth","ac y","Ġcont ro","Ġrem ind","Ġfun ny","Ġstr ong","Ġcomp an","Ġdang er","Ġstreng th","Ġf aint","Ġd ad","Ġwhat ever","Ġby e","Ġbra very","g g","Ġp he","Ġanim als","Ġw h","read y","if ic","Ġchild ren","Ġal ready","w hat","Ġgrand mother","Ġn umb","Ġpa ren","g r","Ġhe sit","Ġse x","Ġsou ght","Ġc ou","om ed","Ġbu ild","Ġvent ured","un ch","Ġg ent","Ġha ven","Ġartif acts","f riend","Ġc a","Ġd i","Ġvis it","Ġshar ing","Ġproble m","Ġb right","Ġf ree","c hi","o ve","Ġb it","Ġsc ro","Ġland scap","Ġgent le","l et","Ġi ll","Ġtr u","um p","Ġb ran","le y","Ġhar mon","ĠâĢ ĺ","Ġg ame","Ġkind a","ast er","c ri","Ġwould n","on es","Ġre c","Ġh or","Ġpro b","Ġed ge","Ġst ars","ec h","il ed","Ġcl a","Ġw ed","or row","Ġprob ably","Ġher o","Ġdre ss","ro om","Ġen s","Ġd ust","Ġspec ial","Ġhi gh","Ġwork ing","Ġwal king","c ha","Ġb att","Ġabil ity","Ġtot ally","ain s","ain ing","Ġsp ea","Ġwork ed","art ment","Ġmean s","Ġsor ce","Ġnat ural","Ġex act","Ġde al","ac her","ur ning","Ġwork s","Ġt ab","Ġreal m","Ġinsp ired","Ġbal ance","Ġal ive","Ġdark ness","Ġsound s","Ġmin ute","Ġfasc inated","Ġtru ly","re r","Ġstu pid","Ġparen ts","Ġf ell","Ġw ide","end ing","Ġbra ve","ib il","Ġcreat ure","Ġfriends hip","Ġwal k","Ġab ove","Ġcol ors","f l","Ġint er","Ġartif act","Ġw ild","Ġst ories","know n","Ġshimm ering","Ġess ence","Ġp ack","qu ed","Ġpi qued","Ġf all","Ġd a","Ġph one","g ing","Ġd ire","et e","Ġsee king","Ġb reat","Ġj an","ro ve","Ġcom es","Ġl ang","ac ing","Ġbel ong","Ġdep ic","Ġre p","Ġdisco ver","Ġcoll ect","Ġs qu","Ġb ed","Ġtell ing","Ġlang u","i le","m an","Ġd ate","ck s","Ġkind ness","Ġcla im","z e","ow ed","Ġdis app","Ġwat ching","Ġcle aring","Ġprom is","Ġd in","Ġun known","Ġtre mb","Ġin s","ent ion","Ġr ach","Ġcra zy","Ġsurround ed","Ġb ar","ron t","Ġa head","Ġexc ite","itt ing","Ġtrave l","mo st","Ġexcite ment","Ġm ount","Ġp at","Ġst ru","Ġpres ent","Ġre ce",".. ..","Ġdrag on","Ġf ather","ir th","Ġgr ant","Ġcl im","ment s","n s","Ġe as","Ġwed ding","i et","v ice","Ġsupp osed","Ġter ri","Ġe at","Ġtou ch","Ġimag ination","Ġm a","Ġl ar","Ġsorce rer","Ġdel ved","ere st","y ing","Ġf ive","Ġmr s","Ġdire ct","ul ar","Ġd ense","Ġha l","Ġk iss","Ġfor m","Ġf lo","Ġv ast","if e","Ġexact ly","Ġyour self","Ġlook s","Ġal most","Ġsurpri se","f ort","ri st","f ace","Ġexc use","Ġresp ons","b it","Ġb ound","Ġgold en","Ġhop ing","m e","m ore","Ġb irth","Ġre g","Ġco ld","Ġdet ail","Ġexc ited","Ġcontro l","Ġj e","Ġan ge","Ġcle ar","Ġemer ged","Ġme ant","ore d","Ġmyster y","Ġresp ect","e bs","u h","Ġha ng","Ġwant s","us ed","Ġdeterm ination","Ġl ad","ic ate","id ent","Ġel i","pp ing","aught er","Ġharmon y","ou d","Ġf air","as on","Ġsle ep","Ġf a","Ġg athered","Ġint erest","Ġsk ill","Ġpain ter","Ġphe ebs","Ġar rived","for med","Ġc aut","ie ld","Ġleg acy","Ġcompan y","w here","Ġm akes","Ġk ev","Ġl a","Ġwind ow","Ġsim ple","Ġ 3","Ġem ot","Ġpu zz","Ġport al","Ġs l","Ġf ood","Ġd ar","Ġj ack","Ġtal ent","Ġpro found","j o","Ġg ave","Ġsch ool","iv id","Ġs elf","Ġmess age","Ġe t","Ġfor get","Ġcont ained","Ġheart s","Ġord inary","r d","Ġf our","Ġsun ny","Ġm ist","Ġl uck","Ġworld s","Ġunderst ood","Ġpath s","ate ful","Ġcar ry","Ġon es","Ġde f","Ġimport ance","Ġt aking","as h","Ġsome body","form ation","Ġtom orrow","v as","it her","hi c","ri es","Ġsa ve","Ġmo ved","Ġtri ed","b b","Ġd am","ion al","Ġtr ust","Ġo cc","Ġm id","Ġto wer","ell ing","Ġpro p","Ġafter no","Ġlear ning","Ġinvest igate","Ġrece i","Ġany more","Ġecho ed","acher ous","Ġtremb ling","Ġcan vas","Ġchan ce","Ġembr ace","n ot","Ġm ir","Ġf ad","Ġp ay","Ġb lo","Ġbo dy","a a","Ġt ech","Ġqu iet","itt en","Ġguid ance","Ġb as","Ġgu ide","ep t","Ġafterno on","k es","Ġ 5","un k","Ġtre acherous","Ġmo ving","Ġinc l","Ġfollow ed","! \"","in es","Ġk ing","Ġbeg in","Ġref lect","i o","Ġa dd","Ġs ir","Ġm us","Ġe le","Ġn av","Ġstu dy","Ġt all","Ġb ond","Ġapp re","Ġplay ing","Ġp ict","Ġey e","Ġstre ets","Ġdust y","ver se","Ġsee ing","iz ed","Ġpl aces","Ġnew s","Ġkev in","Ġg one","or n","Ġpre p","Ġf av","Ġex ist","Ġstu d","Ġsk et","Ġperson al","Ġsal es","Ġha ir","Ġchallen ge","Ġexperi ences","Ġnumb er","c ing","Ġi mm","Ġser ies","c le","Ġl au","ic ally","Ġcur se","Ġappre ci","Ġdo g","Ġri dd","Ġspirit s","Ġgif ts","Ġr y","Ġbec ome","Ġag reed","Ġforg ot","Ġsou l","Ġtab let","Ġt ap","er y","Ġdra wn","Ġdan ced","iz e","Ġco ff","Ġmem ories","b ed","Ġh un","Ġmy self","Ġw ond","Ġre pl","Ġcoff ee","ne ver","Ġsm iled","Ġtrans formed","Ġs low","et y","us hed","Ġens uring","Ġdin ner","Ġs ent","Ġh ur","Ġan n","um in","Ġpro ving","wel come","Ġt iny","Ġdo ll","Ġcou ple","w ho","Ġt able","Ġs ide","Ġe ager","Ġp ull","ut es","Ġcelebr ated","Ġlangu age","Ġ ve","Ġun ity","Ġwr itten","Ġwarm ly","Ġmean ing","Ġhelp ing","Ġhat e","re w","Ġb all","Ġwhe never","iv al","Ġev il","Ġry an","e en","Ġwor th","Ġlet ter","Ġbu y","Ġange la","m er","Ġto p","on ed","Ġst o","Ġch rist","Ġp ark","ac on","ear s","Ġad or","Ġembark ed","Ġ 4","Ġr are","Ġsay s","Ġpass ion","Ġfad ed","Ġlong er","iv ity","Ġre co","Ġpot ent","Ġcaut iously","Ġf est","Ġkee per","ps on","Ġe ff","Ġany way","Ġcall ing","Ġdra w","Ġap artment","Ġh mm","Ġfor ces","Ġun us","Ġpo int","Ġru ins","le x","Ġwho se","Ġmin utes","Ġskill s","Ġv an","Ġeld er","Ġrecei ved","Ġa hh","Ġri ver","Ġcon s","Ġsing le","Ġli es","oun ter","Ġmeet ing","Ġthom pson","Ġc ut","Ġbe acon","uri es","Ġkid ding","Ġori g","Ġb ag","ist er","Ġgre en","Ġbirth day","ck ed","Ġlist ened","Ġdr ink","Ġfam il","Ġcl ues","Ġforest s","Ġhar ness","Ġbreat h","Ġo sc","am es","now ned","Ġfav or","Ġs ear","Ġre nowned","Ġcompl ete","Ġamaz ing","o ld","ll is","ro du","Ġmo vie","Ġdes p","Ġdes cri","Ġincl u","Ġosc ar","l and","u able","Ġb uri","Ġsu b","Ġkid s","Ġb le","Ġc ott","Ġnot e","w ork","Ġc ook","Ġcreat ed","Ġbo ss","Ġland s","Ġposs ess","Ġphy llis","ic es","Ġmis chi","Ġwel come","c he","n al","r act","Ġn one","Ġlo ved","Ġpr act","Ġexplore d","Ġcast ing","Ġthi ck","Ġbro ke","Ġburi ed","Ġro b","Ġstrong er","Ġocc ur","Ġst an","Ġen g","Ġcl ass","b ut","m as","Ġm other","Ġf act","Ġbelie ved","Ġser ious","Ġlandscap es","Ġl ine","Ġh it","ge st","Ġr a","Ġc ir","Ġcent uries","Ġphy s","Ġet ched","Ġador ned","ri s","Ġab s","Ġcott age","t hat","t ers","Ġt en","Ġm ine","Ġint rodu","Ġread ing","Ġsur face","ru ct","Ġinc red","Ġbuild ing","Ġf ant","Ġco ver","ol k","Ġdist ant","Ġs ong","ed ic","st one","an e","Ġcomp ass","Ġhold ing","Ġhappen ing","Ġthom as","Ġh on","Ġde fe","Ġpotent ial","i gh","Ġt ick","Ġwat ched","Ġeld ridge","Ġprom ise","Ġmount ains","Ġunus ual","us ing","Ġchrist mas","Ġtr an","Ġman aged","Ġmus ic","Ġstan ley","k en","Ġdepic ted","m y","Ġf ront","it er","Ġli e","Ġwor ry","Ġsee m","Ġwere n","Ġdis c","Ġsm ell","Ġpart ic","Ġfo ot","Ġwee k","Ġrel ations","Ġspea k","h mm","w ering","Ġsp ark","Ġmyst ical","Ġreme mb","Ġspell s","an k","Ġin d","ot s","Ġst ones","Ġinclu ding","Ġs itting","fe red","pt ic","Ġfest ival","Ġm m","Ġp en","Ġcha mber","Ġreal ity","Ġac cept","ibil ity","ft ed","Ġcare fully","Ġfe et","Ġwel c","Ġhal f","Ġe ither","Ġre ason","Ġdec is","Ġwom en","Ġmoment s","Ġpick ed","Ġon to","Ġv ivid","Ġad m","Ġatt ention","ev ous","Ġlar ge","Ġd av","Ġr um","Ġout s","Ġget s","Ġte aching","Ġuni verse","Ġreco gn","Ġw ife","at es","ot e","Ġth row","ak ed","Ġrac ed","Ġfear s","Ġmoon light","Ġcapt uring","Ġwond ers","Ġk ill","Ġint ently","Ġcar ried","Ġc al","Ġp age","Ġin formation","Ġst orm","ate ly","Ġem ily","Ġans wer","Ġmischi evous","in ite","al th","red it","lo g","Ġsc r","Ġlegend ary","ou ght","Ġstre am","Ġfollow ing","Ġexperi ence","Ġmark et","ll y","p h","w hel","Ġc ute","Ġd ance","Ġpl aced","Ġdec ip","Ġshar p","Ġer in","Ġab and","Ġover whel","mm a","Ġpre ser","Ġscen e","s et","at ive","Ġbe ings","Ġcreat ivity","Ġhelp ed","Ġ Ġ","Ġd ead","it u","Ġin ner","Ġbl ack","Ġevent s","Ġs ix","Ġf ight","Ġwe alth","Ġsqu are","Ġdav id","Ġc aught","ul ous","Ġcom fort","Ġenc ounter","Ġtou ched","Ġs ens","Ġof fered","Ġre qu","Ġk ept","lo ved","Ġrun es","st ac","Ġhu es","Ġcry ptic","Ġdress ed","Ġfamil iar","Ġf r","Ġg ather","vel op","Ġcount less","Ġbran ches","w ers","Ġm ad","Ġhum ans","Ġsol ve","Ġbe loved","Ġshe l","ke y","Ġab le","Ġtw ist","Ġreve l","Ġcast le","Ġval uable","Ġremind ing","Ġbright er","Ġm ach","Ġm aster","Ġth ri","Ġme re","Ġincred ible","h uh","Ġwe aring","Ġlea st","Ġte m","Ġflow er","Ġeas y","Ġdam n","i ence","Ġm ike","Ġto by","al e","Ġwr ite","a ren","Ġb ath","Ġex cept","Ġl unch","Ġst ri","by e","Ġter r","Ġpromis ed","Ġdesp ite","re s","Ġfor ce","Ġen jo","Ġstre et","he y","Ġd im","ic s","Ġdo ct","Ġare n","ak en","Ġbelong ed","Ġpict ure","Ġto wering","Ġp ul","Ġst ar","ul f","Ġway s","Ġguardian s","less ly","Ġear ly","Ġknow s","Ġsp r","Ġhesit ation","Ġscro ll","Ġt ears","Ġs light","an ge","Ġqu ite","Ġsu cc","Ġdirect ly","Ġaband oned","m ing","Ġcle an","Ġexp ect","igh b","Ġm en","Ġd ear","Ġne ighb","ry l","Ġany body","Ġm ater","Ġhe av","Ġre new","Ġquest ions","Ġcarry ing","Ġoccur ren","Ġc iv","Ġtown s","Ġstru gg","Ġciv il","Ġs ara","ol ute","Ġte am","Ġser iously","Ġunco vered","Ġbird s","Ġe mma","Ġso ci","Ġcon c","Ġsh ut","!! !","Ġcontin ue","ĠâĢ ľ","Ġch oo","Ġdest iny","e ms","Ġc and","Ġv ict","Ġman ager","hic al","Ġdoll ars","Ġsc ott","ran ce","Ġcol or","Ġunlock ing","Ġsucc ess","Ġsara h","Ġs ick","Ġc op","Ġbatt le","Ġabs olute","Ġ 8","Ġs n","Ġf ing","Ġun f","Ġscen es","Ġdar ryl","Ġoccurren ces","Ġs um","id ence","Ġas king","Ġsm ile","Ġbl ue","uck ed","Ġinv ited","Ġport ra","Ġt it","in ing","Ġc ause","Ġl umin","st er","Ġre d","Ġcan not","Ġco vered","Ġbring ing","Ġscro lls","Ġwelc omed","i ally","l ook","Ġk n","Ġno body","if fl","Ġtal ked","Ġbr ush","Ġcho ice","Ġob stac","Ġdest ro","Ġelder ly","Ġfavor ite","Ġphys ical","Ġy ep","Ġp ar","Ġr ing","Ġrealiz ing","Ġpi ec","Ġgl ad","Ġabsolute ly","iffl in","lo gy","Ġle ather","p i","Ġc ard","Ġm ill","Ġd ue","Ġan t","Ġwood en","Ġcho se","Ġterri ble","inite ly","Ġd ou","Ġu r","Ġcon vers","Ġdu nder","Ġcivil iz","t his","Ġt ucked","Ġm ix","Ġf re","Ġst ore","art ed","Ġcommun icate","Ġdecip her","f olk","Ġg ained","Ġjo ke","Ġpre ss","Ġhist or","b l","p ed","Ġin vent","Ġoverwhel med","a x","h ouse","p ly","at or","Ġsp end","Ġpro f","Ġsim ply","Ġslight ly","Ġmy t","Ġco st","Ġvis ions","Ġdoct or","Ġd iv","Ġl oud","Ġwarm th","Ġans wers","Ġje wel","Ġtran sp","b all","Ġs ister","Ġd edic","Ġp os","Ġgo es","Ġgu ided","ort ed","Ġsc ent","Ġneed s","Ġem p","Ġwis hes","Ġmiss ing","Ġass ist","Ġintrodu ced","er ie","Ġf ulf","Ġp an","Ġu gh","Ġcom b","Ġdes k","Ġartist s","Ġcor ner","Ġgi ving","Ġc re","Ġsu per","Ġcha ir","Ġthought s","Ġrememb ered","Ġtowns folk","Ġtr ad","Ġwr iting","Ġ2 0","Ġwise ly","Ġrelations hip","o g","Ġ 9","Ġg ra","il t","ul ations","Ġdu de","Ġfant ast","ell y","Ġmo d","Ġ1 9","Ġob ject","Ġhor iz","Ġpack ed","Ġdef initely","Ġking dom","Ġlau gh","Ġorig in","i or","Ġs our","Ġb ree","Ġg rove","Ġp ushed","it al","Ġun c","Ġposs ible","Ġda wn","Ġ $","Ġo pp","Ġp ure","en ing","ho st","ur ous","un a","Ġar th","Ġadvent urous","Ġcar ved","Ġtri als","Ġlad y","Ġs us","Ġwe ar","Ġse at","Ġfo c","Ġbran ch","Ġrevel ation","Ġno pe","Ġsee ms","Ġsho p","cha rd","Ġslow ly","Ġenjo y","p or","p es","Ġm er","Ġf acing","Ġg ay","Ġlo se","Ġco nd","Ġwhere ver","Ġhapp iness","ran k","Ġguard ed","Ġord er","Ġvan ished","Ġmyt hical","Ġarth ur","g an","Ġ 7","Ġb ur","Ġf ly","Ġg host","ro p","Ġam ul","Ġ1 5","Ġinsp ire","ib ly","itu de","Ġmach ine","Ġrenew ed","Ġs ort","Ġgr ateful","Ġse ver","Ġ1 0","Ġshow ed","vie w","Ġfaint ly","Ġprep ared","p ect","Ġcreat ion","Ġpo in","Ġflo or","Ġrespons ibility","Ġappreci ate","u ss","Ġb ri","Ġg ently","Ġdeep ly","Ġcomp lex","Ġfam ous","Ġvis ion","Ġent rance","Ġdanger ous","Ġprop he","Ġrepl ied","pi ece","Ġt urning","Ġk no","Ġdo ors","Ġpro du","Ġstran ger","Ġdisapp ear","f ather","il ing","Ġuh h","Ġpre gn","Ġapp ear","Ġcl i","Ġshould n","Ġsket ching","Ġdecis ion","Ġdestro y","Ġhoriz on","Ġamul et","r or","ha ps","Ġd ie","Ġst ra","ant on","Ġen velop","sp e","Ġwand ered","Ġinspir ation","Ġmem ory","Ġcollect ion",". ï¿½","w or","Ġn ec","oo o","rou d","Ġsp ace","un t","um e","Ġgirl friend","Ġpres ence","Ġpat ter","Ġscr anton","Ġbree ze","s he","s en","Ġm mm","Ġy ell","Ġus ual","Ġmag n","Ġheav y","Ġlumin a","ed i","Ġe ight","Ġn er","Ġbe low","air s","Ġtrave ler","ert ain","Ġhun g","Ġpartic ular","d le","Ġi ce","ep hy","Ġtown spe","Ġmess ages","Ġgrow ing","Ġtownspe ople","Ġs and","Ġb re","Ġc am","Ġp ol","Ġbut t","Ġri d","Ġsu g","Ġcl ot","Ġsurround ing","Ġbath room","Ġsever al","Ġi de","Ġc ust","Ġm ass","Ġp ound","Ġst at","Ġuh m","Ġz ephy","Ġfair y","t im","Ġt aken","Ġa ud","Ġf ield","id er","Ġme redit","Ġstudy ing","Ġmeredit h","Ġw ha","Ġglow ed","Ġca using","Ġs ac","Ġb ridge","nd red","Ġe erie","ke nd","Ġno dd","Ġsp ot","Ġoff er","Ġexp ress","Ġori on","Ġs ell","Ġp ond","or ts","Ġme lo","Ġyour s","Ġbo b","Ġper haps","Ġwee kend","Ġtech n","w w","Ġ 6","Ġs ad","Ġd ared","Ġn orm","Ġr ul","Ġr ustling","per t","Ġhu ndred","Ġatt ic","Ġa uth","Ġl aughter","ight s","Ġr ain","Ġad vice","Ġob v","a ur","c ess","g round","Ġc ab","Ġe scap","Ġall owed","Ġclo sed","pt ion","Ġchan ges","Ġinv ol","Ġchar act","Ġentire ly","Ġclaim ed","Ġhur t","Ġpiec es","Ġl ow","Ġen ter","Ġsear ching","re ct","Ġm ifflin","Ġn ar","Ġk elly","Ġjo in","Ġlight s","Ġcharact ers","h ood","Ġa ge","Ġha un","ir ts","Ġact ions","Ġsur ge","Ġwr ote","Ġma j","Ġcold er","Ġnav ig","Ġzephy r","Ġs on","Ġf ast","Ġsp e","Ġret urning","Ġboy friend","Ġhesit ated","c ent","c han","Ġb ott","Ġha ll","im ent","Ġpro ve","Ġpro ject","Ġcor n","Ġsol ving","Ġlandscap e","Ġf it","Ġin ha","id st","Ġnot ice","one st","Ġsa ved","Ġam idst","Ġpr in","Ġfeel ings","Ġdan cing","Ġpuzz les","Ġtap est","Ġmaster piece","b er","b ook","Ġy ork","Ġp ants","Ġtw ink","Ġjour nal","Ġmar ry","Ġshimm ered","Ġcompass ion","Ġconvers ation","Ġjewel s","Ġcust om","Ġl ab","iz ing","Ġmid dle","Ġdraw ing","k irts","u ation","Ġc ross","Ġwe ight","Ġj ud","co l","Ġgirl s","Ġstud io","Ġouts kirts","m at","v in","Ġc ertain","Ġh onest","Ġex am","Ġsa f","ra p","Ġset t","ific ent","ris hed","Ġorigin al","Ġstra ight","Ġmagn ificent","d s","f ic","h ow","t ly","Ġ ï¿½","Ġc oo","Ġf reak","ic ulous","Ġun less","Ġper form","Ġridd les","Ġauth or","Ġf ier","Ġp et","Ġn aked","Ġis land","Ġall ow","ast e","ast s","Ġar med","Ġhar m","Ġ1 2","Ġdes ire","Ġgl ass","Ġclose ly","Ġsour ce","Ġide as","Ġto ol","Ġp ee","Ġdifferen ce","Ġspread ing","Ġdep ths","Ġcho sen","Ġmiss ed","Ġsil ver","Ġemot ions","m in","u b","Ġm ur","am ent","Ġsm art","Ġste al","Ġguid ing","Ġdescri be","Ġtransp orted","Ġnodd ed","e f","Ġt reat","Ġb at","ar ian","Ġre la","Ġex hi","un ning","Ġbr other","ree k","Ġlisten ing","Ġsupp ort","Ġamaz ed","Ġdiscover ing","Ġprophe cy","Ġrela x","Ġm il","Ġd aughter","Ġl ur","Ġwe a","Ġpass age","Ġchi ck","Ġshow ing","-- -","Ġembr acing","Ġones elf","Ġpregn ant","Ġt ire","Ġre aching","Ġtr unk","Ġare a","Ġgr at","Ġcat ch","Ġmater ial","Ġsoci ety","b el","Ġb es","Ġc ase","Ġm al","ce nd","ck et","Ġhapp ens","Ġper il","Ġconn ected","Ġid ent","Ġrest ore","Ġdri ven","ibil ities","Ġhang ing","Ġhon or","Ġprodu ct","Ġfier ce","d o","Ġb ase","Ġm ural","iz z","Ġgr ab","Ġ1 8","Ġfo x","Ġdes per","Ġap o","Ġsafe ly","Ġdri ve","Ġeli as","Ġgrat itude","l it","m a","r t","Ġp red","Ġr an","Ġcha os","ru pt","s es","Ġc up","Ġin de","ell er","Ġsm o","Ġfig ures","Ġwh ite","Ġele ments","Ġclot hes","r ute","t elling","Ġf an","Ġf ail","es ome","is m","dd y","Ġem an","Ġbab ies","Ġsun light","Ġridd le","i pped","ed s","Ġf ateful","Ġl ush","Ġp hi","it ive","id es","ent y","Ġplay ed","ress ed","Ġheal ing","Ġdisapp eared","e ve","v is","v ous","Ġa v","Ġw iz","Ġd ied","Ġre se","Ġst ick","Ġlet ters","Ġwar ned","Ġcor rect","Ġsto pped","Ġchoo se","Ġb ak","Ġc row","Ġf ix","Ġth orne","Ġnot es","ving s","Ġco de","Ġold er","Ġvis ited","Ġdisc uss","Ġfulf ill","Ġinha bit","f low","it ions","Ġ1 1","Ġ1 4","Ġfl ick","Ġacc ident","Ġgi ven","Ġtech no","Ġtrad ition","Ġwiz ard","Ġc ake","Ġc ult","Ġf ate","et ed","Ġv ol","Ġal ar","Ġtr a","il ity","ter ing","ack s","Ġloc ation","Ġimag ined","Ġdang ers","Ġpu bl","Ġdi ary","Ġspea king","Ġner vous","Ġt rou","Ġmar ve","Ġanim al","Ġcal m","Ġs end","Ġb oo","Ġf il","Ġl ant","ci al","Ġse ven","Ġexpl ain","Ġmon th","Ġtri p","Ġmap s","Ġartist ic","Ġid i","Ġaw esome","Ġproble ms","Ġinhabit ants","Ġlant ern","Ġp izz","Ġk ick","Ġj u","ant ly","Ġhand ed","Ġte ach","Ġte xt","Ġless on","Ġres il","Ġtrave led","Ġsign ific","Ġthreat ened","Ġnav igate","l ier","Ġw ore","Ġf le","at hy","oo h","out h","Ġoh hh","Ġde ath","Ġmir ror","Ġble nd","Ġdiv or","v ation","Ġt ight","Ġd ating","Ġp roud","st ore","is co","Ġhi g","Ġri chard","Ġpre c","Ġent ered","Ġcoll e","Ġdepic ting","Ġunf old","Ġs ke","Ġb ing","Ġin no","Ġcon gr","Ġsh ot","Ġhu ge","Ġaw ait","Ġrep res","Ġpuzz le","Ġimm edi","Ġcir c","Ġsug gest","Ġresil ience","Ġcongr at","ll ed","ro ke","Ġpl ant","Ġwr iter","Ġcar ol","Ġ2 4","Ġres ol","Ġcap able","Ġtrans form","Ġpatter ns","Ġperil ous","p ack","Ġf ired","Ġli la","us cri","ig ned","Ġman uscri","Ġrun ning","Ġworks ho","Ġpromis ing","Ġpossess ed","Ġfantast ical","Ġinde ed","g s","y m","Ġc reek","as ed","se e","ic ing","Ġreal ms","Ġbook store","Ġrealiz e","Ġ1 3","sc ri","Ġmind s","Ġvent ure","Ġsit uation","Ġobv iously","i ving","i ries","w ood","Ġw oke","et h","Ġwor st","Ġgu n","Ġexpl aining","Ġcomp ut","Ġconf idence","Ġfull y","Ġsil ence","Ġfall en","Ġexist ence","Ġdefe at","Ġprof ess","Ġenvelop ed","Ġsaf ety","v al","Ġt v","Ġho sp","Ġ1 7","Ġinterest ing","Ġmist ake","Ġpreser ving","Ġdedic ated","Ġassist ant","w ell","Ġf aces","Ġfriend ly","Ġfeel s","Ġsweet ie","' .","b and","s ure","Ġt ea","Ġa we","Ġf if","Ġf ab","Ġit ems","Ġbe at","ous and","Ġor gan","Ġaf f","Ġwar ning","Ġturn s","Ġtire lessly","c on","k ay","Ġw are","Ġth ousand","Ġen v","Ġsu ck","Ġsc ared","Ġheart stone","Ġper ched","Ġph ot","Ġsch rute","Ġfre sh","he ll","Ġa st","Ġb ill","Ġre ach","ce st","Ġwor se","the re","Ġcr ack","Ġfa iries","Ġidi ot","b its","n el","y our","Ġb ark","Ġd are","ust ed","if f","Ġpl ans","Ġco zy","Ġsha ke","feren ce","Ġtri ck","Ġlibr arian","Ġimag ine","Ġbro ken","Ġcomplete ly","Ġrob ert","Ġware house","i als","Ġ ing","Ġt y","Ġs ight","Ġb ought","st em","Ġan cest","ra id","ort un","Ġown er","Ġ1 6","Ġdes er","Ġdel icate","Ġkey s","Ġnorm al","Ġcolle ge","Ġhosp ital","\" .","m en","Ġt as","Ġl ake","an ces","ri sh","Ġk it","Ġall ies","us band","Ġjo e","Ġad v","Ġprotect or","Ġthi rd","Ġcir cle","Ġciviliz ation","Ġopp ortun","Ġrepres ent","t ered","Ġw a","Ġf at","Ġf rank","Ġg eller","ho l","Ġhad n","Ġpro s","Ġsc re","Ġaf raid","Ġour selves","Ġexper iment","Ġcryst als","Ġwonder ing","Ġear lier","Ġtest ament","Ġcapt ure","Ġreflect ing","who a","Ġhistor ical","wor ld","on ment","Ġu nd","ic ious","Ġat op","Ġfin ished","Ġse al","Ġcl ue","Ġmon key","Ġgrand father","Ġkeep ing","Ġvi ol","Ġgi ant","Ġgrow th","Ġrequ ired","Ġparticular ly","Ġb and","Ġb orn","Ġre ci","Ġthink s","pl ace","Ġgreat er","Ġstory telling","Ġbo at","Ġem pt","Ġbu ddy","Ġcomm on","Ġresp ected","Ġgl im","Ġconf ront","Ġtravel ers","Ġra ise","Ġterr ain","Ġ rom","Ġw ound","Ġb low","Ġc ru","Ġf ro","Ġto r","Ġg ab","Ġp op","âĢ Ŀ","ri age","Ġfor med","Ġbut ter","Ġv ie","Ġall ey","Ġr ad","Ġlo cked","Ġro ck","end ed","Ġcont aining","umb le","Ġde m","Ġunlock ed","Ġval ue","i que","Ġm ed","as ing","Ġ2 1","Ġ2 3","Ġacc ount","Ġsing ing","Ġill um","Ġemot ion","Ġenv ir","a w","p ing","Ġg ust","Ġg az","it ch","Ġwe athered","ut ion","Ġwit ness","ce l","Ġor ange","Ġsa ving","Ġunder ground","Ġoff ering","Ġdes ign","Ġflow ed","Ġer a","look ing","Ġkno ck","Ġillum inated","m it","r ay","s on","Ġf ame","Ġe h","ar ies","Ġin scri","Ġh usband","Ġwill ing","Ġart work","Ġho lly","Ġpass ing","Ġcar vings","Ġend ed","Ġinst ruct","Ġ2 2","Ġecho ing","Ġlad ies","Ġcorn ers","Ġtechno logy","Ġpizz a","st ep","el ara","Ġpro v","Ġguard ing","Ġshi ft","Ġcommun ic","Ġcor por","Ġinter view","Ġdiscover ies","Ġterri f","Ġmere ly","Ġfab ric","Ġempt y","Ġenvir onment","u ing","Ġw ings","st airs","ust r","Ġlo sing","Ġpri v","Ġgrant ed","Ġfa ult","Ġbrush st","flow ers","n ate","Ġo dd","Ġc ed","Ġe st","oo f","Ġpl ants","Ġcha p","Ġpart s","Ġbu ilt","Ġres on","Ġcra ft","Ġtest ed","Ġwin ter","Ġrec ord","Ġfing ers","Ġtapest ry","d ed","Ġ ,","Ġb ore","Ġg n","Ġp ush","Ġli f","Ġh omet","Ġhi de","Ġun ra","Ġbelie ving","Ġla w","Ġfield s","Ġrul es","Ġrese ar","Ġhomet own","Ġi gn","ar r","Ġbe ar","pp er","Ġro se","Ġsome where","Ġback pack","Ġac hi","Ġwonder ful","Ġhor ri","Ġmaj est","Ġcongrat ulations","Ġc u","Ġe sp","Ġin fl","ut s","Ġtr ace","Ġri vers","Ġam er","Ġcour sing","Ġstart ing","Ġprotect ing","Ġsho es","Ġcount ry","Ġevent ually","Ġfree ly","Ġtick ets","Ġaud ition","Ġimmedi ately","Ġced ric","t e","Ġl it","Ġg as","Ġg all","en cy","se qu","Ġli ked","Ġr ab","Ġcon st","Ġqu it","Ġco ins","Ġfin ish","act ic","Ġmar riage","Ġposs ibilities","Ġprec ious","Ġawait ed","Ġkit che","Ġt ur","Ġm ent","hi ps","Ġj ump","Ġfor t","am ing","Ġwas h","Ġevery day","us hing","Ġpro ved","Ġcont ents","Ġde vice","Ġfl ou","Ġpur s","Ġheal th","Ġnumb ers","Ġhaun ted","Ġlur king","Ġg ain","Ġwhe ther","Ġcon sequ","Ġro le","Ġro ad","est er","Ġco in","Ġother world","Ġchan ging","Ġhand le","Ġshadow y","Ġpri ce","Ġmir ac","Ġdou b","Ġstat ue","Ġapo log","isco very","Ġkitche n","l ies","s y","Ġt akes","Ġb read","or ation","ac ter","Ġwor ried","Ġri de","Ġr out","un g","Ġmo ss","Ġsha ll","Ġgr own","Ġapp aren","iss ion","Ġdr unk","Ġdream ing","ms on","Ġcri mson","Ġbus y","Ġhero es","Ġmount ain","Ġinterest ed","Ġneighb ors","Ġportra its","Ġpros per","Ġotherworld ly","d iscovery","f er","w ic","Ġt ough","Ġm ention","Ġg ri","oo oo","Ġri ch","un e","Ġgood bye","Ġcare ful","Ġchild hood","Ġcur sed","Ġlate st","Ġthreat ening","Ġdim ens","Ġobstac le","Ġnar row","bel ie","Ġchap ter","Ġconsequ ences","s ion","Ġw ield","Ġs elling","Ġp al","Ġbe ha","Ġst ate","ant ic","Ġup set","Ġri s","Ġro y","pl ay","Ġnight s","Ġche es","Ġatt ract","Ġconnect ions","Ġrest aur","Ġremind er","Ġjan ice","ruct ion","Ġgab e","k er","at ure","Ġj ul","ant a","Ġex ce","qu es","Ġen ig","Ġcall s","Ġte x","Ġte le","Ġexplore r","Ġfigure d","Ġsho ck","Ġthi r","Ġperfect ly","Ġwild flowers","Ġdetail s","Ġshel ves","Ġsand wic","Ġalar ic","Ġske pt","Ġmajest ic","in a","Ġc oun","Ġd ir","Ġro ots","Ġag ree","Ġwis hed","Ġsho ot","Ġchar acter","Ġimportant ly","Ġvisit ors","Ġflo ating","Ġaccept ed","Ġcomput er","Ġcorpor ate","g o","Ġf ill","ter nal","lo st","Ġsh h","Ġdes cend","Ġpa id","Ġpeace ful","Ġuncover ing","Ġclim bed","Ġsens ation","Ġnec k","w ait","he arted","Ġo per","Ġl iter","Ġwe ather","Ġli kes","is es","Ġgo sh","Ġint ell","Ġlo ves","Ġpl us","Ġman ip","Ġdec ide","Ġsc rew","Ġpre vent","Ġdeep est","Ġdif fic","Ġsy stem","Ġmiss ion","Ġclim actic","Ġcook ies","Ġrecogn ized","f all","Ġs ab","Ġb an","Ġb unch","Ġf ought","Ġe ve","Ġn ine","om es","ent ric","am p","Ġso ld","ad es","Ġsp ine","um ent","ul ate","Ġbu cks","Ġfl ash","att ered","Ġstorm y","Ġdesper ate","Ġprosper ity","Ġrestaur ant","m p","o id","Ġy ester","Ġl una","as ons","Ġst y","am s","Ġdo in","Ġro ll","Ġoff ic","Ġopen ing","Ġemb arr","Ġsil ent","gr and","Ġbond s","Ġvict or","Ġportra it","Ġallow ing","hell o","Ġinfl u","Ġskept ical","Ġyester day","Ġembarr ass","g iving","Ġs anta","Ġm outh","ar led","ow s","al ity","Ġme chan","ous ly","um er","Ġlo ck","Ġtw enty","Ġho llow","Ġplan ning","Ġbas ed","Ġobstac les","Ġgn arled","r ing","Ġc unning","Ġl ined","se en","Ġth rived","ag ing","is hing","Ġwho ever","Ġevery where","Ġqu een","Ġchi ll","hh h","Ġstre t","Ġwind ing","Ġres ist","Ġmark ed","Ġdad dy","Ġwh oo","Ġclear ly","Ġpull ed","Ġrum ored","Ġwea ving","Ġtrou ble","Ġm ot","Ġl ying","Ġe cc","Ġn a","Ġn ur","Ġbe asts","Ġno vel","el s","lo y","Ġsk in","Ġhu g","Ġ- -","Ġwall ace","Ġob ser","Ġap art","Ġhuman ity","Ġins ights","Ġsum mer","Ġcli ents","Ġhig her","Ġexce ll","n ings","Ġc as","Ġin f","Ġman sion","pl ic","Ġcl iff","Ġatt ack","Ġgl ade","Ġacc ess","Ġcelebr ate","Ġstru ck","Ġsong s","Ġpan ic","Ġescap e","Ġecc entric","i est","i ques","y s","Ġs an","Ġb are","Ġb rid","es us","ic ke","Ġh in","Ġh ook","Ġcon ference","Ġover come","ap s","Ġsm oke","Ġbo ard","Ġsur v","Ġchar ge","Ġda ily","Ġhal pert","Ġreg ular","Ġbak ery","Ġvie w","Ġexcell ent","r al","t aking"]}}