{"version":"1.0","truncation":null,"padding":null,"added_tokens":[{"id":0,"content":"<PAD>","single_word":false,"lstrip":false,"rstrip":false,"normalized":false,"special":true},{"id":1,"content":"<BOS>","single_word":false,"lstrip":false,"rstrip":false,"normalized":false,"special":true},{"id":2,"content":"<EOS>","single_word":false,"lstrip":false,"rstrip":false,"normalized":false,"special":true},{"id":3,"content":"<UNK>","single_word":false,"lstrip":false,"rstrip":false,"normalized":false,"special":true},{"id":4,"content":"{","single_word":false,"lstrip":false,"rstrip":false,"normalized":false,"special":true},{"id":5,"content":"}","single_word":false,"lstrip":false,"rstrip":false,"normalized":false,"special":true},{"id":6,"content":"[","single_word":false,"lstrip":false,"rstrip":false,"normalized":false,"special":true},{"id":7,"content":"]","single_word":false,"lstrip":false,"rstrip":false,"normalized":false,"special":true},{"id":8,"content":":","single_word":false,"lstrip":false,"rstrip":false,"normalized":false,"special":true},{"id":9,"content":",","single_word":false,"lstrip":false,"rstrip":false,"normalized":false,"special":true},{"id":10,"content":"\"","single_word":false,"lstrip":false,"rstrip":false,"normalized":false,"special":true},{"id":11,"content":"\n","single_word":false,"lstrip":false,"rstrip":false,"normalized":false,"special":true}],"normalizer":{"type":"Sequence","normalizers":[{"type":"NFC"},{"type":"Lowercase"}]},"pre_tokenizer":{"type":"ByteLevel","add_prefix_space":true,"trim_offsets":true,"use_regex":true},"post_processor":{"type":"TemplateProcessing","single":[{"SpecialToken":{"id":"<BOS>","type_id":0}},{"Sequence":{"id":"A","type_id":0}},{"SpecialToken":{"id":"<EOS>","type_id":0}}],"pair":[{"SpecialToken":{"id":"<BOS>","type_id":0}},{"Sequence":{"id":"A","type_id":0}},{"SpecialToken":{"id":"<EOS>","type_id":0}},{"Sequence":{"id":"B","type_id":1}},{"SpecialToken":{"id":"<EOS>","type_id":1}}],"special_tokens":{"<BOS>":{"id":"<BOS>","ids":[1],"tokens":["<BOS>"]},"<EOS>":{"id":"<EOS>","ids":[2],"tokens":["<EOS>"]}}},"decoder":{"type":"ByteLevel","add_prefix_space":true,"trim_offsets":true,"use_regex":true},"model":{"type":"BPE","dropout":null,"unk_token":null,"continuing_subword_prefix":null,"end_of_word_suffix":null,"fuse_unk":false,"byte_fallback":false,"ignore_merges":false,"vocab":{"<PAD>":0,"<BOS>":1,"<EOS>":2,"<UNK>":3,"{":4,"}":5,"[":6,"]":7,":":8,",":9,"\"":10,"\n":11,"!":12,"#":13,"$":14,"%":15,"&":16,"'":17,"(":18,")":19,"*":20,"+":21,"-":22,".":23,"/":24,"0":25,"1":26,"2":27,"3":28,"4":29,"5":30,"6":31,"7":32,"8":33,"9":34,";":35,"<":36,"=":37,">":38,"?":39,"@":40,"\\":41,"^":42,"_":43,"`":44,"a":45,"b":46,"c":47,"d":48,"e":49,"f":50,"g":51,"h":52,"i":53,"j":54,"k":55,"l":56,"m":57,"n":58,"o":59,"p":60,"q":61,"r":62,"s":63,"t":64,"u":65,"v":66,"w":67,"x":68,"y":69,"z":70,"|":71,"~":72,"¡":73,"¢":74,"£":75,"¤":76,"¥":77,"¦":78,"§":79,"¨":80,"©":81,"ª":82,"«":83,"¬":84,"®":85,"¯":86,"°":87,"±":88,"²":89,"³":90,"´":91,"µ":92,"¶":93,"·":94,"¸":95,"¹":96,"º":97,"»":98,"¼":99,"½":100,"¾":101,"¿":102,"Â":103,"Ã":104,"Ä":105,"Å":106,"Æ":107,"Ç":108,"È":109,"É":110,"Ê":111,"Ë":112,"Ì":113,"Í":114,"Î":115,"Ï":116,"Ð":117,"Ñ":118,"×":119,"Ø":120,"Ù":121,"Ú":122,"Û":123,"à":124,"á":125,"â":126,"ã":127,"ä":128,"å":129,"æ":130,"ç":131,"è":132,"é":133,"ê":134,"ë":135,"ì":136,"í":137,"ï":138,"ð":139,"Ă":140,"ĉ":141,"Ċ":142,"ċ":143,"Ġ":144,"Ģ":145,"ģ":146,"Ĥ":147,"ĥ":148,"Ħ":149,"ħ":150,"Ĩ":151,"ĩ":152,"Ī":153,"ī":154,"Ĭ":155,"ĭ":156,"Į":157,"į":158,"İ":159,"ı":160,"Ĳ":161,"ĳ":162,"Ĵ":163,"ĵ":164,"Ķ":165,"ķ":166,"ĸ":167,"Ĺ":168,"ĺ":169,"Ļ":170,"ļ":171,"Ľ":172,"ľ":173,"Ŀ":174,"ŀ":175,"Ł":176,"ł":177,"Ń":178,"Ġt":179,"Ġa":180,"he":181,"Ġi":182,"Ġw":183,"Ġthe":184,"Ġo":185,"Ġs":186,"ou":187,"re":188,"in":189,"ha":190,"Ġm":191,"Ġy":192,"nd":193,"Ġb":194,"Ġc":195,"er":196,"Ġyou":197,"Ġd":198,"Ġf":199,"Ġg":200,"on":201,"ing":202,"Ġto":203,"Ġp":204,"Ġand":205,"or":206,"ll":207,"Ġl":208,"Ġof":209,"Ġn":210,"es":211,"en":212,"an":213,"hat":214,"hi":215,"Ġin":216,"at":217,"it":218,"Ġis":219,"om":220,"Ġhe":221,"ar":222,"ve":223,"st":224,"ow":225,"Ġbe":226,"Ġha":227,"Ġe":228,"ay":229,"se":230,"Ġit":231,"le":232,"ot":233,"ut":234,"Ġu":235,"Ġthat":236,"et":237,"Ġwe":238,"ed":239,"Ġon":240,"..":241,"id":242,"Ġj":243,"ke":244,"his":245,"ic":246,"al":247,"as":248,"gh":249,"Ġgo":250,"Ġfor":251,"Ġr":252,"Ġme":253,"Ġh":254,"âĢ":255,"ac":256,"'s":257,"Ġwhat":258,"âĢĻ":259,"Ġk":260,"ld":261,"Ġre":262,"Ġdo":263,"ion":264,"am":265,"ght":266,"ent":267,"ver":268,"Ġth":269,"Ġst":270,"ill":271,"Ġli":272,"Ġan":273,"Ġare":274,"ith":275,"ir":276,"Ġmy":277,"ad":278,"Ġyour":279,"Ġnot":280,"Ġwith":281,"Ġhave":282,"Ġno":283,"ight":284,"Ġso":285,"ho":286,"Ġthis":287,"Ġse":288,"od":289,"all":290,"el":291,"ch":292,"Ġwas":293,"ur":294,"Ġhi":295,"Ġcom":296,"now":297,"Ġwill":298,"ri":299,"ah":300,"ord":301,"Ġall":302,"Ġcan":303,"ust":304,"...":305,"Ġoh":306,"op":307,"'t":308,"ould":309,"ly":310,"her":311,"ant":312,"im":313,"is":314,"Ġas":315,"ct":316,"Ġye":317,"Ġknow":318,"Ġfr":319,"th":320,"Ġwho":321,"ake":322,"Ġbut":323,"Ġhis":324,"ra":325,"Ġok":326,"Ġne":327,"Ġlo":328,"Ġde":329,"Ġjust":330,"Ġsa":331,"Ġpr":332,"est":333,"Ġab":334,"Ġdon":335,"ok":336,"Ġthey":337,"out":338,"ive":339,"Ġthere":340,"Ġor":341,"Ġwhe":342,"ers":343,"os":344,"ce":345,"ain":346,"Ġfrom":347,"Ġout":348,"Ġup":349,"Ġlike":350,"Ġsu":351,"Ġat":352,"au":353,"ame":354,"ally":355,"il":356,"and":357,"ge":358,"Ġhim":359,"Ġhow":360,"ore":361,"Ġlord":362,"qu":363,"Ġyeah":364,"ation":365,"han":366,"ter":367,"ry":368,"Ġget":369,"'m":370,"Ġabout":371,"Ġokay":372,"pp":373,"ol":374,"Ġby":375,"Ġsom":376,"ul":377,"un":378,"Ġone":379,"Ġv":380,"Ġthem":381,"Ġpl":382,"um":383,"Ġif":384,"Ġman":385,"Ġshe":386,"ab":387,"Ġright":388,"fe":389,"Ġwell":390,"ak":391,"art":392,"us":393,"ess":394,"ink":395,"Ġdid":396,"Ġher":397,"Ġte":398,"Ġsay":399,"very":400,"Ġex":401,"Ġam":402,"Ġhey":403,"one":404,"Ġlet":405,"ren":406,"Ġwhi":407,"ack":408,"Ġal":409,"Ġgod":410,"na":411,"Ġwor":412,"Ġsaid":413,"ven":414,"Ġpe":415,"Ġtheir":416,"reat":417,"Ġcome":418,"ong":419,"ie":420,"ast":421,"Ġ\"":422,"Ġhas":423,"Ġsh":424,"Ġwhen":425,"if":426,"Ġle":427,"'re":428,"hy":429,"ause":430,"Ġput":431,"Ġwould":432,"Ġthink":433,"pe":434,"Ġsee":435,"Ġhere":436,"ine":437,"ace":438,"Ġgu":439,"ate":440,"Ġwant":441,"Ġgive":442,"Ġgood":443,"Ġbec":444,"ig":445,"Ġcon":446,"Ġwere":447,"ep":448,"ck":449,"Ġthen":450,"Ġpeop":451,"Ġnow":452,"Ġhad":453,"ose":454,"Ġtim":455,"Ġfe":456,"Ġpro":457,"Ġthan":458,"ind":459,"Ġany":460,"Ġmake":461,"Ġpeople":462,"Ġwhich":463,"pt":464,"Ġlook":465,"Ġun":466,"hing":467,"Ġint":468,"Ġjo":469,"Ġag":470,"Ġus":471,"red":472,"Ġqu":473,"Ġgot":474,"ade":475,"Ġsome":476,"ice":477,"ase":478,"Ġtake":479,"be":480,"Ġar":481,"Ġuh":482,"Ġreally":483,"Ġtw":484,"ist":485,"Ġgreat":486,"Ġmean":487,"Ġco":488,"Ġevery":489,"Ġwhy":490,"Ġoff":491,"Ġbr":492,"ide":493,"Ġmo":494,"onna":495,"res":496,"Ġgonna":497,"Ġmay":498,"Ġtr":499,"Ġtime":500,"Ġmade":501,"Ġday":502,"pl":503,"ving":504,"our":505,"ous":506,"ound":507,"Ġke":508,"dd":509,"cc":510,"Ġthing":511,"way":512,"Ġover":513,"Ġbecause":514,"ment":515,"Ġback":516,"Ġguy":517,"Ġson":518,"ies":519,"Ġking":520,"ag":521,"ble":522,"oss":523,"ort":524,"Ġ1":525,"Ġro":526,"Ġway":527,"Ġwork":528,"Ġchi":529,"Ġwr":530,"ud":531,"Ġgoing":532,"Ġagain":533,"Ġyes":534,"Ġsc":535,"own":536,"Ġcha":537,"Ġen":538,"Ġbo":539,"ity":540,"Ġbeen":541,"Ġtell":542,"ath":543,"Ġcl":544,"Ġdoes":545,"Ġuse":546,"ree":547,"age":548,"ber":549,"ard":550,"alk":551,"Ġear":552,"nder":553,"ite":554,"Ġinto":555,"Ġfo":556,"Ġbl":557,"Ġtwo":558,"Ġcomp":559,"itt":560,"Ġword":561,"mm":562,"Ġneed":563,"other":564,"Ġcould":565,"we":566,"ave":567,"Ġbet":568,"Ġgi":569,"Ġour":570,"are":571,"av":572,"urn":573,"Ġshould":574,"ough":575,"ure":576,"Ġsp":577,"Ġthank":578,"em":579,"Ġdown":580,"lf":581,"act":582,"fore":583,"nt":584,"Ġser":585,"ick":586,"ĠÐ":587,"ther":588,"ue":589,"per":590,"Ġbefore":591,"Ġwhere":592,"ach":593,"Ġ2":594,"Ġwent":595,"end":596,"Ġple":597,"ars":598,"Ġisra":599,"Ġisrael":600,"Ġho":601,"Ġsomet":602,"Ġim":603,"Ġmore":604,"00":605,"Ġaf":606,"ction":607,"Ġfl":608,"iz":609,"Ġland":610,"Ġhand":611,"Ġsor":612,"Ġdes":613,"Ġcame":614,"ire":615,"ather":616,"Ġmon":617,"ro":618,"ount":619,"Ġchild":620,"Ġtalk":621,"Ġthose":622,"Ġother":623,"ves":624,"Ġhapp":625,"ci":626,"Ġlove":627,"'ll":628,"ome":629,"ass":630,"ouse":631,"wn":632,"Ġpart":633,"Ġplace":634,"Ġguys":635,"Ġfir":636,"Ġcall":637,"know":638,"Ġbu":639,"Ġsure":640,"Ġ(":641,"Ġwat":642,"Ġact":643,"?!":644,"Ġsomething":645,"Ġnew":646,"ody":647,"Ġsorry":648,"Ġplease":649,"Ġfirst":650,"Ġaway":651,"Ġmar":652,"Ġthese":653,"ory":654,"thing":655,"ittle":656,"Ġev":657,"Ġmen":658,"Ġkeep":659,"Ġspe":660,"Ġeven":661,"Ġlittle":662,"Ġtak":663,"ish":664,"ait":665,"Ġhel":666,"Ġmic":667,"ap":668,"ting":669,"able":670,"ty":671,"Ġgave":672,"get":673,"Ġunder":674,"Ġmu":675,"Ġpo":676,"ise":677,"!!":678,"Ð¾":679,"ering":680,"ey":681,"Ġhu":682,"Ġafter":683,"te":684,"Ġname":685,"ning":686,"Ġhouse":687,"ret":688,"ff":689,"Ġnum":690,"ations":691,"Ġdif":692,"Ġfun":693,"Ġsm":694,"Ġapp":695,"ought":696,"Ġgr":697,"Ġhelp":698,"Ġwait":699,"rent":700,"Ġvery":701,"Ġel":702,"Ġz":703,"Ġchildren":704,"riend":705,"orm":706,"ft":707,"Ġpri":708,"Ġsec":709,"Ġdidn":710,"de":711,"Ġsha":712,"Ġtook":713,"ans":714,"Ġagainst":715,"day":716,"Ġdoing":717,"og":718,"ions":719,"Ġfather":720,"Ġfeel":721,"Ġla":722,"Ġonly":723,"ru":724,"Ġtoo":725,"ence":726,"hael":727,"Ġmuch":728,"Ð°":729,"Ġthings":730,"Ġsent":731,"Ġlife":732,"Ġmichael":733,"Ġross":734,"ia":735,"Ġum":736,"Ġits":737,"Ġpers":738,"Ġlong":739,"ple":740,"self":741,"Ðµ":742,"ale":743,"Ġres":744,"iv":745,"'ve":746,"Ġper":747,"Ġnever":748,"Ġthr":749,"xt":750,"ull":751,"Ġwom":752,"Ġserv":753,"rd":754,"Ġthought":755,"Ġgiven":756,"ica":757,"Ġplay":758,"Ġbest":759,"Ġche":760,"Ġhell":761,"up":762,"Ġmak":763,"ne":764,"ang":765,"Ġstr":766,"Ġlist":767,"Ġexpl":768,"Ġearth":769,"Ġdav":770,"wer":771,"Ġans":772,"Ġdeath":773,"Ġperson":774,"ix":775,"les":776,"Ġdavid":777,"Ġever":778,"ady":779,"Ġdr":780,"Ġstart":781,"Ġstill":782,"oney":783,"Ġsin":784,"ated":785,"ÑĤ":786,"ond":787,"Ġevil":788,"body":789,"right":790,"Ġbab":791,"Ġhappen":792,"ache":793,"ign":794,"ely":795,"ult":796,"Ġimp":797,"oh":798,"Ġtown":799,"Ġfriend":800,"ually":801,"Ġdiffe":802,"led":803,"che":804,"Ġturn":805,"Ġjoey":806,"Ġwrite":807,"Ġbig":808,"Ġ'":809,"Ġem":810,"Ġthree":811,"Ġend":812,"ress":813,"no":814,"gether":815,"Ġ3":816,"Ġmaybe":817,"Ġfood":818,"Ġbel":819,"oth":820,"Ġkind":821,"Ġchan":822,"Ġtogether":823,"ical":824,"ub":825,"Ġquest":826,"Ġused":827,"int":828,"Ġdis":829,"Ġnumber":830,"form":831,"ian":832,"ert":833,"Ġmany":834,"ious":835,"Ð¸":836,"ible":837,"Ġje":838,"Ġjud":839,"ler":840,"iah":841,"ary":842,"Ġnight":843,"Ġdone":844,"Ġop":845,"Ġrest":846,"Ġord":847,"Ġbre":848,"Ġyears":849,"Ġwo":850,"Ġfam":851,"Ġsaying":852,"Ġold":853,"Ġcar":854,"Ġwithout":855,"Ġah":856,"Ġask":857,"ng":858,"ms":859,"Ġcle":860,"ents":861,"ance":862,"Ġstop":863,"Ġwords":864,"ors":865,"Ġtry":866,"Ġliving":867,"Ġservant":868,"Ġgl":869,"Ġad":870,"vel":871,"ween":872,"Ġanswer":873,"Ġhead":874,"Ġoffering":875,"Ġbetween":876,"Ġmat":877,"Ġthrough":878,"Ġbetter":879,"Ġheart":880,"Ġdw":881,"Ġrel":882,"Ġbaby":883,"Ġcont":884,"iss":885,"Ġmin":886,"Ġcomm":887,"Ġhello":888,"Ġdwight":889,"Ġass":890,"Ġwar":891,"Ġinc":892,"Ġgen":893,"ell":894,"Ġatt":895,"Ġcut":896,"Ġey":897,"'d":898,"Ġsons":899,"ons":900,"Ġcr":901,"Ġmost":902,"Ġsy":903,"Ġgir":904,"Ġanything":905,"achel":906,"Ġwow":907,"Ġrem":908,"Ġactually":909,"Ġch":910,"Ġroom":911,"gy":912,"ens":913,"Ġgra":914,"ndler":915,"me":916,"ily":917,"ower":918,"Ġmeet":919,"Ġnothing":920,"Ġhigh":921,"Ġlast":922,"Ġchandler":923,"Ã©":924,"ial":925,"Ġpre":926,"Ġpar":927,"Ġbelie":928,"ating":929,"Ġdec":930,"ect":931,"Ġide":932,"cri":933,"ces":934,"Ġyear":935,"Ġsw":936,"Ġsol":937,"bs":938,"Ġlot":939,"ef":940,"Ġpa":941,"ition":942,"Ġexplain":943,"Ġsame":944,"Ġworld":945,"vers":946,"Ġrachel":947,"Ñģ":948,"Ġsays":949,"ific":950,"Ġes":951,"Ġhat":952,"Ġbus":953,"sed":954,"Ġbir":955,"Ġtoday":956,"Ġjim":957,"Ġchar":958,"Ġmod":959,"ict":960,"Ġsound":961,"Ġcare":962,"Ġthanks":963,"anna":964,"hoe":965,"Ġreal":966,"Ġbrother":967,"Ġmonica":968,"Ġfind":969,"Ð½":970,"Ġanother":971,"Ġnice":972,"Ġ5":973,"Ġwi":974,"Ġdifferent":975,"Ġrec":976,"Ġtra":977,"Ġacc":978,"Ġsal":979,"sel":980,"Ġfine":981,"Ġopen":982,"Ġgame":983,"dddd":984,"Ġarm":985,"Ġcreat":986,"Ġmet":987,"ings":988,"uck":989,"Ġind":990,"Ġprop":991,"ram":992,"Ġhard":993,"Ġhum":994,"man":995,"cccc":996,"Ġjer":997,"Ġalright":998,"--":999,"Ġsend":1000,"Ġwanna":1001,"Ġwater":1002,"ail":1003,"Ġtaken":1004,"Ġinv":1005,"Ġquestion":1006,"Ġwoman":1007,"Ġsaw":1008,"ph":1009,"ÑĢ":1010,"so":1011,"Ġhands":1012,"Ġbelieve":1013,"Ġcount":1014,"ek":1015,"Ġang":1016,"ile":1017,"Ġphoe":1018,"Ġty":1019,"Ġburn":1020,"Ġbeing":1021,"Ġer":1022,"Ġtri":1023,"ful":1024,"Ġdays":1025,"iness":1026,"az":1027,"Ġfull":1028,"ts":1029,"gg":1030,"Ġpam":1031,"Ġumm":1032,"Ġholy":1033,"Ġgener":1034,"Ġlisten":1035,"side":1036,"Ġeach":1037,"ta":1038,"hip":1039,"row":1040,"Ġamong":1041,"Ġmight":1042,"Ġeverything":1043,"ode":1044,"Ġproble":1045,"Ġsecond":1046,"Ġkid":1047,"Ġwrong":1048,"Ġcur":1049,"odu":1050,"Ġsuch":1051,"Ġphoebe":1052,"Ġfire":1053,"Ġeyes":1054,"Ġlear":1055,"aught":1056,"ny":1057,"its":1058,"Ġph":1059,"Ġside":1060,"Ġdat":1061,"Ġhear":1062,"ner":1063,"ved":1064,"Ġsomeone":1065,"Ġdoesn":1066,"Ġcat":1067,"Ġgirl":1068,"stand":1069,"oses":1070,"Ġinter":1071,"dom":1072,"Ġsupp":1073,"Ġunc":1074,"Ð¾Ð":1075,"Ġbad":1076,"cy":1077,"Ġcor":1078,"Ġcause":1079,"ize":1080,"fect":1081,"Ġlooking":1082,"ertain":1083,"âĢĶ":1084,"ways":1085,"uff":1086,"Ġface":1087,"Ġsim":1088,"ute":1089,"Ġplan":1090,"aste":1091,"Ġap":1092,"urp":1093,"ual":1094,"Ġmind":1095,"ork":1096,"Ġaround":1097,"Ġhuh":1098,"Ġaw":1099,"Ġboth":1100,"hed":1101,"Ġmor":1102,"Ġexc":1103,"Ġswe":1104,"Ġ4":1105,"Ġdescri":1106,"Ġtalking":1107,"ject":1108,"ock":1109,"Ġmoney":1110,"ip":1111,"Ġwhile":1112,"Ġpriest":1113,"hh":1114,"Ġfour":1115,"ild":1116,"Ġfa":1117,"¿½":1118,"ï¿½":1119,"Ġnam":1120,"Ġunderstand":1121,"Ġshow":1122,"Ġfear":1123,"Ġter":1124,"Ġ...":1125,"stem":1126,"Ġbusiness":1127,"Ġgetting":1128,"Ġrul":1129,"ledge":1130,"ness":1131,"Ġjob":1132,"oo":1133,"Ġusing":1134,"Ġcho":1135,"Ġpower":1136,"Ġfin":1137,"cess":1138,"Ġpret":1139,"ites":1140,"Ġmom":1141,"Ġalways":1142,"Ġidea":1143,"Ġjudah":1144,"outh":1145,"ob":1146,"Ġdoor":1147,"Ġpres":1148,"Ġele":1149,"Ġknowledge":1150,"Ġeveryone":1151,"Ġhappy":1152,"Ġcomple":1153,"Ġcertain":1154,"Ġlight":1155,"Ġsl":1156,"Ġcoming":1157,"Ġtrue":1158,"Ġac":1159,"Ġseen":1160,"Ġinst":1161,"Ġrun":1162,"ruction":1163,"Ġready":1164,"Ġstrong":1165,"ines":1166,"Ġstory":1167,"Ġnext":1168,"Ġposs":1169,"Ġcalled":1170,"Ġthi":1171,"Ġval":1172,"Ġsmall":1173,"Ġsystem":1174,"ward":1175,"Ġhund":1176,"Ġbuild":1177,"Ġstuff":1178,"Ġque":1179,"Ġhaving":1180,"Ġeng":1181,"Ġguess":1182,"Ġprov":1183,"Ġhundred":1184,"Ġpy":1185,"Ġleft":1186,"Ġwatch":1187,"Ġbit":1188,"Ġyoung":1189,"Ġob":1190,"Ġfar":1191,"Ġalso":1192,"Ġset":1193,"Ġmoses":1194,"ased":1195,"Ġfive":1196,"Ġdest":1197,"Ġ20":1198,"Ġprog":1199,"by":1200,"aces":1201,"Ġown":1202,"ood":1203,"ever":1204,"vie":1205,"Ġclear":1206,"ðŁ":1207,"ream":1208,"Ġgone":1209,"Ġproblem":1210,"orn":1211,"ates":1212,"Ġcode":1213,"Ġdi":1214,"olog":1215,"Ġdaught":1216,"hil":1217,"ried":1218,"Ġca":1219,"llow":1220,"Ġsign":1221,"Ġbook":1222,"son":1223,"Ġegy":1224,"cept":1225,"ield":1226,"Ġcol":1227,"Ġsk":1228,"Ġ.":1229,"Ġexper":1230,"Ġimport":1231,"Ġegypt":1232,".\"":1233,"Ġben":1234,"ics":1235,"ember":1236,"Ġmakes":1237,"Ġtot":1238,"Ġmaking":1239,"Ġrep":1240,"Ġcomes":1241,"Ġvo":1242,"Ġdar":1243,"Ġtold":1244,"Ġmonth":1245,"cial":1246,"ai":1247,"Ġcry":1248,"Ġprodu":1249,"Ġmodel":1250,"ope":1251,"do":1252,"fl":1253,"Ġbreak":1254,"Ġwaste":1255,"Ġfact":1256,"ular":1257,"Ġcompan":1258,"Ġjerus":1259,"alem":1260,"Ġma":1261,"Ġbas":1262,"Ġreg":1263,"Ġmark":1264,"Ġjerusalem":1265,"hu":1266,"ps":1267,"Ġ-":1268,"Ġfriends":1269,"Ġmorning":1270,"li":1271,"Ġ?":1272,"Ġwanted":1273,"Ġresp":1274,"Ġfamily":1275,"Ġwh":1276,"ont":1277,"ense":1278,"Ġinform":1279,"Ġboy":1280,"ision":1281,"Ġlaw":1282,"ere":1283,"aven":1284,"ank":1285,"Ġest":1286,"als":1287,"Ġred":1288,"pect":1289,"Ġgotta":1290,"Ð°Ð":1291,"Ġbirth":1292,"Ġsix":1293,"Ġpoint":1294,"Ġform":1295,"Ġstep":1296,"Ġhome":1297,"ages":1298,"Ġtimes":1299,"Ġmeans":1300,"Ġparty":1301,"the":1302,"Ġcons":1303,"Ġhour":1304,"Ġread":1305,"Ġent":1306,"gin":1307,"Ġtrans":1308,"Ġremember":1309,"Ġdet":1310,"Ġdrink":1311,"Ġref":1312,"Ġimportant":1313,"Ġton":1314,"Ġwife":1315,"Ġmer":1316,"lic":1317,"Ġcour":1318,"Ġoffice":1319,"come":1320,"ousand":1321,"Ġdel":1322,"pend":1323,"Ġthousand":1324,"Ġprogram":1325,"Ġai":1326,"Ġfield":1327,"Ġdata":1328,"Ġmus":1329,"Ġya":1330,"thon":1331,"Ġcool":1332,"ib":1333,"Ġpossible":1334,"Ġwon":1335,"Ġwin":1336,"ouble":1337,"Ġeat":1338,"ows":1339,"bab":1340,"Ġwall":1341,"Ġwalk":1342,"ient":1343,"ott":1344,"Ġservants":1345,"Ġten":1346,"Ġthinking":1347,"Ġeverybody":1348,"Ġelse":1349,"Ġpretty":1350,"ited":1351,"Ġenough":1352,"Ġorders":1353,"ron":1354,"Ġphil":1355,"Ġreas":1356,"Ġsle":1357,"Ġorder":1358,"mo":1359,"oud":1360,"io":1361,"Ñĥ":1362,"Ġadd":1363,"enty":1364,"Ġdef":1365,"Ġpython":1366,"Ġhoney":1367,"Ġable":1368,"bo":1369,"Ġgold":1370,"Ġdestruction":1371,"Ġcou":1372,"Ġspec":1373,"Ġturned":1374,"Ġbody":1375,"Ġcheck":1376,"selves":1377,"Ġsist":1378,"Ġphy":1379,"Ġsecret":1380,"Ġpick":1381,"Ġfight":1382,"Ġsweet":1383,"Ġsho":1384,"ater":1385,"ains":1386,"Ġstand":1387,"Ġinformation":1388,"cause":1389,"ĠâĢ":1390,"Ġhon":1391,"aut":1392,"Ġmount":1393,"Ġwomen":1394,"Ġcompany":1395,"Ġtom":1396,"Ġweek":1397,"Ġdead":1398,"Ġmeeting":1399,"Ġmother":1400,"osed":1401,"Ð»":1402,"Ġwhose":1403,"Ġsing":1404,"Ġcra":1405,"Ġfree":1406,"Ġball":1407,"Ġdri":1408,"Ġcountry":1409,"\".":1410,"uth":1411,"ience":1412,"Ġtop":1413,"Ġandy":1414,"Ġlang":1415,"ger":1416,"Ġhot":1417,"Ġways":1418,"Ġrequ":1419,"work":1420,"ets":1421,"Ġstay":1422,"zy":1423,"Ġprobab":1424,"Ġart":1425,"vi":1426,"ital":1427,"Ġbecome":1428,"Ġhappened":1429,"Ġsong":1430,"Ġdu":1431,"ative":1432,"Ġheaven":1433,"Ġmove":1434,"alth":1435,"Ġgoes":1436,"Ġcomput":1437,"aster":1438,"Ġdire":1439,"rence":1440,"Ġdist":1441,"oken":1442,"Ġkept":1443,"Ġwind":1444,"Ġonce":1445,"Ġ10":1446,"Ġ19":1447,"Ġdog":1448,"Ġtrying":1449,"Ġsit":1450,"Ġpay":1451,"Ġpun":1452,"Ġisn":1453,"vin":1454,"Ġtill":1455,"Ġcal":1456,"gth":1457,"Ġdie":1458,"ention":1459,"Ġprom":1460,"Ġfunny":1461,"Ġjoke":1462,"Ġcourse":1463,"land":1464,"use":1465,"Ġste":1466,"Ġdepend":1467,"Ġwhom":1468,"Ġlangu":1469,"Ġge":1470,"Ġround":1471,"Ġnamed":1472,"ier":1473,"Ġvar":1474,"Ġhold":1475,"Ġtonight":1476,"Ġbra":1477,"Ġprocess":1478,"Ġdescribe":1479,"Ġpurp":1480,"ced":1481,"Ġhuman":1482,"ude":1483,"lt":1484,"Ġmarried":1485,"ax":1486,"Ġmust":1487,"ange":1488,"ird":1489,"Ġtaking":1490,"ich":1491,"Ġ`":1492,"Ġyourself":1493,"Ġpop":1494,"ility":1495,"co":1496,"oy":1497,"Ġwhole":1498,"Ġbar":1499,"Ġx":1500,"ional":1501,"Ġwhoa":1502,"Ġnews":1503,"Ġsex":1504,"Ġburned":1505,"ones":1506,"Ġeas":1507,"asure":1508,"Ġangel":1509,"Ġdiff":1510,"Ã³":1511,"Ġooh":1512,"Ġsub":1513,"Ġline":1514,"Ġcap":1515,"iver":1516,"Ġ6":1517,"Ġfound":1518,"Ġvoice":1519,"arch":1520,"Ġanyone":1521,"Ġtrouble":1522,"mon":1523,"ically":1524,"Ġbroken":1525,"Ġbeaut":1526,"Ġequ":1527,"Ġtakes":1528,"ident":1529,"Ġpol":1530,"Ġtech":1531,"Ġbecame":1532,"Ġserious":1533,"Ġsleep":1534,"ames":1535,"Ġquick":1536,"Ġwood":1537,"Ġdate":1538,"Ġfal":1539,"Ġseven":1540,"Ġpaper":1541,"dddddddd":1542,"Ġmr":1543,"Ġsil":1544,"orrow":1545,"Ġknown":1546,"cccccccc":1547,"Ġyet":1548,"Ġleave":1549,"Ġdesign":1550,"Ġpos":1551,"Ġlearning":1552,"Ġbed":1553,"Ġjan":1554,"Ġclass":1555,"erest":1556,"you":1557,"Ġpass":1558,"Ġtent":1559,"Ġmid":1560,"Ñı":1561,"Ġfunction":1562,"Ġdad":1563,"not":1564,"Ġmiss":1565,"Ġlar":1566,"Ġhor":1567,"Ġshort":1568,"Ġsur":1569,"que":1570,"br":1571,"Ġchang":1572,"Ġplaces":1573,"Ġinterest":1574,"Ġclean":1575,"Ġdaughter":1576,"ni":1577,"ures":1578,"Ġhist":1579,"iet":1580,"ma":1581,"Ġsounds":1582,"Ġfall":1583,"ins":1584,"Ġstore":1585,"place":1586,"Ġsword":1587,"ired":1588,"ien":1589,"ern":1590,"Ġnear":1591,"ung":1592,"Ġchief":1593,"Ġalt":1594,"Ġfollow":1595,"Ġdam":1596,"Ġnations":1597,"iting":1598,"Ġthough":1599,"Ġwonder":1600,"Ġbuilding":1601,"Ġweird":1602,"Ġcreate":1603,"cha":1604,"Ġsafe":1605,"ming":1606,"Ġmess":1607,"Ġgre":1608,"Ġsun":1609,"Ġsou":1610,"Ġsam":1611,"ten":1612,"Ġhair":1613,"Ġexp":1614,"Ġbrothers":1615,"Ġclot":1616,"Ġprophe":1617,"Ġbox":1618,"Ġtowns":1619,"Ðº":1620,"rist":1621,"Ġprobably":1622,"sc":1623,"lly":1624,"Ġohh":1625,"Ġhimself":1626,"Ġblood":1627,"Ġuncle":1628,"Ġtable":1629,"ready":1630,"Ġfalse":1631,"Ġphe":1632,"ants":1633,"oke":1634,"Ġmach":1635,"Ġhalf":1636,"ĠâĢĺ":1637,"ffe":1638,"Ġmed":1639,"ides":1640,"Ġbye":1641,"Ġspecific":1642,"Ġmem":1643,"Ġreason":1644,"Ġwear":1645,"Ġwasn":1646,"iful":1647,"Ġbuy":1648,"ched":1649,"Ġincl":1650,"Ġve":1651,"Ġstren":1652,"Ġalready":1653,"Ġtype":1654,"dle":1655,"Ġmouth":1656,"ÃŃ":1657,"ining":1658,"ined":1659,"ution":1660,"Ġtext":1661,"Ġlanguage":1662,"Ġherit":1663,"rect":1664,"ices":1665,"ush":1666,"Ġext":1667,"Ġbeautiful":1668,"Ġworking":1669,"ural":1670,"Ġchange":1671,"Ġminute":1672,"Ġtest":1673,"Ġprof":1674,"ÑĮ":1675,"ash":1676,"acter":1677,"Ġagree":1678,"men":1679,"ring":1680,"to":1681,"Ġkey":1682,"Ġkinda":1683,"Ġheritage":1684,"Ġmyself":1685,"Ġdeal":1686,"Ġnet":1687,"Ġpurpose":1688,"Ġair":1689,"ats":1690,"cus":1691,"Ġpot":1692,"Ġstrength":1693,"ped":1694,"Ġed":1695,"Ġcity":1696,"Ġpra":1697,"ities":1698,"Ġet":1699,"Ġjes":1700,"Ġtwenty":1701,"upid":1702,"Ġdiv":1703,"lle":1704,"Ġsea":1705,"Ġlooks":1706,"Ġrelations":1707,"Ġstate":1708,"Ġgiving":1709,"Ġglad":1710,"Ġhope":1711,"lo":1712,"Ã¤":1713,"Ġpeace":1714,"Ġwedd":1715,"ments":1716,"Ġphone":1717,"Ġtotally":1718,"Ġbased":1719,"Ġstupid":1720,"Ġ$":1721,"Ġsqu":1722,"ract":1723,"Ġdan":1724,"Ġru":1725,"Ġsince":1726,"ĠÐ¿":1727,"Ġmusic":1728,"Ġcent":1729,"Ġdin":1730,"ley":1731,"ime":1732,"Ġcapt":1733,"Ġlau":1734,"Ġlos":1735,"Ġworks":1736,"here":1737,"ctor":1738,"Ġfamil":1739,"velop":1740,"Ġcharacter":1741,"Ġproduct":1742,"Ġmi":1743,"Ġbring":1744,"Ġwouldn":1745,"Ġfathers":1746,"Ġattack":1747,"Ġtomorrow":1748,"Ġlater":1749,"Ġlive":1750,"Ġwrath":1751,"bers":1752,"hes":1753,"Ġdra":1754,"Ġpain":1755,"Ġpray":1756,"Ġexam":1757,"Ġexact":1758,"room":1759,"Ġcommon":1760,"Ġdiffic":1761,"Ġlow":1762,"Ġins":1763,"ately":1764,"uring":1765,"Ġfif":1766,"Ġkne":1767,"Ġwants":1768,"Ġlearn":1769,"Ã¡":1770,"Ġdevelop":1771,"Ġabs":1772,"Ġtyp":1773,"cal":1774,"ze":1775,"Ġtou":1776,"Ã¼":1777,"Ġwhatever":1778,"Ġunt":1779,"Ġscho":1780,"Ġgives":1781,"Ġcorrect":1782,"ds":1783,"Ġjac":1784,"Ġkingdom":1785,"Ġprovide":1786,"....":1787,"Ġwedding":1788,"Ġef":1789,"Ġleg":1790,"Ġblue":1791,"Ġofferings":1792,"ffee":1793,"cl":1794,"Ġmil":1795,"Ġcup":1796,"Ġfeet":1797,"Ġspir":1798,"Ġadv":1799,"ues":1800,"Ġsort":1801,"Ġsheep":1802,"Ġtem":1803,"less":1804,"Ġhang":1805,"Ġrach":1806,"ball":1807,"Ġmovie":1808,"Ġox":1809,"ote":1810,"Ġdeep":1811,"Ġsaul":1812,"Ġflight":1813,"Ġrock":1814,"Ġmatter":1815,"Ġmine":1816,"Ġfre":1817,"rib":1818,"Ġcoffee":1819,"Ġhate":1820,"uit":1821,"ided":1822,"Ġcrazy":1823,"Ġpraise":1824,"Ġeffect":1825,"Ġband":1826,"Ġhit":1827,"Ġgets":1828,"unch":1829,"Ġspace":1830,"Ġprison":1831,"esh":1832,"Ġmachine":1833,"aa":1834,"ator":1835,"Ġjacob":1836,"tle":1837,"Ġsoft":1838,"Ġshut":1839,"Ġfig":1840,"Ġblack":1841,"000":1842,"Ġsense":1843,"Ġsever":1844,"ina":1845,"Ġmag":1846,"Ġsentence":1847,"Ġret":1848,"Ġfew":1849,"la":1850,"Ġstra":1851,"Ġamaz":1852,"Ġunclean":1853,"utes":1854,"Ġsoul":1855,"go":1856,"erm":1857,"Ġmeaning":1858,"Ġmercy":1859,"Ġ=":1860,"Ġchrist":1861,"Ġsales":1862,"Ġdefin":1863,"Ġlead":1864,"Ġpriests":1865,"air":1866,"Ġdry":1867,"Ġsupposed":1868,"Ġexcuse":1869,"Ġdark":1870,"Ġnat":1871,"bb":1872,"Ġid":1873,"igh":1874,"uly":1875,"Ġfil":1876,"Ġpast":1877,"ries":1878,"artment":1879,"Ġdifficult":1880,"ric":1881,"Ġheard":1882,"aron":1883,"Ġjos":1884,"Ġfront":1885,"Ġcomputer":1886,"Ġseveral":1887,"Ġfix":1888,"Ġpha":1889,"ebs":1890,"Ġsuper":1891,"Ġsister":1892,"Ġ8":1893,"ider":1894,"fort":1895,"Ġless":1896,"Ġwhite":1897,"Ġaltar":1898,"Ġcook":1899,"Ġappro":1900,"Ġaccount":1901,"Ġfaith":1902,"Ġpunish":1903,"chi":1904,"Ġwine":1905,"ging":1906,"Ġwis":1907,"cle":1908,"Ġpull":1909,"Ġupright":1910,"Ġpersonal":1911,"Ġrelationship":1912,"Ñĭ":1913,"ized":1914,"off":1915,"Ġlim":1916,"Ġvide":1917,"Ġfoot":1918,"Ġpheebs":1919,"hem":1920,"ither":1921,"Ġwel":1922,"ask":1923,"Ġanim":1924,"Ġein":1925,"Ġspeak":1926,"Ġbat":1927,"Ġrespons":1928,"gan":1929,"Ġteam":1930,"ding":1931,"Ġ9":1932,"Ġver":1933,"Ġce":1934,"Ġcam":1935,"Ġpen":1936,"lon":1937,"Ġinside":1938,"Ġeight":1939,"Ġbless":1940,"Ġforg":1941,"Ġhours":1942,"Ġshi":1943,"itive":1944,"Ġstud":1945,"Ġthemselves":1946,"Ġsomebody":1947,"Ġaaron":1948,"ples":1949,"Ġshame":1950,"gn":1951,"what":1952,"vered":1953,"ump":1954,"Ġsmell":1955,"con":1956,"avor":1957,"Ġopt":1958,"Ġmult":1959,"Ġvis":1960,"Ġteac":1961,"Ġletter":1962,"Ġgrow":1963,"Ġarmies":1964,"Ġschool":1965,"sh":1966,"zz":1967,"Ġquestions":1968,"Ġminutes":1969,"Ġpict":1970,"ral":1971,"Ġhaven":1972,"Ġcond":1973,"Ġattention":1974,"Ġhistory":1975,"king":1976,"ster":1977,"Ġhar":1978,"Ġclose":1979,"Ġincre":1980,"Ġsupport":1981,"Ġsilver":1982,"ham":1983,"Ġlate":1984,"Ġtruly":1985,"Ġwaiting":1986,"Ġfut":1987,"Ġry":1988,"Ġnumbers":1989,"Ġgrou":1990,"ology":1991,"eous":1992,"Ġfat":1993,"Ġkiss":1994,"Ġkevin":1995,"Ġbread":1996,"Ġsimple":1997,"Ġoil":1998,"Ġcard":1999,"Ġmanag":2000,"Ġcurrent":2001,"Ġburning":2002,"rew":2003,"Ġnor":2004,"Ġhur":2005,"Ġav":2006,"Ġmain":2007,"Ġdoll":2008,"Ġpunishment":2009,"ling":2010,"Ġ+":2011,"Ġamer":2012,"Ġpresent":2013,"Ġspirit":2014,"put":2015,"ware":2016,"aus":2017,"Ġconf":2018,"cks":2019,"0000":2020,"vation":2021,"Ġones":2022,"Ġkings":2023,"Ġperform":2024,"Ġrecord":2025,"hn":2026,"Ġweight":2027,"ba":2028,"ĠÑģ":2029,"Ġcertainly":2030,"rop":2031,"Ð²":2032,"ching":2033,"tern":2034,"Ġstarted":2035,"ches":2036,"Ġcolor":2037,"Ġjesus":2038,"ared":2039,"Ġsouth":2040,"Ġbag":2041,"Ġmoving":2042,"Ġneeds":2043,"Ġobject":2044,"Ġexactly":2045,"Ġoper":2046,"Ġmeal":2047,"Ġcover":2048,"Ġund":2049,"ism":2050,"cul":2051,"Ġpet":2052,"Ġluck":2053,"Ġrid":2054,"Ġjoy":2055,"Ġgrain":2056,"bes":2057,"Ġwise":2058,"Ġdream":2059,"Ġprin":2060,"Ġarmy":2061,"Ġpu":2062,"Ġuna":2063,"Ġagreement":2064,"lling":2065,"Ġspecial":2066,"Ġsingle":2067,"Ġsearch":2068,"Ġvi":2069,"asts":2070,"Ġ7":2071,"Ġll":2072,"Ġbeth":2073,"Ġoutside":2074,"Ġthir":2075,"Ġsquare":2076,"Ġoath":2077,"Ġglory":2078,"ðŁĴ":2079,"ied":2080,"Ð¼":2081,"Ġpack":2082,"Ġist":2083,"Ġcouple":2084,"Ġder":2085,"Ġfore":2086,"Ġger":2087,"Ġkill":2088,"Ġprayer":2089,"gen":2090,"net":2091,"Ñĩ":2092,"Ġlik":2093,"Ġvalue":2094,"Ġuntil":2095,"Ġda":2096,"Ġdise":2097,"ese":2098,"els":2099,"Ġcannot":2100,"text":2101,"Ġphys":2102,"Ġwors":2103,"Ġtre":2104,"Ġopp":2105,"Ġseat":2106,"Ġsch":2107,"key":2108,"Ġothers":2109,"Ġtechn":2110,"ee":2111,"ug":2112,"Ġcir":2113,"Ġstates":2114,"Ġsumm":2115,"Ġpoor":2116,"Ġkids":2117,"Ġhearing":2118,"Ġpie":2119,"Ġra":2120,"Ġlonger":2121,"Ġperfect":2122,"Ġcop":2123,"Ġforget":2124,"Ġlift":2125,"ational":2126,"Ġdifference":2127,"Ġgreen":2128,").":2129,"za":2130,"Ġassist":2131,"Ġryan":2132,"Ġhmm":2133,"Ġsolve":2134,"view":2135,"hua":2136,"Ġangela":2137,"Ġknew":2138,"ying":2139,"Ġwide":2140,"Ġboss":2141,"Ġbran":2142,"Ġfair":2143,"Ġanyway":2144,"Ġblessing":2145,"Ġmass":2146,"Ġseed":2147,"Ġseem":2148,"Ġbirthday":2149,"Ġeasy":2150,"bot":2151,"lish":2152,"rible":2153,"Ġthird":2154,"Ġpub":2155,"Ġexperience":2156,"Ġcust":2157,"Ġseems":2158,"Ġturning":2159,"more":2160,"Ġosc":2161,"Ġbath":2162,"omm":2163,"Ġangry":2164,"Ġdinner":2165,"Ġvideo":2166,"vent":2167,"Ġauth":2168,"Ġrighteous":2169,"Ġconne":2170,"Ġjohn":2171,"ĠÐ½":2172,"Ġfavor":2173,"Ġstan":2174,"ume":2175,"Ġearly":2176,"ĠÐ²":2177,"mas":2178,"sp":2179,"und":2180,"ured":2181,"vious":2182,"Ġconst":2183,"Ġchance":2184,"Ġrules":2185,"Ġbob":2186,"Ġhy":2187,"Ġlev":2188,"Ġdrop":2189,"Ġmad":2190,"Ġcub":2191,"Ġhus":2192,"pping":2193,"Ġgods":2194,"Ġlevel":2195,"Ġinclud":2196,"Ġwelcome":2197,"yle":2198,"Ġpat":2199,"Ġsand":2200,"Ġbabylon":2201,"Ġkidding":2202,"Ġphilist":2203,"Ġquickly":2204,"Ġfamilies":2205,"Ġoscar":2206,"Ġfruit":2207,"Ġuni":2208,"Ġchair":2209,"Ġdirection":2210,"Ġmiddle":2211,"Ġsurp":2212,"Ġpill":2213,"omon":2214,"Ġdep":2215,"Ġleast":2216,"Ġcouldn":2217,"Ġfuture":2218,"oc":2219,"Ġtree":2220,"Ġgri":2221,"Ġears":2222,"Ġwaters":2223,"Ġwisdom":2224,"ik":2225,"ror":2226,"ĠĠ":2227,"Ġfast":2228,"llis":2229,"Ġsolomon":2230,"Ġsize":2231,"Ġstar":2232,"Ġloc":2233,"Ġexist":2234,"Ġ202":2235,"Ġposition":2236,"Ġamazing":2237,"band":2238,"ters":2239,"Ġwish":2240,"Ġscen":2241,"Ġflow":2242,"Ġcommun":2243,"Ġdecision":2244,"par":2245,"Ø§":2246,"Ġinvest":2247,"ij":2248,"Ġori":2249,"Ġmis":2250,"Ġhill":2251,"unk":2252,"Ġdesire":2253,"rise":2254,"ument":2255,"Ġanymore":2256,"Ġauthor":2257,"ama":2258,"Ġblock":2259,"itting":2260,"ivid":2261,"Ġimpro":2262,"Ġfollowing":2263,"Ġphyllis":2264,"ross":2265,"Ġimag":2266,"Ġcute":2267,"Ġcapital":2268,"line":2269,"uel":2270,"Ġsat":2271,"Ġcaus":2272,"Ġbeha":2273,"Ġresting":2274,"Ġaut":2275,"rem":2276,"Ġstret":2277,"Ġwriting":2278,"min":2279,"Ġtask":2280,"Ġhealth":2281,"Ġring":2282,"Ġstre":2283,"ada":2284,"Ġcontext":2285,"Ġthrow":2286,"Ġrighteousness":2287,"cing":2288,"iel":2289,"ux":2290,"aly":2291,"Ġhol":2292,"Ġsugg":2293,"rat":2294,"rol":2295,"Ġmm":2296,"Ġmale":2297,"Ġyours":2298,"Ġlost":2299,"Ġapartment":2300,"Ġprogramming":2301,"Ġgrand":2302,"Ġparent":2303,"Ġinvol":2304,"Ġcomplex":2305,"Ġsuggest":2306,"Ġmist":2307,"Ġpur":2308,"Ġpound":2309,"Ġmetho":2310,"Ġpresident":2311,"Ġprophet":2312,"Ġstraight":2313,"Ġgroup":2314,"Ġnorth":2315,"aur":2316,"Ġtents":2317,"Ġfeeling":2318,"Ġtotal":2319,"most":2320,"Ġmemory":2321,"of":2322,"Ð´":2323,"Ġenglish":2324,"Ġmountain":2325,"Ġexample":2326,"gr":2327,"where":2328,"Ġwealth":2329,"Ġunited":2330,"llen":2331,"Ġchick":2332,"anger":2333,"Ġchristmas":2334,"Ġcustom":2335,"ges":2336,"Ġgames":2337,"Ġeither":2338,"Ġprice":2339,"Ġstanley":2340,"Ġna":2341,"Ġegg":2342,"Ġupon":2343,"Ġfool":2344,"Ġrequest":2345,"gest":2346,"Ġtall":2347,"Ġtreat":2348,"Ġice":2349,"Ġsucc":2350,"Ġago":2351,"Ġow":2352,"Ġeast":2353,"Ġjose":2354,"imes":2355,"Ġves":2356,"Ġovercome":2357,"gor":2358,"hmm":2359,"Ġcrus":2360,"Ġsitu":2361,"Ġdepends":2362,"Ġphara":2363,"Ġresponsible":2364,"hab":2365,"Ġoften":2366,"Ġrain":2367,"Ġreward":2368,"olut":2369,"Ġener":2370,"Ġtelling":2371,"Ġplaying":2372,"Ġthirty":2373,"Ġba":2374,"Ġproject":2375,"Ġcost":2376,"Ġsoftware":2377,"Ġmanager":2378,"Ġpharaoh":2379,"mer":2380,"Ã¶":2381,"Ġindivid":2382,"Ġelect":2383,"Ã³n":2384,"Ġhusband":2385,"Ġjoseph":2386,"bre":2387,"ruct":2388,"Ġsalvation":2389,"Ġdeterm":2390,"Ġlarge":2391,"Ġdeb":2392,"Ġintell":2393,"Ġsmart":2394,"Ġnon":2395,"Ġseeing":2396,"Ġmoon":2397,"Ġmike":2398,"\",":2399,"ss":2400,"Ġlikely":2401,"Ġfile":2402,"iter":2403,"isions":2404,"akes":2405,"Ġworry":2406,"Ġ12":2407,"ization":2408,"Ġheads":2409,"Ġbal":2410,"Ġjoshua":2411,"Ġduring":2412,"Ġlives":2413,"Ġsometimes":2414,"Ġcomplet":2415,"Ġcrying":2416,"Ġlifted":2417,"Ġmill":2418,"Ġconcept":2419,"ĠÐ¸":2420,"Ġpleasure":2421,"Ġapples":2422,"Ġjeho":2423,"Ġvessel":2424,"xim":2425,"erv":2426,"Ġloud":2427,"dddddddddddddddd":2428,"cccccccccccccccc":2429,"Ġreturn":2430,"Ġlevites":2431,"Ġbase":2432,"Ġze":2433,"Ġruler":2434,"Ġnetwork":2435,"Ġcase":2436,"Ġdig":2437,"Ġdoctor":2438,"Ġspend":2439,"Ġerin":2440,"Ġdaughters":2441,"Ġmeasure":2442,"ift":2443,"Ġconvers":2444,"Ġasking":2445,"Ġpopular":2446,"Ġmulti":2447,"that":2448,"Ġpride":2449,"Ġmoved":2450,"Ġmoment":2451,"Ġhonour":2452,"Ġlunch":2453,"Ġforce":2454,"Ġhearts":2455,"Ġdisease":2456,"Ġphilistines":2457,"Ġindividual":2458,"ns":2459,"Ġaud":2460,"ican":2461,"Ġdev":2462,"Ġclothing":2463,"Ġteaching":2464,"Ġdollars":2465,"Ġjack":2466,"Ġcovered":2467,"play":2468,"icks":2469,"ĠÐº":2470,"Ġorigin":2471,"Ġintellig":2472,"ray":2473,"rant":2474,"ÑĤÐ¾":2475,"joy":2476,"my":2477,"aked":2478,"Ġscri":2479,"Ġcloud":2480,"Ġasked":2481,"ton":2482,"hey":2483,"Ġmaster":2484,"Ġbow":2485,"Ġtrad":2486,"Ġmonths":2487,"Ġfixed":2488,"Ġmot":2489,"Ġcult":2490,"Ġcomb":2491,"usting":2492,"rences":2493,"ouses":2494,"Ġenjoy":2495,"itely":2496,"Ġiss":2497,"Ġcolle":2498,"mma":2499,"Ġcontrol":2500,"Ġcalcul":2501,"?\"":2502,"Ġjap":2503,"Ġproper":2504,"Ġdamn":2505,"Ġassistant":2506,"Ġincluding":2507,"ians":2508,"Ġvers":2509,"Ġbreat":2510,"Ġpract":2511,"Ġflesh":2512,"Ġsorrow":2513,"Ġpartic":2514,"Ġstrange":2515,"Ġacross":2516,"huh":2517,"house":2518,"osop":2519,"Ġparts":2520,"Ġprofess":2521,"Ġtoby":2522,"Ġdisg":2523,"Ġphilosop":2524,"Ġinteresting":2525,"Ġmessage":2526,"ery":2527,"uts":2528,"Ġforward":2529,"ament":2530,"Ġstyle":2531,"Ġprot":2532,"Ġrespect":2533,"Ġrunning":2534,"for":2535,"Ġwit":2536,"ication":2537,"Ġhig":2538,"Ġquant":2539,"Ġscott":2540,"Ġcomplete":2541,"Ġfactors":2542,"Ġsuccess":2543,"app":2544,"ye":2545,"Ġbegin":2546,"Ġalone":2547,"itten":2548,"Ġrepres":2549,"Ġabsolut":2550,"Ġgerman":2551,"Ġworship":2552,"ket":2553,"Ġ&":2554,"Ġcru":2555,"Ġport":2556,"Ġlin":2557,"Ġinf":2558,"Ġroad":2559,"Ġchallen":2560,"Ġweeks":2561,"Ġparents":2562,"ado":2563,"elt":2564,"lfriend":2565,"Ġeye":2566,"por":2567,"sk":2568,"Ġchat":2569,"Ġplant":2570,"Ġqual":2571,"bert":2572,"head":2573,"let":2574,"Ġanybody":2575,"Ġrecomm":2576,"Ġfighting":2577,"Ġenergy":2578,"Ġbill":2579,"Ġps":2580,"Ġjord":2581,"Ġaren":2582,"rap":2583,"ryl":2584,"Ġmanage":2585,"Ġark":2586,"Ġcompletely":2587,"Ġknows":2588,"ference":2589,"Ġamount":2590,"!!!":2591,"Ġfeelings":2592,"Ġhumans":2593,"iverse":2594,"Ġpicture":2595,"Ġbehavi":2596,"Ġabsolutely":2597,"\"?":2598,"Ġorgan":2599,"Ġexpect":2600,"Ġ15":2601,"ĠÃ":2602,"ential":2603,"eping":2604,"Ġstarting":2605,"hemat":2606,"Ġrecommend":2607,"Ġtick":2608,"Ġeff":2609,"Ġnobody":2610,"Ġputting":2611,"Ġrole":2612,"Ġmathemat":2613,"bye":2614,"Ġlam":2615,"Ġbeh":2616,"set":2617,"alley":2618,"Ġneigh":2619,"Ġ100":2620,"Ġseriously":2621,"Ġneighb":2622,"ney":2623,"Ġbott":2624,"ana":2625,"Ġanaly":2626,"Ġself":2627,"Ġflo":2628,"Ġhaters":2629,"Ġbehind":2630,"friend":2631,"Ġdress":2632,"Ġdanger":2633,"Ġrod":2634,"Ġvir":2635,"Ġarg":2636,"ressed":2637,"Ġmarket":2638,"cent":2639,"der":2640,"Ġsad":2641,"Ġfill":2642,"Ġhop":2643,"Ġimage":2644,"Ġresult":2645,"Ġhappens":2646,"Ġnames":2647,"ãģ":2648,"ature":2649,"Ġhorn":2650,"Ġvalley":2651,"iffl":2652,"Ġboard":2653,"Ġdarryl":2654,"Ġrefers":2655,"Ġjordan":2656,"Ġwest":2657,"Ġnorm":2658,"Ġrom":2659,"Ġevening":2660,"Ġideas":2661,"rt":2662,"Ġriver":2663,"osp":2664,"Ġglass":2665,"Ġgirlfriend":2666,"pa":2667,"rodu":2668,"Ġpi":2669,"ots":2670,"ished":2671,"Ġuniverse":2672,"Ġcre":2673,"Ġpiz":2674,"Ġallow":2675,"Ġyep":2676,"Ġdesk":2677,"Ġdefinitely":2678,"offering":2679,"ifflin":2680,"imate":2681,"ression":2682,"Ġpromise":2683,"Ġjapan":2684,"ww":2685,"Ġaction":2686,"Ġnote":2687,"Ġgoods":2688,"Ġconsider":2689,"Ġreading":2690,"Ġdunder":2691,"Ġcubits":2692,"Ġfoolish":2693,"po":2694,"Ġemma":2695,"Ġweeping":2696,"Ġsisters":2697,"Ġdrive":2698,"Ġrule":2699,"Ġpublic":2700,"Ġfavorite":2701,"Ġsn":2702,"Ġalmost":2703,"Ġalgor":2704,"Ġtwel":2705,"dden":2706,"ĠÐ´":2707,"Ġpriv":2708,"Ġhorse":2709,"chan":2710,"Ġbur":2711,"ane":2712,"Ġ18":2713,"chen":2714,"Ð½Ð¸":2715,"Ġwatching":2716,"doing":2717,"Ġwearing":2718,"Ġyork":2719,"Ġcri":2720,"ato":2721,"ety":2722,"amin":2723,"Ġflock":2724,"Ġmilk":2725,"Ġocc":2726,"Ġles":2727,"Ġeph":2728,"verage":2729,"Ġstones":2730,"Ġansw":2731,"Ġtravel":2732,"Ġchanged":2733,"Ġfifty":2734,"Ġdisgusting":2735,"Ġsar":2736,"Ġdude":2737,"kend":2738,"Ġric":2739,"urs":2740,"ify":2741,"Ġtruth":2742,"ource":2743,"Ġlose":2744,"Ġloose":2745,"Ġapple":2746,"Ġjudge":2747,"Ġsystems":2748,"Ġlimit":2749,"Ġsituation":2750,"med":2751,"sha":2752,"Ġgay":2753,"Ġcomfort":2754,"Ġlog":2755,"Ġalong":2756,"Ġpost":2757,"Ġahh":2758,"Ġcross":2759,"Ġskin":2760,"Ġviol":2761,"mar":2762,"ove":2763,"Ġ×":2764,"Ġugh":2765,"Ġhouses":2766,"Ġvol":2767,"uments":2768,"Ġjew":2769,"Ġpregn":2770,"Ġbitter":2771,"bar":2772,"Ġlab":2773,"pped":2774,"Ġjoe":2775,"aves":2776,"Ġcirc":2777,"Ġrepresent":2778,"Ġsir":2779,"Ġscient":2780,"ĠÐ¾":2781,"Ġpara":2782,"Ġdirect":2783,"Ġintelligence":2784,"!\"":2785,"),":2786,"port":2787,"Ã±":2788,"Ġcand":2789,"Ġstream":2790,"ploy":2791,"Ġservice":2792,"Ġ30":2793,"Ġtransl":2794,"Ġwalking":2795,"Ġgrief":2796,"Ġfict":2797,"eth":2798,"Ġcold":2799,"ÐµÑĤ":2800,"Ġcommand":2801,"Ġbirds":2802,"com":2803,"mb":2804,"Ġ*":2805,"Ġage":2806,"Ġeur":2807,"une":2808,"unt":2809,"Ġmoab":2810,"Ġapplic":2811,"Ġdriving":2812,"ls":2813,"Ġrus":2814,"aced":2815,"Ġtraining":2816,"Ġterrible":2817,"aving":2818,"who":2819,"Ġmir":2820,"Ġcord":2821,"Ġden":2822,"Ġgun":2823,"Ġpeoples":2824,"Ġbenj":2825,"Ġchiefs":2826,"aan":2827,"ec":2828,"Ġtur":2829,"Ġsick":2830,"hie":2831,"Ġjav":2832,"Ġnope":2833,"Ġsteps":2834,"Ġauthority":2835,"col":2836,"Ġau":2837,"Ġaverage":2838,"Ġmix":2839,"Ġhan":2840,"Ġsell":2841,"Ġdecisions":2842,"Ġfalling":2843,"Ġbathroom":2844,"Ġalgorith":2845,"she":2846,"Ġpal":2847,"Ġur":2848,"asing":2849,"ases":2850,"bered":2851,"Ġroll":2852,"Ġshouldn":2853,"roll":2854,"Ġgirls":2855,"Ġregular":2856,"Ġlaws":2857,"Ġimagine":2858,"ks":2859,"Ġsoon":2860,"Ġsave":2861,"Ġsport":2862,"Ġspeed":2863,"Ġthoughts":2864,"Ġproblems":2865,"Ġprophets":2866,"Ġlaugh":2867,"Ġproperty":2868,"ead":2869,"ged":2870,"Ġtrust":2871,"Ġengine":2872,"ðŁ¤":2873,"Ġconversation":2874,"'.":2875,"ĠÃ©":2876,"Ġwee":2877,"Ġemot":2878,"ekiah":2879,"Ġchoose":2880,"oub":2881,"Ġgift":2882,"iding":2883,"Ġuhh":2884,"Ġwritten":2885,"Ġfocus":2886,"Ġtalked":2887,"Ġkeeping":2888,"Ġinstead":2889,"ape":2890,"Ġut":2891,"Ġpress":2892,"Ġeine":2893,"Ġputs":2894,"Ġtrip":2895,"Ġobvious":2896,"Ġlikes":2897,"Ġ,":2898,"Ġgent":2899,"Ġvan":2900,"Ġappe":2901,"Ġfigure":2902,"Ġstreet":2903,"ranton":2904,"Ġscript":2905,".ï¿½":2906,"aiah":2907,"ires":2908,"sis":2909,"ÑĪ":2910,"Ġborn":2911,"Ġfly":2912,"Ġep":2913,"raim":2914,"Ġplus":2915,"Ġquiet":2916,"Ġscranton":2917,"ails":2918,"Ġslow":2919,"Ġtwelve":2920,"cer":2921,"tes":2922,"ĠÂ":2923,"Ġmmm":2924,"Ġcu":2925,"Ġfan":2926,"Ġtool":2927,"Ġlady":2928,"hical":2929,"Ġstone":2930,"Ġyourselves":2931,"aking":2932,"Ġcontin":2933,"Ġmountains":2934,"Ġsurprise":2935,"Ġmethod":2936,"Ġtax":2937,"Ġsi":2938,"read":2939,"Ġfaster":2940,"Ġpor":2941,"Ġfeast":2942,"Ġuhm":2943,"Ġimages":2944,"ÑģÑĤ":2945,"Ġrulers":2946,"Ġboyfriend":2947,"Ġwha":2948,"Ġrese":2949,"Ġlif":2950,"Ġsus":2951,"Ġletters":2952,"redith":2953,"ists":2954,"Ġbroke":2955,"Ġprompt":2956,"Ġcausing":2957,"Ġpizza":2958,"Ġcong":2959,"rench":2960,"Ġzer":2961,"Ġnatural":2962,"Ġstretched":2963,"ht":2964,"how":2965,"Ġmac":2966,"Ġmeat":2967,"Ġbecom":2968,"Ġintrodu":2969,"Ġscience":2970,"Ġcompet":2971,"Ġchoice":2972,"Ġdoorway":2973,"Ġtouch":2974,"Ġiron":2975,"Ġbi":2976,"Ġlad":2977,"itch":2978,"Ġbeasts":2979,"raham":2980,"Ġconside":2981,"Ġmov":2982,"Ġ200":2983,"Ġloved":2984,"Ġcalling":2985,"dered":2986,"Ð¾Ð²":2987,"Ġmodels":2988,"Ġbranch":2989,"bu":2990,"ered":2991,"mp":2992,"onse":2993,"ester":2994,"ilar":2995,"Ġovert":2996,"Ġhole":2997,"ivity":2998,"Ġcreated":2999,"Ġgenerate":3000,"Ġexpert":3001,"Ġvarious":3002,"Ġhurt":3003,",\"":3004,"fer":3005,"Ġcake":3006,"Ġdust":3007,"ories":3008,"Ġmeredith":3009,"Ġabraham":3010,"Ġworked":3011,"cript":3012,"Ġterm":3013,"Ġephraim":3014,"ners":3015,"Ġpred":3016,"itions":3017,"asse":3018,"Ġlibr":3019,"Ġvie":3020,"Ġinte":3021,"Ġarms":3022,"Ġseries":3023,"Ġbudd":3024,"Ġbooks":3025,"Ġconsidered":3026,"ping":3027,"Ã§":3028,"Ġtv":3029,"oun":3030,"ulation":3031,"Ġroot":3032,"ĠÐ¼":3033,"Ġhelps":3034,"Ġaddition":3035,"Ġbenjamin":3036,"bed":3037,"zer":3038,"ÙĦ":3039,"Ġcab":3040,"Ġmeant":3041,"Ġstat":3042,"Ġstri":3043,"Ġcompl":3044,"ria":3045,"Ġgeneral":3046,"airs":3047,"Ġamerican":3048,"Ġoppos":3049,"Ġcruel":3050,"jor":3051,"Ġpants":3052,"Ġjon":3053,"ault":3054,"Ġkelly":3055,"Ġgrass":3056,"Ġcutting":3057,"Ġchina":3058,"ificial":3059,"---":3060,"Ġtribe":3061,"Ġvari":3062,"Ġweekend":3063,"back":3064,"iÃ³n":3065,"Ñħ":3066,"Ġram":3067,"Ġlie":3068,"Ġclos":3069,"Ġinstr":3070,"Ġimprove":3071,"10":3072,"sa":3073,"Ġtong":3074,"Ġmifflin":3075,"Ġfit":3076,"Ġlu":3077,"iday":3078,"riage":3079,"Ġbabies":3080,"Ġvessels":3081,"Ġwitness":3082,"ðŁ¤Ķ":3083,"iot":3084,"ium":3085,"nam":3086,"ym":3087,"Ġimm":3088,"urity":3089,"Ġexcept":3090,"Ġshare":3091,"Ġbasket":3092,"Ġcaptain":3093,"cel":3094,"Ð¹":3095,"ann":3096,"Ġforty":3097,"Ġsepar":3098,"Ġgreater":3099,"Ġbrass":3100,"Ġacts":3101,"Ġfamous":3102,"Ġpark":3103,"Ġinde":3104,"Ġavail":3105,"Ġchicken":3106,"Ġmovies":3107,"dy":3108,"ĢðŁĴ":3109,"Ġsitting":3110,"Ġcy":3111,"Ġnine":3112,"Ġju":3113,"Ġstick":3114,"Ġappre":3115,"Ġsimilar":3116,"Ġanimals":3117,"night":3118,"Ġ0":3119,"Ġwid":3120,"har":3121,"Ġfrench":3122,"Ġpush":3123,"Ġlay":3124,"Ġnap":3125,"ently":3126,"ury":3127,"astic":3128,"Ġenc":3129,"Ġenv":3130,"Ġmarry":3131,"Ġrelax":3132,"Ġcurse":3133,"Ġartificial":3134,"Ġtypes":3135,"ðŁ¤ĶðŁ¤Ķ":3136,"oon":3137,"Ġdance":3138,"Ġnation":3139,"Ġlived":3140,"Ġusually":3141,"Ġneeded":3142,"Ġhuge":3143,"Ġlegs":3144,"Ġtrees":3145,"Ġdetermine":3146,"ĢðŁĴĢðŁĴ":3147,"Ġaust":3148,"hard":3149,"Ġmal":3150,"Ġfund":3151,"Ġpas":3152,"Ġdoors":3153,"Ġseated":3154,"Ġvine":3155,"aged":3156,"Ġbird":3157,"Ġentire":3158,"Ġpayment":3159,"Ġnormal":3160,"face":3161,"iar":3162,"Ġtal":3163,"Ġtheory":3164,"Ġfant":3165,"lect":3166,"Ġrele":3167,"Ġstruct":3168,"Ġloves":3169,"usion":3170,"Ġscore":3171,"Ġcollege":3172,"Ġpregnant":3173,"Ġnaked":3174,"ste":3175,"Ġmeas":3176,"iment":3177,"rase":3178,"Ġboat":3179,"Ġresponse":3180,"Ġrefer":3181,"Ġdistrib":3182,"Ġsubject":3183,"Ġchanges":3184,"Ġcaptains":3185,"Ġoxen":3186,"Ġmillion":3187,"Ġappreci":3188,"ior":3189,"wor":3190,"Ġï¿½":3191,"Ġaz":3192,"Ġsens":3193,"Ġban":3194,"Ġfired":3195,"acy":3196,"Ġordered":3197,"umb":3198,"Ġhook":3199,"Ġwast":3200,"Ġbank":3201,"Ġjour":3202,"Ġris":3203,"Ġsocial":3204,"ops":3205,"Ġwhether":3206,"olution":3207,"Ġworth":3208,"Ġevent":3209,"Ġkeeps":3210,"lands":3211,"Ġtechnology":3212,"Ġcrushed":3213,"car":3214,"word":3215,"llo":3216,"oms":3217,"Ġneg":3218,"Ġshot":3219,"Ġbrought":3220,"Ġshar":3221,"Ġshaking":3222,"Ġplayer":3223,"Ġsins":3224,"Ġfields":3225,"Ġdistance":3226,"Ġident":3227,"Ġeurope":3228,"gar":3229,"Ġyum":3230,"Ġleaving":3231,"Ġfeather":3232,"Ġshall":3233,"Ġemily":3234,"Ġrestaur":3235,"Ġwindows":3236,"Ġtechni":3237,"Ġfish":3238,"lead":3239,"Ġcanaan":3240,"Ġsuck":3241,"Ġsudden":3242,"arden":3243,"Ġjerem":3244,"Ġequal":3245,"ropri":3246,"ĠØ":3247,"Ġdue":3248,"esome":3249,"Ġlips":3250,"Ġann":3251,"Ġarea":3252,"Ġsequ":3253,"antic":3254,"Ġfrank":3255,"Ġphot":3256,"Ġbrain":3257,"ti":3258,"time":3259,"Ġwound":3260,"haz":3261,"Ġfing":3262,"ences":3263,"Ġbutt":3264,"Ġdece":3265,"ption":3266,"Ġzion":3267,"Ġemploy":3268,"Ġ50":3269,"Ġgeneration":3270,"Ġterms":3271,"Ġ201":3272,"Ġsignific":3273,"Ġgentle":3274,"bel":3275,"gt":3276,"Ġitem":3277,"Ġjok":3278,"teen":3279,"Ġerror":3280,"Ġfinally":3281,"Ġreasons":3282,"Ġpolit":3283,"cuss":3284,"Ġstatement":3285,"Ġperformance":3286,"Ġconnection":3287,"Ġscene":3288,"ients":3289,"Ġworse":3290,"Ġacting":3291,"Ġstrate":3292,"Ġphrase":3293,"Ġexcited":3294,"Ġshoes":3295,"Ġsandw":3296,"da":3297,"ov":3298,"uce":3299,"Ġhez":3300,"Ġrad":3301,"acing":3302,"Ġkick":3303,"Ġconc":3304,"Ġrobert":3305,"Ġcharact":3306,"Ġhonest":3307,"Ġquantum":3308,"Ġrichard":3309,"rute":3310,"iny":3311,"Ġcart":3312,"Ġfelt":3313,"Ġmechan":3314,"ulations":3315,"Ġunless":3316,"Ġuser":3317,"bl":3318,"gi":3319,"pes":3320,"het":3321,"Ġduck":3322,"Ġheat":3323,"Ġhosp":3324,"Ġfran":3325,"Ġoutput":3326,"Ġfeels":3327,"Ġcarol":3328,"Ġdepending":3329,"Ġprisoners":3330,"Ġunivers":3331,"Ġpounds":3332,"Ġopposite":3333,"Ġavailable":3334,"ination":3335,"Ġbes":3336,"vert":3337,"hol":3338,"Ġsees":3339,"Ġstring":3340,"Ġexplan":3341,"Ġinterview":3342,"Ġawesome":3343,"Ġneighbour":3344,"pot":3345,"hah":3346,"Ġfrance":3347,"Ġworst":3348,"Ġcheese":3349,"Ġdisco":3350,"ensive":3351,"Ġstandard":3352,"Ġsongs":3353,"Ġsleeping":3354,"Ġclothes":3355,"Ġraise":3356,"Ġcharacters":3357,"hest":3358,"Ġfem":3359,"Ġune":3360,"ÑĤÑĮ":3361,"Ġwives":3362,"iety":3363,"Ġdivor":3364,"Ġanimal":3365,"Ġjeremiah":3366,"Ġhospital":3367,"ooh":3368,"Ġdas":3369,"Ġdating":3370,"Ġfur":3371,"Ġrather":3372,"Ġkno":3373,"Ġsevent":3374,"ison":3375,"ables":3376,"Ġpoints":3377,"Ġextra":3378,"ĠÐ¿ÑĢ":3379,"Ġllm":3380,"ropriate":3381,"uh":3382,"Ġwithin":3383,"ability":3384,"ferences":3385,"Ġblow":3386,"Ġapolog":3387,"Ġhanging":3388,"Ġcele":3389,"conom":3390,"Ġfeathers":3391,"bit":3392,"five":3393,"Ð·":3394,"ĠÑĤ":3395,"Ġwand":3396,"Ġfate":3397,"cell":3398,"Ġmanasse":3399,"Ġcoll":3400,"Ġ25":3401,"Ġsecurity":3402,"Ġchuck":3403,"Ġopening":3404,"Ġcountries":3405,"Ġfinish":3406,"Ġmanasseh":3407,"hel":3408,"amm":3409,"Ġhandle":3410,"Ġdecide":3411,"Ġespe":3412,"Ġwindow":3413,"Ġlocated":3414,"Ġmanagement":3415,"Ġalgorithm":3416,"ros":3417,"Ġtar":3418,"Ġsen":3419,"Ġbought":3420,"Ġcred":3421,"Ġpow":3422,"oring":3423,"Ġlas":3424,"Ġhung":3425,"Ġnecess":3426,"Ġoffer":3427,"Ġnumbered":3428,"Ġeggs":3429,"Ġmultiple":3430,"ech":3431,"Ġì":3432,"erial":3433,"Ġgab":3434,"Ġtok":3435,"Ġinput":3436,"ida":3437,"idence":3438,"Ġdoc":3439,"Ġohhh":3440,"Ġdear":3441,"Ġjoab":3442,"Ġoffic":3443,"Ġevents":3444,"Ġopin":3445,"Ġassy":3446,"Ġattract":3447,"Ġindust":3448,"Ġcorpor":3449,"Ġplanet":3450,"Ġaccept":3451,"Ġresearch":3452,"Ġcelebr":3453,"Ġjul":3454,"Ġvon":3455,"Ġlooked":3456,"istic":3457,"Ġearli":3458,"ciples":3459,"Ġtrain":3460,"Ã¼r":3461,"Ġlibrary":3462,"Ġrestaurant":3463,"ban":3464,"ule":3465,"val":3466,"Ġahead":3467,"Ġich":3468,"Ġbing":3469,"Ġgell":3470,"Ġinfl":3471,"Ġbeer":3472,"Ġ11":3473,"Ġfloor":3474,"Ġappreciate":3475,"count":3476,"ives":3477,"ino":3478,"Ġbeast":3479,"Ġrand":3480,"Ġsoci":3481,"Ġmonkey":3482,"Ġpretend":3483,"Ġtroubled":3484,"Ġtypically":3485,"Ġcongrat":3486,"esterday":3487,"wr":3488,"Ġyesterday":3489,"Ġeh":3490,"Ġweb":3491,"Ġwhoever":3492,"Ġteach":3493,"Ġfeed":3494,"Ġimple":3495,"Ġcattle":3496,"board":3497,"Ġdevelopment":3498,"00000000":3499,"Ġbehavior":3500,"Ġsarah":3501,"Ġobviously":3502,".)":3503,"gs":3504,"Ġtu":3505,"Ġahi":3506,"Ġsource":3507,"Ġbod":3508,"Ġbear":3509,"lex":3510,"Ġkit":3511,"Ġrece":3512,"ris":3513,"raid":3514,"raph":3515,"ĠÐ±":3516,"cially":3517,"orses":3518,"Ġstands":3519,"Ġlion":3520,"ula":3521,"Ġbro":3522,"Ġrobot":3523,"Ġafraid":3524,"ÐµÐ»":3525,"Ġhappening":3526,"Ġdiscuss":3527,"Ġmaterial":3528,"Ġexperien":3529,"Ð°Ðº":3530,"Ġdrinking":3531,"Ġpotential":3532,"Ġapproxim":3533,"Ġpiece":3534,"Ġconnect":3535,"ijah":3536,"iven":3537,"je":3538,"tw":3539,"uc":3540,"Ġil":3541,"Ġnone":3542,"Ġheb":3543,"str":3544,"Ġweren":3545,"amet":3546,"Ġstars":3547,"Ġ14":3548,"Ġsmoke":3549,"Ġperf":3550,"Ġfourth":3551,"Ġsky":3552,"Ġdraw":3553,"Ġmistake":3554,"Ġ#":3555,"Ġbon":3556,"Ġbri":3557,"athan":3558,"Ġcomo":3559,"Ġplat":3560,"ified":3561,"Ġsweetie":3562,"Ġsamuel":3563,"Ġinclude":3564,"Ġproducts":3565,"Ġimplement":3566,"iod":3567,"ipp":3568,"Ġ--":3569,"Ġcell":3570,"Ġlen":3571,"Ġoffe":3572,"Ġstarts":3573,"Ġbigger":3574,"ints":3575,"Ġmetal":3576,"Ġtried":3577,"Ġfinan":3578,"Ġlargest":3579,"Ġschrute":3580,"Ġfemale":3581,"pu":3582,"Ð³":3583,"Ġeating":3584,"Ġeconom":3585,"icient":3586,"Ġhom":3587,"lda":3588,"iron":3589,"Ġdecided":3590,"Ġunderstanding":3591,"Ġqueen":3592,"Ġmajor":3593,"Ġrecorded":3594,"Ġview":3595,"Ġtongue":3596,"world":3597,"Ġsignificant":3598,"light":3599,"Ġtit":3600,"aria":3601,"Ġhal":3602,"Ġmel":3603,"Ġframe":3604,"Ġsavi":3605,"Ġalice":3606,"Ġthinks":3607,"Ġclub":3608,"Ġblind":3609,"cious":3610,"Ġachie":3611,"Ġdied":3612,"Ġdelight":3613,"Ġshoot":3614,"Ġrequire":3615,"Ġdogs":3616,"Ġidiot":3617,"Ġgrowth":3618,"Ġpillars":3619,"cr":3620,"Ġtun":3621,"Ġham":3622,"Ġgrace":3623,"ÐµÑĢ":3624,"Ġrelated":3625,"Ġwild":3626,"Ġlights":3627,"Ġwalls":3628,"Ġmissed":3629,"ole":3630,"ĠÑ":3631,"ndon":3632,"Ġnu":3633,"Ġhorses":3634,"vern":3635,"Ġcompare":3636,"Ġarmed":3637,"Ġprovided":3638,"Ġequation":3639,"Ġkeys":3640,"Ġforgot":3641,"ðŁĴĶ":3642,"Ġphysical":3643,"Ġcopy":3644,"Ġpractice":3645,"Ġgeller":3646,"phi":3647,"Ġsant":3648,"Ġgar":3649,"Ġka":3650,"Ġammon":3651,"Ġleaves":3652,"Ġusers":3653,"Ġplayed":3654,"Ġplane":3655,"Ġaddress":3656,"whoa":3657,"20":3658,"ml":3659,"Ġdir":3660,"Ġheav":3661,"ashi":3662,"Ġmary":3663,"Ġspeech":3664,"Ġeli":3665,"Ġgenerally":3666,"Ġbenef":3667,"Ġreport":3668,"Ġtemper":3669,"Ġbuddy":3670,"Ġsharp":3671,"bon":3672,"Ġill":3673,"Ġsides":3674,"rees":3675,"lla":3676,"Ġisa":3677,"isha":3678,"Ġsabb":3679,"ilt":3680,"Ġvision":3681,"Ġperiod":3682,"Ġstopped":3683,"Ġrespond":3684,"Ġwonderful":3685,"Ġbreath":3686,"Ġhigher":3687,"Ġchatbot":3688,"Ġenviron":3689,"Ġhezekiah":3690,"Ġknock":3691,"nel":3692,"rr":3693,"zen":3694,"ĠÙ":3695,"Ġobs":3696,"Ġgal":3697,"ari":3698,"Ġbeat":3699,"Ġjames":3700,"iling":3701,"Ġuses":3702,"Ġ16":3703,"Ġzu":3704,"Ġaccord":3705,"Ġaccess":3706,"Ġcatch":3707,"Ġplanning":3708,"Ġvalues":3709,"ailed":3710,"ÃŃa":3711,"Ġcustomer":3712,"over":3713,"su":3714,"Ġtough":3715,"Ġtired":3716,"Ġfault":3717,"Ġweigh":3718,"ids":3719,"icy":3720,"Ġht":3721,"riages":3722,"Ġsaf":3723,"ulous":3724,"ister":3725,"Ġbright":3726,"Ġholly":3727,"Ġemer":3728,"like":3729,"Ġprofit":3730,"look":3731,"Ġincrease":3732,"Ġjourney":3733,"Ġcongratulations":3734,"ðŁĴĶðŁĴĶ":3735,"Ãª":3736,"Ġess":3737,"ĠÑĩ":3738,"hen":3739,"Ġship":3740,"alian":3741,"Ġgovern":3742,"verse":3743,"action":3744,"Ġemp":3745,"Ġincred":3746,"cccccccccccccccccccccccccccccccc":3747,"Ġcalculate":3748,"Ġprofessional":3749,"Ġladies":3750,"Ġassyria":3751,"Ġrandom":3752,"Ġisaac":3753,"Ġsabbath":3754,"tain":3755,"under":3756,"ario":3757,"Ġgrad":3758,"Ġaccur":3759,"Ġinstruction":3760,"Ġdesigned":3761,"Ġfamiliar":3762,"Ġincreased":3763,"dddddddddddddddddddddddddddddddd":3764,"Ġcircum":3765,"Ġespecially":3766,"50":3767,"cra":3768,"old":3769,"ĠÑĢ":3770,"omb":3771,"Ġedom":3772,"izing":3773,"cia":3774,"Ġmarriage":3775,"wards":3776,"Ġmarked":3777,"Ġballs":3778,"Ġfilm":3779,"Ġ2023":3780,"Ġprivate":3781,"Ġinstruments":3782,"Ġsandwich":3783,"iveness":3784,"Ġsaviour":3785,"Ð±":3786,"era":3787,"Ġgas":3788,"stairs":3789,"Ġja":3790,"Ġjump":3791,"Ġreview":3792,"Ġquit":3793,"Ġquite":3794,"ully":3795,"Ġadult":3796,"Ġdeveloped":3797,"Ġcurrently":3798,"Ġriddle":3799,"Ġunique":3800,"Ġparticular":3801,"Ġjonathan":3802,"Ġnegative":3803,"Ġcorporate":3804,"nom":3805,"Ġq":3806,"Ġtaste":3807,"rest":3808,"Ġult":3809,"Ġrange":3810,"Ġnovel":3811,"Ġsev":3812,"Ġdem":3813,"Ġexcell":3814,"ograp":3815,"ÐµÐ½":3816,"Ġpreferences":3817,"Ġproduce":3818,"Ġdesigns":3819,"Ġedge":3820,"Ġapproach":3821,"Ġliked":3822,"Ġaustral":3823,"Ġwandering":3824,"eans":3825,"Ġmes":3826,"Ġdom":3827,"lech":3828,"icate":3829,"ppy":3830,"Ġvac":3831,"Ġsheke":3832,"Ġspr":3833,"Ġembar":3834,"Ġends":3835,"Ġbreast":3836,"Ð¾Ð¼":3837,"inese":3838,"Ġamerica":3839,"Ġruss":3840,"Ġyumon":3841,"kt":3842,"Ġtheore":3843,"Ġlat":3844,"Ġhall":3845,"Ġrepe":3846,"amp":3847,"Ġneck":3848,"Ġate":3849,"Ġtrick":3850,"pert":3851,"Ġcalls":3852,"Ġground":3853,"Ġchocol":3854,"Ġtransform":3855,"Ġvariety":3856,"Ġloss":3857,"Ġtickets":3858,"Ġcredit":3859,"Ġoffered":3860,"Ġaccording":3861,"gu":3862,"ark":3863,"Ġitalian":3864,"icious":3865,"Ġgoal":3866,"Ġ13":3867,"Ġbull":3868,"Ġturns":3869,"Ġinternet":3870,"Ġsigns":3871,"Ġheavens":3872,"Ġinterested":3873,"Ġdivision":3874,"Ġmagic":3875,"Ġpsy":3876,"Ġpredict":3877,"ga":3878,"lie":3879,"non":3880,"Ġmit":3881,"Ġdy":3882,"Ġlock":3883,"tery":3884,"Ġboo":3885,"Ġaffect":3886,"Ġdrunk":3887,"Ġcharge":3888,"Ġsending":3889,"Ġpowerful":3890,"ternal":3891,"Ġautom":3892,"Ġquality":3893,"Ġseventh":3894,"Ġbodies":3895,"11":3896,"rom":3897,"Äį":3898,"nds":3899,"Ġcow":3900,"Ġfaces":3901,"atic":3902,"icated":3903,"though":3904,"Ġtele":3905,"Ġguest":3906,"Ġbuck":3907,"Ġprime":3908,"Ġfinal":3909,"Ġeffective":3910,"Ġtasks":3911,"Ġaudition":3912,"Ġoriginal":3913,"Ġtradition":3914,"Ġlifting":3915,"Ġdeceit":3916,"Ġearlier":3917,"Ġkitchen":3918,"ki":3919,"Ġware":3920,"Ġpan":3921,"att":3922,"Ġweather":3923,"Ġnoise":3924,"Ġseas":3925,"Ġlondon":3926,"Ġwrote":3927,"Ġcontain":3928,"Ġprep":3929,"Ġcalm":3930,"icht":3931,"Ġpositive":3932,"Ġpassion":3933,"Ġfreak":3934,"Ġvisit":3935,"giving":3936,"Ġenvironment":3937,"Ġexcellent":3938,"Ġwarehouse":3939,".&":3940,"ius":3941,"Ġbud":3942,"Ġpus":3943,"Ġitself":3944,"Ġko":3945,"Ġupset":3946,"ilities":3947,"Ġalthough":3948,"Ġconference":3949,"Ġgilead":3950,"Ġpool":3951,"rently":3952,"Ġcrack":3953,"Ġchinese":3954,"Ġskill":3955,"Ġexamples":3956,"Ġforever":3957,"Ġfundament":3958,"Ġsanta":3959,"can":3960,"ii":3961,"jo":3962,"ned":3963,"Ġ:":3964,"Ġsan":3965,"Ġsnow":3966,"Ġfail":3967,"atures":3968,"ascript":3969,"erson":3970,"ques":3971,"Ġgreatest":3972,"Ġstartup":3973,"doers":3974,"Ġ``":3975,"Ġsurv":3976,"Ġbaal":3977,"Ġversion":3978,"Ġmathematical":3979,"Ġtranslate":3980,"30":3981,"ex":3982,"phat":3983,"Ã¨":3984,"Ġbones":3985,"Ġbunch":3986,"erve":3987,"Ġtower":3988,"ances":3989,"idge":3990,"Ġrace":3991,"Ġride":3992,"Ġabove":3993,"aker":3994,"Ġtwice":3995,"Ġbrown":3996,"Ġrobe":3997,"Ġrobes":3998,"Ġgrab":3999,"Ġswim":4000,"Ġprocessing":4001,"Ġtenth":4002,"Ġexpress":4003,"Ġfilled":4004,"Ġfictional":4005,"Ġmixed":4006,"Ġfinancial":4007,"af":4008,"cher":4009,"Ġtag":4010,"Ġtiny":4011,"Ġpour":4012,"Ġyellow":4013,"Ġdeg":4014,"pper":4015,"Ġplans":4016,"Ġfee":4017,"ÑģÐº":4018,"Ġgenerations":4019,"Ġseconds":4020,"Ġintern":4021,"Ġjanice":4022,"Ġsamaria":4023,"Ġdirections":4024,"Ġdevice":4025,"Ġallowed":4026,"Ġapplication":4027,"Ġgabe":4028,"lar":4029,"Ġmention":4030,"Ġdoin":4031,"Ġsold":4032,"ored":4033,"Ġshower":4034,"Ġclients":4035,"aph":4036,"Ġoptim":4037,"Ġobjects":4038,"Ġcovering":4039,"Ġphysics":4040,"Ġinvolves":4041,"Ġjavascript":4042,"Ġsequence":4043,"fast":4044,"ka":4045,"×Ļ":4046,"Ġwing":4047,"Ġou":4048,"ico":4049,"aciÃ³n":4050,"Ġkil":4051,"Ġroy":4052,"Ġscared":4053,"Ġpoem":4054,"Ġaccident":4055,"Ġchanging":4056,"zzar":4057,"Ġbranches":4058,"Ġconstant":4059,"Ġhorns":4060,"ĠÂ¿":4061,"',":4062,"Ã£":4063,"Ġwet":4064,"Ġpity":4065,"Ġinner":4066,"alu":4067,"Ġrub":4068,"Ġneural":4069,"Ġlocal":4070,"ources":4071,"Ġbucks":4072,"Ġolder":4073,"Ġwarm":4074,"Ġgrav":4075,"Ġpopulation":4076,"Ġeasier":4077,"Ġbedroom":4078,"Ġwondering":4079,"Ġflowing":4080,"ĠÃł":4081,"Ġapproximately":4082,"two":4083,"craft":4084,"Ġchocolate":4085,"but":4086,"ca":4087,"gal":4088,"ÙĨ":4089,"Ġsally":4090,"inary":4091,"Ġrac":4092,"Ġsuit":4093,"Ġvary":4094,"Ġshh":4095},"merges":["Ġ t","Ġ a","h e","Ġ i","Ġ w","Ġt he","Ġ o","Ġ s","o u","r e","i n","h a","Ġ m","Ġ y","n d","Ġ b","Ġ c","e r","Ġy ou","Ġ d","Ġ f","Ġ g","o n","in g","Ġt o","Ġ p","Ġa nd","o r","l l","Ġ l","Ġo f","Ġ n","e s","e n","a n","ha t","h i","Ġi n","a t","i t","Ġi s","o m","Ġ he","a r","v e","s t","o w","Ġb e","Ġ ha","Ġ e","a y","s e","Ġi t","l e","o t","u t","Ġ u","Ġt hat","e t","Ġw e","e d","Ġo n",". .","i d","Ġ j","k e","hi s","i c","a l","a s","g h","Ġg o","Ġf or","Ġ r","Ġm e","Ġ h","â Ģ","a c","' s","Ġw hat","âĢ Ļ","Ġ k","l d","Ġ re","Ġd o","i on","a m","gh t","en t","v er","Ġt h","Ġs t","i ll","Ġl i","Ġa n","Ġa re","it h","i r","Ġm y","a d","Ġyou r","Ġn ot","Ġw ith","Ġha ve","Ġn o","i ght","Ġs o","h o","Ġt his","Ġs e","o d","a ll","e l","c h","Ġw as","u r","Ġ hi","Ġc om","n ow","Ġw ill","r i","a h","or d","Ġa ll","Ġc an","u st",".. .","Ġo h","o p","' t","ou ld","l y","he r","an t","i m","i s","Ġa s","c t","Ġy e","Ġk now","Ġf r","t h","Ġw ho","a ke","Ġb ut","Ġ his","r a","Ġo k","Ġn e","Ġl o","Ġd e","Ġj ust","Ġs a","Ġp r","es t","Ġa b","Ġd on","o k","Ġthe y","ou t","i ve","Ġthe re","Ġo r","Ġw he","er s","o s","c e","a in","Ġfr om","Ġo ut","Ġu p","Ġli ke","Ġs u","Ġa t","a u","am e","all y","i l","a nd","g e","Ġhi m","Ġh ow","o re","Ġl ord","q u","Ġye ah","at ion","ha n","t er","r y","Ġg et","' m","Ġab out","Ġok ay","p p","o l","Ġb y","Ġs om","u l","u n","Ġon e","Ġ v","Ġthe m","Ġp l","u m","Ġi f","Ġm an","Ġs he","a b","Ġr ight","f e","Ġwe ll","a k","ar t","u s","es s","in k","Ġd id","Ġhe r","Ġt e","Ġs ay","ver y","Ġe x","Ġa m","Ġhe y","on e","Ġl et","re n","Ġw hi","ac k","Ġa l","Ġgo d","n a","Ġw or","Ġsa id","v en","Ġp e","Ġthe ir","re at","Ġcom e","on g","i e","a st","Ġ \"","Ġha s","Ġs h","Ġwhe n","i f","Ġl e","' re","h y","au se","Ġp ut","Ġw ould","Ġth ink","p e","Ġse e","Ġhe re","in e","ac e","Ġg u","at e","Ġw ant","Ġg ive","Ġgo od","Ġbe c","i g","Ġc on","Ġwe re","e p","c k","Ġthe n","Ġpe op","Ġn ow","Ġha d","o se","Ġt im","Ġf e","Ġpr o","Ġt han","in d","Ġan y","Ġm ake","Ġpeop le","Ġwhi ch","p t","Ġlo ok","Ġu n","h ing","Ġin t","Ġj o","Ġa g","Ġu s","re d","Ġ qu","Ġg ot","ad e","Ġsom e","ic e","a se","Ġt ake","b e","Ġa r","Ġu h","Ġre ally","Ġt w","i st","Ġg reat","Ġme an","Ġc o","Ġe very","Ġw hy","Ġof f","Ġb r","id e","Ġm o","on na","re s","Ġg onna","Ġm ay","Ġt r","Ġtim e","Ġm ade","Ġd ay","p l","v ing","ou r","ou s","ou nd","Ġ ke","d d","c c","Ġth ing","w ay","Ġo ver","Ġbec ause","m ent","Ġb ack","Ġgu y","Ġs on","i es","Ġk ing","a g","b le","os s","or t","Ġ 1","Ġr o","Ġw ay","Ġwor k","Ġc hi","Ġw r","u d","Ġgo ing","Ġag ain","Ġy es","Ġs c","ow n","Ġc ha","Ġ en","Ġb o","it y","Ġbe en","Ġte ll","at h","Ġc l","Ġdo es","Ġu se","re e","a ge","b er","ar d","al k","Ġe ar","nd er","it e","Ġint o","Ġf o","Ġb l","Ġtw o","Ġcom p","it t","Ġw ord","m m","Ġne ed","ot her","Ġc ould","w e","a ve","Ġbe t","Ġg i","Ġo ur","a re","a v","ur n","Ġsh ould","ou gh","u re","Ġs p","Ġthan k","e m","Ġd own","l f","ac t","f ore","n t","Ġs er","ic k","Ġ Ð","t her","u e","p er","Ġbe fore","Ġwhe re","ac h","Ġ 2","Ġw ent","e nd","Ġp le","ar s","Ġis ra","Ġisra el","Ġh o","Ġsom et","Ġi m","Ġm ore","0 0","Ġa f","ct ion","Ġf l","i z","Ġl and","Ġha nd","Ġs or","Ġd es","Ġc ame","i re","at her","Ġm on","r o","ou nt","Ġchi ld","Ġt alk","Ġth ose","Ġo ther","v es","Ġha pp","c i","Ġlo ve","' ll","om e","as s","ou se","w n","Ġp art","Ġpl ace","Ġguy s","Ġf ir","Ġc all","k now","Ġb u","Ġsu re","Ġ (","Ġw at","Ġa ct","? !","Ġsomet hing","Ġne w","od y","Ġsor ry","Ġple ase","Ġfir st","Ġa way","Ġm ar","Ġthe se","or y","th ing","itt le","Ġe v","Ġm en","Ġke ep","Ġs pe","Ġe ven","Ġl ittle","Ġt ak","is h","a it","Ġhe l","Ġm ic","a p","t ing","ab le","t y","Ġg ave","g et","Ġu nder","Ġm u","Ġp o","i se","! !","Ð ¾","er ing","e y","Ġh u","Ġaf ter","t e","Ġn ame","n ing","Ġh ouse","re t","f f","Ġn um","ation s","Ġd if","Ġf un","Ġs m","Ġa pp","ou ght","Ġg r","Ġhel p","Ġw ait","ren t","Ġ very","Ġe l","Ġ z","Ġchild ren","ri end","or m","f t","Ġp ri","Ġse c","Ġdid n","d e","Ġs ha","Ġto ok","an s","Ġagain st","d ay","Ġdo ing","o g","ion s","Ġf ather","Ġfe el","Ġl a","Ġon ly","r u","Ġto o","en ce","ha el","Ġmu ch","Ð °","Ġthing s","Ġs ent","Ġli fe","Ġmic hael","Ġr oss","i a","Ġu m","Ġit s","Ġp ers","Ġl ong","p le","se lf","Ð µ","a le","Ġre s","i v","' ve","Ġp er","Ġne ver","Ġth r","x t","u ll","Ġw om","Ġser v","r d","Ġth ought","Ġgi ven","ic a","Ġpl ay","Ġb est","Ġc he","Ġhe ll","u p","Ġm ak","n e","an g","Ġst r","Ġli st","Ġex pl","Ġear th","Ġd av","w er","Ġan s","Ġde ath","Ġpers on","i x","l es","Ġdav id","Ġe ver","ad y","Ġd r","Ġst art","Ġst ill","one y","Ġs in","at ed","Ñ Ĥ","o nd","Ġev il","b ody","r ight","Ġb ab","Ġhapp en","ac he","ig n","el y","ul t","Ġim p","o h","Ġto wn","Ġf riend","u ally","Ġdif fe","le d","c he","Ġt urn","Ġjo ey","Ġwr ite","Ġb ig","Ġ '","Ġe m","Ġth ree","Ġe nd","res s","n o","get her","Ġ 3","Ġmay be","Ġfo od","Ġbe l","ot h","Ġk ind","Ġc han","Ġto gether","ic al","u b","Ġqu est","Ġuse d","in t","Ġd is","Ġnum ber","f orm","i an","er t","Ġman y","i ous","Ð ¸","i ble","Ġj e","Ġj ud","l er","i ah","ar y","Ġn ight","Ġdon e","Ġo p","Ġre st","Ġor d","Ġb re","Ġye ars","Ġw o","Ġf am","Ġsay ing","Ġo ld","Ġc ar","Ġwith out","Ġa h","Ġas k","n g","m s","Ġc le","ent s","an ce","Ġst op","Ġword s","or s","Ġt ry","Ġli ving","Ġserv ant","Ġg l","Ġa d","ve l","we en","Ġans wer","Ġhe ad","Ġoff ering","Ġbet ween","Ġm at","Ġthr ough","Ġbet ter","Ġhe art","Ġd w","Ġre l","Ġbab y","Ġcon t","is s","Ġm in","Ġcom m","Ġhell o","Ġdw ight","Ġas s","Ġw ar","Ġin c","Ġg en","e ll","Ġat t","Ġc ut","Ġe y","' d","Ġson s","on s","Ġc r","Ġmo st","Ġs y","Ġg ir","Ġany thing","ache l","Ġw ow","Ġre m","Ġact ually","Ġc h","Ġro om","g y","en s","Ġg ra","nd ler","m e","i ly","ow er","Ġme et","Ġnot hing","Ġhi gh","Ġl ast","Ġcha ndler","Ã ©","i al","Ġp re","Ġp ar","Ġbel ie","at ing","Ġde c","e ct","Ġi de","c ri","c es","Ġye ar","Ġs w","Ġso l","b s","Ġl ot","e f","Ġp a","it ion","Ġexpl ain","Ġs ame","Ġwor ld","ver s","Ġr achel","Ñ ģ","Ġsay s","if ic","Ġ es","Ġ hat","Ġb us","se d","Ġb ir","Ġto day","Ġj im","Ġcha r","Ġm od","ic t","Ġs ound","Ġc are","Ġthank s","an na","ho e","Ġre al","Ġbr other","Ġmon ica","Ġf ind","Ð ½","Ġan other","Ġn ice","Ġ 5","Ġw i","Ġdiffe rent","Ġre c","Ġt ra","Ġa cc","Ġs al","se l","Ġf ine","Ġop en","Ġg ame","dd dd","Ġar m","Ġc reat","Ġm et","ing s","u ck","Ġi nd","Ġpr op","r am","Ġha rd","Ġh um","m an","cc cc","Ġj er","Ġal right","- -","Ġse nd","Ġw anna","Ġwat er","a il","Ġtak en","Ġin v","Ġquest ion","Ġwom an","Ġsa w","p h","Ñ Ģ","s o","Ġhand s","Ġbelie ve","Ġc ount","e k","Ġan g","i le","Ġp hoe","Ġt y","Ġb urn","Ġbe ing","Ġ er","Ġt ri","f ul","Ġday s","in ess","a z","Ġf ull","t s","g g","Ġp am","Ġu mm","Ġho ly","Ġgen er","Ġlist en","s ide","Ġe ach","t a","hi p","r ow","Ġam ong","Ġm ight","Ġevery thing","od e","Ġpro ble","Ġsec ond","Ġk id","Ġwr ong","Ġc ur","od u","Ġsu ch","Ġphoe be","Ġf ire","Ġey es","Ġle ar","au ght","n y","it s","Ġp h","Ġs ide","Ġd at","Ġhe ar","n er","ve d","Ġsome one","Ġdoes n","Ġc at","Ġgir l","st and","os es","Ġin ter","d om","Ġsu pp","Ġun c","Ð¾ Ð","Ġb ad","c y","Ġc or","Ġc ause","iz e","fe ct","Ġlook ing","ert ain","âĢ Ķ","way s","u ff","Ġf ace","Ġs im","ut e","Ġpl an","ast e","Ġa p","ur p","u al","Ġm ind","or k","Ġar ound","Ġhu h","Ġa w","Ġb oth","he d","Ġm or","Ġex c","Ġs we","Ġ 4","Ġdes cri","Ġtalk ing","j ect","o ck","Ġm oney","i p","Ġwhi le","Ġpri est","h h","Ġf our","i ld","Ġf a","¿ ½","ï ¿½","Ġn am","Ġunder stand","Ġsh ow","Ġfe ar","Ġt er","Ġ ...","st em","Ġbus iness","Ġget ting","Ġr ul","led ge","n ess","Ġjo b","o o","Ġus ing","Ġc ho","Ġp ower","Ġf in","c ess","Ġp ret","it es","Ġm om","Ġal ways","Ġide a","Ġjud ah","ou th","o b","Ġdo or","Ġp res","Ġe le","Ġknow ledge","Ġevery one","Ġhapp y","Ġcomp le","Ġc ertain","Ġli ght","Ġs l","Ġcom ing","Ġtr ue","Ġa c","Ġse en","Ġin st","Ġr un","ru ction","Ġre ady","Ġstr ong","in es","Ġst ory","Ġne xt","Ġp oss","Ġcall ed","Ġt hi","Ġv al","Ġsm all","Ġsy stem","w ard","Ġhu nd","Ġbu ild","Ġst uff","Ġqu e","Ġha ving","Ġen g","Ġgu ess","Ġpro v","Ġhund red","Ġp y","Ġle ft","Ġwat ch","Ġb it","Ġyou ng","Ġo b","Ġf ar","Ġal so","Ġs et","Ġm oses","ase d","Ġf ive","Ġd est","Ġ2 0","Ġpro g","b y","ac es","Ġo wn","o od","e ver","v ie","Ġcle ar","ð Ł","re am","Ġg one","Ġproble m","or n","at es","Ġc ode","Ġd i","ol og","Ġd aught","hi l","ri ed","Ġc a","ll ow","Ġs ign","Ġbo ok","s on","Ġe gy","ce pt","ie ld","Ġc ol","Ġs k","Ġ .","Ġex per","Ġimp ort","Ġegy pt",". \"","Ġb en","ic s","em ber","Ġmak es","Ġto t","Ġmak ing","Ġre p","Ġcom es","Ġv o","Ġd ar","Ġto ld","Ġmon th","ci al","a i","Ġc ry","Ġpr odu","Ġmod el","op e","d o","f l","Ġbre ak","Ġw aste","Ġf act","ul ar","Ġcomp an","Ġjer us","ale m","Ġm a","Ġb as","Ġre g","Ġmar k","Ġjerus alem","h u","p s","Ġ -","Ġfriend s","Ġmor ning","l i","Ġ ?","Ġwant ed","Ġres p","Ġfam ily","Ġw h","on t","en se","Ġin form","Ġbo y","is ion","Ġla w","e re","a ven","an k","Ġ est","al s","Ġre d","pe ct","Ġgot ta","Ð° Ð","Ġbir th","Ġs ix","Ġpo int","Ġfor m","Ġst ep","Ġh ome","ag es","Ġtim es","Ġmean s","Ġpart y","t he","Ġcon s","Ġh our","Ġre ad","Ġ ent","g in","Ġtr ans","Ġrem ember","Ġd et","Ġdr ink","Ġre f","Ġimport ant","Ġt on","Ġwi fe","Ġm er","l ic","Ġc our","Ġoff ice","c ome","ous and","Ġd el","pe nd","Ġth ousand","Ġprog ram","Ġa i","Ġf ield","Ġdat a","Ġm us","Ġy a","th on","Ġco ol","i b","Ġposs ible","Ġw on","Ġw in","ou ble","Ġe at","ow s","b ab","Ġw all","Ġw alk","i ent","ot t","Ġservant s","Ġt en","Ġthink ing","Ġevery body","Ġel se","Ġpret ty","it ed","Ġen ough","Ġord ers","r on","Ġp hil","Ġre as","Ġs le","Ġord er","m o","ou d","i o","Ñ ĥ","Ġa dd","ent y","Ġde f","Ġpy thon","Ġh oney","Ġab le","b o","Ġgo ld","Ġdest ruction","Ġc ou","Ġspe c","Ġturn ed","Ġb ody","Ġche ck","sel ves","Ġs ist","Ġp hy","Ġsec ret","Ġp ick","Ġf ight","Ġswe et","Ġs ho","at er","ain s","Ġst and","Ġinform ation","c ause","Ġ âĢ","Ġh on","a ut","Ġm ount","Ġwom en","Ġcompan y","Ġto m","Ġwe ek","Ġde ad","Ġmeet ing","Ġm other","ose d","Ð »","Ġwho se","Ġs ing","Ġc ra","Ġf ree","Ġb all","Ġd ri","Ġcount ry","\" .","ut h","i ence","Ġto p","Ġand y","Ġl ang","g er","Ġh ot","Ġway s","Ġre qu","w ork","et s","Ġst ay","z y","Ġpro bab","Ġar t","v i","it al","Ġbec ome","Ġhappen ed","Ġs ong","Ġd u","at ive","Ġhe aven","Ġmo ve","al th","Ġgo es","Ġcomp ut","ast er","Ġd ire","ren ce","Ġd ist","ok en","Ġke pt","Ġw ind","Ġon ce","Ġ1 0","Ġ1 9","Ġdo g","Ġtry ing","Ġs it","Ġp ay","Ġp un","Ġis n","v in","Ġt ill","Ġc al","g th","Ġd ie","ent ion","Ġpr om","Ġfun ny","Ġjo ke","Ġcour se","l and","u se","Ġst e","Ġde pend","Ġwh om","Ġlang u","Ġg e","Ġr ound","Ġnam ed","i er","Ġv ar","Ġho ld","Ġton ight","Ġb ra","Ġpro cess","Ġdescri be","Ġp urp","c ed","Ġhum an","ud e","l t","Ġmar ried","a x","Ġm ust","an ge","ir d","Ġtak ing","ic h","Ġ `","Ġyour self","Ġp op","il ity","c o","o y","Ġwho le","Ġb ar","Ġ x","ion al","Ġwho a","Ġnew s","Ġse x","Ġburn ed","on es","Ġe as","as ure","Ġang el","Ġdif f","Ã ³","Ġo oh","Ġsu b","Ġl ine","Ġc ap","i ver","Ġ 6","Ġf ound","Ġvo ice","ar ch","Ġany one","Ġtr ouble","m on","ic ally","Ġbr oken","Ġbe aut","Ġe qu","Ġtak es","id ent","Ġp ol","Ġte ch","Ġbec ame","Ġser ious","Ġsle ep","am es","Ġqu ick","Ġwo od","Ġd ate","Ġf al","Ġse ven","Ġpa per","dddd dddd","Ġm r","Ġs il","or row","Ġknow n","cccc cccc","Ġy et","Ġle ave","Ġdes ign","Ġp os","Ġlear ning","Ġbe d","Ġj an","Ġcl ass","ere st","y ou","Ġp ass","Ġt ent","Ġm id","Ñ ı","Ġfun ction","Ġd ad","n ot","Ġm iss","Ġl ar","Ġh or","Ġsh ort","Ġs ur","qu e","b r","Ġchan g","Ġpl aces","Ġint erest","Ġcle an","Ġdaught er","n i","u res","Ġhi st","i et","m a","Ġsound s","Ġf all","in s","Ġst ore","pl ace","Ġsw ord","i red","i en","er n","Ġne ar","un g","Ġchi ef","Ġal t","Ġfo llow","Ġd am","Ġn ations","it ing","Ġth ough","Ġwo nder","Ġbuild ing","Ġwe ird","Ġcreat e","c ha","Ġsa fe","m ing","Ġm ess","Ġg re","Ġsu n","Ġs ou","Ġs am","t en","Ġha ir","Ġex p","Ġbrother s","Ġcl ot","Ġprop he","Ġbo x","Ġtown s","Ð º","ri st","Ġprobab ly","s c","ll y","Ġoh h","Ġhim self","Ġbl ood","Ġunc le","Ġt able","re ady","Ġfal se","Ġp he","ant s","o ke","Ġm ach","Ġha lf","ĠâĢ ĺ","f fe","Ġm ed","id es","Ġby e","Ġspec ific","Ġme m","Ġreas on","Ġwe ar","Ġwas n","if ul","Ġbu y","che d","Ġinc l","Ġ ve","Ġst ren","Ġal ready","Ġty pe","d le","Ġm outh","Ã Ń","in ing","in ed","ut ion","Ġte xt","Ġlangu age","Ġher it","re ct","ic es","us h","Ġex t","Ġbeaut iful","Ġwork ing","ur al","Ġchan ge","Ġmin ute","Ġt est","Ġpro f","Ñ Į","as h","ac ter","Ġag ree","m en","r ing","t o","Ġke y","Ġkind a","Ġherit age","Ġmy self","Ġde al","Ġn et","Ġpurp ose","Ġa ir","at s","c us","Ġp ot","Ġstren gth","p ed","Ġe d","Ġc ity","Ġp ra","it ies","Ġe t","Ġj es","Ġtw enty","up id","Ġd iv","ll e","Ġse a","Ġlook s","Ġrel ations","Ġst ate","Ġgi ving","Ġgl ad","Ġh ope","l o","Ã ¤","Ġpe ace","Ġwe dd","ment s","Ġph one","Ġtot ally","Ġb ased","Ġst upid","Ġ $","Ġs qu","r act","Ġd an","Ġr u","Ġsin ce","ĠÐ ¿","Ġmus ic","Ġc ent","Ġd in","le y","im e","Ġca pt","Ġl au","Ġlo s","Ġwork s","he re","ct or","Ġfam il","vel op","Ġchar acter","Ġprodu ct","Ġm i","Ġbr ing","Ġwould n","Ġfather s","Ġatt ack","Ġtom orrow","Ġl ater","Ġli ve","Ġwr ath","b ers","he s","Ġd ra","Ġp ain","Ġpr ay","Ġex am","Ġex act","ro om","Ġcomm on","Ġdiff ic","Ġl ow","Ġin s","at ely","ur ing","Ġf if","Ġk ne","Ġwant s","Ġlear n","Ã ¡","Ġde velop","Ġab s","Ġty p","c al","z e","Ġt ou","Ã ¼","Ġwhat ever","Ġun t","Ġsc ho","Ġgi ves","Ġcor rect","d s","Ġj ac","Ġking dom","Ġprov ide",".. ..","Ġwedd ing","Ġe f","Ġle g","Ġbl ue","Ġoffering s","ffe e","c l","Ġm il","Ġc up","Ġfe et","Ġsp ir","Ġad v","u es","Ġs ort","Ġshe ep","Ġte m","l ess","Ġha ng","Ġr ach","b all","Ġmo vie","Ġo x","ot e","Ġde ep","Ġsa ul","Ġfl ight","Ġro ck","Ġmat ter","Ġm ine","Ġf re","ri b","Ġco ffee","Ġhat e","u it","id ed","Ġcra zy","Ġpra ise","Ġef fect","Ġb and","Ġhi t","Ġget s","un ch","Ġsp ace","Ġpri son","es h","Ġmach ine","a a","at or","Ġjac ob","t le","Ġso ft","Ġsh ut","Ġf ig","Ġbl ack","00 0","Ġs ense","Ġse ver","in a","Ġm ag","Ġsent ence","Ġre t","Ġfe w","l a","Ġst ra","Ġam az","Ġuncle an","ut es","Ġsou l","g o","er m","Ġmean ing","Ġmer cy","Ġ =","Ġch rist","Ġsal es","Ġdef in","Ġle ad","Ġpriest s","a ir","Ġd ry","Ġsupp osed","Ġexc use","Ġdar k","Ġn at","b b","Ġi d","i gh","u ly","Ġf il","Ġp ast","ri es","art ment","Ġdiffic ult","r ic","Ġhe ard","ar on","Ġj os","Ġfr ont","Ġcomput er","Ġsever al","Ġf ix","Ġp ha","e bs","Ġsu per","Ġsist er","Ġ 8","id er","f ort","Ġl ess","Ġwhi te","Ġalt ar","Ġco ok","Ġapp ro","Ġacc ount","Ġfa ith","Ġpun ish","c hi","Ġw ine","g ing","Ġw is","c le","Ġp ull","Ġup right","Ġperson al","Ġrelations hip","Ñ ĭ","iz ed","o ff","Ġli m","Ġv ide","Ġfo ot","Ġphe ebs","he m","it her","Ġwe l","as k","Ġan im","Ġe in","Ġspe ak","Ġb at","Ġresp ons","g an","Ġte am","d ing","Ġ 9","Ġ ver","Ġc e","Ġc am","Ġp en","l on","Ġin side","Ġe ight","Ġbl ess","Ġfor g","Ġhour s","Ġs hi","it ive","Ġst ud","Ġthem selves","Ġsome body","Ġa aron","pl es","Ġsha me","g n","w hat","ve red","um p","Ġsm ell","c on","av or","Ġo pt","Ġm ult","Ġv is","Ġte ac","Ġlet ter","Ġgr ow","Ġarm ies","Ġscho ol","s h","z z","Ġquest ions","Ġmin utes","Ġp ict","r al","Ġha ven","Ġco nd","Ġatt ention","Ġhist ory","k ing","st er","Ġha r","Ġcl ose","Ġinc re","Ġsupp ort","Ġsil ver","ha m","Ġl ate","Ġtr uly","Ġwait ing","Ġf ut","Ġr y","Ġnum bers","Ġgr ou","olog y","e ous","Ġf at","Ġk iss","Ġke vin","Ġbre ad","Ġsim ple","Ġo il","Ġc ard","Ġman ag","Ġcur rent","Ġburn ing","re w","Ġn or","Ġh ur","Ġa v","Ġm ain","Ġdo ll","Ġpunish ment","l ing","Ġ +","Ġam er","Ġpres ent","Ġspir it","p ut","w are","au s","Ġcon f","ck s","00 00","v ation","Ġon es","Ġking s","Ġper form","Ġrec ord","h n","Ġwe ight","b a","Ġ Ñģ","Ġcertain ly","r op","Ð ²","ch ing","ter n","Ġstart ed","che s","Ġcol or","Ġjes us","a red","Ġs outh","Ġb ag","Ġmo ving","Ġneed s","Ġob ject","Ġexact ly","Ġo per","Ġme al","Ġco ver","Ġu nd","is m","c ul","Ġp et","Ġl uck","Ġr id","Ġjo y","Ġgra in","b es","Ġw ise","Ġd ream","Ġpr in","Ġarm y","Ġp u","Ġu na","Ġagree ment","ll ing","Ġspe cial","Ġsing le","Ġse arch","Ġv i","ast s","Ġ 7","Ġ ll","Ġbe th","Ġout side","Ġthi r","Ġsqu are","Ġo ath","Ġgl ory","ðŁ Ĵ","i ed","Ð ¼","Ġp ack","Ġis t","Ġcou ple","Ġd er","Ġf ore","Ġg er","Ġk ill","Ġpray er","g en","n et","Ñ ĩ","Ġli k","Ġval ue","Ġunt il","Ġd a","Ġd ise","es e","el s","Ġcan not","te xt","Ġphy s","Ġwor s","Ġt re","Ġo pp","Ġse at","Ġs ch","ke y","Ġother s","Ġtech n","e e","u g","Ġc ir","Ġst ates","Ġsu mm","Ġpo or","Ġkid s","Ġhear ing","Ġp ie","Ġr a","Ġlong er","Ġper fect","Ġc op","Ġfor get","Ġli ft","ation al","Ġdiffe rence","Ġgre en",") .","z a","Ġass ist","Ġry an","Ġh mm","Ġsol ve","vie w","hu a","Ġangel a","Ġkne w","y ing","Ġw ide","Ġb oss","Ġbr an","Ġfa ir","Ġany way","Ġbless ing","Ġm ass","Ġse ed","Ġsee m","Ġbirth day","Ġeas y","b ot","l ish","ri ble","Ġthi rd","Ġp ub","Ġexper ience","Ġc ust","Ġsee ms","Ġturn ing","m ore","Ġo sc","Ġb ath","om m","Ġang ry","Ġdin ner","Ġvide o","v ent","Ġa uth","Ġright eous","Ġcon ne","Ġjo hn","ĠÐ ½","Ġf avor","Ġst an","um e","Ġear ly","ĠÐ ²","m as","s p","u nd","u red","v ious","Ġcon st","Ġchan ce","Ġrul es","Ġbo b","Ġh y","Ġle v","Ġdr op","Ġm ad","Ġc ub","Ġh us","pp ing","Ġgod s","Ġle vel","Ġincl ud","Ġwel come","y le","Ġp at","Ġsa nd","Ġbaby lon","Ġkid ding","Ġphil ist","Ġquick ly","Ġfamil ies","Ġosc ar","Ġfr uit","Ġun i","Ġcha ir","Ġdire ction","Ġmid dle","Ġs urp","Ġp ill","om on","Ġde p","Ġle ast","Ġcould n","Ġfut ure","o c","Ġt ree","Ġg ri","Ġear s","Ġwat ers","Ġwis dom","i k","r or","Ġ Ġ","Ġf ast","ll is","Ġsol omon","Ġs ize","Ġst ar","Ġlo c","Ġex ist","Ġ20 2","Ġpos ition","Ġamaz ing","b and","t ers","Ġw ish","Ġsc en","Ġfl ow","Ġcomm un","Ġdec ision","p ar","Ø §","Ġinv est","i j","Ġo ri","Ġm is","Ġhi ll","un k","Ġdes ire","ri se","um ent","Ġany more","Ġauth or","am a","Ġbl ock","itt ing","iv id","Ġimp ro","Ġfollow ing","Ġphy llis","r oss","Ġim ag","Ġcut e","Ġcap ital","l ine","u el","Ġs at","Ġc aus","Ġbe ha","Ġrest ing","Ġa ut","re m","Ġst ret","Ġwr iting","m in","Ġt ask","Ġhe alth","Ġr ing","Ġst re","ad a","Ġcon text","Ġthr ow","Ġrighteous ness","c ing","i el","u x","al y","Ġh ol","Ġsu gg","r at","r ol","Ġm m","Ġm ale","Ġyour s","Ġlo st","Ġap artment","Ġprogram ming","Ġgra nd","Ġpa rent","Ġinv ol","Ġcomple x","Ġsugg est","Ġm ist","Ġp ur","Ġp ound","Ġmet ho","Ġpres ident","Ġprophe t","Ġstra ight","Ġgrou p","Ġnor th","a ur","Ġt ents","Ġfeel ing","Ġtot al","mo st","Ġmem ory","o f","Ð ´","Ġeng lish","Ġmount ain","Ġexam ple","g r","w here","Ġwe alth","Ġun ited","ll en","Ġchi ck","ang er","Ġchrist mas","Ġcust om","g es","Ġg ames","Ġe ither","Ġpr ice","Ġstan ley","Ġn a","Ġe gg","Ġup on","Ġfo ol","Ġrequ est","g est","Ġt all","Ġt reat","Ġi ce","Ġsu cc","Ġag o","Ġo w","Ġe ast","Ġj ose","im es","Ġv es","Ġover come","g or","h mm","Ġcr us","Ġsit u","Ġdepend s","Ġpha ra","Ġrespons ible","ha b","Ġof ten","Ġr ain","Ġre ward","ol ut","Ġen er","Ġtell ing","Ġplay ing","Ġthir ty","Ġb a","Ġpro ject","Ġco st","Ġsoft ware","Ġmanag er","Ġphara oh","m er","Ã ¶","Ġind ivid","Ġele ct","Ã³ n","Ġhus band","Ġjose ph","b re","ru ct","Ġsal vation","Ġdet erm","Ġlar ge","Ġde b","Ġint ell","Ġsm art","Ġn on","Ġsee ing","Ġmo on","Ġmi ke","\" ,","s s","Ġlike ly","Ġf ile","it er","is ions","ak es","Ġwor ry","Ġ1 2","iz ation","Ġhead s","Ġb al","Ġjos hua","Ġd uring","Ġli ves","Ġsomet imes","Ġcomple t","Ġcry ing","Ġlift ed","Ġm ill","Ġcon cept","ĠÐ ¸","Ġple asure","Ġapp les","Ġje ho","Ġves sel","x im","er v","Ġl oud","dddddddd dddddddd","cccccccc cccccccc","Ġret urn","Ġlev ites","Ġb ase","Ġz e","Ġrul er","Ġnet work","Ġc ase","Ġd ig","Ġdo ctor","Ġspe nd","Ġer in","Ġdaught ers","Ġme asure","if t","Ġcon vers","Ġask ing","Ġpop ular","Ġmult i","t hat","Ġpr ide","Ġmo ved","Ġmom ent","Ġhon our","Ġl unch","Ġfor ce","Ġheart s","Ġdise ase","Ġphilist ines","Ġindivid ual","n s","Ġa ud","ic an","Ġde v","Ġclot hing","Ġteac hing","Ġdoll ars","Ġj ack","Ġco vered","pl ay","ick s","ĠÐ º","Ġori gin","Ġintell ig","r ay","r ant","ÑĤ Ð¾","j oy","m y","ak ed","Ġsc ri","Ġcl oud","Ġask ed","t on","he y","Ġm aster","Ġb ow","Ġtr ad","Ġmonth s","Ġfix ed","Ġm ot","Ġc ult","Ġcom b","ust ing","ren ces","ous es","Ġen joy","it ely","Ġis s","Ġco lle","mm a","Ġcont rol","Ġcal cul","? \"","Ġj ap","Ġprop er","Ġdam n","Ġassist ant","Ġinclud ing","i ans","Ġ vers","Ġb reat","Ġpr act","Ġfl esh","Ġsor row","Ġpart ic","Ġstr ange","Ġac ross","hu h","h ouse","os op","Ġpart s","Ġprof ess","Ġto by","Ġdis g","Ġphil osop","Ġinterest ing","Ġmess age","er y","ut s","Ġfor ward","am ent","Ġst yle","Ġpr ot","Ġres pect","Ġrun ning","f or","Ġw it","ic ation","Ġhi g","Ġqu ant","Ġsc ott","Ġcomple te","Ġfact ors","Ġsucc ess","a pp","y e","Ġbe gin","Ġal one","itt en","Ġrep res","Ġabs olut","Ġger man","Ġwors hip","k et","Ġ &","Ġc ru","Ġp ort","Ġl in","Ġin f","Ġro ad","Ġcha llen","Ġweek s","Ġparent s","ad o","el t","lf riend","Ġey e","p or","s k","Ġc hat","Ġpl ant","Ġqu al","ber t","he ad","le t","Ġany body","Ġrec omm","Ġfight ing","Ġener gy","Ġb ill","Ġp s","Ġj ord","Ġare n","ra p","ry l","Ġman age","Ġar k","Ġcomplet ely","Ġknow s","fe rence","Ġam ount","!! !","Ġfeel ings","Ġhum ans","iver se","Ġpict ure","Ġbeha vi","Ġabsolut ely","\" ?","Ġor gan","Ġex pect","Ġ1 5","Ġ Ã","ent ial","ep ing","Ġstart ing","hem at","Ġrecomm end","Ġt ick","Ġe ff","Ġno body","Ġput ting","Ġro le","Ġmat hemat","by e","Ġl am","Ġbe h","se t","all ey","Ġne igh","Ġ1 00","Ġserious ly","Ġneigh b","n ey","Ġb ott","an a","Ġan aly","Ġse lf","Ġfl o","Ġhat ers","Ġbeh ind","f riend","Ġd ress","Ġd anger","Ġr od","Ġv ir","Ġar g","res sed","Ġmark et","c ent","d er","Ġs ad","Ġf ill","Ġh op","Ġim age","Ġres ult","Ġhappen s","Ġnam es","ã ģ","at ure","Ġh orn","Ġv alley","if fl","Ġbo ard","Ġdar ryl","Ġref ers","Ġjord an","Ġw est","Ġn orm","Ġr om","Ġeven ing","Ġide as","r t","Ġr iver","os p","Ġgl ass","Ġgir lfriend","p a","r odu","Ġp i","ot s","is hed","Ġun iverse","Ġc re","Ġp iz","Ġall ow","Ġye p","Ġdes k","Ġdefin itely","off ering","iffl in","im ate","ress ion","Ġprom ise","Ġjap an","w w","Ġa ction","Ġnot e","Ġgood s","Ġcons ider","Ġread ing","Ġdu nder","Ġcub its","Ġfool ish","p o","Ġe mma","Ġwe eping","Ġsist ers","Ġdri ve","Ġru le","Ġpub lic","Ġfavor ite","Ġs n","Ġal most","Ġal gor","Ġtw el","dd en","ĠÐ ´","Ġpri v","Ġhor se","c han","Ġb ur","an e","Ġ1 8","che n","Ð½ Ð¸","Ġwatch ing","do ing","Ġwear ing","Ġy ork","Ġc ri","at o","et y","am in","Ġfl ock","Ġmil k","Ġo cc","Ġl es","Ġe ph","ver age","Ġst ones","Ġans w","Ġtra vel","Ġchang ed","Ġfif ty","Ġdisg usting","Ġs ar","Ġd ude","ke nd","Ġr ic","ur s","if y","Ġtr uth","our ce","Ġlo se","Ġlo ose","Ġapp le","Ġjud ge","Ġsystem s","Ġlim it","Ġsitu ation","m ed","s ha","Ġg ay","Ġcom fort","Ġlo g","Ġal ong","Ġpo st","Ġah h","Ġcr oss","Ġsk in","Ġvi ol","m ar","o ve","Ġ ×","Ġu gh","Ġh ouses","Ġv ol","um ents","Ġje w","Ġpre gn","Ġbit ter","b ar","Ġl ab","pp ed","Ġjo e","av es","Ġcir c","Ġrepres ent","Ġs ir","Ġsc ient","ĠÐ ¾","Ġpar a","Ġdire ct","Ġintellig ence","! \"",") ,","p ort","Ã ±","Ġc and","Ġst ream","pl oy","Ġserv ice","Ġ3 0","Ġtrans l","Ġwalk ing","Ġgri ef","Ġf ict","et h","Ġco ld","Ðµ ÑĤ","Ġcomm and","Ġbir ds","c om","m b","Ġ *","Ġa ge","Ġe ur","un e","un t","Ġmo ab","Ġapp lic","Ġdri ving","l s","Ġr us","ac ed","Ġtra ining","Ġter rible","a ving","w ho","Ġm ir","Ġc ord","Ġd en","Ġg un","Ġpeop les","Ġben j","Ġchief s","a an","e c","Ġt ur","Ġs ick","hi e","Ġj av","Ġno pe","Ġstep s","Ġauthor ity","c ol","Ġa u","Ġa verage","Ġm ix","Ġha n","Ġse ll","Ġdec isions","Ġfall ing","Ġbath room","Ġalgor ith","s he","Ġp al","Ġu r","as ing","as es","be red","Ġro ll","Ġshould n","ro ll","Ġgirl s","Ġreg ular","Ġlaw s","Ġimag ine","k s","Ġso on","Ġsa ve","Ġsp ort","Ġspe ed","Ġthought s","Ġproble ms","Ġprophe ts","Ġlau gh","Ġproper ty","e ad","g ed","Ġtr ust","Ġeng ine","ðŁ ¤","Ġconvers ation","' .","Ġ Ã©","Ġwe e","Ġem ot","ek iah","Ġcho ose","ou b","Ġg ift","id ing","Ġuh h","Ġwr itten","Ġfo cus","Ġtalk ed","Ġkeep ing","Ġinst ead","a pe","Ġ ut","Ġp ress","Ġe ine","Ġput s","Ġtri p","Ġob vious","Ġlik es","Ġ ,","Ġg ent","Ġv an","Ġapp e","Ġfig ure","Ġstre et","rant on","Ġscri pt",". ï¿½","a iah","i res","s is","Ñ Ī","Ġb orn","Ġf ly","Ġe p","ra im","Ġpl us","Ġqu iet","Ġsc ranton","ail s","Ġsl ow","Ġtwel ve","c er","t es","Ġ Â","Ġm mm","Ġc u","Ġf an","Ġto ol","Ġl ady","hi cal","Ġst one","Ġyour selves","ak ing","Ġcont in","Ġmount ains","Ġsurp rise","Ġmetho d","Ġt ax","Ġs i","re ad","Ġf aster","Ġp or","Ġfe ast","Ġuh m","Ġim ages","Ñģ ÑĤ","Ġrul ers","Ġboy friend","Ġw ha","Ġre se","Ġli f","Ġsu s","Ġlet ters","red ith","ist s","Ġbr oke","Ġprom pt","Ġcaus ing","Ġpiz za","Ġc ong","ren ch","Ġz er","Ġnat ural","Ġstret ched","h t","h ow","Ġm ac","Ġme at","Ġbec om","Ġint rodu","Ġsc ience","Ġcomp et","Ġcho ice","Ġdoor way","Ġtou ch","Ġi ron","Ġb i","Ġl ad","it ch","Ġbe asts","ra ham","Ġcon side","Ġmo v","Ġ2 00","Ġlove d","Ġcall ing","de red","Ð¾Ð ²","Ġmodel s","Ġbran ch","b u","e red","m p","on se","est er","il ar","Ġover t","Ġho le","iv ity","Ġcreat ed","Ġgener ate","Ġexper t","Ġvar ious","Ġhur t",", \"","f er","Ġc ake","Ġd ust","or ies","Ġme redith","Ġab raham","Ġwork ed","cri pt","Ġter m","Ġeph raim","n ers","Ġp red","it ions","as se","Ġli br","Ġv ie","Ġint e","Ġar ms","Ġser ies","Ġbu dd","Ġbook s","Ġconside red","p ing","Ã §","Ġt v","ou n","ul ation","Ġro ot","ĠÐ ¼","Ġhelp s","Ġadd ition","Ġbenj amin","b ed","z er","Ù Ħ","Ġc ab","Ġme ant","Ġst at","Ġst ri","Ġcom pl","ri a","Ġgener al","air s","Ġamer ican","Ġopp os","Ġcru el","j or","Ġp ants","Ġj on","au lt","Ġke lly","Ġgr ass","Ġcut ting","Ġch ina","ific ial","-- -","Ġtri be","Ġvar i","Ġwee kend","b ack","i Ã³n","Ñ ħ","Ġr am","Ġli e","Ġcl os","Ġinst r","Ġimpro ve","1 0","s a","Ġt ong","Ġm ifflin","Ġf it","Ġl u","id ay","ri age","Ġbab ies","Ġvessel s","Ġwit ness","ðŁ¤ Ķ","i ot","i um","n am","y m","Ġi mm","ur ity","Ġex cept","Ġsha re","Ġbas ket","Ġcapt ain","c el","Ð ¹","an n","Ġfor ty","Ġse par","Ġgreat er","Ġbr ass","Ġact s","Ġfam ous","Ġpar k","Ġind e","Ġav ail","Ġchick en","Ġmov ies","d y","Ģ ðŁĴ","Ġs itting","Ġc y","Ġn ine","Ġj u","Ġst ick","Ġapp re","Ġsim ilar","Ġanim als","n ight","Ġ 0","Ġw id","ha r","Ġf rench","Ġp ush","Ġl ay","Ġn ap","ent ly","ur y","ast ic","Ġen c","Ġen v","Ġmar ry","Ġrel ax","Ġcur se","Ġart ificial","Ġtyp es","ðŁ¤Ķ ðŁ¤Ķ","o on","Ġd ance","Ġn ation","Ġli ved","Ġus ually","Ġneed ed","Ġhu ge","Ġleg s","Ġtre es","Ġdeterm ine","ĢðŁĴ ĢðŁĴ","Ġa ust","ha rd","Ġm al","Ġf und","Ġp as","Ġdo ors","Ġse ated","Ġv ine","ag ed","Ġbir d","Ġent ire","Ġpay ment","Ġnorm al","f ace","i ar","Ġt al","Ġthe ory","Ġf ant","le ct","Ġre le","Ġst ruct","Ġlo ves","us ion","Ġsc ore","Ġcolle ge","Ġpregn ant","Ġn aked","st e","Ġme as","im ent","ra se","Ġbo at","Ġresp onse","Ġref er","Ġdist rib","Ġsub ject","Ġchang es","Ġcapt ains","Ġox en","Ġmill ion","Ġappre ci","i or","w or","Ġ ï¿½","Ġa z","Ġs ens","Ġb an","Ġf ired","ac y","Ġor dered","um b","Ġho ok","Ġw ast","Ġb ank","Ġj our","Ġr is","Ġso cial","op s","Ġwhe ther","ol ution","Ġwor th","Ġev ent","Ġkeep s","land s","Ġtechn ology","Ġcrus hed","c ar","w ord","ll o","om s","Ġne g","Ġsh ot","Ġbr ought","Ġsha r","Ġsha king","Ġplay er","Ġsin s","Ġfield s","Ġdist ance","Ġid ent","Ġeur ope","g ar","Ġy um","Ġle aving","Ġfe ather","Ġsha ll","Ġem ily","Ġrest aur","Ġwind ows","Ġtech ni","Ġf ish","le ad","Ġcan aan","Ġsu ck","Ġsu dden","ard en","Ġje rem","Ġequ al","rop ri","Ġ Ø","Ġd ue","es ome","Ġli ps","Ġan n","Ġare a","Ġse qu","ant ic","Ġfr ank","Ġph ot","Ġbra in","t i","t ime","Ġw ound","ha z","Ġf ing","en ces","Ġbut t","Ġde ce","pt ion","Ġz ion","Ġem ploy","Ġ5 0","Ġgener ation","Ġter ms","Ġ20 1","Ġsign ific","Ġgent le","b el","g t","Ġit em","Ġj ok","te en","Ġer ror","Ġfin ally","Ġreas ons","Ġpol it","cus s","Ġstate ment","Ġperform ance","Ġconne ction","Ġscen e","i ents","Ġwor se","Ġact ing","Ġstr ate","Ġph rase","Ġexc ited","Ġsho es","Ġsand w","d a","o v","u ce","Ġhe z","Ġr ad","ac ing","Ġk ick","Ġcon c","Ġro bert","Ġchar act","Ġhon est","Ġquant um","Ġric hard","r ute","in y","Ġc art","Ġf elt","Ġme chan","ul ations","Ġun less","Ġus er","b l","g i","p es","he t","Ġd uck","Ġhe at","Ġh osp","Ġfr an","Ġout put","Ġfeel s","Ġcar ol","Ġdepend ing","Ġprison ers","Ġuni vers","Ġpound s","Ġoppos ite","Ġavail able","in ation","Ġb es","ver t","ho l","Ġse es","Ġstr ing","Ġexpl an","Ġinter view","Ġaw esome","Ġneighb our","p ot","ha h","Ġfr ance","Ġwor st","Ġche ese","Ġdis co","ens ive","Ġstand ard","Ġsong s","Ġsleep ing","Ġclot hes","Ġra ise","Ġcharact ers","he st","Ġfe m","Ġun e","ÑĤ ÑĮ","Ġwi ves","iet y","Ġdiv or","Ġanim al","Ġjerem iah","Ġhosp ital","o oh","Ġd as","Ġd ating","Ġf ur","Ġr ather","Ġk no","Ġse vent","is on","ab les","Ġpoint s","Ġext ra","ĠÐ¿ ÑĢ","Ġll m","ropri ate","u h","Ġwith in","ab ility","fe rences","Ġbl ow","Ġap olog","Ġhang ing","Ġce le","con om","Ġfeather s","b it","f ive","Ð ·","Ġ ÑĤ","Ġw and","Ġf ate","ce ll","Ġman asse","Ġco ll","Ġ2 5","Ġsec urity","Ġch uck","Ġopen ing","Ġcount ries","Ġfin ish","Ġmanasse h","he l","am m","Ġhand le","Ġdec ide","Ġes pe","Ġwind ow","Ġloc ated","Ġmanage ment","Ġalgorith m","r os","Ġt ar","Ġs en","Ġb ought","Ġc red","Ġp ow","or ing","Ġl as","Ġh ung","Ġne cess","Ġoff er","Ġnum bered","Ġegg s","Ġmulti ple","e ch","Ġ ì","er ial","Ġg ab","Ġto k","Ġin put","id a","id ence","Ġdo c","Ġoh hh","Ġde ar","Ġjo ab","Ġoff ic","Ġev ents","Ġop in","Ġass y","Ġatt ract","Ġind ust","Ġcor por","Ġplan et","Ġac cept","Ġrese arch","Ġcele br","Ġj ul","Ġv on","Ġlook ed","ist ic","Ġear li","ci ples","Ġtra in","Ã¼ r","Ġlibr ary","Ġrestaur ant","b an","u le","v al","Ġa head","Ġi ch","Ġb ing","Ġg ell","Ġin fl","Ġbe er","Ġ1 1","Ġflo or","Ġappreci ate","c ount","i ves","in o","Ġbe ast","Ġr and","Ġso ci","Ġmon key","Ġpret end","Ġtrouble d","Ġtyp ically","Ġcong rat","ester day","w r","Ġy esterday","Ġe h","Ġwe b","Ġwho ever","Ġte ach","Ġfe ed","Ġim ple","Ġcat tle","bo ard","Ġdevelop ment","0000 0000","Ġbehavi or","Ġsar ah","Ġobvious ly",". )","g s","Ġt u","Ġa hi","Ġs ource","Ġb od","Ġbe ar","le x","Ġk it","Ġre ce","ri s","ra id","ra ph","ĠÐ ±","ci ally","ors es","Ġstand s","Ġl ion","ul a","Ġbr o","Ġro bot","Ġaf raid","Ðµ Ð»","Ġhappen ing","Ġdis cuss","Ġmat erial","Ġexper ien","Ð°Ð º","Ġdrink ing","Ġpot ential","Ġappro xim","Ġpie ce","Ġconne ct","ij ah","i ven","j e","t w","u c","Ġi l","Ġn one","Ġhe b","st r","Ġwe ren","am et","Ġst ars","Ġ1 4","Ġsm oke","Ġper f","Ġfour th","Ġsk y","Ġdra w","Ġmist ake","Ġ #","Ġb on","Ġb ri","at han","Ġcom o","Ġpl at","if ied","Ġsweet ie","Ġsam uel","Ġincl ude","Ġproduct s","Ġimple ment","i od","i pp","Ġ --","Ġc ell","Ġl en","Ġof fe","Ġstart s","Ġbig ger","int s","Ġmet al","Ġtri ed","Ġfin an","Ġlar gest","Ġsch rute","Ġfem ale","p u","Ð ³","Ġe ating","Ġe conom","ic ient","Ġh om","ld a","ir on","Ġdec ided","Ġunderstand ing","Ġque en","Ġma jor","Ġrecord ed","Ġvie w","Ġtong ue","wor ld","Ġsignific ant","l ight","Ġt it","ar ia","Ġha l","Ġme l","Ġfr ame","Ġsa vi","Ġal ice","Ġthink s","Ġcl ub","Ġbl ind","ci ous","Ġac hie","Ġdi ed","Ġdel ight","Ġsho ot","Ġrequ ire","Ġdog s","Ġid iot","Ġgrow th","Ġpill ars","c r","Ġt un","Ġha m","Ġgr ace","Ðµ ÑĢ","Ġrel ated","Ġwi ld","Ġlight s","Ġwall s","Ġmis sed","o le","Ġ Ñ","nd on","Ġn u","Ġh orses","ver n","Ġcomp are","Ġarm ed","Ġprov ided","Ġequ ation","Ġkey s","Ġforg ot","ðŁĴ Ķ","Ġphys ical","Ġcop y","Ġpract ice","Ġgell er","p hi","Ġs ant","Ġg ar","Ġk a","Ġam mon","Ġle aves","Ġus ers","Ġplay ed","Ġplan e","Ġadd ress","who a","2 0","m l","Ġd ir","Ġhe av","as hi","Ġmar y","Ġspe ech","Ġel i","Ġgener ally","Ġben ef","Ġrep ort","Ġtem per","Ġbudd y","Ġshar p","b on","Ġi ll","Ġs ides","re es","ll a","Ġis a","is ha","Ġsa bb","il t","Ġv ision","Ġper iod","Ġstop ped","Ġresp ond","Ġwonder ful","Ġbreat h","Ġhig her","Ġchat bot","Ġenv iron","Ġhez ekiah","Ġkno ck","n el","r r","z en","Ġ Ù","Ġo bs","Ġg al","ar i","Ġbe at","Ġj ames","il ing","Ġus es","Ġ1 6","Ġz u","Ġacc ord","Ġacc ess","Ġcat ch","Ġplan ning","Ġval ues","ai led","ÃŃ a","Ġcustom er","o ver","s u","Ġt ough","Ġt ired","Ġf ault","Ġwe igh","id s","ic y","Ġh t","ri ages","Ġsa f","ul ous","ist er","Ġbr ight","Ġho lly","Ġem er","li ke","Ġprof it","lo ok","Ġincre ase","Ġjour ney","Ġcongrat ulations","ðŁĴĶ ðŁĴĶ","Ã ª","Ġ ess","Ġ Ñĩ","he n","Ġs hip","al ian","Ġgo vern","ver se","act ion","Ġem p","Ġinc red","cccccccccccccccc cccccccccccccccc","Ġcalcul ate","Ġprofess ional","Ġlad ies","Ġassy ria","Ġrand om","Ġisa ac","Ġsabb ath","t ain","u nder","ar io","Ġgr ad","Ġacc ur","Ġinst ruction","Ġdesign ed","Ġfamil iar","Ġincre ased","dddddddddddddddd dddddddddddddddd","Ġcirc um","Ġespe cially","5 0","c ra","o ld","Ġ ÑĢ","om b","Ġe dom","iz ing","ci a","Ġmar riage","ward s","Ġmark ed","Ġball s","Ġfil m","Ġ202 3","Ġpriv ate","Ġinstr uments","Ġsandw ich","iven ess","Ġsavi our","Ð ±","er a","Ġg as","st airs","Ġj a","Ġj ump","Ġre view","Ġqu it","Ġqu ite","ull y","Ġad ult","Ġdevelop ed","Ġcurrent ly","Ġrid dle","Ġuni que","Ġpartic ular","Ġjon athan","Ġneg ative","Ġcorpor ate","n om","Ġ q","Ġt aste","re st","Ġu lt","Ġr ange","Ġno vel","Ġse v","Ġde m","Ġex cell","og rap","Ðµ Ð½","Ġpre ferences","Ġprodu ce","Ġdesign s","Ġed ge","Ġappro ach","Ġlik ed","Ġaust ral","Ġwand ering","e ans","Ġm es","Ġd om","le ch","ic ate","pp y","Ġv ac","Ġshe ke","Ġsp r","Ġem bar","Ġend s","Ġbre ast","Ð¾Ð ¼","ines e","Ġamer ica","Ġrus s","Ġyum on","k t","Ġthe ore","Ġl at","Ġha ll","Ġre pe","am p","Ġne ck","Ġat e","Ġtr ick","per t","Ġcall s","Ġgr ound","Ġcho col","Ġtrans form","Ġvar iety","Ġlos s","Ġtick ets","Ġcred it","Ġoffe red","Ġaccord ing","g u","ar k","Ġit alian","ic ious","Ġgo al","Ġ1 3","Ġbu ll","Ġturn s","Ġinter net","Ġsign s","Ġheaven s","Ġinterest ed","Ġdiv ision","Ġmag ic","Ġps y","Ġpred ict","g a","l ie","n on","Ġm it","Ġd y","Ġlo ck","ter y","Ġbo o","Ġaf fect","Ġdr unk","Ġchar ge","Ġsend ing","Ġpower ful","tern al","Ġaut om","Ġqual ity","Ġsevent h","Ġbod ies","1 1","r om","Ä į","nd s","Ġc ow","Ġf aces","at ic","ic ated","th ough","Ġte le","Ġgu est","Ġbu ck","Ġpri me","Ġfin al","Ġeffect ive","Ġtask s","Ġaud ition","Ġorigin al","Ġtrad ition","Ġlif ting","Ġdece it","Ġearli er","Ġkit chen","k i","Ġw are","Ġp an","at t","Ġwe ather","Ġno ise","Ġse as","Ġlo ndon","Ġwr ote","Ġcont ain","Ġpre p","Ġcal m","ich t","Ġpos itive","Ġpass ion","Ġfre ak","Ġvis it","gi ving","Ġenviron ment","Ġexcell ent","Ġware house",". &","i us","Ġb ud","Ġp us","Ġit self","Ġk o","Ġup set","il ities","Ġal though","Ġcon ference","Ġgi lead","Ġpo ol","rent ly","Ġcr ack","Ġch inese","Ġsk ill","Ġexam ples","Ġfore ver","Ġfund ament","Ġsant a","c an","i i","j o","n ed","Ġ :","Ġs an","Ġs now","Ġf ail","at ures","as cript","ers on","qu es","Ġgreat est","Ġstart up","do ers","Ġ` `","Ġsur v","Ġba al","Ġvers ion","Ġmathemat ical","Ġtransl ate","3 0","e x","p hat","Ã ¨","Ġb ones","Ġb unch","er ve","Ġto wer","an ces","id ge","Ġr ace","Ġr ide","Ġab ove","ak er","Ġtw ice","Ġbr own","Ġro be","Ġro bes","Ġgra b","Ġsw im","Ġprocess ing","Ġtent h","Ġexp ress","Ġfill ed","Ġfict ional","Ġmix ed","Ġfinan cial","a f","c her","Ġt ag","Ġt iny","Ġp our","Ġye llow","Ġde g","pp er","Ġpl ans","Ġfe e","Ñģ Ðº","Ġgener ations","Ġsecond s","Ġinter n","Ġjan ice","Ġsam aria","Ġdirection s","Ġdev ice","Ġallow ed","Ġapplic ation","Ġgab e","l ar","Ġm ention","Ġdo in","Ġso ld","ore d","Ġsh ower","Ġcl ients","ap h","Ġopt im","Ġobject s","Ġcover ing","Ġphys ics","Ġinvol ves","Ġjav ascript","Ġsequ ence","f ast","k a","× Ļ","Ġw ing","Ġo u","ic o","ac iÃ³n","Ġk il","Ġro y","Ġsc ared","Ġpo em","Ġacc ident","Ġchang ing","zz ar","Ġbran ches","Ġconst ant","Ġhorn s","ĠÂ ¿","' ,","Ã £","Ġw et","Ġp ity","Ġin ner","al u","Ġr ub","Ġne ural","Ġlo cal","our ces","Ġbu cks","Ġold er","Ġwar m","Ġgra v","Ġpop ulation","Ġeas ier","Ġbed room","Ġwonder ing","Ġflow ing","ĠÃ ł","Ġapproxim ately","tw o","cra ft","Ġchocol ate","b ut","c a","g al","Ù Ĩ","Ġs ally","in ary","Ġr ac","Ġsu it","Ġv ary","Ġsh h"]}}