{"version":"1.0","truncation":null,"padding":null,"added_tokens":[{"id":0,"content":"<PAD>","single_word":false,"lstrip":false,"rstrip":false,"normalized":false,"special":true},{"id":1,"content":"<BOS>","single_word":false,"lstrip":false,"rstrip":false,"normalized":false,"special":true},{"id":2,"content":"<EOS>","single_word":false,"lstrip":false,"rstrip":false,"normalized":false,"special":true},{"id":3,"content":"<UNK>","single_word":false,"lstrip":false,"rstrip":false,"normalized":false,"special":true},{"id":4,"content":"{","single_word":false,"lstrip":false,"rstrip":false,"normalized":false,"special":true},{"id":5,"content":"}","single_word":false,"lstrip":false,"rstrip":false,"normalized":false,"special":true},{"id":6,"content":"[","single_word":false,"lstrip":false,"rstrip":false,"normalized":false,"special":true},{"id":7,"content":"]","single_word":false,"lstrip":false,"rstrip":false,"normalized":false,"special":true},{"id":8,"content":":","single_word":false,"lstrip":false,"rstrip":false,"normalized":false,"special":true},{"id":9,"content":",","single_word":false,"lstrip":false,"rstrip":false,"normalized":false,"special":true},{"id":10,"content":"\"","single_word":false,"lstrip":false,"rstrip":false,"normalized":false,"special":true},{"id":11,"content":"\n","single_word":false,"lstrip":false,"rstrip":false,"normalized":false,"special":true}],"normalizer":{"type":"Sequence","normalizers":[{"type":"NFC"},{"type":"Lowercase"}]},"pre_tokenizer":{"type":"ByteLevel","add_prefix_space":true,"trim_offsets":true,"use_regex":true},"post_processor":{"type":"TemplateProcessing","single":[{"SpecialToken":{"id":"<BOS>","type_id":0}},{"Sequence":{"id":"A","type_id":0}},{"SpecialToken":{"id":"<EOS>","type_id":0}}],"pair":[{"SpecialToken":{"id":"<BOS>","type_id":0}},{"Sequence":{"id":"A","type_id":0}},{"SpecialToken":{"id":"<EOS>","type_id":0}},{"Sequence":{"id":"B","type_id":1}},{"SpecialToken":{"id":"<EOS>","type_id":1}}],"special_tokens":{"<BOS>":{"id":"<BOS>","ids":[1],"tokens":["<BOS>"]},"<EOS>":{"id":"<EOS>","ids":[2],"tokens":["<EOS>"]}}},"decoder":{"type":"ByteLevel","add_prefix_space":true,"trim_offsets":true,"use_regex":true},"model":{"type":"BPE","dropout":null,"unk_token":null,"continuing_subword_prefix":null,"end_of_word_suffix":null,"fuse_unk":false,"byte_fallback":false,"ignore_merges":false,"vocab":{"<PAD>":0,"<BOS>":1,"<EOS>":2,"<UNK>":3,"{":4,"}":5,"[":6,"]":7,":":8,",":9,"\"":10,"\n":11,"!":12,"'":13,"(":14,")":15,"-":16,".":17,"/":18,";":19,"?":20,"_":21,"a":22,"b":23,"c":24,"d":25,"e":26,"f":27,"g":28,"h":29,"i":30,"j":31,"k":32,"l":33,"m":34,"n":35,"o":36,"p":37,"q":38,"r":39,"s":40,"t":41,"u":42,"v":43,"w":44,"x":45,"y":46,"z":47,"â":48,"Ċ":49,"Ġ":50,"Ģ":51,"Ķ":52,"Ļ":53,"ľ":54,"Ŀ":55,"Ġt":56,"Ġa":57,"Ġi":58,"he":59,"Ġw":60,"in":61,"Ġs":62,"re":63,"at":64,"Ġo":65,"Ġthe":66,"es":67,"Ġp":68,"ing":69,"Ġis":70,"Ġm":71,"Ġf":72,"er":73,"Ġb":74,"Ġc":75,"ou":76,"Ġd":77,"an":78,"Ġto":79,"on":80,"or":81,"le":82,"hat":83,"nd":84,"Ġg":85,"Ġy":86,"Ġh":87,"en":88,"om":89,"Ġl":90,"ar":91,"Ġe":92,"Ġwhat":93,"Ġand":94,"Ġyou":95,"Ġn":96,"th":97,"ll":98,"ve":99,"st":100,"Ġof":101,"Ġin":102,"Ġbe":103,"od":104,"Ġit":105,"se":106,"Ġdo":107,"ct":108,"ow":109,"Ġre":110,"ot":111,"Ġth":112,"ion":113,"ed":114,"ay":115,"ce":116,"op":117,"al":118,"Ġwi":119,"Ġu":120,"Ġpr":121,"Ġfor":122,"Ġhe":123,"ome":124,"Ġthat":125,"Ġha":126,"Ġli":127,"ver":128,"Ġpe":129,"Ġon":130,"ke":131,"Ġare":132,"me":133,"ople":134,"Ġpeople":135,"ri":136,"Ġwor":137,"ent":138,"Ġme":139,"Ġsome":140,"Ġan":141,"gh":142,"ld":143,"ur":144,"ut":145,"Ġst":146,"ess":147,"ly":148,"her":149,"Ġgo":150,"Ġnot":151,"et":152,"Ġwh":153,"ant":154,"ic":155,"thing":156,"ad":157,"Ġmo":158,"is":159,"Ġso":160,"id":161,"Ġcan":162,"Ġwhe":163,"us":164,"ght":165,"it":166,"as":167,"Ġor":168,"ch":169,"ra":170,"Ġthey":171,"Ġpro":172,"ble":173,"Ġk":174,"Ġgod":175,"Ġmean":176,"ul":177,"ind":178,"Ġyour":179,"ee":180,"Ġex":181,"ers":182,"Ġlo":183,"ge":184,"Ġsh":185,"Ġne":186,"Ġsomething":187,"pp":188,"Ġall":189,"ings":190,"ir":191,"um":192,"Ġwith":193,"ect":194,"Ġpl":195,"Ġwhen":196,"Ġle":197,"reat":198,"Ġde":199,"Ġdi":200,"Ġti":201,"Ġsu":202,"Ġch":203,"Ġga":204,"Ġgood":205,"ak":206,"ff":207,"ard":208,"all":209,"res":210,"ru":211,"Ġsp":212,"mp":213,"Ġev":214,"Ġwill":215,"Ġwork":216,"ive":217,"Ġcom":218,"Ġwho":219,"art":220,"rom":221,"Ġwant":222,"Ġtime":223,"Ġfrom":224,"Ġdoes":225,"Ġbut":226,"Ġcon":227,"one":228,"Ġat":229,"ation":230,"ould":231,"Ġlike":232,"ace":233,"Ġj":234,"Ġhave":235,"il":236,"im":237,"ther":238,"Ġhapp":239,"Ġdes":240,"ps":241,"ves":242,"Ġun":243,"very":244,"ake":245,"Ġfa":246,"Ġone":247,"Ġtru":248,"Ġcreat":249,"Ġother":250,"Ġthem":251,"Ġfee":252,"Ġfeel":253,"now":254,"ving":255,"ren":256,"ort":257,"Ġwe":258,"Ġhel":259,"ter":260,"ain":261,"ck":262,"ful":263,"Ġtheir":264,"and":265,"Ġknow":266,"Ġmy":267,"ate":268,"Ġthings":269,"Ġca":270,"ea":271,"end":272,"qu":273,"Ġour":274,"ction":275,"ide":276,"li":277,"Ġen":278,"Ġyes":279,"Ġno":280,"Ġmeans":281,"Ġas":282,"Ġal":283,"Ġimp":284,"out":285,"Ġhard":286,"Ġlove":287,"ig":288,"Ġv":289,"Ġfo":290,"arn":291,"Ġmore":292,"Ġhappen":293,"'s":294,"ro":295,"est":296,"Ġword":297,"Ġexp":298,"Ġab":299,"Ġam":300,"Ġpo":301,"Ġhow":302,"ist":303,"ject":304,"ose":305,"Ġman":306,"Ġhis":307,"Ġus":308,"Ġothers":309,"ment":310,"ure":311,"use":312,"Ġby":313,"Ġgr":314,"Ġdiff":315,"Ġcomp":316,"mes":317,"Ġid":318,"Ġif":319,"Ġpers":320,"nder":321,"ies":322,"ust":323,"Ġyum":324,"Ġgame":325,"Ġyumon":326,"way":327,"Ġbo":328,"Ġbu":329,"ong":330,"ild":331,"Ġri":332,"ink":333,"led":334,"Ġlearn":335,"Ġmany":336,"Ġob":337,"Ġunder":338,"ack":339,"ight":340,"un":341,"cess":342,"eed":343,"ather":344,"odu":345,"Ġkind":346,"Ġunderst":347,"able":348,"Ġway":349,"Ġsa":350,"Ġthere":351,"Ġperson":352,"Ġunderstand":353,"ok":354,"Ġtra":355,"Ġmake":356,"ound":357,"orm":358,"Ġear":359,"Ġthink":360,"Ġsol":361,"ity":362,"ult":363,"Ġshould":364,"ep":365,"Ġmak":366,"Ġgames":367,"'t":368,"form":369,"ore":370,"âĢ":371,"Ġover":372,"ence":373,"Ġbec":374,"Ġwhy":375,"Ġneed":376,"Ġabout":377,"iv":378,"vel":379,"Ġbet":380,"Ġres":381,"Ġread":382,"Ġprodu":383,"verse":384,"Ġwhere":385,"Ġsuc":386,"Ġtrue":387,"wn":388,"Ġvery":389,"Ġsm":390,"Ġevery":391,"Ġint":392,"Ġthan":393,"Ġany":394,"Ġproble":395,"Ġplay":396,"Ġhelp":397,"Ġproblem":398,"eren":399,"iness":400,"esus":401,"Ġhum":402,"Ġhim":403,"Ġthose":404,"Ġhas":405,"Ġprog":406,"ress":407,"Ġjesus":408,"Ġdifferen":409,"ast":410,"ci":411,"cri":412,"Ġse":413,"Ġmind":414,"Ġco":415,"ang":416,"Ġgive":417,"Ġlif":418,"Ġplan":419,"ortant":420,"Ġimportant":421,"act":422,"ness":423,"ward":424,"Ġper":425,"Ġfather":426,"Ġtoo":427,"Ġthing":428,"Ġup":429,"Ġbuild":430,"Ġind":431,"Ġsee":432,"Ġonly":433,"Ġstart":434,"Ġnew":435,"Ġdescri":436,"Ġright":437,"Ġobject":438,"iverse":439,"ue":440,"ull":441,"Ġinform":442,"sel":443,"als":444,"urn":445,"Ġeven":446,"Ġuniverse":447,"Ġhelps":448,"ign":449,"Ġearth":450,"Ġlife":451,"Ġinformation":452,"ach":453,"Ġqu":454,"Ġtea":455,"Ġmat":456,"Ġdon":457,"ions":458,"Ġsomeone":459,"Ġspace":460,"Ġevil":461,"lie":462,"gy":463,"ss":464,"ty":465,"Ġwas":466,"Ġwould":467,"Ġout":468,"Ġfind":469,"ous":470,"Ġyet":471,"Ġreal":472,"Ġuse":473,"Ġforg":474,"Ġbook":475,"Ġdescrib":476,"ire":477,"Ġwin":478,"Ġfri":479,"Ġget":480,"Ġwords":481,"Ġdifferent":482,"ause":483,"ice":484,"Ġr":485,"Ġbus":486,"lex":487,"Ġeff":488,"Ġbef":489,"ally":490,"ends":491,"Ġalway":492,"Ġsuccess":493,"Ġsmall":494,"Ġinto":495,"Ġbusiness":496,"Ġalways":497,"age":498,"Ġke":499,"Ġag":500,"Ġwat":501,"Ġgreat":502,"Ġeas":503,"Ġpray":504,"Ġgrow":505,"Ġidea":506,"ledge":507,"Ġbecause":508,"Ġproduct":509,"are":510,"we":511,"ergy":512,"Ġlight":513,"Ġmost":514,"Ġdec":515,"Ġjust":516,"Ġenergy":517,"Ġhappens":518,"Ġmakes":519,"Ġindeed":520,"Ġbefore":521,"less":522,"Ġpart":523,"Ġmay":524,"Ġla":525,"Ġthou":526,"ade":527,"Ġcons":528,"Ġknowledge":529,"ces":530,"em":531,"get":532,"ill":533,"ible":534,"sh":535,"Ġtake":536,"Ġsl":537,"Ġown":538,"ows":539,"ower":540,"otion":541,"Ġworld":542,"Ġmov":543,"ass":544,"Ġplace":545,"Ġlead":546,"Ġdist":547,"âĢĻ":548,"Ġhuman":549,"ry":550,"ts":551,"ten":552,"uch":553,"Ġsi":554,"Ġthen":555,"Ġmuch":556,"Ġday":557,"Ġgi":558,"Ġlong":559,"Ġbeing":560,"Ġbelie":561,"Ġexist":562,"Ġcho":563,"Ġfast":564,"Ġsame":565,"ith":566,"ning":567,"pe":568,"Ġalex":569,"Ġmom":570,"Ġmade":571,"Ġfe":572,"Ġrequ":573,"ents":574,"Ġwhic":575,"ish":576,"Ġsure":577,"Ġchang":578,"Ġspe":579,"Ġtravel":580,"Ġresult":581,"Ġprogress":582,"Ġstartu":583,"Ġbooks":584,"Ġkeep":585,"Ġthought":586,"Ġwhich":587,"ie":588,"lo":589,"oy":590,"Ġte":591,"Ġaf":592,"hes":593,"Ġsound":594,"ree":595,"Ġmus":596,"Ġfun":597,"our":598,"ars":599,"Ġinst":600,"Ġmove":601,"Ġprov":602,"Ġcomm":603,"Ġatt":604,"Ġdesign":605,"Ġcreator":606,"Ġval":607,"Ġfoc":608,"Ġbetter":609,"Ġreading":610,"Ġeffort":611,"Ġmusic":612,"les":613,"pt":614,"ud":615,"Ġaway":616,"Ġsin":617,"Ġsur":618,"Ġset":619,"Ġpower":620,"ough":621,"Ġdis":622,"Ġnow":623,"Ġoften":624,"Ġits":625,"Ġanim":626,"ick":627,"Ġshall":628,"Ġconf":629,"Ġfaith":630,"Ġcreate":631,"Ġcreated":632,"Ġfood":633,"Ġlearning":634,"Ġseek":635,"self":636,"Ġdescribe":637,"Ġmovies":638,"Ġtak":639,"Ġturn":640,"Ġaction":641,"ine":642,"Ġmone":643,"Ġcome":644,"ance":645,"Ġtoget":646,"ory":647,"len":648,"Ġlar":649,"Ġthis":650,"Ġheart":651,"Ġimpro":652,"Ġkinds":653,"Ġbetwe":654,"Ġeverything":655,"Ġteach":656,"Ġhumans":657,"Ġmoney":658,"Ġtogether":659,"Ġbetween":660,"eas":661,"ures":662,"Ġro":663,"Ġact":664,"Ġapp":665,"Ġsay":666,"red":667,"Ġop":668,"Ġfull":669,"Ġbig":670,"Ġeach":671,"ode":672,"Ġgoal":673,"Ġtruth":674,"Ġposs":675,"Ġideas":676,"Ġboth":677,"Ġplanet":678,"Ġfocus":679,"ile":680,"ls":681,"ms":682,"rong":683,"Ġac":684,"Ġsy":685,"Ġback":686,"ange":687,"Ġho":688,"Ġhop":689,"ark":690,"Ġend":691,"other":692,"Ġwis":693,"Ġpeace":694,"Ġwithout":695,"Ġatom":696,"Ġfeelings":697,"Ġexpl":698,"Ġexpect":699,"Ġcomput":700,"Ġsolve":701,"Ġmoment":702,"ase":703,"dom":704,"ead":705,"ha":706,"ip":707,"ise":708,"ience":709,"tle":710,"ually":711,"Ġser":712,"rect":713,"Ġcode":714,"ens":715,"ody":716,"Ġreward":717,"Ġstay":718,"Ġstren":719,"icult":720,"uses":721,"ram":722,"Ġprocess":723,"Ġworking":724,"Ġfail":725,"Ġfeeling":726,"Ġcare":727,"Ġdifficult":728,"iven":729,"Ġproblems":730,"Ġobjects":731,"Ġagain":732,"Ġeasi":733,"Ġspeak":734,"Ġvalue":735,"Ġlarge":736,"Ġopen":737,"Ġstreng":738,"back":739,"cur":740,"ger":741,"nect":742,"sing":743,"ting":744,"tain":745,"zing":746,"Ġsk":747,"Ġple":748,"Ġpres":749,"Ġpain":750,"Ġfree":751,"Ġbr":752,"Ġcl":753,"Ġcar":754,"Ġcal":755,"Ġcall":756,"Ġtoward":757,"Ġgu":758,"Ġhon":759,"Ġem":760,"Ġeat":761,"stem":762,"Ġdown":763,"Ġheal":764,"Ġlist":765,"ition":766,"Ġproject":767,"Ġlet":768,"Ġdep":769,"Ġdeed":770,"mple":771,"Ġcomes":772,"Ġconnect":773,"Ġcause":774,"Ġask":775,"Ġusers":776,"Ġmaking":777,"Ġprogram":778,"Ġfriends":779,"Ġwater":780,"Ġafter":781,"Ġanimals":782,"Ġsystem":783,"ag":784,"ches":785,"igh":786,"ires":787,"joy":788,"mb":789,"rough":790,"xt":791,"Ġtas":792,"Ġpast":793,"Ġmess":794,"Ġfin":795,"Ġfut":796,"Ġfir":797,"Ġdark":798,"ond":799,"Ġhigh":800,"Ġlow":801,"Ġnight":802,"Ġinter":803,"Ġrem":804,"Ġthrough":805,"cept":806,"Ġliving":807,"Ġanother":808,"rain":809,"Ġshare":810,"Ġnever":811,"Ġnext":812,"Ġchange":813,"Ġthemsel":814,"Ġcauses":815,"ideo":816,"Ġenjoy":817,"Ġvideo":818,"Ġbuilding":819,"Ġfriend":820,"Ġchanges":821,"Ġthoughts":822,"Ġimprove":823,"Ġpossible":824,"Ġatoms":825,"Ġeasier":826,"Ġtask":827,"Ġfuture":828,"Ġfirst":829,"Ġthemselves":830,"co":831,"cle":832,"lf":833,"not":834,"pl":835,"so":836,"side":837,"vo":838,"Ġsad":839,"ath":840,"Ġpun":841,"Ġmust":842,"Ġcor":843,"Ġcour":844,"oud":845,"ons":846,"ceed":847,"Ġwhile":848,"ices":849,"Ġcannot":850,"Ġexact":851,"Ġshow":852,"Ġchild":853,"Ġhappy":854,"Ġtrust":855,"Ġfoll":856,"Ġpoor":857,"âĢĶ":858,"Ġresp":859,"Ġhumble":860,"Ġself":861,"Ġeasy":862,"Ġslow":863,"Ġstartup":864,"Ġtell":865,"Ġexplain":866,"Ġstrength":867,"Ġemotion":868,"Ġdeeds":869,"Ġcourse":870,"Ġexactly":871,"ming":872,"ner":873,"os":874,"te":875,"turn":876,"ttle":877,"ze":878,"Ġad":879,"Ġar":880,"Ġwri":881,"int":882,"Ġsign":883,"rection":884,"ated":885,"Ġput":886,"Ġpull":887,"Ġpass":888,"Ġmor":889,"Ġmight":890,"Ġfi":891,"Ġfar":892,"Ġfeed":893,"Ġdet":894,"Ġele":895,"Ġbeen":896,"Ġrep":897,"Ġrev":898,"Ġreturn":899,"allen":900,"Ġpract":901,"Ġforce":902,"Ġlittle":903,"Ġonce":904,"ention":905,"Ġmem":906,"Ġstate":907,"Ġgoing":908,"ics":909,"Ġmoves":910,"Ġmoving":911,"iding":912,"ite":913,"Ġallows":914,"umb":915,"Ġwithin":916,"Ġsun":917,"Ġchallen":918,"Ġevents":919,"Ġfact":920,"Ġwere":921,"Ġknowing":922,"Ġnothing":923,"Ġalso":924,"Ġexper":925,"Ġama":926,"Ġusually":927,"Ġunderstanding":928,"Ġbecome":929,"Ġsucceed":930,"Ġquick":931,"Ġmatter":932,"Ġwatch":933,"Ġbelief":934,"Ġfaster":935,"Ġrequire":936,"Ġwisdom":937,"Ġcomputer":938,"Ġpunish":939,"Ġchildren":940,"av":941,"ave":942,"body":943,"de":944,"eps":945,"eous":946,"fic":947,"iving":948,"la":949,"tim":950,"ual":951,"Ġtri":952,"ines":953,"Ġsci":954,"Ġmot":955,"Ġmotion":956,"ertain":957,"Ġcould":958,"Ġdid":959,"Ġdone":960,"Ġtop":961,"Ġlot":962,"thy":963,"Ġreach":964,"Ġwide":965,"vers":966,"usion":967,"Ġyourself":968,"Ġdirection":969,"Ġfeels":970,"ands":971,"used":972,"Ġgrou":973,"Ġways":974,"Ġsave":975,"Ġanything":976,"Ġperha":977,"Ġrighteous":978,"Ġmath":979,"Ġforgive":980,"ship":981,"Ġleads":982,"Ġsimple":983,"Ġrequires":984,"Ġresults":985,"Ġstartups":986,"Ġsounds":987,"Ġprovide":988,"Ġattention":989,"Ġsurv":990,"Ġtakes":991,"Ġhope":992,"Ġcalled":993,"mber":994,"Ġcorrect":995,"Ġpractice":996,"Ġquickly":997,"Ġmotiv":998,"Ġperhaps":999,"cy":1000,"ccur":1001,"ft":1002,"git":1003,"ior":1004,"ove":1005,"ters":1006,"wo":1007,"whe":1008,"ys":1009,"Ġtest":1010,"Ġtry":1011,"Ġtwo":1012,"Ġai":1013,"Ġim":1014,"hed":1015,"Ġwa":1016,"Ġwrong":1017,"Ġsick":1018,"Ġoh":1019,"Ġoccur":1020,"Ġpre":1021,"Ġmer":1022,"Ġbre":1023,"Ġbest":1024,"Ġce":1025,"Ġcust":1026,"oun":1027,"Ġgen":1028,"Ġearn":1029,"Ġnon":1030,"Ġdoing":1031,"Ġreme":1032,"Ġhad":1033,"Ġlie":1034,"Ġsometim":1035,"Ġanger":1036,"urd":1037,"Ġstars":1038,"antly":1039,"Ġking":1040,"Ġmeaning":1041,"Ġloves":1042,"Ġallow":1043,"Ġdeli":1044,"Ġdevel":1045,"Ġtimes":1046,"Ġsub":1047,"Ġspend":1048,"Ġevent":1049,"Ġcont":1050,"Ġweak":1051,"ctions":1052,"Ġsmart":1053,"Ġperf":1054,"Ġquest":1055,"Ġdescribes":1056,"Ġprayer":1057,"Ġgrowth":1058,"Ġlaw":1059,"Ġgives":1060,"Ġcommon":1061,"Ġpeaceful":1062,"Ġexpected":1063,"Ġserv":1064,"Ġlisten":1065,"Ġdepends":1066,"Ġintern":1067,"Ġtasks":1068,"Ġfollow":1069,"Ġfeedback":1070,"Ġamazing":1071,"Ġtopics":1072,"Ġcustom":1073,"Ġremember":1074,"Ġsometimes":1075,"Ġdevelop":1076,"'m":1077,"ab":1078,"am":1079,"bit":1080,"ca":1081,"day":1082,"ear":1083,"ears":1084,"fi":1085,"ges":1086,"gan":1087,"ict":1088,"lse":1089,"sw":1090,"ser":1091,"ume":1092,"Ġent":1093,"Ġru":1094,"ĠâĢĶ":1095,"Ġari":1096,"Ġach":1097,"Ġill":1098,"Ġsing":1099,"Ġsent":1100,"ates":1101,"Ġpat":1102,"Ġpus":1103,"Ġmis":1104,"Ġmass":1105,"erate":1106,"Ġbor":1107,"Ġbri":1108,"Ġbad":1109,"Ġbrain":1110,"Ġcertain":1111,"ord":1112,"ors":1113,"Ġgl":1114,"Ġgiven":1115,"ense":1116,"Ġless":1117,"Ġelse":1118,"Ġnumb":1119,"Ġrest":1120,"Ġwish":1121,"Ġheav":1122,"Ġlive":1123,"entist":1124,"Ġansw":1125,"urt":1126,"ution":1127,"Ġstop":1128,"Ġstep":1129,"Ġstrong":1130,"Ġstead":1131,"etition":1132,"ants":1133,"iting":1134,"ities":1135,"Ġexc":1136,"Ġlose":1137,"Ġloving":1138,"Ġlook":1139,"Ġneg":1140,"Ġlevel":1141,"Ġdigit":1142,"Ġchar":1143,"Ġjoy":1144,"Ġhappiness":1145,"Ġpos":1146,"ments":1147,"Ġsolving":1148,"Ġeveryone":1149,"Ġdifference":1150,"Ġmindful":1151,"Ġcost":1152,"Ġmatters":1153,"Ġused":1154,"Ġuseful":1155,"Ġforgiven":1156,"Ġwinning":1157,"Ġrather":1158,"Ġsmaller":1159,"Ġgreater":1160,"Ġdecis":1161,"Ġdistance":1162,"Ġsize":1163,"Ġgiving":1164,"Ġchoices":1165,"Ġchanging":1166,"ieve":1167,"Ġinstead":1168,"Ġteaching":1169,"Ġplanets":1170,"Ġskill":1171,"Ġplease":1172,"Ġpresent":1173,"Ġhonor":1174,"Ġprojects":1175,"Ġprogramming":1176,"Ġmessage":1177,"Ġfinish":1178,"Ġfix":1179,"Ġmemory":1180,"Ġexperience":1181,"Ġpunishment":1182,"Ġscientist":1183,"Ġgroup":1184,"Ġmotivation":1185,"Ġbreak":1186,"Ġachieve":1187,"Ġsingle":1188,"Ġbright":1189,"Ġdigital":1190,"'re":1191,"ac":1192,"action":1193,"br":1194,"bt":1195,"bot":1196,"ever":1197,"gin":1198,"ips":1199,"lle":1200,"med":1201,"pable":1202,"sure":1203,"spe":1204,"vity":1205,"vior":1206,"ware":1207,"Ġ\"":1208,"Ġes":1209,"Ġair":1210,"reed":1211,"ating":1212,"ater":1213,"ative":1214,"Ġthese":1215,"Ġpen":1216,"Ġpur":1217,"Ġpress":1218,"Ġmast":1219,"Ġfl":1220,"Ġfit":1221,"Ġfire":1222,"erm":1223,"ering":1224,"Ġbless":1225,"Ġbla":1226,"Ġburd":1227,"Ġclo":1228,"ouse":1229,"oubt":1230,"Ġdir":1231,"Ġtoday":1232,"ories":1233,"lebr":1234,"Ġgra":1235,"Ġyears":1236,"Ġhouse":1237,"Ġlack":1238,"Ġlater":1239,"aring":1240,"Ġemp":1241,"Ġinv":1242,"Ġinside":1243,"Ġinner":1244,"Ġbeh":1245,"Ġreli":1246,"Ġrelie":1247,"Ġrepe":1248,"Ġpride":1249,"verty":1250,"Ġsteps":1251,"Ġgospe":1252,"ical":1253,"ides":1254,"ider":1255,"ract":1256,"raid":1257,"rage":1258,"ules":1259,"Ġloop":1260,"Ġshort":1261,"Ġshows":1262,"Ġdev":1263,"Ġgain":1264,"Ġgoodness":1265,"ffee":1266,"Ġspeed":1267,"Ġworks":1268,"Ġwants":1269,"ations":1270,"Ġjud":1271,"ility":1272,"Ġunt":1273,"ately":1274,"Ġnobody":1275,"Ġhappened":1276,"Ġexpress":1277,"Ġpoverty":1278,"Ġcomple":1279,"Ġcomplex":1280,"Ġobst":1281,"Ġthinking":1282,"Ġoverc":1283,"Ġneeds":1284,"Ġinte":1285,"Ġanyone":1286,"cific":1287,"Ġcoop":1288,"Ġcolle":1289,"Ġcoffee":1290,"Ġperform":1291,"Ġagreed":1292,"Ġconsider":1293,"illions":1294,"Ġbelieve":1295,"Ġfew":1296,"Ġspecific":1297,"Ġafraid":1298,"Ġinstantly":1299,"Ġconfused":1300,"Ġactions":1301,"Ġhearts":1302,"Ġrobot":1303,"Ġappro":1304,"Ġhole":1305,"Ġfailure":1306,"Ġdifficulty":1307,"Ġpleas":1308,"Ġcalls":1309,"Ġenjoyable":1310,"Ġwrite":1311,"Ġmorning":1312,"Ġsurvive":1313,"Ġmercy":1314,"Ġcelebr":1315,"Ġperfect":1316,"Ġpatience":1317,"Ġmassive":1318,"Ġpenal":1319,"Ġpurp":1320,"Ġmaster":1321,"Ġgravity":1322,"Ġgospel":1323,"'d":1324,"app":1325,"by":1326,"cre":1327,"fit":1328,"ging":1329,"gul":1330,"gest":1331,"if":1332,"iz":1333,"ial":1334,"ious":1335,"ler":1336,"no":1337,"ol":1338,"oint":1339,"pr":1340,"rop":1341,"rons":1342,"the":1343,"uth":1344,"uri":1345,"wor":1346,"Ġhat":1347,"Ġta":1348,"Ġaw":1349,"Ġavo":1350,"Ġauth":1351,"Ġice":1352,"Ġsc":1353,"Ġsou":1354,"Ġside":1355,"Ġsep":1356,"ata":1357,"atures":1358,"Ġold":1359,"Ġopp":1360,"Ġpar":1361,"Ġpay":1362,"Ġpack":1363,"Ġmar":1364,"Ġmist":1365,"Ġmult":1366,"Ġfil":1367,"Ġfound":1368,"erous":1369,"Ġben":1370,"Ġcou":1371,"Ġcur":1372,"Ġcuri":1373,"Ġdra":1374,"Ġdang":1375,"Ġdoubt":1376,"Ġdata":1377,"ances":1378,"Ġhig":1379,"Ġnurt":1380,"lling":1381,"Ġinves":1382,"Ġinvo":1383,"Ġbegin":1384,"Ġrel":1385,"Ġreally":1386,"Ġregul":1387,"ceive":1388,"Ġwise":1389,"Ġprot":1390,"Ġprop":1391,"Ġpriv":1392,"Ġform":1393,"Ġheat":1394,"Ġhell":1395,"Ġlives":1396,"Ġliqu":1397,"ket":1398,"rist":1399,"Ġmech":1400,"Ġstill":1401,"Ġstud":1402,"Ġstory":1403,"Ġorgan":1404,"Ġext":1405,"Ġlost":1406,"Ġdirect":1407,"Ġsuff":1408,"Ġchrist":1409,"ilt":1410,"Ġdesp":1411,"Ġdest":1412,"Ġdesire":1413,"Ġtruly":1414,"rent":1415,"Ġwell":1416,"cked":1417,"Ġknows":1418,"Ġcame":1419,"Ġcapable":1420,"Ġenough":1421,"Ġalone":1422,"Ġvis":1423,"Ġpoint":1424,"Ġusing":1425,"Ġgrad":1426,"Ġcompan":1427,"Ġbuilt":1428,"oduct":1429,"Ġtraverse":1430,"Ġearly":1431,"Ġproduce":1432,"Ġproduces":1433,"Ġthank":1434,"Ġplayer":1435,"Ġplayers":1436,"Ġcold":1437,"Ġplans":1438,"Ġoutside":1439,"Ġfinding":1440,"Ġforgiving":1441,"Ġgets":1442,"Ġround":1443,"Ġrules":1444,"Ġeffect":1445,"Ġagree":1446,"Ġdecide":1447,"Ġlab":1448,"Ġlaun":1449,"Ġconsist":1450,"emn":1451,"Ġslave":1452,"Ġexists":1453,"Ġchoose":1454,"Ġchoice":1455,"Ġmoments":1456,"Ġfear":1457,"Ġsurely":1458,"Ġtemp":1459,"Ġinstru":1460,"Ġmovement":1461,"Ġsurf":1462,"Ġsetback":1463,"Ġdisco":1464,"Ġdisapp":1465,"Ġtaking":1466,"Ġhold":1467,"Ġcomputers":1468,"Ġsky":1469,"Ġbring":1470,"Ġbrings":1471,"Ġclose":1472,"Ġhonest":1473,"Ġremove":1474,"Ġsadness":1475,"Ġemotional":1476,"Ġadd":1477,"Ġaround":1478,"Ġpassage":1479,"Ġdeterm":1480,"Ġelect":1481,"Ġimag":1482,"Ġsubject":1483,"Ġquestions":1484,"fiction":1485,"Ġarise":1486,"Ġillusion":1487,"Ġpush":1488,"Ġnegative":1489,"Ġposition":1490,"Ġforgiveness":1491,"Ġblame":1492,"Ġbehind":1493,"Ġreliable":1494,"Ġpenalty":1495,"Ġpurpose":1496,"product":1497,"worthy":1498,"Ġhate":1499,"Ġauthor":1500,"Ġsepar":1501,"Ġoppos":1502,"Ġbene":1503,"Ġcourage":1504,"Ġcurrent":1505,"Ġdraw":1506,"Ġinvest":1507,"Ġinvol":1508,"Ġregular":1509,"Ġliquid":1510,"Ġmechan":1511,"Ġsuffering":1512,"ap":1513,"ax":1514,"ail":1515,"be":1516,"cher":1517,"cum":1518,"ds":1519,"demn":1520,"full":1521,"go":1522,"hys":1523,"ia":1524,"ily":1525,"iet":1526,"ira":1527,"lt":1528,"ng":1529,"nings":1530,"old":1531,"oss":1532,"rot":1533,"ues":1534,"ught":1535,"uage":1536,"ucle":1537,"wise":1538,"Ġra":1539,"Ġtr":1540,"Ġtin":1541,"Ġable":1542,"hets":1543,"Ġwond":1544,"Ġshe":1545,"Ġsat":1546,"Ġsom":1547,"Ġsim":1548,"Ġsour":1549,"rest":1550,"ature":1551,"Ġpie":1552,"Ġpath":1553,"Ġphys":1554,"Ġment":1555,"Ġfra":1556,"Ġfall":1557,"Ġfill":1558,"Ġblo":1559,"Ġbles":1560,"Ġbase":1561,"Ġbody":1562,"Ġbillions":1563,"Ġche":1564,"Ġcle":1565,"Ġdue":1566,"onse":1567,"orr":1568,"Ġgot":1569,"Ġgal":1570,"Ġhar":1571,"Ġhome":1572,"ences":1573,"omes":1574,"Ġlast":1575,"Ġlang":1576,"Ġloud":1577,"arch":1578,"Ġnice":1579,"Ġnucle":1580,"Ġinc":1581,"Ġinf":1582,"Ġbeha":1583,"Ġitself":1584,"sed":1585,"Ġdog":1586,"Ġdocum":1587,"Ġreco":1588,"eday":1589,"Ġhead":1590,"Ġhaving":1591,"Ġhabit":1592,"Ġongo":1593,"key":1594,"ries":1595,"Ġworry":1596,"Ġworship":1597,"Ġmeet":1598,"Ġmeas":1599,"Ġange":1600,"urb":1601,"Ġstr":1602,"Ġstra":1603,"Ġgoes":1604,"Ġgoals":1605,"idence":1606,"Ġkings":1607,"eech":1608,"Ġexa":1609,"Ġexcept":1610,"Ġloss":1611,"Ġlosing":1612,"Ġnear":1613,"pport":1614,"Ġplants":1615,"Ġleave":1616,"Ġdem":1617,"Ġdeal":1618,"Ġtired":1619,"Ġsupport":1620,"akes":1621,"Ġspeech":1622,"Ġwhole":1623,"Ġdoesn":1624,"Ġcondemn":1625,"ilar":1626,"Ġcreates":1627,"tern":1628,"Ġcares":1629,"like":1630,"Ġeng":1631,"Ġalm":1632,"Ġimposs":1633,"Ġhardsh":1634,"Ġhappening":1635,"ross":1636,"Ġability":1637,"Ġbyproduct":1638,"Ġcompetition":1639,"Ġidle":1640,"Ġpersist":1641,"ongs":1642,"Ġriver":1643,"Ġlearned":1644,"Ġsolid":1645,"ored":1646,"ivid":1647,"Ġanywhe":1648,"Ġhelpful":1649,"Ġhimself":1650,"cipl":1651,"Ġseen":1652,"Ġsecre":1653,"Ġtools":1654,"Ġupon":1655,"Ġindivid":1656,"Ġquiet":1657,"Ġteacher":1658,"Ġforget":1659,"Ġsuccessful":1660,"ared":1661,"Ġparts":1662,"Ġlaz":1663,"Ġconsume":1664,"Ġmovie":1665,"Ġdisturb":1666,"Ġsimp":1667,"Ġfeatures":1668,"Ġtravels":1669,"Ġcommun":1670,"Ġcommands":1671,"Ġdesigner":1672,"Ġanimal":1673,"Ġconfusion":1674,"Ġaccept":1675,"Ġhopes":1676,"Ġendless":1677,"Ġwishes":1678,"Ġcarefull":1679,"Ġpresence":1680,"Ġcarries":1681,"Ġtowards":1682,"Ġhealth":1683,"Ġconnection":1684,"Ġconnections":1685,"aging":1686,"Ġremain":1687,"Ġshared":1688,"place":1689,"Ġtrustworthy":1690,"Ġrespond":1691,"Ġresponse":1692,"Ġselfless":1693,"Ġart":1694,"Ġpulls":1695,"Ġmornings":1696,"Ġreven":1697,"Ġrevise":1698,"Ġchallenging":1699,"Ġwatching":1700,"Ġtrials":1701,"Ġtrying":1702,"Ġoccurs":1703,"Ġprev":1704,"Ġkingdom":1705,"Ġdeliver":1706,"Ġcontin":1707,"Ġinternal":1708,"Ġinternet":1709,"Ġcustomers":1710,"Ġdevelopment":1711,"Ġrun":1712,"Ġmissing":1713,"Ġboring":1714,"Ġheaven":1715,"Ġanswer":1716,"Ġsteadily":1717,"Ġexciting":1718,"Ġcharact":1719,"Ġdecisions":1720,"Ġfinishing":1721,"Ġscientists":1722,"Ġesca":1723,"Ġpressure":1724,"Ġburdens":1725,"Ġdirty":1726,"Ġempty":1727,"Ġrelief":1728,"Ġunto":1729,"Ġcomplete":1730,"Ġovercome":1731,"Ġinterest":1732,"Ġapproach":1733,"then":1734,"Ġtaught":1735,"Ġmarket":1736,"Ġmistakes":1737,"Ġmultip":1738,"Ġfilled":1739,"Ġhigher":1740,"ceived":1741,"Ġprophets":1742,"Ġprivate":1743,"Ġgradual":1744,"Ġlaunch":1745,"Ġtemper":1746,"Ġsurface":1747,"Ġdetermines":1748,"Ġimagine":1749,"Ġauthority":1750,"Ġinvolves":1751,"Ġtiny":1752,"Ġwonder":1753,"Ġsomeday":1754,"Ġsimilar":1755,"Ġsource":1756,"Ġphysical":1757,"Ġmental":1758,"Ġblock":1759,"Ġblessed":1760,"Ġbased":1761,"Ġgalax":1762,"Ġlanguage":1763,"Ġnucleus":1764,"Ġdocument":1765,"Ġongoing":1766,"Ġmeasure":1767,"Ġangels":1768,"Ġstraight":1769,"Ġimpossible":1770,"Ġhardships":1771,"Ġanywhere":1772,"cipline":1773,"Ġcarefully":1774,"air":1775,"aves":1776,"aren":1777,"aces":1778,"acle":1779,"cent":1780,"city":1781,"coun":1782,"der":1783,"fts":1784,"gn":1785,"gry":1786,"iod":1787,"ives":1788,"izing":1789,"ize":1790,"iences":1791,"oke":1792,"pri":1793,"put":1794,"pect":1795,"ses":1796,"sion":1797,"und":1798,"uals":1799,"vor":1800,"ye":1801,"yp":1802,"Ġer":1803,"Ġve":1804,"Ġrain":1805,"Ġtou":1806,"Ġtend":1807,"Ġtable":1808,"Ġtends":1809,"Ġaff":1810,"here":1811,"Ġwind":1812,"Ġson":1813,"Ġsle":1814,"Ġsake":1815,"Ġsort":1816,"Ġsight":1817,"Ġsens":1818,"Ġsense":1819,"Ġsongs":1820,"read":1821,"reas":1822,"atur":1823,"Ġpu":1824,"Ġpit":1825,"Ġplen":1826,"Ġpict":1827,"Ġmod":1828,"Ġfou":1829,"Ġfly":1830,"Ġfight":1831,"Ġflo":1832,"Ġbl":1833,"Ġbas":1834,"Ġbir":1835,"Ġbro":1836,"Ġburn":1837,"Ġcry":1838,"Ġdre":1839,"Ġdri":1840,"orth":1841,"lect":1842,"Ġgri":1843,"Ġgent":1844,"Ġgas":1845,"Ġhands":1846,"Ġlink":1847,"Ġlord":1848,"Ġlately":1849,"ari":1850,"ary":1851,"arity":1852,"Ġeye":1853,"Ġnation":1854,"Ġnatur":1855,"lls":1856,"ved":1857,"vered":1858,"stain":1859,"Ġoff":1860,"Ġincur":1861,"Ġdoct":1862,"owing":1863,"Ġrec":1864,"Ġreas":1865,"Ġreact":1866,"Ġreaction":1867,"alth":1868,"ality":1869,"Ġproud":1870,"Ġforms":1871,"Ġhear":1872,"Ġheed":1873,"Ġlik":1874,"Ġones":1875,"Ġworth":1876,"Ġmet":1877,"Ġangry":1878,"uring":1879,"utions":1880,"Ġstu":1881,"Ġstar":1882,"Ġstru":1883,"Ġstories":1884,"etic":1885,"adl":1886,"ison":1887,"isible":1888,"ished":1889,"Ġsoft":1890,"idd":1891,"idance":1892,"Ġwhether":1893,"using":1894,"Ġorder":1895,"chno":1896,"ractions":1897,"Ġmeanings":1898,"Ġexal":1899,"Ġshine":1900,"Ġsharing":1901,"Ġleft":1902,"Ġdeath":1903,"Ġdeadl":1904,"Ġsuch":1905,"Ġsustain":1906,"Ġchur":1907,"Ġgave":1908,"Ġspot":1909,"Ġspoke":1910,"Ġsphere":1911,"Ġevidence":1912,"Ġworkplace":1913,"Ġwhoever":1914,"Ġwanting":1915,"Ġcontain":1916,"Ġdesires":1917,"Ġdesira":1918,"Ġunw":1919,"Ġweight":1920,"Ġwealth":1921,"ateful":1922,"ending":1923,"idered":1924,"Ġenem":1925,"Ġensure":1926,"Ġalong":1927,"Ġharder":1928,"Ġhardship":1929,"Ġvo":1930,"Ġexpense":1931,"Ġabove":1932,"Ġgrateful":1933,"Ġcompass":1934,"Ġbug":1935,"Ġrich":1936,"Ġobe":1937,"Ġobser":1938,"acks":1939,"Ġsavior":1940,"Ġtraps":1941,"Ġtrack":1942,"Ġearli":1943,"Ġsolar":1944,"Ġsolutions":1945,"Ġoverwhe":1946,"Ġready":1947,"Ġplaying":1948,"aste":1949,"Ġsequ":1950,"Ġselling":1951,"Ġlift":1952,"Ġplanning":1953,"Ġperiod":1954,"Ġbuilds":1955,"Ġseems":1956,"Ġdescript":1957,"Ġquality":1958,"Ġteams":1959,"Ġteaches":1960,"Ġoutput":1961,"Ġreality":1962,"Ġbusinesses":1963,"Ġkeeps":1964,"Ġgreatest":1965,"Ġgrowing":1966,"Ġproducts":1967,"weight":1968,"Ġlighter":1969,"Ġpartic":1970,"Ġthough":1971,"Ġconsidered":1972,"Ġleaders":1973,"Ġdistractions":1974,"Ġbelievers":1975,"iew":1976,"logy":1977,"Ġtechno":1978,"Ġproven":1979,"Ġattract":1980,"Ġattacks":1981,"Ġvalid":1982,"Ġfocused":1983,"uding":1984,"Ġsins":1985,"Ġsurpri":1986,"Ġpowerful":1987,"Ġdiscipline":1988,"Ġtaken":1989,"Ġturnkey":1990,"Ġimproves":1991,"Ġteachings":1992,"Ġrock":1993,"Ġacts":1994,"Ġactive":1995,"Ġsaying":1996,"Ġbigger":1997,"Ġpossess":1998,"Ġfocusing":1999,"Ġacce":2000,"Ġaccoun":2001,"Ġcareful":2002,"Ġagainst":2003,"Ġstrengthen":2004,"Ġcloud":2005,"Ġcarry":2006,"Ġguide":2007,"Ġguidance":2008,"Ġlists":2009,"Ġasking":2010,"Ġsystems":2011,"Ġdarkness":2012,"Ġrespect":2013,"osity":2014,"Ġwriting":2015,"Ġsignal":2016,"Ġsignif":2017,"Ġfiction":2018,"Ġelements":2019,"Ġrepent":2020,"Ġrepres":2021,"Ġrepetition":2022,"Ġmemories":2023,"Ġchallenge":2024,"Ġchallenges":2025,"Ġfacts":2026,"Ġexperiences":2027,"Ġbeliefs":2028,"Ġrighteousness":2029,"Ġtesting":2030,"Ġimmed":2031,"Ġwait":2032,"Ġwaiting":2033,"Ġgenerous":2034,"Ġspending":2035,"Ġquestion":2036,"Ġservice":2037,"Ġcustomer":2038,"ables":2039,"Ġentire":2040,"Ġsentence":2041,"Ġborn":2042,"Ġglad":2043,"Ġlesson":2044,"Ġanswers":2045,"Ġstops":2046,"Ġsteady":2047,"Ġcharge":2048,"Ġcosts":2049,"Ġdecision":2050,"Ġhonorable":2051,"Ġfixing":2052,"acles":2053,"Ġblesses":2054,"Ġcloser":2055,"Ġinvent":2056,"Ġinvisible":2057,"Ġrepeated":2058,"Ġprideful":2059,"Ġjudge":2060,"Ġjudges":2061,"Ġobstacle":2062,"Ġobstacles":2063,"Ġcooper":2064,"Ġcooperate":2065,"Ġcollege":2066,"Ġcelebrate":2067,"Ġmastery":2068,"leration":2069,"ointment":2070,"Ġavoid":2071,"Ġscore":2072,"Ġcurious":2073,"Ġdanger":2074,"Ġnurture":2075,"Ġbeginning":2076,"Ġprotect":2077,"Ġhello":2078,"Ġstudy":2079,"Ġorganiz":2080,"Ġdespite":2081,"Ġcompany":2082,"Ġinstructions":2083,"Ġdiscover":2084,"Ġdisappointment":2085,"Ġadding":2086,"Ġelectrons":2087,"Ġsubjects":2088,"Ġbenefit":2089,"Ġcurrently":2090,"Ġdrawing":2091,"Ġinvestment":2092,"Ġmechanic":2093,"iah":2094,"Ġclear":2095,"Ġbehavior":2096,"Ġhabits":2097,"Ġexample":2098,"Ġsecret":2099,"Ġindividual":2100,"Ġforgetful":2101,"Ġlazy":2102,"Ġrevenue":2103,"Ġheavenly":2104,"Ġcharacters":2105,"Ġescape":2106,"Ġtemperature":2107,"Ġerr":2108,"Ġtouch":2109,"Ġsleep":2110,"Ġsorts":2111,"Ġplenty":2112,"Ġfounder":2113,"Ġbasic":2114,"Ġbirds":2115,"Ġgrie":2116,"Ġgentle":2117,"Ġnatural":2118,"Ġsoftware":2119,"Ġdesirable":2120,"Ġenemies":2121,"Ġcompassion":2122,"Ġoverwhel":2123,"Ġtechnology":2124,"Ġsurprising":2125,"Ġclouds":2126,"Ġsignifies":2127,"Ġimmedi":2128,"ai":2129,"ame":2130,"aut":2131,"aid":2132,"aled":2133,"ape":2134,"ams":2135,"aise":2136,"aware":2137,"bb":2138,"bu":2139,"bly":2140,"bear":2141,"bution":2142,"con":2143,"cond":2144,"cated":2145,"cution":2146,"dir":2147,"done":2148,"drop":2149,"emp":2150,"fe":2151,"fting":2152,"gr":2153,"gor":2154,"ged":2155,"gory":2156,"giving":2157,"ggest":2158,"hold":2159,"ient":2160,"iful":2161,"ifi":2162,"kay":2163,"lu":2164,"ling":2165,"lay":2166,"lic":2167,"late":2168,"luding":2169,"oe":2170,"ost":2171,"ores":2172,"ocri":2173,"ols":2174,"ping":2175,"part":2176,"point":2177,"ring":2178,"ray":2179,"rate":2180,"rink":2181,"sor":2182,"sen":2183,"sures":2184,"slate":2185,"tes":2186,"that":2187,"ted":2188,"tic":2189,"tak":2190,"ties":2191,"tty":2192,"uge":2193,"uable":2194,"uine":2195,"vant":2196,"vir":2197,"vation":2198,"vail":2199,"wim":2200,"ying":2201,"ycle":2202,"zz":2203,"zed":2204,"ĠâĢ":2205,"Ġty":2206,"Ġtreat":2207,"Ġtreas":2208,"Ġtaste":2209,"Ġast":2210,"Ġage":2211,"Ġack":2212,"Ġapart":2213,"Ġavail":2214,"Ġwon":2215,"Ġwow":2216,"Ġwest":2217,"Ġwast":2218,"Ġwars":2219,"Ġwrot":2220,"Ġwoe":2221,"ined":2222,"inous":2223,"ints":2224,"inite":2225,"inetic":2226,"Ġsal":2227,"Ġsit":2228,"Ġsist":2229,"Ġswe":2230,"Ġsco":2231,"Ġsca":2232,"Ġswim":2233,"rely":2234,"ats":2235,"atial":2236,"Ġokay":2237,"Ġpot":2238,"Ġpal":2239,"Ġmode":2240,"Ġmag":2241,"Ġmillions":2242,"Ġfal":2243,"Ġfant":2244,"Ġfue":2245,"Ġfish":2246,"Ġfund":2247,"ery":2248,"erally":2249,"Ġbra":2250,"Ġball":2251,"Ġbang":2252,"Ġbible":2253,"Ġcr":2254,"Ġcri":2255,"Ġcent":2256,"Ġcate":2257,"Ġcore":2258,"Ġcoun":2259,"Ġcross":2260,"Ġcycle":2261,"Ġdee":2262,"Ġdens":2263,"Ġdumb":2264,"Ġdam":2265,"Ġdrop":2266,"Ġduring":2267,"Ġdrink":2268,"anslate":2269,"onment":2270,"onable":2271,"Ġhot":2272,"Ġhur":2273,"Ġhand":2274,"Ġhide":2275,"Ġhist":2276,"Ġhust":2277,"Ġhurd":2278,"Ġhurt":2279,"Ġhorr":2280,"Ġhyp":2281,"Ġhidd":2282,"Ġhuge":2283,"enery":2284,"oming":2285,"Ġlay":2286,"Ġlate":2287,"Ġlower":2288,"arant":2289,"arison":2290,"Ġever":2291,"Ġeit":2292,"Ġeast":2293,"Ġetern":2294,"Ġwhatever":2295,"Ġnay":2296,"Ġnone":2297,"Ġnorm":2298,"Ġnorth":2299,"Ġname":2300,"ths":2301,"vere":2302,"stop":2303,"stances":2304,"Ġinh":2305,"Ġbed":2306,"Ġbel":2307,"Ġbeget":2308,"Ġbegan":2309,"Ġbeaut":2310,"odle":2311,"search":2312,"cture":2313,"Ġref":2314,"Ġreve":2315,"Ġreac":2316,"Ġreceived":2317,"Ġresearch":2318,"otions":2319,"otten":2320,"alk":2321,"Ġwire":2322,"Ġwicked":2323,"Ġprud":2324,"Ġprior":2325,"Ġpraise":2326,"Ġforward":2327,"Ġhey":2328,"Ġheld":2329,"Ġhealed":2330,"Ġheinous":2331,"vern":2332,"Ġpetty":2333,"Ġarea":2334,"ricity":2335,"ribution":2336,"Ġworthy":2337,"ently":2338,"ential":2339,"entifi":2340,"utrons":2341,"Ġstands":2342,"Ġstored":2343,"Ġstores":2344,"Ġgovern":2345,"Ġnotice":2346,"eting":2347,"iced":2348,"ication":2349,"icates":2350,"icient":2351,"ades":2352,"adise":2353,"isf":2354,"ises":2355,"ision":2356,"Ġsoci":2357,"idst":2358,"ghts":2359,"itive":2360,"asp":2361,"Ġorbit":2362,"raps":2363,"Ġprofit":2364,"Ġkinetic":2365,"Ġexch":2366,"Ġlog":2367,"Ġlocated":2368,"Ġshap":2369,"Ġshape":2370,"Ġneutrons":2371,"pped":2372,"uming":2373,"Ġplaces":2374,"Ġleng":2375,"Ġdecept":2376,"Ġdies":2377,"Ġsup":2378,"Ġsuggest":2379,"Ġgoods":2380,"Ġgoodby":2381,"resight":2382,"rust":2383,"Ġspark":2384,"Ġspread":2385,"Ġspatial":2386,"Ġevol":2387,"Ġworked":2388,"Ġwhose":2389,"Ġconst":2390,"Ġconcept":2391,"Ġconcent":2392,"ationship":2393,"Ġlikewise":2394,"Ġunp":2395,"Ġunit":2396,"Ġunless":2397,"Ġuncle":2398,"Ġunsure":2399,"Ġfair":2400,"Ġfavor":2401,"Ġcreating":2402,"Ġcreation":2403,"Ġcreativ":2404,"Ġcreatures":2405,"nowledge":2406,"term":2407,"Ġknown":2408,"Ġcared":2409,"ended":2410,"lict":2411,"light":2412,"Ġensures":2413,"Ġenvir":2414,"Ġalgor":2415,"Ġvast":2416,"Ġvict":2417,"Ġvari":2418,"Ġview":2419,"Ġforesight":2420,"roy":2421,"Ġabsor":2422,"Ġamong":2423,"Ġamoun":2424,"Ġamidst":2425,"Ġpoints":2426,"Ġpoodle":2427,"istic":2428,"Ġmanage":2429,"Ġgrant":2430,"Ġground":2431,"Ġgrasp":2432,"Ġcompared":2433,"Ġcomparison":2434,"Ġidentifi":2435,"Ġperspect":2436,"Ġbuy":2437,"Ġbund":2438,"Ġrid":2439,"Ġriches":2440,"ighty":2441,"Ġkindness":2442,"Ġwayward":2443,"Ġsaid":2444,"Ġsaves":2445,"Ġthereby":2446,"Ġtrap":2447,"Ġsolo":2448,"Ġsolves":2449,"Ġsolution":2450,"âĢĿ":2451,"Ġoveract":2452,"Ġbecomes":2453,"Ġresour":2454,"Ġanybody":2455,"Ġplayed":2456,"Ġhelpless":2457,"cip":2458,"ciful":2459,"cious":2460,"cially":2461,"Ġsees":2462,"Ġsearch":2463,"Ġminds":2464,"anged":2465,"nesses":2466,"Ġperse":2467,"Ġperceived":2468,"Ġuphold":2469,"Ġindicates":2470,"Ġstarted":2471,"Ġearthly":2472,"Ġteam":2473,"Ġmatches":2474,"Ġevils":2475,"Ġwash":2476,"Ġforgotten":2477,"Ġdescribed":2478,"Ġwins":2479,"Ġfriction":2480,"Ġrot":2481,"Ġrate":2482,"Ġrates":2483,"Ġefficient":2484,"Ġsmallest":2485,"Ġkeys":2486,"Ġwatches":2487,"Ġprayers":2488,"Ġproductive":2489,"Ġlightly":2490,"Ġlightweight":2491,"Ġmostly":2492,"Ġdecl":2493,"Ġdecent":2494,"Ġdeciding":2495,"Ġdecides":2496,"Ġdecades":2497,"Ġmaybe":2498,"Ġconsuming":2499,"Ġconscious":2500,"getable":2501,"Ġslower":2502,"Ġslaves":2503,"Ġworlds":2504,"Ġleader":2505,"Ġdistract":2506,"Ġdistances":2507,"Ġdistrust":2508,"Ġdays":2509,"Ġgiant":2510,"Ġgift":2511,"Ġgifts":2512,"Ġexisted":2513,"Ġexistence":2514,"Ġchosen":2515,"pecially":2516,"Ġfeet":2517,"Ġfelt":2518,"Ġfunctions":2519,"Ġproviding":2520,"Ġprovides":2521,"Ġcommand":2522,"Ġattain":2523,"Ġattemp":2524,"Ġdesigning":2525,"Ġvaluable":2526,"Ġsince":2527,"Ġdisg":2528,"Ġconfusing":2529,"Ġconflict":2530,"Ġfaithful":2531,"Ġturns":2532,"Ġlargest":2533,"Ġimproving":2534,"Ġrole":2535,"Ġroom":2536,"Ġroam":2537,"Ġactually":2538,"Ġapply":2539,"Ġappear":2540,"Ġfully":2541,"Ġaccur":2542,"Ġacross":2543,"Ġsymb":2544,"Ġbackdrop":2545,"Ġholy":2546,"Ġendpoint":2547,"others":2548,"Ġexplan":2549,"Ġexpectations":2550,"Ġmomentum":2551,"Ġserve":2552,"Ġserving":2553,"Ġserious":2554,"Ġrewards":2555,"Ġstaying":2556,"Ġprocessing":2557,"Ġfailing":2558,"Ġeasily":2559,"Ġspeaks":2560,"Ġpains":2561,"Ġbrothers":2562,"Ġclues":2563,"Ġcaring":2564,"Ġcarrot":2565,"Ġcalm":2566,"Ġcalam":2567,"Ġcalling":2568,"Ġguard":2569,"Ġguiding":2570,"Ġguarant":2571,"Ġemotions":2572,"Ġhealthy":2573,"Ġlistens":2574,"Ġdepri":2575,"Ġdepending":2576,"Ġconnects":2577,"Ġconnected":2578,"Ġasks":2579,"Ġmessiah":2580,"Ġfinished":2581,"Ġinteract":2582,"Ġinteraction":2583,"Ġfriendly":2584,"Ġimproved":2585,"Ġimprovements":2586,"Ġsadly":2587,"Ġtrusting":2588,"Ġfollows":2589,"Ġslowly":2590,"Ġtells":2591,"Ġexplains":2592,"oses":2593,"Ġdetail":2594,"Ġdetai":2595,"Ġelement":2596,"Ġsunlight":2597,"Ġamazed":2598,"Ġsucceeded":2599,"Ġrequired":2600,"fication":2601,"Ġtrial":2602,"Ġscience":2603,"Ġdidn":2604,"Ġgroups":2605,"Ġsaved":2606,"Ġsurviving":2607,"Ġmotivated":2608,"Ġtests":2609,"Ġwaves":2610,"Ġoccurred":2611,"Ġoccurring":2612,"Ġprep":2613,"Ġmerciful":2614,"Ġcells":2615,"Ġgenuine":2616,"Ġgenerally":2617,"Ġearning":2618,"Ġmeaningful":2619,"Ġdelivers":2620,"Ġdelights":2621,"Ġsubstances":2622,"Ġcontribution":2623,"Ġweaken":2624,"Ġsmarter":2625,"Ġperfume":2626,"Ġservices":2627,"Ġservants":2628,"Ġlistening":2629,"Ġdeveloping":2630,"ably":2631,"Ġentity":2632,"Ġarises":2633,"Ġpushes":2634,"Ġmission":2635,"Ġcertainly":2636,"Ġcertainty":2637,"ords":2638,"Ġglass":2639,"Ġnumber":2640,"Ġnumbers":2641,"Ġheavy":2642,"Ġlived":2643,"Ġstronger":2644,"Ġstrongly":2645,"Ġlooks":2646,"Ġlooking":2647,"Ġneglect":2648,"Ġpositive":2649,"Ġfixed":2650,"Ġbreaking":2651,"Ġachievement":2652,"Ġbrightly":2653,"Ġespecially":2654,"Ġflow":2655,"Ġflows":2656,"Ġblessings":2657,"Ġburden":2658,"Ġrelieve":2659,"Ġdevotion":2660,"Ġgaining":2661,"Ġuntil":2662,"Ġcompleting":2663,"Ġcollection":2664,"Ġperforming":2665,"Ġperformance":2666,"Ġrobots":2667,"Ġpleasing":2668,"Ġcelebration":2669,"Ġawake":2670,"Ġawaren":2671,"Ġavoiding":2672,"Ġscenery":2673,"Ġsouth":2674,"Ġparables":2675,"Ġparadise":2676,"Ġpaying":2677,"Ġpacked":2678,"Ġpackage":2679,"Ġcuriosity":2680,"Ġdangerous":2681,"Ġnurtures":2682,"Ġrelationship":2683,"Ġprotons":2684,"Ġorganic":2685,"Ġextra":2686,"Ġdespair":2687,"Ġdestroy":2688,"Ġpointless":2689,"Ġcompanion":2690,"Ġrounded":2691,"Ġeffective":2692,"Ġlabs":2693,"Ġlabor":2694,"Ġconsists":2695,"Ġconsistent":2696,"Ġinstruction":2697,"Ġsetbacks":2698,"Ġdiscovered":2699,"Ġdisappear":2700,"Ġholds":2701,"Ġclosely":2702,"Ġelectricity":2703,"Ġseparation":2704,"Ġseparately":2705,"Ġopposers":2706,"Ġopposite":2707,"Ġbeneath":2708,"Ġdrawings":2709,"Ġregularly":2710,"Ġmechanics":2711,"apor":2712,"belie":2713,"Ġtranslate":2714,"Ġshel":2715,"Ġsatan":2716,"Ġsatisf":2717,"Ġpiece":2718,"Ġpieces":2719,"Ġframe":2720,"Ġchecked":2721,"orrow":2722,"Ġharm":2723,"Ġharsh":2724,"Ġlouder":2725,"Ġincluding":2726,"Ġinflu":2727,"Ġinfinite":2728,"Ġrecover":2729,"Ġrecogn":2730,"Ġstrange":2731,"Ġdemand":2732,"Ġdemons":2733,"Ġdealings":2734,"Ġengaging":2735,"Ġalmost":2736,"Ġalmighty":2737,"Ġpersistence":2738,"Ġsimply":2739,"Ġcommunities":2740,"Ġcommunication":2741,"Ġprevent":2742,"Ġprevents":2743,"Ġcontinues":2744,"Ġinterested":2745,"Ġmultiple":2746,"Ġlaunching":2747,"Ġblocks":2748,"Ġblocking":2749,"Ġgalaxy":2750,"Ġgalaxies":2751,"Ġdocumentation":2752,"Ġvegetable":2753,"Ġaffect":2754,"Ġsensation":2755,"Ġpuzz":2756,"Ġpitch":2757,"Ġpicture":2758,"Ġmoderate":2759,"Ġfights":2760,"Ġfloating":2761,"Ġblind":2762,"Ġbroke":2763,"Ġdreams":2764,"Ġdrifting":2765,"Ġdoctor":2766,"Ġrecords":2767,"Ġreacting":2768,"Ġlikes":2769,"Ġmetal":2770,"Ġstuff":2771,"Ġstructure":2772,"Ġexalts":2773,"Ġdeadlines":2774,"Ġchurch":2775,"Ġunwraps":2776,"Ġvoid":2777,"Ġbugs":2778,"Ġobserving":2779,"Ġearlier":2780,"Ġseque":2781,"Ġdescription":2782,"Ġparticles":2783,"Ġattractive":2784,"Ġacceleration":2785,"Ġrepresents":2786,"Ġinventor":2787,"Ġjudgement":2788,"Ġcooperation":2789,"Ġprotection":2790,"Ġorganized":2791,"Ġerrors":2792,"Ġsleepy":2793,"Ġcompassionate":2794,"Ġoverwhelmed":2795,"Ġimmediate":2796,"ocrites":2797,"ĠâĢľ":2798,"Ġtreasures":2799,"Ġacknowledge":2800,"Ġavailable":2801,"Ġwasted":2802,"Ġwrote":2803,"Ġsalvation":2804,"Ġsisters":2805,"Ġsweet":2806,"Ġscale":2807,"Ġpotential":2808,"Ġmodel":2809,"Ġmagn":2810,"Ġfalse":2811,"Ġbrave":2812,"Ġcenter":2813,"Ġcategory":2814,"Ġdeep":2815,"Ġdensity":2816,"Ġdamage":2817,"Ġhistory":2818,"Ġhustle":2819,"Ġhurdle":2820,"Ġhypocrites":2821,"Ġhidden":2822,"Ġeither":2823,"Ġeternal":2824,"Ġnormal":2825,"Ġbeautiful":2826,"Ġreached":2827,"Ġprudence":2828,"Ġpriorit":2829,"Ġsocial":2830,"Ġshaped":2831,"Ġlengths":2832,"Ġdeception":2833,"Ġgoodbye":2834,"Ġevolved":2835,"Ġconcentrate":2836,"Ġunclear":2837,"Ġfavorite":2838,"Ġcreativity":2839,"Ġenvironment":2840,"Ġalgorith":2841,"Ġvictim":2842,"Ġabsorb":2843,"Ġidentified":2844,"Ġoveractive":2845,"Ġresources":2846,"Ġconsciousness":2847,"Ġaccurate":2848,"Ġcalamity":2849,"Ġguarantee":2850,"Ġdetails":2851,"Ġdetailed":2852,"Ġawareness":2853,"Ġinfluence":2854,"Ġrecognizing":2855,"Ġpuzzles":2856},"merges":["Ġ t","Ġ a","Ġ i","h e","Ġ w","i n","Ġ s","r e","a t","Ġ o","Ġt he","e s","Ġ p","in g","Ġi s","Ġ m","Ġ f","e r","Ġ b","Ġ c","o u","Ġ d","a n","Ġt o","o n","o r","l e","h at","n d","Ġ g","Ġ y","Ġ h","e n","o m","Ġ l","a r","Ġ e","Ġw hat","Ġa nd","Ġy ou","Ġ n","t h","l l","v e","s t","Ġo f","Ġi n","Ġb e","o d","Ġi t","s e","Ġd o","c t","o w","Ġ re","o t","Ġt h","i on","e d","a y","c e","o p","a l","Ġw i","Ġ u","Ġp r","Ġf or","Ġ he","om e","Ġt hat","Ġh a","Ġl i","v er","Ġp e","Ġo n","k e","Ġa re","m e","op le","Ġpe ople","r i","Ġw or","en t","Ġm e","Ġs ome","Ġa n","g h","l d","u r","u t","Ġs t","es s","l y","he r","Ġg o","Ġn ot","e t","Ġw h","an t","i c","th ing","a d","Ġm o","i s","Ġs o","i d","Ġc an","Ġw he","u s","gh t","i t","a s","Ġo r","c h","r a","Ġthe y","Ġpr o","b le","Ġ k","Ġg od","Ġme an","u l","in d","Ġyou r","e e","Ġe x","er s","Ġl o","g e","Ġs h","Ġn e","Ġsome thing","p p","Ġa ll","ing s","i r","u m","Ġwi th","e ct","Ġp l","Ġwhe n","Ġ le","re at","Ġd e","Ġd i","Ġt i","Ġs u","Ġc h","Ġg a","Ġgo od","a k","f f","ar d","a ll","re s","r u","Ġs p","m p","Ġe v","Ġwi ll","Ġwor k","i ve","Ġc om","Ġwh o","ar t","r om","Ġw ant","Ġti me","Ġf rom","Ġdo es","Ġb ut","Ġc on","on e","Ġa t","at ion","ou ld","Ġli ke","a ce","Ġ j","Ġha ve","i l","i m","t her","Ġha pp","Ġd es","p s","v es","Ġu n","ver y","a ke","Ġf a","Ġon e","Ġt ru","Ġc reat","Ġo ther","Ġthe m","Ġf ee","Ġfee l","n ow","v ing","re n","or t","Ġw e","Ġhe l","t er","a in","c k","f ul","Ġthe ir","an d","Ġk now","Ġm y","at e","Ġth ings","Ġc a","e a","e nd","q u","Ġo ur","ct ion","id e","l i","Ġ en","Ġy es","Ġn o","Ġmean s","Ġa s","Ġa l","Ġi mp","ou t","Ġh ard","Ġlo ve","i g","Ġ v","Ġf o","ar n","Ġmo re","Ġhapp en","' s","r o","es t","Ġwor d","Ġex p","Ġa b","Ġa m","Ġp o","Ġh ow","i st","j ect","o se","Ġm an","Ġh is","Ġu s","Ġother s","m ent","u re","u se","Ġb y","Ġg r","Ġdi ff","Ġcom p","m es","Ġi d","Ġi f","Ġp ers","nd er","i es","u st","Ġy um","Ġga me","Ġyum on","w ay","Ġb o","Ġb u","on g","i ld","Ġ ri","in k","le d","Ġle arn","Ġman y","Ġo b","Ġu nder","a ck","i ght","u n","c ess","e ed","at her","od u","Ġk ind","Ġunder st","a ble","Ġw ay","Ġs a","Ġthe re","Ġpers on","Ġunderst and","o k","Ġt ra","Ġm ake","ou nd","or m","Ġe ar","Ġth ink","Ġso l","it y","ul t","Ġsh ould","e p","Ġm ak","Ġga mes","' t","f orm","o re","â Ģ","Ġo ver","en ce","Ġbe c","Ġwh y","Ġne ed","Ġab out","i v","ve l","Ġbe t","Ġre s","Ġre ad","Ġpr odu","ver se","Ġwhe re","Ġsu c","Ġtru e","w n","Ġ very","Ġs m","Ġe very","Ġin t","Ġth an","Ġan y","Ġpro ble","Ġpl ay","Ġhel p","Ġproble m","e ren","in ess","es us","Ġh um","Ġh im","Ġth ose","Ġha s","Ġpro g","res s","Ġj esus","Ġdiff eren","a st","c i","c ri","Ġs e","Ġm ind","Ġc o","an g","Ġg ive","Ġli f","Ġpl an","ort ant","Ġimp ortant","a ct","n ess","w ard","Ġp er","Ġf ather","Ġto o","Ġth ing","Ġu p","Ġbu ild","Ġi nd","Ġs ee","Ġon ly","Ġst art","Ġne w","Ġdes cri","Ġri ght","Ġob ject","i verse","u e","u ll","Ġin form","se l","al s","ur n","Ġev en","Ġun iverse","Ġhel ps","ig n","Ġear th","Ġlif e","Ġinform ation","a ch","Ġ qu","Ġt ea","Ġm at","Ġd on","ion s","Ġsome one","Ġsp ace","Ġev il","li e","g y","s s","t y","Ġw as","Ġw ould","Ġo ut","Ġf ind","ou s","Ġy et","Ġre al","Ġu se","Ġfor g","Ġbo ok","Ġdescri b","i re","Ġw in","Ġf ri","Ġg et","Ġword s","Ġdifferen t","a use","i ce","Ġ r","Ġb us","le x","Ġe ff","Ġbe f","all y","end s","Ġal way","Ġsuc cess","Ġsm all","Ġint o","Ġbus iness","Ġalway s","a ge","Ġ ke","Ġa g","Ġw at","Ġg reat","Ġe as","Ġpr ay","Ġgr ow","Ġid ea","led ge","Ġbec ause","Ġprodu ct","a re","w e","er gy","Ġli ght","Ġmo st","Ġde c","Ġj ust","Ġen ergy","Ġhappen s","Ġmak es","Ġind eed","Ġbef ore","l ess","Ġp art","Ġm ay","Ġl a","Ġth ou","ad e","Ġcon s","Ġknow ledge","c es","e m","g et","i ll","i ble","s h","Ġt ake","Ġs l","Ġo wn","ow s","ow er","ot ion","Ġwor ld","Ġmo v","as s","Ġpl ace","Ġle ad","Ġdi st","âĢ Ļ","Ġhum an","r y","t s","t en","u ch","Ġs i","Ġthe n","Ġm uch","Ġd ay","Ġg i","Ġl ong","Ġbe ing","Ġbe lie","Ġex ist","Ġch o","Ġfa st","Ġsa me","i th","n ing","p e","Ġa lex","Ġm om","Ġm ade","Ġf e","Ġre qu","ent s","Ġwh ic","is h","Ġsu re","Ġch ang","Ġsp e","Ġtra vel","Ġres ult","Ġprog ress","Ġstart u","Ġbook s","Ġke ep","Ġthou ght","Ġwhic h","i e","l o","o y","Ġt e","Ġa f","he s","Ġs ound","re e","Ġm us","Ġf un","ou r","ar s","Ġin st","Ġmo ve","Ġpro v","Ġcom m","Ġat t","Ġdes ign","Ġcreat or","Ġv al","Ġfo c","Ġbet ter","Ġread ing","Ġeff ort","Ġmus ic","l es","p t","u d","Ġa way","Ġs in","Ġs ur","Ġs et","Ġp ower","ou gh","Ġd is","Ġn ow","Ġof ten","Ġit s","Ġan im","ic k","Ġsh all","Ġcon f","Ġfa ith","Ġcreat e","Ġcreat ed","Ġfo od","Ġlearn ing","Ġsee k","sel f","Ġdescrib e","Ġmov ies","Ġt ak","Ġt urn","Ġa ction","in e","Ġm one","Ġc ome","an ce","Ġto get","or y","le n","Ġl ar","Ġth is","Ġhe art","Ġimp ro","Ġkind s","Ġbet we","Ġevery thing","Ġtea ch","Ġhuman s","Ġmone y","Ġtoget her","Ġbetwe en","e as","u res","Ġ ro","Ġa ct","Ġa pp","Ġs ay","re d","Ġo p","Ġf ull","Ġb ig","Ġe ach","od e","Ġgo al","Ġtru th","Ġpo ss","Ġid eas","Ġbo th","Ġplan et","Ġfoc us","i le","l s","m s","r ong","Ġa c","Ġs y","Ġb ack","an ge","Ġh o","Ġh op","ar k","Ġe nd","ot her","Ġwi s","Ġpe ace","Ġwith out","Ġat om","Ġfeel ings","Ġexp l","Ġexp ect","Ġcomp ut","Ġsol ve","Ġmom ent","a se","d om","e ad","h a","i p","i se","i ence","t le","u ally","Ġs er","re ct","Ġc ode","en s","od y","Ġre ward","Ġst ay","Ġst ren","ic ult","us es","ra m","Ġpro cess","Ġwork ing","Ġfa il","Ġfeel ing","Ġca re","Ġdiff icult","iv en","Ġproblem s","Ġobject s","Ġag ain","Ġeas i","Ġspe ak","Ġval ue","Ġlar ge","Ġop en","Ġstren g","b ack","c ur","g er","n ect","s ing","t ing","t ain","z ing","Ġs k","Ġp le","Ġp res","Ġp ain","Ġf ree","Ġb r","Ġc l","Ġc ar","Ġc al","Ġc all","Ġto ward","Ġg u","Ġh on","Ġe m","Ġe at","st em","Ġdo wn","Ġhe al","Ġli st","it ion","Ġpro ject","Ġle t","Ġde p","Ġde ed","mp le","Ġcom es","Ġcon nect","Ġca use","Ġas k","Ġus ers","Ġmak ing","Ġprog ram","Ġfri ends","Ġwat er","Ġaf ter","Ġanim als","Ġsy stem","a g","c hes","i gh","i res","j oy","m b","r ough","x t","Ġt as","Ġp ast","Ġm ess","Ġf in","Ġf ut","Ġf ir","Ġd ark","on d","Ġh igh","Ġl ow","Ġn ight","Ġin ter","Ġre m","Ġth rough","ce pt","Ġli ving","Ġan other","ra in","Ġsh are","Ġne ver","Ġne xt","Ġch ange","Ġthem sel","Ġca uses","ide o","Ġen joy","Ġv ideo","Ġbuild ing","Ġfri end","Ġchang es","Ġthought s","Ġimpro ve","Ġposs ible","Ġatom s","Ġeasi er","Ġtas k","Ġfut ure","Ġfir st","Ġthemsel ves","c o","c le","l f","n ot","p l","s o","s ide","v o","Ġs ad","at h","Ġp un","Ġm ust","Ġc or","Ġc our","ou d","on s","ce ed","Ġwh ile","ic es","Ġcan not","Ġex act","Ġsh ow","Ġch ild","Ġhapp y","Ġtru st","Ġfo ll","Ġpo or","âĢ Ķ","Ġres p","Ġhum ble","Ġse lf","Ġeas y","Ġsl ow","Ġstartu p","Ġte ll","Ġexpl ain","Ġstreng th","Ġem otion","Ġdeed s","Ġcour se","Ġexact ly","m ing","n er","o s","t e","t urn","t tle","z e","Ġa d","Ġa r","Ġw ri","in t","Ġs ign","re ction","at ed","Ġp ut","Ġp ull","Ġp ass","Ġm or","Ġm ight","Ġf i","Ġf ar","Ġf eed","Ġd et","Ġe le","Ġbe en","Ġre p","Ġre v","Ġre turn","al len","Ġpr act","Ġfor ce","Ġli ttle","Ġon ce","ent ion","Ġme m","Ġst ate","Ġgo ing","ic s","Ġmo ves","Ġmo ving","id ing","it e","Ġall ows","um b","Ġwith in","Ġsu n","Ġch allen","Ġev ents","Ġfa ct","Ġwe re","Ġknow ing","Ġno thing","Ġal so","Ġexp er","Ġam a","Ġus ually","Ġunderstand ing","Ġbec ome","Ġsuc ceed","Ġqu ick","Ġmat ter","Ġwat ch","Ġbelie f","Ġfast er","Ġrequ ire","Ġwis dom","Ġcomput er","Ġpun ish","Ġchild ren","a v","a ve","b ody","d e","e ps","e ous","f ic","i ving","l a","t im","u al","Ġt ri","in es","Ġs ci","Ġm ot","Ġm otion","er tain","Ġc ould","Ġd id","Ġd one","Ġto p","Ġl ot","th y","Ġre ach","Ġwi de","ver s","us ion","Ġyour self","Ġdi rection","Ġfeel s","and s","use d","Ġgr ou","Ġway s","Ġsa ve","Ġany thing","Ġper ha","Ġright eous","Ġmat h","Ġforg ive","sh ip","Ġlead s","Ġsi mple","Ġrequ ires","Ġresult s","Ġstartu ps","Ġsound s","Ġprov ide","Ġatt ention","Ġsur v","Ġtak es","Ġhop e","Ġcal led","mb er","Ġcor rect","Ġpract ice","Ġquick ly","Ġmot iv","Ġperha ps","c y","c cur","f t","g it","i or","o ve","t ers","w o","w he","y s","Ġt est","Ġt ry","Ġt wo","Ġa i","Ġi m","he d","Ġw a","Ġw rong","Ġs ick","Ġo h","Ġo ccur","Ġp re","Ġm er","Ġb re","Ġb est","Ġc e","Ġc ust","ou n","Ġg en","Ġe arn","Ġn on","Ġdo ing","Ġre me","Ġha d","Ġli e","Ġsome tim","Ġan ger","ur d","Ġst ars","ant ly","Ġk ing","Ġmean ing","Ġlo ves","Ġall ow","Ġde li","Ġde vel","Ġti mes","Ġsu b","Ġsp end","Ġev ent","Ġcon t","Ġwe ak","ction s","Ġsm art","Ġper f","Ġqu est","Ġdescrib es","Ġpray er","Ġgrow th","Ġla w","Ġgi ves","Ġcomm on","Ġpeace ful","Ġexpect ed","Ġser v","Ġlist en","Ġdep ends","Ġinter n","Ġtask s","Ġfoll ow","Ġfeed back","Ġama zing","Ġtop ics","Ġcust om","Ġreme mber","Ġsometim es","Ġdevel op","' m","a b","a m","b it","c a","d ay","e ar","e ars","f i","g es","g an","i ct","l se","s w","s er","u me","Ġ ent","Ġ ru","Ġ âĢĶ","Ġa ri","Ġa ch","Ġi ll","Ġs ing","Ġs ent","at es","Ġp at","Ġp us","Ġm is","Ġm ass","er ate","Ġb or","Ġb ri","Ġb ad","Ġb rain","Ġc ertain","or d","or s","Ġg l","Ġg iven","en se","Ġl ess","Ġe lse","Ġn umb","Ġre st","Ġwi sh","Ġhe av","Ġli ve","ent ist","Ġan sw","ur t","ut ion","Ġst op","Ġst ep","Ġst rong","Ġst ead","et ition","ant s","it ing","it ies","Ġex c","Ġlo se","Ġlo ving","Ġlo ok","Ġne g","Ġle vel","Ġdi git","Ġch ar","Ġj oy","Ġhapp iness","Ġpo s","ment s","Ġsol ving","Ġevery one","Ġdifferen ce","Ġmind ful","Ġco st","Ġmat ters","Ġuse d","Ġuse ful","Ġforg iven","Ġwin ning","Ġr ather","Ġsmall er","Ġgreat er","Ġdec is","Ġdist ance","Ġsi ze","Ġgi ving","Ġcho ices","Ġchang ing","ie ve","Ġinst ead","Ġteach ing","Ġplanet s","Ġsk ill","Ġple ase","Ġpres ent","Ġhon or","Ġproject s","Ġprogram ming","Ġmess age","Ġfin ish","Ġfi x","Ġmem ory","Ġexper ience","Ġpunish ment","Ġsci entist","Ġgrou p","Ġmotiv ation","Ġbre ak","Ġach ieve","Ġsing le","Ġbri ght","Ġdigit al","' re","a c","a ction","b r","b t","b ot","e ver","g in","i ps","l le","m ed","p able","s ure","s pe","v ity","v ior","w are","Ġ \"","Ġ es","Ġa ir","re ed","at ing","at er","at ive","Ġthe se","Ġp en","Ġp ur","Ġp ress","Ġm ast","Ġf l","Ġf it","Ġf ire","er m","er ing","Ġb less","Ġb la","Ġb urd","Ġc lo","ou se","ou bt","Ġd ir","Ġto day","or ies","le br","Ġg ra","Ġy ears","Ġh ouse","Ġl ack","Ġl ater","ar ing","Ġe mp","Ġin v","Ġin side","Ġin ner","Ġbe h","Ġre li","Ġre lie","Ġre pe","Ġpr ide","ver ty","Ġst eps","Ġgo spe","ic al","id es","id er","ra ct","ra id","ra ge","ul es","Ġlo op","Ġsh ort","Ġsh ows","Ġde v","Ġga in","Ġgood ness","ff ee","Ġsp eed","Ġwork s","Ġwant s","ation s","Ġj ud","il ity","Ġun t","ate ly","Ġno body","Ġhappen ed","Ġexp ress","Ġpo verty","Ġcomp le","Ġcomp lex","Ġob st","Ġthink ing","Ġover c","Ġneed s","Ġint e","Ġany one","ci fic","Ġco op","Ġco lle","Ġco ffee","Ġper form","Ġag reed","Ġcons ider","ill ions","Ġbelie ve","Ġfe w","Ġspe cific","Ġaf raid","Ġinst antly","Ġconf used","Ġaction s","Ġheart s","Ġro bot","Ġapp ro","Ġho le","Ġfail ure","Ġdifficult y","Ġple as","Ġcall s","Ġenjoy able","Ġwri te","Ġmor ning","Ġsurv ive","Ġmer cy","Ġce lebr","Ġperf ect","Ġpat ience","Ġmass ive","Ġpen al","Ġpur p","Ġmast er","Ġgra vity","Ġgospe l","' d","a pp","b y","c re","f it","g ing","g ul","g est","i f","i z","i al","i ous","l er","n o","o l","o int","p r","r op","r ons","t he","u th","u ri","w or","Ġ hat","Ġt a","Ġa w","Ġa vo","Ġa uth","Ġi ce","Ġs c","Ġs ou","Ġs ide","Ġs ep","at a","at ures","Ġo ld","Ġo pp","Ġp ar","Ġp ay","Ġp ack","Ġm ar","Ġm ist","Ġm ult","Ġf il","Ġf ound","er ous","Ġb en","Ġc ou","Ġc ur","Ġc uri","Ġd ra","Ġd ang","Ġd oubt","Ġd ata","an ces","Ġh ig","Ġn urt","ll ing","Ġin ves","Ġin vo","Ġbe gin","Ġre l","Ġre ally","Ġre gul","ce ive","Ġwi se","Ġpr ot","Ġpr op","Ġpr iv","Ġfor m","Ġhe at","Ġhe ll","Ġli ves","Ġli qu","ke t","ri st","Ġme ch","Ġst ill","Ġst ud","Ġst ory","Ġor gan","Ġex t","Ġlo st","Ġdi rect","Ġsu ff","Ġch rist","il t","Ġdes p","Ġdes t","Ġdes ire","Ġtru ly","ren t","Ġwe ll","ck ed","Ġknow s","Ġca me","Ġca pable","Ġen ough","Ġal one","Ġv is","Ġpo int","Ġus ing","Ġgr ad","Ġcomp an","Ġbu ilt","odu ct","Ġtra verse","Ġear ly","Ġprodu ce","Ġprodu ces","Ġthan k","Ġplay er","Ġplay ers","Ġco ld","Ġplan s","Ġout side","Ġfind ing","Ġforg iving","Ġget s","Ġr ound","Ġr ules","Ġeff ect","Ġag ree","Ġdec ide","Ġla b","Ġla un","Ġcons ist","em n","Ġsl ave","Ġexist s","Ġcho ose","Ġcho ice","Ġmom ents","Ġfe ar","Ġsure ly","Ġte mp","Ġinst ru","Ġmove ment","Ġsur f","Ġset back","Ġdis co","Ġdis app","Ġtak ing","Ġho ld","Ġcomput ers","Ġsk y","Ġbr ing","Ġbr ings","Ġcl ose","Ġhon est","Ġrem ove","Ġsad ness","Ġemotion al","Ġad d","Ġar ound","Ġpass age","Ġdet erm","Ġele ct","Ġim ag","Ġsub ject","Ġquest ions","fi ction","Ġari se","Ġill usion","Ġpus h","Ġneg ative","Ġpos ition","Ġforgiven ess","Ġbla me","Ġbeh ind","Ġreli able","Ġpenal ty","Ġpurp ose","pr oduct","wor thy","Ġhat e","Ġauth or","Ġsep ar","Ġopp os","Ġben e","Ġcou rage","Ġcur rent","Ġdra w","Ġinves t","Ġinvo l","Ġregul ar","Ġliqu id","Ġmech an","Ġsuff ering","a p","a x","a il","b e","c her","c um","d s","d emn","f ull","g o","h ys","i a","i ly","i et","i ra","l t","n g","n ings","o ld","o ss","r ot","u es","u ght","u age","u cle","w ise","Ġ ra","Ġt r","Ġt in","Ġa ble","he ts","Ġw ond","Ġs he","Ġs at","Ġs om","Ġs im","Ġs our","re st","at ure","Ġp ie","Ġp ath","Ġp hys","Ġm ent","Ġf ra","Ġf all","Ġf ill","Ġb lo","Ġb les","Ġb ase","Ġb ody","Ġb illions","Ġc he","Ġc le","Ġd ue","on se","or r","Ġg ot","Ġg al","Ġh ar","Ġh ome","en ces","om es","Ġl ast","Ġl ang","Ġl oud","ar ch","Ġn ice","Ġn ucle","Ġin c","Ġin f","Ġbe ha","Ġit self","se d","Ġdo g","Ġdo cum","Ġre co","ed ay","Ġhe ad","Ġha ving","Ġha bit","Ġon go","ke y","ri es","Ġwor ry","Ġwor ship","Ġme et","Ġme as","Ġan ge","ur b","Ġst r","Ġst ra","Ġgo es","Ġgo als","id ence","Ġk ings","ee ch","Ġex a","Ġex cept","Ġlo ss","Ġlo sing","Ġne ar","pp ort","Ġpl ants","Ġle ave","Ġde m","Ġde al","Ġti red","Ġsu pport","ak es","Ġsp eech","Ġwho le","Ġdoes n","Ġcon demn","il ar","Ġcreat es","ter n","Ġca res","li ke","Ġen g","Ġal m","Ġimp oss","Ġhard sh","Ġhappen ing","ro ss","Ġab ility","Ġby product","Ġcomp etition","Ġid le","Ġpers ist","ong s","Ġri ver","Ġlearn ed","Ġsol id","ore d","iv id","Ġany whe","Ġhelp ful","Ġhim self","ci pl","Ġse en","Ġse cre","Ġtoo ls","Ġup on","Ġind ivid","Ġqu iet","Ġtea cher","Ġforg et","Ġsuccess ful","are d","Ġpart s","Ġla z","Ġcons ume","Ġmov ie","Ġdist urb","Ġsi mp","Ġfe atures","Ġtravel s","Ġcomm un","Ġcomm ands","Ġdesign er","Ġanim al","Ġconf usion","Ġac cept","Ġhop es","Ġend less","Ġwis hes","Ġcare full","Ġpres ence","Ġcar ries","Ġtoward s","Ġheal th","Ġconnect ion","Ġconnect ions","ag ing","Ġrem ain","Ġshare d","pl ace","Ġtrust worthy","Ġresp ond","Ġresp onse","Ġself less","Ġar t","Ġpull s","Ġmor nings","Ġrev en","Ġrev ise","Ġchallen ging","Ġwatch ing","Ġtri als","Ġtry ing","Ġoccur s","Ġpre v","Ġking dom","Ġdeli ver","Ġcont in","Ġintern al","Ġintern et","Ġcustom ers","Ġdevelop ment","Ġru n","Ġmis sing","Ġbor ing","Ġheav en","Ġansw er","Ġstead ily","Ġexc iting","Ġchar act","Ġdecis ions","Ġfinish ing","Ġscientist s","Ġes ca","Ġpress ure","Ġburd ens","Ġdir ty","Ġemp ty","Ġrelie f","Ġunt o","Ġcomple te","Ġoverc ome","Ġinte rest","Ġappro ach","the n","Ġta ught","Ġmar ket","Ġmist akes","Ġmult ip","Ġfil led","Ġhig her","ceive d","Ġprop hets","Ġpriv ate","Ġgrad ual","Ġlaun ch","Ġtemp er","Ġsurf ace","Ġdeterm ines","Ġimag ine","Ġauthor ity","Ġinvol ves","Ġtin y","Ġwond er","Ġsom eday","Ġsim ilar","Ġsour ce","Ġphys ical","Ġment al","Ġblo ck","Ġbles sed","Ġbase d","Ġgal ax","Ġlang uage","Ġnucle us","Ġdocum ent","Ġongo ing","Ġmeas ure","Ġange ls","Ġstra ight","Ġimposs ible","Ġhardsh ips","Ġanywhe re","cipl ine","Ġcarefull y","a ir","a ves","a ren","a ces","a cle","c ent","c ity","c oun","d er","f ts","g n","g ry","i od","i ves","i zing","i ze","i ences","o ke","p ri","p ut","p ect","s es","s ion","u nd","u als","v or","y e","y p","Ġ er","Ġ ve","Ġ rain","Ġt ou","Ġt end","Ġt able","Ġt ends","Ġa ff","he re","Ġw ind","Ġs on","Ġs le","Ġs ake","Ġs ort","Ġs ight","Ġs ens","Ġs ense","Ġs ongs","re ad","re as","at ur","Ġp u","Ġp it","Ġp len","Ġp ict","Ġm od","Ġf ou","Ġf ly","Ġf ight","Ġf lo","Ġb l","Ġb as","Ġb ir","Ġb ro","Ġb urn","Ġc ry","Ġd re","Ġd ri","or th","le ct","Ġg ri","Ġg ent","Ġg as","Ġh ands","Ġl ink","Ġl ord","Ġl ately","ar i","ar y","ar ity","Ġe ye","Ġn ation","Ġn atur","ll s","ve d","ve red","st ain","Ġof f","Ġin cur","Ġdo ct","ow ing","Ġre c","Ġre as","Ġre act","Ġre action","al th","al ity","Ġpr oud","Ġfor ms","Ġhe ar","Ġhe ed","Ġli k","Ġon es","Ġwor th","Ġme t","Ġan gry","ur ing","ut ions","Ġst u","Ġst ar","Ġst ru","Ġst ories","et ic","ad l","is on","is ible","is hed","Ġso ft","id d","id ance","Ġwhe ther","us ing","Ġor der","ch no","ra ctions","Ġmean ings","Ġex al","Ġsh ine","Ġsh aring","Ġle ft","Ġde ath","Ġde adl","Ġsu ch","Ġsu stain","Ġch ur","Ġga ve","Ġsp ot","Ġsp oke","Ġsp here","Ġev idence","Ġwork place","Ġwho ever","Ġwant ing","Ġcon tain","Ġdes ires","Ġdes ira","Ġun w","Ġwe ight","Ġwe alth","ate ful","end ing","ide red","Ġen em","Ġen sure","Ġal ong","Ġhard er","Ġhard ship","Ġv o","Ġexp ense","Ġab ove","Ġgr ateful","Ġcomp ass","Ġbu g","Ġri ch","Ġob e","Ġob ser","ack s","Ġsa vior","Ġtra ps","Ġtra ck","Ġear li","Ġsol ar","Ġsol utions","Ġover whe","Ġread y","Ġplay ing","ast e","Ġse qu","Ġse lling","Ġlif t","Ġplan ning","Ġper iod","Ġbuild s","Ġsee ms","Ġdescri pt","Ġqu ality","Ġtea ms","Ġtea ches","Ġout put","Ġreal ity","Ġbusiness es","Ġke eps","Ġgreat est","Ġgrow ing","Ġproduct s","we ight","Ġlight er","Ġpart ic","Ġthou gh","Ġcons idered","Ġlead ers","Ġdist ractions","Ġbelie vers","ie w","lo gy","Ġte chno","Ġprov en","Ġatt ract","Ġatt acks","Ġval id","Ġfoc used","ud ing","Ġsin s","Ġsur pri","Ġpower ful","Ġdis cipline","Ġtak en","Ġturn key","Ġimpro ves","Ġteach ings","Ġro ck","Ġact s","Ġact ive","Ġsay ing","Ġbig ger","Ġposs ess","Ġfocus ing","Ġac ce","Ġac coun","Ġcare ful","Ġagain st","Ġstreng then","Ġcl oud","Ġcar ry","Ġgu ide","Ġgu idance","Ġlist s","Ġask ing","Ġsystem s","Ġdark ness","Ġresp ect","os ity","Ġwri ting","Ġsign al","Ġsign if","Ġfi ction","Ġele ments","Ġrep ent","Ġrep res","Ġrep etition","Ġmem ories","Ġchallen ge","Ġchallen ges","Ġfact s","Ġexper iences","Ġbelief s","Ġrighteous ness","Ġtest ing","Ġim med","Ġwa it","Ġwa iting","Ġgen erous","Ġspend ing","Ġquest ion","Ġserv ice","Ġcustom er","ab les","Ġent ire","Ġsent ence","Ġbor n","Ġgl ad","Ġless on","Ġansw ers","Ġstop s","Ġstead y","Ġchar ge","Ġcost s","Ġdecis ion","Ġhonor able","Ġfix ing","ac les","Ġbless es","Ġclo ser","Ġinv ent","Ġinv isible","Ġrepe ated","Ġpride ful","Ġjud ge","Ġjud ges","Ġobst acle","Ġobst acles","Ġcoop er","Ġcoop erate","Ġcolle ge","Ġcelebr ate","Ġmaster y","ler ation","oint ment","Ġavo id","Ġsc ore","Ġcuri ous","Ġdang er","Ġnurt ure","Ġbegin ning","Ġprot ect","Ġhell o","Ġstud y","Ġorgan iz","Ġdesp ite","Ġcompan y","Ġinstru ctions","Ġdisco ver","Ġdisapp ointment","Ġadd ing","Ġelect rons","Ġsubject s","Ġbene fit","Ġcurrent ly","Ġdraw ing","Ġinvest ment","Ġmechan ic","ia h","Ġcle ar","Ġbeha vior","Ġhabit s","Ġexa mple","Ġsecre t","Ġindivid ual","Ġforget ful","Ġlaz y","Ġreven ue","Ġheaven ly","Ġcharact ers","Ġesca pe","Ġtemper ature","Ġer r","Ġtou ch","Ġsle ep","Ġsort s","Ġplen ty","Ġfou nder","Ġbas ic","Ġbir ds","Ġgri e","Ġgent le","Ġnatur al","Ġsoft ware","Ġdesira ble","Ġenem ies","Ġcompass ion","Ġoverwhe l","Ġtechno logy","Ġsurpri sing","Ġcloud s","Ġsignif ies","Ġimmed i","a i","a me","a ut","a id","a led","a pe","a ms","a ise","a ware","b b","b u","b ly","b ear","b ution","c on","c ond","c ated","c ution","d ir","d one","d rop","e mp","f e","f ting","g r","g or","g ed","g ory","g iving","g gest","h old","i ent","i ful","i fi","k ay","l u","l ing","l ay","l ic","l ate","l uding","o e","o st","o res","o cri","o ls","p ing","p art","p oint","r ing","r ay","r ate","r ink","s or","s en","s ures","s late","t es","t hat","t ed","t ic","t ak","t ies","t ty","u ge","u able","u ine","v ant","v ir","v ation","v ail","w im","y ing","y cle","z z","z ed","Ġ âĢ","Ġt y","Ġt reat","Ġt reas","Ġt aste","Ġa st","Ġa ge","Ġa ck","Ġa part","Ġa vail","Ġw on","Ġw ow","Ġw est","Ġw ast","Ġw ars","Ġw rot","Ġw oe","in ed","in ous","in ts","in ite","in etic","Ġs al","Ġs it","Ġs ist","Ġs we","Ġs co","Ġs ca","Ġs wim","re ly","at s","at ial","Ġo kay","Ġp ot","Ġp al","Ġm ode","Ġm ag","Ġm illions","Ġf al","Ġf ant","Ġf ue","Ġf ish","Ġf und","er y","er ally","Ġb ra","Ġb all","Ġb ang","Ġb ible","Ġc r","Ġc ri","Ġc ent","Ġc ate","Ġc ore","Ġc oun","Ġc ross","Ġc ycle","Ġd ee","Ġd ens","Ġd umb","Ġd am","Ġd rop","Ġd uring","Ġd rink","an slate","on ment","on able","Ġh ot","Ġh ur","Ġh and","Ġh ide","Ġh ist","Ġh ust","Ġh urd","Ġh urt","Ġh orr","Ġh yp","Ġh idd","Ġh uge","en ery","om ing","Ġl ay","Ġl ate","Ġl ower","ar ant","ar ison","Ġe ver","Ġe it","Ġe ast","Ġe tern","Ġwhat ever","Ġn ay","Ġn one","Ġn orm","Ġn orth","Ġn ame","th s","ve re","st op","st ances","Ġin h","Ġbe d","Ġbe l","Ġbe get","Ġbe gan","Ġbe aut","od le","se arch","ct ure","Ġre f","Ġre ve","Ġre ac","Ġre ceived","Ġre search","ot ions","ot ten","al k","Ġwi re","Ġwi cked","Ġpr ud","Ġpr ior","Ġpr aise","Ġfor ward","Ġhe y","Ġhe ld","Ġhe aled","Ġhe inous","ver n","Ġpe tty","Ġare a","ri city","ri bution","Ġwor thy","ent ly","ent ial","ent ifi","ut rons","Ġst ands","Ġst ored","Ġst ores","Ġgo vern","Ġnot ice","et ing","ic ed","ic ation","ic ates","ic ient","ad es","ad ise","is f","is es","is ion","Ġso ci","id st","ght s","it ive","as p","Ġor bit","ra ps","Ġpro fit","Ġk inetic","Ġex ch","Ġlo g","Ġlo cated","Ġsh ap","Ġsh ape","Ġne utrons","pp ed","um ing","Ġpl aces","Ġle ng","Ġde cept","Ġdi es","Ġsu p","Ġsu ggest","Ġgood s","Ġgood by","res ight","ru st","Ġsp ark","Ġsp read","Ġsp atial","Ġev ol","Ġwork ed","Ġwho se","Ġcon st","Ġcon cept","Ġcon cent","ation ship","Ġlike wise","Ġun p","Ġun it","Ġun less","Ġun cle","Ġun sure","Ġfa ir","Ġfa vor","Ġcreat ing","Ġcreat ion","Ġcreat iv","Ġcreat ures","now ledge","ter m","Ġknow n","Ġca red","end ed","li ct","li ght","Ġen sures","Ġen vir","Ġal gor","Ġv ast","Ġv ict","Ġv ari","Ġv iew","Ġfo resight","ro y","Ġab sor","Ġam ong","Ġam oun","Ġam idst","Ġpo ints","Ġpo odle","ist ic","Ġman age","Ġgr ant","Ġgr ound","Ġgr asp","Ġcomp ared","Ġcomp arison","Ġid entifi","Ġpers pect","Ġbu y","Ġbu nd","Ġri d","Ġri ches","ight y","Ġkind ness","Ġway ward","Ġsa id","Ġsa ves","Ġthere by","Ġtra p","Ġsol o","Ġsol ves","Ġsol ution","âĢ Ŀ","Ġover act","Ġbec omes","Ġres our","Ġany body","Ġplay ed","Ġhelp less","ci p","ci ful","ci ous","ci ally","Ġse es","Ġse arch","Ġmind s","ang ed","ness es","Ġper se","Ġper ceived","Ġup hold","Ġind icates","Ġstart ed","Ġearth ly","Ġtea m","Ġmat ches","Ġevil s","Ġwas h","Ġforg otten","Ġdescrib ed","Ġwin s","Ġfri ction","Ġr ot","Ġr ate","Ġr ates","Ġeff icient","Ġsmall est","Ġke ys","Ġwat ches","Ġpray ers","Ġproduct ive","Ġlight ly","Ġlight weight","Ġmost ly","Ġdec l","Ġdec ent","Ġdec iding","Ġdec ides","Ġdec ades","Ġmay be","Ġcons uming","Ġcons cious","get able","Ġsl ower","Ġsl aves","Ġworld s","Ġlead er","Ġdist ract","Ġdist ances","Ġdist rust","Ġday s","Ġgi ant","Ġgi ft","Ġgi fts","Ġexist ed","Ġexist ence","Ġcho sen","pe cially","Ġfe et","Ġfe lt","Ġfun ctions","Ġprov iding","Ġprov ides","Ġcomm and","Ġatt ain","Ġatt emp","Ġdesign ing","Ġval uable","Ġsin ce","Ġdis g","Ġconf using","Ġconf lict","Ġfaith ful","Ġturn s","Ġlar gest","Ġimpro ving","Ġro le","Ġro om","Ġro am","Ġact ually","Ġapp ly","Ġapp ear","Ġfull y","Ġac cur","Ġac ross","Ġsy mb","Ġback drop","Ġho ly","Ġend point","other s","Ġexpl an","Ġexpect ations","Ġmoment um","Ġser ve","Ġser ving","Ġser ious","Ġreward s","Ġstay ing","Ġprocess ing","Ġfail ing","Ġeasi ly","Ġspeak s","Ġpain s","Ġbr others","Ġcl ues","Ġcar ing","Ġcar rot","Ġcal m","Ġcal am","Ġcall ing","Ġgu ard","Ġgu iding","Ġgu arant","Ġem otions","Ġheal thy","Ġlist ens","Ġdep ri","Ġdep ending","Ġconnect s","Ġconnect ed","Ġask s","Ġmess iah","Ġfin ished","Ġinter act","Ġinter action","Ġfriend ly","Ġimprove d","Ġimprove ments","Ġsad ly","Ġtrust ing","Ġfoll ows","Ġslow ly","Ġtell s","Ġexplain s","os es","Ġdet ail","Ġdet ai","Ġele ment","Ġsun light","Ġama zed","Ġsucceed ed","Ġrequire d","fic ation","Ġtri al","Ġsci ence","Ġdid n","Ġgrou ps","Ġsave d","Ġsurv iving","Ġmotiv ated","Ġtest s","Ġwa ves","Ġoccur red","Ġoccur ring","Ġpre p","Ġmer ciful","Ġce lls","Ġgen uine","Ġgen erally","Ġearn ing","Ġmeaning ful","Ġdeli vers","Ġdeli ghts","Ġsub stances","Ġcont ribution","Ġweak en","Ġsmart er","Ġperf ume","Ġserv ices","Ġserv ants","Ġlisten ing","Ġdevelop ing","ab ly","Ġent ity","Ġari ses","Ġpus hes","Ġmis sion","Ġcertain ly","Ġcertain ty","ord s","Ġgl ass","Ġnumb er","Ġnumb ers","Ġheav y","Ġlive d","Ġstrong er","Ġstrong ly","Ġlook s","Ġlook ing","Ġneg lect","Ġpos itive","Ġfix ed","Ġbreak ing","Ġachieve ment","Ġbright ly","Ġes pecially","Ġfl ow","Ġfl ows","Ġbless ings","Ġburd en","Ġrelie ve","Ġdev otion","Ġgain ing","Ġunt il","Ġcomple ting","Ġcolle ction","Ġperform ing","Ġperform ance","Ġrobot s","Ġpleas ing","Ġcelebr ation","Ġaw ake","Ġaw aren","Ġavo iding","Ġsc enery","Ġsou th","Ġpar ables","Ġpar adise","Ġpay ing","Ġpack ed","Ġpack age","Ġcuri osity","Ġdang erous","Ġnurt ures","Ġrel ationship","Ġprot ons","Ġorgan ic","Ġext ra","Ġdesp air","Ġdest roy","Ġpoint less","Ġcompan ion","Ġround ed","Ġeffect ive","Ġlab s","Ġlab or","Ġconsist s","Ġconsist ent","Ġinstru ction","Ġsetback s","Ġdisco vered","Ġdisapp ear","Ġhold s","Ġclose ly","Ġelect ricity","Ġsepar ation","Ġsepar ately","Ġoppos ers","Ġoppos ite","Ġbene ath","Ġdraw ings","Ġregular ly","Ġmechan ics","ap or","be lie","Ġtr anslate","Ġshe l","Ġsat an","Ġsat isf","Ġpie ce","Ġpie ces","Ġfra me","Ġche cked","orr ow","Ġhar m","Ġhar sh","Ġloud er","Ġinc luding","Ġinf lu","Ġinf inite","Ġreco ver","Ġreco gn","Ġstr ange","Ġdem and","Ġdem ons","Ġdeal ings","Ġeng aging","Ġalm ost","Ġalm ighty","Ġpersist ence","Ġsimp ly","Ġcommun ities","Ġcommun ication","Ġprev ent","Ġprev ents","Ġcontin ues","Ġinterest ed","Ġmultip le","Ġlaunch ing","Ġblock s","Ġblock ing","Ġgalax y","Ġgalax ies","Ġdocument ation","Ġve getable","Ġaff ect","Ġsens ation","Ġpu zz","Ġpit ch","Ġpict ure","Ġmod erate","Ġfight s","Ġflo ating","Ġbl ind","Ġbro ke","Ġdre ams","Ġdri fting","Ġdoct or","Ġrec ords","Ġreact ing","Ġlik es","Ġmet al","Ġstu ff","Ġstru cture","Ġexal ts","Ġdeadl ines","Ġchur ch","Ġunw raps","Ġvo id","Ġbug s","Ġobser ving","Ġearli er","Ġsequ e","Ġdescript ion","Ġpartic les","Ġattract ive","Ġacce leration","Ġrepres ents","Ġinvent or","Ġjudge ment","Ġcooper ation","Ġprotect ion","Ġorganiz ed","Ġerr ors","Ġsleep y","Ġcompassion ate","Ġoverwhel med","Ġimmedi ate","ocri tes","ĠâĢ ľ","Ġtreas ures","Ġack nowledge","Ġavail able","Ġwast ed","Ġwrot e","Ġsal vation","Ġsist ers","Ġswe et","Ġsca le","Ġpot ential","Ġmode l","Ġmag n","Ġfal se","Ġbra ve","Ġcent er","Ġcate gory","Ġdee p","Ġdens ity","Ġdam age","Ġhist ory","Ġhust le","Ġhurd le","Ġhyp ocrites","Ġhidd en","Ġeit her","Ġetern al","Ġnorm al","Ġbeaut iful","Ġreac hed","Ġprud ence","Ġprior it","Ġsoci al","Ġshap ed","Ġleng ths","Ġdecept ion","Ġgoodby e","Ġevol ved","Ġconcent rate","Ġuncle ar","Ġfavor ite","Ġcreativ ity","Ġenvir onment","Ġalgor ith","Ġvict im","Ġabsor b","Ġidentifi ed","Ġoveract ive","Ġresour ces","Ġconscious ness","Ġaccur ate","Ġcalam ity","Ġguarant ee","Ġdetail s","Ġdetai led","Ġawaren ess","Ġinflu ence","Ġrecogn izing","Ġpuzz les"]}}