{"version":"1.0","truncation":null,"padding":null,"added_tokens":[{"id":0,"content":"<PAD>","single_word":false,"lstrip":false,"rstrip":false,"normalized":false,"special":true},{"id":1,"content":"<BOS>","single_word":false,"lstrip":false,"rstrip":false,"normalized":false,"special":true},{"id":2,"content":"<EOS>","single_word":false,"lstrip":false,"rstrip":false,"normalized":false,"special":true},{"id":3,"content":"<UNK>","single_word":false,"lstrip":false,"rstrip":false,"normalized":false,"special":true},{"id":4,"content":"{","single_word":false,"lstrip":false,"rstrip":false,"normalized":false,"special":true},{"id":5,"content":"}","single_word":false,"lstrip":false,"rstrip":false,"normalized":false,"special":true},{"id":6,"content":"[","single_word":false,"lstrip":false,"rstrip":false,"normalized":false,"special":true},{"id":7,"content":"]","single_word":false,"lstrip":false,"rstrip":false,"normalized":false,"special":true},{"id":8,"content":":","single_word":false,"lstrip":false,"rstrip":false,"normalized":false,"special":true},{"id":9,"content":",","single_word":false,"lstrip":false,"rstrip":false,"normalized":false,"special":true},{"id":10,"content":"\"","single_word":false,"lstrip":false,"rstrip":false,"normalized":false,"special":true},{"id":11,"content":"\n","single_word":false,"lstrip":false,"rstrip":false,"normalized":false,"special":true}],"normalizer":{"type":"Sequence","normalizers":[{"type":"NFC"},{"type":"Lowercase"}]},"pre_tokenizer":{"type":"ByteLevel","add_prefix_space":true,"trim_offsets":true,"use_regex":true},"post_processor":{"type":"TemplateProcessing","single":[{"SpecialToken":{"id":"<BOS>","type_id":0}},{"Sequence":{"id":"A","type_id":0}},{"SpecialToken":{"id":"<EOS>","type_id":0}}],"pair":[{"SpecialToken":{"id":"<BOS>","type_id":0}},{"Sequence":{"id":"A","type_id":0}},{"SpecialToken":{"id":"<EOS>","type_id":0}},{"Sequence":{"id":"B","type_id":1}},{"SpecialToken":{"id":"<EOS>","type_id":1}}],"special_tokens":{"<BOS>":{"id":"<BOS>","ids":[1],"tokens":["<BOS>"]},"<EOS>":{"id":"<EOS>","ids":[2],"tokens":["<EOS>"]}}},"decoder":{"type":"ByteLevel","add_prefix_space":true,"trim_offsets":true,"use_regex":true},"model":{"type":"BPE","dropout":null,"unk_token":null,"continuing_subword_prefix":null,"end_of_word_suffix":null,"fuse_unk":false,"byte_fallback":false,"ignore_merges":false,"vocab":{"<PAD>":0,"<BOS>":1,"<EOS>":2,"<UNK>":3,"{":4,"}":5,"[":6,"]":7,":":8,",":9,"\"":10,"\n":11,"!":12,"#":13,"$":14,"%":15,"&":16,"'":17,"(":18,")":19,"+":20,"-":21,".":22,"/":23,"0":24,"1":25,"2":26,"3":27,"4":28,"5":29,"6":30,"7":31,"8":32,"9":33,";":34,"?":35,"a":36,"b":37,"c":38,"d":39,"e":40,"f":41,"g":42,"h":43,"i":44,"j":45,"k":46,"l":47,"m":48,"n":49,"o":50,"p":51,"q":52,"r":53,"s":54,"t":55,"u":56,"v":57,"w":58,"x":59,"y":60,"z":61,"¡":62,"¢":63,"£":64,"©":65,"°":66,"Â":67,"Ã":68,"â":69,"Ċ":70,"Ġ":71,"Ģ":72,"ĵ":73,"Ķ":74,"ĺ":75,"Ļ":76,"ľ":77,"Ŀ":78,"ł":79,"Ġt":80,"Ġa":81,"in":82,"Ġth":83,"Ġs":84,"Ġthe":85,"at":86,"es":87,"er":88,"Ġc":89,"Ġw":90,"an":91,"or":92,"Ġp":93,"Ġb":94,"ing":95,"Ġto":96,"on":97,"Ġf":98,"ar":99,"Ġm":100,"Ġi":101,"nd":102,"Ġh":103,"re":104,"Ġand":105,"Ġd":106,"en":107,"om":108,"ou":109,"it":110,"al":111,"us":112,"le":113,"Ġo":114,"el":115,"Ġin":116,"Ġwh":117,"Ġst":118,"Ġis":119,"ed":120,"Ġl":121,"Ġthat":122,"Ġg":123,"ers":124,"et":125,"art":126,"il":127,"is":128,"Ġfor":129,"Ġof":130,"as":131,"ic":132,"ro":133,"Ġe":134,"ts":135,"ac":136,"up":137,"ow":138,"Ġy":139,"ir":140,"Ġcom":141,"ke":142,"ion":143,"Ġstart":144,"Ġn":145,"ess":146,"âĢ":147,"Ġyou":148,"ent":149,"Ġwhat":150,"Ġstartup":151,"ith":152,"Ġwith":153,"Ġcomp":154,"ec":155,"elp":156,"Ġdo":157,"ay":158,"Ġhelp":159,"Ġon":160,"Ġbu":161,"Ġpl":162,"Ġtheir":163,"Ġre":164,"Ġit":165,"op":166,"ve":167,"Ġpro":168,"ig":169,"id":170,"ag":171,"Ġcompan":172,"Ġgo":173,"Ġus":174,"Ġli":175,"ol":176,"am":177,"th":178,"for":179,"Ġma":180,"os":181,"Ġcan":182,"Ġpe":183,"ur":184,"'s":185,"ople":186,"Ġpeople":187,"âĢĻ":188,"Ġr":189,"ly":190,"ust":191,"Ġal":192,"form":193,"im":194,"Ġan":195,"Ġtr":196,"age":197,"Ġbuil":198,"ies":199,"Ġbus":200,"iness":201,"Ġbe":202,"Ġbusiness":203,"pp":204,"ce":205,"Ġcon":206,"Ġplat":207,"Ġplatform":208,"est":209,"Ġlike":210,"Ġbuild":211,"ch":212,"Ġcompany":213,"Ġne":214,"Ġsh":215,"ot":216,"out":217,"un":218,"Ġv":219,"ation":220,"ate":221,"king":222,"Ġman":223,"Ġfr":224,"Ġle":225,"Ġj":226,"ter":227,"Ġha":228,"oc":229,"Ġme":230,"Ġhelps":231,"Ġare":232,"Ġhow":233,"Ġwor":234,"and":235,"ant":236,"Ġthey":237,"Ġyour":238,"Ġor":239,"od":240,"uc":241,"ver":242,"st":243,"Ġsp":244,"are":245,"mp":246,"ustom":247,"Ġcustom":248,"Ġch":249,"Ġab":250,"ad":251,"Ġcre":252,"Ġall":253,"Ġthis":254,"Ġapp":255,"Ġde":256,"igh":257,"Ġby":258,"if":259,"vic":260,"Ġmake":261,"ial":262,"Ġfrom":263,"Ġser":264,"one":265,"ill":266,"ell":267,"ab":268,"Ġdoes":269,"Ġex":270,"ul":271,"Ġse":272,"Ġsm":273,"ob":274,"ind":275,"Ġthem":276,"iv":277,"ace":278,"ut":279,"ack":280,"Ġas":281,"Ġbuilding":282,"ents":283,"Ġwhy":284,"Ġpr":285,"Ġhe":286,"duc":287,"ants":288,"ist":289,"Ġgod":290,"ore":291,"Ġservic":292,"all":293,"Ġcompanies":294,"ans":295,"Ġmanage":296,"Ġproduc":297,"ome":298,"ine":299,"ment":300,"Ġmar":301,"Ġac":302,"Ġwe":303,"ard":304,"ket":305,"Ġso":306,"ity":307,"nt":308,"ks":309,"ect":310,"de":311,"Ġget":312,"Ġlo":313,"Ġtool":314,"ra":315,"ight":316,"ip":317,"Ġoth":318,"ure":319,"ide":320,"Ġallow":321,"Ġabout":322,"ive":323,"ort":324,"iz":325,"ass":326,"ld":327,"Ġad":328,"Ġhave":329,"Ġmarket":330,"Ġta":331,"um":332,"ĠâĢ":333,"ep":334,"lo":335,"fer":336,"Ġwants":337,"ail":338,"Ġcustomers":339,"Ġplan":340,"Ġpay":341,"Ġsa":342,"ions":343,"ings":344,"Ġmore":345,"ach":346,"Ġusers":347,"Ġfind":348,"Ġway":349,"Ġwhen":350,"Ġnew":351,"Ġexp":352,"Ġte":353,"ain":354,"âĢĿ":355,"Ġbusinesses":356,"ĠâĢľ":357,"em":358,"ie":359,"Ġservice":360,"Ġimp":361,"ime":362,"Ġat":363,"Ġhas":364,"ance":365,"als":366,"Ġwork":367,"qu":368,"Ġsmall":369,"rou":370,"Ġph":371,"Ġother":372,"Ġwho":373,"cess":374,"und":375,"ere":376,"Ġmy":377,"Ġbr":378,"Ġcl":379,"Ġpass":380,"00":381,"Ġun":382,"ft":383,"Ġk":384,"Ġbet":385,"arn":386,"Ġbut":387,"Ġfe":388,"ge":389,"Ġnot":390,"ving":391,"ign":392,"ile":393,"Ġdat":394,"Ġbec":395,"Ġsay":396,"vel":397,"aus":398,"our":399,"Ġprov":400,"kes":401,"Ġint":402,"ud":403,"able":404,"Ġproduct":405,"Ġsell":406,"act":407,"ations":408,"Ġgood":409,"Ġcreate":410,"eth":411,"Ġneed":412,"ors":413,"Ġeas":414,"Ġpassage":415,"ased":416,"Ġallows":417,"ens":418,"Ġsome":419,"ause":420,"wn":421,"ory":422,"ost":423,"Ġout":424,"ware":425,"pt":426,"Ġtime":427,"Ġup":428,"Ġdata":429,"ib":430,"Ġinv":431,"ct":432,"Ġwas":433,"Ġhis":434,"ence":435,"Ġemp":436,"line":437,"loy":438,"Ġbecause":439,"Ġwant":440,"Ġcur":441,"gh":442,"Ġcont":443,"ital":444,"Ġide":445,"Ġdid":446,"Ġtrack":447,"Ġuse":448,"Ġown":449,"ia":450,"Ġcomm":451,"Ġwill":452,"ocus":453,"Ġmean":454,"ftware":455,"Ġsoftware":456,"ire":457,"Ġlearn":458,"Ġemploy":459,"ars":460,"Ġinter":461,"oney":462,"Ġmoney":463,"Ġsy":464,"Ġfocus":465,"erson":466,"Ġshow":467,"Ġpart":468,"Ġcustomer":469,"ould":470,"Ġonline":471,"Ġinc":472,"Ġcons":473,"anc":474,"oo":475,"Ġen":476,"ame":477,"Ġmo":478,"ff":479,"alth":480,"Ġimport":481,"ah":482,"Ġspec":483,"ong":484,"row":485,"ting":486,"Ġidea":487,"Ġdes":488,"Ġ$":489,"Ġdif":490,"Ġthings":491,"Ġcurre":492,"se":493,"igital":494,"Ġperson":495,"Ġbig":496,"Ġhealth":497,"ry":498,"ub":499,"Ġconn":500,"ound":501,"Ġone":502,"very":503,"stem":504,"Ġrec":505,"Ġmed":506,"ally":507,"ments":508,"Ġsmart":509,"Ġsystem":510,"Ġdigital":511,"pl":512,"Ġres":513,"Ġsee":514,"Ġimportant":515,"Ġsup":516,"gy":517,"Ġbeing":518,"Ġoff":519,"ose":520,"Ġdiffer":521,"Ġprovid":522,"Ġset":523,"Ġsc":524,"Ġbuy":525,"low":526,"Ġemploye":527,"dit":528,"Ġke":529,"Ġcurrent":530,"Ġsom":531,"ocial":532,"Ġproducts":533,"ich":534,"ite":535,"Ġev":536,"Ġspace":537,"Ġif":538,"Ġhapp":539,"ount":540,"Ġwhere":541,"Ġcreat":542,"ize":543,"now":544,"Ġfir":545,"Ġacc":546,"Ġmakes":547,"Ġinvest":548,"Ġmeans":549,"Ġtake":550,"Ġbrand":551,"ise":552,"ice":553,"Ġweb":554,"Ġloo":555,"Ġstory":556,"Ġfin":557,"Ġdec":558,"acob":559,"Ġjacob":560,"gr":561,"Ġinto":562,"end":563,"Ġsol":564,"Ġind":565,"Ġsocial":566,"ful":567,"Ġpre":568,"Ġteam":569,"obile":570,"Ġwhich":571,"ims":572,"ites":573,"ets":574,"ood":575,"ue":576,"Ġqu":577,"ivers":578,"Ġro":579,"Ġbl":580,"ily":581,"Ġknow":582,"Ġcurrently":583,"wor":584,"Ġmobile":585,"Ġover":586,"ap":587,"Ġcredit":588,"rough":589,"ething":590,"Ġsomething":591,"fe":592,"Ġcol":593,"Ġvide":594,"Ġits":595,"ific":596,"ier":597,"velop":598,"Ġdevelop":599,"Ġspecial":600,"'t":601,"Ġworking":602,"Ġmaking":603,"Ġjob":604,"Ġgoals":605,"ath":606,"ree":607,"Ġusing":608,"ren":609,"arth":610,"Ġsupp":611,"fit":612,"Ġfam":613,"ast":614,"Ġbetter":615,"Ġemployees":616,"based":617,"Ġlets":618,"enc":619,"Ġris":620,"Ġearth":621,"Ġreal":622,"eph":623,"Ġaut":624,"Ġjos":625,"Ġservices":626,"Ġfirst":627,"Ġag":628,"Ġthrough":629,"ang":630,"Ġkeep":631,"Ġjoseph":632,"int":633,"Ġstr":634,"ech":635,"uch":636,"Ġfound":637,"ient":638,"ower":639,"Ġconnect":640,"ash":641,"Ġshare":642,"Ġent":643,"Ġund":644,"Ġmon":645,"ects":646,"xt":647,"Ġfood":648,"ear":649,"ated":650,"Ġret":651,"oses":652,"Ġprocess":653,"read":654,"Ġthen":655,"ase":656,"ual":657,"Ġbest":658,"Ġcommun":659,"Ġlist":660,"Ġfinanc":661,"ons":662,"Ġla":663,"Ġloc":664,"Ġgrow":665,"pr":666,"aging":667,"ook":668,"iend":669,"Ġdifferent":670,"hip":671,"way":672,"Ġdel":673,"ick":674,"illion":675,"Ġeasier":676,"Ġautom":677,"Ġmost":678,"Ġmoses":679,"Ġam":680,"Ġincl":681,"ves":682,"Ġco":683,"ates":684,"Ġday":685,"ical":686,"cr":687,"ning":688,"Ġcare":689,"Ġar":690,"Ġhome":691,"Ġsays":692,"Ġno":693,"Ġai":694,"Ġsal":695,"Ġright":696,"Ġtoo":697,"Ġhard":698,"Ġlooking":699,"Ġaims":700,"Ġrel":701,"Ġtra":702,"Ġfriend":703,"ience":704,"so":705,"we":706,"Ġaf":707,"Ġthan":708,"Ġdesign":709,"Ġinst":710,"Ġvideo":711,"ities":712,"Ġnet":713,"ds":714,"Ġcard":715,"rael":716,"Ġany":717,"Ġpartn":718,"get":719,"Ġback":720,"Ġfund":721,"Ġhigh":722,"Ġisrael":723,"Ġexper":724,"Ġprovides":725,"Ġ1":726,"Ġcle":727,"Ġlead":728,"Ġunivers":729,"Ġpersonal":730,"Ġmarketing":731,"Ġstay":732,"Ġoffer":733,"Ġevery":734,"Ġyes":735,"ible":736,"Ġ2":737,"Ġtech":738,"Ġfamily":739,"Ġwithout":740,"Ġban":741,"Ġcontent":742,"Ġop":743,"Ġlife":744,"Ġtry":745,"Ġdeli":746,"Ġdis":747,"ized":748,"Ġunders":749,"000":750,"ients":751,"Ġins":752,"Ġhelping":753,"tand":754,"Ġbased":755,"place":756,"Ġnetwor":757,"ify":758,"au":759,"av":760,"ink":761,"Ġsim":762,"Ġalso":763,"Ġmanagement":764,"Ġeff":765,"ult":766,"mand":767,"Ġcar":768,"ous":769,"Ġunderstand":770,"ble":771,"Ġsign":772,"Ġfail":773,"Ġeach":774,"Ġprogr":775,"Ġused":776,"ween":777,"Ġplace":778,"Ġshould":779,"Ġmany":780,"Ġhaving":781,"Ġbetween":782,"Ġem":783,"Ġuses":784,"Ġval":785,"Ġav":786,"Ġstars":787,"Ġvis":788,"les":789,"Ġthere":790,"Ġper":791,"Ġmedia":792,"ber":793,"ior":794,"Ġrest":795,"Ġsomeone":796,"ph":797,"Ġhim":798,"Ġdon":799,"Ġhappen":800,"ara":801,"Ġinform":802,"Ġless":803,"Ġtrans":804,"Ġour":805,"Ġrem":806,"Ġdeb":807,"Ġsave":808,"Ġdecis":809,"Ġsuc":810,"Ġbo":811,"Ġuniverse":812,"Ġpat":813,"Ġshar":814,"Ġsun":815,"Ġtrust":816,"Ġact":817,"Ġtravel":818,"oh":819,"ely":820,"der":821,"Ġmess":822,"Ġsame":823,"led":824,"Ġtaking":825,"ready":826,"Ġinclud":827,"Ġfinancial":828,"Ġgiv":829,"Ġalready":830,"ather":831,"Ġothers":832,"Ġconsum":833,"gan":834,"Ġbuilt":835,"Ġsupply":836,"ating":837,"ition":838,"unch":839,"Ġass":840,"ty":841,"Ġ'":842,"Ġmillion":843,"Ġtools":844,"rah":845,"Ġphara":846,"Ġwebs":847,"Ġpharaoh":848,"Ġcal":849,"round":850,"Ġtas":851,"Ġtell":852,"Ġfeel":853,"Ġprovide":854,"Ġstud":855,"ures":856,"ven":857,"ange":858,"Ġlight":859,"Ġsales":860,"raham":861,"ock":862,"Ġabraham":863,"Ġsend":864,"Ġpur":865,"ices":866,"ness":867,"Ġwr":868,"ages":869,"Ġapps":870,"atch":871,"Ġlong":872,"ists":873,"ov":874,"Ġsec":875,"ery":876,"Ġpo":877,"Ġmuch":878,"Ġorgan":879,"Ġcash":880,"Ġgive":881,"ility":882,"Ġimpro":883,"Ġkind":884,"Ġresp":885,"ater":886,"Ġwell":887,"arge":888,"Ġcompet":889,"Ġpayments":890,"Ġlearning":891,"Ġinformation":892,"lic":893,"Ġwould":894,"oun":895,"elf":896,"Ġisraelites":897,"ary":898,"own":899,"Ġjust":900,"Ġsch":901,"Ġfree":902,"Ġprom":903,"Ġmarketplace":904,"Ġexpens":905,"Ġeasy":906,"Ġindust":907,"Ġlaunch":908,"Ġincluding":909,"aur":910,"ram":911,"ward":912,"Ġplanets":913,"Ġdr":914,"thing":915,"Ġdevic":916,"Ġaccess":917,"Ġmonth":918,"Ġfriends":919,"Ġrestaur":920,"ak":921,"Ġbro":922,"Ġteach":923,"air":924,"bo":925,"Ġhand":926,"Ġaccount":927,"og":928,"aly":929,"lect":930,"Ġrisk":931,"Ġdecisions":932,"Ġproj":933,"Ġra":934,"Ġnext":935,"ether":936,"Ġretail":937,"Ġpower":938,"ish":939,"eh":940,"uit":941,"Ġanaly":942,"Ġworld":943,"Ġnetwork":944,"Ġdebt":945,"co":946,"Ġhum":947,"ict":948,"amp":949,"Ġdemand":950,"Ġsuccess":951,"ll":952,"ract":953,"Ġfol":954,"Ġmanaging":955,"Ġprior":956,"blem":957,"'re":958,"Ġproblem":959,"Ġoffers":960,"Ġallowing":961,"Ġbrands":962,"Ġpos":963,"ream":964,"Ġneeds":965,"Ġtechn":966,"Ġstartups":967,"iew":968,"Ġbring":969,"ron":970,"omm":971,"ics":972,"Ġegy":973,"Ġfocused":974,"Ġcommunic":975,"Ġlocal":976,"Ġtrying":977,"Ġtasks":978,"Ġegypt":979,"Ġthose":980,"Ġface":981,"Ġlet":982,"vert":983,"Ġphone":984,"Ġgoal":985,"Ġchat":986,"Ġclear":987,"ead":988,"Ġinsur":989,"Ġprogram":990,"Ġfollow":991,"Ġpriorit":992,"to":993,"yal":994,"Ġflow":995,"Ġdown":996,"Ġshop":997,"Ġcho":998,"Ġeng":999,"Ġ20":1000,"ovah":1001,"ehovah":1002,"reat":1003,"urn":1004,"ax":1005,"gether":1006,"Ġtw":1007,"Ġthink":1008,"Ġtogether":1009,"Ġdire":1010,"Ġaround":1011,"arch":1012,"ild":1013,"Ġeven":1014,"Ġafter":1015,"Ġexperience":1016,"Ġloyal":1017,"Ġatt":1018,"Ġdelivery":1019,"Ġconsumers":1020,"Ġimprove":1021,"ounts":1022,"Ġdirect":1023,"oid":1024,"par":1025,"Ġtal":1026,"Ġec":1027,"urs":1028,"Ġrun":1029,"ular":1030,"aac":1031,"Ġgu":1032,"Ġsearch":1033,"fits":1034,"Ġpartners":1035,"Ġfailure":1036,"Ġsharing":1037,"Ġtechnol":1038,"Ġinsurance":1039,"ied":1040,"ogy":1041,"Ġes":1042,"Ġisaac":1043,"Ġcomb":1044,"Ġprof":1045,"Ġselling":1046,"Ġlesson":1047,"Ġ3":1048,"Ġap":1049,"Ġben":1050,"Ġhot":1051,"Ġonly":1052,"Ġrep":1053,"Ġrent":1054,"Ġprice":1055,"Ġindustry":1056,"Ġfar":1057,"rep":1058,"Ġwhile":1059,"Ġstor":1060,"Ġyear":1061,"Ġphot":1062,"Ġintern":1063,"Ġcreating":1064,"ug":1065,"Ġjehovah":1066,"Ġplanning":1067,"Ġrisks":1068,"book":1069,"tion":1070,"Ġaway":1071,"Ġgra":1072,"Ġmade":1073,"Ġquick":1074,"rene":1075,"Ġentrep":1076,"Ġbank":1077,"Ġemail":1078,"Ġexpenses":1079,"Ġentreprene":1080,"Ġmeet":1081,"Ġspe":1082,"roup":1083,"Ġopen":1084,"Ġprioritize":1085,"Ġhol":1086,"oud":1087,"ouse":1088,"Ġgal":1089,"Ġgroup":1090,"ised":1091,"Ġdoct":1092,"Ġorder":1093,"ution":1094,"Ġshows":1095,"Ġart":1096,"Ġdist":1097,"Ġadvert":1098,"Ġsaving":1099,"Ġfut":1100,"Ġworks":1101,"Ġmoon":1102,"Ġtechnology":1103,"ved":1104,"Ġtar":1105,"Ġwere":1106,"Ġmist":1107,"imes":1108,"Ġmedical":1109,"Ġdevelopers":1110,"Ġfounders":1111,"Ġcombin":1112,"ually":1113,"Ġu":1114,"Ġest":1115,"Ġmach":1116,"Ġchang":1117,"Ġabram":1118,"Ġgetting":1119,"Ġbroth":1120,"Ġfuture":1121,"Ġfather":1122,"els":1123,"Ġplans":1124,"Ġmain":1125,"Ġchild":1126,"Ġpayment":1127,"Ġfunding":1128,"Ġgalax":1129,"pe":1130,"Ġbill":1131,"Ġopt":1132,"Ġneg":1133,"Ġspend":1134,"Ġlove":1135,"Ġconnects":1136,"aid":1137,"ert":1138,"Ġhire":1139,"Ġgen":1140,"ising":1141,"abor":1142,"Ġads":1143,"ten":1144,"Ġcod":1145,"Ġbook":1146,"Ġid":1147,"Ġstore":1148,"Ġform":1149,"Ġvir":1150,"Ġchange":1151,"Ġbene":1152,"Ġentrepreneurs":1153,"Ġtarget":1154,"Ġmista":1155,"Ġfre":1156,"Ġmod":1157,"Ġmight":1158,"Ġprofit":1159,"Ġmeant":1160,"ieve":1161,"Ġlisten":1162,"crip":1163,"Ġsignific":1164,"ss":1165,"Ġed":1166,"Ġsing":1167,"ough":1168,"Ġbud":1169,"ames":1170,"Ġvia":1171,"Ġvery":1172,"Ġsetting":1173,"Ġident":1174,"Ġtest":1175,"Ġdet":1176,"Ġeffic":1177,"Ġland":1178,"Ġtrad":1179,"Ġbeen":1180,"Ġexpand":1181,"Ġcloud":1182,"Ġmult":1183,"ross":1184,"uring":1185,"Ġsaas":1186,"Ġexpl":1187,"Ġcoll":1188,"Ġfacebook":1189,"gest":1190,"let":1191,"aster":1192,"Ġdoing":1193,"Ġlive":1194,"Ġmem":1195,"Ġcommon":1196,"Ġstrong":1197,"crib":1198,"Ġretailers":1199,"ky":1200,"Ġstill":1201,"Ġclients":1202,"Ġmove":1203,"board":1204,"Ġquickly":1205,"bit":1206,"ger":1207,"io":1208,"vant":1209,"Âł":1210,"Ġ(":1211,"Ġcity":1212,"ord":1213,"Ġhouse":1214,"ull":1215,"Ġadd":1216,"âĢĿ.":1217,"ways":1218,"Ġrelations":1219,"Ġrestaurants":1220,"Ġmachine":1221,"ave":1222,"ix":1223,"iqu":1224,"ple":1225,"time":1226,"tual":1227,"Ġbre":1228,"Ġfit":1229,"ession":1230,"fore":1231,"Ġmeas":1232,"Ġask":1233,"Ġpres":1234,"Ġblock":1235,"Ġpoint":1236,"Ġach":1237,"Ġmer":1238,"Ġmil":1239,"ential":1240,"ider":1241,"Ġinterest":1242,"Ġspecific":1243,"view":1244,"eles":1245,"aces":1246,"Ġalways":1247,"Ġbefore":1248,"Ġdifference":1249,"ences":1250,"Ġenter":1251,"Ġwebsite":1252,"Ġstudents":1253,"Ġsched":1254,"Ġvirtual":1255,"Ġbudget":1256,"Ġrelationship":1257,"back":1258,"ike":1259,"Ġcall":1260,"Ġpar":1261,"omes":1262,"ically":1263,"Ġdeal":1264,"Ġcommunity":1265,"Ġloyalty":1266,"Ġestate":1267,"Ġsignificance":1268,"cop":1269,"ek":1270,"vers":1271,"Ġboo":1272,"Ġhad":1273,"Ġteams":1274,"Ġavail":1275,"Ġassist":1276,"Ġsub":1277,"Ġthese":1278,"Ġcamp":1279,"Ġlow":1280,"Ġanim":1281,"chain":1282,"oti":1283,"Ġtext":1284,"Ġsupport":1285,"Ġnegoti":1286,"Ġefficient":1287,"cy":1288,"Ġteles":1289,"Ġpaid":1290,"Ġmet":1291,"Ġob":1292,"Ġold":1293,"Ġlot":1294,"Ġlarge":1295,"Ġearn":1296,"Ġplay":1297,"Ġfew":1298,"Ġfeat":1299,"Ġdesigned":1300,"Ġgrav":1301,"Ġtelescop":1302,"egr":1303,"Ġmus":1304,"ises":1305,"Ġnight":1306,"Ġacross":1307,"Ġdescrib":1308,"Ġeverything":1309,"Ġraised":1310,"Ġcollabor":1311,"Ġast":1312,"erce":1313,"itor":1314,"Ġtakes":1315,"Ġintegr":1316,"Ġconsider":1317,"Ġpartner":1318,"Ġvalue":1319,"Ġavoid":1320,"Ġsingle":1321,"ique":1322,"Ġavailable":1323,"Ġgravity":1324,"Ġmusic":1325,"ears":1326,"Ġsl":1327,"Ġwater":1328,"Ġpub":1329,"Ġstarting":1330,"Ġreven":1331,"Ġfinding":1332,"Ġinvent":1333,"Ġprofession":1334,"Ġgener":1335,"dict":1336,"iring":1337,"Ġname":1338,"Ġprot":1339,"Ġbuilds":1340,"Ġrevenue":1341,"ues":1342,"Ġty":1343,"Ġcount":1344,"ond":1345,"Ġnon":1346,"Ġnum":1347,"Ġcompare":1348,"Ġreally":1349,"Ġsav":1350,"Ġfeed":1351,"Ġhappens":1352,"ency":1353,"Ġastron":1354,"Ġinventory":1355,"wh":1356,"Ġair":1357,"Ġsur":1358,"Ġcost":1359,"Ġgro":1360,"Ġgame":1361,"Ġoften":1362,"earch":1363,"Ġesau":1364,"Ġbenefits":1365,"Ġblockchain":1366,"ries":1367,"ys":1368,"Ġthing":1369,"Ġsure":1370,"Ġgr":1371,"Ġgreat":1372,"Ġreg":1373,"osts":1374,"Ġconst":1375,"Ġincre":1376,"Ġresearch":1377,"Ġsolution":1378,"Ġsimple":1379,"Ġ201":1380,"pro":1381,"ruit":1382,"tle":1383,"ines":1384,"iting":1385,"ention":1386,"Ġang":1387,"Ġbeh":1388,"Ġboth":1389,"ommerce":1390,"care":1391,"ges":1392,"Ġput":1393,"Ġfl":1394,"Ġim":1395,"Ġlab":1396,"acking":1397,"Ġitem":1398,"Ġeasily":1399,"Ġaccounts":1400,"Ġinvestment":1401,"Ġjobs":1402,"Ġpurch":1403,"Ġdevices":1404,"ool":1405,"ses":1406,"uce":1407,"Ġcour":1408,"Ġcrow":1409,"Ġport":1410,"Ġapplic":1411,"ights":1412,"ains":1413,"Ġrecruit":1414,"pres":1415,"Ġeffect":1416,"Ġmistakes":1417,"Ġsubs":1418,"Ġdescribe":1419,"apt":1420,"br":1421,"bot":1422,"duce":1423,"ule":1424,"ones":1425,"Ġhon":1426,"Ġstep":1427,"ety":1428,"Ġbur":1429,"Ġread":1430,"Ġreward":1431,"Ġrepres":1432,"Ġmanag":1433,"Ġcla":1434,"Ġcontract":1435,"Ġevents":1436,"auts":1437,"avor":1438,"Ġdoctors":1439,"Ġcode":1440,"Ġidentify":1441,"Ġastronauts":1442,"'?":1443,"ser":1444,"Ġsens":1445,"ator":1446,"erm":1447,"ality":1448,"Ġnow":1449,"tern":1450,"lood":1451,"Ġunique":1452,"Ġinteract":1453,"Ġorganiz":1454,"Ġmultip":1455,"Ġassistant":1456,"Ġsavings":1457,"aign":1458,"Ġel":1459,"Ġaud":1460,"Ġwal":1461,"Ġseed":1462,"Ġemployers":1463,"Ġbuying":1464,"Ġpredict":1465,"prise":1466,"Ġoffering":1467,"Ġdeliver":1468,"Ġwebsites":1469,"Ġadvertising":1470,"Ġbrothers":1471,"Ġanimals":1472,"az":1473,"sh":1474,"ude":1475,"Ġaff":1476,"ative":1477,"Ġfaster":1478,"Ġmatch":1479,"Ġstream":1480,"ilar":1481,"Ġrece":1482,"Ġuser":1483,"ables":1484,"Ġworkers":1485,"Ġvideos":1486,"Ġautomat":1487,"Ġinstead":1488,"Ġgiving":1489,"Ġproject":1490,"Ġposs":1491,"Ġengine":1492,"Ġuk":1493,"Ġachieve":1494,"Ġcampaign":1495,"Ġfeedback":1496,"ruc":1497,"Ġcosts":1498,"Ġfavor":1499,"Ġgl":1500,"iss":1501,"Ġrequ":1502,"ther":1503,"Ġprices":1504,"Ġplanet":1505,"Ġblack":1506,"Ġoper":1507,"Ġsimilar":1508,"Ġprojects":1509,"Ġchildren":1510,"Ġfreel":1511,"cription":1512,"Ġnumber":1513,"bers":1514,"Ġself":1515,"Ġcars":1516,"arly":1517,"Ġhiring":1518,"Ġyears":1519,"Ġtracking":1520,"Ġsafe":1521,"phone":1522,"Ġpurp":1523,"Ġdevice":1524,"Ġphotos":1525,"Ġmeasure":1526,"ians":1527,"just":1528,"Ġtimes":1529,"Ġcent":1530,"rol":1531,"eck":1532,"Ġdep":1533,"Ġexist":1534,"Ġhealthcare":1535,"Ġsystems":1536,"Ġkey":1537,"Ġevent":1538,"Ġinvestors":1539,"Ġcollect":1540,"Ġmonitor":1541,"Ġleaders":1542,"Ġvisual":1543,"sel":1544,"ern":1545,"Ġwom":1546,"Ġbal":1547,"Ġmay":1548,"Ġduring":1549,"Ġcome":1550,"Ġref":1551,"Ġadjust":1552,"ourc":1553,"Ġindia":1554,"Ġpatients":1555,"Ġtwo":1556,"commerce":1557,"Ġ5":1558,"Ġsan":1559,"red":1560,"Ġstand":1561,"icing":1562,"Ġlook":1563,"Ġbless":1564,"ral":1565,"Ġve":1566,"Ġpot":1567,"Ġpast":1568,"Ġfair":1569,"itch":1570,"Ġpriv":1571,"Ġrespect":1572,"Ġhumans":1573,"Ġchanges":1574,"Ġspending":1575,"where":1576,"Ġmultiple":1577,"face":1578,"ious":1579,"power":1580,"uf":1581,"Ġbad":1582,"Ġhomes":1583,"Ġdail":1584,"Ġprop":1585,"ote":1586,"Ġappro":1587,"Ġheart":1588,"Ġautomate":1589,"Ġamaz":1590,"Ġperform":1591,"Ġmessaging":1592,"Ġdirectly":1593,"Ġspeed":1594,"Ġitems":1595,"Ġclaims":1596,"Ġdaily":1597,"lip":1598,"lish":1599,"Ġturn":1600,"Ġcities":1601,"Ġreview":1602,"Ġgoog":1603,"Ġtrain":1604,"Ġchar":1605,"Ġloans":1606,"Ġbeta":1607,"ource":1608,"Ġproviding":1609,"Ġemployee":1610,"Ġnoah":1611,"Ġeclip":1612,"Ġenterprise":1613,"Ġmete":1614,"Ġautomatically":1615,"Ġpurpose":1616,"rib":1617,"Ġtre":1618,"Ġsons":1619,"ests":1620,"Ġeat":1621,"Ġgoing":1622,"osp":1623,"Ġcontrol":1624,"Ġagain":1625,"Ġclean":1626,"Ġanalyz":1627,"Ġgroc":1628,"Ġpotential":1629,"ake":1630,"Ġhop":1631,"Ġhosp":1632,"Ġreach":1633,"Ġano":1634,"cept":1635,"ules":1636,"Ġloan":1637,"Ġtax":1638,"Ġpaying":1639,"ember":1640,"Ġphys":1641,"Ġowners":1642,"Ġquest":1643,"Ġcalled":1644,"Ġmonthly":1645,"Ġcommunicate":1646,"Ġinternet":1647,"Ġgoogle":1648,"Ġaar":1649,"itive":1650,"Ġconf":1651,"Ġvar":1652,"Ġvers":1653,"ife":1654,"Ġext":1655,"Ġgoods":1656,"Ġmov":1657,"Ġsolar":1658,"Ġdevelopment":1659,"Ġstrate":1660,"Ġactiv":1661,"Ġgives":1662,"Ġapart":1663,"Ġfeatures":1664,"Ġaaron":1665,"uter":1666,"Ġmind":1667,"Ġearly":1668,"Ġliving":1669,"allen":1670,"Ġclose":1671,"Ġsells":1672,"rypt":1673,"Ġrecip":1674,"Ġleader":1675,"Ġsuccessful":1676,"Ġgalaxies":1677,"Ġmodel":1678,"Ġtelescopes":1679,"selves":1680,"uth":1681,"Ġsin":1682,"Ġbillion":1683,"Ġtop":1684,"ale":1685,"Ġinf":1686,"ases":1687,"Ġend":1688,"urity":1689,"Ġleave":1690,"Ġche":1691,"Ġchallen":1692,"Ġcolle":1693,"Ġdisco":1694,"Ġprogress":1695,"Ġsecure":1696,"Ġhuman":1697,"Ġshopp":1698,"Ġaffect":1699,"gor":1700,"less":1701,"ms":1702,"sw":1703,"tics":1704,"Ġaim":1705,"Ġcr":1706,"Ġcould":1707,"Ġbel":1708,"Ġcharge":1709,"Ġdoesn":1710,"Ġseas":1711,"Ġthemselves":1712,"ivid":1713,"Ġwanted":1714,"Ġwilling":1715,"Ġlocation":1716,"Ġinclude":1717,"Ġdisc":1718,"Ġwrong":1719,"Ġanalytics":1720,"Ġtradition":1721,"Ġlaban":1722,"Ġcontractors":1723,"cum":1724,"fol":1725,"ipp":1726,"ne":1727,"Ġtent":1728,"Ġcap":1729,"Ġfil":1730,"Ġfull":1731,"lex":1732,"Ġlit":1733,"Ġcards":1734,"Ġremember":1735,"Ġpatient":1736,"Ġpromises":1737,"Ġchatbot":1738,"Ġstores":1739,"Ġmilky":1740,"Ġprofessionals":1741,"Ġcampaigns":1742,"Ġprivate":1743,"Ġphysical":1744,"tions":1745,"Ġsuch":1746,"Ġcut":1747,"Ġdream":1748,"Ġnames":1749,"Ġcand":1750,"Ġconc":1751,"Ġword":1752,"Ġways":1753,"Ġdidn":1754,"Ġconsist":1755,"Ġpersonalized":1756,"Ġmessage":1757,"Ġschool":1758,"Ġoptions":1759,"Ġmerch":1760,"Ġobj":1761,"Ġcollaborate":1762,"Ġconstell":1763,"Ġincrease":1764,"Ġsubscription":1765,"Ġhonest":1766,"Ġfavorite":1767,".âĢĿ":1768,"arm":1769,"Ġmin":1770,"Ġdash":1771,"Ġreduce":1772,"Ġmaint":1773,"Ġshe":1774,"Ġmanuf":1775,"Ġlend":1776,"Ġcheck":1777,"iven":1778,"kets":1779,"Ġideas":1780,"Ġsolve":1781,"Ġquality":1782,"Ġautomated":1783,"Ġsecurity":1784,"Ġbills":1785,"Ġprotect":1786,"Ġcrowd":1787,"Ġportfol":1788,"Ġpossible":1789,"Ġmeteor":1790,"Ġanother":1791,"Ġmanufact":1792,"Ġbible":1793,"Ġmen":1794,"Ġher":1795,"Ġhur":1796,"reen":1797,"Ġcomputer":1798,"Ġtrue":1799,"vern":1800,"ives":1801,"Ġpricing":1802,"Ġadapt":1803,"Ġnews":1804,"Ġtemp":1805,"Ġshowing":1806,"Ġenables":1807,"Ġbiggest":1808,"Ġsmartphone":1809,"Ġfamil":1810,"Ġbanks":1811,"Ġtranspar":1812,"Ġrestaurant":1813,"Ġhandle":1814,"Ġcommunication":1815,"ugg":1816,"Ġrepresent":1817,"powered":1818,"Ġtraditional":1819,"dr":1820,"ium":1821,"iety":1822,"ric":1823,"Ġwin":1824,"Ġfun":1825,"Ġmat":1826,"Ġinde":1827,"Ġgif":1828,"Ġreb":1829,"Ġlives":1830,"Ġansw":1831,"Ġtrip":1832,"term":1833,"Ġorbit":1834,"ellig":1835,"aper":1836,"Ġconnecting":1837,"Ġfinances":1838,"Ġhappening":1839,"ledge":1840,"Ġmembers":1841,"Ġbalance":1842,"ribut":1843,"Ġlittle":1844,"Ġdashboard":1845,"bor":1846,"iences":1847,"Ġ4":1848,"Ġthough":1849,"ann":1850,"Ġyet":1851,"Ġplaces":1852,"Ġgovern":1853,"Ġarea":1854,"Ġdef":1855,"Ġmoving":1856,"uber":1857,"Ġindivid":1858,"Ġhappened":1859,"Ġtransact":1860,"Ġproblems":1861,"ertain":1862,"Ġnegotiation":1863,"Ġcountries":1864,"aking":1865,"like":1866,"Ġbang":1867,"Ġmot":1868,"Ġhr":1869,"roll":1870,"Ġability":1871,"demand":1872,"Ġgets":1873,"Ġscore":1874,"Ġdeveloping":1875,"Ġfounder":1876,"Ġunder":1877,"Ġ10":1878,"Ġorganize":1879,"Ġrespons":1880,"Ġcombinator":1881,"Ġgalaxy":1882,"Ġamazon":1883,"oint":1884,"Ġtic":1885,"ford":1886,"Ġrules":1887,"Ġalt":1888,"Ġvo":1889,"Ġable":1890,"load":1891,"Ġener":1892,"Ġscient":1893,"Ġcreated":1894,"angu":1895,"Ġark":1896,"Ġschedule":1897,"Ġbooks":1898,"iec":1899,"vent":1900,"Ġking":1901,"Ġson":1902,"Ġsite":1903,"Ġwatch":1904,"Ġwife":1905,"ords":1906,"Ġpost":1907,"Ġpiec":1908,"onom":1909,"Ġlangu":1910,"isco":1911,"acts":1912,"Ġvent":1913,"Ġchain":1914,"iving":1915,"izing":1916,"Ġintellig":1917,"Ġhappy":1918,"Ġdecide":1919,"Ġprep":1920,"Ġagents":1921,"Ġfounded":1922,"Ġgrowing":1923,"Ġvisit":1924,"Ġlaunched":1925,"Ġrunning":1926,"Ġrelationships":1927,"Ġfreelanc":1928,"Ġseasons":1929,"Ġenergy":1930,"ress":1931,"yle":1932,"Ġuber":1933,"Ġcrypt":1934,"Ġpop":1935,"Ġbit":1936,"Ġfast":1937,"Ġgames":1938,"icro":1939,"Ġcomplet":1940,"Ġconvers":1941,"Ġfranc":1942,"Ġjud":1943,"ability":1944,"Ġinterface":1945,"Ġrecomm":1946,"Ġinvestments":1947,"Ġroom":1948,"Ġafford":1949,"Ġanyone":1950,"Ġchoices":1951,"Ġguid":1952,"Ġapi":1953,"ekah":1954,"Ġpublish":1955,"Ġregular":1956,"Ġmanagers":1957,"Ġapproach":1958,"Ġquestions":1959,"Ġshopping":1960,"Ġrebekah":1961,"Ġfrancisco":1962,"Ġrecommend":1963,"ee":1964,"Ġsk":1965,"Ġce":1966,"Ġfix":1967,"Ġflood":1968,"Ġmiss":1969,"Ġiss":1970,"Ġrates":1971,"ceed":1972,"Ġshort":1973,"Ġservant":1974,"Ġbecome":1975,"Ġslack":1976,"Ġglob":1977,"Ġperformance":1978,"Ġcandid":1979,"Ġaltar":1980,"Ġscientists":1981,"aut":1982,"ling":1983,"ps":1984,"Ġtab":1985,"esus":1986,"Ġband":1987,"Ġmom":1988,"Ġmicro":1989,"Ġelect":1990,"Ġhelped":1991,"Ġlived":1992,"the":1993,"Ġlevel":1994,"Ġjour":1995,"Ġjesus":1996,"Ġworth":1997,"ively":1998,"Ġwear":1999,"Ġproviders":2000,"Ġscale":2001,"Ġrole":2002,"Ġknowledge":2003,"Ġremote":2004,"Ġattention":2005,"Ġdeterm":2006,"Ġrecipe":2007,"Ġfamilies":2008,"Ġintelligence":2009,"app":2010,"ffor":2011,"ked":2012,"oy":2013,"Ġpitch":2014,"Ġfa":2015,"Ġlower":2016,"Ġeffor":2017,"acle":2018,"Ġcomets":2019,"Ġrele":2020,"Ġalgor":2021,"Ġview":2022,"Ġsmaller":2023,"ired":2024,"Ġincome":2025,"Ġcreates":2026,"Ġinvesting":2027,"Ġlaw":2028,"Ġgrowth":2029,"Ġdays":2030,"Ġexperiences":2031,"Ġcompetition":2032,"Ġchoose":2033,"Ġdistribut":2034,"Ġconstellations":2035,"Ġvoice":2036,"Ġalgorith":2037,"ders":2038,"day":2039,"yc":2040,"Ġsac":2041,"Ġside":2042,"Ġcor":2043,"Ġcam":2044,"Ġpol":2045,"Ġment":2046,"Ġmass":2047,"Ġopp":2048,"etimes":2049,"Ġforg":2050,"Ġrach":2051,"Ġplatforms":2052,"Ġnear":2053,"ational":2054,"Ġpray":2055,"Ġexpect":2056,"Ġoffice":2057,"Ġsometimes":2058,"Ġroad":2059,"work":2060,"Ġagree":2061,"Ġreturn":2062,"Ġvalu":2063,"Ġshared":2064,"Ġcompete":2065,"Ġpromise":2066,"Ġcalls":2067,"Ġtyp":2068,"Ġrewards":2069,"Ġorganizations":2070,"Ġelse":2071,"Ġreceive":2072,"ernacle":2073,"Ġwomen":2074,"Ġvariety":2075,"Ġversion":2076,"Ġdiscover":2077,"Ġfreelancers":2078,"Ġtabernacle":2079,"Ġrachel":2080,"ging":2081,"head":2082,"pect":2083,"person":2084,"Ġsum":2085,"Ġpull":2086,"Ġtoward":2087,"Ġfig":2088,"ark":2089,"Ġmid":2090,"Ġhist":2091,"Ġdest":2092,"Ġstop":2093,"ilities":2094,"Ġcoming":2095,"Ġgot":2096,"urren":2097,"ocks":2098,"ocurren":2099,"Ġmarkets":2100,"ĠâĢĶ":2101,"Ġpayroll":2102,"irement":2103,"Ġprepar":2104,"Ġreli":2105,"Ġguide":2106,"Ġexisting":2107,"Ġmatter":2108,"Ġcryptocurren":2109,"Ġglobal":2110,"ban":2111,"ian":2112,"mers":2113,"te":2114,"ork":2115,"Ġbar":2116,"Ġtouch":2117,"Ġhost":2118,"Ġstations":2119,"Ġlar":2120,"Ġlink":2121,"Ġgold":2122,"Ġappoint":2123,"Ġfee":2124,"Ġbigger":2125,"Ġroc":2126,"Ġstrugg":2127,"Ġretirement":2128,"Ġcover":2129,"Ġstudent":2130,"Ġraise":2131,"Ġegyptians":2132,"Ġfollowing":2133,"ording":2134,"Ġbreak":2135,"Ġparents":2136,"Ġpublic":2137,"Ġtype":2138,"Ġimages":2139,"ralized":2140,"Ġmerchants":2141,"Ġportfolio":2142,"Ġanswer":2143,"Ġfigure":2144,"20":2145,"cul":2146,"come":2147,"ex":2148,"gth":2149,"joy":2150,"Ġtreat":2151,"Ġahead":2152,"Ġsw":2153,"ats":2154,"Ġbor":2155,"Ġmag":2156,"Ġdone":2157,"Ġstock":2158,"Ġgas":2159,"Ġequ":2160,"ides":2161,"Ġleg":2162,"ands":2163,"vice":2164,"Ġaccept":2165,"âĢĿ,":2166,"Ġclass":2167,"Ġenjoy":2168,"Ġcurren":2169,"ape":2170,"Ġamount":2171,"Ġeveryone":2172,"Ġunderstanding":2173,"Ġgiven":2174,"Ġeconom":2175,"Ġmeetings":2176,"Ġholy":2177,"Ġholes":2178,"Ġdoctor":2179,"Ġtesting":2180,"Ġbooking":2181,"Ġbehav":2182,"Ġpurchase":2183,"Ġeffective":2184,"Ġsince":2185,"Ġconsistent":2186,"Ġtickets":2187,"by":2188,"fic":2189,"self":2190,"uite":2191,"ĠĊ":2192,"ins":2193,"Ġclo":2194,"Ġcaus":2195,"Ġwent":2196,"Ġpu":2197,"Ġpill":2198,"Ġbra":2199,"Ġdark":2200,"Ġrate":2201,"Ġbeaut":2202,"Ġwords":2203,"Ġdeals":2204,"ials":2205,"Ġexc":2206,"Ġadv":2207,"Ġadam":2208,"Ġsaying":2209,"ense":2210,"Ġpartic":2211,"Ġbuyers":2212,"Ġfinance":2213,"hips":2214,"Ġvalues":2215,"Ġcalcul":2216,"Ġwrite":2217,"Ġpowerful":2218,"Ġartists":2219,"Ġoptim":2220,"Ġrecruiting":2221,"Ġsteps":2222,"Ġcapital":2223,"Ġmanufactur":2224,"Ġtransactions":2225,"Ġcandidates":2226,"Ġdetermine":2227,"iver":2228,"ole":2229,"ried":2230,"ters":2231,"Ġsuite":2232,"Ġpack":2233,"Ġbas":2234,"Ġfac":2235,"aring":2236,"Ġhour":2237,"ened":2238,"outs":2239,"Ġstation":2240,"Ġyork":2241,"Ġwithin":2242,"Ġride":2243,"Ġconfer":2244,"Ġshipp":2245,"Ġareas":2246,"Ġexch":2247,"Ġasking":2248,"Ġsaf":2249,"Ġkid":2250,"Ġfocusing":2251,"Ġimportance":2252,"ificial":2253,"Ġkeeping":2254,"Ġcoff":2255,"Ġcareful":2256,"Ġsale":2257,"Ġ100":2258,"Ġmessages":2259,"Ġconsumer":2260,"Ġlaunching":2261,"Ġartificial":2262,"Ġbrother":2263,"Ġeduc":2264,"Ġapplications":2265,"Ġsense":2266,"Ġgrocery":2267,"Ġmovie":2268,"Ġprepare":2269,"Ġaffordable":2270,"Ġcamer":2271,"Ġsumm":2272,"Ġbehavior":2273,"'ll":2274,"lu":2275,"mart":2276,"set":2277,"ining":2278,"Ġsle":2279,"erc":2280,"eric":2281,"Ġple":2282,"Ġpet":2283,"Ġfact":2284,"Ġfire":2285,"Ġdivers":2286,"rop":2287,"Ġones":2288,"agram":2289,"osing":2290,"Ġleft":2291,"Ġchann":2292,"utions":2293,"Ġimpact":2294,"Ġinterests":2295,"Ġinstagram":2296,"Ġnetworks":2297,"Ġremind":2298,"Ġsending":2299,"Ġaccounting":2300,"Ġattract":2301,"Ġhotel":2302,"Ġpresent":2303,"Ġpresence":2304,"Ġaudience":2305,"ources":2306,"Ġhospital":2307,"Ġobjects":2308,"Ġpopular":2309,"10":2310,"aan":2311,"do":2312,"iel":2313,"mit":2314,"oot":2315,"ring":2316,"Ġauth":2317,"Ġsar":2318,"Ġsource":2319,"orts":2320,"Ġpict":2321,"Ġbike":2322,"Ġmount":2323,"Ġstarted":2324,"Ġlif":2325,"Ġlibr":2326,"amed":2327,"Ġcanaan":2328,"teroid":2329,"antly":2330,"ody":2331,"uling":2332,"Ġasteroid":2333,"ibility":2334,"Ġrecords":2335,"Ġmedic":2336,"Ġsuppl":2337,"Ġscreen":2338,"Ġanywhere":2339,"Ġpattern":2340,"venant":2341,"Ġletting":2342,"Ġtalks":2343,"Ġgroups":2344,"Ġlistening":2345,"Ġapplication":2346,"Ġcenter":2347,"Ġeclipses":2348,"Ġinflu":2349,"Ġlanguage":2350,"Ġmoment":2351,"Ġcoffee":2352,"Ġsleep":2353,"Ġsarah":2354,"be":2355,"ker":2356,"zz":2357,"erg":2358,"Ġdi":2359,"itter":2360,"use":2361,"ilt":2362,"Ġnav":2363,"Ġusually":2364,"oss":2365,"Ġpeer":2366,"Ġtrou":2367,"Ġhabit":2368,"Ġspread":2369,"Ġhead":2370,"istic":2371,"Ġmars":2372,"raid":2373,"Ġbright":2374,"Ġunc":2375,"Ġupload":2376,"Ġshowers":2377,"Ġcreators":2378,"rength":2379,"encies":2380,"Ġconnected":2381,"Ġcovenant":2382,"Ġafraid":2383,"Ġsimpl":2384,"Ġdecision":2385,"Ġchanging":2386,"Ġfitness":2387,"Ġscheduling":2388,"Ġcourses":2389,"Ġ50":2390,"Ġtraining":2391,"Ġanalyze":2392,"Ġcollege":2393,"ney":2394,"Ġmaintain":2395,"Ġlending":2396,"Ġcomplete":2397,"Ġhistory":2398,"Ġcryptocurrency":2399,"Ġappointments":2400,"Ġlegal":2401,"Ġmanufacturers":2402,"'m":2403,"aving":2404,"fund":2405,"ken":2406,"kers":2407,"light":2408,"ming":2409,"racts":2410,"ture":2411,"Ġing":2412,"Ġtable":2413,"Ġsites":2414,"eries":2415,"Ġpain":2416,"ared":2417,"Ġste":2418,"Ġdoor":2419,"Ġround":2420,"Ġnever":2421,"Ġspot":2422,"abase":2423,"Ġsever":2424,"Ġlog":2425,"Ġclos":2426,"Ġdatabase":2427,"Ġparty":2428,"Ġenough":2429,"Ġevil":2430,"Ġameric":2431,"Ġbox":2432,"Ġboard":2433,"Ġactions":2434,"Ġcompetitive":2435,"Ġteaches":2436,"Ġpartnership":2437,"profits":2438,"Ġhurt":2439,"Ġgovernment":2440,"Ġventure":2441,"Ġtowards":2442,"Ġexchange":2443,"Ġnavig":2444,"flow":2445,"hic":2446,"pend":2447,"rom":2448,"Ġz":2449,"ination":2450,"Ġthree":2451,"Ġsent":2452,"Ġslow":2453,"Ġblood":2454,"ret":2455,"Ġstrength":2456,"ires":2457,"irst":2458,"Ġdocum":2459,"ural":2460,"Ġrout":2461,"Ġaltern":2462,"Ġasks":2463,"raph":2464,"ortun":2465,"Ġsaid":2466,"Ġsellers":2467,"Ġcontracts":2468,"Ġdiffic":2469,"Ġfirm":2470,"Ġaccording":2471,"Ġsucceed":2472,"Ġcalm":2473,"Ġmonths":2474,"aker":2475,"Ġprograms":2476,"Ġtalent":2477,"Ġtalking":2478,"Ġfarmers":2479,"Ġexplain":2480,"Ġpurchases":2481,"Ġburn":2482,"Ġblessing":2483,"Ġeclipse":2484,"Ġcleaning":2485,"Ġstrateg":2486,"Ġstrategy":2487,"Ġchallenges":2488,"Ġtransparent":2489,"Ġsacr":2490,"Ġopportun":2491,"Ġingred":2492,"Ġdocuments":2493,"Ġdifficult":2494,"Ġsug":2495,"Ġcir":2496,"Ġwa":2497,"Ġwis":2498,"Ġpick":2499,"Ġpaper":2500,"Ġbrow":2501,"Ġhole":2502,"Ġoil":2503,"Ġgard":2504,"Ġplant":2505,"Ġorders":2506,"Ġpries":2507,"Ġadvant":2508,"Ġtracks":2509,"Ġlearned":2510,"Ġinterview":2511,"Ġcreative":2512,"Ġdecent":2513,"Ġprefer":2514,"Ġagencies":2515,"Ġhardware":2516,"Ġvision":2517,"Ġassets":2518,"Ġteachers":2519,"ograph":2520,"ample":2521,"Ġtwitter":2522,"Ġreport":2523,"Ġasked":2524,"Ġtelescope":2525,"Ġprofessional":2526,"Ġbehind":2527,"Ġcourse":2528,"Ġvehic":2529,"Ġguidance":2530,"Ġissues":2531,"Ġreliable":2532,"Ġpuzz":2533,"Ġinfluenc":2534,"Ġingredients":2535,"Ġpuzzle":2536,"com":2537,"man":2538,"per":2539,"sc":2540,"vir":2541,"Ġouts":2542,"Ġtree":2543,"Ġcou":2544,"oring":2545,"Ġpod":2546,"Ġbread":2547,"Ġhous":2548,"its":2549,"itals":2550,"Ġey":2551,"ird":2552,"Ġdog":2553,"Ġhelpful":2554,"old":2555,"Ġpeace":2556,"urring":2557,"ified":2558,"Ġpract":2559,"Ġbrings":2560,"iled":2561,"ube":2562,"Ġdesigners":2563,"Ġfunds":2564,"Ġbanking":2565,"Ġperf":2566,"Ġactually":2567,"Ġwriting":2568,"Ġdrivers":2569,"Ġhands":2570,"Ġengage":2571,"Ġphoto":2572,"Ġmeeting":2573,"Ġmistake":2574,"Ġplaying":2575,"Ġangry":2576,"Ġproper":2577,"driven":2578,"Ġthought":2579,"Ġjudah":2580,"Ġelectric":2581,"Ġjourney":2582,"Ġvaluable":2583,"Ġeconomy":2584,"Ġasteroids":2585,"Ġgarden":2586,"Ġdecentralized":2587,"bu":2588,"cts":2589,"dom":2590,"first":2591,"iers":2592,"kit":2593,"kay":2594,"mb":2595,"med":2596,"of":2597,"smart":2598,"ump":2599,"Ġur":2600,"Ġens":2601,"Ġtv":2602,"Ġthin":2603,"Ġsize":2604,"Ġsky":2605,"ores":2606,"ories":2607,"ont":2608,"Ġfill":2609,"aries":2610,"Ġios":2611,"used":2612,"Ġeph":2613,"Ġcomes":2614,"Ġreas":2615,"Ġpros":2616,"Ġlimit":2617,"Ġrather":2618,"Ġneigh":2619,"Ġvac":2620,"Ġcustomized":2621,"Ġchains":2622,"Ġapply":2623,"Ġexample":2624,"Ġseen":2625,"Ġsepar":2626,"ivity":2627,"Ġphil":2628,"Ġphones":2629,"Ġneeded":2630,"Ġupset":2631,"Ġinvo":2632,"Ġinvol":2633,"Ġrecurring":2634,"Ġscience":2635,"Ġinstruc":2636,"Ġleads":2637,"Ġpoor":2638,"Ġkinds":2639,"Ġrespond":2640,"ogn":2641,"Ġtalk":2642,"Ġ30":2643,"Ġprofitable":2644,"Ġefficiently":2645,"Ġintegrate":2646,"Ġinteractive":2647,"Ġaudio":2648,"Ġengineers":2649,"Ġoperations":2650,"Ġtrend":2651,"Ġhospitals":2652,"Ġbelieve":2653,"Ġdiscounts":2654,"Ġminim":2655,"born":2656,"Ġindividual":2657,"Ġmotiv":2658,"Ġfaith":2659,"Ġlibrary":2660,"Ġhabits":2661,"Ġseveral":2662,"Ġbrowser":2663,"50":2664,"emp":2665,"found":2666,"gre":2667,"iate":2668,"ner":2669,"social":2670,"uals":2671,"Ġ8":2672,"Ġer":2673,"Ġess":2674,"Ġthird":2675,"Ġwarm":2676,"Ġpers":2677,"Ġpil":2678,"Ġpun":2679,"Ġdie":2680,"itors":2681,"Ġokay":2682,"Ġsta":2683,"Ġstocks":2684,"asing":2685,"acy":2686,"ows":2687,"ently":2688,"Ġcomput":2689,"Ġonce":2690,"Ġcann":2691,"Ġann":2692,"Ġworried":2693,"Ġyourself":2694,"iful":2695,"ults":2696,"ute":2697,"Ġworkflow":2698,"Ġsymb":2699,"Ġparts":2700,"Ġrecogn":2701,"Ġcreator":2702,"Ġaccur":2703,"Ġsold":2704,"Ġprevent":2705,"Ġtook":2706,"Ġbacked":2707,"augh":2708,"Ġemot":2709,"Ġlonger":2710,"Ġaccessible":2711,"Ġcombination":2712,"peer":2713,"criptions":2714,"Ġdetect":2715,"Ġfeature":2716,"Ġdepend":2717,"Ġvend":2718,"Ġagainst":2719,"Ġtaxes":2720,"Ġapartment":2721,"Ġaiming":2722,"Ġgift":2723,"Ġmental":2724,"Ġagreement":2725,"Ġcurrency":2726,"Ġparticular":2727,"Ġshipping":2728,"Ġcamera":2729,"Ġpatterns":2730,"Ġpodc":2731,"Ġessential":2732,"Ġpunish":2733,"Ġsymbol":2734,"den":2735,"ever":2736,"ma":2737,"tube":2738,"ugh":2739,"vest":2740,"erat":2741,"Ġcoo":2742,"Ġcame":2743,"Ġwon":2744,"Ġbot":2745,"Ġfall":2746,"Ġfoot":2747,"Ġmill":2748,"Ġhag":2749,"Ġdaugh":2750,"Ġgain":2751,"Ġeating":2752,"Ġyoutube":2753,"Ġreplace":2754,"Ġrule":2755,"Ġtruth":2756,"Ġleaving":2757,"Ġmeal":2758,"Ġspo":2759,"Ġspaces":2760,"ade":2761,"raw":2762,"raft":2763,"izes":2764,"Ġatm":2765,"Ġenvir":2766,"ffic":2767,"Ġprocesses":2768,"Ġanything":2769,"Ġtask":2770,"Ġtelling":2771,"Ġindustries":2772,"Ġdrive":2773,"box":2774,"Ġformer":2775,"Ġexplore":2776,"Ġmember":2777,"Ġinterested":2778,"Ġwalk":2779,"Ġstreamline":2780,"Ġfreelance":2781,"Ġwoman":2782,"Ġcharges":2783,"Ġhopes":2784,"Ġmovies":2785,"Ġactivity":2786,"Ġactivities":2787,"Ġtemperat":2788,"Ġindepend":2789,"Ġ40":2790,"Ġprepared":2791,"Ġlinked":2792,"Ġeducation":2793,"Ġchannels":2794,"Ġtrouble":2795,"funding":2796,"Ġalternative":2797,"Ġsuggest":2798,"Ġadvantage":2799,"Ġproperty":2800,"Ġhagar":2801,"Ġenviron":2802,"30":2803,"bn":2804,"bs":2805,"dle":2806,"ler":2807,"over":2808,"uff":2809,"Ġ-":2810,"Ġball":2811,"Ġful":2812,"Ġfash":2813,"Ġmor":2814,"Ġmention":2815,"Ġhund":2816,"Ġdom":2817,"Ġground":2818,"ister":2819,"acec":2820,"Ġyum":2821,"Ġnamed":2822,"Ġonboard":2823,"Ġmap":2824,"Ġanc":2825,"une":2826,"Ġven":2827,"Ġspir":2828,"Ġspacec":2829,"Ġapple":2830,"Ġseries":2831,"Ġexec":2832,"Ġtail":2833,"log":2834,"Ġfees":2835,"Ġproductivity":2836,"Ġfocuses":2837,"ances":2838,"Ġmoves":2839,"Ġsuper":2840,"Ġlooks":2841,"Ġitself":2842,"Ġhigher":2843,"Ġinformed":2844,"Ġtransfer":2845,"Ġsends":2846,"Ġrepair":2847,"Ġemails":2848,"Ġspeak":2849,"Ġbudgeting":2850,"Ġnegotiate":2851,"Ġearning":2852,"profit":2853,"Ġflights":2854,"Ġcrowds":2855,"Ġeffectively":2856,"Ġrepresents":2857,"Ġwallet":2858,"Ġmatching":2859,"Ġrequest":2860,"Ġgroceries":2861,"Ġcrm":2862,"iveness":2863,"Ġpiece":2864,"Ġregularly":2865,"Ġskill":2866,"Ġeffort":2867,"Ġalgorithms":2868,"Ġnearby":2869,"Ġmiddle":2870,"Ġstruggle":2871,"Ġcauses":2872,"Ġbeautiful":2873,"Ġhours":2874,"Ġconference":2875,"Ġsafety":2876,"Ġkids":2877,"Ġlifest":2878,"Ġindependent":2879,"Ġfashion":2880,"Ġyumon":2881,"Ġspacecraft":2882,"aud":2883,"gin":2884,"gets":2885,"tains":2886,"Ġet":2887,"Ġsit":2888,"ators":2889,"Ġcause":2890,"Ġcapt":2891,"orm":2892,"Ġpath":2893,"Ġpair":2894,"Ġbi":2895,"Ġbase":2896,"Ġtold":2897,"onds":2898,"Ġfight":2899,"Ġmater":2900,"Ġhar":2901,"rem":2902,"Ġdied":2903,"Ġdrop":2904,"enance":2905,"edom":2906,"Ġlam":2907,"Ġline":2908,"Ġlost":2909,"Ġgre":2910,"ision":2911,"Ġforward":2912,"Ġeve":2913,"Ġyc":2914,"ional":2915,"ecess":2916,"Ġproduce":2917,"Ġgoes":2918,"thes":2919,"Ġmaj":2920,"Ġalign":2921,"pping":2922,"Ġfruit":2923,"Ġfraud":2924,"Ġjeth":2925,"Ġcreation":2926,"ifice":2927,"Ġserve":2928,"Ġserves":2929,"utes":2930,"Ġtoolkit":2931,"Ġclin":2932,"Ġwaste":2933,"Ġcurtains":2934,"Ġcommand":2935,"Ġmeaning":2936,"Ġdesk":2937,"Ġrecord":2938,"Ġresults":2939,"Ġseek":2940,"Ġscan":2941,"Ġsolving":2942,"Ġsolutions":2943,"Ġknowing":2944,"rought":2945,"Ġentire":2946,"Ġmonet":2947,"Ġtraffic":2948,"Ġdebts":2949,"Ġfeels":2950,"Ġfeeling":2951,"Ġanalys":2952,"Ġbringing":2953,"Ġstories":2954,"Ġordering":2955,"Ġadvertis":2956,"Ġadding":2957,"Ġcollaboration":2958,"Ġintegrated":2959,"Ġ2019":2960,"Ġreading":2961,"Ġoperating":2962,"Ġconfid":2963,"Ġconflic":2964,"Ġcheap":2965,"Ġcheaper":2966,"Ġtransparency":2967,"Ġindeed":2968,"Ġdefine":2969,"Ġindividuals":2970,"Ġpieces":2971,"Ġrelevant":2972,"Ġtypes":2973,"Ġclothes":2974,"Ġpillar":2975,"ield":2976,"Ġperfect":2977,"Ġvendors":2978,"Ġlinkedin":2979,"Ġjethro":2980,"100":2981,"500":2982,"fr":2983,"gs":2984,"hma":2985,"lines":2986,"ship":2987,"uge":2988,"Ġsuit":2989,"Ġpage":2990,"Ġbab":2991,"Ġbody":2992,"Ġboss":2993,"Ġfly":2994,"Ġflex":2995,"Ġhuge":2996,"Ġdate":2997,"oms":2998,"lebr":2999,"Ġstate":3000,"Ġstuff":3001,"Ġishma":3002,"Ġlate":3003,"Ġlast":3004,"arter":3005,"asts":3006,"icks":3007,"Ġcomprom":3008,"Ġred":3009,"iding":3010,"Ġlik":3011,"Ġshall":3012,"Ġvr":3013,"Ġvet":3014,"Ġleah":3015,"ief":3016,"Ġdating":3017,"ensive":3018,"Ġupd":3019,"Ġcontin":3020,"Ġuseful":3021,"Ġmedium":3022,"Ġsets":3023,"Ġscores":3024,"Ġbranded":3025,"ifications":3026,"ierge":3027,"Ġaggre":3028,"Ġconnection":3029,"Ġprocessing":3030,"print":3031,"Ġnothing":3032,"Ġactive":3033,"Ġtells":3034,"Ġprogramming":3035,"Ġesc":3036,"Ġhotels":3037,"Ġmodels":3038,"Ġgeneration":3039,"service":3040,"ourced":3041,"Ġreviews":3042,"Ġextra":3043,"cumc":3044,"Ġconcierge":3045,"Ġcrowdfunding":3046,"Ġgifts":3047,"Ġmotion":3048,"Ġpublishers":3049,"Ġrecommendations":3050,"Ġcelebr":3051,"Ġmission":3052,"banked":3053,"Ġlarger":3054,"Ġborrow":3055,"Ġequip":3056,"Ġsummer":3057,"Ġplease":3058,"Ġdiversify":3059,"Ġpictures":3060,"Ġnavigate":3061,"Ġsacrifice":3062,"Ġensure":3063,"Ġreason":3064,"Ġneighbor":3065,"Ġinstructions":3066,"bnb":3067,"Ġancient":3068,"Ġlifestyle":3069,"Ġmajor":3070,"Ġanalysis":3071,"Ġishmael":3072,"Ġaggreg":3073,"cent":3074,"ios":3075,"la":3076,"mon":3077,"port":3078,"sp":3079,"Ġtilt":3080,"ina":3081,"ints":3082,"Ġthous":3083,"Ġsou":3084,"Ġsust":3085,"Ġsad":3086,"erts":3087,"Ġcult":3088,"Ġwide":3089,"oration":3090,"Ġbrought":3091,"Ġtoy":3092,"Ġfile":3093,"rel":3094,"Ġandro":3095,"Ġstage":3096,"Ġly":3097,"Ġgig":3098,"Ġgave":3099,"Ġforce":3100,"Ġever":3101,"Ġyoun":3102,"Ġcomplex":3103,"Ġcondit":3104,"Ġchance":3105,"Ġseven":3106,"Ġprint":3107,"Ġmark":3108,"Ġweek":3109,"Ġmarketers":3110,"iev":3111,"Ġclip":3112,"Ġwash":3113,"Ġenc":3114,"Ġhealthy":3115,"Ġresources":3116,"Ġsolid":3117,"Ġfoundation":3118,"Ġamounts":3119,"Ġhardened":3120,"Ġdesigns":3121,"Ġinstantly":3122,"Ġfunded":3123,"Ġtravelers":3124,"Ġstudy":3125,"Ġwrit":3126,"Ġorganized":3127,"Ġimproving":3128,"ronic":3129,"Ġchoice":3130,"Ġrental":3131,"Ġbillions":3132,"Ġfreedom":3133,"Ġexpanding":3134,"Ġmercy":3135,"Ġintegrates":3136,"Ġcountry":3137,"Ġsurv":3138,"Ġangels":3139,"Ġreceiv":3140,"Ġdepart":3141,"Ġeventually":3142,"Ġcollecting":3143,"Ġmonitoring":3144,"Ġaimed":3145,"Ġobject":3146,"Ġmaintenance":3147,"Ġbitco":3148,"Ġdistribute":3149,"Ġexpectations":3150,"Ġstrategies":3151,"Ġopportunities":3152,"Ġinfluencers":3153,"employ":3154,"Ġpilot":3155,"Ġenvironment":3156,"Ġcompromise":3157,"Ġequipment":3158,"Ġandroid":3159,"cies":3160,"digital":3161,"hood":3162,"li":3163,"nov":3164,"off":3165,"uly":3166,"Ġ9":3167,"Ġtin":3168,"inter":3169,"inting":3170,"Ġsil":3171,"Ġsound":3172,"Ġcate":3173,"Ġcertain":3174,"Ġwind":3175,"Ġblog":3176,"Ġfle":3177,"Ġmaster":3178,"rec":3179,"Ġdry":3180,"ited":3181,"aling":3182,"Ġwhite":3183,"Ġstones":3184,"Ġgam":3185,"roy":3186,"Ġeu":3187,"Ġdoc":3188,"osph":3189,"Ġcanad":3190,"Ġriver":3191,"imate":3192,"Ġbegin":3193,"verage":3194,"Ġcher":3195,"Ġexerc":3196,"ization":3197,"Ġworked":3198,"arning":3199,"Ġproductive":3200,"Ġconsult":3201,"Ġprem":3202,"Ġprev":3203,"Ġcolor":3204,"Ġcolors":3205,"Ġrealistic":3206,"Ġago":3207,"Ġkeeps":3208,"Ġrelate":3209,"Ġhighlight":3210,"Ġinsights":3211,"Ġfailing":3212,"Ġsecond":3213,"Ġwellness":3214,"Ġposts":3215,"Ġprofile":3216,"Ġrentals":3217,"Ġphotograph":3218,"Ġinternal":3219,"Ġinternational":3220,"Ġidentity":3221,"Ġaddress":3222,"Ġachiev":3223,"Ġairbnb":3224,"Ġangel":3225,"Ġhonor":3226,"Ġburied":3227,"Ġmanager":3228,"Ġmatches":3229,"Ġsanct":3230,"Ġhope":3231,"driving":3232,"Ġrooms":3233,"Ġefforts":3234,"Ġalgorithm":3235,"Ġhosting":3236,"Ġoptimize":3237,"Ġthinking":3238,"Ġatmosph":3239,"Ġetc":3240,"Ġsitu":3241,"friend":3242,"Ġtiny":3243,"Ġcanada":3244,"Ġachievable":3245,",âĢĿ":3246,"'ve":3247,"cur":3248,"comes":3249,"focus":3250,"gn":3251,"ls":3252,"lates":3253,"zy":3254,"Ġage":3255,"Ġsat":3256,"Ġsod":3257,"Ġsix":3258,"Ġcase":3259,"Ġbay":3260,"Ġhass":3261,"Ġhere":3262,"rect":3263,"lement":3264,"Ġstub":3265,"Ġlater":3266,"Ġforec":3267,"rope":3268,"acing":3269,"Ġnecess":3270,"entic":3271,"Ġalong":3272,"Ġconvert":3273,"Ġshel":3274,"Ġshape":3275,"otely":3276,"Ġled":3277,"Ġapprec":3278,"Ġdead":3279,"abb":3280,"Ġseem":3281,"Ġacqu":3282,"Ġweather":3283,"Ġweak":3284,"undry":3285,"Ġclient":3286,"Ġintake":3287,"action":3288,"ubim":3289,"Ġrecently":3290,"worth":3291,"Ġstrang":3292,"Ġlaundry":3293,"Ġinside":3294,"Ġnetworking":3295,"Ġcarry":3296,"Ġemerg":3297,"Ġremotely":3298,"Ġaction":3299,"Ġincludes":3300,"nesses":3301,"Ġexpense":3302,"Ġteaching":3303,"bots":3304,"Ġposition":3305,"Ġsearching":3306,"Ġdistance":3307,"Ġdistract":3308,"Ġtargeted":3309,"Ġgenerate":3310,"Ġputting":3311,"Ġrecruiters":3312,"Ġready":3313,"Ġdelivered":3314,"sharing":3315,"Ġextrem":3316,"Ġfiles":3317,"Ġdreams":3318,"Ġconcern":3319,"Ġfunct":3320,"ycle":3321,"Ġcorrect":3322,"Ġdestination":3323,"Ġdestroy":3324,"Ġlargest":3325,"Ġuncertain":3326,"Ġsimplify":3327,"Ġplanting":3328,"Ġpriest":3329,"Ġvehicles":3330,"Ġeye":3331,"Ġvacation":3332,"Ġinvoices":3333,"Ġmotivated":3334,"Ġcomputers":3335,"Ġannual":3336,"Ġdomain":3337,"Ġconditions":3338,"Ġeurope":3339,"Ġcherubim":3340,"Ġhassle":3341,"cl":3342,"ding":3343,"eous":3344,"fl":3345,"mo":3346,"nc":3347,"pre":3348,"uary":3349,"Ġut":3350,"Ġten":3351,"Ġterm":3352,"Ġsabb":3353,"aters":3354,"ering":3355,"Ġca":3356,"Ġbonds":3357,"Ġtoday":3358,"Ġmix":3359,"Ġdin":3360,"ush":3361,"Ġstick":3362,"Ġlat":3363,"Ġlabor":3364,"Ġlights":3365,"ups":3366,"Ġnat":3367,"Ġnur":3368,"Ġplants":3369,"Ġplast":3370,"Ġreduc":3371,"fort":3372,"force":3373,"Ġrides":3374,"Ġshine":3375,"Ġshem":3376,"stop":3377,"style":3378,"mpt":3379,"Ġchina":3380,"Ġexact":3381,"Ġunex":3382,"ples":3383,"Ġfirms":3384,"Ġrobot":3385,"apes":3386,"Ġlocations":3387,"Ġautomation":3388,"Ġarr":3389,"Ġrelax":3390,"soft":3391,"Ġexpert":3392,"Ġsigned":3393,"Ġtraveling":3394,"Ġcalend":3395,"Ġcompetitors":3396,"Ġpromot":3397,"Ġexpensive":3398,"Ġdriving":3399,"Ġclearly":3400,"Ġrenters":3401,"Ġadvertise":3402,"erties":3403,"Ġcoding":3404,"Ġtargeting":3405,"Ġmiles":3406,"Ġgrad":3407,"Ġ2017":3408,"Ġimage":3409,"Ġorganizing":3410,"Ġstreaml":3411,"Ġrequires":3412,"Ġpropos":3413,"Ġproperties":3414,"Ġanalyzing":3415,"Ġinfr":3416,"Ġdiscovery":3417,"Ġminutes":3418,"Ġresponsible":3419,"Ġceo":3420,"Ġmassive":3421,"Ġelsewhere":3422,"Ġpulls":3423,"Ġrock":3424,"Ġmagn":3425,"Ġcalculated":3426,"Ġpackages":3427,"Ġcarefully":3428,"Ġhospitality":3429,"Ġauthentic":3430,"Ġcircumc":3431,"Ġwisdom":3432,"Ġpractice":3433,"Ġtrends":3434,"Ġperspect":3435,"Ġfootprint":3436,"Ġonboarding":3437,"Ġskills":3438,"Ġlikely":3439,"Ġlyft":3440,"Ġreceived":3441,"Ġbitcoin":3442,"Ġatmosphere":3443,"friendly":3444,"worthy":3445,"Ġsabbath":3446,"fair":3447,"ged":3448,"house":3449,"hold":3450,"nal":3451,"ove":3452,"por":3453,"sized":3454,"uel":3455,"vants":3456,"wise":3457,"ym":3458,"inate":3459,"Ġsoc":3460,"Ġsort":3461,"ately":3462,"eration":3463,"Ġcain":3464,"Ġwar":3465,"Ġwise":3466,"Ġwish":3467,"ored":3468,"Ġbaker":3469,"Ġtough":3470,"Ġhims":3471,"Ġdraw":3472,"itude":3473,"lech":3474,"Ġox":3475,"elt":3476,"eline":3477,"Ġinnov":3478,"Ġwhether":3479,"Ġstead":3480,"Ġlic":3481,"Ġlack":3482,"Ġlists":3483,"Ġlord":3484,"Ġgather":3485,"acter":3486,"Ġrange":3487,"Ġalerts":3488,"Ġtruc":3489,"Ġbusy":3490,"Ġship":3491,"oty":3492,"Ġvert":3493,"Ġmeals":3494,"Ġspare":3495,"Ġabime":3496,"Ġappear":3497,"Ġdeep":3498,"ially":3499,"Ġservants":3500,"Ġsevent":3501,"Ġsmo":3502,"istics":3503,"Ġaddit":3504,"ĠâĢĵ":3505,"Ġexpress":3506,"ements":3507,"Ġwhole":3508,"Ġfear":3509,"Ġnotes":3510,"Ġproduction":3511,"Ġoutcomes":3512,"ibilities":3513,"Ġsympt":3514,"ooth":3515,"Ġseeking":3516,"Ġindian":3517,"Ġqual":3518,"words":3519,"astruc":3520,"Ġreality":3521,"Ġdelivers":3522,"Ġ15":3523,"Ġsigns":3524,"Ġpercent":3525,"phones":3526,"Ġtrustworthy":3527,"Ġassess":3528,"Ġfeelings":3529,"Ġsecret":3530,"Ġcommunications":3531,"Ġchoosing":3532,"Ġdirection":3533,"Ġcombining":3534,"Ġforms":3535,"Ġtrade":3536,"Ġexploration":3537,"Ġstronger":3538,"Ġparking":3539,"Ġpartnering":3540,"Ġprototy":3541,"Ġconstruc":3542,"Ġimag":3543,"Ġsensors":3544,"ission":3545,"Ġ500":3546,"Ġturns":3547,"Ġquestion":3548,"Ġapartments":3549,"Ġconsistency":3550,"Ġgovernments":3551,"Ġventures":3552,"Ġfastest":3553,"Ġmicrosoft":3554,"Ġjournal":3555,"Ġpolic":3556,"pected":3557,"Ġauthor":3558,"Ġsuppliers":3559,"Ġpreferences":3560,"Ġseparate":3561,"Ġdepending":3562,"Ġcooking":3563,"Ġdaughters":3564,"Ġspaceships":3565,"Ġadvertisers":3566,"Ġflexible":3567,"Ġescape":3568,"Ġculture":3569,"Ġsurvive":3570,"employed":3571,"Ġpremium":3572,"focused":3573,"Ġstubborn":3574,"Ġstrangers":3575,"Ġunexpected":3576,"Ġinfrastruc":3577,"Ġhimself":3578,"Ġabimelech":3579,"Ġsymptoms":3580,"Ġinfrastructure":3581,"25":3582,"ball":3583,"eal":3584,"fill":3585,"iation":3586,"lock":3587,"part":3588,"pay":3589,"res":3590,"rup":3591,"top":3592,"tech":3593,"val":3594,"wide":3595,"yers":3596,"Ġtur":3597,"inal":3598,"Ġsqu":3599,"erate":3600,"Ġcra":3601,"Ġcoun":3602,"Ġcycle":3603,"Ġwood":3604,"ana":3605,"Ġpen":3606,"Ġbir":3607,"Ġfurn":3608,"Ġmut":3609,"Ġiphone":3610,"Ġhor":3611,"Ġhub":3612,"iter":3613,"Ġinbox":3614,"Ġstability":3615,"Ġlose":3616,"asting":3617,"Ġnurs":3618,"Ġbul":3619,"Ġbury":3620,"Ġrefer":3621,"Ġreub":3622,"Ġusage":3623,"amin":3624,"Ġvol":3625,"ationally":3626,"Ġlev":3627,"Ġhair":3628,"Ġworship":3629,"Ġorig":3630,"Ġchec":3631,"elling":3632,"Ġpress":3633,"Ġheal":3634,"Ġheav":3635,"Ġgods":3636,"Ġloves":3637,"Ġadvice":3638,"ume":3639,"Ġtele":3640,"Ġpharm":3641,"Ġunfair":3642,"Ġnotifications":3643,"abled":3644,"Ġcommit":3645,"Ġcommerc":3646,"Ġlearns":3647,"Ġshower":3648,"Ġparties":3649,"seat":3650,"Ġprovider":3651,"Ġrob":3652,"Ġrot":3653,"Ġdeveloper":3654,"Ġfinancing":3655,"Ġcoop":3656,"Ġ25":3657,"Ġinsp":3658,"avened":3659,"Ġtrusting":3660,"Ġpoints":3661,"Ġkindness":3662,"Ġcompeting":3663,"Ġprioritizing":3664,"Ġengaging":3665,"Ġreports":3666,"Ġbilling":3667,"Ġbenefit":3668,"Ġediting":3669,"ought":3670,"Ġbreast":3671,"Ġparent":3672,"Ġnegotiating":3673,"Ġconsidering":3674,"Ġsubscriptions":3675,"Ġidentifying":3676,"Ġsensor":3677,"Ġpredictive":3678,"she":3679,"Ġmaybe":3680,"Ġreflect":3681,"Ġstandard":3682,"Ġamazing":3683,"Ġreaching":3684,"Ġvarious":3685,"Ġrecipes":3686,"Ġchallenge":3687,"Ġdiscount":3688,"Ġprotection":3689,"Ġportfolios":3690,"Ġconversation":3691,"Ġfixed":3692,"Ġfailed":3693,"Ġprayer":3694,"Ġclothing":3695,"Ġfactors":3696,"Ġmedication":3697,"Ġamerica":3698,"Ġslowly":3699,"Ġwait":3700,"Ġinterviews":3701,"Ġoutside":3702,"Ġhousing":3703,"Ġinvolved":3704,"Ġstaff":3705,"Ġmillions":3706,"Ġfulfill":3707,"Ġmorning":3708,"ormal":3709,"Ġmaterials":3710,"Ġgreater":3711,"Ġmonetize":3712,"Ġthousands":3713,"Ġsustain":3714,"Ġcategor":3715,"Ġprevious":3716,"Ġemergency":3717,"Ġexactly":3718,"Ġconstruction":3719,"party":3720,"Ġreuben":3721,"Ġcommercial":3722,"aks":3723,"aves":3724,"bon":3725,"con":3726,"cost":3727,"home":3728,"iet":3729,"jamin":3730,"know":3731,"lords":3732,"min":3733,"ners":3734,"pec":3735,"source":3736,"ton":3737,"ument":3738,"yond":3739,"Ġeth":3740,"Ġtut":3741,"Ġalex":3742,"Ġaverage":3743,"Ġsn":3744,"Ġsect":3745,"Ġsara":3746,"Ġsister":3747,"attle":3748,"Ġcruc":3749,"Ġbars":3750,"Ġfour":3751,"Ġmis":3752,"Ġmort":3753,"Ġiot":3754,"Ġhit":3755,"reh":3756,"Ġdiv":3757,"enabled":3758,"Ġstar":3759,"Ġstre":3760,"eds":3761,"Ġlay":3762,"iles":3763,"ilit":3764,"icking":3765,"road":3766,"Ġcomfort":3767,"Ġcompli":3768,"Ġcompreh":3769,"Ġdoll":3770,"iders":3771,"idden":3772,"Ġlikes":3773,"Ġmapping":3774,"osed":3775,"urable":3776,"Ġran":3777,"Ġrural":3778,"Ġali":3779,"Ġalone":3780,"Ġbeyond":3781,"Ġmanages":3782,"Ġjo":3783,"Ġworry":3784,"store":3785,"Ġspin":3786,"Ġabroad":3787,"Ġdeath":3788,"ells":3789,"Ġexists":3790,"acks":3791,"Ġmarry":3792,"Ġweigh":3793,"ipe":3794,"Ġclick":3795,"Ġnote":3796,"Ġease":3797,"enses":3798,"Ġshowc":3799,"Ġshowed":3800,"ooks":3801,"Ġmother":3802,"Ġseeing":3803,"Ġscary":3804,"Ġaccel":3805,"Ġknown":3806,"Ġstress":3807,"Ġcommunities":3808,"Ġgrows":3809,"prises":3810,"Ġamong":3811,"Ġcoach":3812,"Ġrighteous":3813,"Ġrelat":3814,"Ġ12":3815,"Ġcarbon":3816,"Ġvalid":3817,"Ġtoolset":3818,"Ġpromote":3819,"Ġpositive":3820,"Ġattend":3821,"Ġruns":3822,"Ġespec":3823,"Ġbenjamin":3824,"Ġcombines":3825,"Ġentrepreneurship":3826,"Ġdetail":3827,"Ġlandlords":3828,"Ġmemory":3829,"verse":3830,"Ġ2018":3831,"Ġflight":3832,"Ġcentral":3833,"Ġvisualize":3834,"Ġfairly":3835,"Ġtreated":3836,"Ġhoping":3837,"Ġchallenging":3838,"Ġschools":3839,"Ġlenders":3840,"Ġthoughts":3841,"ertainment":3842,"Ġkings":3843,"Ġlanguages":3844,"Ġconversations":3845,"Ġmissing":3846,"Ġwearable":3847,"Ġcorpor":3848,"Ġforgiveness":3849,"Ġreturns":3850,"Ġvalued":3851,"Ġbeauty":3852,"Ġfacilit":3853,"Ġsupplies":3854,"Ġlogistics":3855,"Ġamerican":3856,"Ġboards":3857,"Ġhouses":3858,"Ġcannot":3859,"Ġspiral":3860,"Ġexecut":3861,"Ġdesktop":3862,"Ġconfident":3863,"Ġbaby":3864,"Ġneighborhood":3865,"interest":3866,"Ġphotographers":3867,"Ġcalendar":3868,"Ġsteady":3869,"Ġseventh":3870,"Ġpercentage":3871,"Ġsarai":3872,"Ġcrucial":3873,"Ġespecially":3874,"bt":3875,"band":3876,"cle":3877,"cod":3878,"ey":3879,"eat":3880,"fi":3881,"he":3882,"iod":3883,"iency":3884,"jehovah":3885,"lit":3886,"lus":3887,"pool":3888,"rial":3889,"rics":3890,"ted":3891,"uate":3892,"vin":3893,"Ġ7":3894,"incts":3895,"Ġsong":3896,"Ġsources":3897,"erv":3898,"Ġcake":3899,"Ġpure":3900,"Ġpush":3901,"Ġbow":3902,"Ġbid":3903,"Ġbond":3904,"Ġtown":3905,"onse":3906,"Ġmust":3907,"Ġharm":3908,"reds":3909,"Ġdense":3910,"ley":3911,"lements":3912,"learning":3913,"Ġlamp":3914,"Ġlosing":3915,"Ġgar":3916,"Ġgent":3917,"ilder":3918,"ison":3919,"room":3920,"upiter":3921,"Ġnob":3922,"Ġnormal":3923,"Ġbugs":3924,"idge":3925,"Ġmaps":3926,"Ġalm":3927,"Ġshapes":3928,"Ġver":3929,"Ġjupiter":3930,"Ġspent":3931,"Ġchronic":3932,"Ġdeeds":3933,"Ġexam":3934,"Ġsea":3935,"utation":3936,"Ġloved":3937,"rap":3938,"umb":3939,"Ġsaw":3940,"Ġworkplace":3941,"Ġpassion":3942,"Ġuns":3943,"Ġunions":3944,"Ġbutler":3945,"Ġintuit":3946,"Ġowner":3947,"Ġsync":3948,"ancy":3949,"Ġdescription":3950,"play":3951,"plate":3952,"Ġeval":3953,"Ġcreatures":3954,"Ġoverall":3955,"Ġcold":3956,"Ġstruc":3957,"Ġentertainment":3958,"Ġfoods":3959,"Ġretain":3960,"Ġautomating":3961,"Ġfriendly":3962,"Ġinstit":3963,"Ġinstincts":3964,"Ġleading":3965,"Ġdisag":3966,"Ġeffects":3967,"Ġfailures":3968,"Ġperiod":3969,"Ġtransport":3970,"Ġdebit":3971,"Ġmessen":3972,"Ġresponse":3973,"Ġdrag":3974,"Ġdriver":3975,"Ġ2020":3976,"Ġdirectory":3977,"Ġecommerce":3978,"Ġstoring":3979,"Ġstorage":3980,"Ġinternationally":3981,"Ġgrain":3982,"Ġoption":3983,"Ġnegative":3984,"Ġedom":3985,"Ġedit":3986,"Ġefficiency":3987,"Ġtrading":3988,"Ġhousehold":3989,"Ġbreath":3990,"Ġmeasurable":3991,"backed":3992,"Ġnonprofits":3993,"Ġgrown":3994,"Ġburning":3995,"Ġelim":3996,"Ġstreaming":3997,"Ġprojections":3998,"Ġrequire":3999,"ourcing":4000,"Ġhearts":4001,"Ġcharacter":4002,"Ġanalyzes":4003,"Ġsecurely":4004,"Ġbelong":4005,"Ġmerchand":4006,"Ġconstellation":4007,"Ġtemplates":4008,"Ġwinter":4009,"Ġanswers":4010,"Ġtransaction":4011,"Ġwatching":4012,"personal":4013,"Ġgolden":4014,"Ġpillars":4015,"Ġbrave":4016,"Ġsafely":4017,"Ġreminder":4018,"Ġpicture":4019,"Ġclosest":4020,"Ġstrengths":4021,"Ġaccordingly":4022,"Ġminimum":4023,"founder":4024,"Ġerr":4025,"Ġcannab":4026,"Ġrecognition":4027,"Ġpodcasts":4028,"Ġtemperature":4029,"Ġtemperatures":4030,"Ġhundreds":4031,"Ġcapture":4032,"Ġsuits":4033,"Ġcontinue":4034,"related":4035,"Ġyoung":4036,"Ġencrypt":4037,"Ġwritten":4038,"Ġdepartments":4039,"Ġfleet":4040,"Ġdocument":4041,"Ġexercise":4042,"Ġsanctify":4043,"Ġnecessary":4044,"Ġweaknesses":4045,"Ġdistractions":4046,"Ġuncertainty":4047,"flix":4048,"Ġnatural":4049,"Ġplastic":4050,"Ġreducing":4051,"Ġturning":4052,"Ġsquare":4053,"Ġbreastplate":4054,"Ġmortg":4055,"Ġcompliance":4056,"Ġcomprehensive":4057,"Ġgentle":4058,"Ġintuitive":4059,".)":4060,"aired":4061,"books":4062,"ded":4063,"go":4064,"iant":4065,"list":4066,"life":4067,"na":4068,"nam":4069,"tal":4070,"xic":4071,"zil":4072,"Ġtim":4073,"Ġtests":4074,"ined":4075,"inks":4076,"invest":4077,"Ġsight":4078,"Ġsuf":4079,"Ġcatch":4080,"Ġpace":4081,"Ġpets":4082,"Ġbought":4083,"Ġfing":4084,"Ġfed":4085,"Ġfarth":4086,"Ġmeth":4087,"Ġill":4088,"Ġign":4089,"Ġhy":4090,"Ġhate":4091,"Ġhide":4092,"Ġdou":4093,"Ġdust":4094,"Ġdue":4095,"enn":4096,"iture":4097,"leavened":4098,"Ġoce":4099,"Ġlos":4100,"Ġge":4101,"ism":4102,"icians":4103,"keep":4104,"Ġnich":4105,"ayment":4106,"Ġrely":4107,"Ġrings":4108,"pped":4109,"cend":4110,"Ġconcept":4111,"Ġconvin":4112,"Ġshining":4113,"Ġvi":4114,"Ġfront":4115,"Ġlever":4116,"ocol":4117,"Ġalloc":4118,"Ġdem":4119,"Ġsees":4120,"Ġselect":4121,"Ġsms":4122,"Ġbuildings":4123,"Ġmarch":4124,"Ġacts":4125,"Ġweight":4126,"Ġsoon":4127,"Ġloving":4128,"raim":4129,"ipeline":4130,"Ġadop":4131,"Ġtap":4132,"fering":4133,"Ġpays":4134,"Ġpaych":4135,"Ġsaved":4136,"quality":4137,"ereum":4138,"Ġunleavened":4139,"Ġneeding":4140,"Ġoutcome":4141,"Ġcontact":4142,"Ġcommands":4143,"Ġincense":4144,"Ġconsump":4145,"ancing":4146,"anced":4147,"Ġmood":4148,"Ġdescend":4149,"Ġsmartphones":4150,"Ġoffices":4151,"Ġscar":4152,"Ġroll":4153,"Ġblu":4154,"apore":4155,"ification":4156,"Ġauto":4157,"Ġagre":4158,"Ġagency":4159,"Ġconnections":4160,"Ġlistings":4161,"Ġcozy":4162,"Ġcareer":4163,"Ġinstall":4164,"Ġ18":4165,"Ġofferings":4166,"Ġeveryday":4167,"Ġemb":4168,"Ġvisually":4169,"Ġlessons":4170,"Ġasset":4171,"akers":4172,"Ġbroker":4173,"Ġhandful":4174,"ogies":4175,"Ġhumble":4176,"iction":4177,"Ġshops":4178,"Ġtechnologies":4179,"Ġcombine":4180,"Ġprofiles":4181,"Ġreputation":4182,"Ġrepayment":4183,"Ġentrepreneur":4184,"Ġchanged":4185,"Ġsingapore":4186,"Ġexpanded":4187,"Ġmovement":4188,"Ġschedules":4189,"Ġassistants":4190,"Ġanimal":4191,"Ġpartnered":4192,"Ġsurve":4193,"Ġmanaged":4194,"Ġclaim":4195,"Ġinteractions":4196,"Ġglory":4197,"Ġcenters":4198,"Ġcentralized":4199,"Ġdeploy":4200,"Ġblessed":4201,"Ġrespectful":4202,"ribution":4203,"Ġbelie":4204,"Ġfilm":4205,"Ġcutting":4206,"Ġmanufacturing":4207,"Ġunderbanked":4208,"Ġresponsibilities":4209,"Ġfixing":4210,"Ġissue":4211,"Ġsacred":4212,"Ġforgive":4213,"Ġtypically":4214,"Ġborn":4215,"Ġenjoyable":4216,"Ġcurrencies":4217,"Ġbrain":4218,"Ġbrazil":4219,"Ġadvis":4220,"Ġpackage":4221,"Ġstealth":4222,"Ġwaiting":4223,"Ġwisely":4224,"Ġpriests":4225,"Ġvehicle":4226,"screen":4227,"Ġpeaceful":4228,"Ġelectricity":4229,"Ġephraim":4230,"Ġworkflows":4231,"Ġaccurate":4232,"Ġpunished":4233,"Ġsymbolize":4234,"Ġmentioned":4235,"Ġhundred":4236,"Ġcrowdsourced":4237,"Ġharvest":4238,"Ġreasonable":4239,"Ġwashing":4240,"Ġsituation":4241,"Ġsodom":4242,"Ġforecast":4243,"Ġproposition":4244,"Ġperspectives":4245,"Ġjournalists":4246,"Ġfurniture":4247,"Ġnurses":4248,"Ġbulk":4249,"Ġoriginal":4250,"Ġchecking":4251,"Ġunfairly":4252,"Ġethereum":4253,"Ġdollars":4254,"Ġcorporate":4255,"Ġinstitutions":4256,"Ġmessenger":4257,"Ġcannabis":4258,"Ġniche":4259,"Ġconsumption":4260,"%.":4261,"cont":4262,"des":4263,"fs":4264,"fron":4265,"gen":4266,"gins":4267,"iar":4268,"ju":4269,"lass":4270,"map":4271,"sol":4272,"tr":4273,"watch":4274,"Ġ6":4275,"Ġaust":4276,"Ġaug":4277,"inary":4278,"Ġsime":4279,"Ġsick":4280,"Ġtherap":4281,"erve":4282,"Ġcook":4283,"Ġcross":4284,"Ġwi":4285,"Ġwel":4286,"Ġwire":4287,"Ġpicking":4288,"Ġpipeline":4289,"Ġbag":4290,"Ġbound":4291,"Ġfive":4292,"Ġfield":4293,"Ġfelt":4294,"Ġmile":4295,"Ġip":4296,"rew":4297,"Ġdam":4298,"Ġdise":4299,"leg":4300,"level":4301,"Ġoc":4302,"eless":4303,"Ġwhose":4304,"Ġstat":4305,"Ġstates":4306,"Ġgone":4307,"Ġgap":4308,"icon":4309,"Ġelements":4310,"Ġnyc":4311,"Ġnational":4312,"Ġcompound":4313,"Ġcompared":4314,"Ġreact":4315,"aged":4316,"osen":4317,"osit":4318,"Ġrat":4319,"Ġrich":4320,"imon":4321,"Ġtrial":4322,"Ġnearly":4323,"Ġspons":4324,"Ġsplit":4325,"Ġchr":4326,"Ġchosen":4327,"ellent":4328,"abet":4329,"ablish":4330,"abilities":4331,"Ġexcess":4332,"Ġexcept":4333,"Ġaside":4334,"Ġprinting":4335,"Ġheard":4336,"Ġmanageable":4337,"Ġproducers":4338,"Ġmarried":4339,"ightly":4340,"izable":4341,"Ġtaken":4342,"ĠâĢĺ":4343,"Ġtex":4344,"Ġimplement":4345,"Ġsmallest":4346,"Ġclicks":4347,"Ġpassover":4348,"Ġunt":4349,"Ġkick":4350,"Ġbeth":4351,"igned":4352,"Ġempath":4353,"Ġcommission":4354,"Ġenem":4355,"places":4356,"Ġscr":4357,"Ġroles":4358,"Ġblue":4359,"Ġovercome":4360,"Ġcreditors":4361,"Ġdeveloped":4362,"Ġfamine":4363,"enced":4364,"Ġlisting":4365,"Ġautomates":4366,"Ġarch":4367,"Ġrelated":4368,"Ġuniversities":4369,"Ġpersonality":4370,"Ġeverywhere":4371,"Ġdish":4372,"Ġdisp":4373,"Ġdisrup":4374,"Ġdisplay":4375,"Ġtransform":4376,"Ġboil":4377,"Ġpatience":4378,"Ġtrusted":4379,"Ġlighting":4380,"Ġpool":4381,"Ġdrink":4382,"Ġbrokers":4383,"Ġhandles":4384,"Ġchatbots":4385,"Ġdownload":4386,"Ġimprovement":4387,"Ġrenting":4388,"Ġspeaking":4389,"Ġhold":4390,"Ġholder":4391,"Ġdistant":4392,"Ġmachines":4393,"people":4394,"Ġhired":4395,"Ġgenu":4396,"Ġformat":4397,"Ġviral":4398,"Ġmode":4399,"Ġeditor":4400,"Ġtestimon":4401,"Ġmulti":4402,"ordinate":4403,"Ġmilk":4404,"Ġinteresting":4405,"Ġspecifically":4406,"Ġenterprises":4407,"Ġcalling":4408,"Ġobser":4409,"Ġgeneral":4410,"Ġsurface":4411,"inese":4412,"Ġportion":4413,"Ġeffectiveness":4414,"Ġorganizers":4415,"Ġwalking":4416,"Ġdelivering":4417,"Ġengineering":4418,"Ġcollection":4419,"Ġmeteors":4420,"Ġactively":4421,"Ġmindful":4422,"Ġcolleges":4423,"Ġcollects":4424,"Ġshoppers":4425,"new":4426,"Ġfilter":4427,"Ġfilled":4428,"Ġcrowded":4429,"Ġwinning":4430,"Ġorbits":4431,"Ġticket":4432,"Ġkingdom":4433,"Ġvisitors":4434,"Ġcompletely":4435,"Ġdistributed":4436,"Ġbarcod":4437,"Ġcovered":4438,"Ġtreatment":4439,"Ġswitch":4440,"Ġclasses":4441,"Ġexcellent":4442,"Ġcalculate":4443,"Ġbasic":4444,"Ġfacing":4445,"Ġcameras":4446,"Ġchannel":4447,"Ġsentence":4448,"retch":4449,"Ġroute":4450,"Ġstrategic":4451,"Ġopportunity":4452,"Ġcoup":4453,"Ġeyes":4454,"Ġengagement":4455,"Ġurban":4456,"Ġlimited":4457,"Ġemotional":4458,"Ġpodcast":4459,"Ġessentially":4460,"Ġmillenn":4461,"Ġballs":4462,"Ġtails":4463,"Ġmiddleman":4464,"Ġbikes":4465,"Ġfruitful":4466,"Ġconflicts":4467,"iefs":4468,"law":4469,"Ġgigs":4470,"Ġ90":4471,"Ġsilicon":4472,"Ġextreme":4473,"Ġfunctions":4474,"Ġterms":4475,"Ġlatin":4476,"Ġexpertise":4477,"Ġstreamlining":4478,"Ġcircumcised":4479,"Ġsockets":4480,"Ġaddition":4481,"Ġlevi":4482,"Ġrobust":4483,"Ġrotation":4484,"Ġsustainable":4485,"Ġshowcase":4486,"Ġrelatively":4487,"Ġdetails":4488,"Ġnobody":4489,"Ġexamples":4490,"Ġunsure":4491,"Ġevaluate":4492,"Ġdisagree":4493,"Ġmerchandise":4494,"Ġmortgage":4495,"Ġfinger":4496,"Ġconvince":4497,"Ġdescendants":4498,"Ġsimeon":4499,"ailed":4500,"bus":4501,"bay":4502,"bles":4503,"equ":4504,"free":4505,"facing":4506,"ground":4507,"has":4508,"hol":4509,"hia":4510,"happ":4511,"iju":4512,"lists":4513,"mail":4514,"mobile":4515,"making":4516,"ny":4517,"ned":4518,"nect":4519,"ux":4520,"xim":4521,"yield":4522,"Ġtam":4523,"Ġtables":4524,"Ġtired":4525,"income":4526,"Ġsized":4527,"atives":4528,"atitude":4529,"eral":4530,"erator":4531,"Ġcy":4532,"Ġware":4533,"Ġwaters":4534,"order":4535,"Ġpages":4536,"Ġflo":4537,"Ġfake":4538,"Ġmit":4539,"Ġmir":4540,"Ġhun":4541,"Ġhob":4542,"Ġhang":4543,"Ġdw":4544,"Ġded":4545,"Ġdro":4546,"omer":4547,"omet":4548,"alf":4549,"alel":4550,"using":4551,"Ġinit":4552,"Ġsty":4553,"Ġstone":4554,"Ġisn":4555,"Ġlun":4556,"Ġgir":4557,"Ġgad":4558,"Ġgym":4559,"etic":4560,"etooth":4561,"Ġebay":4562,"acia":4563,"Ġcomet":4564,"Ġnut":4565,"enty":4566,"Ġcompon":4567,"Ġcompar":4568,"elphia":4569,"Ġrev":4570,"Ġrede":4571,"Ġprofits":4572,"igs":4573,"Ġlie":4574,"olid":4575,"Ġrare":4576,"Ġrap":4577,"Ġtrials":4578,"charge":4579,"Ġnept":4580,"Ġvast":4581,"Ġvict":4582,"Ġmanass":4583,"Ġleast":4584,"tery":4585,"Ġaren":4586,"step":4587,"starter":4588,"Ġchinese":4589,"Ġchiefs":4590,"adelphia":4591,"ighter":4592,"ifies":4593,"Ġexceed":4594,"ulation":4595,"Ġsmbs":4596,"Ġasia":4597,"duct":4598,"Ġmargins":4599,"Ġmariju":4600,"Ġacacia":4601,"Ġwee":4602,"Ġwealth":4603,"dem":4604,"izz":4605,"Ġworkout":4606,"Ġworkforce":4607,"Ġotherwise":4608,"Ġclimate":4609,"Ġpasswords":4610,"Ġunused":4611,"Ġunbanked":4612,"Ġunited":4613,"Ġunhapp":4614,"Ġbecame":4615,"Ġbecomes":4616,"Ġintend":4617,"Ġemphas":4618,"Ġconsolid":4619,"Ġreck":4620,"Ġoffic":4621,"Ġoffline":4622,"Ġdifferences":4623,"Ġscared":4624,"Ġfinish":4625,"Ġdeciding":4626,"Ġsolves":4627,"Ġindic":4628,"world":4629,"aph":4630,"Ġautonom":4631,"Ġagent":4632,"press":4633,"Ġcool":4634,"Ġcovers":4635,"Ġarist":4636,"Ġhomeown":4637,"Ġsalary":4638,"Ġharder":4639,"Ġdesigning":4640,"Ġbackground":4641,"Ġexperim":4642,"Ġclever":4643,"Ġuniversal":4644,"Ġuniversity":4645,"Ġstaying":4646,"ifying":4647,"Ġemer":4648,"Ġvalley":4649,"Ġvisible":4650,"Ġdonors":4651,"Ġremove":4652,"Ġboost":4653,"Ġshares":4654,"Ġcalf":4655,"ounce":4656,"Ġdrone":4657,"Ġraising":4658,"Ġpowered":4659,"Ġfollowed":4660,"Ġmeetup":4661,"Ġspeech":4662,"Ġestablish":4663,"Ġdetailed":4664,"Ġmultit":4665,"Ġbreaking":4666,"Ġfitbit":4667,"Ġprescriptions":4668,"Ġmercur":4669,"Ġdealers":4670,"Ġmetrics":4671,"Ġolder":4672,"Ġconsidered":4673,"Ġmusicians":4674,"Ġgenerates":4675,"Ġgratitude":4676,"Ġlabel":4677,"Ġinteraction":4678,"Ġautomatic":4679,"Ġglass":4680,"Ġleadership":4681,"Ġrefin":4682,"ralia":4683,"Ġapproval":4684,"Ġaffected":4685,"Ġcouldn":4686,"Ġsheep":4687,"Ġmenu":4688,"Ġnewslet":4689,"Ġfamiliar":4690,"Ġmembership":4691,"Ġdefining":4692,"Ġresponsibility":4693,"Ġvisited":4694,"Ġconversions":4695,"Ġpublishing":4696,"Ġmoments":4697,"Ġelectron":4698,"Ġlevels":4699,"Ġrelease":4700,"Ġlawyers":4701,"Ġexpected":4702,"Ġrocks":4703,"Ġrocky":4704,"Ġequity":4705,"Ġaccepted":4706,"Ġcaused":4707,"Ġdarkness":4708,"Ġexciting":4709,"Ġadvance":4710,"Ġshipped":4711,"Ġreminders":4712,"Ġmountain":4713,"Ġmedicine":4714,"Ġspreadshe":4715,"Ġclosed":4716,"Ġsacrific":4717,"Ġcouple":4718,"built":4719,"Ġphiladelphia":4720,"Ġminimize":4721,"Ġ80":4722,"Ġaccuracy":4723,"Ġemotions":4724,"Ġdaughter":4725,"Ġspoke":4726,"Ġsuggestions":4727,"Ġfully":4728,"Ġexecute":4729,"Ġlamech":4730,"Ġaligns":4731,"Ġclinic":4732,"Ġflying":4733,"Ġstatement":4734,"Ġupdate":4735,"Ġupdates":4736,"Ġaggregate":4737,"month":4738,"Ġwindows":4739,"Ġappreciation":4740,"Ġeuropean":4741,"predict":4742,"Ġutility":4743,"Ġpromoting":4744,"Ġvertical":4745,"Ġprototyp":4746,"Ġauthority":4747,"Ġcounsel":4748,"Ġbirth":4749,"Ġcategories":4750,"Ġsnap":4751,"Ġdivide":4752,"Ġaliens":4753,"Ġexecutive":4754,"Ġstructure":4755,"Ġtransportation":4756,"Ġmethod":4757,"Ġbluetooth":4758,"Ġembed":4759,"designed":4760,"Ġaustralia":4761,"Ġwireless":4762,"Ġboundaries":4763,"abetes":4764,"Ġuntil":4765,"Ġkickstarter":4766,"Ġempathy":4767,"Ġdisrupt":4768,"Ġgenuine":4769,"Ġmillennials":4770,"business":4771,"Ġtamar":4772,"Ġlunar":4773,"Ġgadgets":4774,"Ġredeem":4775,"Ġrapid":4776,"Ġneptune":4777,"Ġmanasseh":4778,"Ġmarijuana":4779,"Ġunhappy":4780,"Ġautonomous":4781,"Ġmercury":4782,"12":4783,"300":4784,"af":4785,"ai":4786,"avery":4787,"cket":4788,"cast":4789,"cious":4790,"ew":4791,"ees":4792,"eed":4793,"ext":4794,"her":4795,"hub":4796,"iated":4797,"ienced":4798,"kind":4799,"loc":4800,"live":4801,"make":4802,"makers":4803,"och":4804,"pent":4805,"rm":4806,"rals":4807,"side":4808,"ships":4809,"taking":4810,"uts":4811,"vision":4812,"wal":4813,"you":4814,"yard":4815,"ystem":4816,"year":4817,"zen":4818,"zalel":4819,"inions":4820,"Ġslo":4821,"Ġsnow":4822,"Ġsides":4823,"Ġtherm":4824,"esh":4825,"erved":4826,"Ġcup":4827,"Ġcell":4828,"Ġcore":4829,"Ġcry":4830,"Ġcases":4831,"Ġwilder":4832,"any":4833,"anuary":4834,"orary":4835,"Ġpit":4836,"Ġpenc":4837,"Ġbin":4838,"Ġbat":4839,"Ġbil":4840,"Ġbaking":4841,"Ġbounce":4842,"Ġtour":4843,"Ġtone":4844,"Ġtoler":4845,"Ġtotal":4846,"Ġfro":4847,"Ġfans":4848,"Ġfacts":4849,"Ġhel":4850,"Ġham":4851,"Ġhiding":4852,"Ġdy":4853,"outh":4854,"itions":4855,"alable":4856,"alek":4857,"uses":4858,"Ġstra":4859,"Ġstretch":4860,"Ġlenses":4861,"Ġgerm":4862,"Ġgps":4863,"Ġgiant":4864,"Ġgmail":4865,"arts":4866,"isible":4867,"Ġforever":4868,"icals":4869,"icated":4870,"kend":4871,"Ġstarts":4872,"Ġnative":4873,"Ġbucket":4874,"Ġplenty":4875,"Ġreve":4876,"Ġrecharge":4877,"ops":4878,"Ġproph":4879,"ident":4880,"Ġgosh":4881,"Ġgosp":4882,"Ġusb":4883,"ology":4884,"osystem":4885,"ury":4886,"Ġram":4887,"Ġrise":4888,"Ġalum":4889,"Ġalert":4890,"Ġtries":4891,"Ġtrick":4892,"Ġtruly":4893,"Ġbezalel":4894,"Ġconcess":4895,"Ġconven":4896,"unte":4897,"ateful":4898,"Ġmanna":4899,"Ġjuly":4900,"Ġjeal":4901,"Ġjanuary":4902,"Ġmexic":4903,"uck":4904,"stage":4905,"Ġspr":4906,"Ġsports":4907,"Ġcustomizable":4908,"Ġchess":4909,"Ġchose":4910,"adem":4911,"Ġappears":4912,"Ġserving":4913,"ably":4914,"ulations":4915,"Ġseats":4916,"aceut":4917,"utter":4918,"Ġpra":4919,"Ġprison":4920,"allow":4921,"Ġacadem":4922,"ips":4923,"izations":4924,"Ġadds":4925,"Ġfinds":4926,"Ġbridge":4927,"Ġpasses":4928,"Ġkitch":4929,"Ġbutton":4930,"Ġfeet":4931,"acters":4932,"Ġeast":4933,"ension":4934,"Ġcuration":4935,"Ġcurated":4936,"Ġcontacts":4937,"Ġtracker":4938,"Ġconsequ":4939,"oog":4940,"Ġenable":4941,"Ġenoch":4942,"Ġrecent":4943,"Ġrecording":4944,"Ġsmartwatch":4945,"Ġresil":4946,"Ġresol":4947,"Ġresource":4948,"Ġreserv":4949,"Ġseekers":4950,"Ġbranding":4951,"ending":4952,"Ġpret":4953,"Ġroi":4954,"Ġblind":4955,"Ġfamous":4956,"encing":4957,"Ġlocally":4958,"Ġdelay":4959,"Ġamalek":4960,"Ġcoordinate":4961,"Ġcareers":4962,"Ġinstance":4963,"Ġbackyard":4964,"Ġexperienced":4965,"Ġ13":4966,"Ġ200":4967,"Ġopinions":4968,"Ġcarpool":4969,"Ġfails":4970,"Ġdonations":4971,"Ġtransit":4972,"Ġsunlight":4973,"derly":4974,"Ġassoc":4975,"Ġsalespeople":4976,"Ġwrist":4977,"Ġorganic":4978,"Ġwells":4979,"Ġpromised":4980,"Ġdrug":4981,"Ġdrives":4982,"Ġaccessories":4983,"aked":4984,"Ġpositions":4985,"Ġfollowers":4986,"Ġshopify":4987,"Ġtwist":4988,"Ġattack":4989,"Ġattach":4990,"Ġimprovements":4991,"Ġdirections":4992,"Ġecosystem":4993,"Ġguests":4994,"Ġ300":4995,"Ġrepeat":4996,"Ġstorm":4997,"Ġgraph":4998,"Ġopening":4999,"Ġedge":5000,"Ġbudgets":5001,"Ġbreaks":5002,"Ġmeasuring":5003,"Ġobey":5004,"Ġearns":5005,"Ġplaylists":5006,"Ġslightly":5007,"Ġslavery":5008,"Ġgenerating":5009,"Ġnumbers":5010,"Ġairlines":5011,"Ġsurprise":5012,"Ġgrab":5013,"Ġgrateful":5014,"Ġgreatest":5015,"Ġregister":5016,"Ġincreasing":5017,"Ġresearching":5018,"Ġ2015":5019,"Ġ2016":5020,"Ġlabs":5021,"Ġpurchasing":5022,"Ġcourt":5023,"Ġsensitive":5024,"Ġelderly":5025,"Ġpossibility":5026,"Ġrequiring":5027,"Ġoperate":5028,"Ġoperates":5029,"Ġdeposit":5030,"Ġvisualizations":5031,"Ġrefund":5032,"Ġrefuse":5033,"Ġveil":5034,"powerful":5035,"Ġcharging":5036,"Ġcharacters":5037,"Ġanointing":5038,"Ġversions":5039,"Ġextension":5040,"Ġseason":5041,"ippines":5042,"Ġwordpress":5043,"Ġhurts":5044,"Ġhurry":5045,"Ġtemporary":5046,"Ġrepresentative":5047,"Ġmatters":5048,"Ġtrips":5049,"Ġresponsive":5050,"Ġposting":5051,"Ġjudge":5052,"Ġcandidate":5053,"Ġpitching":5054,"Ġreleased":5055,"Ġlaws":5056,"Ġpolit":5057,"Ġmentions":5058,"Ġmasses":5059,"Ġhistor":5060,"Ġreliability":5061,"Ġcryptocurrencies":5062,"Ġtouchscreen":5063,"Ġstruggles":5064,"exp":5065,"Ġtreats":5066,"Ġswear":5067,"Ġconsistently":5068,"Ġexclus":5069,"Ġsummary":5070,"Ġdiabetes":5071,"Ġcloser":5072,"Ġcircle":5073,"Ġreporting":5074,"Ġinfluencer":5075,"comp":5076,"Ġthinks":5077,"Ġfilling":5078,"Ġphilist":5079,"Ġphilippines":5080,"Ġinvoicing":5081,"founders":5082,"Ġrecognize":5083,"Ġdepends":5084,"Ġwonder":5085,"Ġspots":5086,"Ġspirit":5087,"Ġtailored":5088,"Ġpairs":5089,"Ġmaterial":5090,"Ġclinics":5091,"Ġcheapest":5092,"Ġcelebrate":5093,"Ġcelebrating":5094,"Ġdiversifying":5095,"Ġprinted":5096,"Ġdepartment":5097,"Ġconsultants":5098,"Ġsituations":5099,"Ġdeadlines":5100,"Ġacquired":5101,"Ġdinner":5102,"Ġlicens":5103,"Ġsmoke":5104,"Ġimagine":5105,"Ġpolicy":5106,"Ġpolicies":5107,"Ġmutually":5108,"Ġreferrals":5109,"Ġvolunte":5110,"Ġpharmaceut":5111,"Ġcommitments":5112,"Ġinspired":5113,"Ġfulfillment":5114,"Ġjoin":5115,"Ġcoaching":5116,"Ġfacilitates":5117,"Ġ70":5118,"Ġedomites":5119,"Ġbelongings":5120,"Ġencrypted":5121,"Ġsuffering":5122,"Ġoceans":5123,"Ġviol":5124,"Ġpaycheck":5125,"Ġscarlet":5126,"Ġsurvey":5127,"Ġoccur":5128,"Ġstatus":5129,"Ġchrist":5130,"Ġenemies":5131,"Ġscratch":5132,"Ġintended":5133,"Ġreckless":5134,"Ġcooling":5135,"Ġemerging":5136,"Ġmultitas":5137,"Ġwilderness":5138,"Ġpencil":5139,"Ġgoshen":5140,"Ġgospel":5141,"Ġjealous":5142,"Ġkitchen":5143,"Ġconsequences":5144,"Ġexclusive":5145,"24":5146,"bies":5147,"buc":5148,"brew":5149,"cut":5150,"cons":5151,"dic":5152,"dens":5153,"down":5154,"fire":5155,"gers":5156,"gment":5157,"gbt":5158,"help":5159,"hum":5160,"hah":5161,"histic":5162,"lest":5163,"llo":5164,"met":5165,"mic":5166,"made":5167,"ns":5168,"pal":5169,"put":5170,"rated":5171,"sid":5172,"tan":5173,"wr":5174,"years":5175,"Ġq":5176,"Ġx":5177,"Ġtag":5178,"Ġauc":5179,"Ġagr":5180,"inking":5181,"Ġthrow":5182,"Ġthreat":5183,"Ġsop":5184,"Ġsud":5185,"Ġseth":5186,"Ġsib":5187,"Ġsizes":5188,"Ġsacks":5189,"erar":5190,"erah":5191,"erated":5192,"Ġcop":5193,"Ġcos":5194,"Ġcave":5195,"Ġcattle":5196,"Ġwed":5197,"Ġwid":5198,"Ġwild":5199,"Ġwarning":5200,"oro":5201,"orable":5202,"Ġpom":5203,"Ġpig":5204,"Ġpul":5205,"Ġpizz":5206,"Ġbed":5207,"Ġbost":5208,"Ġfuel":5209,"arant":5210,"Ġmob":5211,"Ġmour":5212,"Ġir":5213,"Ġice":5214,"Ġhus":5215,"Ġhosts":5216,"Ġhits":5217,"Ġhidden":5218,"Ġdig":5219,"Ġdivid":5220,"itz":5221,"itary":5222,"alone":5223,"Ġoverse":5224,"Ġstages":5225,"Ġstuck":5226,"Ġlocus":5227,"Ġlux":5228,"Ġlgbt":5229,"Ġglow":5230,"Ġgreen":5231,"Ġgerar":5232,"asps":5233,"iced":5234,"icult":5235,"icely":5236,"roc":5237,"rod":5238,"roduc":5239,"rown":5240,"Ġeg":5241,"Ġeith":5242,"acity":5243,"acles":5244,"Ġyog":5245,"key":5246,"ionality":5247,"Ġnas":5248,"Ġnim":5249,"Ġnights":5250,"Ġnicely":5251,"Ġcomple":5252,"Ġdozen":5253,"Ġplug":5254,"Ġproact":5255,"Ġpropr":5256,"Ġprocr":5257,"idents":5258,"agn":5259,"ague":5260,"agues":5261,"Ġcompanion":5262,"olog":5263,"aming":5264,"ament":5265,"amless":5266,"through":5267,"Ġmaker":5268,"Ġmaxim":5269,"osion":5270,"Ġrad":5271,"Ġrating":5272,"Ġalive":5273,"Ġant":5274,"Ġanx":5275,"Ġtrillion":5276,"agement":5277,"Ġbeer":5278,"Ġconce":5279,"chat":5280,"char":5281,"chool":5282,"otes":5283,"unk":5284,"Ġfresh":5285,"Ġjugg":5286,"Ġjune":5287,"Ġhaven":5288,"Ġorion":5289,"odoro":5290,"uct":5291,"verty":5292,"stack":5293,"stream":5294,"Ġcustomize":5295,"Ġdev":5296,"Ġdeleg":5297,"ift":5298,"Ġserious":5299,"Ġserpent":5300,"ulate":5301,"Ġsex":5302,"Ġseir":5303,"Ġseamless":5304,"Ġtheme":5305,"ival":5306,"Ġheat":5307,"Ġhebrew":5308,"alls":5309,"Ġmarker":5310,"Ġlots":5311,"ipt":5312,"ipate":5313,"Ġadmin":5314,"Ġtaugh":5315,"Ġpaypal":5316,"Ġwhenever":5317,"Ġtend":5318,"email":5319,"Ġimpaired":5320,"quent":5321,"Ġphr":5322,"Ġclutter":5323,"Ġclasps":5324,"Ġunb":5325,"Ġunto":5326,"Ġunlock":5327,"Ġunpredict":5328,"Ġfeast":5329,"Ġintroduc":5330,"Ġgoodness":5331,"Ġupon":5332,"Ġinvisible":5333,"Ġempty":5334,"Ġcurs":5335,"Ġcurates":5336,"Ġcontribut":5337,"Ġcontext":5338,"Ġcommerce":5339,"arsh":5340,"Ġincub":5341,"Ġconsiders":5342,"Ġspecify":5343,"Ġhealthier":5344,"ubhub":5345,"Ġsuperm":5346,"Ġprovided":5347,"Ġscalable":5348,"Ġbuys":5349,"Ġbuyer":5350,"Ġfintech":5351,"Ġpredic":5352,"Ġquarter":5353,"Ġquiet":5354,"Ġquotes":5355,"Ġrod":5356,"Ġrobots":5357,"Ġblocks":5358,"word":5359,"Ġoverwh":5360,"aps":5361,"aping":5362,"Ġsupposed":5363,"astination":5364,"anger":5365,"Ġlistens":5366,"priate":5367,"Ġhomework":5368,"Ġrelief":5369,"Ġtraits":5370,"Ġnetflix":5371,"Ġfundra":5372,"Ġhighly":5373,"Ġ14":5374,"Ġoffered":5375,"Ġunderserved":5376,"Ġcares":5377,"Ġcared":5378,"Ġvisiting":5379,"Ġvisibility":5380,"Ġdonate":5381,"Ġtransition":5382,"Ġbots":5383,"Ġstudio":5384,"Ġsalesforce":5385,"Ġpoverty":5386,"Ġimproves":5387,"Ġcompetitor":5388,"Ġpromising":5389,"Ġindustrial":5390,"Ġdrinks":5391,"Ġbroad":5392,"Ġbroken":5393,"Ġtechnique":5394,"Ġinsurers":5395,"Ġtwice":5396,"Ġguarant":5397,"Ġsearchable":5398,"Ġreps":5399,"Ġstored":5400,"Ġdistribution":5401,"Ġcombined":5402,"Ġcodes":5403,"Ġstorefron":5404,"Ġformed":5405,"Ġbenefic":5406,"Ġsignificant":5407,"Ġlandsc":5408,"Ġtraded":5409,"Ġexplains":5410,"Ġexploring":5411,"Ġexplosion":5412,"Ġmemorable":5413,"Ġcommonly":5414,"boards":5415,"Ġmilitary":5416,"Ġlowest":5417,"Ġsupporting":5418,"Ġavoiding":5419,"Ġprotocol":5420,"Ġnonprofit":5421,"Ġastronom":5422,"Ġsurround":5423,"Ġsurely":5424,"Ġgrubhub":5425,"Ġincred":5426,"Ġincreases":5427,"Ġbehalf":5428,"Ġflies":5429,"Ġflocks":5430,"Ġapplicants":5431,"Ġrecruitment":5432,"serve":5433,"Ġorganization":5434,"Ġmultiply":5435,"Ġwalmart":5436,"Ġpurposes":5437,"Ġvisualization":5438,"Ġrefused":5439,"Ġadjusting":5440,"Ġstandalone":5441,"Ġblesses":5442,"Ġtrainers":5443,"Ġtrees":5444,"Ġtrello":5445,"Ġeats":5446,"Ġconfused":5447,"Ġversus":5448,"Ġcandlest":5449,"Ġfunny":5450,"Ġprepaid":5451,"Ġpopulation":5452,"Ġguiding":5453,"Ġrecommendation":5454,"Ġskin":5455,"Ġceos":5456,"Ġpitched":5457,"ycles":5458,"Ġmentors":5459,"Ġforgot":5460,"Ġroadmap":5461,"Ġmidw":5462,"Ġpreparation":5463,"Ġappointment":5464,"Ġstruggling":5465,"Ġcoverage":5466,"Ġmagaz":5467,"Ġputs":5468,"Ġconferencing":5469,"Ġbehavioral":5470,"Ġcanaanite":5471,"Ġdiagn":5472,"Ġtroubles":5473,"Ġsimpler":5474,"Ġmaintaining":5475,"Ġtablets":5476,"Ġdoorstep":5477,"Ġspotify":5478,"Ġnavigating":5479,"Ġroutine":5480,"Ġpickup":5481,"ographic":5482,"management":5483,"Ġephron":5484,"Ġinvolve":5485,"Ġemotion":5486,"Ġcooks":5487,"Ġ401":5488,"Ġvenus":5489,"Ġrepairs":5490,"Ġcrowdsourcing":5491,"Ġlamb":5492,"Ġlambs":5493,"Ġcommanded":5494,"Ġconflicting":5495,"Ġveter":5496,"Ġborrowers":5497,"Ġsouth":5498,"Ġhighlighting":5499,"Ġforecasting":5500,"Ġshelter":5501,"Ġledger":5502,"Ġappreciate":5503,"Ġactionable":5504,"Ġextremely":5505,"Ġconcerns":5506,"Ġfunctionality":5507,"Ġdestroyed":5508,"Ġutilities":5509,"Ġdinah":5510,"Ġnurture":5511,"Ġridesh":5512,"Ġstreamlined":5513,"Ġcircumcision":5514,"Ġsorting":5515,"Ġoxen":5516,"Ġtrucks":5517,"Ġverticals":5518,"Ġprototype":5519,"Ġcraigs":5520,"Ġmutual":5521,"Ġpressure":5522,"Ġhealings":5523,"Ġheaven":5524,"Ġreflecting":5525,"Ġpreviously":5526,"ietary":5527,"known":5528,"minute":5529,"Ġsector":5530,"Ġstreet":5531,"Ġaccelerator":5532,"Ġattendees":5533,"Ġgarage":5534,"Ġerrors":5535,"Ġfarthest":5536,"Ġdouble":5537,"Ġallocate":5538,"Ġadopt":5539,"Ġagreements":5540,"Ġ186":5541,"Ġadvisors":5542,"Ġaugust":5543,"Ġwelcome":5544,"Ġdiseases":5545,"Ġratings":5546,"Ġtexts":5547,"Ġtestimony":5548,"Ġwarehouse":5549,"Ġfloating":5550,"Ġhobbies":5551,"Ġnutr":5552,"Ġconsolidation":5553,"Ġhomeowners":5554,"Ġelectronics":5555,"Ġcounselor":5556,"Ġslogan":5557,"Ġbilhah":5558,"Ġfrogs":5559,"Ġconcession":5560,"Ġwristband":5561,"Ġpharmaceutical":5562,"Ġmultitasking":5563,"consum":5564,"human":5565,"histicated":5566,"sided":5567,"Ġagricult":5568,"Ġsophisticated":5569,"Ġsudden":5570,"Ġpomodoro":5571,"Ġpiggy":5572,"Ġpizza":5573,"Ġboston":5574,"Ġmobility":5575,"Ġdivided":5576,"Ġoverseas":5577,"Ġlocusts":5578,"Ġeither":5579,"Ġyoga":5580,"Ġnimrod":5581,"Ġproprietary":5582,"Ġprocrastination":5583,"Ġjuggling":5584,"Ġtaught":5585,"Ġoverwhel":5586,"Ġbeneficial":5587,"Ġcandlestick":5588,"Ġcraigslist":5589,"',":5590,").":5591,"15":5592,"200":5593,"40":5594,"75":5595,"aul":5596,"bors":5597,"block":5598,"cre":5599,"col":5600,"cip":5601,"dra":5602,"drop":5603,"eel":5604,"eign":5605,"fre":5606,"god":5607,"goog":5608,"hy":5609,"high":5610,"iage":5611,"iors":5612,"iary":5613,"job":5614,"lain":5615,"lution":5616,"mar":5617,"mind":5618,"mile":5619,"mber":5620,"mission":5621,"net":5622,"night":5623,"nings":5624,"nia":5625,"oes":5626,"ped":5627,"pts":5628,"pace":5629,"right":5630,"rum":5631,"sa":5632,"sourced":5633,"tures":5634,"uum":5635,"uous":5636,"vis":5637,"with":5638,"yer":5639,"Ġult":5640,"Ġtast":5641,"Ġtips":5642,"Ġaw":5643,"Ġaid":5644,"Ġapr":5645,"inst":5646,"intern":5647,"Ġthy":5648,"Ġthread":5649,"Ġsand":5650,"Ġswe":5651,"Ġsink":5652,"Ġsorts":5653,"atible":5654,"Ġwars":5655,"Ġpan":5656,"Ġpad":5657,"Ġpiv":5658,"Ġbod":5659,"Ġtow":5660,"onym":5661,"Ġfine":5662,"Ġfert":5663,"Ġfancy":5664,"arify":5665,"Ġmath":5666,"Ġhom":5667,"Ġhust":5668,"Ġhip":5669,"Ġhug":5670,"Ġhires":5671,"Ġharsh":5672,"Ġandrom":5673,"Ġdanger":5674,"enities":5675,"ength":5676,"oming":5677,"ouds":5678,"itects":5679,"ales":5680,"uss":5681,"usual":5682,"lear":5683,"lend":5684,"Ġoct":5685,"Ġovers":5686,"elah":5687,"Ġinexp":5688,"Ġwhom":5689,"Ġstol":5690,"Ġstyle":5691,"Ġstraw":5692,"eda":5693,"Ġlength":5694,"ille":5695,"isf":5696,"Ġforeign":5697,"Ġeight":5698,"Ġeber":5699,"aced":5700,"owers":5701,"Ġyelp":5702,"Ġnation":5703,"Ġnine":5704,"Ġnail":5705,"Ġnice":5706,"Ġnaked":5707,"essions":5708,"Ġcomplic":5709,"Ġcomplain":5710,"Ġcompatible":5711,"Ġdots":5712,"Ġdoors":5713,"Ġplum":5714,"Ġreplaces":5715,"vember":5716,"Ġprove":5717,"Ġgoats":5718,"olution":5719,"this":5720,"think":5721,"Ġmah":5722,"Ġmail":5723,"Ġcanc":5724,"Ġcanv":5725,"urp":5726,"Ġring":5727,"Ġrid":5728,"Ġriders":5729,"imating":5730,"Ġtrail":5731,"Ġbeat":5732,"Ġbeach":5733,"Ġconduct":5734,"ches":5735,"Ġshines":5736,"Ġvp":5737,"Ġfrust":5738,"Ġlease":5739,"Ġjump":5740,"Ġjaph":5741,"Ġjew":5742,"ocr":5743,"ocul":5744,"anded":5745,"Ġyours":5746,"star":5747,"Ġsport":5748,"Ġspices":5749,"Ġabel":5750,"Ġabund":5751,"Ġabove":5752,"Ġappeal":5753,"iff":5754,"ifi":5755,"Ġservers":5756,"abling":5757,"Ġseo":5758,"ober":5759,"inder":5760,"iva":5761,"Ġasian":5762,"Ġpride":5763,"Ġhear":5764,"Ġheating":5765,"istr":5766,"Ġproducing":5767,"Ġacknow":5768,"Ġweaker":5769,"assive":5770,"Ġtaps":5771,"ums":5772,"Ġsafer":5773,"Ġbrass":5774,"Ġbrick":5775,"Ġclust":5776,"Ġclarify":5777,"Ġpassed":5778,"Ġunlike":5779,"Ġunified":5780,"Ġunknown":5781,"Ġunusual":5782,"Ġfebr":5783,"Ġfeared":5784,"Ġnotify":5785,"Ġdates":5786,"Ġinters":5787,"Ġsomewhere":5788,"ostat":5789,"ibes":5790,"ibly":5791,"Ġcurious":5792,"Ġcontain":5793,"Ġemployer":5794,"Ġincent":5795,"Ġenabling":5796,"Ġmoons":5797,"Ġdesp":5798,"seek":5799,"Ġrecover":5800,"Ġsmarter":5801,"Ġdigitally":5802,"pler":5803,"plus":5804,"Ġresidents":5805,"Ġseeks":5806,"Ġsettle":5807,"Ġscen":5808,"Ġscans":5809,"Ġscaling":5810,"Ġdecor":5811,"Ġdecade":5812,"Ġrods":5813,"Ġknows":5814,"aped":5815,"Ġdevelops":5816,"Ġsupports":5817,"Ġstripe":5818,"Ġentry":5819,"Ġmonitors":5820,"Ġretention":5821,"Ġlisted":5822,"Ġlocks":5823,"Ġdifferentiate":5824,"Ġmostly":5825,"Ġamor":5826,"Ġamenities":5827,"Ġdaytime":5828,"Ġarm":5829,"Ġarise":5830,"Ġhomebu":5831,"Ġnovember":5832,"Ġafric":5833,"Ġinstant":5834,"Ġanyway":5835,"Ġhighest":5836,"Ġhighway":5837,"Ġexperts":5838,"Ġstays":5839,"Ġdisapp":5840,"Ġdisabilities":5841,"Ġcarries":5842,"Ġsignal":5843,"Ġtransl":5844,"Ġtranslates":5845,"Ġremo":5846,"Ġtravels":5847,"Ġwouldn":5848,"Ġaccessed":5849,"Ġfriendship":5850,"Ġpriorities":5851,"Ġprogramm":5852,"Ġprogrammers":5853,"Ġenglish":5854,"Ġ2024":5855,"Ġattemp":5856,"Ġguess":5857,"Ġapis":5858,"Ġrepent":5859,"Ġholds":5860,"Ġartic":5861,"Ġartist":5862,"Ġui":5863,"Ġmainly":5864,"Ġneglect":5865,"Ġlistened":5866,"cript":5867,"Ġsignificantly":5868,"Ġdeterg":5869,"Ġexplan":5870,"cribe":5871,"Ġbrew":5872,"Ġdealing":5873,"Ġcampus":5874,"Ġobed":5875,"Ġearned":5876,"Ġplayer":5877,"Ġplayers":5878,"Ġcollaborative":5879,"Ġslides":5880,"Ġgenerally":5881,"Ġairline":5882,"Ġairport":5883,"Ġgrands":5884,"Ġregion":5885,"Ġregulations":5886,"Ġ2014":5887,"brid":5888,"Ġcontractor":5889,"Ġelders":5890,"Ġdeliveries":5891,"Ġaffects":5892,"Ġbalances":5893,"Ġbalancing":5894,"Ġbalanced":5895,"Ġstands":5896,"Ġblessings":5897,"Ġfairness":5898,"facebook":5899,"Ġperforming":5900,"Ġtreas":5901,"Ġcontrolled":5902,"Ġownership":5903,"Ġextr":5904,"Ġminds":5905,"Ġsuccessfully":5906,"Ġchefs":5907,"Ġsecured":5908,"Ġcrit":5909,"Ġremembering":5910,"Ġprotecting":5911,"anner":5912,"Ġdefin":5913,"Ġunderest":5914,"Ġvisits":5915,"Ġcrypto":5916,"Ġconversion":5917,"Ġjudges":5918,"Ġelectronic":5919,"theast":5920,"Ġwearing":5921,"Ġdistributors":5922,"Ġpolls":5923,"Ġpollution":5924,"Ġtypical":5925,"Ġstops":5926,"Ġstopped":5927,"Ġpreparing":5928,"Ġcovering":5929,"Ġanswering":5930,"exper":5931,"Ġswir":5932,"Ġmagic":5933,"Ġmagicians":5934,"Ġclassroom":5935,"Ġadvises":5936,"Ġparticles":5937,"Ġoptimization":5938,"Ġbasket":5939,"Ġbasically":5940,"Ġfacial":5941,"Ġfacilities":5942,"Ġconferences":5943,"Ġfactory":5944,"Ġfirework":5945,"Ġdiverse":5946,"Ġreminds":5947,"Ġattractive":5948,"Ġmomentum":5949,"Ġdiet":5950,"Ġspreading":5951,"Ġheadach":5952,"pending":5953,"Ġzip":5954,"Ġalternatives":5955,"Ġdifficulty":5956,"Ġpaperwork":5957,"Ġpreferred":5958,"Ġoutsource":5959,"Ġcouples":5960,"Ġpractices":5961,"medium":5962,"Ġreasons":5963,"Ġlimits":5964,"Ġneighbors":5965,"Ġvacuum":5966,"Ġseparated":5967,"Ġinvolves":5968,"Ġminimal":5969,"Ġerase":5970,"Ġwarmth":5971,"Ġcomputing":5972,"Ġaccurately":5973,"Ġfeatured":5974,"Ġpunishment":5975,"Ġspoken":5976,"Ġvenmo":5977,"Ġdropbox":5978,"Ġclinical":5979,"Ġmonetizing":5980,"Ġconfidence":5981,"Ġconflict":5982,"Ġflexibility":5983,"Ġreddit":5984,"Ġvetinary":5985,"Ġthousand":5986,"Ġsoutheast":5987,"Ġsadness":5988,"Ġyounger":5989,"Ġencour":5990,"Ġsilver":5991,"Ġflee":5992,"Ġbeginning":5993,"Ġsatisf":5994,"Ġshelah":5995,"Ġseems":5996,"cloud":5997,"Ġrobotic":5998,"Ġrobotics":5999,"Ġarrange":6000,"Ġperspective":6001,"Ġsociety":6002,"Ġdrawing":6003,"Ġsmoking":6004,"Ġadditional":6005,"Ġqualities":6006,"Ġbirds":6007,"Ġpharmacy":6008,"Ġcooperation":6009,"Ġcooperate":6010,"Ġfulfilling":6011,"connect":6012,"Ġtutors":6013,"Ġtutoring":6014,"Ġalexa":6015,"Ġcomfortable":6016,"Ġrank":6017,"Ġspinoff":6018,"Ġweighing":6019,"Ġneighborhoods":6020,"Ġsongs":6021,"Ġperiods":6022,"Ġbreathe":6023,"Ġeliminate":6024,"personalized":6025,"namic":6026,"Ġfederal":6027,"Ġhybrid":6028,"Ġlosses":6029,"keeping":6030,"Ġleveraging":6031,"Ġleverages":6032,"Ġtherapists":6033,"Ġmileage":6034,"Ġipad":6035,"Ġarchitects":6036,"Ġdishes":6037,"Ġtransformation":6038,"Ġobserv":6039,"Ġbarcode":6040,"Ġcoupon":6041,"Ġcyber":6042,"Ġdedicated":6043,"Ġinitial":6044,"Ġgirls":6045,"Ġcomponents":6046,"Ġrevolution":6047,"Ġweeks":6048,"Ġindicators":6049,"Ġexperiments":6050,"Ġdealerships":6051,"Ġsacrifices":6052,"Ġrapidly":6053,"Ġsnowball":6054,"Ġthermostat":6055,"Ġbinocul":6056,"Ġbattery":6057,"Ġgermany":6058,"Ġconvenience":6059,"Ġmexico":6060,"Ġpraise":6061,"Ġresilient":6062,"Ġreservations":6063,"Ġcarpooling":6064,"Ġrefunds":6065,"Ġlicensed":6066,"Ġauction":6067,"Ġthreats":6068,"Ġcosmic":6069,"Ġpulled":6070,"Ġhusband":6071,"Ġcompleting":6072,"Ġmaximize":6073,"Ġphrase":6074,"Ġunpredictable":6075,"Ġsupermassive":6076,"Ġpredicts":6077,"Ġastronomers":6078,"Ġmagazine":6079,"Ġveterans":6080,"minded":6081,"netflix":6082,"internet":6083,"Ġpivot":6084,"Ġbodies":6085,"Ġhomeless":6086,"Ġandromeda":6087,"Ġoctober":6088,"Ġstolen":6089,"Ġlengths":6090,"Ġcomplicated":6091,"Ġjumping":6092,"Ġjapheth":6093,"Ġfebruary":6094,"Ġhomebuyers":6095,"connected":6096,"Ġbinoculars":6097,"'.":6098,"aware":6099,"ba":6100,"ben":6101,"bur":6102,"bound":6103,"ces":6104,"ced":6105,"city":6106,"crow":6107,"da":6108,"dy":6109,"doc":6110,"dist":6111,"ein":6112,"fin":6113,"fts":6114,"flo":6115,"file":6116,"fiction":6117,"gent":6118,"gory":6119,"good":6120,"gery":6121,"glass":6122,"grown":6123,"host":6124,"hole":6125,"hoot":6126,"hows":6127,"ifor":6128,"iants":6129,"ihood":6130,"kp":6131,"lay":6132,"lage":6133,"lot":6134,"land":6135,"lings":6136,"lights":6137,"more":6138,"mates":6139,"mouth":6140,"necess":6141,"ok":6142,"ots":6143,"pen":6144,"ris":6145,"rest":6146,"rate":6147,"rors":6148,"riers":6149,"riage":6150,"site":6151,"spe":6152,"saving":6153,"school":6154,"tors":6155,"take":6156,"uin":6157,"vo":6158,"vy":6159,"ville":6160,"Ġtor":6161,"Ġtall":6162,"Ġtied":6163,"Ġterah":6164,"Ġath":6165,"Ġaware":6166,"inent":6167,"inations":6168,"inating":6169,"Ġsv":6170,"Ġsor":6171,"Ġsits":6172,"Ġthee":6173,"ata":6174,"ature":6175,"atient":6176,"esp":6177,"Ġcat":6178,"Ġcel":6179,"Ġcow":6180,"Ġcable":6181,"Ġcto":6182,"Ġcats":6183,"Ġcows":6184,"Ġcells":6185,"Ġcuts":6186,"Ġcroc":6187,"Ġwag":6188,"Ġwech":6189,"Ġwives":6190,"Ġwifi":6191,"anish":6192,"orter":6193,"orrah":6194,"Ġpd":6195,"Ġpere":6196,"Ġpnc":6197,"Ġpaired":6198,"Ġbac":6199,"Ġbiz":6200,"Ġbones":6201,"Ġbells":6202,"Ġtoken":6203,"oned":6204,"onts":6205,"Ġfat":6206,"Ġfab":6207,"Ġfles":6208,"Ġfaces":6209,"Ġmel":6210,"Ġmall":6211,"Ġmech":6212,"Ġmock":6213,"Ġira":6214,"Ġicy":6215,"Ġhack":6216,"Ġhike":6217,"reess":6218,"retion":6219,"Ġandreess":6220,"Ġdan":6221,"Ġdance":6222,"Ġdav":6223,"omorrah":6224,"lets":6225,"Ġowe":6226,"Ġohol":6227,"Ġolive":6228,"elve":6229,"elihood":6230,"Ġinner":6231,"Ġwheel":6232,"Ġstup":6233,"Ġstack":6234,"Ġstable":6235,"Ġlines":6236,"Ġgear":6237,"Ġgau":6238,"Ġgains":6239,"Ġgomorrah":6240,"erstand":6241,"arted":6242,"isition":6243,"Ġforb":6244,"Ġforget":6245,"asy":6246,"aser":6247,"ico":6248,"icious":6249,"icemail":6250,"Ġears":6251,"Ġelement":6252,"tst":6253,"acart":6254,"owitz":6255,"irts":6256,"iration":6257,"ircumc":6258,"Ġnone":6259,"Ġnah":6260,"Ġcompass":6261,"ecurity":6262,"Ġdove":6263,"Ġhelper":6264,"Ġonto":6265,"Ġplut":6266,"Ġren":6267,"Ġreun":6268,"Ġprob":6269,"Ġproceed":6270,"iduc":6271,"Ġliqu":6272,"oles":6273,"amah":6274,"Ġmad":6275,"Ġrand":6276,"Ġrail":6277,"Ġrain":6278,"Ġracing":6279,"Ġruin":6280,"Ġalb":6281,"impro":6282,"Ġanger":6283,"Ġtraction":6284,"Ġbeasts":6285,"Ġconver":6286,"Ġcondem":6287,"Ġplate":6288,"estial":6289,"Ġshr":6290,"Ġshut":6291,"Ġshoes":6292,"Ġshorter":6293,"uning":6294,"Ġvote":6295,"Ġmandra":6296,"Ġfrance":6297,"Ġframe":6298,"Ġfraction":6299,"Ġfridge":6300,"Ġleverage":6301,"Ġleaves":6302,"Ġmeets":6303,"stand":6304,"stances":6305,"stacles":6306,"Ġspect":6307,"Ġspain":6308,"Ġspanish":6309,"Ġchances":6310,"Ġchocol":6311,"Ġcharts":6312,"Ġabs":6313,"Ġcrew":6314,"Ġappli":6315,"Ġdepr":6316,"Ġdegre":6317,"Ġdemo":6318,"onement":6319,"illing":6320,"Ġextern":6321,"Ġsmooth":6322,"Ġprize":6323,"Ġpriced":6324,"Ġhearing":6325,"istent":6326,"Ġmarriage":6327,"Ġwears":6328,"ection":6329,"Ġload":6330,"ighty":6331,"Ġadvent":6332,"Ġadwords":6333,"Ġmarketplaces":6334,"umes":6335,"epad":6336,"Ġplane":6337,"Ġplanner":6338,"Ġsake":6339,"Ġsaves":6340,"Ġhash":6341,"Ġworker":6342,"Ġworkouts":6343,"Ġphase":6344,"understand":6345,"Ġmys":6346,"Ġmyself":6347,"Ġbricks":6348,"Ġbrighter":6349,"Ġpassions":6350,"Ġunw":6351,"Ġunit":6352,"Ġunable":6353,"Ġunless":6354,"Ġunnecess":6355,"Ġken":6356,"Ġnotice":6357,"Ġnotepad":6358,"ourish":6359,"Ġprovision":6360,"Ġintention":6361,"Ġintense":6362,"Ġseller":6363,"Ġoutfit":6364,"Ġoutlines":6365,"ptops":6366,"Ġups":6367,"ction":6368,"Ġwanting":6369,"Ġcurate":6370,"Ġowning":6371,"Ġinterpre":6372,"Ġconscious":6373,"Ġenorm":6374,"Ġmoab":6375,"Ġmoved":6376,"Ġdesire":6377,"Ġdesires":6378,"uban":6379,"Ġrecon":6380,"Ġrecyc":6381,"plan":6382,"Ġresume":6383,"Ġresumes":6384,"Ġsett":6385,"Ġsetback":6386,"Ġscoring":6387,"Ġscanner":6388,"Ġkept":6389,"Ġevol":6390,"Ġhappiness":6391,"Ġfires":6392,"Ġtakeout":6393,"Ġfinally":6394,"Ġdecre":6395,"grade":6396,"ender":6397,"Ġpregn":6398,"Ġqueries":6399,"Ġroyal":6400,"Ġblame":6401,"Ġblamed":6402,"Ġknowlage":6403,"Ġspecialized":6404,"Ġspecialty":6405,"athers":6406,"ango":6407,"anging":6408,"intellig":6409,"Ġprocessed":6410,"Ġlaver":6411,"Ġlazy":6412,"Ġlaptops":6413,"Ġlocate":6414,"Ġdifferently":6415,"icked":6416,"Ġcoat":6417,"Ġdaycare":6418,"crime":6419,"crunch":6420,"Ġcareg":6421,"Ġhardships":6422,"Ġtraverse":6423,"weight":6424,"Ġthank":6425,"Ġinstacart":6426,"Ġpersonalize":6427,"Ġtechcrunch":6428,"Ġsignals":6429,"Ġplacement":6430,"Ġpermission":6431,"Ġresting":6432,"Ġrested":6433,"Ġsharpen":6434,"Ġsunglass":6435,"Ġincluded":6436,"Ġfinancials":6437,"Ġconsume":6438,"Ġassign":6439,"Ġcalifor":6440,"Ġlightweight":6441,"Ġpurs":6442,"Ġseconds":6443,"aterrest":6444,"Ġjustice":6445,"Ġaccountable":6446,"Ġretailer":6447,"ished":6448,"Ġworldwide":6449,"Ġfollows":6450,"Ġflowing":6451,"Ġchooses":6452,"Ġengines":6453,"Ġtwitch":6454,"Ġtwelve":6455,"Ġguest":6456,"Ġguard":6457,"Ġsearches":6458,"Ġprofess":6459,"Ġapolog":6460,"Ġspeaker":6461,"Ġopenly":6462,"Ġopenings":6463,"Ġholding":6464,"Ġworkspace":6465,"Ġtargets":6466,"Ġspends":6467,"Ġgenetic":6468,"Ġformats":6469,"Ġmodular":6470,"Ġmodern":6471,"letes":6472,"Ġmovements":6473,"orders":6474,"iques":6475,"iquity":6476,"Ġfits":6477,"Ġmeasures":6478,"Ġblocked":6479,"Ġentering":6480,"Ġparad":6481,"Ġbootst":6482,"Ġavailability":6483,"Ġtextbooks":6484,"Ġobstacles":6485,"Ġdescribes":6486,"Ġdescribed":6487,"Ġintegration":6488,"Ġintegrations":6489,"Ġintegrating":6490,"Ġslave":6491,"Ġgenerated":6492,"Ġgenerous":6493,"Ġprotein":6494,"Ġsurplus":6495,"Ġsurgery":6496,"Ġgrand":6497,"Ġregard":6498,"Ġconstantly":6499,"profile":6500,"Ġangeles":6501,"Ġflat":6502,"Ġflap":6503,"Ġportal":6504,"branded":6505,"Ġburden":6506,"Ġburdens":6507,"Ġrewarding":6508,"Ġaudit":6509,"Ġaudiences":6510,"Ġseeds":6511,"Ġpredicted":6512,"Ġaffil":6513,"Ġreceiving":6514,"Ġpossibilities":6515,"Ġengineer":6516,"issions":6517,"Ġrequests":6518,"Ġselfless":6519,"rolled":6520,"Ġkeyboard":6521,"Ġcollected":6522,"Ġvisualizing":6523,"Ġrefine":6524,"Ġprivacy":6525,"Ġappropriate":6526,"Ġperformed":6527,"Ġturned":6528,"Ġcleaned":6529,"Ġsinai":6530,"Ġtopic":6531,"Ġinfin":6532,"Ġendless":6533,"Ġchef":6534,"Ġcolleagues":6535,"swipe":6536,"Ġwillingness":6537,"Ġdiscuss":6538,"Ġdiscretion":6539,"ipping":6540,"ipped":6541,"Ġtenth":6542,"Ġcapable":6543,"Ġcapabilities":6544,"Ġconcise":6545,"Ġconcerts":6546,"Ġcheckout":6547,"Ġprotected":6548,"Ġmeteorite":6549,"Ġrepresentation":6550,"Ġindex":6551,"Ġdashboards":6552,"annel":6553,"Ġvoicemail":6554,"Ġguides":6555,"Ġguided":6556,"Ġskip":6557,"Ġskins":6558,"Ġglobally":6559,"Ġlowering":6560,"Ġviews":6561,"Ġlawyer":6562,"Ġdistributing":6563,"Ġcamels":6564,"Ġoppon":6565,"Ġpraying":6566,"workers":6567,"Ġdiscovering":6568,"bank":6569,"Ġpublicly":6570,"Ġequal":6571,"Ġbookings":6572,"Ġcausing":6573,"Ġoptimized":6574,"Ġmanufacturer":6575,"Ġbasis":6576,"Ġbasics":6577,"Ġeducational":6578,"Ġpleased":6579,"Ġpleasing":6580,"Ġdiversified":6581,"Ġattracted":6582,"ields":6583,"Ġmountains":6584,"Ġlibraries":6585,"Ġcanaanites":6586,"Ġmedications":6587,"Ġsupplier":6588,"Ġsleeping":6589,"Ġdiy":6590,"Ġspreads":6591,"Ġheads":6592,"Ġunclear":6593,"Ġuncircumc":6594,"Ġuploading":6595,"Ġsteal":6596,"Ġstepping":6597,"Ġsevere":6598,"Ġboxes":6599,"Ġzend":6600,"Ġrouter":6601,"Ġrouters":6602,"Ġburned":6603,"Ġcircum":6604,"Ġadvantages":6605,"coming":6606,"perform":6607,"scale":6608,"Ġthoughtful":6609,"build":6610,"builder":6611,"Ġephod":6612,"Ġprospect":6613,"Ġprosper":6614,"Ġapplying":6615,"Ġinstructors":6616,"founded":6617,"Ġwarmer":6618,"Ġstapler":6619,"Ġrecognizing":6620,"Ġsymbolizes":6621,"Ġbott":6622,"Ġfalls":6623,"Ġfalling":6624,"Ġsuggesting":6625,"Ġenvironments":6626,"Ġmoral":6627,"Ġmornings":6628,"Ġvenues":6629,"Ġpaths":6630,"Ġbiomet":6631,"Ġfighting":6632,"Ġharass":6633,"Ġgrew":6634,"Ġfraudul":6635,"Ġcommandments":6636,"Ġadvertisements":6637,"Ġbabies":6638,"Ġlikelihood":6639,"Ġaggregates":6640,"Ġaggregating":6641,"centric":6642,"launch":6643,"spot":6644,"Ġweekly":6645,"Ġclips":6646,"Ġwriters":6647,"Ġenvironmental":6648,"Ġcategory":6649,"Ġgaming":6650,"Ġgamers":6651,"Ġexercises":6652,"Ġhonorable":6653,"Ġsoda":6654,"Ġsixth":6655,"Ġnecessities":6656,"Ġshelves":6657,"Ġacquisition":6658,"Ġcarrying":6659,"click":6660,"Ġcaf":6661,"Ġcafe":6662,"Ġcaution":6663,"Ġsticky":6664,"Ġnurse":6665,"Ġplastics":6666,"Ġarrive":6667,"Ġrelaxation":6668,"Ġpromotions":6669,"Ġgradu":6670,"Ġgradually":6671,"Ġmagnet":6672,"Ġwarr":6673,"Ġwishes":6674,"Ġinnovate":6675,"Ġlicenses":6676,"Ġgathering":6677,"Ġtrucking":6678,"Ġshipments":6679,"Ġqualifications":6680,"Ġpremiums":6681,"resh":6682,"techn":6683,"value":6684,"Ġcounter":6685,"Ġpenal":6686,"Ġhorowitz":6687,"Ġreferral":6688,"Ġvolume":6689,"Ġheavy":6690,"Ġtelevision":6691,"Ġstandards":6692,"Ġcategorizing":6693,"Ġmisunderstand":6694,"Ġstreets":6695,"Ġalien":6696,"Ġfacilitate":6697,"hearted":6698,"Ġbowed":6699,"Ġlamps":6700,"Ġalmost":6701,"Ġalmighty":6702,"Ġverify":6703,"Ġretaining":6704,"Ġbreaths":6705,"Ġerror":6706,"Ġtimely":6707,"investing":6708,"Ġfarther":6709,"Ġillness":6710,"Ġillnesses":6711,"Ġdemographic":6712,"Ġagreed":6713,"Ġinstallation":6714,"Ġbelieves":6715,"Ġfilmmakers":6716,"Ġadvisor":6717,"Ġwashington":6718,"generated":6719,"Ġdamage":6720,"Ġsponsors":6721,"Ġdisputes":6722,"Ġdisplays":6723,"Ġboils":6724,"Ġbarcodes":6725,"Ġdropping":6726,"Ġcompares":6727,"Ġvictories":6728,"Ġemphasis":6729,"Ġofficers":6730,"Ġfinished":6731,"Ġglasses":6732,"Ġrefinance":6733,"Ġrefinancing":6734,"Ġnewsletter":6735,"Ġnewsletters":6736,"Ġspreadsheet":6737,"Ġspreadsheets":6738,"Ġprototypes":6739,"Ġprototyping":6740,"Ġembedded":6741,"local":6742,"Ġtolerance":6743,"Ġheld":6744,"Ġhamor":6745,"Ġdynamic":6746,"Ġstraight":6747,"Ġreveal":6748,"Ġprophets":6749,"Ġsprings":6750,"allowed":6751,"Ġacademic":6752,"Ġresolve":6753,"Ġpretty":6754,"Ġassociated":6755,"Ġattached":6756,"Ġhistorically":6757,"Ġphilistia":6758,"Ġvolunteers":6759,"Ġviolence":6760,"bucks":6761,"Ġqr":6762,"Ġsibling":6763,"Ġwedding":6764,"Ġirs":6765,"Ġdigit":6766,"Ġluxury":6767,"Ġlgbtq":6768,"Ġglowing":6769,"Ġproactive":6770,"Ġanxiety":6771,"Ġconcepts":6772,"charged":6773,"Ġdevot":6774,"Ġdelegate":6775,"Ġhebrews":6776,"Ġadministr":6777,"Ġintroducing":6778,"Ġcursed":6779,"Ġcontributions":6780,"Ġstorefronts":6781,"Ġmidwives":6782,"Ġtroubleshoot":6783,"Ġnutrition":6784,"Ġagriculture":6785,"Ġoverwhelmed":6786,"blockchain":6787,"google":6788,"Ġtaste":6789,"Ġapril":6790,"Ġsinkhole":6791,"Ġtower":6792,"Ġinexpensive":6793,"Ġcomplaints":6794,"Ġcanvas":6795,"Ġvpn":6796,"Ġfrustrated":6797,"Ġjewel":6798,"Ġabundance":6799,"Ġacknowledge":6800,"Ġintersection":6801,"Ġamorites":6802,"Ġremoving":6803,"Ġprogrammable":6804,"Ġarticles":6805,"Ġdetergent":6806,"Ġobedience":6807,"Ġslideshows":6808,"Ġgrandsons":6809,"Ġextraterrest":6810,"Ġcritical":6811,"Ġswirling":6812,"Ġencourage":6813,"kpot":6814,"Ġathletes":6815,"Ġcelestial":6816,"Ġcrockpot":6817,"Ġwechat":6818,"Ġperez":6819,"Ġbackend":6820,"Ġflesh":6821,"Ġmechan":6822,"Ġmockups":6823,"Ġandreessen":6824,"Ġdavid":6825,"Ġstupid":6826,"Ġgauge":6827,"Ġnahor":6828,"Ġpluto":6829,"Ġliquid":6830,"Ġrandom":6831,"improve":6832,"Ġmandrakes":6833,"Ġframework":6834,"Ġchocolate":6835,"Ġappliances":6836,"Ġdegrees":6837,"Ġexternal":6838,"Ġsmoothly":6839,"Ġunnecessary":6840,"Ġenormous":6841,"Ġrecycled":6842,"Ġsharpener":6843,"Ġsunglasses":6844,"Ġcalifornia":6845,"Ġdiscretionary":6846,"Ġuncircumcised":6847,"Ġmisunderstandings":6848,"Ġextraterrestrial":6849,"'d":6850,"11":6851,"250":6852,"400":6853,"600":6854,"700":6855,"95":6856,"ault":6857,"bi":6858,"bra":6859,"bear":6860,"base":6861,"bling":6862,"card":6863,"cise":6864,"camp":6865,"comm":6866,"date":6867,"dash":6868,"dated":6869,"data":6870,"eled":6871,"ealing":6872,"fers":6873,"fam":6874,"find":6875,"field":6876,"falls":6877,"gie":6878,"gree":6879,"gency":6880,"hot":6881,"hand":6882,"hous":6883,"iw":6884,"iot":6885,"ji":6886,"ject":6887,"ktan":6888,"lies":6889,"late":6890,"lab":6891,"lands":6892,"lpool":6893,"lighter":6894,"ml":6895,"men":6896,"mort":6897,"no":6898,"nel":6899,"not":6900,"oe":6901,"pet":6902,"ply":6903,"pass":6904,"point":6905,"pelah":6906,"purp":6907,"rust":6908,"rad":6909,"rive":6910,"rich":6911,"rier":6912,"rons":6913,"rates":6914,"rative":6915,"san":6916,"sing":6917,"sup":6918,"sim":6919,"such":6920,"sapp":6921,"ta":6922,"tre":6923,"tag":6924,"test":6925,"tap":6926,"turn":6927,"turing":6928,"tress":6929,"telling":6930,"uing":6931,"ued":6932,"vet":6933,"vac":6934,"vue":6935,"win":6936,"yx":6937,"Ã©":6938,"Ġ&":6939,"Ġub":6940,"Ġomer":6941,"Ġtan":6942,"Ġtie":6943,"Ġaz":6944,"inform":6945,"inars":6946,"incip":6947,"Ġthus":6948,"Ġthick":6949,"Ġsow":6950,"Ġsist":6951,"Ġsourcing":6952,"Ġsword":6953,"Ġsessions":6954,"att":6955,"atic":6956,"atform":6957,"ero":6958,"ered":6959,"erving":6960,"erds":6961,"erco":6962,"erative":6963,"Ġcp":6964,"Ġcit":6965,"Ġcart":6966,"Ġcrop":6967,"Ġcarts":6968,"Ġcuban":6969,"Ġwit":6970,"Ġwro":6971,"Ġwow":6972,"Ġwall":6973,"Ġwine":6974,"Ġwarn":6975,"Ġwider":6976,"Ġwaking":6977,"Ġwats":6978,"Ġwicked":6979,"anus":6980,"orth":6981,"orla":6982,"Ġpal":6983,"Ġpach":6984,"Ġpaul":6985,"Ġbic":6986,"Ġbout":6987,"Ġbatch":6988,"Ġbak":6989,"Ġbacter":6990,"Ġbattle":6991,"inging":6992,"Ġtoys":6993,"Ġfy":6994,"Ġfur":6995,"Ġfand":6996,"Ġfant":6997,"Ġfals":6998,"Ġfib":6999,"Ġfren":7000,"Ġfool":7001,"Ġfiduc":7002,"Ġfathers":7003,"aram":7004,"arizes":7005,"Ġmol":7006,"Ġmam":7007,"Ġmint":7008,"Ġmold":7009,"Ġmelt":7010,"Ġmouth":7011,"Ġico":7012,"Ġirel":7013,"ndering":7014,"Ġhid":7015,"Ġhell":7016,"Ġhvac":7017,"recr":7018,"Ġdup":7019,"Ġdow":7020,"Ġdent":7021,"Ġdies":7022,"Ġdut":7023,"Ġdough":7024,"Ġdumb":7025,"ening":7026,"ompl":7027,"itt":7028,"Ġol":7029,"Ġinput":7030,"Ġiniquity":7031,"Ġwhir":7032,"Ġwholes":7033,"Ġstake":7034,"edia":7035,"editing":7036,"edorla":7037,"Ġlion":7038,"Ġlid":7039,"Ġlens":7040,"Ġlunch":7041,"Ġlond":7042,"Ġlugg":7043,"Ġlinks":7044,"Ġgut":7045,"Ġgiants":7046,"Ġgender":7047,"arters":7048,"artup":7049,"illed":7050,"iser":7051,"isis":7052,"isure":7053,"Ġfores":7054,"ascript":7055,"icity":7056,"icipate":7057,"Ġear":7058,"Ġyard":7059,"irt":7060,"Ġcomment":7061,"Ġnar":7062,"Ġnest":7063,"Ġnod":7064,"Ġnations":7065,"Ġnaming":7066,"Ġnorth":7067,"enting":7068,"Ġwhatsapp":7069,"Ġcomparing":7070,"ecks":7071,"ays":7072,"Ġonan":7073,"Ġonyx":7074,"Ġbure":7075,"Ġplacing":7076,"Ġplaced":7077,"Ġreim":7078,"Ġrenov":7079,"Ġrenam":7080,"Ġrendering":7081,"opl":7082,"Ġproc":7083,"Ġproof":7084,"idence":7085,"Ġusable":7086,"Ġliability":7087,"Ġliken":7088,"Ġmakers":7089,"osure":7090,"Ġpeers":7091,"urch":7092,"uration":7093,"Ġrar":7094,"Ġrice":7095,"Ġriding":7096,"Ġranging":7097,"imately":7098,"Ġtrash":7099,"Ġtried":7100,"Ġtraps":7101,"Ġtribes":7102,"Ġbear":7103,"Ġbend":7104,"Ġcondo":7105,"Ġbuilders":7106,"chair":7107,"child":7108,"channel":7109,"Ġshad":7110,"Ġsheph":7111,"Ġshech":7112,"unct":7113,"Ġvc":7114,"Ġvine":7115,"Ġvague":7116,"Ġmanual":7117,"Ġfronts":7118,"Ġleak":7119,"Ġlemon":7120,"Ġleavened":7121,"Ġleisure":7122,"Ġjam":7123,"Ġjav":7124,"Ġjoh":7125,"teries":7126,"Ġhail":7127,"ocking":7128,"ocad":7129,"Ġworst":7130,"anty":7131,"antic":7132,"ode":7133,"odel":7134,"stor":7135,"stores":7136,"startup":7137,"Ġspared":7138,"Ġchip":7139,"Ġchedorla":7140,"Ġabuse":7141,"advis":7142,"Ġappar":7143,"Ġappealing":7144,"Ġdefe":7145,"Ġdeaf":7146,"ifest":7147,"vices":7148,"Ġserver":7149,"ellite":7150,"Ġexal":7151,"uls":7152,"ulting":7153,"Ġsept":7154,"Ġseattle":7155,"Ġsegment":7156,"Ġasana":7157,"Ġprime":7158,"Ġproud":7159,"Ġprinter":7160,"Ġprincip":7161,"Ġheed":7162,"Ġhealing":7163,"ista":7164,"istence":7165,"ansion":7166,"Ġmarks":7167,"rapped":7168,"ured":7169,"izens":7170,"Ġadults":7171,"Ġtaiw":7172,"Ġplanners":7173,"Ġexposure":7174,"Ġexpansion":7175,"eme":7176,"emium":7177,"Ġate":7178,"Ġatonement":7179,"Ġhasn":7180,"Ġworkben":7181,"Ġbrace":7182,"Ġclub":7183,"Ġclues":7184,"Ġclosing":7185,"Ġclouds":7186,"Ġunion":7187,"Ġknew":7188,"Ġkiva":7189,"geons":7190,"Ġnotaries":7191,"Ġnotification":7192,"ilege":7193,"Ġbecoming":7194,"Ġintent":7195,"Ġgoodby":7196,"Ġoutdated":7197,"ptly":7198,"ibe":7199,"ibah":7200,"ctify":7201,"Ġempowers":7202,"Ġcurve":7203,"Ġcurse":7204,"Ġcontroll":7205,"Ġideal":7206,"Ġideally":7207,"iah":7208,"Ġcomments":7209,"Ġcommuter":7210,"Ġcommissions":7211,"Ġemployment":7212,"Ġinterior":7213,"Ġintermed":7214,"Ġsyn":7215,"Ġshown":7216,"Ġincur":7217,"Ġincons":7218,"Ġconsec":7219,"Ġconserv":7220,"Ġconsulting":7221,"Ġdeserve":7222,"plann":7223,"platform":7224,"Ġresult":7225,"Ġreserve":7226,"Ġoffset":7227,"Ġaccent":7228,"Ġaccused":7229,"Ġaccompl":7230,"Ġinvested":7231,"Ġwebinars":7232,"Ġstorytelling":7233,"Ġfinal":7234,"Ġdecks":7235,"Ġdecoration":7236,"gran":7237,"Ġsolo":7238,"Ġindones":7239,"Ġprecious":7240,"Ġprecise":7241,"Ġquit":7242,"Ġquiz":7243,"Ġrobo":7244,"Ġroomm":7245,"Ġblocking":7246,"working":7247,"Ġoverlay":7248,"Ġcolds":7249,"Ġcolder":7250,"Ġspecialist":7251,"Ġspecialists":7252,"Ġsupplement":7253,"asters":7254,"Ġautism":7255,"Ġfirstborn":7256,"Ġthroughout":7257,"anges":7258,"Ġprocessor":7259,"Ġlawn":7260,"Ġlocated":7261,"price":7262,"Ġdelicious":7263,"Ġcoins":7264,"Ġargent":7265,"Ġnoise":7266,"Ġsalons":7267,"Ġharden":7268,"Ġhardest":7269,"Ġhardship":7270,"Ġrelies":7271,"Ġtrapped":7272,"Ġdesigner":7273,"Ġfundament":7274,"Ġhighlighter":7275,"Ġ110":7276,"Ġstayed":7277,"Ġ22":7278,"Ġdisob":7279,"Ġinspect":7280,"avors":7281,"Ġcaring":7282,"Ġshouldn":7283,"Ġavocad":7284,"Ġours":7285,"Ġremain":7286,"Ġremodel":7287,"Ġsuck":7288,"Ġpatrons":7289,"ledged":7290,"Ġconsumed":7291,"Ġcalories":7292,"Ġtasked":7293,"Ġpurple":7294,"nessee":7295,"Ġwrest":7296,"Ġcashiers":7297,"lication":7298,"Ġjustify":7299,"Ġscheme":7300,"Ġpromo":7301,"Ġpromptly":7302,"Ġdress":7303,"Ġdrinking":7304,"Ġteachings":7305,"airs":7306,"Ġhandy":7307,"Ġaccountability":7308,"Ġraj":7309,"Ġdemanding":7310,"ractor":7311,"Ġfolly":7312,"Ġegyptian":7313,"Ġchats":7314,"toxic":7315,"Ġdowns":7316,"Ġengaged":7317,"Ġattitude":7318,"Ġattacks":7319,"Ġtalked":7320,"Ġguy":7321,"Ġguys":7322,"Ġpartnerships":7323,"Ġhottest":7324,"Ġfarm":7325,"Ġfares":7326,"Ġfarming":7327,"Ġinternships":7328,"Ġgrave":7329,"Ġmeetups":7330,"Ġspeaks":7331,"Ġgrouping":7332,"Ġartis":7333,"Ġartwork":7334,"Ġdistrust":7335,"Ġestim":7336,"Ġmachpelah":7337,"Ġbillboard":7338,"Ġhirevue":7339,"Ġcoder":7340,"Ġbookstores":7341,"Ġformal":7342,"Ġfreight":7343,"Ġfrequent":7344,"Ġmoderate":7345,"Ġmighty":7346,"Ġedits":7347,"Ġeditors":7348,"Ġcollar":7349,"Ġcollide":7350,"Ġcollap":7351,"cribers":7352,"geries":7353,"Ġadded":7354,"Ġbreach":7355,"Ġfitting":7356,"Ġprescription":7357,"Ġpresident":7358,"Ġdealer":7359,"Ġsubmit":7360,"Ġsubcont":7361,"Ġmetal":7362,"Ġmeters":7363,"Ġfewer":7364,"Ġnighttime":7365,"Ġslash":7366,"Ġslaves":7367,"Ġgenerations":7368,"Ġcounting":7369,"Ġnontoxic":7370,"Ġnumb":7371,"Ġsavor":7372,"Ġsavior":7373,"Ġfeeds":7374,"while":7375,"Ġairplan":7376,"Ġsurpr":7377,"Ġsurprises":7378,"Ġsurgeries":7379,"Ġcostly":7380,"Ġgray":7381,"Ġgrant":7382,"Ġregions":7383,"Ġconstant":7384,"Ġ2011":7385,"proof":7386,"product":7387,"project":7388,"Ġbehaves":7389,"gests":7390,"Ġlabels":7391,"Ġcourage":7392,"Ġsubscribers":7393,"Ġburnt":7394,"Ġreader":7395,"served":7396,"services":7397,"share":7398,"shaped":7399,"shirts":7400,"Ġreceipt":7401,"Ġrequired":7402,"Ġoperation":7403,"bersecurity":7404,"Ġmeasurements":7405,"Ġstanding":7406,"Ġprivilege":7407,"Ġapproved":7408,"Ġreviewing":7409,"Ġtrained":7410,"Ġcharged":7411,"Ġchargers":7412,"Ġcleaner":7413,"Ġcleaners":7414,"Ġreached":7415,"Ġconfir":7416,"Ġconfusing":7417,"Ġextract":7418,"Ġmodeling":7419,"Ġsins":7420,"Ġtopics":7421,"Ġinfo":7422,"Ġende":7423,"Ġends":7424,"Ġprogressing":7425,"Ġcrime":7426,"Ġcrater":7427,"Ġcraters":7428,"Ġcrisis":7429,"Ġdiscip":7430,"Ġcapacity":7431,"Ġremembered":7432,"Ġmerchant":7433,"Ġhonesty":7434,"Ġmining":7435,"Ġchecked":7436,"Ġcrowdbucks":7437,"Ġmanufactures":7438,"Ġherding":7439,"Ġadaptable":7440,"Ġtemplate":7441,"Ġmattress":7442,"Ġmemberships":7443,"Ġ48":7444,"Ġ400":7445,"Ġdefense":7446,"Ġresponses":7447,"Ġscientific":7448,"Ġpostal":7449,"Ġpostmates":7450,"Ġintelligent":7451,"Ġfreelancer":7452,"Ġcompleted":7453,"Ġconversational":7454,"Ġjudgment":7455,"Ġskilled":7456,"Ġmissed":7457,"Ġmissions":7458,"Ġshortage":7459,"Ġmicrob":7460,"Ġworthy":7461,"Ġwearables":7462,"Ġknowledgeable":7463,"Ġdetermines":7464,"apped":7465,"appro":7466,"Ġviewers":7467,"Ġpolice":7468,"Ġoppos":7469,"Ġopposed":7470,"Ġforgives":7471,"Ġforgiving":7472,"Ġnearest":7473,"Ġprayers":7474,"Ġdiscovered":7475,"Ġmidst":7476,"Ġdestinations":7477,"orkers":7478,"Ġbarren":7479,"Ġhosted":7480,"Ġcoverings":7481,"Ġpublications":7482,"Ġanswered":7483,"Ġtreatments":7484,"Ġborder":7485,"Ġaccepting":7486,"Ġeconomies":7487,"Ġexcel":7488,"Ġadvoc":7489,"Ġadvising":7490,"Ġadvanced":7491,"Ġparticipate":7492,"Ġcalculations":7493,"Ġoptimizing":7494,"Ġcapitalists":7495,"Ġpacks":7496,"Ġexchanges":7497,"Ġeducators":7498,"Ġsummarizes":7499,"Ġpleas":7500,"Ġfactor":7501,"Ġfactories":7502,"Ġleftover":7503,"Ġhoteliers":7504,"Ġpresentation":7505,"Ġpresentations":7506,"door":7507,"Ġlifec":7508,"Ġlifesp":7509,"Ġcentered":7510,"erglass":7511,"Ġdiary":7512,"Ġsimplicity":7513,"funded":7514,"Ġpainful":7515,"Ġstealing":7516,"Ġlogo":7517,"Ġamericans":7518,"Ġhurtful":7519,"Ġzo":7520,"Ġzero":7521,"Ġstrengthen":7522,"Ġfirmament":7523,"Ġsucceeding":7524,"Ġburnout":7525,"Ġsuggests":7526,"Ġpaperless":7527,"Ġdogs":7528,"Ġpractical":7529,"Ġperfume":7530,"Ġengagements":7531,"Ġelectricians":7532,"offer":7533,"Ġurgency":7534,"Ġuranus":7535,"Ġensuring":7536,"Ġlimitations":7537,"Ġseparates":7538,"Ġresponders":7539,"Ġtrending":7540,"Ġmotivate":7541,"Ġmotivates":7542,"Ġfaithful":7543,"socially":7544,"Ġpersever":7545,"Ġpersistence":7546,"Ġpilots":7547,"Ġstaves":7548,"Ġdetection":7549,"Ġparticularly":7550,"Ġpodcasting":7551,"Ġbottle":7552,"Ġfootage":7553,"Ġgained":7554,"Ġreplacement":7555,"Ġspaceship":7556,"Ġtailoring":7557,"Ġspeakers":7558,"Ġcrowdsource":7559,"Ġcaptain":7560,"Ġharlot":7561,"Ġfruits":7562,"Ġscanning":7563,"Ġentirely":7564,"Ġperfectly":7565,"Ġsuited":7566,"Ġstatements":7567,"Ġcontinuous":7568,"Ġescapes":7569,"Ġishmaelites":7570,"Ġaggregator":7571,"Ġsouls":7572,"Ġsuster":7573,"Ġmarkup":7574,"Ġclipboard":7575,"Ġwriter":7576,"Ġreceivable":7577,"Ġbitcoins":7578,"Ġsounds":7579,"Ġwinds":7580,"Ġwhiteboard":7581,"Ġgambling":7582,"Ġbeginners":7583,"Ġconsultancy":7584,"Ġphotographs":7585,"Ġsanctuary":7586,"Ġsaturn":7587,"Ġsatellite":7588,"Ġalongside":7589,"Ġacquire":7590,"Ġdistracting":7591,"Ġtenants":7592,"Ġtenons":7593,"Ġtennessee":7594,"Ġmixing":7595,"Ġlatest":7596,"Ġlaborers":7597,"Ġnurturing":7598,"Ġreduces":7599,"Ġrelaxed":7600,"Ġcalendars":7601,"Ġgrads":7602,"Ġproposal":7603,"Ġmagnetic":7604,"Ġmagnifying":7605,"Ġinnovating":7606,"Ġlicense":7607,"Ġtruck":7608,"Ġexpresses":7609,"Ġimagination":7610,"Ġstubbornness":7611,"Ġcrafts":7612,"Ġfurnace":7613,"Ġhubspot":7614,"Ġburying":7615,"Ġhairs":7616,"Ġorigin":7617,"Ġchecks":7618,"Ġtelecom":7619,"Ġcommitment":7620,"Ġrotates":7621,"Ġcooperative":7622,"Ġinspire":7623,"sheba":7624,"Ġdiscounted":7625,"Ġstaffing":7626,"Ġsections":7627,"Ġhitting":7628,"Ġlayers":7629,"Ġranking":7630,"Ġjoktan":7631,"Ġmarrying":7632,"Ġcoaches":7633,"Ġrighteousness":7634,"Ġrelatable":7635,"Ġcentralize":7636,"Ġexecutives":7637,"Ġtowns":7638,"Ġverified":7639,"Ġsyncs":7640,"Ġstructures":7641,"Ġdragging":7642,"Ġeliminating":7643,"Ġencryption":7644,"Ġdocumentation":7645,"deduct":7646,"Ġtiming":7647,"Ġsuffer":7648,"Ġignore":7649,"Ġignoring":7650,"Ġocean":7651,"Ġviable":7652,"Ġtapas":7653,"Ġpaychecks":7654,"Ġrollerco":7655,"Ġsurveys":7656,"Ġbelieving":7657,"Ġbelievers":7658,"controlled":7659,"generation":7660,"solving":7661,"Ġ60":7662,"Ġaugment":7663,"Ġtherapist":7664,"Ġbags":7665,"Ġdamaged":7666,"Ġdisease":7667,"legal":7668,"Ġratio":7669,"Ġexceptions":7670,"Ġobserve":7671,"Ġcoupons":7672,"Ġfingerprint":7673,"Ġcybersecurity":7674,"Ġmitig":7675,"Ġmirrors":7676,"Ġhunt":7677,"Ġhanging":7678,"Ġdwell":7679,"Ġdwelling":7680,"Ġstyles":7681,"Ġstylus":7682,"Ġgirl":7683,"Ġcomponent":7684,"Ġcomparison":7685,"Ġweekend":7686,"Ġofficer":7687,"Ġindicate":7688,"worldwide":7689,"Ġsacrificing":7690,"Ġbirthright":7691,"Ġsnapchat":7692,"Ġdividend":7693,"Ġpitfalls":7694,"Ġtourism":7695,"Ġprophet":7696,"Ġdrugs":7697,"Ġgrabs":7698,"Ġseasonal":7699,"Ġhistorical":7700,"Ġphilistines":7701,"Ġvolunteer":7702,"cutting":7703,"writ":7704,"Ġwidely":7705,"Ġmourn":7706,"Ġmourned":7707,"Ġegg":7708,"Ġnasda":7709,"Ġradiation":7710,"Ġanticipate":7711,"Ġsexual":7712,"Ġfundraising":7713,"Ġbroadcast":7714,"Ġguarantee":7715,"Ġguaranteed":7716,"Ġlandscape":7717,"Ġincredible":7718,"Ġincredibly":7719,"Ġforgotten":7720,"Ġrideshare":7721,"Ġridesharing":7722,"Ġheavenly":7723,"Ġstreetlights":7724,"consumer":7725,"consuming":7726,"Ġsuddenly":7727,"market":7728,"Ġultimately":7729,"onymous":7730,"Ġfertility":7731,"Ġhustle":7732,"Ġplumbers":7733,"Ġmahal":7734,"Ġclusters":7735,"Ġdespite":7736,"seekers":7737,"Ġdecorations":7738,"Ġafrica":7739,"Ġdisappear":7740,"Ġguesswork":7741,"Ġexplanations":7742,"Ġdefinitive":7743,"Ġunderestimating":7744,"Ġheadaches":7745,"Ġfleeing":7746,"Ġsatisfaction":7747,"Ġrevolutionary":7748,"crowds":7749,"risk":7750,"speech":7751,"Ġcoworkers":7752,"Ġwagons":7753,"Ġfabric":7754,"Ġwheelchair":7755,"Ġforbidden":7756,"Ġcompassion":7757,"Ġrenamed":7758,"Ġprobably":7759,"Ġproceeds":7760,"Ġcondemn":7761,"Ġshuttle":7762,"standard":7763,"Ġspectrum":7764,"Ġdepression":7765,"Ġadventure":7766,"Ġhashtag":7767,"Ġunwilling":7768,"Ġkenan":7769,"Ġinterpreting":7770,"Ġsettings":7771,"Ġevolves":7772,"Ġdecrease":7773,"Ġpregnant":7774,"intelligent":7775,"Ġpursue":7776,"Ġparadise":7777,"Ġregardless":7778,"Ġaffiliate":7779,"Ġinfinite":7780,"Ġopponent":7781,"Ġcircumstances":7782,"performance":7783,"Ġprospective":7784,"Ġbottom":7785,"Ġbiometric":7786,"Ġharassment":7787,"Ġfraudulent":7788,"Ġwarranty":7789,"technical":7790,"Ġpenalty":7791,"Ġjewelry":7792,"mortar":7793,"petual":7794,"sanctify":7795,"Ġsisters":7796,"Ġcitizens":7797,"Ġwitness":7798,"Ġwarnings":7799,"Ġpachube":7800,"Ġbakery":7801,"Ġbacteria":7802,"Ġfanduel":7803,"Ġfiberglass":7804,"Ġfrench":7805,"Ġmamre":7806,"Ġireland":7807,"recruit":7808,"Ġdownt":7809,"Ġduties":7810,"Ġwhirlpool":7811,"Ġwholesale":7812,"Ġlondon":7813,"Ġluggage":7814,"Ġrenaming":7815,"Ġlikeness":7816,"Ġshadow":7817,"Ġshepherds":7818,"Ġshechem":7819,"Ġlemonade":7820,"Ġjavascript":7821,"Ġchedorlaomer":7822,"Ġdefeated":7823,"Ġseptember":7824,"Ġprincipal":7825,"Ġtaiwan":7826,"Ġworkbench":7827,"Ġgoodbye":7828,"Ġcontrolling":7829,"Ġintermediary":7830,"Ġinconsistent":7831,"planned":7832,"Ġindonesia":7833,"Ġroommates":7834,"Ġargentina":7835,"Ġfundamentals":7836,"Ġavocados":7837,"deductible":7838,"Ġrollercoaster":7839,"Ġnasdaq":7840,"!!":7841,"%,":7842,".,":7843,"150":7844,"39":7845,"800":7846,"ael":7847,"aust":7848,"aamah":7849,"bc":7850,"bm":7851,"bre":7852,"bet":7853,"bts":7854,"bow":7855,"big":7856,"bag":7857,"bone":7858,"bell":7859,"blow":7860,"bread":7861,"blit":7862,"bished":7863,"cd":7864,"cer":7865,"cing":7866,"cus":7867,"cas":7868,"cup":7869,"cam":7870,"custom":7871,"call":7872,"cue":7873,"cap":7874,"cook":7875,"cross":7876,"ceration":7877,"cuts":7878,"dk":7879,"dan":7880,"done":7881,"dire":7882,"diel":7883,"draw":7884,"dinary":7885,"ez":7886,"ele":7887,"eff":7888,"effic":7889,"fa":7890,"fut":7891,"fact":7892,"fast":7893,"faces":7894,"fruit":7895,"from":7896,"fires":7897,"fledged":7898,"gat":7899,"gos":7900,"gans":7901,"give":7902,"gain":7903,"game":7904,"gry":7905,"great":7906,"giving":7907,"gmo":7908,"hd":7909,"hs":7910,"hu":7911,"how":7912,"hard":7913,"hail":7914,"hance":7915,"hib":7916,"hire":7917,"hiring":7918,"haring":7919,"haps":7920,"hallowed":7921,"haust":7922,"iat":7923,"iam":7924,"iking":7925,"iab":7926,"iations":7927,"ioid":7928,"iump":7929,"iately":7930,"iatives":7931,"jo":7932,"jire":7933,"jects":7934,"kin":7935,"kins":7936,"kiva":7937,"lar":7938,"liness":7939,"lud":7940,"long":7941,"lier":7942,"lled":7943,"labor":7944,"loss":7945,"lasting":7946,"llegal":7947,"me":7948,"mw":7949,"my":7950,"mer":7951,"mess":7952,"mim":7953,"mall":7954,"maid":7955,"micro":7956,"mune":7957,"miration":7958,"ni":7959,"nis":7960,"niss":7961,"neck":7962,"normal":7963,"oon":7964,"oop":7965,"oft":7966,"oquent":7967,"page":7968,"post":7969,"pah":7970,"pects":7971,"paid":7972,"pond":7973,"prem":7974,"pocr":7975,"patient":7976,"rd":7977,"ran":7978,"ray":7979,"rig":7980,"run":7981,"rint":7982,"sv":7983,"sage":7984,"sell":7985,"squ":7986,"sav":7987,"sky":7988,"sule":7989,"selling":7990,"sells":7991,"spending":7992,"small":7993,"tw":7994,"tim":7995,"ties":7996,"tail":7997,"tain":7998,"town":7999,"tune":8000,"tronic":8001,"tretch":8002,"tuous":8003,"tuning":8004,"tango":8005,"uating":8006,"uition":8007,"uild":8008,"uels":8009,"uade":8010,"vation":8011,"viate":8012,"wc":8013,"wed":8014,"wage":8015,"west":8016,"xy":8017,"xis":8018,"ying":8019,"yon":8020,"yelp":8021,"your":8022,"yles":8023,"ygen":8024,"Ġ\"":8025,"Ġ.":8026,"Ġ/":8027,"Ġ0":8028,"Ġom":8029,"Ġell":8030,"Ġket":8031,"Ġets":8032,"Ġxt":8033,"Ġtit":8034,"Ġtil":8035,"Ġtid":8036,"Ġtact":8037,"Ġtens":8038,"Ġtub":8039,"Ġtamp":8040,"Ġtiss":8041,"Ġtides":8042,"Ġtune":8043,"Ġtightly":8044,"Ġtsa":8045,"Ġtinder":8046,"Ġtango":8047,"Ġtatt":8048,"Ġtuition":8049,"Ġaxis":8050,"iner":8051,"inated":8052,"inous":8053,"inely":8054,"incl":8055,"inction":8056,"Ġthou":8057,"Ġthum":8058,"Ġthiel":8059,"Ġthirst":8060,"Ġthumb":8061,"Ġsen":8062,"Ġsir":8063,"Ġsam":8064,"Ġsine":8065,"Ġsket":8066,"Ġsach":8067,"Ġsession":8068,"Ġsitter":8069,"Ġsift":8070,"Ġsdk":8071,"Ġtheft":8072,"Ġtheories":8073,"Ġtheaters":8074,"atize":8075,"atility":8076,"atics":8077,"esk":8078,"esky":8079,"eres":8080,"erves":8081,"erprise":8082,"erland":8083,"ercharged":8084,"Ġcn":8085,"Ġcoc":8086,"Ġciv":8087,"Ġcast":8088,"Ġcous":8089,"Ġcater":8090,"Ġcert":8091,"Ġcms":8092,"Ġcaut":8093,"Ġcycles":8094,"Ġcsv":8095,"Ġwings":8096,"Ġwave":8097,"Ġwond":8098,"Ġwalls":8099,"Ġwoe":8100,"Ġwinging":8101,"anes":8102,"anket":8103,"anets":8104,"aneous":8105,"anonymous":8106,"ora":8107,"orce":8108,"orah":8109,"organ":8110,"orpor":8111,"Ġps":8112,"Ġpome":8113,"Ġpine":8114,"Ġpens":8115,"Ġpto":8116,"Ġparch":8117,"Ġpains":8118,"Ġpledge":8119,"Ġpicks":8120,"Ġpinterest":8121,"Ġpowers":8122,"Ġpwc":8123,"Ġpesky":8124,"Ġbon":8125,"Ġbart":8126,"Ġbam":8127,"Ġbos":8128,"Ġbans":8129,"Ġbaid":8130,"Ġbio":8131,"Ġbacking":8132,"Ġbold":8133,"Ġbows":8134,"Ġbarter":8135,"Ġblend":8136,"Ġborders":8137,"Ġton":8138,"Ġtoile":8139,"Ġtoast":8140,"ony":8141,"oning":8142,"only":8143,"onto":8144,"onnect":8145,"onville":8146,"Ġfan":8147,"Ġfest":8148,"Ġfell":8149,"Ġfain":8150,"Ġfem":8151,"Ġfence":8152,"Ġfame":8153,"Ġfier":8154,"Ġfont":8155,"Ġfooth":8156,"Ġfought":8157,"Ġfiction":8158,"Ġfico":8159,"Ġfields":8160,"Ġfavors":8161,"Ġfiat":8162,"arians":8163,"arceration":8164,"Ġmal":8165,"Ġmac":8166,"Ġmig":8167,"Ġmich":8168,"Ġmales":8169,"Ġiram":8170,"Ġices":8171,"Ġibm":8172,"Ġillegal":8173,"Ġht":8174,"Ġhed":8175,"Ġhoney":8176,"Ġhong":8177,"Ġhated":8178,"Ġhamp":8179,"Ġhilt":8180,"Ġhalf":8181,"reg":8182,"real":8183,"rets":8184,"reens":8185,"reements":8186,"Ġandres":8187,"Ġden":8188,"Ġdial":8189,"Ġdine":8190,"Ġdra":8191,"Ġdime":8192,"Ġdapp":8193,"Ġdna":8194,"Ġdrew":8195,"eness":8196,"enged":8197,"omware":8198,"ouver":8199,"oubt":8200,"itting":8201,"itely":8202,"itty":8203,"itish":8204,"itively":8205,"itational":8206,"itute":8207,"itimate":8208,"alde":8209,"alled":8210,"alanced":8211,"user":8212,"usts":8213,"uselah":8214,"lely":8215,"leans":8216,"lects":8217,"leviate":8218,"Ġod":8219,"Ġoh":8220,"Ġos":8221,"Ġoath":8222,"Ġoven":8223,"eloh":8224,"Ġinj":8225,"Ġineffic":8226,"Ġwhist":8227,"Ġwheat":8228,"Ġstamp":8229,"Ġstole":8230,"Ġsticks":8231,"Ġsticking":8232,"Ġstoned":8233,"Ġislands":8234,"eded":8235,"Ġlin":8236,"Ġluc":8237,"Ġlice":8238,"Ġloud":8239,"Ġloss":8240,"Ġlasts":8241,"Ġlinking":8242,"Ġlouds":8243,"Ġlaser":8244,"Ġgate":8245,"Ġgist":8246,"Ġgall":8247,"Ġgip":8248,"Ġgour":8249,"Ġguit":8250,"Ġghost":8251,"ersey":8252,"etition":8253,"ette":8254,"iling":8255,"ilim":8256,"iliz":8257,"iloh":8258,"ilians":8259,"ilomet":8260,"ilpah":8261,"isons":8262,"israel":8263,"iscop":8264,"Ġfork":8265,"Ġforest":8266,"Ġforums":8267,"Ġfortune":8268,"asp":8269,"icy":8270,"icag":8271,"icine":8272,"roit":8273,"rooms":8274,"Ġep":8275,"Ġevern":8276,"tsbur":8277,"acc":8278,"access":8279,"Ġyam":8280,"Ġyach":8281,"Ġyields":8282,"irable":8283,"Ġnay":8284,"Ġnash":8285,"Ġnike":8286,"Ġnann":8287,"Ġnfl":8288,"Ġnationally":8289,"Ġnaph":8290,"Ġnourish":8291,"Ġnaamah":8292,"Ġngos":8293,"Ġnerves":8294,"essels":8295,"âĢĵ":8296,"âĢľ":8297,"Ġyouth":8298,"enterprise":8299,"Ġwhatever":8300,"Ġwithdraw":8301,"Ġcomps":8302,"Ġcompos":8303,"Ġcomply":8304,"Ġcompens":8305,"Ġcompelling":8306,"ecific":8307,"Ġdose":8308,"Ġdosage":8309,"Ġhelpless":8310,"Ġonswipe":8311,"Ġbund":8312,"Ġbuzz":8313,"Ġplague":8314,"Ġplagues":8315,"Ġreass":8316,"Ġreign":8317,"Ġrepl":8318,"Ġreuse":8319,"Ġreaction":8320,"Ġreinvest":8321,"Ġrenew":8322,"Ġreinst":8323,"Ġrejo":8324,"Ġiterate":8325,"Ġitiner":8326,"ope":8327,"opp":8328,"opol":8329,"oplo":8330,"optim":8331,"veh":8332,"vey":8333,"Ġproxim":8334,"iday":8335,"idst":8336,"ager":8337,"Ġusual":8338,"Ġlimp":8339,"Ġlift":8340,"Ġlips":8341,"Ġliked":8342,"Ġlibra":8343,"olis":8344,"amity":8345,"americ":8346,"thren":8347,"throp":8348,"thma":8349,"forward":8350,"Ġmaid":8351,"osis":8352,"Ġpeak":8353,"Ġpeoplo":8354,"uries":8355,"urance":8356,"urah":8357,"urally":8358,"urities":8359,"urbished":8360,"Ġrit":8361,"Ġrul":8362,"Ġrace":8363,"Ġrans":8364,"Ġrib":8365,"Ġrated":8366,"Ġrav":8367,"Ġrough":8368,"Ġrider":8369,"Ġridden":8370,"Ġrival":8371,"Ġripped":8372,"Ġalter":8373,"Ġaloud":8374,"Ġalley":8375,"Ġalleviate":8376,"iman":8377,"imed":8378,"iment":8379,"image":8380,"imary":8381,"imming":8382,"immune":8383,"Ġanah":8384,"Ġtrap":8385,"Ġtrains":8386,"Ġtrump":8387,"Ġtricks":8388,"Ġtriump":8389,"iest":8390,"Ġbush":8391,"Ġbeings":8392,"Ġbeast":8393,"Ġbeget":8394,"Ġbegan":8395,"ppy":8396,"pport":8397,"Ġconduc":8398,"Ġcondens":8399,"estic":8400,"Ġlikewise":8401,"ched":8402,"chized":8403,"change":8404,"Ġneut":8405,"Ġneph":8406,"Ġneiman":8407,"Ġshore":8408,"Ġshock":8409,"Ġshelf":8410,"Ġshoot":8411,"Ġshaped":8412,"Ġshirt":8413,"Ġshiloh":8414,"otech":8415,"unity":8416,"unks":8417,"univers":8418,"unto":8419,"unified":8420,"unately":8421,"Ġvin":8422,"Ġvit":8423,"Ġvod":8424,"Ġvill":8425,"Ġvain":8426,"Ġvanc":8427,"Ġvice":8428,"Ġvessels":8429,"ationists":8430,"Ġmanually":8431,"Ġmanner":8432,"Ġmankind":8433,"Ġmanifest":8434,"Ġfract":8435,"Ġfriction":8436,"Ġleaf":8437,"Ġjoint":8438,"Ġjoy":8439,"Ġjacks":8440,"Ġjunk":8441,"Ġjersey":8442,"terious":8443,"occup":8444,"Ġhowever":8445,"Ġworsh":8446,"andoned":8447,"anta":8448,"Ġornam":8449,"Ġordinary":8450,"Ġorgans":8451,"Ġorleans":8452,"ucose":8453,"uctions":8454,"strength":8455,"storm":8456,"strate":8457,"stitute":8458,"Ġspring":8459,"Ġchase":8460,"Ġchurch":8461,"Ġchalde":8462,"Ġchicag":8463,"Ġchunks":8464,"Ġabilities":8465,"Ġabnormal":8466,"Ġabandoned":8467,"ades":8468,"adition":8469,"added":8470,"Ġcrewn":8471,"Ġallies":8472,"Ġallerg":8473,"Ġapples":8474,"Ġapplies":8475,"Ġdemon":8476,"Ġdegree":8477,"Ġbyproduct":8478,"ifts":8479,"ellist":8480,"Ġexit":8481,"Ġexopl":8482,"ula":8483,"ulin":8484,"Ġseat":8485,"Ġseals":8486,"Ġsmell":8487,"Ġsmile":8488,"Ġsmiting":8489,"ived":8490,"ivate":8491,"ivia":8492,"Ġash":8493,"Ġasthma":8494,"Ġprud":8495,"Ġprints":8496,"Ġpruning":8497,"Ġprisons":8498,"Ġpricy":8499,"Ġprimary":8500,"Ġheir":8501,"Ġheated":8502,"Ġheinous":8503,"istry":8504,"Ġservicing":8505,"Ġproduces":8506,"Ġmarath":8507,"Ġmarkers":8508,"Ġmargin":8509,"Ġmarcus":8510,"Ġacting":8511,"Ġweep":8512,"Ġwept":8513,"Ġsolely":8514,"ective":8515,"def":8516,"Ġloins":8517,"Ġloops":8518,"ipts":8519,"urement":8520,"assured":8521,"Ġadmit":8522,"Ġadmiration":8523,"umn":8524,"umer":8525,"eption":8526,"eprint":8527,"loat":8528,"loans":8529,"loving":8530,"look":8531,"Ġplanes":8532,"Ġplanned":8533,"Ġpayable":8534,"Ġpayload":8535,"achar":8536,"Ġwayward":8537,"Ġnewest":8538,"Ġexpedia":8539,"Ġteas":8540,"Ġteeth":8541,"âĢĿ)":8542,"emath":8543,"emical":8544,"emble":8545,"emerg":8546,"Ġimpair":8547,"Ġimpress":8548,"Ġimposs":8549,"Ġimpatient":8550,"Ġimpuls":8551,"Ġatlass":8552,"Ġworkload":8553,"quarters":8554,"Ġphd":8555,"Ġphish":8556,"Ġwhoever":8557,"ereats":8558,"Ġbribes":8559,"Ġcliff":8560,"Ġpassword":8561,"Ġunify":8562,"Ġunfort":8563,"Ġunoccup":8564,"Ġka":8565,"Ġkn":8566,"Ġkine":8567,"Ġkong":8568,"Ġkok":8569,"Ġkilomet":8570,"Ġnotable":8571,"Ġnotifies":8572,"Ġnotifying":8573,"Ġnoticed":8574,"ouring":8575,"Ġintimate":8576,"uding":8577,"active":8578,"ensaries":8579,"Ġoutline":8580,"Ġoutdoor":8581,"Ġupwork":8582,"Ġuphold":8583,"Ġupkeep":8584,"Ġupfron":8585,"ibo":8586,"ibles":8587,"ibamah":8588,"Ġwasn":8589,"Ġempower":8590,"Ġcurved":8591,"Ġcurio":8592,"Ġcurric":8593,"Ġcontains":8594,"Ġcontests":8595,"Ġcontribution":8596,"Ġcommod":8597,"Ġwills":8598,"Ġemploys":8599,"Ġinterv":8600,"Ġshowroom":8601,"Ġshowbread":8602,"Ġpartial":8603,"Ġincorpor":8604,"Ġincarceration":8605,"ancer":8606,"Ġenhance":8607,"Ġdescriptions":8608,"Ġdesirable":8609,"Ġdiffers":8610,"seed":8611,"sement":8612,"seven":8613,"Ġpersonnel":8614,"Ġhealthkit":8615,"Ġhealthblit":8616,"Ġmedtronic":8617,"plug":8618,"Ġrescue":8619,"Ġscoot":8620,"Ġscreens":8621,"Ġevidence":8622,"Ġcreature":8623,"Ġcreatives":8624,"Ġcreativity":8625,"Ġaccident":8626,"Ġinvestor":8627,"Ġwebcam":8628,"Ġstorybooks":8629,"Ġfinals":8630,"Ġdeck":8631,"Ġdecl":8632,"Ġdecay":8633,"Ġdecides":8634,"Ġdecades":8635,"Ġdeception":8636,"gram":8637,"grimage":8638,"Ġsocialize":8639,"full":8640,"Ġrovers":8641,"Ġroof":8642,"Ġrolled":8643,"Ġbloss":8644,"Ġblanket":8645,"Ġoverhead":8646,"apers":8647,"apolis":8648,"Ġcredits":8649,"feed":8650,"Ġspecializes":8651,"Ġearthly":8652,"Ġrealized":8653,"Ġautumn":8654,"Ġjoshu":8655,"Ġfirstlings":8656,"Ġages":8657,"Ġagile":8658,"anged":8659,"Ġkeeper":8660,"Ġstrange":8661,"Ġmonopol":8662,"uality":8663,"Ġlaugh":8664,"Ġlockers":8665,"pricing":8666,"prints":8667,"private":8668,"Ġdelights":8669,"Ġautomakers":8670,"Ġamate":8671,"Ġammon":8672,"Ġamidst":8673,"Ġcoast":8674,"Ġcoats":8675,"Ġcogn":8676,"Ġcovet":8677,"Ġaran":8678,"Ġarms":8679,"Ġnovice":8680,"Ġsalaries":8681,"Ġsalvation":8682,"Ġhardens":8683,"Ġrelieve":8684,"Ġreluct":8685,"software":8686,"week":8687,"Ġafloat":8688,"Ġthanks":8689,"Ġinstrum":8690,"Ġanymore":8691,"getables":8692,"Ġbacklog":8693,"Ġbackfire":8694,"Ġbackbone":8695,"Ġ11":8696,"Ġ19":8697,"Ġ150":8698,"Ġcleans":8699,"Ġpersonalizing":8700,"Ġ21":8701,"Ġ24":8702,"Ġ28":8703,"Ġbanner":8704,"Ġopens":8705,"Ġopioid":8706,"Ġdispar":8707,"Ġdisaster":8708,"Ġdisney":8709,"Ġdisasters":8710,"Ġinsider":8711,"Ġinsulin":8712,"Ġsimulate":8713,"Ġsimply":8714,"Ġcarriers":8715,"Ġcarrier":8716,"Ġunderstands":8717,"Ġsignature":8718,"Ġemo":8719,"Ġavenged":8720,"Ġvisa":8721,"Ġvisuals":8722,"Ġthereby":8723,"Ġperman":8724,"Ġperhaps":8725,"Ġperiscop":8726,"bercrime":8727,"Ġdonation":8728,"Ġtranscrib":8729,"Ġourselves":8730,"Ġremov":8731,"Ġremitt":8732,"Ġdecisive":8733,"Ġsucked":8734,"Ġboat":8735,"Ġboys":8736,"Ġboasts":8737,"Ġpatent":8738,"Ġpatch":8739,"Ġmessy":8740,"Ġmessiah":8741,"Ġfinancially":8742,"Ġassists":8743,"Ġcalamity":8744,"Ġstudios":8745,"Ġlightly":8746,"Ġwrites":8747,"Ġwrath":8748,"atched":8749,"Ġlongest":8750,"Ġsecrets":8751,"Ġsecurities":8752,"Ġimproved":8753,"Ġkindly":8754,"owned":8755,"Ġprominent":8756,"Ġdrones":8757,"Ġdrunk":8758,"akening":8759,"Ġbroke":8760,"Ġteacher":8761,"airbnb":8762,"Ġhandled":8763,"Ġhandsh":8764,"Ġhandling":8765,"Ġhandbag":8766,"Ġhandmaid":8767,"Ġraises":8768,"Ġrapport":8769,"Ġpowerpoint":8770,"cool":8771,"Ġhumor":8772,"Ġhumility":8773,"Ġsuccesses":8774,"racting":8775,"Ġfolder":8776,"Ġposh":8777,"Ġtechnical":8778,"Ġtechnicians":8779,"Ġtechniques":8780,"Ġcommunicates":8781,"Ġlocalization":8782,"Ġletter":8783,"Ġchattan":8784,"Ġclearing":8785,"Ġshopin":8786,"Ġshopstyle":8787,"Ġtwins":8788,"Ġdirects":8789,"Ġattain":8790,"Ġdirector":8791,"Ġdirectories":8792,"oids":8793,"Ġesek":8794,"Ġ35":8795,"Ġ311":8796,"Ġreposit":8797,"Ġrepurp":8798,"Ġfarms":8799,"Ġinternally":8800,"Ġgrains":8801,"Ġquickbooks":8802,"Ġopened":8803,"Ġholders":8804,"Ġholistic":8805,"Ġgaleed":8806,"Ġgroupon":8807,"Ġordered":8808,"Ġdistric":8809,"Ġdistress":8810,"Ġdistances":8811,"Ġmistre":8812,"Ġmistress":8813,"Ġuz":8814,"Ġudem":8815,"Ġestimate":8816,"Ġestimating":8817,"Ġmainstream":8818,"peaker":8819,"Ġgenre":8820,"Ġgenom":8821,"Ġcoders":8822,"Ġbooked":8823,"Ġforming":8824,"Ġbeneath":8825,"Ġfrequ":8826,"Ġprofitability":8827,"Ġsingh":8828,"Ġsingular":8829,"Ġidentities":8830,"Ġidentification":8831,"Ġtested":8832,"Ġdetroit":8833,"Ġlanding":8834,"Ġtrades":8835,"Ġtrader":8836,"Ġtraders":8837,"Ġtradem":8838,"Ġmultitude":8839,"lete":8840,"letter":8841,"Ġmemories":8842,"Ġhousekeeping":8843,"Ġaddiction":8844,"Ġbrethren":8845,"Ġpresump":8846,"Ġpreserve":8847,"Ġprescribe":8848,"Ġmerge":8849,"Ġmeribah":8850,"Ġmilch":8851,"Ġpark":8852,"Ġparks":8853,"Ġparables":8854,"Ġparker":8855,"Ġdealings":8856,"ekel":8857,"Ġhadad":8858,"Ġassistance":8859,"Ġsubjects":8860,"Ġcamping":8861,"Ġcampfire":8862,"Ġcampfires":8863,"Ġlowball":8864,"cybercrime":8865,"Ġobtain":8866,"Ġgravitational":8867,"Ġcollaborating":8868,"Ġintegrity":8869,"Ġslide":8870,"Ġslick":8871,"Ġwaterproof":8872,"Ġprotects":8873,"Ġcountless":8874,"what":8875,"Ġsurgeons":8876,"Ġcosting":8877,"Ġgroomer":8878,"Ġgrovo":8879,"ysitting":8880,"Ġgrill":8881,"Ġgrating":8882,"Ġgreatness":8883,"Ġregret":8884,"Ġincreased":8885,"Ġincrements":8886,"Ġresearchers":8887,"Ġ2013":8888,"program":8889,"Ġangles":8890,"Ġangular":8891,"Ġangellist":8892,"Ġflu":8893,"Ġflag":8894,"Ġflash":8895,"Ġflock":8896,"Ġflaming":8897,"Ġflourish":8898,"Ġflipping":8899,"Ġimaging":8900,"Ġimmers":8901,"Ġimmed":8902,"Ġpurchased":8903,"Ġcourier":8904,"Ġcourser":8905,"Ġportland":8906,"Ġsubscribe":8907,"Ġburial":8908,"Ġrewarded":8909,"avored":8910,"atories":8911,"Ġeloquent":8912,"Ġauditing":8913,"Ġwalked":8914,"Ġwalkers":8915,"Ġwallets":8916,"Ġpredictions":8917,"shad":8918,"shelf":8919,"shitty":8920,"Ġafflic":8921,"Ġaffairs":8922,"Ġstreams":8923,"Ġreceipts":8924,"Ġpossession":8925,"Ġpossessions":8926,"Ġglance":8927,"Ġglucose":8928,"Ġrequip":8929,"Ġmeasurement":8930,"eckled":8931,"Ġkeywords":8932,"Ġcollective":8933,"Ġcollectors":8934,"Ġcollectible":8935,"ernal":8936,"Ġwomb":8937,"Ġmayfield":8938,"Ġrefusing":8939,"Ġrefuses":8940,"Ġrefresh":8941,"Ġreflects":8942,"Ġrefurbished":8943,"Ġrefracting":8944,"Ġadjusters":8945,"Ġvegetables":8946,"Ġprivately":8947,"Ġrespected":8948,"Ġbadly":8949,"Ġapprove":8950,"Ġspeeds":8951,"Ġturnover":8952,"Ġturnkey":8953,"Ġtrainer":8954,"Ġcharities":8955,"Ġtreating":8956,"Ġcontrols":8957,"Ġcleanliness":8958,"Ġgrocers":8959,"Ġtaxi":8960,"Ġphysicians":8961,"Ġversa":8962,"Ġverses":8963,"Ġextensive":8964,"Ġleaderboards":8965,"Ġhumane":8966,"Ġshopper":8967,"Ġaffecting":8968,"Ġcrunch":8969,"Ġcriter":8970,"Ġcrumb":8971,"Ġbelief":8972,"Ġdisconnect":8973,"ipporah":8974,"needed":8975,"Ġcapsule":8976,"Ġfiling":8977,"Ġcute":8978,"Ġcandles":8979,"Ġconcert":8980,"Ġschoolers":8981,"Ġministry":8982,"Ġsheol":8983,"Ġsheets":8984,"Ġcheckbook":8985,"Ġmeteoroids":8986,"Ġherds":8987,"Ġhurting":8988,"Ġadapting":8989,"Ġadaptive":8990,"Ġnewsroom":8991,"Ġtempt":8992,"Ġrepresenting":8993,"dress":8994,"Ġwinner":8995,"Ġwinners":8996,"Ġfuneral":8997,"Ġrebel":8998,"Ġrebuild":8999,"ributed":9000,"border":9001,"Ġ430":9002,"Ġgovernance":9003,"Ġdefend":9004,"Ġdefault":9005,"Ġdefunct":9006,"rollable":9007,"Ġunderpricing":9008,"Ġaltman":9009,"Ġwatches":9010,"Ġpostings":9011,"Ġpostcard":9012,"Ġfreelancing":9013,"Ġapproaches":9014,"Ġrecommending":9015,"Ġrecommended":9016,"Ġfixes":9017,"Ġfixflo":9018,"Ġissu":9019,"Ġissachar":9020,"Ġshortest":9021,"Ġtabs":9022,"Ġmicrophone":9023,"Ġmicrolend":9024,"Ġworthwhile":9025,"Ġwearer":9026,"apple":9027,"application":9028,"oying":9029,"Ġpitches":9030,"Ġreleasing":9031,"Ġdistributes":9032,"Ġsidewal":9033,"Ġcorp":9034,"Ġcorres":9035,"Ġmassage":9036,"Ġmassah":9037,"Ġforgiven":9038,"Ġprayed":9039,"workplace":9040,"Ġagreeing":9041,"Ġtyping":9042,"personality":9043,"Ġpulling":9044,"Ġmidian":9045,"Ġprepares":9046,"Ġreliably":9047,"banking":9048,"Ġbarber":9049,"Ġbarred":9050,"Ġbarriers":9051,"Ġbarista":9052,"Ġbargain":9053,"Ġrocket":9054,"Ġrockets":9055,"Ġbreakdown":9056,"Ġbreakfast":9057,"2020":9058,"Ġswitz":9059,"Ġswallowed":9060,"Ġmagdiel":9061,"Ġstocked":9062,"Ġlegally":9063,"Ġlegitimate":9064,"Ġacceptable":9065,"Ġclassify":9066,"Ġenjoying":9067,"Ġeconomic":9068,"Ġeconomics":9069,"Ġbehaviors":9070,"insurance":9071,"Ġbrains":9072,"Ġdarker":9073,"Ġexcited":9074,"Ġexclud":9075,"Ġparticip":9076,"Ġcalculates":9077,"Ġcalculating":9078,"Ġoptimal":9079,"Ġoptimizes":9080,"Ġpackets":9081,"Ġpackaging":9082,"Ġbasemath":9083,"Ġhourly":9084,"Ġsummaries":9085,"setting":9086,"Ġpeter":9087,"Ġpetty":9088,"Ġdiversity":9089,"Ġonesie":9090,"Ġimpacting":9091,"Ġimpactful":9092,"Ġattracting":9093,"Ġattractions":9094,"Ġcanaanitish":9095,"Ġmedicare":9096,"Ġmedicines":9097,"Ġscreening":9098,"Ġinfluence":9099,"being":9100,"beaut":9101,"begat":9102,"Ġdiets":9103,"Ġhabitations":9104,"Ġheading":9105,"Ġheadline":9106,"Ġheadset":9107,"Ġheadphones":9108,"Ġheadquarters":9109,"Ġbrightly":9110,"Ġbrightest":9111,"Ġuncont":9112,"Ġsimplified":9113,"Ġsimplifies":9114,"Ġpainless":9115,"Ġsteals":9116,"Ġsteward":9117,"Ġstepped":9118,"Ġdoorbell":9119,"Ġspotlight":9120,"Ġspotted":9121,"Ġlogin":9122,"Ġlogging":9123,"Ġclosely":9124,"Ġevils":9125,"Ġboarding":9126,"Ġnavigation":9127,"flower":9128,"Ġzones":9129,"Ġzerah":9130,"Ġzilpah":9131,"Ġzipporah":9132,"Ġsentiment":9133,"return":9134,"Ġroutes":9135,"Ġexplaining":9136,"Ġburns":9137,"Ġwaited":9138,"Ġoils":9139,"ography":9140,"Ġreporters":9141,"perpetual":9142,"virtual":9143,"Ġoutsourced":9144,"Ġoutstretch":9145,"Ġcouch":9146,"Ġpodium":9147,"Ġdoggie":9148,"Ġpracticing":9149,"Ġperfumer":9150,"Ġelectrician":9151,"buying":9152,"media":9153,"medicine":9154,"offering":9155,"Ġurim":9156,"Ġuribe":9157,"Ġensures":9158,"Ġfills":9159,"Ġephah":9160,"Ġvacc":9161,"Ġseparating":9162,"Ġpoorly":9163,"Ġresponding":9164,"Ġ86":9165,"Ġ800":9166,"Ġerp":9167,"Ġpersuade":9168,"Ġstakes":9169,"Ġannoun":9170,"Ġannular":9171,"Ġannoying":9172,"Ġdetecting":9173,"Ġvendor":9174,"Ġpunishes":9175,"Ġcooled":9176,"Ġfootball":9177,"Ġtruthful":9178,"Ġwalkthrough":9179,"Ġtroubled":9180,"uffers":9181,"Ġballoon":9182,"Ġdomestic":9183,"Ġancest":9184,"Ġapplepay":9185,"Ġsuperpower":9186,"Ġsuperher":9187,"Ġsuperpowerful":9188,"Ġsupercharged":9189,"Ġtransferwise":9190,"Ġrepairing":9191,"Ġlifestyles":9192,"Ġeternal":9193,"Ġsitters":9194,"Ġcaptive":9195,"Ġcaptures":9196,"Ġpairing":9197,"Ġbikers":9198,"Ġbaseball":9199,"Ġharan":9200,"Ġdropoff":9201,"Ġaligned":9202,"Ġwasteful":9203,"Ġcommandment":9204,"Ġrecordings":9205,"Ġadvertiser":9206,"Ġconfidently":9207,"Ġsuitable":9208,"Ġbabysitting":9209,"Ġupdated":9210,"Ġcontinues":9211,"Ġcontinued":9212,"Ġescaping":9213,"Ġcelebration":9214,"Ġcelebrities":9215,"Ġborrowing":9216,"Ġborrowed":9217,"Ġmajority":9218,"laimed":9219,"spake":9220,"specific":9221,"speckled":9222,"Ġsoul":9223,"Ġcultures":9224,"Ġeverlasting":9225,"Ġyoungest":9226,"Ġcondition":9227,"Ġprinters":9228,"Ġwashed":9229,"Ġstudying":9230,"Ġsurvival":9231,"Ġobjectives":9232,"employment":9233,"Ġpiloting":9234,"Ġenvironmentally":9235,"Ġ930":9236,"Ġsilence":9237,"Ġcertainly":9238,"Ġbloggers":9239,"Ġdryers":9240,"Ġgamified":9241,"Ġdocs":9242,"Ġexercising":9243,"Ġconsultation":9244,"Ġconsultant":9245,"Ġpremises":9246,"Ġprevents":9247,"Ġcolorful":9248,"Ġhonored":9249,"Ġsanctified":9250,"Ġatmospheres":9251,"Ġsatan":9252,"Ġsaturation":9253,"Ġsodas":9254,"Ġappreciated":9255,"Ġdeadline":9256,"Ġacquiring":9257,"Ġstranger":9258,"Ġemergencies":9259,"Ġconcerned":9260,"Ġcorrecting":9261,"Ġcorrectly":9262,"Ġsimplifying":9263,"Ġeyeing":9264,"Ġvacationers":9265,"class":9266,"flavored":9267,"Ġtennis":9268,"Ġcakes":9269,"Ġmixed":9270,"Ġdinners":9271,"Ġstickers":9272,"Ġlatter":9273,"Ġnature":9274,"Ġnaturally":9275,"Ġnurtures":9276,"Ġarray":9277,"Ġpromotion":9278,"Ġgraduate":9279,"Ġmagnify":9280,"Ġauthentication":9281,"Ġauthenticate":9282,"Ġauthenticity":9283,"Ġwarps":9284,"Ġwarby":9285,"Ġdrawings":9286,"Ġoxford":9287,"Ġoxygen":9288,"Ġinnovation":9289,"Ġinnovations":9290,"Ġinnovative":9291,"Ġsteadily":9292,"Ġgathered":9293,"Ġappearing":9294,"Ġappearance":9295,"Ġdeeper":9296,"Ġsmoker":9297,"Ġexpressed":9298,"Ġindianapolis":9299,"Ġqualify":9300,"Ġqualifying":9301,"Ġimagery":9302,"Ġjournalism":9303,"payment":9304,"payments":9305,"rupted":9306,"Ġcrazy":9307,"Ġcrappy":9308,"Ġwooden":9309,"anaim":9310,"Ġpeniel":9311,"Ġhorr":9312,"Ġhorites":9313,"Ġhorns":9314,"Ġhubs":9315,"Ġhubdoc":9316,"Ġnursing":9317,"Ġbulbs":9318,"Ġreferences":9319,"Ġvolatility":9320,"Ġlevites":9321,"Ġhairdress":9322,"Ġhealed":9323,"Ġheavily":9324,"Ġtelemedicine":9325,"Ġcommitted":9326,"Ġrobes":9327,"Ġinspiration":9328,"sheets":9329,"Ġsustainability":9330,"conf":9331,"Ġtutor":9332,"Ġsnuffers":9333,"Ġsection":9334,"Ġfoursqu":9335,"Ġmisusing":9336,"Ġmisinform":9337,"Ġdivorce":9338,"Ġstreaks":9339,"Ġlayer":9340,"Ġlaying":9341,"Ġcomforted":9342,"Ġdollar":9343,"Ġranked":9344,"Ġclicked":9345,"Ġnotebook":9346,"Ġaccelerate":9347,"Ġcarbonated":9348,"Ġattendance":9349,"Ġcorporations":9350,"coded":9351,"heit":9352,"Ġpushing":9353,"Ġbids":9354,"Ġbonding":9355,"Ġharmful":9356,"Ġgarment":9357,"Ġgarages":9358,"Ġnobles":9359,"Ġalmond":9360,"Ġverification":9361,"Ġpassionate":9362,"Ġsynced":9363,"Ġevaluating":9364,"Ġdisagreements":9365,"Ġdriverless":9366,"Ġcharacteristics":9367,"Ġmerchandising":9368,"Ġmortgages":9369,"goats":9370,"tali":9371,"Ġtimeline":9372,"investors":9373,"Ġcatching":9374,"Ġfedex":9375,"Ġfederation":9376,"Ġmethuselah":9377,"Ġignored":9378,"Ġhyper":9379,"Ġhypocr":9380,"Ġdoubt":9381,"Ġdoubts":9382,"Ġgeot":9383,"Ġgeographic":9384,"Ġgeography":9385,"Ġrelying":9386,"Ġallocation":9387,"Ġallocating":9388,"Ġdemons":9389,"Ġdemocr":9390,"Ġadoption":9391,"Ġscarcity":9392,"Ġblueprint":9393,"Ġautoimmune":9394,"Ġinstalls":9395,"Ġinstallments":9396,"Ġembal":9397,"Ġbrokerage":9398,"Ġsingaporeans":9399,"Ġclaiming":9400,"Ġdeploying":9401,"solution":9402,"trans":9403,"tracking":9404,"truly":9405,"tradition":9406,"Ġwelcoming":9407,"Ġipos":9408,"Ġdamages":9409,"Ġoccas":9410,"Ġstatute":9411,"Ġriches":9412,"Ġsponsor":9413,"Ġsponsored":9414,"Ġchrome":9415,"Ġtexting":9416,"Ġenemy":9417,"Ġscript":9418,"Ġarchers":9419,"Ġdispensaries":9420,"Ġtransforming":9421,"Ġdownloaded":9422,"Ġformatting":9423,"Ġtestimonials":9424,"Ġticketing":9425,"Ġurbanites":9426,"Ġlatinx":9427,"Ġdisagreement":9428,"holders":9429,"Ġwarehous":9430,"Ġmiracles":9431,"Ġmiriam":9432,"Ġhunter":9433,"Ġhungry":9434,"Ġhobby":9435,"Ġhangings":9436,"Ġdeductions":9437,"Ġdrops":9438,"Ġdropped":9439,"Ġinitiatives":9440,"Ġlieu":9441,"Ġvictim":9442,"Ġexceeds":9443,"izzes":9444,"Ġemphasize":9445,"Ġemphasizes":9446,"Ġconsolidate":9447,"Ġhomeowner":9448,"Ġbackgrounds":9449,"Ġexperiment":9450,"Ġelectronically":9451,"Ġcounseling":9452,"Ġbirthday":9453,"kindness":9454,"Ġthermal":9455,"Ġpittsbur":9456,"Ġbatteries":9457,"Ġdying":9458,"Ġstretches":9459,"Ġstretched":9460,"Ġgerman":9461,"Ġrevealing":9462,"Ġrams":9463,"Ġalumni":9464,"Ġtricked":9465,"Ġconvenient":9466,"Ġmexican":9467,"Ġpraising":9468,"Ġacademy":9469,"ooga":9470,"Ġsmartwatches":9471,"Ġresilience":9472,"Ġresolving":9473,"Ġreservation":9474,"Ġblindly":9475,"Ġdelayed":9476,"Ġamalekites":9477,"Ġattacked":9478,"Ġattaches":9479,"Ġgraphics":9480,"Ġregistered":9481,"Ġjudgement":9482,"Ġpolitical":9483,"Ġpolitely":9484,"computer":9485,"competition":9486,"Ġwonderful":9487,"Ġlicensing":9488,"Ġviolent":9489,"Ġoccurred":9490,"helper":9491,"nson":9492,"Ġtags":9493,"Ġsiblings":9494,"Ġcopy":9495,"Ġcopies":9496,"Ġwildlife":9497,"Ġbedsheets":9498,"Ġeggs":9499,"Ġnasa":9500,"Ġplugs":9501,"Ġproactively":9502,"ological":9503,"Ġanxious":9504,"charging":9505,"streaming":9506,"Ġcluttered":9507,"Ġunbalanced":9508,"Ġcursing":9509,"Ġcontribute":9510,"Ġincubated":9511,"Ġincubator":9512,"Ġincubators":9513,"Ġfundraise":9514,"Ġstorefront":9515,"Ġlandscaping":9516,"Ġsurrounding":9517,"Ġmultiplying":9518,"Ġmentorship":9519,"Ġmidwife":9520,"Ġdiagnoses":9521,"Ġdiagnosis":9522,"Ġsouthwest":9523,"Ġdoubled":9524,"Ġagricultural":9525,"Ġoverwhelming":9526,"create":9527,"cola":9528,"collabor":9529,"freedom":9530,"freemium":9531,"saas":9532,"Ġawakening":9533,"instant":9534,"Ġsweet":9535,"Ġsweater":9536,"Ġpanel":9537,"Ġpanels":9538,"Ġpaddan":9539,"Ġfertiliz":9540,"Ġmathem":9541,"Ġhustles":9542,"Ġhipchat":9543,"Ġoverspending":9544,"Ġnationwide":9545,"Ġnineveh":9546,"Ġplumber":9547,"Ġmahanaim":9548,"Ġmailing":9549,"Ġcancer":9550,"Ġtrails":9551,"Ġsporting":9552,"iffneck":9553,"Ġcluster":9554,"Ġincentive":9555,"Ġincentives":9556,"Ġdespair":9557,"Ġscene":9558,"Ġscenes":9559,"Ġafrican":9560,"Ġdisappoint":9561,"Ġtranslators":9562,"Ġattempt":9563,"Ġattempting":9564,"Ġguessing":9565,"Ġexplanation":9566,"Ġbrewing":9567,"Ġbreweries":9568,"Ġtreasure":9569,"Ġtreasures":9570,"Ġunderestimate":9571,"experts":9572,"experience":9573,"Ġbasketball":9574,"Ġheadache":9575,"Ġziprecruit":9576,"Ġsatisfied":9577,"Ġarrangement":9578,"Ġobservations":9579,"Ġobservatories":9580,"Ġcybercrime":9581,"bursement":9582,"distribution":9583,"distributed":9584,"finance":9585,"floor":9586,"hosted":9587,"voice":9588,"Ġtorch":9589,"Ġtoronto":9590,"Ġsorcer":9591,"Ġpdf":9592,"Ġpdfs":9593,"Ġmelchized":9594,"Ġoholiab":9595,"Ġoholibamah":9596,"Ġgeared":9597,"Ġreunion":9598,"Ġreunited":9599,"Ġrainbow":9600,"Ġalbums":9601,"Ġconverts":9602,"Ġshrink":9603,"Ġabsence":9604,"Ġmysterious":9605,"Ġmoabites":9606,"Ġreconc":9607,"Ġroyalty":9608,"Ġcaregivers":9609,"Ġcaregiver":9610,"Ġthankful":9611,"Ġassignments":9612,"Ġprofessor":9613,"Ġprofessors":9614,"Ġapologize":9615,"Ġapologizing":9616,"Ġmodernize":9617,"Ġbootstrap":9618,"Ġbootstrapped":9619,"Ġgrandchild":9620,"Ġzendrive":9621,"Ġzendesk":9622,"Ġthoughtfully":9623,"Ġcafes":9624,"ĠcafÃ©":9625,"reshing":9626,"Ġcounteroffer":9627,"Ġdigitize":9628,"Ġdigitizing":9629,"Ġdevotion":9630,"Ġadministration":9631,"Ġtroubleshooting":9632,"improvement":9633,"community":9634,"family":9635,"hotel":9636,"labeled":9637,"notifications":9638,"purpose":9639,"radio":9640,"single":9641,"supercharged":9642,"simple":9643,"Ġubereats":9644,"Ġazure":9645,"Ġcpa":9646,"Ġwroth":9647,"Ġwatson":9648,"Ġbicycles":9649,"Ġboutique":9650,"Ġfurther":9651,"Ġfantasy":9652,"Ġfalse":9653,"Ġfoolish":9654,"Ġfiduciary":9655,"Ġmolten":9656,"Ġduplic":9657,"Ġstakeholders":9658,"Ġforesight":9659,"Ġearlier":9660,"Ġbureau":9661,"Ġreimbursement":9662,"Ġprocurement":9663,"Ġrarest":9664,"Ġleaky":9665,"Ġleisurely":9666,"Ġjohnson":9667,"storage":9668,"advisor":9669,"Ġapparel":9670,"Ġexalts":9671,"Ġsegmenting":9672,"Ġbracelet":9673,"Ġclubs":9674,"Ġintentions":9675,"Ġsynonym":9676,"Ġconsecrate":9677,"Ġconservationists":9678,"Ġaccenture":9679,"Ġaccomplish":9680,"granates":9681,"Ġdisobey":9682,"Ġinspector":9683,"Ġwrestling":9684,"Ġrajan":9685,"Ġartisans":9686,"Ġestimates":9687,"Ġcollapse":9688,"Ġsubcontinent":9689,"Ġairplane":9690,"Ġsurprising":9691,"Ġconfirm":9692,"Ġendeavor":9693,"Ġdiscipline":9694,"Ġmicrobes":9695,"appropriate":9696,"Ġopposers":9697,"Ġadvocates":9698,"Ġlifecycle":9699,"Ġlifespans":9700,"Ġpersevere":9701,"Ġcontinuously":9702,"Ġoriginally":9703,"Ġtelecoms":9704,"Ġaugmented":9705,"Ġmitigate":9706,"Ġdwellers":9707,"Ġweekends":9708,"written":9709,"marketplace":9710,"Ġmahalath":9711,"crowdsourcing":9712,"Ġcompassionate":9713,"Ġdowntown":9714,"break":9715,"capacity":9716,"direction":9717,"effective":9718,"factor":9719,"hailing":9720,"jireh":9721,"nissi":9722,"pondence":9723,"savvy":9724,"Ġketurah":9725,"Ġetsy":9726,"Ġxtractor":9727,"Ġtitles":9728,"Ġtilts":9729,"Ġtactics":9730,"Ġtampa":9731,"Ġtissue":9732,"Ġtattoo":9733,"including":9734,"Ġthummim":9735,"Ġthirsty":9736,"Ġseniors":9737,"Ġsiri":9738,"Ġsinew":9739,"Ġcoca":9740,"Ġcivilians":9741,"Ġcousin":9742,"Ġcertific":9743,"Ġcautious":9744,"Ġwonders":9745,"anonymously":9746,"Ġpomegranates":9747,"Ġpineapple":9748,"Ġparchment":9749,"Ġbonuses":9750,"Ġbosses":9751,"Ġbansal":9752,"Ġbaidu":9753,"Ġfellows":9754,"Ġfaint":9755,"Ġfoothold":9756,"Ġmichael":9757,"Ġhilton":9758,"Ġdialer":9759,"elohe":9760,"Ġlucrative":9761,"Ġloudspeaker":9762,"Ġgallery":9763,"Ġgiphy":9764,"Ġgourmet":9765,"Ġguitar":9766,"Ġevernote":9767,"Ġyammer":9768,"Ġnashville":9769,"Ġnaphtali":9770,"Ġnourishment":9771,"Ġcomposition":9772,"Ġcompensation":9773,"optimized":9774,"Ġproximity":9775,"american":9776,"forwarding":9777,"Ġransomware":9778,"Ġraven":9779,"Ġtrumpet":9780,"Ġtriumph":9781,"Ġnephilim":9782,"Ġshooting":9783,"universal":9784,"Ġvillages":9785,"Ġvancouver":9786,"Ġfractional":9787,"Ġjacksonville":9788,"Ġornaments":9789,"Ġchaldees":9790,"Ġchicago":9791,"Ġabnormalities":9792,"Ġcrewneck":9793,"Ġdemonstrate":9794,"Ġexoplanets":9795,"Ġsealskins":9796,"Ġprudence":9797,"Ġimpairment":9798,"Ġimpressive":9799,"Ġimpossible":9800,"Ġimpulsive":9801,"Ġatlassian":9802,"Ġphishing":9803,"Ġunfortunately":9804,"Ġunoccupied":9805,"Ġkoku":9806,"Ġkilometers":9807,"Ġupfront":9808,"Ġhealthblitz":9809,"Ġscooters":9810,"Ġblossoms":9811,"Ġjoshua":9812,"Ġcognitive":9813,"Ġinstruments":9814,"Ġdisparate":9815,"Ġpermanent":9816,"Ġperiscope":9817,"Ġremoved":9818,"Ġremittance":9819,"Ġhandshake":9820,"Ġhandmaids":9821,"Ġchattanooga":9822,"Ġrepository":9823,"Ġdistricts":9824,"Ġudemy":9825,"Ġpresumptuous":9826,"Ġimmediately":9827,"Ġcoursera":9828,"Ġrefreshed":9829,"Ġcriteria":9830,"Ġcrumbling":9831,"Ġmicrolenders":9832,"Ġcorrespondence":9833,"Ġswitzerland":9834,"Ġexcluded":9835,"Ġuncontrollable":9836,"Ġoutstretched":9837,"Ġsuperhero":9838,"Ġfoursquare":9839,"Ġmisinforming":9840,"Ġhypocrites":9841,"traditional":9842,"Ġwarehouses":9843,"Ġpittsburgh":9844,"collaborative":9845,"Ġfertilizer":9846,"iffnecked":9847,"Ġziprecruiter":9848,"Ġsorcerers":9849,"Ġmelchizedek":9850,"ĠcafÃ©s":9851,",)":9852,"!âĢĿ":9853,"%.âĢĿ":9854,").âĢĿ":9855,"+.":9856,"-)":9857,"..":9858,"14":9859,"115":9860,"21":9861,"28":9862,"29":9863,"239":9864,"41":9865,"45":9866,"60":9867,"62":9868,"65":9869,"68":9870,"750":9871,"820":9872,"850":9873,"90":9874,"?'":9875,"aj":9876,"aw":9877,"aer":9878,"aun":9879,"auc":9880,"aqu":9881,"akes":9882,"aire":9883,"away":9884,"aways":9885,"bl":9886,"bar":9887,"bal":9888,"bel":9889,"bas":9890,"bir":9891,"bec":9892,"bid":9893,"bly":9894,"bation":9895,"bab":9896,"bul":9897,"blo":9898,"bund":9899,"bud":9900,"beth":9901,"bia":9902,"boo":9903,"bount":9904,"bble":9905,"bara":9906,"bunch":9907,"beh":9908,"burs":9909,"bix":9910,"bond":9911,"bee":9912,"body":9913,"barter":9914,"bloc":9915,"bury":9916,"baked":9917,"brown":9918,"blot":9919,"ck":9920,"can":9921,"car":9922,"cart":9923,"cil":9924,"cig":9925,"cob":9926,"cain":9927,"came":9928,"cally":9929,"case":9930,"catch":9931,"clic":9932,"cels":9933,"capt":9934,"cred":9935,"cules":9936,"crypt":9937,"cogn":9938,"ciful":9939,"carsh":9940,"called":9941,"cibo":9942,"claimed":9943,"di":9944,"dl":9945,"dar":9946,"del":9947,"dis":9948,"dess":9949,"dop":9950,"dol":9951,"dust":9952,"dut":9953,"dings":9954,"dain":9955,"dates":9956,"dles":9957,"dream":9958,"dio":9959,"disco":9960,"dibility":9961,"doubt":9962,"ef":9963,"eg":9964,"eer":9965,"een":9966,"eit":9967,"eet":9968,"eas":9969,"eve":9970,"eber":9971,"even":9972,"eys":9973,"eums":9974,"easy":9975,"egie":9976,"fc":9977,"fj":9978,"fil":9979,"fas":9980,"fro":9981,"fid":9982,"fant":9983,"fare":9984,"fect":9985,"fra":9986,"five":9987,"ffer":9988,"fail":9989,"four":9990,"food":9991,"father":9992,"fram":9993,"flex":9994,"fuel":9995,"files":9996,"faced":9997,"fiduc":9998,"fuels":9999,"gu":10000,"gal":10001,"gur":10002,"gust":10003,"gage":10004,"gra":10005,"giz":10006,"gals":10007,"gia":10008,"gments":10009,"gue":10010,"gaging":10011,"gized":10012,"gary":10013,"green":10014,"graph":10015,"geless":10016,"groc":10017,"guing":10018,"hl":10019,"hr":10020,"hat":10021,"hes":10022,"hon":10023,"hus":10024,"hel":10025,"hust":10026,"hun":10027,"hind":10028,"hack":10029,"helf":10030,"hands":10031,"having":10032,"hering":10033,"hidden":10034,"hops":10035,"hallow":10036,"hcol":10037,"hrates":10038,"iq":10039,"ien":10040,"ius":10041,"ias":10042,"iform":10043,"iob":10044,"ikes":10045,"iased":10046,"ixt":10047,"iates":10048,"iables":10049,"iencies":10050,"iaries":10051,"iope":10052,"js":10053,"jis":10054,"jac":10055,"jacking":10056,"joint":10057,"july":10058,"justs":10059,"ka":10060,"kat":10061,"kart":10062,"kop":10063,"kies":10064,"kip":10065,"kens":10066,"kia":10067,"kdown":10068,"kÃ©":10069,"kka":10070,"lb":10071,"lm":10072,"lin":10073,"lor":10074,"lom":10075,"lers":10076,"lig":10077,"lim":10078,"lost":10079,"lah":10080,"last":10081,"lical":10082,"lied":10083,"langu":10084,"living":10085,"lively":10086,"lift":10087,"lifest":10088,"lanta":10089,"lifts":10090,"mi":10091,"mil":10092,"mas":10093,"mith":10094,"mag":10095,"mos":10096,"mpp":10097,"mod":10098,"mill":10099,"mine":10100,"mach":10101,"mem":10102,"mors":10103,"most":10104,"million":10105,"mult":10106,"mov":10107,"mish":10108,"mss":10109,"mark":10110,"mining":10111,"maker":10112,"munk":10113,"matic":10114,"mantic":10115,"masters":10116,"matched":10117,"nu":10118,"non":10119,"nic":10120,"nly":10121,"noc":10122,"nud":10123,"nose":10124,"nap":10125,"nects":10126,"nels":10127,"nology":10128,"oor":10129,"oke":10130,"oking":10131,"okes":10132,"oia":10133,"overy":10134,"ogr":10135,"oven":10136,"pan":10137,"pus":10138,"pil":10139,"pir":10140,"pop":10141,"pth":10142,"pos":10143,"pod":10144,"pad":10145,"pure":10146,"pach":10147,"pong":10148,"pub":10149,"pets":10150,"path":10151,"pical":10152,"pages":10153,"paces":10154,"posts":10155,"puter":10156,"poss":10157,"pbs":10158,"push":10159,"packs":10160,"pipeline":10161,"picked":10162,"purch":10163,"papers":10164,"qr":10165,"ri":10166,"rs":10167,"rin":10168,"rat":10169,"rit":10170,"rage":10171,"ration":10172,"rants":10173,"rip":10174,"rations":10175,"rong":10176,"rise":10177,"rath":10178,"rink":10179,"rary":10180,"rict":10181,"ression":10182,"rights":10183,"rians":10184,"rules":10185,"raries":10186,"racy":10187,"rifice":10188,"rilling":10189,"ranged":10190,"sd":10191,"son":10192,"sil":10193,"sac":10194,"sam":10195,"soc":10196,"sard":10197,"sect":10198,"sort":10199,"sail":10200,"sign":10201,"sens":10202,"sound":10203,"size":10204,"sites":10205,"suit":10206,"save":10207,"sale":10208,"suite":10209,"smb":10210,"stery":10211,"sales":10212,"security":10213,"sfa":10214,"skin":10215,"srooms":10216,"tv":10217,"tor":10218,"tent":10219,"tay":10220,"tur":10221,"tut":10222,"tect":10223,"tra":10224,"tive":10225,"trou":10226,"table":10227,"tite":10228,"tice":10229,"tood":10230,"tue":10231,"tier":10232,"tons":10233,"tles":10234,"tock":10235,"tak":10236,"tcy":10237,"tality":10238,"tilt":10239,"trial":10240,"tinder":10241,"uis":10242,"uay":10243,"uled":10244,"uish":10245,"uzz":10246,"uji":10247,"vs":10248,"van":10249,"vol":10250,"vine":10251,"vity":10252,"vide":10253,"via":10254,"vds":10255,"vious":10256,"vulation":10257,"visible":10258,"wing":10259,"wel":10260,"want":10261,"well":10262,"wood":10263,"wear":10264,"whip":10265,"wau":10266,"water":10267,"wish":10268,"wrought":10269,"waters":10270,"waves":10271,"walls":10272,"woven":10273,"xa":10274,"xo":10275,"xch":10276,"xistent":10277,"ya":10278,"yan":10279,"ych":10280,"yse":10281,"youn":10282,"yms":10283,"ylock":10284,"ytechn":10285,"yager":10286,"ypical":10287,"zi":10288,"zan":10289,"zed":10290,"ziness":10291,"zens":10292,"¡ve":10293,"£o":10294,"Â°":10295,"Ã¡ve":10296,"Ã£o":10297,"Ġ:":10298,"Ġ,":10299,"Ġ#":10300,"Ġul":10301,"Ġud":10302,"Ġrow":10303,"ĠÂł":10304,"Ġeric":10305,"Ġumb":10306,"Ġ!!":10307,"Ġter":10308,"Ġted":10309,"Ġtac":10310,"Ġtay":10311,"Ġtill":10312,"Ġtack":10313,"Ġtight":10314,"Ġtip":10315,"Ġtort":10316,"Ġtum":10317,"Ġtach":10318,"Ġtire":10319,"Ġtame":10320,"Ġtier":10321,"Ġtenc":10322,"Ġtang":10323,"Ġtwe":10324,"Ġtug":10325,"Ġtata":10326,"Ġaer":10327,"Ġail":10328,"Ġais":10329,"Ġaol":10330,"Ġade":10331,"Ġaqu":10332,"Ġaward":10333,"Ġafore":10334,"Ġaquent":10335,"Ġakin":10336,"Ġakka":10337,"inity":10338,"inals":10339,"inct":10340,"inwh":10341,"inety":10342,"inism":10343,"inology":10344,"iniquity":10345,"inarians":10346,"invisible":10347,"Ġthor":10348,"Ġthigh":10349,"Ġthurs":10350,"Ġthred":10351,"Ġthres":10352,"Ġthrown":10353,"Ġthrive":10354,"Ġthreshing":10355,"Ġthrilling":10356,"Ġsus":10357,"Ġsail":10358,"Ġsund":10359,"Ġsway":10360,"Ġsock":10361,"Ġsights":10362,"Ġsample":10363,"Ġsourced":10364,"Ġsought":10365,"Ġsbi":10366,"Ġsanta":10367,"ĠsÃ£o":10368,"Ġthefts":10369,"Ġtheworkplace":10370,"atar":10371,"atial":10372,"atory":10373,"atech":10374,"atures":10375,"atically":10376,"atively":10377,"atoes":10378,"atonement":10379,"atshirts":10380,"atcook":10381,"eses":10382,"esar":10383,"esit":10384,"esides":10385,"espress":10386,"espace":10387,"erin":10388,"erer":10389,"erre":10390,"erations":10391,"erting":10392,"erous":10393,"ergan":10394,"erto":10395,"eracy":10396,"eromet":10397,"erkat":10398,"erlin":10399,"Ġcb":10400,"Ġcro":10401,"Ġcess":10402,"Ġcag":10403,"Ġcul":10404,"Ġcass":10405,"Ġcum":10406,"Ġcarn":10407,"Ġcels":10408,"Ġcss":10409,"Ġcys":10410,"Ġcables":10411,"Ġcaugh":10412,"Ġcraw":10413,"Ġcaters":10414,"Ġcta":10415,"Ġcasp":10416,"Ġcmss":10417,"Ġcuis":10418,"Ġcvs":10419,"Ġwam":10420,"Ġwage":10421,"Ġwies":10422,"Ġwest":10423,"Ġwob":10424,"Ġward":10425,"Ġwoo":10426,"Ġwren":10427,"Ġwages":10428,"Ġwired":10429,"Ġwrought":10430,"Ġwipe":10431,"ani":10432,"anal":10433,"anch":10434,"anks":10435,"anaging":10436,"analy":10437,"anular":10438,"anian":10439,"anken":10440,"anthrop":10441,"anotech":10442,"orers":10443,"orance":10444,"orpt":10445,"orient":10446,"orify":10447,"orous":10448,"orcy":10449,"orney":10450,"orns":10451,"Ġpc":10452,"Ġping":10453,"Ġpon":10454,"Ġpou":10455,"Ġpel":10456,"Ġped":10457,"Ġpic":10458,"Ġpts":10459,"Ġpac":10460,"Ġpow":10461,"Ġpion":10462,"Ġpest":10463,"Ġpoc":10464,"Ġpand":10465,"Ġpals":10466,"Ġpud":10467,"Ġpte":10468,"Ġpits":10469,"Ġpipe":10470,"Ġpinks":10471,"Ġpales":10472,"Ġpaced":10473,"Ġpta":10474,"Ġpouring":10475,"Ġpapers":10476,"Ġpqr":10477,"Ġpinwh":10478,"Ġble":10479,"Ġbent":10480,"Ġbol":10481,"Ġbind":10482,"Ġbour":10483,"Ġbens":10484,"Ġbib":10485,"Ġbous":10486,"Ġbases":10487,"Ġbird":10488,"Ġbeds":10489,"Ġbaked":10490,"Ġbinder":10491,"Ġbesp":10492,"Ġbopp":10493,"Ġbesides":10494,"Ġberlin":10495,"ingent":10496,"ingly":10497,"inguish":10498,"Ġtom":10499,"Ġtoll":10500,"Ġtours":10501,"Ġtodo":10502,"Ġtons":10503,"Ġtokens":10504,"Ġtotality":10505,"ona":10506,"onal":10507,"onation":10508,"onable":10509,"online":10510,"ondit":10511,"onath":10512,"onely":10513,"onven":10514,"onential":10515,"onroy":10516,"Ġfx":10517,"Ġfus":10518,"Ġfis":10519,"Ġfos":10520,"Ġfare":10521,"Ġfad":10522,"Ġfif":10523,"Ġfob":10524,"Ġfah":10525,"Ġfights":10526,"Ġfired":10527,"Ġfoss":10528,"Ġfiled":10529,"Ġfade":10530,"Ġfasting":10531,"Ġfenced":10532,"Ġfuss":10533,"Ġfda":10534,"Ġfonts":10535,"Ġfoe":10536,"Ġfuels":10537,"Ġfuzz":10538,"arf":10539,"arith":10540,"arking":10541,"arity":10542,"arks":10543,"arily":10544,"arget":10545,"ario":10546,"arcy":10547,"arms":10548,"arkets":10549,"arian":10550,"arrel":10551,"areness":10552,"arette":10553,"arespace":10554,"Ġmas":10555,"Ġmic":10556,"Ġmow":10557,"Ġmim":10558,"Ġmell":10559,"Ġmine":10560,"Ġmere":10561,"Ġmild":10562,"Ġmouse":10563,"Ġmale":10564,"Ġmms":10565,"Ġmores":10566,"Ġmacy":10567,"Ġmcd":10568,"Ġmixt":10569,"Ġmlb":10570,"Ġic":10571,"Ġiron":10572,"Ġiaid":10573,"Ġicon":10574,"nda":10575,"nder":10576,"nding":10577,"nded":10578,"ndas":10579,"ndicated":10580,"Ġhd":10581,"Ġhat":10582,"Ġhou":10583,"Ġhay":10584,"Ġhind":10585,"Ġhall":10586,"Ġheth":10587,"Ġhors":10588,"Ġhood":10589,"Ġhath":10590,"Ġhacking":10591,"Ġhoff":10592,"Ġhooks":10593,"Ġhallow":10594,"Ġhiking":10595,"Ġhatched":10596,"Ġhlm":10597,"Ġhesit":10598,"reet":10599,"reas":10600,"reate":10601,"rent":10602,"refer":10603,"reign":10604,"replace":10605,"reward":10606,"rell":10607,"refund":10608,"remed":10609,"refr":10610,"render":10611,"Ġdc":10612,"Ġdir":10613,"Ġdess":10614,"Ġdim":10615,"Ġdun":10616,"Ġdad":10617,"Ġdell":10618,"Ġdip":10619,"Ġdive":10620,"Ġdaus":10621,"Ġdens":10622,"Ġdram":10623,"Ġdak":10624,"Ġdipp":10625,"Ġdining":10626,"Ġdraft":10627,"Ġdbs":10628,"Ġdurable":10629,"Ġdigs":10630,"Ġdunk":10631,"Ġdfj":10632,"Ġdhl":10633,"Ġdjs":10634,"Ġdvds":10635,"ene":10636,"eny":10637,"enos":10638,"engaging":10639,"omon":10640,"omated":10641,"omber":10642,"omfort":10643,"omnia":10644,"omantic":10645,"omancer":10646,"ombia":10647,"omputer":10648,"oul":10649,"ouch":10650,"iti":10651,"itly":10652,"itim":10653,"itation":10654,"itations":10655,"itution":10656,"ittle":10657,"itters":10658,"alt":10659,"alle":10660,"alment":10661,"alog":10662,"alogy":10663,"alms":10664,"alding":10665,"aligned":10666,"algia":10667,"alani":10668,"users":10669,"usive":10670,"usions":10671,"lein":10672,"lead":10673,"leep":10674,"left":10675,"leph":10676,"leblow":10677,"lecules":10678,"Ġoas":10679,"Ġolo":10680,"Ġocr":10681,"Ġoled":10682,"Ġocul":10683,"Ġowed":10684,"Ġovulation":10685,"Ġowing":10686,"elie":10687,"elier":10688,"ellect":10689,"elerator":10690,"elode":10691,"elancer":10692,"elaer":10693,"Ġinward":10694,"Ġincept":10695,"Ġinability":10696,"Ġinade":10697,"Ġinher":10698,"Ġinhuman":10699,"Ġinhib":10700,"Ġinappropriate":10701,"Ġinnoc":10702,"Ġwhopp":10703,"Ġwherin":10704,"Ġsting":10705,"Ġstir":10706,"Ġstag":10707,"Ġstur":10708,"Ġstad":10709,"Ġstell":10710,"Ġstem":10711,"Ġstood":10712,"Ġstair":10713,"Ġstats":10714,"Ġstaring":10715,"Ġstiffnecked":10716,"Ġisol":10717,"Ġisbn":10718,"ede":10719,"educ":10720,"edient":10721,"edians":10722,"Ġlad":10723,"Ġligh":10724,"Ġlul":10725,"Ġlatch":10726,"Ġlump":10727,"Ġlasting":10728,"Ġlighter":10729,"Ġluck":10730,"Ġlanes":10731,"Ġlerer":10732,"Ġlonely":10733,"Ġgn":10734,"Ġgv":10735,"Ġgith":10736,"Ġgore":10737,"Ġgree":10738,"Ġgraham":10739,"Ġgitter":10740,"Ġgently":10741,"Ġgathers":10742,"Ġgpus":10743,"Ġgyms":10744,"eter":10745,"etime":10746,"etakers":10747,"artists":10748,"iler":10749,"ilized":10750,"ilty":10751,"ilio":10752,"iliar":10753,"isions":10754,"isable":10755,"isode":10756,"Ġford":10757,"Ġforth":10758,"Ġforum":10759,"Ġforeh":10760,"Ġforests":10761,"Ġforces":10762,"Ġforced":10763,"asi":10764,"ask":10765,"asies":10766,"asive":10767,"asma":10768,"ica":10769,"icc":10770,"icit":10771,"icate":10772,"icize":10773,"icates":10774,"icov":10775,"ician":10776,"icited":10777,"icinity":10778,"icorns":10779,"roi":10780,"roch":10781,"roft":10782,"roomm":10783,"robe":10784,"robox":10785,"robi":10786,"rotect":10787,"Ġeup":10788,"Ġech":10789,"Ġevic":10790,"Ġeater":10791,"Ġeco":10792,"Ġelearning":10793,"Ġehs":10794,"Ġeager":10795,"Ġeleph":10796,"Ġeicc":10797,"acists":10798,"acular":10799,"acute":10800,"upal":10801,"upply":10802,"updates":10803,"owai":10804,"Ġyol":10805,"Ġyell":10806,"Ġyhe":10807,"irks":10808,"Ġcomfor":10809,"Ġcomcast":10810,"Ġcomedians":10811,"kee":10812,"keys":10813,"ioned":10814,"ioners":10815,"Ġstartling":10816,"Ġnc":10817,"Ġnuc":10818,"Ġniv":10819,"Ġnost":10820,"Ġnub":10821,"Ġnood":10822,"Ġnick":10823,"Ġnether":10824,"Ġnines":10825,"Ġniss":10826,"Ġnorm":10827,"Ġnerv":10828,"Ġniant":10829,"Ġnba":10830,"Ġnuban":10831,"Ġnbc":10832,"Ġnhs":10833,"Ġnfc":10834,"Ġnyse":10835,"Ġninety":10836,"Ġnespress":10837,"Ġnanotech":10838,"essor":10839,"essive":10840,"essors":10841,"âĢĶ":10842,"Ġyounow":10843,"ento":10844,"ented":10845,"enties":10846,"entment":10847,"entious":10848,"enteous":10849,"entertainment":10850,"Ġstartuplication":10851,"Ġcompost":10852,"Ġcompress":10853,"Ġcomposing":10854,"Ġcompiles":10855,"Ġcomposed":10856,"Ġcomplements":10857,"Ġcompiler":10858,"ecking":10859,"ecution":10860,"Ġdod":10861,"Ġdot":10862,"Ġdoom":10863,"Ġdoers":10864,"Ġdoord":10865,"Ġdozens":10866,"Ġonion":10867,"Ġonav":10868,"Ġonsite":10869,"Ġonerous":10870,"Ġbug":10871,"Ġbuch":10872,"Ġbump":10873,"Ġbull":10874,"Ġbubble":10875,"Ġbuffer":10876,"Ġbuenos":10877,"Ġplus":10878,"Ġplaid":10879,"Ġplugg":10880,"Ġplumb":10881,"Ġplenteous":10882,"Ġreid":10883,"Ġrever":10884,"Ġreap":10885,"Ġreverse":10886,"Ġreju":10887,"Ġreaps":10888,"Ġreaping":10889,"Ġrethink":10890,"Ġreengaging":10891,"Ġitun":10892,"Ġitaly":10893,"Ġiteration":10894,"Ġiterations":10895,"opper":10896,"opher":10897,"vehic":10898,"Ġprover":10899,"Ġprocl":10900,"Ġproced":10901,"Ġprohib":10902,"Ġprostitute":10903,"igo":10904,"iguring":10905,"igger":10906,"igious":10907,"igms":10908,"igibility":10909,"iguration":10910,"idas":10911,"idential":10912,"idency":10913,"idays":10914,"idiaries":10915,"agand":10916,"agine":10917,"agments":10918,"agbank":10919,"Ġcompanions":10920,"Ġgoel":10921,"Ġgofund":10922,"Ġusability":10923,"Ġusps":10924,"Ġliv":10925,"Ġlies":10926,"Ġlied":10927,"Ġliest":10928,"Ġliars":10929,"Ġlivest":10930,"olicited":10931,"amal":10932,"amount":10933,"amily":10934,"amorous":10935,"ameter":10936,"thm":10937,"thin":10938,"that":10939,"thers":10940,"thood":10941,"thical":10942,"thouse":10943,"thbr":10944,"thentic":10945,"tholes":10946,"thsky":10947,"thony":10948,"threshing":10949,"forth":10950,"forest":10951,"foreh":10952,"forces":10953,"forgiving":10954,"Ġmax":10955,"Ġmaus":10956,"Ġmaine":10957,"Ġmaket":10958,"osk":10959,"osity":10960,"osable":10961,"osens":10962,"osits":10963,"Ġcanyon":10964,"Ġpepp":10965,"Ġpeek":10966,"Ġpeeled":10967,"Ġpending":10968,"uru":10969,"urers":10970,"urist":10971,"urning":10972,"urists":10973,"uristic":10974,"urbs":10975,"urches":10976,"uromancer":10977,"âĢĻ,":10978,"Ġrage":10979,"Ġrut":10980,"Ġrug":10981,"Ġrights":10982,"Ġrains":10983,"Ġrale":10984,"Ġripe":10985,"Ġraged":10986,"Ġrift":10987,"Ġrhy":10988,"Ġrico":10989,"Ġrdio":10990,"Ġrfid":10991,"Ġryan":10992,"Ġromantic":10993,"Ġrica":10994,"lywed":10995,"lywood":10996,"ustrations":10997,"Ġals":10998,"Ġally":10999,"Ġalph":11000,"Ġalike":11001,"Ġalerting":11002,"Ġalarms":11003,"imot":11004,"import":11005,"iminated":11006,"iminals":11007,"imagine":11008,"Ġaner":11009,"Ġants":11010,"Ġanch":11011,"Ġanand":11012,"Ġanton":11013,"Ġanew":11014,"Ġanonymous":11015,"Ġanthrop":11016,"Ġanalogy":11017,"Ġanthony":11018,"Ġtrim":11019,"Ġtrace":11020,"Ġtrib":11021,"Ġtrample":11022,"Ġtraged":11023,"Ġtriage":11024,"Ġtripping":11025,"Ġtrusts":11026,"Ġtrivia":11027,"Ġtrigger":11028,"Ġbees":11029,"Ġbeans":11030,"Ġbefit":11031,"Ġbeats":11032,"Ġbearing":11033,"Ġbeverage":11034,"Ġbefriend":11035,"Ġbegins":11036,"Ġbeef":11037,"Ġbeforeh":11038,"Ġbusinesspeople":11039,"Ġconvey":11040,"esty":11041,"esting":11042,"estly":11043,"estate":11044,"estible":11045,"estones":11046,"establish":11047,"estrians":11048,"chin":11049,"chers":11050,"chron":11051,"chbook":11052,"check":11053,"challen":11054,"chinese":11055,"chew":11056,"chips":11057,"checking":11058,"Ġneat":11059,"Ġneural":11060,"Ġnebul":11061,"Ġshy":11062,"Ġshed":11063,"Ġshot":11064,"Ġshun":11065,"Ġshoo":11066,"Ġshear":11067,"Ġshave":11068,"Ġshutter":11069,"Ġshift":11070,"Ġshaping":11071,"Ġshaul":11072,"Ġshirts":11073,"Ġshibah":11074,"Ġshifts":11075,"Ġshekel":11076,"Ġshaqu":11077,"Ġshalt":11078,"ota":11079,"oting":11080,"oton":11081,"otate":11082,"otist":11083,"otcamp":11084,"otrad":11085,"otrobox":11086,"unet":11087,"unts":11088,"unky":11089,"untle":11090,"unbanked":11091,"unemployed":11092,"unbreak":11093,"unicorns":11094,"Ġvow":11095,"Ġvoc":11096,"Ġvant":11097,"Ġvind":11098,"Ġvip":11099,"Ġvive":11100,"Ġvib":11101,"Ġvital":11102,"Ġvets":11103,"Ġvint":11104,"Ġvary":11105,"Ġvps":11106,"Ġvape":11107,"Ġvitals":11108,"Ġvlog":11109,"Ġvibe":11110,"Ġvicinity":11111,"Ġvoting":11112,"atement":11113,"Ġmanip":11114,"Ġmanpower":11115,"Ġmandar":11116,"Ġmanhat":11117,"Ġframes":11118,"Ġfragments":11119,"Ġlean":11120,"Ġleather":11121,"Ġleases":11122,"Ġleper":11123,"Ġleasing":11124,"Ġjar":11125,"Ġjib":11126,"Ġjov":11127,"Ġjames":11128,"Ġjared":11129,"Ġjumb":11130,"Ġjigs":11131,"Ġjai":11132,"Ġjson":11133,"Ġjonath":11134,"Ġhairst":11135,"Ġhaunts":11136,"ocation":11137,"ocative":11138,"Ġmeat":11139,"Ġmeerkat":11140,"Ġworse":11141,"Ġworms":11142,"anding":11143,"andchild":11144,"andelier":11145,"Ġyourtango":11146,"Ġorator":11147,"odd":11148,"odation":11149,"odad":11150,"verified":11151,"verbal":11152,"ston":11153,"sters":11154,"story":11155,"stars":11156,"stitch":11157,"stocks":11158,"strapped":11159,"stairs":11160,"stiffnecked":11161,"stien":11162,"strong":11163,"street":11164,"Ġspy":11165,"Ġspas":11166,"Ġspies":11167,"Ġspans":11168,"Ġspree":11169,"Ġspark":11170,"Ġspins":11171,"Ġspelt":11172,"Ġspinal":11173,"Ġspher":11174,"Ġsparks":11175,"Ġcustoms":11176,"Ġcustomizing":11177,"Ġcustomization":11178,"Ġcustomtail":11179,"Ġcustomisable":11180,"Ġchen":11181,"Ġchart":11182,"Ġchum":11183,"Ġchile":11184,"Ġchap":11185,"Ġchair":11186,"Ġchron":11187,"Ġchugg":11188,"Ġchores":11189,"Ġcharter":11190,"Ġchemical":11191,"ĠchÃ¡ve":11192,"Ġchurches":11193,"Ġchandelier":11194,"Ġabra":11195,"Ġabused":11196,"Ġabiding":11197,"Ġabsol":11198,"Ġabusive":11199,"adan":11200,"adov":11201,"advert":11202,"adio":11203,"addy":11204,"adjac":11205,"Ġcream":11206,"Ġcreations":11207,"Ġcredibility":11208,"Ġallen":11209,"Ġallian":11210,"Ġallaire":11211,"Ġallergan":11212,"Ġthisweek":11213,"Ġappbount":11214,"Ġapprise":11215,"Ġdearly":11216,"Ġdehy":11217,"Ġbynu":11218,"iffs":11219,"ifamily":11220,"Ġmakeup":11221,"Ġmakemap":11222,"Ġserved":11223,"Ġserene":11224,"ills":11225,"illow":11226,"illeries":11227,"illiant":11228,"eller":11229,"ellations":11230,"abia":11231,"abouts":11232,"Ġexhaust":11233,"ulum":11234,"ulse":11235,"ulator":11236,"ulatory":11237,"ulthood":11238,"Ġseal":11239,"Ġsequ":11240,"Ġseash":11241,"Ġsegments":11242,"Ġsemantic":11243,"Ġsmi":11244,"Ġsmelling":11245,"Ġsmells":11246,"Ġsmiling":11247,"obe":11248,"Ġthemes":11249,"ivor":11250,"ivize":11251,"ivated":11252,"ivities":11253,"ivating":11254,"uting":11255,"utations":11256,"utely":11257,"utility":11258,"utilized":11259,"Ġaspir":11260,"Ġasleep":11261,"Ġprone":11262,"Ġpranks":11263,"Ġheals":11264,"Ġhewn":11265,"Ġhears":11266,"Ġheels":11267,"Ġheats":11268,"duction":11269,"isted":11270,"istas":11271,"isture":11272,"istance":11273,"istically":11274,"Ġgoddess":11275,"Ġgodaddy":11276,"mentioned":11277,"Ġmarking":11278,"Ġmarbles":11279,"Ġwework":11280,"Ġweird":11281,"Ġweibo":11282,"Ġsoil":11283,"Ġsoft":11284,"Ġsofas":11285,"itya":11286,"ntax":11287,"deals":11288,"develop":11289,"debt":11290,"defin":11291,"degree":11292,"delete":11293,"depth":11294,"Ġgetgo":11295,"Ġloom":11296,"Ġloop":11297,"Ġloft":11298,"Ġlovers":11299,"Ġtoolbox":11300,"raint":11301,"raines":11302,"ipes":11303,"iping":11304,"iply":11305,"ipses":11306,"ipkart":11307,"Ġallowed":11308,"Ġallowance":11309,"orted":11310,"ortions":11311,"ortium":11312,"izon":11313,"asses":11314,"assed":11315,"asset":11316,"assets":11317,"assisted":11318,"Ġadvers":11319,"Ġadher":11320,"Ġadmission":11321,"Ġadhd":11322,"Ġadhering":11323,"Ġadjusts":11324,"Ġadidas":11325,"Ġadulthood":11326,"Ġadobe":11327,"Ġaditya":11328,"Ġtapt":11329,"umas":11330,"umio":11331,"umulate":11332,"ĠâĢ¢":11333,"loft":11334,"loved":11335,"lovers":11336,"looking":11337,"Ġpayout":11338,"Ġpayouts":11339,"Ġpayloc":11340,"Ġpaywalls":11341,"Ġsaud":11342,"Ġsauce":11343,"Ġfinder":11344,"Ġfinders":11345,"Ġfindings":11346,"Ġnewer":11347,"Ġnewsh":11348,"Ġnewlywed":11349,"Ġexponential":11350,"Ġexported":11351,"Ġteens":11352,"Ġteaser":11353,"ainable":11354,"ems":11355,"emeral":11356,"ieved":11357,"ieatcook":11358,"Ġimperson":11359,"Ġimplements":11360,"Ġimpression":11361,"Ġimpulse":11362,"Ġatroc":11363,"Ġatlanta":11364,"Ġatypical":11365,"Ġhaste":11366,"Ġworkable":11367,"Ġworkforces":11368,"quate":11369,"query":11370,"quarter":11371,"quizzes":11372,"quasi":11373,"Ġphds":11374,"Ġphoning":11375,"underre":11376,"Ġmythical":11377,"Ġbrunch":11378,"Ġbrian":11379,"Ġbrides":11380,"Ġbrief":11381,"Ġbrush":11382,"Ġbranch":11383,"Ġbrilliant":11384,"Ġclint":11385,"Ġclock":11386,"Ġclique":11387,"Ġclump":11388,"Ġclicking":11389,"Ġclunky":11390,"Ġpassing":11391,"Ġunity":11392,"Ġunile":11393,"Ġunse":11394,"Ġunco":11395,"Ġunaid":11396,"Ġunits":11397,"Ġunrel":11398,"Ġuninter":11399,"Ġunworthy":11400,"Ġunwise":11401,"Ġunemployed":11402,"Ġunhe":11403,"Ġunmet":11404,"Ġunaware":11405,"Ġunfam":11406,"Ġunpaid":11407,"Ġunreal":11408,"Ġunemployment":11409,"Ġuniform":11410,"Ġunlim":11411,"Ġunmov":11412,"Ġunreas":11413,"Ġunforgiving":11414,"Ġunadvert":11415,"Ġunloved":11416,"Ġkors":11417,"Ġkoh":11418,"Ġkits":11419,"Ġkios":11420,"Ġknight":11421,"Ġkrip":11422,"Ġklein":11423,"Ġkamal":11424,"Ġbetting":11425,"Ġbuttons":11426,"Ġfears":11427,"geof":11428,"Ġnota":11429,"Ġnotices":11430,"Ġnotary":11431,"Ġnoticing":11432,"Ġnotability":11433,"Ġnotified":11434,"igners":11435,"ileps":11436,"Ġsayings":11437,"velty":11438,"Ġproven":11439,"Ġprovenance":11440,"Ġprovocative":11441,"Ġintrig":11442,"Ġintonation":11443,"Ġintellect":11444,"udes":11445,"udges":11446,"uddl":11447,"acting":11448,"activity":11449,"activated":11450,"Ġgoodbot":11451,"Ġneedn":11452,"Ġneedle":11453,"orse":11454,"Ġeastern":11455,"Ġeasiest":11456,"ensively":11457,"Ġsomeones":11458,"Ġsomehow":11459,"Ġoutwe":11460,"Ġoutward":11461,"Ġoutlets":11462,"Ġoutlook":11463,"Ġupc":11464,"Ġuphol":11465,"Ġupright":11466,"Ġuplifts":11467,"Ġupstairs":11468,"ibraries":11469,"Ġinviting":11470,"Ġinvests":11471,"Ġinvitations":11472,"Ġinvasive":11473,"Ġhispan":11474,"Ġemptier":11475,"Ġcurating":11476,"Ġcurses":11477,"Ġcurios":11478,"Ġcontest":11479,"Ġcontender":11480,"Ġcontrary":11481,"Ġcontingent":11482,"Ġidease":11483,"Ġtracked":11484,"Ġtracklists":11485,"Ġowns":11486,"Ġcommute":11487,"Ġcommutes":11488,"Ġmeanings":11489,"Ġmeanwhile":11490,"Ġemployable":11491,"Ġinterrup":11492,"Ġinterfering":11493,"Ġinteriors":11494,"Ġinterfaces":11495,"Ġintertw":11496,"Ġsyndicated":11497,"Ġsyntax":11498,"Ġpartially":11499,"Ġincap":11500,"Ġincurring":11501,"Ġincidents":11502,"Ġincoming":11503,"Ġinconven":11504,"Ġconsists":11505,"Ġconserve":11506,"Ġconsortium":11507,"Ġenact":11508,"Ġenforce":11509,"Ġenabled":11510,"Ġenvision":11511,"Ġencomp":11512,"Ġenvy":11513,"Ġenrolled":11514,"Ġenvious":11515,"Ġmolecules":11516,"Ġmothers":11517,"Ġmoisture":11518,"ffiti":11519,"Ġimporters":11520,"ahead":11521,"Ġspecies":11522,"onged":11523,"Ġdesert":11524,"Ġdesired":11525,"Ġdeserved":11526,"Ġdeserving":11527,"see":11528,"search":11529,"sexy":11530,"Ġpersonally":11531,"Ġbigtable":11532,"Ġbigquery":11533,"Ġhealthify":11534,"rypts":11535,"ubines":11536,"ubordinate":11537,"ounded":11538,"Ġrecall":11539,"Ġrecorder":11540,"Ġrecycles":11541,"Ġreclaimed":11542,"Ġrecovery":11543,"Ġrecreate":11544,"Ġmediation":11545,"Ġsmartly":11546,"Ġsmartsh":11547,"Ġdigitaltilt":11548,"plans":11549,"plainable":11550,"Ġreset":11551,"Ġresort":11552,"Ġresident":11553,"Ġreserving":11554,"Ġresched":11555,"Ġresemble":11556,"Ġresentment":11557,"Ġresidential":11558,"Ġreseller":11559,"Ġresistance":11560,"Ġsupern":11561,"Ġsuperg":11562,"Ġsuprem":11563,"Ġoffensive":11564,"Ġoffenses":11565,"Ġsetup":11566,"Ġscare":11567,"Ġsciences":11568,"Ġscroll":11569,"Ġscoff":11570,"Ġscrew":11571,"Ġscope":11572,"Ġscouring":11573,"Ġscalding":11574,"lowering":11575,"ditioners":11576,"ichannel":11577,"Ġevokes":11578,"Ġspacewal":11579,"Ġhappier":11580,"Ġhappiest":11581,"Ġwhereon":11582,"Ġwhereas":11583,"Ġwherever":11584,"Ġwhereabouts":11585,"Ġfiring":11586,"Ġaccomm":11587,"Ġaccuse":11588,"Ġaccumulate":11589,"Ġwebmasters":11590,"Ġwebpages":11591,"Ġwebrat":11592,"Ġfined":11593,"Ġfinite":11594,"Ġdecember":11595,"Ġdeceit":11596,"gray":11597,"grabb":11598,"gressive":11599,"gruntle":11600,"grandchild":11601,"ended":11602,"enders":11603,"Ġsolved":11604,"Ġsolomon":11605,"Ġsolicit":11606,"Ġindie":11607,"Ġindoor":11608,"Ġindigo":11609,"Ġsocially":11610,"fulfil":11611,"Ġprebuilt":11612,"Ġprecip":11613,"Ġteaming":11614,"Ġteammates":11615,"Ġquo":11616,"Ġquail":11617,"Ġquite":11618,"Ġquery":11619,"Ġquote":11620,"Ġquake":11621,"Ġquaking":11622,"Ġquarters":11623,"Ġquora":11624,"Ġquizzes":11625,"Ġquarrel":11626,"Ġquirks":11627,"iverse":11628,"Ġros":11629,"Ġroam":11630,"Ġrover":11631,"Ġroaster":11632,"Ġrobe":11633,"Ġrosa":11634,"Ġrooft":11635,"Ġrosters":11636,"Ġbls":11637,"Ġblot":11638,"Ġblaz":11639,"Ġblaming":11640,"Ġoverages":11641,"Ġoverload":11642,"Ġoverflow":11643,"Ġovercomes":11644,"Ġovereat":11645,"Ġovernight":11646,"Ġoverthink":11647,"Ġovertake":11648,"Ġovercoming":11649,"Ġoverbear":11650,"Ġoverdone":11651,"Ġoverlook":11652,"Ġoveractive":11653,"Ġovercharging":11654,"Ġovercame":11655,"Ġovertak":11656,"Ġcreditworth":11657,"fear":11658,"feit":11659,"feast":11660,"fearing":11661,"feared":11662,"feature":11663,"Ġcolombia":11664,"Ġspecialize":11665,"Ġspecialised":11666,"Ġspecialising":11667,"Ġspecialises":11668,"Ġspecializing":11669,"athon":11670,"renheit":11671,"fitness":11672,"fitted":11673,"aste":11674,"astation":11675,"Ġbetterment":11676,"Ġrises":11677,"Ġrealize":11678,"Ġrealtor":11679,"Ġrealistically":11680,"Ġautotrad":11681,"Ġagility":11682,"Ġaggressive":11683,"angling":11684,"angements":11685,"integr":11686,"intune":11687,"intensive":11688,"Ġstring":11689,"Ġstranded":11690,"Ġstripped":11691,"Ġstriking":11692,"Ġstrikes":11693,"echo":11694,"Ġfounding":11695,"Ġfoundations":11696,"Ġfoundry":11697,"ashing":11698,"ashed":11699,"Ġshareable":11700,"Ġenthus":11701,"Ġundert":11702,"Ġundoubt":11703,"Ġundrink":11704,"Ġmons":11705,"Ġmontre":11706,"Ġfoodspot":11707,"earable":11708,"Ġretarget":11709,"Ġretouch":11710,"Ġreturning":11711,"Ġprocessors":11712,"reader":11713,"Ġbestows":11714,"Ġlake":11715,"Ġlaid":11716,"Ġlaziness":11717,"Ġlaowai":11718,"Ġlocals":11719,"Ġlocked":11720,"Ġlocker":11721,"Ġlockdown":11722,"pression":11723,"printing":11724,"pronged":11725,"Ġdelight":11726,"Ġdelaware":11727,"Ġdelta":11728,"Ġdelicates":11729,"Ġamram":11730,"Ġambit":11731,"Ġamassed":11732,"Ġcoin":11733,"Ġcoord":11734,"Ġcoex":11735,"Ġcofound":11736,"Ġcofounder":11737,"Ġcofounders":11738,"Ġcohes":11739,"Ġdaylight":11740,"icality":11741,"crm":11742,"crumb":11743,"criminated":11744,"Ġarts":11745,"Ġarbit":11746,"Ġaranner":11747,"Ġarguing":11748,"Ġarpach":11749,"Ġarabia":11750,"Ġnoon":11751,"Ġnokia":11752,"Ġnootrobox":11753,"Ġnovelty":11754,"Ġsalt":11755,"Ġsalfi":11756,"Ġtoothbr":11757,"Ġrelative":11758,"Ġrelays":11759,"Ġreligious":11760,"Ġrelocation":11761,"Ġtraumas":11762,"wework":11763,"Ġafoul":11764,"Ġthanking":11765,"Ġinstances":11766,"Ġinstalled":11767,"Ġvideohire":11768,"Ġvideograph":11769,"Ġnetbix":11770,"Ġanybody":11771,"Ġbackers":11772,"Ġbackup":11773,"Ġbackpacks":11774,"Ġhighways":11775,"Ġhighlights":11776,"Ġ16":11777,"Ġ175":11778,"Ġcleft":11779,"Ġpersonalised":11780,"Ġpersonalizes":11781,"Ġpersonalization":11782,"Ġ27":11783,"Ġ250":11784,"Ġ239":11785,"Ġtechy":11786,"Ġtechstars":11787,"Ġbanned":11788,"Ġdislike":11789,"Ġdisorder":11790,"Ġdisorders":11791,"Ġdisgust":11792,"Ġdisgruntle":11793,"Ġdiscriminated":11794,"Ġunderstood":11795,"Ġinsight":11796,"Ġinsert":11797,"Ġinsomnia":11798,"Ġinsubordinate":11799,"authentic":11800,"inkles":11801,"Ġsimult":11802,"Ġsimulator":11803,"Ġcarous":11804,"Ġcarpent":11805,"Ġcargur":11806,"Ġcarjacking":11807,"Ġcarpets":11808,"Ġcaretakers":11809,"blended":11810,"Ġsigning":11811,"Ġsignage":11812,"Ġsignatures":11813,"Ġfailings":11814,"Ġfailcast":11815,"Ġemr":11816,"Ġembers":11817,"Ġemulate":11818,"Ġemissions":11819,"Ġava":11820,"Ġavs":11821,"Ġavatar":11822,"Ġvisas":11823,"Ġvisions":11824,"Ġperu":11825,"Ġperks":11826,"Ġpermit":11827,"Ġperverse":11828,"Ġperpetual":11829,"Ġperched":11830,"Ġrestful":11831,"Ġrestored":11832,"Ġrestrict":11833,"Ġrestitution":11834,"Ġdonor":11835,"Ġdonated":11836,"Ġdonuts":11837,"Ġdonkey":11838,"Ġdonkeys":11839,"Ġinformatics":11840,"Ġtranscrip":11841,"Ġtranscription":11842,"Ġtranscribe":11843,"Ġtransfers":11844,"Ġremix":11845,"Ġremains":11846,"Ġdebugg":11847,"Ġdebits":11848,"Ġdebris":11849,"Ġsucks":11850,"Ġsucco":11851,"Ġboom":11852,"Ġboosts":11853,"Ġboats":11854,"Ġbootcamp":11855,"Ġpatches":11856,"Ġpatenting":11857,"Ġsunny":11858,"Ġacted":11859,"Ġactual":11860,"Ġmessiness":11861,"Ġmessier":11862,"Ġconsuming":11863,"Ġassure":11864,"Ġassump":11865,"Ġassume":11866,"Ġassault":11867,"Ġassemble":11868,"Ġcalgary":11869,"Ġtasers":11870,"Ġtasting":11871,"Ġtello":11872,"Ġteller":11873,"Ġstudies":11874,"Ġstudied":11875,"venate":11876,"Ġsendfriend":11877,"Ġpurity":11878,"Ġpurification":11879,"Ġpurvey":11880,"Ġwrangling":11881,"Ġlongs":11882,"ova":11883,"eryou":11884,"ĠpokÃ©":11885,"Ġpotholes":11886,"Ġpoems":11887,"Ġorganise":11888,"Ġorganiser":11889,"Ġcashflow":11890,"Ġgiveaways":11891,"Ġimproper":11892,"Ġresponds":11893,"Ġcompetitively":11894,"Ġlearningpath":11895,"ounter":11896,"Ġlaunches":11897,"aural":11898,"Ġdried":11899,"Ġdrupal":11900,"Ġaccessing":11901,"Ġaccessibility":11902,"ako":11903,"Ġbrown":11904,"airport":11905,"boy":11906,"boat":11907,"Ġhandym":11908,"Ġhandwritten":11909,"Ġhandhel":11910,"Ġhandpicked":11911,"alyst":11912,"Ġrisky":11913,"Ġriskier":11914,"Ġraw":11915,"Ġnextbit":11916,"Ġpowerhouse":11917,"Ġpowermet":11918,"ishin":11919,"covenant":11920,"Ġhumbly":11921,"ictive":11922,"ractors":11923,"Ġfold":11924,"Ġfolds":11925,"Ġfolders":11926,"Ġpriority":11927,"blemaker":11928,"Ġcommunicating":11929,"Ġcommunicator":11930,"Ġlocale":11931,"Ġlocalized":11932,"verticality":11933,"Ġchatting":11934,"Ġclearer":11935,"Ġinsurify":11936,"Ġprioritized":11937,"tool":11938,"Ġdownside":11939,"Ġshopfron":11940,"Ġchoking":11941,"Ġengages":11942,"Ġ2021":11943,"reatment":11944,"Ġtwined":11945,"Ġtwenty":11946,"Ġtwenties":11947,"Ġtwinkles":11948,"Ġevening":11949,"Ġevenings":11950,"Ġafterno":11951,"Ġattacking":11952,"Ġattracts":11953,"Ġattorney":11954,"pared":11955,"parents":11956,"Ġecred":11957,"Ġrunner":11958,"Ġrunners":11959,"aaconroy":11960,"Ġguilty":11961,"Ġsearched":11962,"Ġeshcol":11963,"Ġesri":11964,"Ġeschew":11965,"Ġprofiled":11966,"Ġ360":11967,"Ġapert":11968,"Ġapology":11969,"Ġbengal":11970,"Ġhotter":11971,"Ġrepents":11972,"Ġrepsoft":11973,"Ġreprotect":11974,"Ġreputations":11975,"repair":11976,"reputation":11977,"Ġstorms":11978,"Ġphotons":11979,"Ġinternship":11980,"uguay":11981,"Ġgraeber":11982,"Ġgraffiti":11983,"Ġquicker":11984,"Ġbankers":11985,"Ġbankroll":11986,"Ġbankrup":11987,"Ġopenele":11988,"Ġopenplans":11989,"Ġholiday":11990,"Ġholidays":11991,"Ġhollywood":11992,"Ġgalvin":11993,"Ġgalvan":11994,"Ġgrouped":11995,"Ġartistic":11996,"Ġdistort":11997,"Ġdistinction":11998,"Ġdistinct":11999,"Ġdistinguish":12000,"Ġdisturbs":12001,"Ġdistilleries":12002,"Ġdistaste":12003,"Ġfutile":12004,"Ġfuturist":12005,"Ġworkshops":12006,"Ġworkspaces":12007,"Ġtariffs":12008,"Ġmistreatment":12009,"Ġux":12010,"Ġestranged":12011,"Ġmainfram":12012,"Ġchildcare":12013,"Ġchildhood":12014,"Ġchildbir":12015,"Ġfundingpost":12016,"Ġbillboards":12017,"Ġoptics":12018,"Ġhireable":12019,"Ġgeneal":12020,"Ġgenres":12021,"Ġadsense":12022,"tened":12023,"tenons":12024,"Ġbookkeeping":12025,"Ġbookuality":12026,"Ġideny":12027,"Ġformation":12028,"Ġformula":12029,"Ġviruses":12030,"Ġvirtue":12031,"Ġfreed":12032,"Ġfreely":12033,"Ġfreemium":12034,"Ġmodest":12035,"Ġmeantime":12036,"sselaer":12037,"Ġedges":12038,"Ġedgeless":12039,"Ġedunet":12040,"oughly":12041,"Ġbudding":12042,"Ġbuddy":12043,"Ġidentical":12044,"Ġidentified":12045,"Ġidentifies":12046,"Ġdetest":12047,"Ġdetects":12048,"Ġlands":12049,"Ġlandmar":12050,"Ġmultifamily":12051,"Ġmultichannel":12052,"Ġmultiverse":12053,"Ġexplored":12054,"Ġexplode":12055,"Ġexplorers":12056,"Ġcollision":12057,"Ġcollisions":12058,"Ġcommonbond":12059,"Ġstrongly":12060,"Ġstrongmen":12061,"Ġstillness":12062,"boarding":12063,"gering":12064,"ioe":12065,"Ġ($":12066,"Ġhousekeep":12067,"Ġaddictive":12068,"Ġbreed":12069,"foreigners":12070,"Ġpreschool":12071,"Ġpreserving":12072,"Ġpresidency":12073,"Ġblocker":12074,"Ġblockstack":12075,"Ġache":12076,"Ġachieved":12077,"Ġmerely":12078,"Ġmerges":12079,"Ġmerged":12080,"Ġmerced":12081,"Ġmerciful":12082,"Ġmilwau":12083,"Ġmilestones":12084,"entials":12085,"Ġscheduled":12086,"Ġvirtualization":12087,"backs":12088,"ikea":12089,"Ġparis":12090,"Ġparale":12091,"Ġparked":12092,"Ġparamed":12093,"Ġpariah":12094,"Ġparcels":12095,"Ġparalle":12096,"Ġparamount":12097,"versed":12098,"Ġhadoop":12099,"Ġassisted":12100,"Ġsubway":12101,"Ġsubordinate":12102,"Ġsubstances":12103,"Ġcampuses":12104,"Ġlowe":12105,"Ġanimation":12106,"Ġanimations":12107,"Ġanimated":12108,"Ġanimosity":12109,"chains":12110,"Ġtexture":12111,"Ġsupported":12112,"Ġsupporters":12113,"Ġsupportive":12114,"Ġnegotiations":12115,"Ġmeter":12116,"Ġmetors":12117,"Ġmetaph":12118,"Ġobsc":12119,"Ġobeys":12120,"Ġoblig":12121,"Ġlottery":12122,"Ġearnestly":12123,"Ġplayed":12124,"Ġplaybook":12125,"Ġfeats":12126,"Ġfeaturing":12127,"Ġmuseums":12128,"Ġnightly":12129,"Ġnightcl":12130,"Ġdescribing":12131,"Ġcollaborators":12132,"Ġcollaboratively":12133,"Ġastray":12134,"Ġastrobi":12135,"Ġastounded":12136,"Ġintegrators":12137,"Ġavoidance":12138,"Ġmusician":12139,"Ġslot":12140,"Ġslain":12141,"Ġslice":12142,"Ġwatering":12143,"Ġwatermark":12144,"Ġrevenge":12145,"Ġinventor":12146,"Ġinventories":12147,"Ġgeneric":12148,"dictated":12149,"Ġprotopl":12150,"Ġtying":12151,"Ġtyrants":12152,"Ġsavvy":12153,"Ġfeeding":12154,"who":12155,"whose":12156,"Ġaires":12157,"Ġairship":12158,"Ġairfare":12159,"Ġairpod":12160,"Ġsurge":12161,"Ġsurpass":12162,"Ġsurfaces":12163,"Ġsurrender":12164,"Ġcosta":12165,"Ġcostco":12166,"Ġgroove":12167,"Ġgrooming":12168,"Ġsurety":12169,"Ġgrid":12170,"Ġgrass":12171,"Ġgrieve":12172,"Ġgrief":12173,"Ġgriev":12174,"Ġgrinder":12175,"Ġgrasp":12176,"Ġgranular":12177,"Ġgrudges":12178,"Ġgrishin":12179,"Ġregain":12180,"Ġregroup":12181,"Ġregulation":12182,"Ġregistr":12183,"Ġregulatory":12184,"Ġconstancy":12185,"Ġconstraint":12186,"Ġresearches":12187,"Ġ2012":12188,"proxy":12189,"probation":12190,"production":12191,"Ġangle":12192,"Ġbehave":12193,"Ġbehold":12194,"Ġbothered":12195,"Ġflax":12196,"Ġflaun":12197,"Ġflipkart":12198,"Ġjobsyoun":12199,"Ġporting":12200,"Ġportions":12201,"Ġportals":12202,"Ġportability":12203,"Ġapplicant":12204,"Ġrecruits":12205,"Ġrecruiter":12206,"presented":12207,"Ġsubset":12208,"Ġsubsidiaries":12209,"brite":12210,"brick":12211,"brands":12212,"bringing":12213,"ulemon":12214,"Ġhonig":12215,"Ġhonoring":12216,"Ġreaders":12217,"Ġreadout":12218,"Ġreadable":12219,"serving":12220,"Ġsenses":12221,"Ġinteracting":12222,"Ġinteracted":12223,"Ġmultiplay":12224,"Ġmultiplied":12225,"Ġeligibility":12226,"Ġaudiob":12227,"Ġwalks":12228,"Ġwalker":12229,"Ġseedr":12230,"Ġseedtime":12231,"Ġseedinvest":12232,"Ġprediction":12233,"Ġpredictable":12234,"shot":12235,"shall":12236,"short":12237,"shem":12238,"shire":12239,"shots":12240,"shirt":12241,"shekel":12242,"Ġmatchmakers":12243,"Ġmatchmaker":12244,"Ġstreamlines":12245,"Ġreceives":12246,"Ġuserbase":12247,"Ġpossibly":12248,"Ġpossessors":12249,"Ġachievement":12250,"Ġachievements":12251,"Ġfavoring":12252,"Ġfavored":12253,"Ġfavorable":12254,"Ġglorify":12255,"Ġglamorous":12256,"issued":12257,"Ġrequirement":12258,"thern":12259,"Ġplanetary":12260,"Ġblackbox":12261,"Ġoperator":12262,"Ġoperational":12263,"Ġoperators":12264,"bersome":12265,"Ġselfies":12266,"Ġselfie":12267,"Ġselfish":12268,"phonebook":12269,"Ġmeasured":12270,"rolibraries":12271,"Ġdepth":12272,"Ġdepot":12273,"Ġdepict":12274,"Ġdeposits":12275,"Ġexisted":12276,"Ġkeychain":12277,"Ġkeylog":12278,"Ġkeyboards":12279,"Ġkeypad":12280,"Ġeventbrite":12281,"Ġcollections":12282,"Ġcollectively":12283,"Ġcollectibles":12284,"Ġmonitored":12285,"Ġvisualizes":12286,"Ġmayo":12287,"Ġrefers":12288,"Ġrefuel":12289,"Ġrefrig":12290,"Ġrefills":12291,"Ġadjusted":12292,"Ġadjustments":12293,"Ġ550":12294,"Ġsank":12295,"Ġlooked":12296,"Ġvein":12297,"Ġpotter":12298,"Ġpotatoes":12299,"Ġpaste":12300,"Ġpasture":12301,"Ġpastime":12302,"Ġbadge":12303,"Ġbadges":12304,"Ġhomeschool":12305,"Ġpropuls":12306,"Ġpropagand":12307,"Ġproportions":12308,"Ġheartbreak":12309,"Ġamazed":12310,"Ġspeeding":12311,"lishing":12312,"Ġgoogler":12313,"Ġgooglers":12314,"Ġtrainings":12315,"Ġcharity":12316,"Ġchariot":12317,"Ġtremors":12318,"ospatial":12319,"Ġcleanest":12320,"Ġanalyzed":12321,"Ġgrocer":12322,"Ġhopin":12323,"Ġhoped":12324,"Ġhopeless":12325,"Ġtaxis":12326,"Ġtaxcob":12327,"Ġphysics":12328,"Ġphysically":12329,"Ġphysician":12330,"Ġconflu":12331,"Ġconfiguration":12332,"Ġvaries":12333,"Ġvariation":12334,"Ġvariations":12335,"Ġvariables":12336,"Ġextent":12337,"Ġextinction":12338,"Ġactivists":12339,"Ġrecipient":12340,"Ġsinful":12341,"Ġsinister":12342,"Ġsinners":12343,"alexa":12344,"Ġending":12345,"Ġendorse":12346,"Ġcheek":12347,"Ġcheering":12348,"Ġcheeses":12349,"Ġcolleague":12350,"Ġhumanist":12351,"Ġhumanity":12352,"Ġaffection":12353,"lessness":12354,"swiping":12355,"Ġcrack":12356,"Ġcried":12357,"Ġcrises":12358,"Ġcrush":12359,"Ġcruel":12360,"Ġcriminals":12361,"Ġcrashing":12362,"Ġbelt":12363,"Ġbelow":12364,"Ġbeliefs":12365,"Ġbelittle":12366,"Ġdiscord":12367,"Ġwrongs":12368,"Ġwronging":12369,"Ġwrongly":12370,"folds":12371,"folded":12372,"neal":12373,"next":12374,"neuromancer":12375,"Ġcapability":12376,"Ġfilms":12377,"Ġfilters":12378,"Ġfilmed":12379,"Ġfiltr":12380,"Ġliterate":12381,"Ġliteracy":12382,"Ġdreamed":12383,"Ġcandy":12384,"Ġconcision":12385,"Ġconclus":12386,"Ġconcede":12387,"Ġconcubines":12388,"Ġwordplay":12389,"Ġhonestly":12390,"armed":12391,"Ġmini":12392,"Ġminor":12393,"Ġminus":12394,"Ġminute":12395,"Ġmaintains":12396,"Ġsheet":12397,"Ġsheaves":12398,"Ġsheaf":12399,"Ġlends":12400,"Ġcheckups":12401,"Ġcrowdfund":12402,"Ġcrowdfunded":12403,"Ġcrowdflower":12404,"Ġmanufacture":12405,"Ġmanufactured":12406,"Ġmenus":12407,"Ġhera":12408,"Ġhero":12409,"Ġherring":12410,"Ġherbs":12411,"Ġhurric":12412,"Ġadaptation":12413,"Ġadaptability":12414,"Ġnewsfeed":12415,"Ġnewspapers":12416,"Ġtempo":12417,"Ġtemple":12418,"Ġrepresentatives":12419,"drate":12420,"drivers":12421,"Ġwins":12422,"Ġfunnel":12423,"Ġfunnels":12424,"Ġgifs":12425,"Ġrebelling":12426,"Ġ45":12427,"Ġ462":12428,"Ġgovernor":12429,"Ġdefence":12430,"Ġdefects":12431,"Ġdefaul":12432,"Ġindividually":12433,"Ġtransactional":12434,"Ġmotorcy":12435,"Ġundercut":12436,"Ġunderwr":12437,"Ġunderperform":12438,"Ġunderdone":12439,"Ġunderwater":12440,"Ġunderutilized":12441,"Ġ109":12442,"Ġresponsibly":12443,"Ġvoyager":12444,"Ġenergized":12445,"Ġbookshelf":12446,"Ġposters":12447,"Ġpiecing":12448,"Ġenergyiq":12449,"Ġuberx":12450,"Ġuberpool":12451,"Ġpopulations":12452,"Ġpopulate":12453,"Ġbitmo":12454,"Ġbitmap":12455,"Ġbitgive":12456,"Ġjudging":12457,"Ġguideline":12458,"Ġpublisher":12459,"Ġpublished":12460,"Ġapproaching":12461,"Ġrecommends":12462,"eezed":12463,"Ġskate":12464,"Ġskimming":12465,"Ġfloodwaters":12466,"ceedingly":12467,"Ġshorten":12468,"Ġshortened":12469,"Ġshortlist":12470,"Ġshortcuts":12471,"auto":12472,"automated":12473,"Ġbands":12474,"Ġmicrolearning":12475,"Ġmicroservices":12476,"Ġmicropayments":12477,"Ġmicrosd":12478,"Ġelection":12479,"they":12480,"Ġroleplay":12481,"Ġdetermining":12482,"Ġdetermination":12483,"Ġdetermined":12484,"Ġpitchbook":12485,"Ġfault":12486,"Ġreleases":12487,"Ġviewer":12488,"Ġviewing":12489,"Ġviewed":12490,"Ġviewable":12491,"Ġvoiceover":12492,"ycats":12493,"ycroft":12494,"Ġcored":12495,"Ġcorner":12496,"Ġcorrel":12497,"Ġcorrupted":12498,"Ġcorona":12499,"Ġcamel":12500,"Ġpolite":12501,"Ġpolish":12502,"Ġpolytechn":12503,"Ġmentoring":12504,"Ġmassless":12505,"Ġforgets":12506,"Ġroads":12507,"Ġroadside":12508,"Ġroadblock":12509,"Ġsumit":12510,"Ġsumeet":12511,"Ġfiguring":12512,"Ġdestined":12513,"Ġpayrollnow":12514,"Ġpreparer":12515,"Ġreliant":12516,"text":12517,"tempt":12518,"Ġbarely":12519,"Ġbarbers":12520,"Ġbarrel":12521,"Ġbarley":12522,"Ġbarrier":12523,"Ġbarbara":12524,"Ġbaristas":12525,"Ġhostel":12526,"Ġgoldman":12527,"Ġstruggled":12528,"Ġbreakthrough":12529,"Ġpublicists":12530,"Ġpublicizing":12531,"excess":12532,"exhaust":12533,"expression":12534,"exceedingly":12535,"Ġswot":12536,"Ġswore":12537,"Ġswap":12538,"Ġswallow":12539,"Ġswift":12540,"Ġswapped":12541,"Ġswimming":12542,"Ġswipes":12543,"Ġswarmed":12544,"Ġboring":12545,"Ġbored":12546,"Ġmagento":12547,"Ġequally":12548,"Ġequator":12549,"Ġequival":12550,"Ġlegacy":12551,"Ġacceptance":12552,"Ġclassified":12553,"Ġclassifies":12554,"Ġclassrooms":12555,"Ġcurrents":12556,"Ġeconomist":12557,"Ġeconomists":12558,"Ġpuerto":12559,"Ġpillows":12560,"Ġexcuse":12561,"Ġexcuses":12562,"Ġadvise":12563,"Ġcalculator":12564,"Ġcalculators":12565,"ivering":12566,"Ġbasin":12567,"Ġbasing":12568,"Ġbasements":12569,"Ġfacility":12570,"Ġyorker":12571,"Ġshippers":12572,"Ġexchanging":12573,"Ġcoffin":12574,"Ġcoffees":12575,"Ġeducate":12576,"Ġeducations":12577,"Ġeducates":12578,"Ġsummon":12579,"Ġsleeve":12580,"ercomputer":12581,"Ġpleases":12582,"Ġpetmed":12583,"Ġpetroch":12584,"Ġdiversification":12585,"ropa":12586,"Ġoneself":12587,"Ġpresenting":12588,"Ġpresented":12589,"doing":12590,"Ġauthors":12591,"Ġmounting":12592,"Ġlifeline":12593,"Ġlifeless":12594,"Ġlifetime":12595,"Ġlibrarians":12596,"Ġlibrarian":12597,"Ġmedicinal":12598,"Ġinfluential":12599,"Ġinfluences":12600,"Ġmomentary":12601,"Ġsleeps":12602,"Ġsleepy":12603,"beat":12604,"bean":12605,"beast":12606,"Ġdiyer":12607,"Ġdiameter":12608,"Ġnavy":12609,"Ġpeervest":12610,"Ġtroublemaker":12611,"Ġhabitat":12612,"Ġhabitable":12613,"Ġheaded":12614,"Ġheadhun":12615,"Ġheadshots":12616,"Ġbrighten":12617,"Ġbrightness":12618,"Ġuncle":12619,"Ġuncondit":12620,"Ġuncomfort":12621,"Ġuploaded":12622,"Ġmaintained":12623,"Ġingestible":12624,"Ġtablet":12625,"Ġpainting":12626,"Ġsteve":12627,"Ġdoorposts":12628,"Ġrounds":12629,"Ġlogarith":12630,"Ġboardroom":12631,"Ġventurebeat":12632,"Ġnavigators":12633,"romanaging":12634,"Ġzuji":12635,"Ġzagbank":12636,"Ġzillow":12637,"Ġzuddl":12638,"Ġsentences":12639,"Ġslower":12640,"Ġslowing":12641,"Ġrouting":12642,"Ġroutinely":12643,"Ġsucceeds":12644,"Ġsucceeded":12645,"Ġtalented":12646,"Ġtransparently":12647,"Ġingredient":12648,"Ġsugar":12649,"Ġwaive":12650,"Ġwisest":12651,"Ġbrowse":12652,"Ġbrowsing":12653,"Ġgardens":12654,"Ġplanted":12655,"Ġinterviewing":12656,"Ġpreference":12657,"Ġvisionary":12658,"ographics":12659,"Ġreported":12660,"Ġinfluenced":12661,"comb":12662,"managing":12663,"managed":12664,"perfect":12665,"scout":12666,"sciences":12667,"scaling":12668,"scalable":12669,"viral":12670,"Ġoutsmart":12671,"Ġoutsiders":12672,"Ġcouches":12673,"Ġbreadth":12674,"Ġbreadcrumb":12675,"Ġpeaceable":12676,"Ġpeacemakers":12677,"Ġhandsome":12678,"Ġhandsets":12679,"kayak":12680,"Ġurls":12681,"Ġurgent":12682,"Ġuruguay":12683,"Ġtvs":12684,"Ġskype":12685,"Ġephrath":12686,"Ġephemeral":12687,"Ġprospects":12688,"Ġprosupply":12689,"Ġprosecution":12690,"Ġvacations":12691,"Ġphilips":12692,"Ġphilanthrop":12693,"Ġupsetting":12694,"Ġinvoice":12695,"Ġinstruction":12696,"Ġpoorest":12697,"Ġmotivating":12698,"Ġmotivator":12699,"Ġ83":12700,"Ġ84":12701,"Ġ87":12702,"Ġera":12703,"Ġeraser":12704,"Ġpiling":12705,"Ġpilgrimage":12706,"Ġstaples":12707,"Ġcomputes":12708,"Ġcomputational":12709,"Ġannotate":12710,"Ġrecognizable":12711,"Ġpreventing":12712,"Ġprevented":12713,"Ġdetected":12714,"Ġdetective":12715,"Ġdetectors":12716,"Ġdependable":12717,"Ġvending":12718,"Ġessentials":12719,"Ġpunishing":12720,"Ġfootprints":12721,"Ġgaining":12722,"Ġrulebook":12723,"Ġtruths":12724,"Ġspoon":12725,"Ġspoiled":12726,"Ġindependently":12727,"Ġsuggested":12728,"Ġadvantageous":12729,"Ġballpoint":12730,"Ġdomains":12731,"Ġdominating":12732,"Ġdominated":12733,"istering":12734,"Ġonboarded":12735,"Ġvenison":12736,"Ġvenez":12737,"Ġspirals":12738,"Ġspirits":12739,"Ġexecution":12740,"Ġtailor":12741,"Ġsuperior":12742,"Ġsupercharge":12743,"Ġtransferred":12744,"Ġtransferring":12745,"Ġcrowdsources":12746,"Ġrequested":12747,"Ġmiddlemen":12748,"Ġfashioned":12749,"Ġetfs":12750,"Ġcapto":12751,"Ġcaptor":12752,"Ġbiased":12753,"Ġbiker":12754,"Ġbiotech":12755,"Ġbiological":12756,"Ġbiosens":12757,"Ġharry":12758,"remember":12759,"Ġgreet":12760,"Ġgreylock":12761,"Ġgreycroft":12762,"Ġmajesty":12763,"Ġmeaningful":12764,"Ġmonetized":12765,"Ġmonetization":12766,"Ġanalysts":12767,"Ġconfidential":12768,"Ġcheaply":12769,"Ġtypescript":12770,"50000":12771,"franken":12772,"Ġsuitors":12773,"Ġbabel":12774,"Ġflyers":12775,"Ġflyte":12776,"Ġlasted":12777,"Ġcompromises":12778,"Ġredis":12779,"Ġvetting":12780,"Ġvetted":12781,"Ġupdating":12782,"Ġcontinually":12783,"printed":12784,"Ġcelebrates":12785,"Ġborrower":12786,"Ġequips":12787,"Ġreasoning":12788,"monkey":12789,"spam":12790,"Ġsoup":12791,"Ġsouthern":12792,"Ġsustains":12793,"Ġsustenance":12794,"Ġsadistic":12795,"Ġcultural":12796,"Ġcultivating":12797,"Ġlying":12798,"Ġlyrics":12799,"Ġlynda":12800,"Ġgigantic":12801,"Ġcomplexity":12802,"Ġprintable":12803,"Ġprintables":12804,"Ġmarkdown":12805,"Ġweeknight":12806,"Ġweeklong":12807,"Ġclipi":12808,"Ġwashes":12809,"Ġencrypts":12810,"Ġencounter":12811,"Ġsolidarity":12812,"Ġsurvives":12813,"Ġsurvivor":12814,"employers":12815,"liked":12816,"office":12817,"Ġ93":12818,"Ġ99":12819,"interactive":12820,"Ġsilly":12821,"Ġsoundcloud":12822,"Ġsoundmine":12823,"Ġwinding":12824,"Ġwindow":12825,"Ġblogs":12826,"Ġblogging":12827,"Ġfleets":12828,"Ġmastercard":12829,"record":12830,"Ġdryer":12831,"Ġwhiteboards":12832,"Ġgamer":12833,"Ġgamble":12834,"Ġgamification":12835,"Ġgamifies":12836,"Ġeuropa":12837,"Ġdock":12838,"Ġdocket":12839,"Ġdocdoc":12840,"Ġbeginnings":12841,"Ġcherished":12842,"Ġconsultations":12843,"Ġpremise":12844,"Ġprevail":12845,"Ġprevention":12846,"Ġhighlighters":12847,"Ġsecondhand":12848,"Ġphotography":12849,"Ġphotographer":12850,"Ġaddressing":12851,"Ġsanctions":12852,"Ġalgorithmic":12853,"current":12854,"focuses":12855,"lsen":12856,"Ġagendas":12857,"Ġnecessarily":12858,"Ġconvertible":12859,"Ġshelters":12860,"Ġclientele":12861,"actionable":12862,"Ġemerged":12863,"Ġdistracted":12864,"Ġextremes":12865,"Ġfilesharing":12866,"Ġfunctional":12867,"Ġcorrection":12868,"Ġcorrections":12869,"move":12870,"mother":12871,"prepared":12872,"Ġutxo":12873,"Ġtenpay":12874,"Ġterminal":12875,"Ġterminology":12876,"Ġcaesar":12877,"Ġmixes":12878,"Ġsticker":12879,"Ġlattice":12880,"Ġlabored":12881,"Ġreduced":12882,"Ġunexplainable":12883,"Ġarrived":12884,"Ġarranged":12885,"Ġarrangements":12886,"Ġpromoted":12887,"Ġgrades":12888,"Ġgrading":12889,"Ġproposed":12890,"Ġproposals":12891,"Ġinfrared":12892,"Ġmagnets":12893,"Ġmagnitude":12894,"Ġmagnifies":12895,"uela":12896,"Ġwarp":12897,"Ġdrawbacks":12898,"Ġinnovators":12899,"Ġtruckers":12900,"Ġships":12901,"Ġappeared":12902,"Ġdeeply":12903,"Ġdeepest":12904,"Ġseventy":12905,"Ġseventeen":12906,"Ġexpressing":12907,"Ġfearless":12908,"Ġqualified":12909,"Ġassessment":12910,"Ġsecretly":12911,"Ġconstructive":12912,"Ġimagines":12913,"Ġimaginary":12914,"Ġquestionna":12915,"Ġauthorities":12916,"Ġunexpectedly":12917,"payroll":12918,"research":12919,"resources":12920,"Ġturk":12921,"Ġturban":12922,"Ġsquarespace":12923,"Ġsqueezed":12924,"Ġcouncil":12925,"Ġwoodworking":12926,"Ġhorite":12927,"Ġhorrors":12928,"Ġhorizon":12929,"Ġinboxes":12930,"Ġnursery":12931,"Ġbulb":12932,"Ġlevitt":12933,"Ġlevchin":12934,"Ġhairy":12935,"Ġhaircuts":12936,"Ġworshiping":12937,"Ġworshiped":12938,"Ġpressed":12939,"Ġpressures":12940,"Ġpressuring":12941,"Ġhealer":12942,"Ġheavens":12943,"Ġtelecare":12944,"Ġtelemet":12945,"Ġtelecomm":12946,"Ġtelematic":12947,"Ġpharmacists":12948,"Ġrobin":12949,"Ġrotten":12950,"Ġinspires":12951,"Ġparenting":12952,"Ġparental":12953,"Ġreflection":12954,"Ġstandardized":12955,"Ġwaitlist":12956,"Ġsustaining":12957,"Ġcategorize":12958,"concept":12959,"condem":12960,"connects":12961,"conditioners":12962,"knowledge":12963,"umented":12964,"Ġethic":12965,"Ġetham":12966,"Ġalexis":12967,"Ġsniff":12968,"Ġsnapped":12969,"Ġsectors":12970,"Ġfourth":12971,"Ġmiso":12972,"Ġmisbeh":12973,"Ġmisaligned":12974,"Ġmislead":12975,"Ġmortar":12976,"Ġiota":12977,"Ġhittite":12978,"Ġdivine":12979,"Ġdivision":12980,"Ġstarbucks":12981,"Ġlayout":12982,"Ġlayouts":12983,"Ġlayered":12984,"Ġcomfortably":12985,"Ġcompliant":12986,"Ġcomprehend":12987,"Ġranchers":12988,"Ġjoe":12989,"Ġjoys":12990,"Ġworrying":12991,"Ġspinning":12992,"Ġweighs":12993,"Ġweighed":12994,"Ġclickstream":12995,"Ġnotebooks":12996,"Ġshowcased":12997,"Ġshowcases":12998,"Ġshowcasing":12999,"Ġacceleration":13000,"Ġaccelerated":13001,"Ġacceleromet":13002,"Ġstressed":13003,"Ġstressful":13004,"Ġrighteously":13005,"Ġ127":13006,"Ġvalidate":13007,"Ġvalidated":13008,"Ġvalidating":13009,"Ġcentralizes":13010,"Ġfacilitated":13011,"Ġexecuting":13012,"clew":13013,"clean":13014,"clever":13015,"fiat":13016,"heet":13017,"health":13018,"heuristic":13019,"Ġ700":13020,"Ġsongwrit":13021,"Ġpushy":13022,"Ġbowl":13023,"Ġbidders":13024,"Ġbidding":13025,"Ġharmony":13026,"Ġgarry":13027,"Ġalmodad":13028,"Ġverge":13029,"Ġverifi":13030,"Ġexams":13031,"Ġunsaid":13032,"Ġunsolicited":13033,"Ġinstitute":13034,"Ġperiodically":13035,"Ġmessengers":13036,"Ġdragons":13037,"Ġeditions":13038,"Ġbreathed":13039,"Ġgrownups":13040,"Ġbelonging":13041,"Ġerrands":13042,"Ġcannabook":13043,"Ġfleeting":13044,".).":13045,"iantart":13046,"listening":13047,"talk":13048,"Ġtimeless":13049,"invested":13050,"Ġfingers":13051,"Ġfederated":13052,"Ġillusions":13053,"Ġillustrations":13054,"Ġignition":13055,"Ġignorance":13056,"Ġhydra":13057,"Ġhateful":13058,"ennial":13059,"Ġlosers":13060,"Ġgeico":13061,"Ġgeospatial":13062,"Ġconvincing":13063,"Ġdemos":13064,"Ġdemographics":13065,"Ġselected":13066,"Ġselection":13067,"Ġweighty":13068,"Ġweightlessness":13069,"Ġlovingkindness":13070,"Ġadopters":13071,"Ġadopted":13072,"Ġcontacted":13073,"Ġmoods":13074,"Ġdescending":13075,"Ġrolling":13076,"Ġrollable":13077,"Ġinstalling":13078,"Ġ180":13079,"Ġ187":13080,"Ġbrokering":13081,"Ġbrokerages":13082,"Ġhumbled":13083,"Ġdeployed":13084,"Ġbrainstor":13085,"Ġbrainstorm":13086,"Ġbrainwaves":13087,"Ġbrazilian":13088,"Ġstealthy":13089,"Ġharvesting":13090,"content":13091,"control":13092,"contractor":13093,"desk":13094,"solar":13095,"solve":13096,"solutions":13097,"Ġaustin":13098,"Ġsickness":13099,"Ġsicknesses":13100,"Ġtherapies":13101,"Ġcooked":13102,"Ġcrosses":13103,"Ġcrossed":13104,"Ġwikip":13105,"Ġwelcomes":13106,"Ġbaggage":13107,"Ġbounds":13108,"Ġipo":13109,"Ġgaps":13110,"Ġreacted":13111,"Ġreactors":13112,"Ġricher":13113,"Ġsponsoring":13114,"Ġexceptional":13115,"Ġtexas":13116,"Ġimplementing":13117,"Ġimplemented":13118,"Ġimplementation":13119,"Ġuntapped":13120,"Ġbethuel":13121,"Ġempathetic":13122,"Ġarchive":13123,"Ġarchived":13124,"Ġdishan":13125,"Ġdispatch":13126,"Ġdispute":13127,"Ġdisposable":13128,"Ġdisruptions":13129,"Ġtransforms":13130,"Ġboiling":13131,"Ġpools":13132,"Ġdrinkers":13133,"Ġdrinkable":13134,"Ġdownloads":13135,"Ġgenuinely":13136,"Ġtestimonial":13137,"Ġobserving":13138,"Ġportioned":13139,"newsrooms":13140,"Ġfiltering":13141,"Ġswitching":13142,"Ġcoupled":13143,"Ġpodcasters":13144,"Ġmillennial":13145,"Ġbikesharing":13146,"Ġfingerprints":13147,"equity":13148,"holy":13149,"Ġfloat":13150,"Ġfloors":13151,"Ġmiracle":13152,"Ġhunger":13153,"Ġdwelt":13154,"Ġdwarf":13155,"Ġdeduct":13156,"ometric":13157,"Ġinitially":13158,"Ġstylish":13159,"Ġstyling":13160,"Ġnutty":13161,"Ġcomparable":13162,"Ġrevive":13163,"Ġrevile":13164,"Ġreviling":13165,"Ġvastness":13166,"Ġvictory":13167,"Ġvictims":13168,"Ġexceeding":13169,"Ġwealthy":13170,"democr":13171,"Ġintends":13172,"Ġreckoning":13173,"Ġofficial":13174,"Ġcooler":13175,"Ġexperimenting":13176,"Ġemerge":13177,"Ġestablishes":13178,"Ġestablished":13179,"Ġestablishment":13180,"Ġmultitudes":13181,"Ġlabeling":13182,"Ġglassdoor":13183,"Ġsheepfolds":13184,"predictive":13185,"predictions":13186,"Ġverticality":13187,"Ġsnapshot":13188,"Ġmethods":13189,"Ġmethodology":13190,"Ġwirelessly":13191,"Ġredeeming":13192,"Ġredeemable":13193,"afone":13194,"castle":13195,"extended":13196,"hubs":13197,"kinda":13198,"location":13199,"walk":13200,"walking":13201,"wallet":13202,"walked":13203,"Ġsloan":13204,"Ġsnowstorm":13205,"eshed":13206,"Ġcellular":13207,"Ġcellphones":13208,"Ġcrying":13209,"anything":13210,"Ġbinny":13211,"Ġbinaural":13212,"Ġbilled":13213,"Ġtourist":13214,"Ġtoleration":13215,"Ġtolerate":13216,"Ġtolerating":13217,"Ġfrozen":13218,"Ġhelm":13219,"Ġhelmed":13220,"Ġhelmet":13221,"Ġdyeed":13222,"Ġstrain":13223,"Ġstrains":13224,"Ġstrained":13225,"Ġstretching":13226,"Ġreveals":13227,"identifying":13228,"Ġramadan":13229,"Ġtricky":13230,"Ġconcessions":13231,"Ġspray":13232,"Ġsprint":13233,"Ġsprints":13234,"Ġprisoner":13235,"Ġprisoners":13236,"Ġacademia":13237,"Ġresolution":13238,"Ġresourceful":13239,"Ġpretend":13240,"Ġpretending":13241,"Ġpretentious":13242,"Ġblindfolded":13243,"Ġdelays":13244,"Ġ2007":13245,"Ġ2009":13246,"Ġcarpools":13247,"Ġassociate":13248,"Ġassociations":13249,"Ġassociates":13250,"Ġattacker":13251,"Ġattaching":13252,"Ġecosystems":13253,"Ġrepeatable":13254,"Ġstormy":13255,"Ġgraphs":13256,"Ġgraphic":13257,"Ġobeying":13258,"Ġobeyed":13259,"Ġgratefulness":13260,"Ġregistering":13261,"Ġincreasingly":13262,"Ġcourtroom":13263,"Ġseasoning":13264,"Ġpolitics":13265,"Ġpoliticians":13266,"Ġpoliteness":13267,"expiring":13268,"expanding":13269,"Ġswearing":13270,"company":13271,"complete":13272,"Ġspirituality":13273,"Ġpharmaceuticals":13274,"Ġviolates":13275,"Ġsurveygiz":13276,"Ġsurveymonkey":13277,"Ġchristmas":13278,"Ġchristopher":13279,"Ġrecklessness":13280,"Ġmultitask":13281,"bucket":13282,"buckets":13283,"helps":13284,"helping":13285,"microlibraries":13286,"writing":13287,"wresting":13288,"Ġqwant":13289,"Ġxr":13290,"Ġxively":13291,"Ġxmpp":13292,"Ġtagr":13293,"Ġauctions":13294,"Ġthrows":13295,"Ġthrowing":13296,"Ġcopays":13297,"Ġcopycats":13298,"Ġcosmos":13299,"Ġwedlock":13300,"Ġweddings":13301,"Ġwidow":13302,"Ġwidows":13303,"Ġwidgets":13304,"Ġwildfire":13305,"Ġpulse":13306,"Ġirreg":13307,"Ġiradio":13308,"Ġhusks":13309,
[...]
