{"version":"1.0","truncation":null,"padding":null,"added_tokens":[{"id":0,"content":"<PAD>","single_word":false,"lstrip":false,"rstrip":false,"normalized":false,"special":true},{"id":1,"content":"<BOS>","single_word":false,"lstrip":false,"rstrip":false,"normalized":false,"special":true},{"id":2,"content":"<EOS>","single_word":false,"lstrip":false,"rstrip":false,"normalized":false,"special":true},{"id":3,"content":"<UNK>","single_word":false,"lstrip":false,"rstrip":false,"normalized":false,"special":true},{"id":4,"content":"{","single_word":false,"lstrip":false,"rstrip":false,"normalized":false,"special":true},{"id":5,"content":"}","single_word":false,"lstrip":false,"rstrip":false,"normalized":false,"special":true},{"id":6,"content":"[","single_word":false,"lstrip":false,"rstrip":false,"normalized":false,"special":true},{"id":7,"content":"]","single_word":false,"lstrip":false,"rstrip":false,"normalized":false,"special":true},{"id":8,"content":":","single_word":false,"lstrip":false,"rstrip":false,"normalized":false,"special":true},{"id":9,"content":",","single_word":false,"lstrip":false,"rstrip":false,"normalized":false,"special":true},{"id":10,"content":"\"","single_word":false,"lstrip":false,"rstrip":false,"normalized":false,"special":true},{"id":11,"content":"\n","single_word":false,"lstrip":false,"rstrip":false,"normalized":false,"special":true}],"normalizer":{"type":"Sequence","normalizers":[{"type":"NFC"},{"type":"Lowercase"}]},"pre_tokenizer":{"type":"ByteLevel","add_prefix_space":true,"trim_offsets":true,"use_regex":true},"post_processor":{"type":"TemplateProcessing","single":[{"SpecialToken":{"id":"<BOS>","type_id":0}},{"Sequence":{"id":"A","type_id":0}},{"SpecialToken":{"id":"<EOS>","type_id":0}}],"pair":[{"SpecialToken":{"id":"<BOS>","type_id":0}},{"Sequence":{"id":"A","type_id":0}},{"SpecialToken":{"id":"<EOS>","type_id":0}},{"Sequence":{"id":"B","type_id":1}},{"SpecialToken":{"id":"<EOS>","type_id":1}}],"special_tokens":{"<BOS>":{"id":"<BOS>","ids":[1],"tokens":["<BOS>"]},"<EOS>":{"id":"<EOS>","ids":[2],"tokens":["<EOS>"]}}},"decoder":{"type":"ByteLevel","add_prefix_space":true,"trim_offsets":true,"use_regex":true},"model":{"type":"BPE","dropout":null,"unk_token":null,"continuing_subword_prefix":null,"end_of_word_suffix":null,"fuse_unk":false,"byte_fallback":false,"ignore_merges":false,"vocab":{"<PAD>":0,"<BOS>":1,"<EOS>":2,"<UNK>":3,"{":4,"}":5,"[":6,"]":7,":":8,",":9,"\"":10,"\n":11,"!":12,"$":13,"%":14,"&":15,"'":16,"(":17,")":18,"+":19,"-":20,".":21,"/":22,"0":23,"1":24,"2":25,"3":26,"4":27,"5":28,"6":29,"7":30,"8":31,"9":32,";":33,"?":34,"a":35,"b":36,"c":37,"d":38,"e":39,"f":40,"g":41,"h":42,"i":43,"j":44,"k":45,"l":46,"m":47,"n":48,"o":49,"p":50,"q":51,"r":52,"s":53,"t":54,"u":55,"v":56,"w":57,"x":58,"y":59,"z":60,"©":61,"°":62,"Â":63,"Ã":64,"â":65,"Ċ":66,"Ġ":67,"Ģ":68,"ĵ":69,"Ķ":70,"ĺ":71,"Ļ":72,"ľ":73,"Ŀ":74,"ł":75,"Ġt":76,"Ġa":77,"in":78,"he":79,"Ġs":80,"Ġw":81,"Ġthe":82,"es":83,"at":84,"Ġc":85,"an":86,"Ġi":87,"Ġp":88,"re":89,"Ġb":90,"ing":91,"Ġm":92,"er":93,"on":94,"or":95,"Ġf":96,"Ġto":97,"nd":98,"Ġd":99,"ar":100,"Ġand":101,"ou":102,"hat":103,"om":104,"Ġh":105,"Ġl":106,"en":107,"us":108,"al":109,"Ġis":110,"it":111,"Ġo":112,"Ġg":113,"Ġin":114,"et":115,"le":116,"is":117,"Ġst":118,"ow":119,"ed":120,"Ġwhat":121,"as":122,"Ġy":123,"Ġof":124,"Ġe":125,"il":126,"ac":127,"ke":128,"Ġdo":129,"Ġfor":130,"ers":131,"art":132,"Ġyou":133,"Ġn":134,"ic":135,"Ġthat":136,"od":137,"ve":138,"ess":139,"ent":140,"Ġpr":141,"ion":142,"Ġhe":143,"ec":144,"ir":145,"ay":146,"Ġit":147,"Ġcom":148,"Ġli":149,"'s":150,"el":151,"Ġth":152,"up":153,"Ġre":154,"ith":155,"Ġwith":156,"op":157,"id":158,"Ġon":159,"ig":160,"os":161,"Ġbu":162,"Ġpl":163,"Ġr":164,"am":165,"Ġcan":166,"Ġwh":167,"Ġstart":168,"Ġma":169,"lp":170,"Ġhelp":171,"ot":172,"ge":173,"Ġcomp":174,"ts":175,"Ġtheir":176,"ol":177,"Ġlike":178,"âĢ":179,"Ġbe":180,"ly":181,"ust":182,"im":183,"Ġpe":184,"Ġhow":185,"Ġbus":186,"ople":187,"Ġj":188,"Ġpeople":189,"iness":190,"Ġstartup":191,"Ġbusiness":192,"ur":193,"Ġme":194,"Ġus":195,"Ġtr":196,"Ġha":197,"out":198,"Ġgo":199,"un":200,"age":201,"ce":202,"Ġne":203,"est":204,"Ġcompan":205,"Ġan":206,"Ġab":207,"Ġare":208,"ant":209,"Ġsh":210,"Ġsp":211,"Ġfr":212,"Ġdoes":213,"Ġal":214,"her":215,"Ġyour":216,"uc":217,"king":218,"Ġcon":219,"and":220,"ation":221,"Ġwhy":222,"pp":223,"ter":224,"oc":225,"Ġgod":226,"ies":227,"Ġor":228,"Ġthey":229,"ild":230,"ver":231,"for":232,"if":233,"Ġwor":234,"are":235,"ate":236,"mp":237,"ob":238,"ad":239,"st":240,"Ġcust":241,"Ġcustom":242,"Ġsom":243,"Ġle":244,"âĢĻ":245,"Ġwhe":246,"form":247,"ul":248,"Ġfrom":249,"Ġman":250,"Ġthis":251,"Ġv":252,"Ġmean":253,"Ġde":254,"Ġmake":255,"Ġbuild":256,"ht":257,"one":258,"Ġby":259,"ial":260,"ren":261,"ra":262,"ace":263,"Ġse":264,"Ġwe":265,"ment":266,"Ġplan":267,"Ġhelps":268,"Ġmo":269,"Ġch":270,"Ġex":271,"Ġabout":272,"iv":273,"ill":274,"ass":275,"Ġcompany":276,"Ġpro":277,"Ġsm":278,"ind":279,"ell":280,"ab":281,"ist":282,"atform":283,"Ġplatform":284,"ut":285,"ort":286,"all":287,"ep":288,"ice":289,"Ġcre":290,"fe":291,"ch":292,"Ġser":293,"Ġas":294,"ks":295,"low":296,"Ġthem":297,"Ġwhen":298,"ure":299,"ect":300,"Ġmy":301,"ive":302,"ack":303,"ard":304,"Ġserv":305,"Ġpass":306,"ld":307,"Ġbr":308,"Ġhave":309,"Ġlo":310,"Ġimp":311,"Ġget":312,"ip":313,"Ġta":314,"Ġsa":315,"Ġbec":316,"ings":317,"aus":318,"de":319,"th":320,"Ġapp":321,"oduc":322,"ight":323,"Ġpassage":324,"Ġad":325,"Ġmar":326,"Ġproduc":327,"ity":328,"ther":329,"Ġso":330,"Ġun":331,"als":332,"ause":333,"ie":334,"Ġnot":335,"Ġother":336,"iz":337,"Ġsome":338,"Ġhis":339,"Ġgood":340,"ions":341,"ine":342,"Ġbecause":343,"Ġac":344,"Ġbuilding":345,"ide":346,"ket":347,"Ġat":348,"ime":349,"Ġdid":350,"arn":351,"ain":352,"ving":353,"Ġk":354,"Ġcustomers":355,"um":356,"Ġmos":357,"Ġwas":358,"Ġte":359,"ants":360,"ance":361,"Ġway":362,"Ġbut":363,"Ġexp":364,"Ġcompanies":365,"qu":366,"ail":367,"ah":368,"Ġnew":369,"Ġmarket":370,"our":371,"ory":372,"Ġneed":373,"Ġshow":374,"Ġmanage":375,"Ġimport":376,"ets":377,"Ġfe":378,"Ġwork":379,"hing":380,"Ġwho":381,"Ġsmall":382,"Ġsay":383,"kes":384,"Ġfind":385,"Ġbet":386,"se":387,"Ġpay":388,"ould":389,"Ġwant":390,"Ġtime":391,"ib":392,"pt":393,"Ġgr":394,"Ġmore":395,"Ġlearn":396,"ars":397,"Ġimportant":398,"ting":399,"Ġspec":400,"lo":401,"und":402,"Ġservice":403,"Ġbig":404,"ong":405,"Ġph":406,"ign":407,"Ġsomet":408,"Ġcl":409,"Ġoff":410,"ations":411,"rent":412,"ach":413,"able":414,"Ġhapp":415,"Ġbusinesses":416,"Ġproduct":417,"em":418,"Ġbeing":419,"very":420,"Ġpart":421,"ound":422,"Ġmeans":423,"ag":424,"Ġwants":425,"acob":426,"Ġjacob":427,"Ġdif":428,"Ġtool":429,"Ġwill":430,"ame":431,"Ġcustomer":432,"Ġhas":433,"Ġstory":434,"Ġout":435,"oney":436,"Ġmoney":437,"nt":438,"Ġif":439,"Ġcomm":440,"Ġthings":441,"Ġspace":442,"Ġup":443,"Ġallow":444,"ĠâĢ":445,"Ġinv":446,"Ġsomething":447,"ices":448,"'t":449,"Ġsee":450,"now":451,"Ġdiffe":452,"ans":453,"Ġcons":454,"ful":455,"ens":456,"Ġke":457,"ose":458,"Ġres":459,"wn":460,"Ġgoals":461,"ire":462,"Ġide":463,"ud":464,"Ġone":465,"Ġspecial":466,"Ġusers":467,"00":468,"Ġeart":469,"ocus":470,"Ġearth":471,"oug":472,"Ġjos":473,"ally":474,"eph":475,"Ġjoseph":476,"Ġown":477,"Ġint":478,"act":479,"gy":480,"get":481,"Ġsc":482,"vel":483,"Ġall":484,"Ġprov":485,"Ġris":486,"Ġuse":487,"Ġcreate":488,"Ġknow":489,"ient":490,"ro":491,"ven":492,"ivers":493,"ile":494,"ft":495,"Ġset":496,"ors":497,"Ġfocus":498,"âĢĿ":499,"ĠâĢľ":500,"ue":501,"Ġpers":502,"ize":503,"Ġsell":504,"anc":505,"Ġdes":506,"Ġinc":507,"Ġaf":508,"Ġacc":509,"Ġsup":510,"Ġfam":511,"Ġdec":512,"ok":513,"Ġmoses":514,"ore":515,"Ġfir":516,"Ġstr":517,"Ġeas":518,"Ġsmart":519,"ome":520,"Ġtake":521,"Ġbl":522,"Ġmaking":523,"Ġar":524,"ites":525,"Ġinter":526,"way":527,"Ġen":528,"Ġcur":529,"Ġperson":530,"Ġfamil":531,"Ġbrand":532,"Ġidea":533,"ased":534,"rael":535,"Ġsupp":536,"ence":537,"Ġisrael":538,"Ġinvest":539,"ct":540,"ram":541,"ang":542,"ons":543,"Ġcont":544,"Ġkeep":545,"ough":546,"line":547,"Ġmakes":548,"ific":549,"Ġfirst":550,"Ġsuc":551,"Ġyes":552,"ments":553,"ry":554,"Ġsy":555,"Ġsol":556,"Ġco":557,"ise":558,"Ġdat":559,"Ġemp":560,"Ġpre":561,"Ġhim":562,"igh":563,"ware":564,"Ġrec":565,"au":566,"fit":567,"Ġunivers":568,"Ġover":569,"Ġday":570,"ning":571,"Ġtrack":572,"Ġteam":573,"Ġallows":574,"Ġhard":575,"Ġlist":576,"ast":577,"ree":578,"Ġfail":579,"loy":580,"Ġwhere":581,"Ġgrow":582,"ear":583,"Ġstay":584,"Ġdata":585,"Ġstars":586,"Ġund":587,"ount":588,"Ġfamily":589,"Ġqu":590,"ara":591,"Ġno":592,"Ġlead":593,"ia":594,"ying":595,"Ġconn":596,"Ġuniverse":597,"Ġshould":598,"ftware":599,"hip":600,"Ġtoo":601,"ital":602,"Ġcreat":603,"Ġsoftware":604,"ap":605,"Ġfin":606,"Ġhappen":607,"Ġour":608,"Ġcare":609,"Ġonline":610,"Ġtrust":611,"Ġmost":612,"Ġdifferent":613,"ood":614,"Ġsun":615,"orit":616,"Ġlife":617,"Ġsomeone":618,"dit":619,"end":620,"Ġheal":621,"Ġmany":622,"Ġemploy":623,"ght":624,"Ġag":625,"Ġmed":626,"oh":627,"ub":628,"ink":629,"Ġits":630,"Ġjob":631,"Ġval":632,"ves":633,"we":634,"Ġright":635,"Ġbetter":636,"Ġphara":637,"Ġpharaoh":638,"Ġ'":639,"stem":640,"rah":641,"iend":642,"ash":643,"Ġthr":644,"Ġdeb":645,"Ġinto":646,"ich":647,"Ġrel":648,"other":649,"xt":650,"Ġthere":651,"Ġcle":652,"Ġfa":653,"Ġrep":654,"Ġabrah":655,"Ġproducts":656,"Ġprovid":657,"Ġsystem":658,"Ġabraham":659,"Ġhaving":660,"Ġtell":661,"ather":662,"Ġpartn":663,"Ġcol":664,"Ġfriend":665,"Ġ$":666,"int":667,"Ġsign":668,"reat":669,"Ġbest":670,"Ġthan":671,"ff":672,"Ġam":673,"Ġfeel":674,"Ġbetwe":675,"Ġhealth":676,"Ġbetween":677,"Ġless":678,"ower":679,"Ġisraelites":680,"mand":681,"Ġpri":682,"Ġwhich":683,"Ġtaking":684,"ov":685,"Ġevery":686,"Ġworking":687,"ible":688,"Ġthrough":689,"Ġbo":690,"Ġback":691,"erst":692,"Ġplanets":693,"Ġlight":694,"erstand":695,"cess":696,"Ġent":697,"Ġusing":698,"uch":699,"ents":700,"Ġplace":701,"cr":702,"ase":703,"Ġcredit":704,"Ġunderstand":705,"red":706,"Ġfood":707,"Ġinst":708,"Ġreal":709,"Ġothers":710,"Ġev":711,"Ġbuy":712,"Ġresp":713,"Ġaut":714,"Ġcurrent":715,"Ġemploye":716,"eh":717,"ier":718,"Ġlong":719,"ick":720,"igital":721,"pl":722,"Ġsoc":723,"Ġcompet":724,"Ġshare":725,"Ġany":726,"Ġdecis":727,"Ġfinanc":728,"Ġsave":729,"Ġwr":730,"Ġcal":731,"Ġegy":732,"Ġegypt":733,"'re":734,"ds":735,"Ġdemand":736,"Ġsuccess":737,"Ġdebt":738,"Ġpriorit":739,"Ġcash":740,"lem":741,"Ġconnect":742,"Ġpo":743,"Ġhigh":744,"Ġsays":745,"Ġrisk":746,"ous":747,"oss":748,"ult":749,"Ġsupply":750,"ovah":751,"ehovah":752,"Ġwould":753,"Ġdigital":754,"Ġla":755,"Ġgiv":756,"ax":757,"ward":758,"hed":759,"read":760,"ition":761,"Ġprob":762,"ects":763,"oking":764,"Ġprom":765,"Ġtra":766,"Ġcommun":767,"Ġsocial":768,"Ġ1":769,"Ġoffer":770,"Ġclear":771,"ience":772,"ty":773,"wor":774,"Ġpat":775,"Ġmuch":776,"Ġind":777,"led":778,"Ġwithout":779,"Ġjust":780,"Ġthen":781,"Ġeach":782,"Ġthink":783,"Ġfailure":784,"Ġproblem":785,"aac":786,"ated":787,"ange":788,"Ġisaac":789,"ite":790,"Ġret":791,"Ġcurrently":792,"Ġsame":793,"Ġfound":794,"Ġdon":795,"Ġdis":796,"Ġvide":797,"Ġav":798,"Ġdevel":799,"Ġkind":800,"Ġincl":801,"Ġafter":802,"Ġdevelop":803,"ak":804,"ating":805,"Ġflow":806,"Ġproc":807,"Ġrem":808,"Ġweb":809,"Ġlesson":810,"ber":811,"Ġgive":812,"ech":813,"Ġjehovah":814,"Ġgra":815,"Ġnext":816,"Ġservices":817,"aging":818,"enc":819,"Ġeasier":820,"ness":821,"Ġaway":822,"Ġsim":823,"ates":824,"Ġpur":825,"Ġmon":826,"Ġfol":827,"Ġhum":828,"Ġop":829,"Ġgal":830,"oid":831,"yal":832,"Ġes":833,"Ġhome":834,"own":835,"Ġvis":836,"Ġrisks":837,"bo":838,"ron":839,"Ġpower":840,"Ġfather":841,"Ġmoon":842,"Ġprioritize":843,"Ġprocess":844,"Ġper":845,"Ġro":846,"Ġloyal":847,"Ġact":848,"Ġtas":849,"Ġabram":850,"Ġcho":851,"Ġprog":852,"Ġbrother":853,"Ġfollow":854,"so":855,"Ġtrying":856,"ock":857,"Ġemployees":858,"Ġgalax":859,"based":860,"Ġ2":861,"Ġaim":862,"Ġmob":863,"Ġmist":864,"Ġlets":865,"ities":866,"ost":867,"Ġdecisions":868,"rence":869,"Ġpersonal":870,"Ġalso":871,"Ġlearning":872,"Ġinform":873,"Ġeven":874,"Ġmain":875,"ify":876,"Ġfriends":877,"Ġfinancial":878,"ied":879,"Ġsal":880,"Ġwat":881,"Ġmat":882,"Ġfund":883,"Ġtoget":884,"arge":885,"Ġlove":886,"Ġatt":887,"Ġmobile":888,"Ġtogether":889,"ual":890,"hes":891,"Ġmess":892,"Ġprice":893,"elf":894,"Ġmade":895,"imes":896,"ures":897,"Ġplanning":898,"Ġchild":899,"illion":900,"Ġexper":901,"Ġshows":902,"Ġpartners":903,"Ġmista":904,"Ġcr":905,"Ġhol":906,"ilt":907,"Ġgoal":908,"Ġimpro":909,"Ġsaving":910,"Ġdesign":911,"ug":912,"Ġhand":913,"Ġgu":914,"ical":915,"Ġhelping":916,"Ġsignific":917,"Ġautom":918,"Ġtravel":919,"les":920,"Ġdel":921,"Ġprofit":922,"ieve":923,"Ġmarketing":924,"Ġvery":925,"Ġban":926,"ility":927,"Ġonly":928,"Ġrest":929,"Ġwere":930,"ized":931,"Ġdescr":932,"Ġshe":933,"Ġwell":934,"oun":935,"Ġnet":936,"Ġneg":937,"Ġspe":938,"Ġlooking":939,"Ġsetting":940,"Ġvideo":941,"Ġdown":942,"Ġloc":943,"ists":944,"Ġlisten":945,"og":946,"Ġai":947,"ary":948,"Ġstrong":949,"pare":950,"Ġsec":951,"Ġcard":952,"Ġcommon":953,"ients":954,"Ġtasks":955,"mer":956,"Ġtal":957,"Ġmet":958,"aring":959,"ict":960,"Ġtrans":961,"Ġalway":962,"Ġdifference":963,"000":964,"Ġprovides":965,"Ġsignificance":966,"Ġalways":967,"cop":968,"gan":969,"urn":970,"Ġchang":971,"Ġchange":972,"Ġask":973,"eur":974,"Ġach":975,"rep":976,"Ġgreat":977,"Ġeff":978,"eles":979,"Ġthose":980,"thing":981,"Ġneeds":982,"ave":983,"Ġteles":984,"Ġbased":985,"Ġmight":986,"Ġfar":987,"reneur":988,"Ġproj":989,"enses":990,"Ġentrep":991,"Ġgrav":992,"Ġtelescop":993,"Ġentrepreneur":994,"Ġtech":995,"Ġfut":996,"Ġhot":997,"Ġlet":998,"Ġwhile":999,"vert":1000,"Ġcontent":1001,"iqu":1002,"ten":1003,"Ġtw":1004,"Ġast":1005,"Ġbigg":1006,"Ġprovide":1007,"work":1008,"Ġdescrib":1009,"Ġgravity":1010,"be":1011,"ky":1012,"ved":1013,"Ġcar":1014,"Ġyear":1015,"Ġec":1016,"Ġnight":1017,"Ġbef":1018,"Ġused":1019,"Ġanim":1020,"Ġaround":1021,"Ġpoint":1022,"Ġfuture":1023,"vie":1024,"Ġben":1025,"Ġmil":1026,"Ġland":1027,"Ġins":1028,"oti":1029,"Ġmanagement":1030,"Ġinformation":1031,"Ġnegoti":1032,"Ġbefore":1033,"Ġdoing":1034,"Ġuses":1035,"Ġhad":1036,"Ġmedia":1037,"Ġlaun":1038,"Ġastron":1039,"res":1040,"ress":1041,"ually":1042,"ream":1043,"Ġreally":1044,"Ġbud":1045,"Ġhappens":1046,"Ġconsid":1047,"Ġconsum":1048,"Ġvalue":1049,"Ġcommunic":1050,"Ġesau":1051,"Ġimprove":1052,"Ġdist":1053,"uring":1054,"Ġorgan":1055,"Ġface":1056,"Ġcod":1057,"Ġfree":1058,"oup":1059,"amp":1060,"Ġfocused":1061,"Ġentrepreneurs":1062,"ique":1063,"Ġbudget":1064,"Ġdr":1065,"Ġname":1066,"Ġthing":1067,"Ġrun":1068,"ular":1069,"Ġdeal":1070,"Ġmove":1071,"Ġloyalty":1072,"Ġdescribe":1073,"ph":1074,"ond":1075,"Ġstud":1076,"Ġearn":1077,"Ġnam":1078,"Ġadvert":1079,"irect":1080,"auts":1081,"Ġavoid":1082,"Ġaims":1083,"Ġastronauts":1084,"'?":1085,"fect":1086,"Ġid":1087,"Ġhon":1088,"Ġstill":1089,"Ġbuilt":1090,"Ġstarting":1091,"Ġgetting":1092,"Ġexpenses":1093,"Ġeasy":1094,"Ġcontr":1095,"Ġconsider":1096,"ears":1097,"Ġdirect":1098,"Ġlot":1099,"ising":1100,"ching":1101,"Ġvalu":1102,"ready":1103,"Ġinclud":1104,"Ġbrothers":1105,"Ġmistakes":1106,"Ġident":1107,"co":1108,"Ġap":1109,"Ġthese":1110,"Ġbot":1111,"Ġlab":1112,"Ġold":1113,"aster":1114,"Ġlive":1115,"ely":1116,"Ġcompare":1117,"Ġmeet":1118,"Ġang":1119,"Ġalready":1120,"Ġmonth":1121,"Ġanimals":1122,"uit":1123,"Ġche":1124,"ouse":1125,"aly":1126,"ential":1127,"els":1128,"Ġmeas":1129,"Ġexpl":1130,"Ġaccount":1131,"Ġrepres":1132,"Ġopen":1133,"bit":1134,"Ġmult":1135,"ord":1136,"Ġbur":1137,"Ġra":1138,"Ġmem":1139,"Ġord":1140,"Ġplanet":1141,"Ġunique":1142,"Ġblack":1143,"place":1144,"Ġ20":1145,"Ġsales":1146,"Ġdeli":1147,"Ġbene":1148,"Ġmillion":1149,"Ġstep":1150,"Ġem":1151,"ention":1152,"Ġpres":1153,"Ġanaly":1154,"Ġads":1155,"Ġinterest":1156,"Ġquick":1157,"Ġachieve":1158,"Ġsure":1159,"Ġob":1160,"Ġbrands":1161,"Ġrelations":1162,"to":1163,"Ġtar":1164,"Ġsur":1165,"Ġpa":1166,"Ġbre":1167,"ises":1168,"Ġspend":1169,"ull":1170,"Ġass":1171,"Ġspecific":1172,"lood":1173,"Ġbless":1174,"Ġeverything":1175,"Ġpurp":1176,"Ġrelationship":1177,"lip":1178,"tain":1179,"Ġbill":1180,"Ġhouse":1181,"Ġoften":1182,"Ġconst":1183,"Ġmanaging":1184,"Ġsafe":1185,"Ġapps":1186,"Ġpayments":1187,"ages":1188,"Ġcolle":1189,"Ġrespect":1190,"Ġprogram":1191,"ounts":1192,"av":1193,"aur":1194,"ix":1195,"Ġbal":1196,"Ġref":1197,"Ġsend":1198,"Ġmarketplace":1199,"Ġfinding":1200,"Ġoffers":1201,"Ġleaders":1202,"Ġhumans":1203,"Ġwater":1204,"Ġchildren":1205,"Ġrestaur":1206,"tle":1207,"here":1208,"ern":1209,"osts":1210,"Ġtry":1211,"Ġworks":1212,"Ġbring":1213,"Ġgroup":1214,"Ġnoah":1215,"Ġmete":1216,"Ġeclip":1217,"Ġincluding":1218,"Ġtarget":1219,"just":1220,"ses":1221,"Ġsons":1222,"Ġduring":1223,"ense":1224,"Ġgen":1225,"Ġstor":1226,"ics":1227,"osp":1228,"renc":1229,"fits":1230,"ugg":1231,"Ġtechn":1232,"apt":1233,"com":1234,"pr":1235,"ude":1236,"Ġcity":1237,"Ġbad":1238,"Ġheart":1239,"Ġcomb":1240,"Ġreg":1241,"Ġplay":1242,"Ġdev":1243,"Ġlook":1244,"Ġadjust":1245,"Ġkey":1246,"Ġfair":1247,"Ġnetwork":1248,"Ġquickly":1249,"ead":1250,"ll":1251,"lic":1252,"Ġtimes":1253,"Ġaar":1254,"Ġdet":1255,"Ġlow":1256,"ised":1257,"Ġtakes":1258,"Ġsav":1259,"Ġtools":1260,"Ġresear":1261,"Ġselling":1262,"Ġeng":1263,"Ġexperience":1264,"Ġbank":1265,"Ġpurpose":1266,"Ġaaron":1267,"yp":1268,"Ġput":1269,"Ġyears":1270,"Ġprot":1271,"Ġcome":1272,"Ġsharing":1273,"Ġworld":1274,"Ġaccess":1275,"Ġgalaxies":1276,"Ġtelescopes":1277,"back":1278,"Ġchat":1279,"Ġmay":1280,"Ġmind":1281,"eng":1282,"Ġopt":1283,"Ġprices":1284,"Ġred":1285,"old":1286,"Ġbeh":1287,"ife":1288,"Ġphone":1289,"Ġallowing":1290,"Ġprepare":1291,"Ġleader":1292,"book":1293,"Ġspeed":1294,"Ġconsumers":1295,"Ġboth":1296,"gr":1297,"Ġ3":1298,"ish":1299,"aces":1300,"Ġform":1301,"Ġreward":1302,"ution":1303,"Ġteac":1304,"Ġteach":1305,"Ġpayment":1306,"Ġsupport":1307,"Ġlaban":1308,"Ġest":1309,"Ġfre":1310,"Ġhire":1311,"Ġgame":1312,"Ġtrad":1313,"Ġseas":1314,"Ġprof":1315,"Ġadv":1316,"ought":1317,"Ġsuccessful":1318,"Ġretail":1319,"Ġwebs":1320,"Ġmilky":1321,"Ġcode":1322,"Ġorder":1323,"ians":1324,"ogy":1325,"Ġtent":1326,"ath":1327,"Ġmach":1328,"Ġfit":1329,"oud":1330,"Ġeat":1331,"Ġwanted":1332,"Ġstrate":1333,"Ġagain":1334,"Ġgiving":1335,"view":1336,"Ġhonest":1337,"Ġconstell":1338,"tion":1339,"ule":1340,"Ġtest":1341,"Ġtab":1342,"Ġmer":1343,"Ġlarge":1344,"iting":1345,"Ġel":1346,"icing":1347,"Ġstartups":1348,"ules":1349,"Ġchall":1350,"Ġsaas":1351,"Ġclose":1352,"Ġaffect":1353,"Ġmedical":1354,"Ġwrong":1355,"Ġremem":1356,"Ġchanges":1357,"Ġcombin":1358,"Ġsavings":1359,"sel":1360,"Ġwom":1361,"Ġpot":1362,"Ġpast":1363,"Ġbible":1364,"Ġhur":1365,"Ġreven":1366,"ology":1367,"urance":1368,"Ġleave":1369,"Ġsear":1370,"Ġdidn":1371,"Ġfeed":1372,"Ġrecip":1373,"Ġpartner":1374,"Ġfunding":1375,"Ġadvertising":1376,"Ġresearch":1377,"arly":1378,"itive":1379,"Ġstand":1380,"ilar":1381,"Ġtrac":1382,"Ġdoesn":1383,"Ġorbit":1384,"Ġadd":1385,"Ġfew":1386,"Ġwilling":1387,"Ġconsist":1388,"Ġinvestment":1389,"Ġfav":1390,"Ġbook":1391,"Ġindust":1392,"Ġsimilar":1393,"Ġinsurance":1394,"Ġmeasure":1395,"Ġmultip":1396,"Ġrevenue":1397,"io":1398,"vers":1399,"hel":1400,"Ġcour":1401,"Ġcosts":1402,"Ġposs":1403,"Ġbel":1404,"erm":1405,"iss":1406,"ically":1407,"Ġtrue":1408,"Ġconf":1409,"Ġincre":1410,"Ġcreating":1411,"Ġhappened":1412,"Ġpromises":1413,"Ġnames":1414,"Ġbenefits":1415,"Ġpaid":1416,"Ġremember":1417,"oks":1418,"Ġsl":1419,"Ġsing":1420,"Ġbang":1421,"Ġdream":1422,"Ġnow":1423,"ession":1424,"Ġher":1425,"Ġgoing":1426,"Ġshop":1427,"Ġadapt":1428,"Ġgalaxy":1429,"Ġproject":1430,"Ġnegotiation":1431,"Ġfacebook":1432,"Ġbalance":1433,"Ġmeteor":1434,"Ġpotential":1435,"time":1436,"Ġturn":1437,"Ġtyp":1438,"Ġsac":1439,"ative":1440,"Ġcall":1441,"Ġfl":1442,"Ġfaster":1443,"Ġread":1444,"Ġrules":1445,"Ġmeant":1446,"uct":1447,"Ġword":1448,"Ġways":1449,"Ġshowing":1450,"Ġphot":1451,"Ġsched":1452,"Ġark":1453,"Ġart":1454,"Ġlocal":1455,"Ġeffect":1456,"Ġbiggest":1457,"Ġrepresent":1458,"let":1459,"self":1460,"Ġking":1461,"Ġair":1462,"Ġson":1463,"Ġwife":1464,"Ġport":1465,"arg":1466,"Ġlit":1467,"Ġstore":1468,"Ġdoct":1469,"iring":1470,"Ġtrain":1471,"Ġalt":1472,"Ġhappy":1473,"Ġconnects":1474,"Ġhappening":1475,"Ġevent":1476,"Ġcrow":1477,"Ġtechnology":1478,"Ġprotect":1479,"Ġseasons":1480,"Ġmachine":1481,"kah":1482,"Ġmod":1483,"Ġgl":1484,"Ġliving":1485,"Ġrequ":1486,"Ġrent":1487,"Ġrebe":1488,"Ġrac":1489,"Ġbeen":1490,"Ġjud":1491,"Ġtrip":1492,"ocks":1493,"Ġseed":1494,"Ġexist":1495,"Ġexpand":1496,"Ġcoll":1497,"Ġevents":1498,"Ġcalled":1499,"Ġinclude":1500,"Ġtwo":1501,"Ġobj":1502,"Ġgener":1503,"Ġprofession":1504,"Ġfeedback":1505,"Ġrebekah":1506,"ike":1507,"ple":1508,"Ġed":1509,"Ġtreat":1510,"ines":1511,"Ġwin":1512,"Ġcould":1513,"Ġcount":1514,"orn":1515,"Ġflood":1516,"omes":1517,"Ġgif":1518,"Ġyet":1519,"Ġend":1520,"Ġprop":1521,"tern":1522,"Ġvir":1523,"Ġext":1524,"Ġservant":1525,"Ġgets":1526,"Ġappro":1527,"Ġideas":1528,"Ġsolar":1529,"Ġpred":1530,"Ġenter":1531,"Ġinstead":1532,"Ġproblems":1533,"Ġmessage":1534,"Ġguid":1535,"Ġdistr":1536,"Ġaltar":1537,"ool":1538,"where":1539,"esus":1540,"ests":1541,"atures":1542,"Ġmen":1543,"ones":1544,"Ġearly":1545,"Ġlived":1546,"Ġrece":1547,"Ġjesus":1548,"Ġcloud":1549,"Ġdecide":1550,"Ġintern":1551,"Ġteams":1552,"Ġoffering":1553,"Ġprogress":1554,"selves":1555,"Ġsingle":1556,"Ġlittle":1557,"az":1558,"Ġself":1559,"Ġcent":1560,"Ġmot":1561,"ark":1562,"Ġhop":1563,"acle":1564,"Ġpricing":1565,"Ġcomets":1566,"Ġscient":1567,"Ġsolve":1568,"Ġqual":1569,"Ġquest":1570,"Ġcompetition":1571,"Ġgives":1572,"Ġsimple":1573,"Ġchec":1574,"Ġconstellations":1575,"Ġchalleng":1576,"Ġindustry":1577,"Ġmultiple":1578,"aim":1579,"ched":1580,"iec":1581,"Ġ(":1582,"Ġsin":1583,"Ġpiec":1584,"Ġpray":1585,"Ġreview":1586,"ceed":1587,"Ġconc":1588,"term":1589,"Ġplans":1590,"Ġthemselves":1591,"ourc":1592,"ourn":1593,"Ġsometimes":1594,"Ġagree":1595,"Ġpurch":1596,"Ġchoices":1597,"Ġattention":1598,"Ġdesigned":1599,"Ġapart":1600,"Ġdelivery":1601,"ernacle":1602,"Ġestate":1603,"Ġretailers":1604,"Ġtabernacle":1605,"Ġrachel":1606,"br":1607,"less":1608,"ser":1609,"Âł":1610,"Ġaud":1611,"Ġcost":1612,"Ġtoward":1613,"oub":1614,"Ġforg":1615,"Ġnon":1616,"Ġnum":1617,"cept":1618,"Ġcharge":1619,"izing":1620,"Ġpaying":1621,"Ġrespons":1622,"ency":1623,"Ġspending":1624,"Ġrecipe":1625,"Ġtracking":1626,"Ġpredict":1627,"Ġscientists":1628,"aking":1629,"bers":1630,"sw":1631,"Ġ5":1632,"Ġu":1633,"Ġve":1634,"head":1635,"Ġcamp":1636,"Ġim":1637,"Ġpare":1638,"Ġmom":1639,"Ġdail":1640,"arm":1641,"ety":1642,"oll":1643,"Ġmoving":1644,"Ġtemp":1645,"Ġexpect":1646,"Ġclients":1647,"Ġblock":1648,"orite":1649,"Ġproviding":1650,"Ġegyptians":1651,"Ġavail":1652,"Ġdevelopers":1653,"Ġrole":1654,"Ġeffic":1655,"Ġprojects":1656,"Ġidentify":1657,"Ġelse":1658,"Ġdaily":1659,"ffor":1660,"ries":1661,"uce":1662,"Ġpos":1663,"Ġhiring":1664,"Ġinf":1665,"Ġstations":1666,"Ġeffor":1667,"Ġansw":1668,"Ġvia":1669,"Ġdef":1670,"Ġsmaller":1671,"Ġamaz":1672,"Ġcommunity":1673,"Ġholy":1674,"Ġholes":1675,"Ġbigger":1676,"Ġcommunication":1677,"Ġ201":1678,"Ġemail":1679,"Ġregular":1680,"cy":1681,"egr":1682,"ious":1683,"Ġahead":1684,"Ġwent":1685,"Ġpill":1686,"Ġfast":1687,"Ġfull":1688,"Ġdark":1689,"Ġgot":1690,"Ġgold":1691,"Ġstop":1692,"Ġreach":1693,"Ġanother":1694,"Ġwords":1695,"ives":1696,"iven":1697,"Ġloan":1698,"Ġadam":1699,"Ġsaying":1700,"Ġclaim":1701,"Ġintegr":1702,"Ġincome":1703,"Ġaccounts":1704,"Ġstrugg":1705,"Ġpromise":1706,"Ġdisc":1707,"ences":1708,"board":1709,"Ġroad":1710,"Ġmatter":1711,"Ġstudents":1712,"Ġexplain":1713,"Ġsteps":1714,"Ġavailable":1715,"air":1716,"care":1717,"ole":1718,"par":1719,"ried":1720,"tual":1721,"ator":1722,"Ġmin":1723,"Ġmass":1724,"Ġmiss":1725,"Ġhomes":1726,"ale":1727,"lex":1728,"Ġworth":1729,"abor":1730,"ability":1731,"chain":1732,"Ġasking":1733,"Ġloans":1734,"ems":1735,"Ġinteract":1736,"Ġinvesting":1737,"ape":1738,"Ġcareful":1739,"Ġunderstanding":1740,"Ġpatient":1741,"Ġvisit":1742,"Ġvalues":1743,"Ġraised":1744,"Ġrelationships":1745,"Ġincrease":1746,"Ġefficient":1747,"ross":1748,"ues":1749,"Ġ4":1750,"ins":1751,"Ġsub":1752,"Ġcities":1753,"Ġpu":1754,"Ġple":1755,"ertain":1756,"Ġfire":1757,"Ġfix":1758,"itor":1759,"ases":1760,"Ġlives":1761,"Ġcand":1762,"Ġjourn":1763,"ands":1764,"Ġdep":1765,"Ġbuilds":1766,"Ġacross":1767,"Ġtext":1768,"Ġinvent":1769,"Ġscore":1770,"âĢĿ.":1771,"Ġinvestments":1772,"Ġgrowth":1773,"Ġcreated":1774,"Ġjobs":1775,"Ġreli":1776,"ledge":1777,"Ġfounders":1778,"Ġpowerful":1779,"Ġchoose":1780,"Ġtranspare":1781,"Ġcommunicate":1782,"Ġconsistent":1783,"Ġpossible":1784,"Ġeffective":1785,"Ġcollabor":1786,"aan":1787,"fol":1788,"ling":1789,"pro":1790,"Ġsar":1791,"Ġside":1792,"Ġce":1793,"Ġdivers":1794,"Ġgam":1795,"Ġstation":1796,"ily":1797,"osing":1798,"Ġcanaan":1799,"teroid":1800,"ute":1801,"Ġasteroid":1802,"Ġbecome":1803,"Ġimportance":1804,"venant":1805,"Ġener":1806,"crip":1807,"Ġhandle":1808,"Ġautomat":1809,"Ġlaunch":1810,"Ġrunning":1811,"Ġbreak":1812,"Ġrestaurants":1813,"Ġeclipses":1814,"Ġdevices":1815,"Ġtradition":1816,"Ġwebsite":1817,"Ġcrowd":1818,"Ġvirtual":1819,"Ġsarah":1820,"'ll":1821,"aut":1822,"face":1823,"jo":1824,"pect":1825,"set":1826,"vent":1827,"zz":1828,"Ġtre":1829,"Ġwal":1830,"Ġwis":1831,"Ġcaus":1832,"Ġcry":1833,"Ġpub":1834,"Ġiss":1835,"Ġcoming":1836,"Ġhelped":1837,"Ġcomplet":1838,"Ġgoog":1839,"Ġshort":1840,"Ġmanag":1841,"Ġvent":1842,"ivid":1843,"Ġbright":1844,"Ġmars":1845,"Ġshowers":1846,"Ġsuch":1847,"Ġsolution":1848,"Ġcovenant":1849,"Ġdays":1850,"Ġsystems":1851,"Ġemployee":1852,"Ġcompetitive":1853,"Ġhuman":1854,"Ġoper":1855,"Ġfollowing":1856,"ording":1857,"prise":1858,"Ġsearch":1859,"Ġfavorite":1860,"Ġphotos":1861,"Ġportfol":1862,"Ġcheck":1863,"Ġnumber":1864,"Ġblockchain":1865,"Ġinventory":1866,"Ġenergy":1867,"Ġgoogle":1868,"'m":1869,"ake":1870,"aign":1871,"eal":1872,"ered":1873,"fic":1874,"ior":1875,"Ġsum":1876,"Ġmus":1877,"Ġmount":1878,"Ġdest":1879,"Ġgas":1880,"ody":1881,"irc":1882,"urity":1883,"Ġuser":1884,"Ġlevel":1885,"reng":1886,"raid":1887,"Ġchain":1888,"Ġexc":1889,"chool":1890,"Ġunc":1891,"ource":1892,"Ġfeatures":1893,"irement":1894,"Ġafraid":1895,"Ġfamilies":1896,"ights":1897,"Ġunder":1898,"Ġevil":1899,"Ġcompete":1900,"Ġgiven":1901,"Ġpatients":1902,"Ġdisco":1903,"Ġmessaging":1904,"Ġguide":1905,"Ġlistening":1906,"merce":1907,"Ġrestaurant":1908,"Ġdeterm":1909,"Ġoptions":1910,"Ġteaches":1911,"Ġfreel":1912,"Ġhurt":1913,"Ġdoctors":1914,"Ġtowards":1915,"bot":1916,"cul":1917,"come":1918,"ey":1919,"ipp":1920,"ruct":1921,"uter":1922,"ys":1923,"Ġsw":1924,"Ġpull":1925,"ret":1926,"Ġbit":1927,"Ġbillion":1928,"Ġrele":1929,"Ġbuying":1930,"Ġusually":1931,"actors":1932,"Ġenjo":1933,"Ġinvestors":1934,"Ġkeeping":1935,"Ġgrowing":1936,"Ġhealthcare":1937,"Ġeveryone":1938,"Ġcalm":1939,"Ġretirement":1940,"Ġdevelopment":1941,"Ġattr":1942,"Ġcontrol":1943,"Ġblessing":1944,"Ġeclipse":1945,"Ġchatbot":1946,"Ġsacr":1947,"Ġquality":1948,"Ġaudience":1949,"Ġcampaign":1950,"Ġmoment":1951,"Ġautomatically":1952,"Ġmusic":1953,"ex":1954,"gn":1955,"light":1956,"rom":1957,"Ġsk":1958,"Ġslow":1959,"Ġcut":1960,"Ġpit":1961,"Ġfil":1962,"Ġhosp":1963,"Ġhole":1964,"lect":1965,"Ġstreng":1966,"Ġitems":1967,"Ġnever":1968,"Ġlea":1969,"Ġleft":1970,"Ġvers":1971,"Ġmovie":1972,"Ġsaf":1973,"kets":1974,"Ġworkers":1975,"Ġlearned":1976,"Ġowners":1977,"Ġeasily":1978,"Ġsucceed":1979,"Ġshared":1980,"Ġanyone":1981,"Ġcalcul":1982,"Ġ10":1983,"Ġfounder":1984,"Ġperform":1985,"Ġautomate":1986,"Ġsecurity":1987,"Ġasked":1988,"Ġtelescope":1989,"Ġmembers":1990,"Ġdeliver":1991,"Ġanalyz":1992,"Ġassist":1993,"Ġreduce":1994,"Ġschedule":1995,"Ġapproach":1996,"Ġguidance":1997,"Ġcenter":1998,"Ġchallenges":1999,"Ġanswer":2000,"Ġclaims":2001,"Ġpuzz":2002,"Ġtraditional":2003,"Ġpuzzle":2004,"ches":2005,"ruit":2006,"Ġtree":2007,"Ġsent":2008,"Ġfac":2009,"Ġlower":2010,"Ġopp":2011,"eth":2012,"Ġstream":2013,"Ġpriv":2014,"Ġthought":2015,"Ġmaint":2016,"Ġhelpful":2017,"Ġbeaut":2018,"Ġpeace":2019,"Ġparty":2020,"Ġsmartph":2021,"Ġfinances":2022,"Ġpartnership":2023,"Ġmistake":2024,"Ġtalking":2025,"Ġorganiz":2026,"Ġburn":2027,"Ġbills":2028,"commerce":2029,"Ġengine":2030,"Ġstrateg":2031,"Ġjudah":2032,"Ġprofessionals":2033,"Ġquestions":2034,"Ġsubs":2035,"Ġasteroids":2036,"Ġenjoy":2037,"born":2038,"dom":2039,"iences":2040,"nts":2041,"ral":2042,"Ġsky":2043,"Ġcap":2044,"Ġcirc":2045,"Ġbra":2046,"Ġfun":2047,"Ġlarg":2048,"Ġinde":2049,"Ġstock":2050,"Ġplaces":2051,"Ġtroub":2052,"Ġarea":2053,"Ġconvers":2054,"Ġvar":2055,"Ġsepar":2056,"arden":2057,"Ġaccept":2058,"Ġupset":2059,"Ġseek":2060,"actions":2061,"Ġknowledge":2062,"Ġfocusing":2063,"Ġaccording":2064,"Ġfaith":2065,"Ġdecision":2066,"Ġconnecting":2067,"Ġreturn":2068,"Ġremind":2069,"Ġmonitor":2070,"Ġvisual":2071,"Ġlocation":2072,"Ġchanging":2073,"Ġlaunched":2074,"Ġdirectly":2075,"Ġangry":2076,"Ġpresent":2077,"Ġpresence":2078,"Ġstrategy":2079,"Ġglob":2080,"Ġobjects":2081,"Ġuk":2082,"Ġparents":2083,"Ġjourney":2084,"Ġsacrif":2085,"bol":2086,"fact":2087,"kay":2088,"mit":2089,"mbol":2090,"oot":2091,"oice":2092,"ps":2093,"Ġsize":2094,"Ġschool":2095,"ann":2096,"Ġbread":2097,"Ġtop":2098,"Ġtook":2099,"Ġdie":2100,"outs":2101,"Ġokay":2102,"Ġgarden":2103,"Ġeph":2104,"Ġnur":2105,"Ġnav":2106,"ires":2107,"Ġplant":2108,"Ġrates":2109,"Ġrock":2110,"Ġcomputer":2111,"antly":2112,"hers":2113,"ifying":2114,"Ġworried":2115,"Ġasks":2116,"Ġkid":2117,"Ġnews":2118,"ibility":2119,"Ġinterests":2120,"angu":2121,"Ġsymbol":2122,"Ġrecruit":2123,"ending":2124,"Ġwrite":2125,"Ġpattern":2126,"Ġindia":2127,"Ġindivid":2128,"Ġroom":2129,"Ġactions":2130,"Ġsecure":2131,"Ġcards":2132,"Ġtalks":2133,"Ġvaluable":2134,"Ġmeeting":2135,"Ġcollect":2136,"rences":2137,"Ġplaying":2138,"Ġbehav":2139,"Ġwomen":2140,"Ġcountries":2141,"Ġdistrib":2142,"Ġmotiv":2143,"Ġreliable":2144,"Ġtransparent":2145,"Ġportfolio":2146,"Ġdetermine":2147,"Ġattract":2148,"Ġstrength":2149,"Ġsubscrip":2150,"Ġnavig":2151,"app":2152,"gar":2153,"pers":2154,"rs":2155,"uff":2156,"ining":2157,"ats":2158,"reen":2159,"Ġment":2160,"Ġdau":2161,"Ġlink":2162,"Ġlangu":2163,"Ġgain":2164,"Ġstocks":2165,"Ġey":2166,"Ġthin":2167,"Ġrule":2168,"Ġtrut":2169,"Ġhagar":2170,"Ġspot":2171,"Ġyourself":2172,"Ġlend":2173,"Ġvie":2174,"Ġvoice":2175,"Ġapplic":2176,"Ġgoods":2177,"Ġclos":2178,"Ġdiffic":2179,"Ġenough":2180,"Ġcof":2181,"Ġemployers":2182,"Ġclean":2183,"Ġtelling":2184,"Ġamount":2185,"Ġvideos":2186,"aker":2187,"Ġbanks":2188,"Ġtalk":2189,"Ġstores":2190,"rency":2191,"Ġprepared":2192,"Ġwoman":2193,"Ġbelieve":2194,"Ġtype":2195,"Ġcandid":2196,"Ġgames":2197,"Ġcrypt":2198,"Ġbehavior":2199,"Ġtruth":2200,"Ġview":2201,"Ġdifficult":2202,"ael":2203,"cting":2204,"do":2205,"iel":2206,"iver":2207,"ium":2208,"lu":2209,"sh":2210,"ship":2211,"ump":2212,"hen":2213,"ature":2214,"Ġcor":2215,"Ġcame":2216,"Ġpol":2217,"Ġpain":2218,"Ġmic":2219,"Ġmention":2220,"Ġdone":2221,"Ġhig":2222,"Ġyum":2223,"acec":2224,"Ġreas":2225,"idd":2226,"Ġstarted":2227,"Ġanc":2228,"Ġspacec":2229,"iful":2230,"ared":2231,"raft":2232,"ables":2233,"istic":2234,"Ġbeta":2235,"agram":2236,"Ġfirm":2237,"Ġharden":2238,"Ġcreator":2239,"Ġbooks":2240,"Ġinstruct":2241,"Ġinstagram":2242,"Ġrespond":2243,"Ġwriting":2244,"Ġlaw":2245,"Ġactive":2246,"Ġexperiences":2247,"Ġorganize":2248,"Ġrepresents":2249,"Ġraise":2250,"Ġrewards":2251,"Ġcombinator":2252,"Ġtraining":2253,"Ġenterprise":2254,"Ġagreement":2255,"Ġinflu":2256,"Ġminim":2257,"Ġglobal":2258,"Ġyumon":2259,"Ġspacecraft":2260,"gh":2261,"gor":2262,"ler":2263,"Ġing":2264,"Ġsite":2265,"Ġcam":2266,"Ġpet":2267,"Ġpop":2268,"Ġball":2269,"Ġboss":2270,"Ġblood":2271,"Ġfall":2272,"Ġtold":2273,"Ġtouch":2274,"Ġdied":2275,"Ġlam":2276,"owered":2277,"Ġeve":2278,"Ġequ":2279,"Ġemer":2280,"Ġforward":2281,"Ġhead":2282,"ecess":2283,"Ġonce":2284,"Ġjeth":2285,"ational":2286,"Ġwear":2287,"Ġmoves":2288,"iving":2289,"ivity":2290,"Ġtax":2291,"Ġsaid":2292,"Ġexplo":2293,"Ġclot":2294,"ired":2295,"Ġknowing":2296,"iled":2297,"anct":2298,"Ġcurtain":2299,"Ġsolving":2300,"Ġcover":2301,"Ġrecog":2302,"Ġfeels":2303,"redients":2304,"Ġpoor":2305,"Ġkinds":2306,"Ġautomated":2307,"Ġnetwor":2308,"Ġearning":2309,"Ġnamed":2310,"Ġemot":2311,"Ġdevice":2312,"Ġbehind":2313,"Ġwebsites":2314,"Ġslack":2315,"Ġgift":2316,"Ġpurchase":2317,"Ġeffort":2318,"Ġdefine":2319,"Ġamazon":2320,"Ġpillar":2321,"iveness":2322,"Ġstruggle":2323,"Ġwalk":2324,"Ġventure":2325,"Ġsmartphone":2326,"Ġindeed":2327,"Ġcoffe":2328,"Ġingredients":2329,"Ġjethro":2330,"Ġcurtains":2331,"Ġrecogn":2332,"20":2333,"fer":2334,"hm":2335,"hy":2336,"like":2337,"powered":2338,"ufact":2339,"yc":2340,"Ġ8":2341,"ination":2342,"Ġsan":2343,"Ġsit":2344,"Ġsense":2345,"Ġwarm":2346,"Ġcat":2347,"Ġcars":2348,"Ġpar":2349,"Ġpun":2350,"err":2351,"Ġful":2352,"omm":2353,"used":2354,"Ġishm":2355,"Ġoil":2356,"Ġcomes":2357,"Ġlif":2358,"Ġlimit":2359,"Ġthree":2360,"Ġones":2361,"Ġcomprom":2362,"Ġshall":2363,"Ġspir":2364,"Ġspaces":2365,"Ġalign":2366,"ocer":2367,"Ġleah":2368,"Ġmanufact":2369,"Ġseen":2370,"ellig":2371,"ortun":2372,"Ġnothing":2373,"umc":2374,"Ġneeded":2375,"Ġgrocer":2376,"Ġparts":2377,"Ġcommand":2378,"Ġscale":2379,"Ġrecomm":2380,"Ġmedic":2381,"Ġdebts":2382,"Ġanything":2383,"Ġdeveloping":2384,"Ġremot":2385,"Ġesc":2386,"Ġperfect":2387,"Ġsale":2388,"Ġspeak":2389,"Ġfarm":2390,"Ġlaunching":2391,"ample":2392,"Ġexplor":2393,"Ġmember":2394,"Ġfreed":2395,"Ġsince":2396,"Ġtemper":2397,"Ġregularly":2398,"Ġ40":2399,"Ġplease":2400,"Ġcollaborate":2401,"Ġassistant":2402,"Ġopportun":2403,"Ġbeautiful":2404,"Ġsacrifice":2405,"Ġcandidates":2406,"Ġancient":2407,"Ġinstructions":2408,"Ġemerg":2409,"Ġexplore":2410,"Ġcoffee":2411,"Ġishmael":2412,"cts":2413,"dr":2414,"iate":2415,"ner":2416,"over":2417,"ric":2418,"te":2419,"tics":2420,"uge":2421,"yle":2422,"Ġouts":2423,"Ġtic":2424,"Ġtable":2425,"Ġtilt":2426,"Ġsad":2427,"Ġcause":2428,"rem":2429,"Ġbas":2430,"ert":2431,"orm":2432,"Ġfig":2433,"Ġfore":2434,"Ġtoy":2435,"Ġhr":2436,"Ġhit":2437,"Ġhuge":2438,"Ġgave":2439,"lebr":2440,"isco":2441,"ilities":2442,"Ġforce":2443,"ional":2444,"ides":2445,"Ġrob":2446,"Ġshipp":2447,"Ġspread":2448,"Ġfruit":2449,"ocur":2450,"vern":2451,"Ġseven":2452,"Ġexch":2453,"Ġimpact":2454,"iev":2455,"Ġatm":2456,"Ġground":2457,"Ġpartic":2458,"Ġintellig":2459,"Ġinterface":2460,"Ġsolid":2461,"aper":2462,"Ġbuyers":2463,"Ġfounded":2464,"Ġpersonalized":2465,"Ġhands":2466,"Ġangels":2467,"Ġmonthly":2468,"Ġanalys":2469,"Ġanalytics":2470,"Ġsurv":2471,"Ġgroups":2472,"Ġoptim":2473,"Ġmercy":2474,"Ġmodel":2475,"Ġpiece":2476,"Ġpieces":2477,"Ġ50":2478,"Ġexpectations":2479,"Ġcelebr":2480,"Ġcomplete":2481,"Ġdiscover":2482,"Ġcampaigns":2483,"Ġprivate":2484,"Ġmaintain":2485,"Ġvari":2486,"Ġcryptocur":2487,"Ġhardened":2488,"Ġcompromise":2489,"Ġfreedom":2490,"Ġintelligence":2491,".âĢĿ":2492,"by":2493,"day":2494,"gin":2495,"ian":2496,"ked":2497,"lines":2498,"oke":2499,"oint":2500,"roll":2501,"the":2502,"vest":2503,"Ġess":2504,"Ġsanct":2505,"Ġwa":2506,"Ġcher":2507,"Ġbab":2508,"Ġbody":2509,"Ġmor":2510,"Ġmaster":2511,"Ġfight":2512,"Ġhour":2513,"Ġlate":2514,"use":2515,"ister":2516,"ished":2517,"Ġstones":2518,"ows":2519,"asing":2520,"Ġpract":2521,"Ġwithin":2522,"iding":2523,"ident":2524,"Ġrout":2525,"Ġride":2526,"Ġrather":2527,"Ġriver":2528,"Ġgovern":2529,"Ġability":2530,"Ġfranc":2531,"ade":2532,"Ġmeaning":2533,"ials":2534,"Ġexample":2535,"demand":2536,"ief":2537,"Ġcontin":2538,"Ġcreative":2539,"Ġfinance":2540,"Ġagents":2541,"Ġrelate":2542,"Ġtells":2543,"Ġfeeling":2544,"Ġrealistic":2545,"Ġlonger":2546,"Ġconnected":2547,"Ġconnection":2548,"Ġpromot":2549,"Ġ100":2550,"Ġpath":2551,"Ġsimpl":2552,"Ġvision":2553,"Ġactually":2554,"Ġachiev":2555,"Ġtwit":2556,"Ġnegotiate":2557,"Ġmonths":2558,"Ġbillions":2559,"Ġagainst":2560,"Ġtesting":2561,"Ġcourse":2562,"Ġreading":2563,"Ġartists":2564,"Ġobject":2565,"Ġgifts":2566,"Ġreceive":2567,"Ġinternet":2568,"ources":2569,"Ġcauses":2570,"Ġpubl":2571,"Ġissues":2572,"Ġsummer":2573,"Ġleaving":2574,"Ġsafety":2575,"Ġperformance":2576,"Ġorganizations":2577,"Ġstrategies":2578,"Ġcapital":2579,"Ġpatterns":2580,"Ġsubscription":2581,"Ġreason":2582,"Ġinfluenc":2583,"Ġspaceship":2584,"Ġrecommend":2585,"Ġfigure":2586,"Ġatmosp":2587,"Ġanalysis":2588,"Ġessential":2589,"Ġfrancisco":2590,"Ġachievable":2591,"'ve":2592,"aven":2593,"ek":2594,"fair":2595,"li":2596,"off":2597,"zy":2598,"Ġ-":2599,"ĠĊ":2600,"Ġtin":2601,"Ġsource":2602,"Ġpost":2603,"Ġpict":2604,"rec":2605,"Ġbike":2606,"erc":2607,"onom":2608,"ords":2609,"Ġhist":2610,"Ġstate":2611,"Ġstub":2612,"Ġeating":2613,"acts":2614,"aching":2615,"Ġdoor":2616,"Ġnecess":2617,"Ġthough":2618,"Ġmap":2619,"Ġmeal":2620,"Ġgoes":2621,"une":2622,"Ġnear":2623,"Ġable":2624,"Ġshape":2625,"Ġconfe":2626,"utions":2627,"Ġtail":2628,"Ġapprec":2629,"Ġmarkets":2630,"Ġclass":2631,"Ġinvol":2632,"roy":2633,"Ġsells":2634,"Ġsuper":2635,"Ġfailing":2636,"Ġcreates":2637,"Ġago":2638,"uber":2639,"ubim":2640,"Ġcolors":2641,"Ġpriest":2642,"Ġboard":2643,"Ġshel":2644,"Ġbudgeting":2645,"Ġstudent":2646,"Ġcontractors":2647,"Ġapi":2648,"Ġburied":2649,"Ġstories":2650,"Ġadvant":2651,"Ġmerch":2652,"Ġcourses":2653,"Ġcalls":2654,"Ġprofessional":2655,"Ġextrem":2656,"Ġconcern":2657,"Ġdestroy":2658,"Ġuncertain":2659,"Ġfreelanc":2660,"ralized":2661,"Ġtrouble":2662,"Ġplanting":2663,"Ġlanguage":2664,"Ġthinking":2665,"Ġhigher":2666,"Ġpopular":2667,"Ġexchange":2668,"Ġcherubim":2669,"Ġtiny":2670,"bs":2671,"bath":2672,"cur":2673,"la":2674,"tions":2675,"wort":2676,"Ġz":2677,"Ġens":2678,"Ġsat":2679,"Ġsab":2680,"Ġsuit":2681,"Ġsugg":2682,"Ġwar":2683,"Ġcertain":2684,"Ġbon":2685,"ering":2686,"orts":2687,"Ġfly":2688,"Ġdash":2689,"Ġhar":2690,"itors":2691,"ision":2692,"Ġdoc":2693,"icks":2694,"ird":2695,"Ġrate":2696,"Ġcann":2697,"Ġbegin":2698,"Ġpeer":2699,"ural":2700,"Ġshine":2701,"Ġcondit":2702,"Ġvac":2703,"Ġdead":2704,"Ġweak":2705,"Ġchar":2706,"Ġchance":2707,"Ġbrings":2708,"Ġbrought":2709,"Ġmark":2710,"Ġunex":2711,"Ġphys":2712,"ensive":2713,"Ġperspect":2714,"ored":2715,"Ġprevent":2716,"apes":2717,"Ġrelax":2718,"Ġproviders":2719,"Ġanywhere":2720,"Ġwrit":2721,"Ġhighlight":2722,"Ġclearly":2723,"Ġinformed":2724,"Ġwatch":2725,"Ġhold":2726,"Ġshem":2727,"Ġsecond":2728,"Ġdistance":2729,"Ġdrivers":2730,"Ġadvertise":2731,"Ġhonor":2732,"Ġidentity":2733,"Ġengage":2734,"Ġsearching":2735,"Ġexisting":2736,"Ġreceiv":2737,"Ġhope":2738,"Ġcarefully":2739,"Ġwisdom":2740,"Ġhospital":2741,"Ġcalculated":2742,"Ġcircumc":2743,"Ġmotivated":2744,"Ġnavigate":2745,"Ġcamer":2746,"Ġclothes":2747,"Ġsitu":2748,"Ġmanufacture":2749,"Ġvariety":2750,"Ġtwitter":2751,"Ġatmosphere":2752,"worthy":2753,"Ġsabbath":2754,"bu":2755,"eous":2756,"fund":2757,"hic":2758,"ming":2759,"pe":2760,"ping":2761,"Ġur":2762,"Ġuber":2763,"ints":2764,"inter":2765,"hent":2766,"Ġsle":2767,"Ġsets":2768,"Ġwall":2769,"Ġwise":2770,"ater":2771,"Ġcain":2772,"Ġbar":2773,"Ġbaker":2774,"ork":2775,"Ġtoug":2776,"aries":2777,"Ġhous":2778,"Ġlord":2779,"lech":2780,"Ġstead":2781,"Ġnic":2782,"Ġpros":2783,"elt":2784,"oper":2785,"Ġround":2786,"Ġneigh":2787,"Ġabime":2788,"Ġven":2789,"Ġdeals":2790,"Ġsevent":2791,"Ġchann":2792,"Ġplatforms":2793,"Ġservants":2794,"Ġbrok":2795,"Ġfee":2796,"Ġfear":2797,"ĠâĢĵ":2798,"Ġscreen":2799,"Ġstrang":2800,"Ġenables":2801,"Ġkeeps":2802,"Ġhimself":2803,"Ġtrustworthy":2804,"ghters":2805,"Ġreport":2806,"Ġfeelings":2807,"Ġbox":2808,"Ġfoundation":2809,"encies":2810,"Ġtask":2811,"Ġchoosing":2812,"Ġprofitable":2813,"Ġsecret":2814,"Ġtransactions":2815,"Ġhotel":2816,"Ġletting":2817,"Ġinside":2818,"Ġconsumer":2819,"Ġcoding":2820,"Ġdrive":2821,"Ġdirection":2822,"Ġmeetings":2823,"Ġcollecting":2824,"Ġbalanc":2825,"Ġputting":2826,"Ġconsistency":2827,"Ġfavor":2828,"Ġconflic":2829,"Ġdoctor":2830,"Ġpropos":2831,"Ġmotion":2832,"Ġapartment":2833,"Ġresponsible":2834,"Ġvehic":2835,"Ġelsewhere":2836,"Ġposition":2837,"Ġefforts":2838,"Ġfastest":2839,"Ġmassive":2840,"pected":2841,"Ġmanagers":2842,"Ġpitch":2843,"Ġanalyze":2844,"Ġlarger":2845,"Ġseparate":2846,"person":2847,"Ġdaughters":2848,"Ġescape":2849,"Ġfarmers":2850,"Ġexploration":2851,"Ġtickets":2852,"Ġsurvive":2853,"Ġhours":2854,"Ġspaceships":2855,"Ġstubborn":2856,"Ġadvantage":2857,"Ġdashboard":2858,"Ġconditions":2859,"Ġunexpected":2860,"hentic":2861,"Ġtough":2862,"Ġneighb":2863,"Ġabimelech":2864,"30":2865,"500":2866,"cast":2867,"fill":2868,"gs":2869,"ger":2870,"ken":2871,"med":2872,"mart":2873,"ring":2874,"uals":2875,"vant":2876,"Ġtv":2877,"inting":2878,"Ġsix":2879,"Ġcult":2880,"Ġpil":2881,"Ġpick":2882,"Ġbase":2883,"Ġmill":2884,"Ġmut":2885,"Ġmother":2886,"eric":2887,"orr":2888,"ories":2889,"Ġdi":2890,"Ġdra":2891,"Ġhund":2892,"Ġlack":2893,"Ġlose":2894,"Ġlast":2895,"Ġlost":2896,"itude":2897,"Ġstability":2898,"Ġyork":2899,"Ġthous":2900,"Ġthird":2901,"Ġren":2902,"Ġreub":2903,"ithm":2904,"Ġbury":2905,"Ġmag":2906,"Ġmagn":2907,"Ġbusy":2908,"Ġhabit":2909,"Ġareas":2910,"Ġalgor":2911,"ucial":2912,"Ġgods":2913,"veral":2914,"ford":2915,"ified":2916,"Ġworship":2917,"Ġleg":2918,"Ġlev":2919,"Ġseveral":2920,"Ġcharg":2921,"Ġexact":2922,"Ġserve":2923,"Ġbrow":2924,"Ġloves":2925,"Ġlooks":2926,"Ġappoint":2927,"Ġunfair":2928,"izes":2929,"Ġshower":2930,"seat":2931,"Ġpayroll":2932,"Ġclin":2933,"Ġcommit":2934,"Ġsellers":2935,"Ġafford":2936,"Ġdecent":2937,"Ġcooking":2938,"Ġcooper":2939,"Ġrecent":2940,"Ġtrusting":2941,"Ġfailed":2942,"Ġsigns":2943,"Ġamounts":2944,"Ġameric":2945,"Ġauthentic":2946,"Ġcompeting":2947,"Ġprioritizing":2948,"Ġkindness":2949,"Ġchoice":2950,"Ġaiming":2951,"Ġdesigners":2952,"ogra":2953,"Ġstronger":2954,"Ġgreater":2955,"Ġnegotiating":2956,"Ġorganized":2957,"Ġangel":2958,"Ġinterested":2959,"Ġprograms":2960,"Ġdreams":2961,"Ġshopping":2962,"Ġprotection":2963,"Ġrequires":2964,"Ġquestion":2965,"Ġprayer":2966,"Ġamazing":2967,"Ġ2019":2968,"Ġdiscounts":2969,"Ġmission":2970,"Ġeffectively":2971,"Ġtrend":2972,"Ġrelevant":2973,"Ġslowly":2974,"Ġeye":2975,"ield":2976,"Ġcorre":2977,"Ġfulfill":2978,"Ġshipping":2979,"Ġcryptocurrency":2980,"Ġpractice":2981,"Ġhistory":2982,"Ġfreelancers":2983,"Ġensure":2984,"Ġsuggest":2985,"Ġbonds":2986,"Ġdocu":2987,"funding":2988,"Ġsleep":2989,"Ġchannels":2990,"Ġhundred":2991,"Ġreuben":2992,"Ġalgorithm":2993,"10":2994,"emp":2995,"flow":2996,"ges":2997,"jam":2998,"know":2999,"smart":3000,"ters":3001,"tub":3002,"uly":3003,"Ġten":3004,"Ġage":3005,"Ġsound":3006,"Ġsara":3007,"Ġsister":3008,"Ġwon":3009,"Ġwide":3010,"Ġwood":3011,"Ġcyc":3012,"Ġpack":3013,"Ġbir":3014,"ores":3015,"Ġflex":3016,"Ġdin":3017,"ited":3018,"Ġox":3019,"Ġgent":3020,"Ġinn":3021,"asts":3022,"Ġever":3023,"Ġelect":3024,"arter":3025,"Ġyoutub":3026,"Ġhere":3027,"irst":3028,"Ġrot":3029,"Ġcomput":3030,"Ġcomplex":3031,"urable":3032,"Ġann":3033,"Ġali":3034,"Ġalone":3035,"Ġaltern":3036,"uling":3037,"Ġdeath":3038,"Ġweather":3039,"Ġplants":3040,"Ġexec":3041,"elling":3042,"Ġapply":3043,"Ġappear":3044,"Ġmarry":3045,"arning":3046,"Ġshowed":3047,"ĠâĢĶ":3048,"Ġresources":3049,"Ġscience":3050,"Ġscary":3051,"Ġuseful":3052,"Ġinterview":3053,"Ġsolutions":3054,"Ġleads":3055,"Ġcreators":3056,"Ġagencies":3057,"Ġrighteous":3058,"Ġcold":3059,"Ġcolor":3060,"Ġhealthy":3061,"Ġbacked":3062,"Ġinstantly":3063,"ples":3064,"dsourc":3065,"nesses":3066,"ronic":3067,"Ġmater":3068,"Ġmatch":3069,"Ġmatches":3070,"Ġcrucial":3071,"Ġtalent":3072,"Ġcarry":3073,"Ġeconom":3074,"Ġbenjam":3075,"Ġmiles":3076,"Ġstudy":3077,"Ġconsidering":3078,"Ġorders":3079,"Ġpair":3080,"Ġbreast":3081,"Ġassets":3082,"Ġmaybe":3083,"Ġteaching":3084,"Ġordering":3085,"Ġready":3086,"Ġscheduling":3087,"Ġkings":3088,"Ġtreated":3089,"Ġextra":3090,"Ġchallenging":3091,"Ġpurchases":3092,"serv":3093,"Ġforgiveness":3094,"Ġimag":3095,"Ġdepending":3096,"profit":3097,"Ġdiversify":3098,"Ġpublic":3099,"Ġmountain":3100,"Ġfreelance":3101,"Ġversion":3102,"Ġkids":3103,"Ġindividual":3104,"Ġlinked":3105,"Ġapplications":3106,"Ġpolic":3107,"idden":3108,"Ġequip":3109,"Ġnetworks":3110,"Ġspiral":3111,"Ġopportunities":3112,"Ġemergency":3113,"ormal":3114,"Ġbaby":3115,"Ġmorning":3116,"Ġmerchants":3117,"Ġcannot":3118,"Ġphysical":3119,"Ġreceived":3120,"Ġmanufacturers":3121,"Ġsteady":3122,"Ġseventh":3123,"Ġstrangers":3124,"Ġneighbor":3125,"Ġlegal":3126,"Ġexactly":3127,"Ġbrowser":3128,"Ġdecentralized":3129,"Ġcorrect":3130,"Ġsarai":3131,"Ġyoutube":3132,"Ġbenjamin":3133,"50":3134,"aks":3135,"ban":3136,"ball":3137,"gre":3138,"hold":3139,"iation":3140,"jehovah":3141,"ls":3142,"rast":3143,"vin":3144,"val":3145,"wise":3146,"Ġhat":3147,"incts":3148,"hest":3149,"Ġsil":3150,"Ġsens":3151,"Ġwild":3152,"Ġwind":3153,"Ġcoun":3154,"Ġcoup":3155,"Ġcapt":3156,"Ġcake":3157,"rew":3158,"Ġbow":3159,"Ġmust":3160,"Ġmix":3161,"ont":3162,"Ġfash":3163,"Ġdense":3164,"Ġlamp":3165,"Ġlosing":3166,"iter":3167,"itals":3168,"Ġgather":3169,"Ġsta":3170,"Ġste":3171,"Ġstar":3172,"Ġstra":3173,"Ġsteal":3174,"eds":3175,"acy":3176,"Ġyoun":3177,"Ġnob":3178,"Ġnormal":3179,"ayment":3180,"Ġcomfor":3181,"Ġlibr":3182,"Ġligh":3183,"ups":3184,"upiter":3185,"Ġrod":3186,"Ġjupiter":3187,"Ġshapes":3188,"ults":3189,"Ġdeep":3190,"Ġdeeds":3191,"Ġsea":3192,"Ġseem":3193,"Ġcreation":3194,"ferences":3195,"Ġpassion":3196,"Ġlog":3197,"Ġsaw":3198,"Ġbutler":3199,"Ġworkflow":3200,"ibilities":3201,"load":3202,"Ġphil":3203,"agree":3204,"Ġscores":3205,"Ġfocuses":3206,"Ġenv":3207,"ificial":3208,"Ġcreatures":3209,"Ġrepl":3210,"ffic":3211,"Ġinstincts":3212,"Ġrespon":3213,"Ġauth":3214,"plate":3215,"Ġcompetitors":3216,"Ġtraffic":3217,"Ġdisagree":3218,"Ġgrain":3219,"Ġhumb":3220,"Ġprocessing":3221,"Ġaction":3222,"Ġmatching":3223,"Ġimproving":3224,"Ġdesigns":3225,"Ġcontracts":3226,"Ġvalued":3227,"Ġmeasurable":3228,"Ġburning":3229,"Ġprogramming":3230,"Ġsending":3231,"Ġhearts":3232,"Ġreduc":3233,"Ġ30":3234,"Ġconstellation":3235,"Ġcombining":3236,"Ġrecipes":3237,"Ġconfident":3238,"Ġartificial":3239,"Ġmodels":3240,"Ġedom":3241,"Ġhopes":3242,"Ġreviews":3243,"Ġvend":3244,"Ġimages":3245,"Ġparent":3246,"Ġpillars":3247,"Ġgolden":3248,"Ġinteractive":3249,"profits":3250,"Ġmanager":3251,"Ġoperating":3252,"Ġchains":3253,"Ġskill":3254,"Ġhospitals":3255,"Ġengineers":3256,"Ġbrave":3257,"Ġaccordingly":3258,"Ġnurt":3259,"Ġstrengths":3260,"Ġmental":3261,"Ġlending":3262,"Ġlifest":3263,"Ġgrocery":3264,"Ġmedication":3265,"Ġtemperatures":3266,"driven":3267,"Ġoutside":3268,"Ġsanctify":3269,"Ġpublis":3270,"Ġnecessary":3271,"Ġthoughts":3272,"Ġuncertainty":3273,"Ġsuits":3274,"interest":3275,"Ġpilot":3276,"Ġthousands":3277,"Ġgentle":3278,"Ġinnov":3279,"Ġeconomy":3280,"Ġbreastplate":3281,"Ġlinkedin":3282,"Ġequipment":3283,"Ġfashion":3284,",âĢĿ":3285,"aud":3286,"che":3287,"digital":3288,"ios":3289,"of":3290,"power":3291,"uary":3292,"vies":3293,"Ġerr":3294,"Ġterm":3295,"Ġsod":3296,"Ġsight":3297,"Ġsites":3298,"Ġsuff":3299,"Ġwish":3300,"Ġpod":3301,"Ġpage":3302,"Ġpure":3303,"Ġbreat":3304,"Ġbond":3305,"ony":3306,"oring":3307,"Ġfart":3308,"Ġfill":3309,"Ġfactors":3310,"Ġdom":3311,"Ġdust":3312,"Ġdiv":3313,"Ġhide":3314,"Ġharm":3315,"Ġlay":3316,"enge":3317,"Ġoce":3318,"leaven":3319,"ison":3320,"Ġstick":3321,"Ġstuff":3322,"acter":3323,"Ġdog":3324,"Ġformer":3325,"Ġnat":3326,"vered":3327,"Ġpries":3328,"Ġreaching":3329,"Ġrol":3330,"Ġrings":3331,"imate":3332,"urring":3333,"Ġtruc":3334,"Ġhair":3335,"outh":3336,"Ġship":3337,"Ġshining":3338,"Ġfraud":3339,"Ġalm":3340,"Ġconvin":3341,"raim":3342,"Ġmovies":3343,"utation":3344,"epend":3345,"Ġserves":3346,"Ġloving":3347,"Ġuns":3348,"Ġunleaven":3349,"Ġwashing":3350,"Ġexpense":3351,"Ġfees":3352,"Ġproduction":3353,"Ġproductive":3354,"Ġcommands":3355,"Ġseeing":3356,"Ġresults":3357,"Ġowner":3358,"Ġscar":3359,"Ġalloc":3360,"Ġincense":3361,"Ġaccur":3362,"ifications":3363,"Ġsold":3364,"Ġcozy":3365,"Ġpreferences":3366,"Ġrecords":3367,"Ġhardware":3368,"Ġfailures":3369,"Ġgrows":3370,"Ġitself":3371,"Ġvalid":3372,"Ġrepair":3373,"Ġreputation":3374,"Ġbooking":3375,"Ġcalend":3376,"Ġpoints":3377,"Ġ18":3378,"Ġofferings":3379,"Ġindepend":3380,"Ġfunds":3381,"Ġmessages":3382,"Ġtraveling":3383,"Ġtravelers":3384,"Ġdescrip":3385,"Ġdrop":3386,"Ġidentifying":3387,"Ġmemory":3388,"Ġbenefit":3389,"Ġassess":3390,"Ġblessed":3391,"Ġcollege":3392,"Ġrespectful":3393,"rencies":3394,"comes":3395,"Ġfairly":3396,"Ġdetect":3397,"Ġengaging":3398,"Ġaccessible":3399,"Ġadvice":3400,"Ġchallenge":3401,"Ġcombination":3402,"Ġtracks":3403,"Ġadding":3404,"Ġbelong":3405,"Ġprojections":3406,"Ġsacred":3407,"Ġglory":3408,"Ġrequest":3409,"Ġexpanding":3410,"Ġgenerate":3411,"Ġinternational":3412,"Ġforgive":3413,"Ġimage":3414,"Ġpositive":3415,"Ġintegrate":3416,"Ġmissing":3417,"Ġefficiently":3418,"Ġcrowdfunding":3419,"Ġstreamline":3420,"Ġpeaceful":3421,"Ġlargest":3422,"Ġconversation":3423,"Ġreminder":3424,"Ġephraim":3425,"Ġsymbolize":3426,"Ġindividuals":3427,"Ġdistribut":3428,"Ġdistribute":3429,"Ġapplication":3430,"Ġmicr":3431,"Ġmicro":3432,"Ġmentioned":3433,"Ġminimum":3434,"Ġpunish":3435,"Ġremote":3436,"Ġgovernment":3437,"Ġcontinue":3438,"Ġreasonable":3439,"Ġconference":3440,"Ġboards":3441,"Ġvacation":3442,"Ġweaknesses":3443,"Ġperspectives":3444,"Ġproposition":3445,"Ġculture":3446,"Ġmillions":3447,"Ġappointments":3448,"Ġunfairly":3449,"employ":3450,"Ġcycle":3451,"Ġcomputers":3452,"Ġalternative":3453,"Ġcomfort":3454,"Ġlibrary":3455,"Ġlights":3456,"Ġreplace":3457,"Ġresponse":3458,"Ġauthor":3459,"Ġlifestyle":3460,"Ġsodom":3461,"Ġpriests":3462,"Ġunleavened":3463,"Ġindependent":3464,"cent":3465,"ew":3466,"first":3467,"gins":3468,"kit":3469,"lit":3470,"ove":3471,"port":3472,"ri":3473,"rics":3474,"sc":3475,"sive":3476,"sized":3477,"uel":3478,"Ġ9":3479,"Ġet":3480,"Ġsust":3481,"Ġsort":3482,"Ġsime":3483,"Ġsqu":3484,"Ġwel":3485,"Ġwond":3486,"ately":3487,"Ġca":3488,"Ġcase":3489,"Ġign":3490,"Ġpaper":3491,"Ġbound":3492,"Ġborn":3493,"Ġborr":3494,"Ġmis":3495,"Ġmid":3496,"Ġfle":3497,"Ġfile":3498,"Ġfurn":3499,"Ġfoot":3500,"Ġfelt":3501,"Ġtoday":3502,"Ġdue":3503,"Ġdoub":3504,"oms":3505,"Ġhass":3506,"Ġly":3507,"Ġled":3508,"Ġlun":3509,"Ġline":3510,"Ġlater":3511,"enance":3512,"Ġgig":3513,"Ġele":3514,"Ġeld":3515,"Ġheard":3516,"Ġonboard":3517,"igin":3518,"osed":3519,"osting":3520,"Ġbul":3521,"Ġbugs":3522,"Ġrare":3523,"amples":3524,"Ġwhite":3525,"Ġcompound":3526,"Ġusage":3527,"cend":3528,"Ġspare":3529,"Ġalong":3530,"pping":3531,"Ġorigin":3532,"force":3533,"Ġworry":3534,"Ġwhether":3535,"Ġdem":3536,"Ġweight":3537,"Ġexists":3538,"Ġexamples":3539,"ivities":3540,"ellent":3541,"Ġaside":3542,"Ġpassover":3543,"Ġloved":3544,"Ġsaved":3545,"Ġmarried":3546,"umb":3547,"Ġexpensive":3548,"Ġneeding":3549,"Ġshowc":3550,"Ġfeature":3551,"Ġwhole":3552,"Ġsmallest":3553,"Ġbeth":3554,"Ġphones":3555,"Ġclient":3556,"Ġproductivity":3557,"Ġoutcome":3558,"Ġupd":3559,"Ġinvo":3560,"action":3561,"Ġknown":3562,"ances":3563,"Ġdesk":3564,"Ġdescend":3565,"Ġfamine":3566,"Ġstruct":3567,"Ġarr":3568,"Ġenc":3569,"Ġenem":3570,"Ġcurrency":3571,"Ġprep":3572,"Ġrecurring":3573,"Ġovercome":3574,"Ġleading":3575,"Ġtrusted":3576,"Ġmedium":3577,"Ġrepayment":3578,"Ġfriendly":3579,"Ġamong":3580,"Ġboil":3581,"Ġentire":3582,"ierge":3583,"Ġsockets":3584,"Ġpatience":3585,"Ġmonet":3586,"Ġprocesses":3587,"Ġactivity":3588,"Ġactivities":3589,"Ġ25":3590,"Ġautomation":3591,"iction":3592,"Ġtransfer":3593,"Ġchanged":3594,"Ġanimal":3595,"Ġmilk":3596,"Ġdistant":3597,"Ġentrepreneurship":3598,"Ġdriving":3599,"Ġmovement":3600,"Ġcompared":3601,"Ġcheaper":3602,"Ġsurface":3603,"Ġbilling":3604,"Ġmeteors":3605,"Ġgenu":3606,"Ġmindful":3607,"Ġteachers":3608,"Ġfitness":3609,"Ġorbits":3610,"Ġsla":3611,"Ġtypes":3612,"Ġflights":3613,"Ġkingdom":3614,"Ġeventually":3615,"Ġcrowdsourc":3616,"Ġrequire":3617,"Ġrentals":3618,"Ġeduc":3619,"Ġwinter":3620,"Ġwinning":3621,"Ġcountry":3622,"Ġproper":3623,"Ġviral":3624,"Ġdistractions":3625,"Ġhoping":3626,"Ġconcierge":3627,"Ġfixing":3628,"Ġdepend":3629,"Ġwisely":3630,"Ġissue":3631,"Ġventures":3632,"Ġsumm":3633,"Ġexcellent":3634,"Ġpulls":3635,"Ġbitco":3636,"Ġsentence":3637,"Ġrecruiting":3638,"Ġrooms":3639,"Ġeyes":3640,"Ġballs":3641,"Ġemotional":3642,"Ġremotely":3643,"Ġfruitful":3644,"Ġparticular":3645,"iefs":3646,"Ġinfluencers":3647,"Ġpictures":3648,"Ġtails":3649,"Ġextreme":3650,"law":3651,"Ġharvest":3652,"Ġcharacter":3653,"Ġwritten":3654,"Ġcircumcised":3655,"Ġcamera":3656,"Ġsituation":3657,"peer":3658,"Ġwallet":3659,"Ġhabits":3660,"Ġlevi":3661,"Ġdocuments":3662,"Ġflexible":3663,"Ġnobody":3664,"Ġhumble":3665,"Ġvendors":3666,"Ġnatural":3667,"Ġconvince":3668,"Ġunsure":3669,"Ġsimeon":3670,"Ġhassle":3671,"aid":3672,"band":3673,"den":3674,"found":3675,"gets":3676,"hood":3677,"happ":3678,"iod":3679,"life":3680,"map":3681,"ncy":3682,"per":3683,"pec":3684,"rat":3685,"riend":3686,"soc":3687,"til":3688,"tech":3689,"yond":3690,"Ġtam":3691,"Ġtur":3692,"Ġtests":3693,"Ġtired":3694,"Ġalex":3695,"inary":3696,"Ġsn":3697,"Ġsect":3698,"atitude":3699,"Ġpace":3700,"Ġpoll":3701,"Ġbay":3702,"Ġbars":3703,"Ġmir":3704,"Ġmidd":3705,"Ġfed":3706,"Ġfour":3707,"Ġflo":3708,"Ġfact":3709,"Ġdw":3710,"Ġdam":3711,"Ġhosting":3712,"Ġlic":3713,"alu":3714,"alel":3715,"Ġoc":3716,"Ġobe":3717,"Ġgi":3718,"Ġgar":3719,"Ġstage":3720,"Ġstone":3721,"Ġyc":3722,"acing":3723,"acia":3724,"icians":3725,"enty":3726,"iron":3727,"Ġcomet":3728,"Ġreve":3729,"Ġrocks":3730,"amed":3731,"Ġmaj":3732,"Ġcompre":3733,"olid":3734,"olog":3735,"Ġlikely":3736,"Ġbeyond":3737,"Ġtrial":3738,"Ġnept":3739,"Ġspin":3740,"Ġspoke":3741,"Ġmanass":3742,"Ġvi":3743,"ially":3744,"Ġweek":3745,"Ġchiefs":3746,"Ġexceed":3747,"Ġexcept":3748,"Ġexerc":3749,"istics":3750,"utes":3751,"charge":3752,"Ġseries":3753,"Ġtaken":3754,"Ġbecomes":3755,"Ġapple":3756,"Ġappeal":3757,"ightly":3758,"Ġmargins":3759,"Ġunhapp":3760,"Ġuntil":3761,"ization":3762,"Ġacqu":3763,"Ġacacia":3764,"idered":3765,"ume":3766,"Ġwaste":3767,"Ġexpress":3768,"Ġmanageable":3769,"Ġworked":3770,"Ġgratitude":3771,"Ġlearns":3772,"log":3773,"Ġoffice":3774,"Ġoutcomes":3775,"Ġcommerc":3776,"Ġseeking":3777,"Ġconsult":3778,"Ġconsump":3779,"Ġconsolid":3780,"Ġconsidered":3781,"Ġscared":3782,"Ġaff":3783,"Ġdecor":3784,"Ġstress":3785,"Ġblue":3786,"Ġbranded":3787,"Ġsolves":3788,"Ġcook":3789,"Ġcovered":3790,"Ġempath":3791,"Ġprefer":3792,"Ġreck":3793,"Ġrecord":3794,"Ġoverall":3795,"Ġlistings":3796,"Ġclever":3797,"Ġboost":3798,"Ġcreditors":3799,"Ġinstall":3800,"Ġevalu":3801,"Ġcalf":3802,"Ġ15":3803,"box":3804,"Ġperiod":3805,"Ġfollowed":3806,"Ġwaters":3807,"Ġmesseng":3808,"Ġbanking":3809,"Ġsheep":3810,"Ġwellness":3811,"ounting":3812,"Ġmeth":3813,"Ġhotels":3814,"Ġmultit":3815,"Ġinteresting":3816,"Ġrefle":3817,"Ġsends":3818,"Ġleadership":3819,"Ġtargeting":3820,"Ġstorm":3821,"Ġdetail":3822,"Ġforms":3823,"Ġtestim":3824,"Ġmercur":3825,"ission":3826,"Ġshoppers":3827,"Ġtypically":3828,"Ġcalling":3829,"Ġphotogra":3830,"Ġeffectiveness":3831,"Ġportion":3832,"Ġcouldn":3833,"Ġapproval":3834,"Ġchecking":3835,"Ġresponsibilities":3836,"Ġtempl":3837,"Ġexpected":3838,"Ġanswers":3839,"Ġdefining":3840,"Ġemails":3841,"Ġdarkness":3842,"Ġintegrated":3843,"Ġdiscount":3844,"Ġfixed":3845,"Ġtransparency":3846,"Ġcollaboration":3847,"Ġcrowded":3848,"Ġcaused":3849,"Ġoperations":3850,"Ġdestination":3851,"Ġexciting":3852,"Ġdiscovery":3853,"Ġfilled":3854,"Ġanalyzing":3855,"Ġstrategic":3856,"Ġenjoyable":3857,"Ġvisualize":3858,"ooth":3859,"Ġrocky":3860,"Ġdaugh":3861,"Ġclosest":3862,"sharing":3863,"Ġactively":3864,"Ġlamech":3865,"Ġtaxes":3866,"Ġnetworking":3867,"Ġrecognition":3868,"Ġ80":3869,"Ġpunished":3870,"Ġaligns":3871,"Ġgroceries":3872,"Ġtemperature":3873,"Ġrobot":3874,"Ġoptimize":3875,"Ġsimplify":3876,"Ġrecommendations":3877,"Ġstatement":3878,"Ġappreciation":3879,"Ġflying":3880,"Ġhospitality":3881,"Ġniche":3882,"Ġconflicts":3883,"Ġvehicles":3884,"Ġrecently":3885,"Ġhundreds":3886,"Ġpackages":3887,"Ġrotation":3888,"Ġaliens":3889,"service":3890,"banked":3891,"Ġenviron":3892,"Ġdivide":3893,"Ġroles":3894,"Ġdescription":3895,"employed":3896,"Ġboundaries":3897,"Ġborrow":3898,"Ġlunar":3899,"Ġdescendants":3900,"Ġgenuine":3901,"Ġtamar":3902,"Ġneptune":3903,"Ġmanasseh":3904,"Ġunhappy":3905,"Ġcommercial":3906,"Ġconsumption":3907,"Ġempathy":3908,"Ġmercury":3909,"Ġdaughter":3910,"100":3911,"bn":3912,"bay":3913,"cl":3914,"cket":3915,"eat":3916,"ext":3917,"focus":3918,"friend":3919,"gen":3920,"home":3921,"lish":3922,"min":3923,"na":3924,"ny":3925,"ointing":3926,"pent":3927,"pred":3928,"rup":3929,"rial":3930,"source":3931,"ton":3932,"ted":3933,"yard":3934,"yield":3935,"zalel":3936,"Ġtim":3937,"invest":3938,"Ġslo":3939,"Ġsnow":3940,"Ġcate":3941,"Ġches":3942,"Ġip":3943,"Ġposts":3944,"Ġbi":3945,"Ġbil":3946,"Ġbaking":3947,"Ġmort":3948,"erv":3949,"erve":3950,"erts":3951,"erness":3952,"Ġtown":3953,"Ġtoler":3954,"ares":3955,"Ġham":3956,"Ġhang":3957,"Ġhiding":3958,"Ġloss":3959,"Ġlenses":3960,"alth":3961,"ality":3962,"itch":3963,"Ġgir":3964,"Ġgos":3965,"Ġgone":3966,"Ġgosp":3967,"Ġstret":3968,"Ġebay":3969,"acting":3970,"Ġdoll":3971,"oduce":3972,"Ġpra":3973,"Ġpress":3974,"Ġprison":3975,"Ġproduce":3976,"Ġlikes":3977,"eler":3978,"eless":3979,"eline":3980,"Ġrely":3981,"Ġrecharge":3982,"idge":3983,"idence":3984,"oses":3985,"osen":3986,"Ġbucket":3987,"Ġplenty":3988,"Ġram":3989,"Ġcanad":3990,"Ġwhose":3991,"Ġstarts":3992,"Ġbezalel":3993,"Ġjeal":3994,"Ġtrick":3995,"Ġtruly":3996,"unch":3997,"Ġanointing":3998,"Ġsplit":3999,"uck":4000,"Ġconse":4001,"Ġconcess":4002,"och":4003,"ocol":4004,"ateful":4005,"Ġcustomized":4006,"Ġlever":4007,"Ġleast":4008,"Ġmanages":4009,"Ġmanna":4010,"Ġvol":4011,"Ġvict":4012,"Ġsees":4013,"Ġwealth":4014,"Ġmood":4015,"Ġchose":4016,"Ġchronic":4017,"Ġchosen":4018,"asses":4019,"Ġsmoke":4020,"abase":4021,"allow":4022,"Ġbecame":4023,"thr":4024,"Ġappears":4025,"Ġnotes":4026,"Ġnotifications":4027,"quences":4028,"Ġmarketers":4029,"Ġfeet":4030,"Ġgrad":4031,"Ġgrateful":4032,"Ġclicks":4033,"Ġoffices":4034,"Ġtoolkit":4035,"Ġupload":4036,"Ġdifferences":4037,"active":4038,"Ġscan":4039,"Ġrise":4040,"âĢĿ,":4041,"ancy":4042,"Ġaccounting":4043,"Ġfamous":4044,"Ġdeciding":4045,"Ġblu":4046,"Ġenoch":4047,"Ġsyn":4048,"Ġdatabase":4049,"Ġprem":4050,"Ġprepar":4051,"Ġharder":4052,"Ġhardship":4053,"Ġlisting":4054,"Ġfails":4055,"Ġgrown":4056,"Ġstaying":4057,"aps":4058,"Ġsunlight":4059,"Ġaggre":4060,"Ġamale":4061,"Ġlessons":4062,"Ġbackyard":4063,"Ġpromised":4064,"Ġ13":4065,"aked":4066,"Ġvisible":4067,"Ġpercent":4068,"Ġpersonality":4069,"Ġwatching":4070,"Ġmatters":4071,"Ġattac":4072,"Ġattack":4073,"Ġattend":4074,"Ġexpert":4075,"lesh":4076,"Ġprofits":4077,"Ġnegative":4078,"Ġspeaking":4079,"ogs":4080,"Ġmetrics":4081,"Ġtransport":4082,"Ġgreatest":4083,"Ġimprovements":4084,"Ġorganizing":4085,"Ġdrink":4086,"Ġruns":4087,"Ġolder":4088,"Ġcheap":4089,"Ġsurprise":4090,"Ġreflect":4091,"Ġrefuse":4092,"Ġstoring":4093,"prises":4094,"Ġcombine":4095},"merges":["Ġ t","Ġ a","i n","h e","Ġ s","Ġ w","Ġt he","e s","a t","Ġ c","a n","Ġ i","Ġ p","r e","Ġ b","in g","Ġ m","e r","o n","o r","Ġ f","Ġt o","n d","Ġ d","a r","Ġa nd","o u","h at","o m","Ġ h","Ġ l","e n","u s","a l","Ġi s","i t","Ġ o","Ġ g","Ġ in","e t","l e","i s","Ġs t","o w","e d","Ġw hat","a s","Ġ y","Ġo f","Ġ e","i l","a c","k e","Ġd o","Ġf or","er s","ar t","Ġy ou","Ġ n","i c","Ġt hat","o d","v e","es s","en t","Ġp r","i on","Ġ he","e c","i r","a y","Ġi t","Ġc om","Ġl i","' s","e l","Ġt h","u p","Ġ re","it h","Ġw ith","o p","i d","Ġ on","i g","o s","Ġb u","Ġp l","Ġ r","a m","Ġc an","Ġw h","Ġst art","Ġm a","l p","Ġhe lp","o t","g e","Ġcom p","t s","Ġthe ir","o l","Ġli ke","â Ģ","Ġb e","l y","us t","i m","Ġp e","Ġh ow","Ġb us","op le","Ġ j","Ġpe ople","in ess","Ġstart up","Ġbus iness","u r","Ġm e","Ġ us","Ġt r","Ġh a","ou t","Ġg o","u n","a ge","c e","Ġn e","es t","Ġcomp an","Ġa n","Ġa b","Ġa re","an t","Ġs h","Ġs p","Ġf r","Ġdo es","Ġa l","he r","Ġyou r","u c","k ing","Ġc on","an d","at ion","Ġwh y","p p","t er","o c","Ġg od","i es","Ġ or","Ġthe y","il d","v er","f or","i f","Ġw or","a re","at e","m p","o b","a d","s t","Ġc ust","Ġcust om","Ġs om","Ġl e","âĢ Ļ","Ġw he","for m","u l","Ġfr om","Ġm an","Ġth is","Ġ v","Ġme an","Ġd e","Ġma ke","Ġbu ild","h t","on e","Ġb y","i al","re n","r a","ac e","Ġs e","Ġw e","m ent","Ġpl an","Ġhelp s","Ġm o","Ġc h","Ġe x","Ġab out","i v","il l","as s","Ġcompan y","Ġpr o","Ġs m","in d","el l","a b","is t","at form","Ġpl atform","u t","or t","al l","e p","ic e","Ġc re","f e","c h","Ġs er","Ġa s","k s","l ow","Ġthe m","Ġwhe n","u re","ec t","Ġm y","i ve","ac k","ar d","Ġser v","Ġp ass","l d","Ġb r","Ġha ve","Ġl o","Ġi mp","Ġg et","i p","Ġt a","Ġs a","Ġb ec","ing s","a us","d e","t h","Ġa pp","od uc","ig ht","Ġpass age","Ġa d","Ġm ar","Ġpr oduc","it y","t her","Ġs o","Ġ un","al s","aus e","i e","Ġn ot","Ġo ther","i z","Ġsom e","Ġh is","Ġgo od","ion s","in e","Ġbec ause","Ġa c","Ġbuild ing","id e","k et","Ġa t","im e","Ġd id","ar n","a in","v ing","Ġ k","Ġcustom ers","u m","Ġm os","Ġw as","Ġt e","an ts","an ce","Ġw ay","Ġbu t","Ġex p","Ġcompan ies","q u","a il","a h","Ġne w","Ġmar ket","ou r","or y","Ġne ed","Ġsh ow","Ġman age","Ġimp ort","et s","Ġf e","Ġwor k","h ing","Ġwh o","Ġsm all","Ġs ay","k es","Ġf ind","Ġb et","s e","Ġp ay","ou ld","Ġw ant","Ġt ime","i b","p t","Ġg r","Ġmo re","Ġle arn","ar s","Ġimport ant","t ing","Ġsp ec","l o","u nd","Ġserv ice","Ġb ig","on g","Ġp h","ig n","Ġsom et","Ġc l","Ġof f","ation s","ren t","ac h","ab le","Ġha pp","Ġbusiness es","Ġproduc t","e m","Ġbe ing","ver y","Ġp art","ou nd","Ġmean s","a g","Ġw ants","ac ob","Ġj acob","Ġd if","Ġto ol","Ġw ill","am e","Ġcustom er","Ġh as","Ġst ory","Ġ out","one y","Ġm oney","n t","Ġi f","Ġcom m","Ġth ings","Ġsp ace","Ġ up","Ġal low","Ġ âĢ","Ġin v","Ġsomet hing","ic es","' t","Ġse e","n ow","Ġdif fe","an s","Ġcon s","f ul","en s","Ġ ke","os e","Ġr es","w n","Ġgo als","i re","Ġi de","u d","Ġon e","Ġspec ial","Ġus ers","0 0","Ġe art","oc us","Ġeart h","ou g","Ġj os","al ly","ep h","Ġjos eph","Ġo wn","Ġin t","ac t","g y","g et","Ġs c","ve l","Ġal l","Ġpro v","Ġr is","Ġus e","Ġcre ate","Ġk now","i ent","r o","v en","iv ers","i le","f t","Ġs et","or s","Ġf ocus","âĢ Ŀ","ĠâĢ ľ","u e","Ġp ers","iz e","Ġs ell","an c","Ġd es","Ġin c","Ġa f","Ġac c","Ġs up","Ġf am","Ġd ec","o k","Ġmos es","o re","Ġf ir","Ġst r","Ġe as","Ġsm art","om e","Ġta ke","Ġb l","Ġma king","Ġa r","it es","Ġin ter","w ay","Ġ en","Ġc ur","Ġpers on","Ġfam il","Ġbr and","Ġide a","as ed","ra el","Ġsup p","en ce","Ġis rael","Ġinv est","c t","r am","an g","on s","Ġcon t","Ġke ep","oug h","l ine","Ġma kes","if ic","Ġfir st","Ġs uc","Ġy es","ment s","r y","Ġs y","Ġs ol","Ġc o","is e","Ġd at","Ġe mp","Ġp re","Ġh im","ig h","w are","Ġre c","a u","f it","Ġun ivers","Ġo ver","Ġd ay","n ing","Ġtr ack","Ġte am","Ġallow s","Ġh ard","Ġl ist","as t","re e","Ġf ail","lo y","Ġwhe re","Ġgr ow","e ar","Ġst ay","Ġdat a","Ġst ars","Ġ und","ou nt","Ġfamil y","Ġ qu","ar a","Ġn o","Ġle ad","i a","y ing","Ġcon n","Ġunivers e","Ġsh ould","ft ware","h ip","Ġto o","it al","Ġcre at","Ġso ftware","a p","Ġf in","Ġhapp en","Ġ our","Ġc are","Ġon line","Ġtr ust","Ġmos t","Ġdiffe rent","o od","Ġs un","or it","Ġli fe","Ġsome one","d it","e nd","Ġhe al","Ġman y","Ġemp loy","g ht","Ġa g","Ġm ed","o h","u b","in k","Ġit s","Ġj ob","Ġv al","v es","w e","Ġr ight","Ġbet ter","Ġph ara","Ġphara oh","Ġ '","st em","ra h","ie nd","as h","Ġth r","Ġde b","Ġint o","ic h","Ġre l","ot her","x t","Ġthe re","Ġc le","Ġf a","Ġre p","Ġab rah","Ġproduc ts","Ġprov id","Ġsy stem","Ġabrah am","Ġha ving","Ġt ell","at her","Ġpart n","Ġc ol","Ġfr iend","Ġ $","in t","Ġs ign","re at","Ġb est","Ġth an","f f","Ġa m","Ġfe el","Ġbet we","Ġheal th","Ġbetwe en","Ġl ess","ow er","Ġisrael ites","m and","Ġpr i","Ġwh ich","Ġta king","o v","Ġe very","Ġwor king","ib le","Ġthr ough","Ġb o","Ġb ack","ers t","Ġplan ets","Ġli ght","erst and","c ess","Ġ ent","Ġus ing","uc h","ent s","Ġpl ace","c r","as e","Ġcre dit","Ġund erstand","re d","Ġf ood","Ġin st","Ġre al","Ġother s","Ġe v","Ġbu y","Ġres p","Ġa ut","Ġcur rent","Ġemploy e","e h","i er","Ġl ong","ic k","ig ital","p l","Ġs oc","Ġcomp et","Ġsh are","Ġan y","Ġdec is","Ġfin anc","Ġsa ve","Ġw r","Ġc al","Ġe gy","Ġegy pt","' re","d s","Ġde mand","Ġsuc cess","Ġdeb t","Ġpri orit","Ġc ash","le m","Ġconn ect","Ġp o","Ġh igh","Ġsay s","Ġris k","ou s","os s","ul t","Ġsupp ly","ov ah","eh ovah","Ġw ould","Ġd igital","Ġl a","Ġg iv","a x","w ard","he d","re ad","it ion","Ġpr ob","ec ts","o king","Ġpr om","Ġtr a","Ġcomm un","Ġsoc ial","Ġ 1","Ġoff er","Ġcle ar","i ence","t y","w or","Ġp at","Ġm uch","Ġin d","le d","Ġwith out","Ġj ust","Ġthe n","Ġe ach","Ġth ink","Ġfail ure","Ġprob lem","a ac","at ed","an ge","Ġis aac","it e","Ġre t","Ġcurrent ly","Ġs ame","Ġf ound","Ġd on","Ġd is","Ġv ide","Ġa v","Ġde vel","Ġk ind","Ġinc l","Ġaf ter","Ġdevel op","a k","at ing","Ġf low","Ġpr oc","Ġre m","Ġwe b","Ġless on","b er","Ġg ive","ec h","Ġj ehovah","Ġg ra","Ġne xt","Ġserv ices","ag ing","en c","Ġeas ier","n ess","Ġa way","Ġs im","at es","Ġp ur","Ġm on","Ġf ol","Ġh um","Ġo p","Ġg al","o id","y al","Ġ es","Ġh ome","ow n","Ġv is","Ġris ks","b o","r on","Ġp ower","Ġf ather","Ġmo on","Ġpriorit ize","Ġproc ess","Ġp er","Ġr o","Ġlo yal","Ġac t","Ġt as","Ġab ram","Ġch o","Ġpro g","Ġbr other","Ġfol low","s o","Ġtr ying","oc k","Ġemploye es","Ġgal ax","b ased","Ġ 2","Ġa im","Ġm ob","Ġm ist","Ġl ets","it ies","os t","Ġdecis ions","ren ce","Ġperson al","Ġal so","Ġlearn ing","Ġin form","Ġe ven","Ġma in","if y","Ġfriend s","Ġfinanc ial","i ed","Ġs al","Ġw at","Ġm at","Ġf und","Ġto get","ar ge","Ġlo ve","Ġat t","Ġmob ile","Ġtoget her","u al","he s","Ġm ess","Ġpr ice","el f","Ġma de","im es","ur es","Ġplan ning","Ġch ild","ill ion","Ġexp er","Ġshow s","Ġpartn ers","Ġmist a","Ġc r","Ġh ol","il t","Ġgo al","Ġimp ro","Ġsa ving","Ġdes ign","u g","Ġh and","Ġg u","ic al","Ġhelp ing","Ġsign ific","Ġaut om","Ġtra vel","l es","Ġd el","Ġpro fit","ie ve","Ġmarket ing","Ġ very","Ġb an","il ity","Ġon ly","Ġr est","Ġwe re","iz ed","Ġdes cr","Ġs he","Ġw ell","ou n","Ġn et","Ġne g","Ġsp e","Ġlo oking","Ġset ting","Ġvide o","Ġd own","Ġl oc","is ts","Ġlist en","o g","Ġa i","ar y","Ġstr ong","p are","Ġs ec","Ġc ard","Ġcomm on","ient s","Ġtas ks","m er","Ġt al","Ġm et","ar ing","ic t","Ġtr ans","Ġal way","Ġdiffe rence","00 0","Ġprovid es","Ġsignific ance","Ġalway s","c op","g an","ur n","Ġch ang","Ġch ange","Ġas k","e ur","Ġa ch","re p","Ġg reat","Ġe ff","el es","Ġth ose","th ing","Ġneed s","a ve","Ġt eles","Ġb ased","Ġm ight","Ġf ar","ren eur","Ġpro j","ens es","Ġent rep","Ġgra v","Ġteles cop","Ġentrep reneur","Ġt ech","Ġf ut","Ġh ot","Ġl et","Ġwh ile","ver t","Ġcont ent","i qu","t en","Ġt w","Ġa st","Ġbig g","Ġprov ide","wor k","Ġdescr ib","Ġgrav ity","b e","k y","v ed","Ġc ar","Ġy ear","Ġe c","Ġn ight","Ġbe f","Ġus ed","Ġan im","Ġar ound","Ġpo int","Ġfut ure","v ie","Ġb en","Ġm il","Ġl and","Ġin s","ot i","Ġmanage ment","Ġinform ation","Ġneg oti","Ġbef ore","Ġdo ing","Ġus es","Ġha d","Ġmed ia","Ġla un","Ġast ron","r es","r ess","u ally","re am","Ġre ally","Ġbu d","Ġhapp ens","Ġcons id","Ġcons um","Ġval ue","Ġcommun ic","Ġes au","Ġimpro ve","Ġd ist","ur ing","Ġor gan","Ġf ace","Ġc od","Ġf ree","ou p","am p","Ġfocus ed","Ġentrepreneur s","iqu e","Ġbud get","Ġd r","Ġn ame","Ġth ing","Ġr un","ul ar","Ġde al","Ġmo ve","Ġloyal ty","Ġdescrib e","p h","on d","Ġst ud","Ġe arn","Ġn am","Ġad vert","ire ct","au ts","Ġav oid","Ġaim s","Ġastron auts","' ?","f ect","Ġi d","Ġh on","Ġst ill","Ġbu ilt","Ġstart ing","Ġget ting","Ġexp enses","Ġeas y","Ġcont r","Ġconsid er","e ars","Ġd irect","Ġl ot","is ing","ch ing","Ġval u","read y","Ġincl ud","Ġbrother s","Ġmista kes","Ġid ent","c o","Ġa p","Ġthe se","Ġb ot","Ġl ab","Ġo ld","as ter","Ġli ve","el y","Ġcomp are","Ġme et","Ġan g","Ġal ready","Ġmon th","Ġanim als","u it","Ġc he","ou se","al y","ent ial","el s","Ġme as","Ġexp l","Ġacc ount","Ġrep res","Ġop en","b it","Ġm ult","or d","Ġbu r","Ġr a","Ġme m","Ġor d","Ġplan et","Ġun ique","Ġbl ack","pl ace","Ġ2 0","Ġsal es","Ġdel i","Ġben e","Ġm illion","Ġst ep","Ġe m","ent ion","Ġpr es","Ġan aly","Ġad s","Ġinter est","Ġqu ick","Ġach ieve","Ġs ure","Ġo b","Ġbrand s","Ġrel ations","t o","Ġt ar","Ġs ur","Ġp a","Ġb re","is es","Ġsp end","ul l","Ġas s","Ġspec ific","lo od","Ġbl ess","Ġevery thing","Ġpur p","Ġrelations hip","l ip","t ain","Ġb ill","Ġh ouse","Ġof ten","Ġcon st","Ġman aging","Ġsa fe","Ġapp s","Ġpay ments","ag es","Ġcol le","Ġresp ect","Ġprog ram","oun ts","a v","a ur","i x","Ġb al","Ġre f","Ġse nd","Ġmarket place","Ġfind ing","Ġoff ers","Ġlead ers","Ġhum ans","Ġwat er","Ġchild ren","Ġrest aur","t le","he re","er n","os ts","Ġtr y","Ġwor ks","Ġbr ing","Ġgr oup","Ġno ah","Ġmet e","Ġec lip","Ġinclud ing","Ġtar get","j ust","s es","Ġs ons","Ġd uring","en se","Ġg en","Ġst or","ic s","os p","ren c","fit s","ug g","Ġtech n","a pt","c om","p r","u de","Ġc ity","Ġb ad","Ġhe art","Ġcom b","Ġre g","Ġpl ay","Ġde v","Ġlo ok","Ġad just","Ġke y","Ġfa ir","Ġnet work","Ġquick ly","e ad","l l","l ic","Ġt imes","Ġa ar","Ġd et","Ġl ow","is ed","Ġta kes","Ġsa v","Ġtool s","Ġres ear","Ġsell ing","Ġen g","Ġexper ience","Ġban k","Ġpurp ose","Ġaar on","y p","Ġp ut","Ġy ears","Ġpr ot","Ġcom e","Ġsh aring","Ġwor ld","Ġacc ess","Ġgalax ies","Ġtelescop es","b ack","Ġc hat","Ġm ay","Ġm ind","en g","Ġo pt","Ġpr ices","Ġre d","ol d","Ġbe h","if e","Ġph one","Ġallow ing","Ġpre pare","Ġlead er","bo ok","Ġspe ed","Ġconsum ers","Ġbot h","g r","Ġ 3","is h","ac es","Ġfor m","Ġre ward","ut ion","Ġte ac","Ġte ach","Ġpay ment","Ġsupp ort","Ġlab an","Ġ est","Ġf re","Ġh ire","Ġg ame","Ġtr ad","Ġse as","Ġpro f","Ġad v","oug ht","Ġsuccess ful","Ġret ail","Ġweb s","Ġmil ky","Ġcod e","Ġord er","i ans","o gy","Ġt ent","at h","Ġm ach","Ġf it","ou d","Ġe at","Ġwant ed","Ġstr ate","Ġag ain","Ġgiv ing","vie w","Ġhon est","Ġconst ell","t ion","u le","Ġt est","Ġt ab","Ġm er","Ġl arge","it ing","Ġe l","ic ing","Ġstartup s","ul es","Ġch all","Ġsa as","Ġcl ose","Ġaf fect","Ġmed ical","Ġwr ong","Ġrem em","Ġchang es","Ġcomb in","Ġsav ings","s el","Ġw om","Ġp ot","Ġp ast","Ġb ible","Ġh ur","Ġre ven","ol ogy","ur ance","Ġle ave","Ġse ar","Ġdid n","Ġfe ed","Ġrec ip","Ġpartn er","Ġfund ing","Ġadvert ising","Ġresear ch","ar ly","it ive","Ġst and","il ar","Ġtr ac","Ġdoes n","Ġor bit","Ġad d","Ġfe w","Ġwill ing","Ġcons ist","Ġinvest ment","Ġfa v","Ġbo ok","Ġind ust","Ġsim ilar","Ġins urance","Ġmeas ure","Ġmult ip","Ġreven ue","i o","v ers","he l","Ġc our","Ġc osts","Ġp oss","Ġb el","er m","is s","ic ally","Ġtr ue","Ġcon f","Ġinc re","Ġcreat ing","Ġhappen ed","Ġprom ises","Ġnam es","Ġbene fits","Ġpa id","Ġremem ber","o ks","Ġs l","Ġs ing","Ġb ang","Ġd ream","Ġn ow","ess ion","Ġhe r","Ġgo ing","Ġsh op","Ġad apt","Ġgalax y","Ġproj ect","Ġnegoti ation","Ġface book","Ġbal ance","Ġmete or","Ġpot ential","t ime","Ġt urn","Ġt yp","Ġs ac","at ive","Ġc all","Ġf l","Ġf aster","Ġre ad","Ġr ules","Ġme ant","uc t","Ġwor d","Ġway s","Ġshow ing","Ġph ot","Ġsc hed","Ġar k","Ġar t","Ġloc al","Ġeff ect","Ġbigg est","Ġrepres ent","l et","s elf","Ġ king","Ġa ir","Ġs on","Ġw ife","Ġp ort","ar g","Ġl it","Ġst ore","Ġdo ct","ir ing","Ġtr ain","Ġal t","Ġhapp y","Ġconn ects","Ġhappen ing","Ġev ent","Ġcr ow","Ġtechn ology","Ġprot ect","Ġseas ons","Ġmach ine","k ah","Ġm od","Ġg l","Ġli ving","Ġre qu","Ġre nt","Ġre be","Ġr ac","Ġbe en","Ġj ud","Ġtr ip","oc ks","Ġse ed","Ġex ist","Ġexp and","Ġcol l","Ġev ents","Ġcal led","Ġincl ude","Ġtw o","Ġob j","Ġgen er","Ġprof ession","Ġfeed back","Ġrebe kah","i ke","p le","Ġ ed","Ġt reat","in es","Ġw in","Ġc ould","Ġc ount","or n","Ġf lood","om es","Ġg if","Ġy et","Ġe nd","Ġpr op","ter n","Ġv ir","Ġex t","Ġserv ant","Ġget s","Ġapp ro","Ġide as","Ġsol ar","Ġpre d","Ġent er","Ġinst ead","Ġproblem s","Ġmess age","Ġgu id","Ġdist r","Ġalt ar","o ol","w here","es us","es ts","at ures","Ġm en","on es","Ġe arly","Ġli ved","Ġre ce","Ġj esus","Ġcl oud","Ġdec ide","Ġinter n","Ġteam s","Ġoffer ing","Ġprog ress","sel ves","Ġsing le","Ġlit tle","a z","Ġs elf","Ġc ent","Ġm ot","ar k","Ġh op","ac le","Ġpr icing","Ġcom ets","Ġsc ient","Ġsol ve","Ġqu al","Ġqu est","Ġcompet ition","Ġgiv es","Ġsim ple","Ġche c","Ġconstell ations","Ġchall eng","Ġindust ry","Ġmultip le","a im","c hed","i ec","Ġ (","Ġs in","Ġp iec","Ġpr ay","Ġre view","ce ed","Ġcon c","ter m","Ġplan s","Ġthem selves","our c","our n","Ġsomet imes","Ġag ree","Ġpur ch","Ġcho ices","Ġatt ention","Ġdesign ed","Ġap art","Ġdeli very","ern acle","Ġest ate","Ġretail ers","Ġtab ernacle","Ġrac hel","b r","l ess","s er","Â ł","Ġa ud","Ġc ost","Ġto ward","ou b","Ġfor g","Ġn on","Ġn um","ce pt","Ġch arge","iz ing","Ġpay ing","Ġresp ons","enc y","Ġspend ing","Ġrecip e","Ġtrac king","Ġpred ict","Ġscient ists","a king","b ers","s w","Ġ 5","Ġ u","Ġ ve","he ad","Ġc amp","Ġi m","Ġp are","Ġm om","Ġd ail","ar m","et y","ol l","Ġmo ving","Ġte mp","Ġexp ect","Ġcl ients","Ġbl ock","orit e","Ġprovid ing","Ġegypt ians","Ġav ail","Ġdevelop ers","Ġro le","Ġeff ic","Ġproj ects","Ġident ify","Ġel se","Ġdail y","f for","r ies","u ce","Ġp os","Ġh iring","Ġin f","Ġst ations","Ġe ffor","Ġan sw","Ġv ia","Ġde f","Ġsmall er","Ġam az","Ġcommun ity","Ġhol y","Ġhol es","Ġbigg er","Ġcommunic ation","Ġ20 1","Ġem ail","Ġreg ular","c y","e gr","i ous","Ġa head","Ġw ent","Ġp ill","Ġf ast","Ġf ull","Ġd ark","Ġg ot","Ġg old","Ġst op","Ġre ach","Ġan other","Ġwor ds","iv es","iv en","Ġlo an","Ġad am","Ġsay ing","Ġcl aim","Ġint egr","Ġinc ome","Ġacc ounts","Ġstr ugg","Ġprom ise","Ġdis c","enc es","bo ard","Ġro ad","Ġmat ter","Ġstud ents","Ġexpl ain","Ġstep s","Ġavail able","a ir","c are","o le","p ar","r ied","t ual","at or","Ġm in","Ġm ass","Ġm iss","Ġh omes","al e","le x","Ġwor th","ab or","ab ility","ch ain","Ġas king","Ġlo ans","em s","Ġinter act","Ġinvest ing","ap e","Ġcare ful","Ġunderstand ing","Ġpat ient","Ġvis it","Ġvalu es","Ġra ised","Ġrelationship s","Ġincre ase","Ġeffic ient","r oss","u es","Ġ 4","in s","Ġs ub","Ġc ities","Ġp u","Ġp le","er tain","Ġf ire","Ġf ix","it or","as es","Ġli ves","Ġcan d","Ġj ourn","and s","Ġde p","Ġbuild s","Ġac ross","Ġte xt","Ġinv ent","Ġsc ore","âĢĿ .","Ġinvest ments","Ġgrow th","Ġcreat ed","Ġjob s","Ġrel i","led ge","Ġfound ers","Ġpower ful","Ġcho ose","Ġtrans pare","Ġcommunic ate","Ġconsist ent","Ġposs ible","Ġeffect ive","Ġcoll abor","a an","f ol","l ing","p ro","Ġs ar","Ġs ide","Ġc e","Ġd ivers","Ġg am","Ġst ation","il y","os ing","Ġcan aan","ter oid","ut e","Ġas teroid","Ġbec ome","Ġimport ance","ven ant","Ġen er","cr ip","Ġhand le","Ġautom at","Ġlaun ch","Ġrun ning","Ġbre ak","Ġrestaur ants","Ġeclip ses","Ġdev ices","Ġtrad ition","Ġwebs ite","Ġcrow d","Ġvir tual","Ġsar ah","' ll","a ut","f ace","j o","p ect","s et","v ent","z z","Ġt re","Ġw al","Ġw is","Ġc aus","Ġc ry","Ġp ub","Ġis s","Ġcom ing","Ġhelp ed","Ġcomp let","Ġgo og","Ġsh ort","Ġman ag","Ġv ent","iv id","Ġbr ight","Ġmar s","Ġshow ers","Ġsuc h","Ġsol ution","Ġco venant","Ġday s","Ġsystem s","Ġemploye e","Ġcompet itive","Ġhum an","Ġop er","Ġfollow ing","ord ing","pr ise","Ġsear ch","Ġfav orite","Ġphot os","Ġport fol","Ġchec k","Ġnum ber","Ġblock chain","Ġinvent ory","Ġener gy","Ġgoog le","' m","a ke","a ign","e al","e red","f ic","i or","Ġs um","Ġm us","Ġm ount","Ġd est","Ġg as","od y","ir c","ur ity","Ġus er","Ġle vel","ren g","ra id","Ġch ain","Ġex c","ch ool","Ġun c","our ce","Ġfe atures","ire ment","Ġaf raid","Ġfamil ies","igh ts","Ġund er","Ġev il","Ġcompet e","Ġgiv en","Ġpat ients","Ġdis co","Ġmess aging","Ġgu ide","Ġlisten ing","mer ce","Ġrestaur ant","Ġdet erm","Ġopt ions","Ġteac hes","Ġfre el","Ġhur t","Ġdoct ors","Ġtoward s","b ot","c ul","c ome","e y","i pp","r uct","u ter","y s","Ġs w","Ġp ull","re t","Ġb it","Ġb illion","Ġre le","Ġbu ying","Ġus ually","act ors","Ġen jo","Ġinvest ors","Ġkeep ing","Ġgrow ing","Ġhealth care","Ġevery one","Ġcal m","Ġret irement","Ġdevelop ment","Ġatt r","Ġcontr ol","Ġbless ing","Ġeclip se","Ġchat bot","Ġsac r","Ġqual ity","Ġaud ience","Ġcamp aign","Ġmom ent","Ġautomat ically","Ġmus ic","e x","g n","l ight","r om","Ġs k","Ġs low","Ġc ut","Ġp it","Ġf il","Ġh osp","Ġh ole","le ct","Ġst reng","Ġit ems","Ġne ver","Ġle a","Ġle ft","Ġv ers","Ġmo vie","Ġsa f","ket s","Ġwork ers","Ġlearn ed","Ġown ers","Ġeas ily","Ġsuc ceed","Ġshare d","Ġany one","Ġcal cul","Ġ1 0","Ġfound er","Ġper form","Ġautom ate","Ġsec urity","Ġask ed","Ġtelescop e","Ġmem bers","Ġdeli ver","Ġanaly z","Ġass ist","Ġred uce","Ġsched ule","Ġappro ach","Ġguid ance","Ġcent er","Ġchalleng es","Ġansw er","Ġclaim s","Ġpu zz","Ġtradition al","Ġpuzz le","c hes","r uit","Ġt ree","Ġs ent","Ġf ac","Ġl ower","Ġo pp","et h","Ġst ream","Ġpr iv","Ġth ought","Ġma int","Ġhelp ful","Ġbe aut","Ġpe ace","Ġpart y","Ġsmart ph","Ġfinanc es","Ġpartners hip","Ġmista ke","Ġtal king","Ġorgan iz","Ġbur n","Ġbill s","com merce","Ġeng ine","Ġstrate g","Ġjud ah","Ġprofession als","Ġquest ions","Ġsub s","Ġasteroid s","Ġenjo y","b orn","d om","i ences","n ts","r al","Ġs ky","Ġc ap","Ġc irc","Ġb ra","Ġf un","Ġl arg","Ġin de","Ġst ock","Ġpl aces","Ġtr oub","Ġare a","Ġcon vers","Ġv ar","Ġse par","ard en","Ġac cept","Ġup set","Ġsee k","act ions","Ġknow ledge","Ġfocus ing","Ġacc ording","Ġfa ith","Ġdecis ion","Ġconnect ing","Ġret urn","Ġrem ind","Ġmon itor","Ġvis ual","Ġloc ation","Ġchang ing","Ġlaun ched","Ġdirect ly","Ġang ry","Ġpres ent","Ġpres ence","Ġstrate gy","Ġgl ob","Ġobj ects","Ġu k","Ġpare nts","Ġjourn ey","Ġsacr if","b ol","f act","k ay","m it","m bol","o ot","o ice","p s","Ġs ize","Ġs chool","an n","Ġb read","Ġto p","Ġto ok","Ġd ie","ou ts","Ġo kay","Ġg arden","Ġe ph","Ġn ur","Ġn av","ir es","Ġpl ant","Ġr ates","Ġr ock","Ġcomp uter","ant ly","her s","if ying","Ġwor ried","Ġas ks","Ġk id","Ġnew s","ib ility","Ġinter ests","ang u","Ġsy mbol","Ġrec ruit","end ing","Ġwr ite","Ġpat tern","Ġind ia","Ġind ivid","Ġro om","Ġact ions","Ġsec ure","Ġcard s","Ġtal ks","Ġvalu able","Ġmeet ing","Ġcolle ct","renc es","Ġplay ing","Ġbeh av","Ġwom en","Ġcount ries","Ġdistr ib","Ġmot iv","Ġreli able","Ġtranspare nt","Ġportfol io","Ġdeterm ine","Ġattr act","Ġstreng th","Ġsubs crip","Ġnav ig","a pp","g ar","p ers","r s","u ff","in ing","at s","re en","Ġm ent","Ġd au","Ġl ink","Ġl angu","Ġg ain","Ġst ocks","Ġe y","Ġth in","Ġr ule","Ġtr ut","Ġha gar","Ġsp ot","Ġyour self","Ġle nd","Ġv ie","Ġv oice","Ġapp lic","Ġgood s","Ġcl os","Ġdif fic","Ġen ough","Ġco f","Ġemploy ers","Ġcle an","Ġtell ing","Ġam ount","Ġvide os","ak er","Ġban ks","Ġtal k","Ġstor es","renc y","Ġprepare d","Ġwom an","Ġbel ieve","Ġtyp e","Ġcand id","Ġgam es","Ġcry pt","Ġbehav ior","Ġtrut h","Ġvie w","Ġdiffic ult","a el","c ting","d o","i el","i ver","i um","l u","s h","s hip","u mp","he n","at ure","Ġc or","Ġc ame","Ġp ol","Ġp ain","Ġm ic","Ġm ention","Ġd one","Ġh ig","Ġy um","ac ec","Ġre as","id d","Ġstart ed","Ġan c","Ġsp acec","if ul","are d","ra ft","ab les","ist ic","Ġbet a","ag ram","Ġfir m","Ġhard en","Ġcreat or","Ġbo oks","Ġinst ruct","Ġinst agram","Ġresp ond","Ġwr iting","Ġla w","Ġact ive","Ġexper iences","Ġorgan ize","Ġrepres ents","Ġra ise","Ġreward s","Ġcombin ator","Ġtrain ing","Ġenter prise","Ġagree ment","Ġinf lu","Ġmin im","Ġglob al","Ġyum on","Ġspacec raft","g h","g or","l er","Ġ ing","Ġs ite","Ġc am","Ġp et","Ġp op","Ġb all","Ġb oss","Ġb lood","Ġf all","Ġto ld","Ġto uch","Ġd ied","Ġl am","ow ered","Ġe ve","Ġe qu","Ġe mer","Ġfor ward","Ġhe ad","ec ess","Ġon ce","Ġj eth","ation al","Ġwe ar","Ġmo ves","iv ing","iv ity","Ġta x","Ġsa id","Ġexp lo","Ġcl ot","ire d","Ġknow ing","ile d","anc t","Ġcur tain","Ġsol ving","Ġco ver","Ġrec og","Ġfeel s","red ients","Ġpo or","Ġkind s","Ġautom ated","Ġnet wor","Ġearn ing","Ġnam ed","Ġem ot","Ġdev ice","Ġbeh ind","Ġwebs ites","Ġsl ack","Ġgif t","Ġpurch ase","Ġeffor t","Ġdef ine","Ġamaz on","Ġpill ar","iven ess","Ġstrugg le","Ġwal k","Ġvent ure","Ġsmartph one","Ġinde ed","Ġcof fe","Ġing redients","Ġjeth ro","Ġcurtain s","Ġrecog n","2 0","f er","h m","h y","l ike","p owered","u fact","y c","Ġ 8","in ation","Ġs an","Ġs it","Ġs ense","Ġw arm","Ġc at","Ġc ars","Ġp ar","Ġp un","er r","Ġf ul","om m","us ed","Ġis hm","Ġo il","Ġcom es","Ġli f","Ġli mit","Ġth ree","Ġon es","Ġcomp rom","Ġsh all","Ġsp ir","Ġsp aces","Ġal ign","oc er","Ġle ah","Ġman ufact","Ġse en","ell ig","ort un","Ġnot hing","um c","Ġneed ed","Ġgr ocer","Ġpart s","Ġcomm and","Ġsc ale","Ġrec omm","Ġmed ic","Ġdeb ts","Ġany thing","Ġdevelop ing","Ġrem ot","Ġes c","Ġper fect","Ġsal e","Ġspe ak","Ġfar m","Ġlaun ching","amp le","Ġexpl or","Ġmem ber","Ġfre ed","Ġsin ce","Ġtemp er","Ġregular ly","Ġ4 0","Ġple ase","Ġcollabor ate","Ġassist ant","Ġopp ortun","Ġbeaut iful","Ġsacrif ice","Ġcandid ates","Ġanc ient","Ġinstruct ions","Ġemer g","Ġexplo re","Ġcoffe e","Ġishm ael","c ts","d r","i ate","n er","o ver","r ic","t e","t ics","u ge","y le","Ġ outs","Ġt ic","Ġt able","Ġt ilt","Ġs ad","Ġc ause","re m","Ġb as","er t","or m","Ġf ig","Ġf ore","Ġto y","Ġh r","Ġh it","Ġh uge","Ġg ave","le br","is co","il ities","Ġfor ce","ion al","id es","Ġr ob","Ġsh ipp","Ġsp read","Ġfr uit","oc ur","ver n","Ġse ven","Ġex ch","Ġimp act","ie v","Ġat m","Ġgr ound","Ġpart ic","Ġint ellig","Ġinter face","Ġsol id","ap er","Ġbuy ers","Ġfound ed","Ġpersonal ized","Ġhand s","Ġang els","Ġmonth ly","Ġanaly s","Ġanaly tics","Ġsur v","Ġgroup s","Ġopt im","Ġmer cy","Ġmod el","Ġpiec e","Ġpiec es","Ġ5 0","Ġexpect ations","Ġce lebr","Ġcomplet e","Ġdisco ver","Ġcampaign s","Ġpriv ate","Ġmaint ain","Ġvar i","Ġcrypt ocur","Ġharden ed","Ġcomprom ise","Ġfreed om","Ġintellig ence",". âĢĿ","b y","d ay","g in","i an","k ed","l ines","o ke","o int","r oll","t he","v est","Ġ ess","Ġs anct","Ġw a","Ġc her","Ġb ab","Ġb ody","Ġm or","Ġm aster","Ġf ight","Ġh our","Ġl ate","us e","is ter","is hed","Ġst ones","ow s","as ing","Ġpr act","Ġwith in","id ing","id ent","Ġr out","Ġr ide","Ġr ather","Ġr iver","Ġgo vern","Ġab ility","Ġfr anc","ad e","Ġmean ing","ial s","Ġex ample","de mand","ie f","Ġcont in","Ġcreat ive","Ġfin ance","Ġag ents","Ġrel ate","Ġtell s","Ġfeel ing","Ġreal istic","Ġlong er","Ġconnect ed","Ġconnect ion","Ġprom ot","Ġ1 00","Ġpat h","Ġsim pl","Ġvis ion","Ġact ually","Ġach iev","Ġtw it","Ġnegoti ate","Ġmonth s","Ġbill ions","Ġagain st","Ġtest ing","Ġcour se","Ġread ing","Ġart ists","Ġobj ect","Ġgif ts","Ġrece ive","Ġintern et","ourc es","Ġcaus es","Ġpub l","Ġiss ues","Ġsum mer","Ġlea ving","Ġsaf ety","Ġperform ance","Ġorganiz ations","Ġstrateg ies","Ġcap ital","Ġpattern s","Ġsubscrip tion","Ġreas on","Ġinflu enc","Ġspaces hip","Ġrecomm end","Ġfig ure","Ġatm osp","Ġanalys is","Ġess ential","Ġfranc isco","Ġachiev able","' ve","a ven","e k","f air","l i","o ff","z y","Ġ -","Ġ Ċ","Ġt in","Ġs ource","Ġp ost","Ġp ict","re c","Ġb ike","er c","on om","or ds","Ġh ist","Ġst ate","Ġst ub","Ġe ating","ac ts","ac hing","Ġdo or","Ġn ecess","Ġth ough","Ġma p","Ġme al","Ġgo es","un e","Ġne ar","Ġab le","Ġsh ape","Ġcon fe","ut ions","Ġta il","Ġapp rec","Ġmarket s","Ġcl ass","Ġinv ol","ro y","Ġsell s","Ġsup er","Ġfail ing","Ġcreat es","Ġag o","ub er","ub im","Ġcol ors","Ġpri est","Ġbo ard","Ġshe l","Ġbudget ing","Ġstud ent","Ġcontr actors","Ġap i","Ġbur ied","Ġstor ies","Ġadv ant","Ġmer ch","Ġcour ses","Ġcall s","Ġprofession al","Ġext rem","Ġconc ern","Ġdest roy","Ġunc ertain","Ġfreel anc","ral ized","Ġtroub le","Ġplant ing","Ġlangu age","Ġthin king","Ġhig her","Ġpop ular","Ġexch ange","Ġcher ubim","Ġtin y","b s","b ath","c ur","l a","t ions","w ort","Ġ z","Ġ ens","Ġs at","Ġs ab","Ġs uit","Ġs ugg","Ġw ar","Ġc ertain","Ġb on","er ing","or ts","Ġf ly","Ġd ash","Ġh ar","it ors","is ion","Ġdo c","ic ks","ir d","Ġr ate","Ġcan n","Ġbe gin","Ġpe er","ur al","Ġsh ine","Ġcon dit","Ġv ac","Ġde ad","Ġwe ak","Ġch ar","Ġch ance","Ġbr ings","Ġbr ought","Ġmar k","Ġun ex","Ġph ys","ens ive","Ġpers pect","ore d","Ġpre vent","ap es","Ġrel ax","Ġprovid ers","Ġany where","Ġwr it","Ġhigh light","Ġclear ly","Ġinform ed","Ġwat ch","Ġhol d","Ġshe m","Ġsec ond","Ġdist ance","Ġdr ivers","Ġadvert ise","Ġhon or","Ġident ity","Ġeng age","Ġsear ching","Ġexist ing","Ġrece iv","Ġhop e","Ġcareful ly","Ġwis dom","Ġhosp ital","Ġcalcul ated","Ġcirc umc","Ġmotiv ated","Ġnavig ate","Ġcam er","Ġclot hes","Ġsit u","Ġmanufact ure","Ġvari ety","Ġtwit ter","Ġatmosp here","wort hy","Ġsab bath","b u","e ous","f und","h ic","m ing","p e","p ing","Ġ ur","Ġ uber","in ts","in ter","he nt","Ġs le","Ġs ets","Ġw all","Ġw ise","at er","Ġc ain","Ġb ar","Ġb aker","or k","Ġto ug","ar ies","Ġh ous","Ġl ord","le ch","Ġst ead","Ġn ic","Ġpr os","el t","op er","Ġr ound","Ġne igh","Ġab ime","Ġv en","Ġde als","Ġse vent","Ġch ann","Ġplatform s","Ġserv ants","Ġbr ok","Ġfe e","Ġfe ar","ĠâĢ ĵ","Ġsc reen","Ġstr ang","Ġen ables","Ġkeep s","Ġhim self","Ġtrust worthy","ght ers","Ġrep ort","Ġfeel ings","Ġbo x","Ġfound ation","enc ies","Ġtas k","Ġcho osing","Ġprofit able","Ġsec ret","Ġtrans actions","Ġhot el","Ġlet ting","Ġins ide","Ġconsum er","Ġcod ing","Ġdr ive","Ġdirect ion","Ġmeet ings","Ġcolle cting","Ġbal anc","Ġput ting","Ġconsist ency","Ġfav or","Ġconf lic","Ġdoct or","Ġprop os","Ġmot ion","Ġapart ment","Ġrespons ible","Ġve hic","Ġelse where","Ġpos ition","Ġeffor ts","Ġfast est","Ġmass ive","pect ed","Ġmanag ers","Ġpit ch","Ġanalyz e","Ġlarg er","Ġsepar ate","pers on","Ġdau ghters","Ġesc ape","Ġfarm ers","Ġexplor ation","Ġtic kets","Ġsurv ive","Ġhour s","Ġspaceship s","Ġstub born","Ġadvant age","Ġdash board","Ġcondit ions","Ġunex pected","hent ic","Ġtoug h","Ġneigh b","Ġabime lech","3 0","5 00","c ast","f ill","g s","g er","k en","m ed","m art","r ing","u als","v ant","Ġt v","in ting","Ġs ix","Ġc ult","Ġp il","Ġp ick","Ġb ase","Ġm ill","Ġm ut","Ġm other","er ic","or r","or ies","Ġd i","Ġd ra","Ġh und","Ġl ack","Ġl ose","Ġl ast","Ġl ost","it ude","Ġst ability","Ġy ork","Ġth ous","Ġth ird","Ġre n","Ġre ub","ith m","Ġbu ry","Ġma g","Ġma gn","Ġbus y","Ġha bit","Ġare as","Ġal gor","uc ial","Ġgod s","ver al","for d","if ied","Ġwor ship","Ġle g","Ġle v","Ġse veral","Ġch arg","Ġex act","Ġser ve","Ġbr ow","Ġlo ves","Ġlo oks","Ġapp oint","Ġun fair","iz es","Ġshow er","se at","Ġpay roll","Ġcl in","Ġcomm it","Ġsell ers","Ġaf ford","Ġdec ent","Ġco oking","Ġco oper","Ġrec ent","Ġtrust ing","Ġfa iled","Ġsign s","Ġam ounts","Ġam eric","Ġaut hentic","Ġcompet ing","Ġpriorit izing","Ġkind ness","Ġcho ice","Ġaim ing","Ġdesign ers","og ra","Ġstrong er","Ġgreat er","Ġnegoti ating","Ġorgan ized","Ġang el","Ġinterest ed","Ġprogram s","Ġdream s","Ġshop ping","Ġprotect ion","Ġrequ ires","Ġquest ion","Ġpray er","Ġamaz ing","Ġ201 9","Ġdisc ounts","Ġmiss ion","Ġeffective ly","Ġtre nd","Ġrele vant","Ġslow ly","Ġey e","iel d","Ġcor re","Ġful fill","Ġshipp ing","Ġcryptocur rency","Ġpract ice","Ġhist ory","Ġfreelanc ers","Ġens ure","Ġsugg est","Ġbon ds","Ġdoc u","fund ing","Ġsle ep","Ġchann els","Ġhund red","Ġreub en","Ġalgor ithm","1 0","e mp","f low","g es","j am","k now","s mart","t ers","t ub","u ly","Ġt en","Ġa ge","Ġs ound","Ġs ara","Ġs ister","Ġw on","Ġw ide","Ġw ood","Ġc yc","Ġp ack","Ġb ir","or es","Ġf lex","Ġd in","it ed","Ġo x","Ġg ent","Ġin n","as ts","Ġe ver","Ġe lect","art er","Ġyou tub","Ġhe re","ir st","Ġr ot","Ġcomp ut","Ġcomp lex","ur able","Ġan n","Ġal i","Ġal one","Ġal tern","ul ing","Ġde ath","Ġwe ather","Ġplan ts","Ġex ec","ell ing","Ġapp ly","Ġapp ear","Ġmar ry","arn ing","Ġshow ed","ĠâĢ Ķ","Ġres ources","Ġsc ience","Ġsc ary","Ġuse ful","Ġinter view","Ġsol utions","Ġlead s","Ġcreat ors","Ġag encies","Ġright eous","Ġcol d","Ġcol or","Ġhealth y","Ġback ed","Ġinst antly","pl es","ds ourc","ness es","ron ic","Ġmat er","Ġmat ch","Ġmat ches","Ġcr ucial","Ġtal ent","Ġcar ry","Ġec onom","Ġben jam","Ġmil es","Ġstud y","Ġconsider ing","Ġord ers","Ġpa ir","Ġbre ast","Ġass ets","Ġmay be","Ġteac hing","Ġorder ing","Ġread y","Ġsched uling","Ġking s","Ġtreat ed","Ġext ra","Ġchalleng ing","Ġpurch ases","ser v","Ġforg iveness","Ġim ag","Ġdep ending","pro fit","Ġdivers ify","Ġpub lic","Ġmount ain","Ġfreel ance","Ġvers ion","Ġkid s","Ġindivid ual","Ġlink ed","Ġapplic ations","Ġpol ic","idd en","Ġequ ip","Ġnetwor ks","Ġspir al","Ġopportun ities","Ġemerg ency","orm al","Ġbab y","Ġmor ning","Ġmerch ants","Ġcann ot","Ġphys ical","Ġreceiv ed","Ġmanufacture rs","Ġstead y","Ġsevent h","Ġstrang ers","Ġneighb or","Ġleg al","Ġexact ly","Ġbrow ser","Ġdecent ralized","Ġcorre ct","Ġsara i","Ġyoutub e","Ġbenjam in","5 0","a ks","b an","b all","g re","h old","i ation","j ehovah","l s","r ast","v in","v al","w ise","Ġ hat","in cts","he st","Ġs il","Ġs ens","Ġw ild","Ġw ind","Ġc oun","Ġc oup","Ġc apt","Ġc ake","re w","Ġb ow","Ġm ust","Ġm ix","on t","Ġf ash","Ġd ense","Ġl amp","Ġl osing","it er","it als","Ġg ather","Ġst a","Ġst e","Ġst ar","Ġst ra","Ġst eal","ed s","ac y","Ġyou n","Ġn ob","Ġn ormal","ay ment","Ġcom for","Ġli br","Ġli gh","up s","up iter","Ġr od","Ġj upiter","Ġsh apes","ul ts","Ġde ep","Ġde eds","Ġse a","Ġse em","Ġcre ation","fe rences","Ġpass ion","Ġlo g","Ġsa w","Ġbut ler","Ġwork flow","ib ilities","lo ad","Ġph il","ag ree","Ġsc ores","Ġfocus es","Ġen v","ific ial","Ġcreat ures","Ġrep l","ff ic","Ġinst incts","Ġresp on","Ġaut h","pl ate","Ġcompet itors","Ġtra ffic","Ġdis agree","Ġgra in","Ġhum b","Ġprocess ing","Ġact ion","Ġmat ching","Ġimpro ving","Ġdesign s","Ġcontr acts","Ġvalu ed","Ġmeas urable","Ġbur ning","Ġprogram ming","Ġsend ing","Ġheart s","Ġred uc","Ġ3 0","Ġconstell ation","Ġcombin ing","Ġrecip es","Ġconf ident","Ġart ificial","Ġmod els","Ġed om","Ġhop es","Ġreview s","Ġve nd","Ġim ages","Ġpare nt","Ġpill ars","Ġgold en","Ġinteract ive","pro fits","Ġmanag er","Ġoper ating","Ġchain s","Ġsk ill","Ġhosp itals","Ġengine ers","Ġbra ve","Ġaccording ly","Ġnur t","Ġstrength s","Ġment al","Ġlend ing","Ġlif est","Ġgrocer y","Ġmedic ation","Ġtemper atures","dr iven","Ġouts ide","Ġsanct ify","Ġpubl is","Ġnecess ary","Ġthough ts","Ġuncertain ty","Ġsuit s","inter est","Ġpil ot","Ġthous ands","Ġgent le","Ġinn ov","Ġeconom y","Ġbreast plate","Ġlinked in","Ġequip ment","Ġfash ion",", âĢĿ","a ud","c he","d igital","i os","o f","p ower","u ary","v ies","Ġ err","Ġt erm","Ġs od","Ġs ight","Ġs ites","Ġs uff","Ġw ish","Ġp od","Ġp age","Ġp ure","Ġb reat","Ġb ond","on y","or ing","Ġf art","Ġf ill","Ġf actors","Ġd om","Ġd ust","Ġd iv","Ġh ide","Ġh arm","Ġl ay","en ge","Ġo ce","le aven","is on","Ġst ick","Ġst uff","ac ter","Ġdo g","Ġfor mer","Ġn at","ve red","Ġpr ies","Ġre aching","Ġr ol","Ġr ings","im ate","ur ring","Ġtr uc","Ġha ir","out h","Ġsh ip","Ġsh ining","Ġfr aud","Ġal m","Ġcon vin","ra im","Ġmo vies","ut ation","ep end","Ġserv es","Ġlo ving","Ġun s","Ġun leaven","Ġwas hing","Ġexp ense","Ġfe es","Ġproduct ion","Ġproduct ive","Ġcomm ands","Ġsee ing","Ġres ults","Ġown er","Ġsc ar","Ġall oc","Ġinc ense","Ġacc ur","ific ations","Ġsol d","Ġco zy","Ġpre ferences","Ġrec ords","Ġhard ware","Ġfail ures","Ġgrow s","Ġits elf","Ġval id","Ġrep air","Ġrep utation","Ġbo oking","Ġcal end","Ġpo ints","Ġ1 8","Ġoffer ings","Ġind epend","Ġfund s","Ġmess ages","Ġtravel ing","Ġtravel ers","Ġdescr ip","Ġdr op","Ġident ifying","Ġmem ory","Ġbene fit","Ġass ess","Ġbless ed","Ġcolle ge","Ġrespect ful","renc ies","com es","Ġfair ly","Ġdet ect","Ġeng aging","Ġaccess ible","Ġadv ice","Ġchall enge","Ġcombin ation","Ġtrac ks","Ġadd ing","Ġbel ong","Ġproject ions","Ġsac red","Ġgl ory","Ġrequ est","Ġexpand ing","Ġgener ate","Ġintern ational","Ġforg ive","Ġim age","Ġpos itive","Ġintegr ate","Ġmiss ing","Ġefficient ly","Ġcrowd funding","Ġstream line","Ġpeace ful","Ġlarg est","Ġconvers ation","Ġremind er","Ġeph raim","Ġsymbol ize","Ġindivid uals","Ġdistrib ut","Ġdistrib ute","Ġapplic ation","Ġmic r","Ġmic ro","Ġmention ed","Ġminim um","Ġpun ish","Ġremot e","Ġgovern ment","Ġcontin ue","Ġreason able","Ġconfe rence","Ġboard s","Ġvac ation","Ġweak nesses","Ġperspect ives","Ġpropos ition","Ġcult ure","Ġmill ions","Ġappoint ments","Ġunfair ly","emp loy","Ġcyc le","Ġcomput ers","Ġaltern ative","Ġcomfor t","Ġlibr ary","Ġligh ts","Ġrepl ace","Ġrespon se","Ġauth or","Ġlifest yle","Ġsod om","Ġpries ts","Ġunleaven ed","Ġindepend ent","c ent","e w","f irst","g ins","k it","l it","o ve","p ort","r i","r ics","s c","s ive","s ized","u el","Ġ 9","Ġ et","Ġs ust","Ġs ort","Ġs ime","Ġs qu","Ġw el","Ġw ond","at ely","Ġc a","Ġc ase","Ġi gn","Ġp aper","Ġb ound","Ġb orn","Ġb orr","Ġm is","Ġm id","Ġf le","Ġf ile","Ġf urn","Ġf oot","Ġf elt","Ġto day","Ġd ue","Ġd oub","om s","Ġh ass","Ġl y","Ġl ed","Ġl un","Ġl ine","Ġl ater","en ance","Ġg ig","Ġe le","Ġe ld","Ġhe ard","Ġon board","ig in","os ed","os ting","Ġbu l","Ġbu gs","Ġr are","am ples","Ġwh ite","Ġcomp ound","Ġus age","ce nd","Ġsp are","Ġal ong","pp ing","Ġor igin","for ce","Ġwor ry","Ġwhe ther","Ġde m","Ġwe ight","Ġex ists","Ġex amples","iv ities","ell ent","Ġas ide","Ġpass over","Ġlo ved","Ġsa ved","Ġmar ried","um b","Ġexp ensive","Ġneed ing","Ġshow c","Ġfe ature","Ġwho le","Ġsmall est","Ġbet h","Ġph ones","Ġcl ient","Ġproduct ivity","Ġout come","Ġup d","Ġinv o","act ion","Ġknow n","anc es","Ġdes k","Ġdes cend","Ġfam ine","Ġstr uct","Ġar r","Ġen c","Ġen em","Ġcur rency","Ġpre p","Ġrec urring","Ġover come","Ġlead ing","Ġtrust ed","Ġmed ium","Ġrep ayment","Ġfriend ly","Ġam ong","Ġbo il","Ġent ire","ier ge","Ġsoc kets","Ġpat ience","Ġmon et","Ġprocess es","Ġact ivity","Ġact ivities","Ġ2 5","Ġautom ation","ict ion","Ġtrans fer","Ġchang ed","Ġanim al","Ġmil k","Ġdist ant","Ġentrepreneurs hip","Ġdr iving","Ġmove ment","Ġcompare d","Ġche aper","Ġsur face","Ġbill ing","Ġmete ors","Ġgen u","Ġmind ful","Ġteac hers","Ġfit ness","Ġorbit s","Ġsl a","Ġtyp es","Ġfl ights","Ġking dom","Ġevent ually","Ġcrow dsourc","Ġrequ ire","Ġrent als","Ġed uc","Ġwin ter","Ġwin ning","Ġcount ry","Ġprop er","Ġvir al","Ġdistr actions","Ġhop ing","Ġconc ierge","Ġfix ing","Ġdep end","Ġwis ely","Ġiss ue","Ġvent ures","Ġsum m","Ġexc ellent","Ġpull s","Ġbit co","Ġsent ence","Ġrecruit ing","Ġroom s","Ġey es","Ġball s","Ġemot ional","Ġremot ely","Ġfruit ful","Ġpartic ular","ief s","Ġinfluenc ers","Ġpict ures","Ġtail s","Ġextrem e","la w","Ġhar vest","Ġchar acter","Ġwrit ten","Ġcircumc ised","Ġcamer a","Ġsitu ation","pe er","Ġwall et","Ġhabit s","Ġlev i","Ġdocu ments","Ġflex ible","Ġnob ody","Ġhumb le","Ġvend ors","Ġnat ural","Ġconvin ce","Ġuns ure","Ġsime on","Ġhass le","a id","b and","d en","f ound","g ets","h ood","h app","i od","l ife","m ap","n cy","p er","p ec","r at","r iend","s oc","t il","t ech","y ond","Ġt am","Ġt ur","Ġt ests","Ġt ired","Ġa lex","in ary","Ġs n","Ġs ect","at itude","Ġp ace","Ġp oll","Ġb ay","Ġb ars","Ġm ir","Ġm idd","Ġf ed","Ġf our","Ġf lo","Ġf act","Ġd w","Ġd am","Ġh osting","Ġl ic","al u","al el","Ġo c","Ġo be","Ġg i","Ġg ar","Ġst age","Ġst one","Ġy c","ac ing","ac ia","ic ians","ent y","ir on","Ġcom et","Ġre ve","Ġr ocks","am ed","Ġma j","Ġcomp re","ol id","ol og","Ġlike ly","Ġbe yond","Ġtr ial","Ġne pt","Ġsp in","Ġsp oke","Ġman ass","Ġv i","ial ly","Ġwe ek","Ġch iefs","Ġex ceed","Ġex cept","Ġex erc","ist ics","ut es","ch arge","Ġser ies","Ġta ken","Ġbec omes","Ġapp le","Ġapp eal","ight ly","Ġmar gins","Ġun happ","Ġun til","iz ation","Ġac qu","Ġac acia","ide red","um e","Ġwas te","Ġexp ress","Ġmanage able","Ġwork ed","Ġgr atitude","Ġlearn s","lo g","Ġoff ice","Ġout comes","Ġcomm erc","Ġsee king","Ġcons ult","Ġcons ump","Ġcons olid","Ġcons idered","Ġsc ared","Ġaf f","Ġdec or","Ġstr ess","Ġbl ue","Ġbrand ed","Ġsol ves","Ġco ok","Ġco vered","Ġemp ath","Ġpre fer","Ġrec k","Ġrec ord","Ġover all","Ġlist ings","Ġcle ver","Ġbo ost","Ġcredit ors","Ġinst all","Ġev alu","Ġcal f","Ġ1 5","bo x","Ġper iod","Ġfollow ed","Ġwat ers","Ġmess eng","Ġban king","Ġshe ep","Ġwell ness","oun ting","Ġmet h","Ġhot els","Ġmult it","Ġinterest ing","Ġref le","Ġsend s","Ġleaders hip","Ġtarget ing","Ġstor m","Ġdet ail","Ġform s","Ġtest im","Ġmer cur","iss ion","Ġshop pers","Ġtyp ically","Ġcall ing","Ġphot ogra","Ġeffect iveness","Ġport ion","Ġcould n","Ġappro val","Ġchec king","Ġrespons ibilities","Ġtemp l","Ġexpect ed","Ġansw ers","Ġdef ining","Ġemail s","Ġdark ness","Ġintegr ated","Ġdisc ount","Ġfix ed","Ġtranspare ncy","Ġcollabor ation","Ġcrowd ed","Ġcaus ed","Ġoper ations","Ġdest ination","Ġexc iting","Ġdisco very","Ġfil led","Ġanalyz ing","Ġstrateg ic","Ġenjoy able","Ġvisual ize","oot h","Ġrock y","Ġdau gh","Ġclos est","sh aring","Ġactive ly","Ġlam ech","Ġtax es","Ġnetwor king","Ġrecogn ition","Ġ8 0","Ġpun ished","Ġalign s","Ġgrocer ies","Ġtemper ature","Ġrob ot","Ġoptim ize","Ġsimpl ify","Ġrecommend ations","Ġstate ment","Ġapprec iation","Ġfly ing","Ġhospital ity","Ġnic he","Ġconflic ts","Ġvehic les","Ġrecent ly","Ġhundred s","Ġpack ages","Ġrot ation","Ġali ens","serv ice","ban ked","Ġenv iron","Ġdiv ide","Ġrol es","Ġdescrip tion","employ ed","Ġbound aries","Ġborr ow","Ġlun ar","Ġdescend ants","Ġgenu ine","Ġtam ar","Ġnept une","Ġmanass eh","Ġunhapp y","Ġcommerc ial","Ġconsump tion","Ġempath y","Ġmercur y","Ġdaugh ter","1 00","b n","b ay","c l","c ket","e at","e xt","f ocus","f riend","g en","h ome","l ish","m in","n a","n y","o inting","p ent","p red","r up","r ial","s ource","t on","t ed","y ard","y ield","z alel","Ġt im","in vest","Ġs lo","Ġs now","Ġc ate","Ġc hes","Ġi p","Ġp osts","Ġb i","Ġb il","Ġb aking","Ġm ort","er v","er ve","er ts","er ness","Ġto wn","Ġto ler","ar es","Ġh am","Ġh ang","Ġh iding","Ġl oss","Ġl enses","al th","al ity","it ch","Ġg ir","Ġg os","Ġg one","Ġg osp","Ġst ret","Ġe bay","ac ting","Ġdo ll","od uce","Ġpr a","Ġpr ess","Ġpr ison","Ġpr oduce","Ġli kes","el er","el ess","el ine","Ġre ly","Ġre charge","id ge","id ence","os es","os en","Ġbu cket","Ġpl enty","Ġr am","Ġcan ad","Ġwh ose","Ġstart s","Ġbe zalel","Ġj eal","Ġtr ick","Ġtr uly","un ch","Ġan ointing","Ġsp lit","uc k","Ġcon se","Ġcon cess","oc h","oc ol","ate ful","Ġcustom ized","Ġle ver","Ġle ast","Ġman ages","Ġman na","Ġv ol","Ġv ict","Ġse es","Ġwe alth","Ġmo od","Ġch ose","Ġch ronic","Ġch osen","ass es","Ġsm oke","ab ase","all ow","Ġbec ame","th r","Ġapp ears","Ġnot es","Ġnot ifications","qu ences","Ġmarket ers","Ġfe et","Ġgr ad","Ġgr ateful","Ġcl icks","Ġoff ices","Ġtool kit","Ġup load","Ġdiffe rences","act ive","Ġsc an","Ġris e","âĢĿ ,","anc y","Ġacc ounting","Ġfam ous","Ġdec iding","Ġbl u","Ġen och","Ġsy n","Ġdat abase","Ġpre m","Ġpre par","Ġhard er","Ġhard ship","Ġlist ing","Ġfail s","Ġgrow n","Ġstay ing","ap s","Ġsun light","Ġag gre","Ġam ale","Ġless ons","Ġback yard","Ġprom ised","Ġ1 3","ak ed","Ġvis ible","Ġper cent","Ġpersonal ity","Ġwat ching","Ġmat ters","Ġatt ac","Ġatt ack","Ġatt end","Ġexper t","les h","Ġprofit s","Ġneg ative","Ġspe aking","og s","Ġmet rics","Ġtrans port","Ġgreat est","Ġimprove ments","Ġorgan izing","Ġdr ink","Ġrun s","Ġold er","Ġche ap","Ġsur prise","Ġref lect","Ġref use","Ġstor ing","pr ises","Ġcomb ine"]}}