{"version":"1.0","truncation":null,"padding":null,"added_tokens":[{"id":0,"content":"<PAD>","single_word":false,"lstrip":false,"rstrip":false,"normalized":false,"special":true},{"id":1,"content":"<BOS>","single_word":false,"lstrip":false,"rstrip":false,"normalized":false,"special":true},{"id":2,"content":"<EOS>","single_word":false,"lstrip":false,"rstrip":false,"normalized":false,"special":true},{"id":3,"content":"<UNK>","single_word":false,"lstrip":false,"rstrip":false,"normalized":false,"special":true},{"id":4,"content":"{","single_word":false,"lstrip":false,"rstrip":false,"normalized":false,"special":true},{"id":5,"content":"}","single_word":false,"lstrip":false,"rstrip":false,"normalized":false,"special":true},{"id":6,"content":"[","single_word":false,"lstrip":false,"rstrip":false,"normalized":false,"special":true},{"id":7,"content":"]","single_word":false,"lstrip":false,"rstrip":false,"normalized":false,"special":true},{"id":8,"content":":","single_word":false,"lstrip":false,"rstrip":false,"normalized":false,"special":true},{"id":9,"content":",","single_word":false,"lstrip":false,"rstrip":false,"normalized":false,"special":true},{"id":10,"content":"\"","single_word":false,"lstrip":false,"rstrip":false,"normalized":false,"special":true},{"id":11,"content":"\n","single_word":false,"lstrip":false,"rstrip":false,"normalized":false,"special":true}],"normalizer":{"type":"Sequence","normalizers":[{"type":"NFC"},{"type":"Lowercase"}]},"pre_tokenizer":{"type":"ByteLevel","add_prefix_space":true,"trim_offsets":true,"use_regex":true},"post_processor":{"type":"TemplateProcessing","single":[{"SpecialToken":{"id":"<BOS>","type_id":0}},{"Sequence":{"id":"A","type_id":0}},{"SpecialToken":{"id":"<EOS>","type_id":0}}],"pair":[{"SpecialToken":{"id":"<BOS>","type_id":0}},{"Sequence":{"id":"A","type_id":0}},{"SpecialToken":{"id":"<EOS>","type_id":0}},{"Sequence":{"id":"B","type_id":1}},{"SpecialToken":{"id":"<EOS>","type_id":1}}],"special_tokens":{"<BOS>":{"id":"<BOS>","ids":[1],"tokens":["<BOS>"]},"<EOS>":{"id":"<EOS>","ids":[2],"tokens":["<EOS>"]}}},"decoder":{"type":"ByteLevel","add_prefix_space":true,"trim_offsets":true,"use_regex":true},"model":{"type":"BPE","dropout":null,"unk_token":null,"continuing_subword_prefix":null,"end_of_word_suffix":null,"fuse_unk":false,"byte_fallback":false,"ignore_merges":false,"vocab":{"<PAD>":0,"<BOS>":1,"<EOS>":2,"<UNK>":3,"{":4,"}":5,"[":6,"]":7,":":8,",":9,"\"":10,"\n":11,"!":12,"$":13,"%":14,"&":15,"'":16,"(":17,")":18,"*":19,"+":20,"-":21,".":22,"/":23,"0":24,"1":25,"2":26,"3":27,"4":28,"5":29,"6":30,"7":31,"8":32,"9":33,";":34,"<":35,"=":36,">":37,"?":38,"@":39,"_":40,"`":41,"a":42,"b":43,"c":44,"d":45,"e":46,"f":47,"g":48,"h":49,"i":50,"j":51,"k":52,"l":53,"m":54,"n":55,"o":56,"p":57,"q":58,"r":59,"s":60,"t":61,"u":62,"v":63,"w":64,"x":65,"y":66,"z":67,"¢":68,"¦":69,"©":70,"µ":71,"Â":72,"Ã":73,"Ï":74,"â":75,"Ċ":76,"Ġ":77,"Ģ":78,"Ħ":79,"Ĩ":80,"ī":81,"Ĵ":82,"ĵ":83,"Ķ":84,"Ĺ":85,"ĺ":86,"Ļ":87,"ľ":88,"Ŀ":89,"ł":90,"Ġt":91,"he":92,"Ġa":93,"in":94,"Ġs":95,"Ġthe":96,"re":97,"Ġw":98,"ed":99,"Ġo":100,"er":101,"nd":102,"ing":103,"Ġb":104,"Ġf":105,"Ġe":106,"Ġc":107,"ar":108,"ou":109,"it":110,"en":111,"at":112,"Ġhe":113,"on":114,"Ġto":115,"Ġl":116,"Ġd":117,"Ġp":118,"st":119,"Ġm":120,"or":121,"Ġh":122,"Ġof":123,"Ġand":124,"ll":125,"Ġin":126,"es":127,"an":128,"Ġher":129,"Ġth":130,"ow":131,"is":132,"om":133,"Ġn":134,"Ġshe":135,"al":136,"Ġg":137,"Ġbe":138,"Ġu":139,"ac":140,"Ġel":141,"Ġre":142,"as":143,"ly":144,"ld":145,"ic":146,"Ġon":147,"ent":148,"ro":149,"ut":150,"Ġwit":151,"gh":152,"ver":153,"Ġli":154,"Ġwith":155,"et":156,"Ġst":157,"ve":158,"id":159,"ill":160,"ad":161,"ara":162,"ur":163,"Ġwh":164,"ec":165,"Ġelara":166,"se":167,"Ġit":168,"ag":169,"le":170,"ion":171,"im":172,"ir":173,"Ġas":174,"am":175,"ay":176,"ot":177,"red":178,"ok":179,"ain":180,"Ġthat":181,"Ġfor":182,"Ġv":183,"ee":184,"rou":185,"Ġwas":186,"ure":187,"ght":188,"Ġy":189,"Ġan":190,"Ġk":191,"ore":192,"ce":193,"Ġne":194,"ri":195,"and":196,"her":197,"Ġint":198,"all":199,"Ġbut":200,"Ġj":201,"Ġle":202,"rom":203,"Ġun":204,"Ġyou":205,"ge":206,"Ġex":207,"qu":208,"ind":209,"Ġsp":210,"ers":211,"Ġfrom":212,"Ġtr":213,"Ġsh":214,"âĢ":215,"iz":216,"Ġthey":217,"Ġkn":218,"Ġal":219,"Ġwill":220,"od":221,"Ġwor":222,"ap":223,"led":224,"if":225,"Ġwe":226,"ation":227,"ch":228,"Ġby":229,"Ġhad":230,"ust":231,"ould":232,"Ġone":233,"art":234,"Ġcon":235,"Ġwhe":236,"out":237,"ved":238,"Ġab":239,"Ġnot":240,"ity":241,"Ġwho":242,"Ġch":243,"ect":244,"age":245,"il":246,"um":247,"ous":248,"aint":249,"ome":250,"Ġen":251,"ess":252,"ard":253,"ul":254,"Ġup":255,"ound":256,"Ġtre":257,"ate":258,"lo":259,"Ġwillow":260,"th":261,"Ġ\"":262,"Ġso":263,"per":264,"ant":265,"wn":266,"rook":267,"brook":268,"Ġwillowbrook":269,"'s":270,"ned":271,"Ġlo":272,"our":273,"very":274,"ke":275,"Ġtheir":276,"Ġknow":277,"el":278,"hed":279,"Ġinto":280,"ood":281,"Ġr":282,"ies":283,"rough":284,"Ġthrough":285,"ong":286,"Ġ-":287,"Ġar":288,"un":289,"one":290,"co":291,"ter":292,"ame":293,"Ġqu":294,"Ġor":295,"nder":296,"op":297,"Ġat":298,"ave":299,"ach":300,"ight":301,"ace":302,"Ġsee":303,"Ġthis":304,"sel":305,"den":306,"fe":307,"ide":308,"Ġhis":309,"ist":310,"pp":311,"reat":312,"amed":313,"Ġday":314,"Ġabout":315,"Ġvill":316,"ious":317,"Ġlily":318,"ts":319,"Ġbo":320,"Ġdis":321,"ear":322,"ast":323,"pl":324,"yst":325,"Ġupon":326,"Ġtim":327,"Ġunder":328,"ne":329,"Ġpro":330,"Ġreal":331,"Ġits":332,"Ġcom":333,"ol":334,"Ġthem":335,"ss":336,"round":337,"ack":338,"est":339,"ther":340,"Ġev":341,"Ġad":342,"low":343,"self":344,"Ġbec":345,"Ġins":346,"ci":347,"Ġtime":348,"Ġold":349,"Ġout":350,"mb":351,"us":352,"Ġnew":353,"Ġjust":354,"Ġmag":355,"Ġevery":356,"Ġcould":357,"Ġeach":358,"ig":359,"Ġwis":360,"ng":361,"Ġfore":362,"ue":363,"Ġpow":364,"ked":365,"Ġcont":366,"Ġwere":367,"Ġthere":368,"Ġmagic":369,"king":370,"Ġart":371,"Ġis":372,"Ġpaint":373,"Ġnamed":374,"ab":375,"Ġhow":376,"Ġdee":377,"Ġworld":378,"ling":379,"omet":380,"Ġwhis":381,"ures":382,"way":383,"Ġman":384,"Ġsa":385,"Ġsec":386,"Ġover":387,"med":388,"Ġwhen":389,"Ġpl":390,"Ġheart":391,"ud":392,"Ġbook":393,"Ġall":394,"iza":395,"Ġgr":396,"Ġgu":397,"Ġeliza":398,"Ġdec":399,"Ġsomet":400,"Ġhid":401,"ued":402,"Ġvillage":403,"Ġmyst":404,"ile":405,"Ġsecre":406,"Ġmo":407,"ving":408,"Ġhidden":409,"Ġstr":410,"Ġdisco":411,"Ġus":412,"Ġlived":413,"Ġother":414,"âĢĻ":415,"Ġpe":416,"are":417,"Ġsm":418,"Ġcr":419,"Ġonce":420,"Ġwhere":421,"ark":422,"nt":423,"ose":424,"Ġyoung":425,"Ġapp":426,"hing":427,"Ġbr":428,"Ġac":429,"ary":430,"Ġpower":431,"urned":432,"âĢĶ":433,"cient":434,"Ġmore":435,"ered":436,"Ġfound":437,"Ġtown":438,"em":439,"br":440,"Ġag":441,"vent":442,"Ġmyster":443,"ves":444,"Ġancient":445,"Ġcur":446,"ang":447,"Ġwood":448,"Ġforest":449,"Ġwould":450,"Ġco":451,"ew":452,"ings":453,"Ġexpl":454,"een":455,"Ġbeg":456,"Ġrealiz":457,"Ġeven":458,"Ġwithin":459,"Ġim":460,"ided":461,"ared":462,"Ġret":463,"Ġro":464,"pen":465,"ort":466,"Ġany":467,"ance":468,"Ġknown":469,"ning":470,"ass":471,"ated":472,"Ġjour":473,"end":474,"vered":475,"ath":476,"os":477,"Ġwhile":478,"Ġtal":479,"ally":480,"Ġback":481,"ak":482,"fore":483,"Ġcreat":484,"Ġdet":485,"Ġfind":486,"Ġclo":487,"Ġdre":488,"Ġbefore":489,"Ġam":490,"Ġaround":491,"ep":492,"Ġthan":493,"umb":494,"Ġadvent":495,"ached":496,"Ġwhat":497,"Ġbecame":498,"ney":499,"Ġown":500,"Ġwoods":501,"Ġjourney":502,"Ġmr":503,"ions":504,"Ġdo":505,"ft":506,"Ġrealized":507,"ell":508,"ond":509,"'t":510,"ange":511,"Ġbegan":512,"Ġaf":513,"Ġdecided":514,"so":515,"Ġlear":516,"ined":517,"Ġonly":518,"Ġhel":519,"Ġsomething":520,"Ġherself":521,"Ġbet":522,"Ġgre":523,"Ġunderst":524,"ie":525,"Ġtrue":526,"Ġhelp":527,"illed":528,"Ġlife":529,"Ġfin":530,"ering":531,"Ġquaint":532,"ence":533,"Ġhim":534,"ire":535,"Ġsmall":536,"Ġalso":537,"ck":538,"ople":539,"erm":540,"own":541,"old":542,"Ġcl":543,"Ġlike":544,"Ġtreas":545,"Ġreve":546,"ears":547,"Ġbeen":548,"Ġglow":549,"ful":550,"Ġafter":551,"ained":552,"Ġyour":553,"Ġhome":554,"ice":555,"umbled":556,"Ġsome":557,"ive":558,"ans":559,"Ġstumbled":560,"Ġfilled":561,"ways":562,"Ġwhisper":563,"ness":564,"Ġseemed":565,"Ġres":566,"Ġway":567,"ward":568,"Ġme":569,"Ġdeterm":570,"ra":571,"Ġnat":572,"rig":573,"pt":574,"Ġsc":575,"Ġthose":576,"ations":577,"ten":578,"Ġwom":579,"aut":580,"found":581,"Ġalways":582,"Ġwoman":583,"Ġland":584,"Ġpeople":585,"elt":586,"arm":587,"ledge":588,"Ġdiscovered":589,"Ġrem":590,"anding":591,"ory":592,"Ġknowledge":593,"Ġlight":594,"act":595,"dom":596,"Ġbeh":597,"Ġpass":598,"Ġsecrets":599,"Ġsur":600,"Ġno":601,"Ġsk":602,"ween":603,"Ġbetween":604,"get":605,"Ġcontin":606,"Ġcan":607,"Ġpre":608,"Ġguard":609,"ount":610,"Ġreveal":611,"Ġif":612,"Ġfelt":613,"Ġey":614,"Ġthou":615,"Ġmysterious":616,"ild":617,"iv":618,"ake":619,"Ġinside":620,"au":621,"pect":622,"Ġbehind":623,"Ġfo":624,"Ġagain":625,"ever":626,"Ġsu":627,"ks":628,"Ġnight":629,"Ġothers":630,"Ġwhispering":631,"Ġhave":632,"riend":633,"ents":634,"Ġtree":635,"ip":636,"Ġreturned":637,"ather":638,"Ġem":639,"Ġdeep":640,"ull":641,"Ġopen":642,"als":643,"Ġknew":644,"Ġinsp":645,"Ġstre":646,"Ġset":647,"Ġeld":648,"iqu":649,"Ġthese":650,"Ġfriend":651,"Ġwisdom":652,"gether":653,"ors":654,"ical":655,"Ġdeeper":656,"Ġintrig":657,"Ġtogether":658,"Ġcomm":659,"allen":660,"Ġread":661,"Ġmap":662,"read":663,"Ġstrange":664,"ct":665,"ins":666,"Ġintrigued":667,"ons":668,"Ġeyes":669,"Ġword":670,"ex":671,"other":672,"ces":673,"Ġdark":674,"Ġnear":675,"Ġdes":676,"ick":677,"Ġdetermined":678,"for":679,"Ġwat":680,"Ġha":681,"Ġlea":682,"Ġthen":683,"Ġpo":684,"Ġemb":685,"Ġhand":686,"Ġyears":687,"Ġcontinued":688,"Ġmagical":689,"aced":690,"Ġnewfound":691,"anted":692,"Ġbeaut":693,"uring":694,"ib":695,"yond":696,"Ġbeyond":697,"Ġlearned":698,"ian":699,"Ġhowever":700,"Ġchallen":701,"able":702,"Ġnature":703,",\"":704,"Ġsud":705,"Ġlay":706,"Ġsudden":707,"aring":708,"Ġwithout":709,"Ġcre":710,"iar":711,"Ġcour":712,"Ġend":713,"Ġlead":714,"ense":715,"ched":716,"Ġpath":717,"Ġnow":718,"Ġfinally":719,"Ġtreasure":720,"Ġspir":721,"Ġvis":722,"Ġwr":723,"Ġshad":724,"Ġlong":725,"ross":726,"ĠâĢ":727,"Ġimp":728,"Ġspirit":729,"20":730,"Ġmost":731,"nect":732,"Ġloc":733,"Ġappro":734,"Ġsun":735,"irl":736,"Ġwise":737,"ios":738,"ade":739,"Ġforg":740,"Ġsaid":741,"Ġwhisp":742,"Ġhap":743,"gend":744,"Ġare":745,"Ġhop":746,"right":747,"Ġlegend":748,"Ġgirl":749,"Ġlook":750,"ages":751,"the":752,"ills":753,"Ġenc":754,"Ġsecret":755,"Ġdays":756,"Ġcurios":757,"Ġusing":758,"Ġcuriosity":759,"Ġadventure":760,"Ġwasn":761,"Ġde":762,"Ġneed":763,"Ġspread":764,"Ġconnect":765,"Ġunderstanding":766,"Ġwal":767,"Ġcame":768,"Ġfee":769,"ener":770,"Ġper":771,"Ġreached":772,"Ġalong":773,"Ġpainting":774,"Ġdif":775,"Ġoff":776,"ric":777,"Ġartist":778,"ser":779,"Ġdream":780,"Ġcomp":781,"Ġturned":782,"Ġdown":783,"Ġcity":784,"ities":785,"Ġshadow":786,"Ġfriends":787,"Ġour":788,"Ġbel":789,"oth":790,"fere":791,"Ġprot":792,"Ġacross":793,"ich":794,"Ġtrees":795,"ene":796,"thing":797,"Ġamong":798,"Ġcome":799,"ord":800,"Ġsuddenly":801,"Ġnever":802,"Ġi":803,"les":804,"ict":805,"Ġforgot":806,"ite":807,"Ġprotect":808,"Ġgrew":809,"Ġdiffere":810,"ment":811,"agers":812,"Ġwand":813,"Ġsy":814,"Ġplace":815,"ial":816,"Ġabil":817,"Ġcommun":818,"Ġgener":819,"ia":820,"Ġcar":821,"ine":822,"Ġvillagers":823,"Ġapproached":824,"Ġfir":825,"ily":826,"Ġhum":827,"Ġcreatures":828,"Ġlibr":829,"ecul":830,"Ġfam":831,"oke":832,"Ġhist":833,"llow":834,"Ġent":835,"Ġench":836,"Ġever":837,"Ġmor":838,"Ġquest":839,"Ġflow":840,"Ġguardian":841,"oice":842,"Ġgrand":843,"Ġunco":844,"iting":845,"Ġpecul":846,"Ġpeculiar":847,"Ġcourage":848,"Ġthough":849,"av":850,"Ġfirst":851,"Ġair":852,"Ġwhich":853,"ry":854,"Ġoak":855,"ey":856,"Ġaut":857,"iced":858,"xt":859,"Ġow":860,"Ġsoft":861,"erg":862,"oring":863,"Ġkind":864,"less":865,"Ġinst":866,"Ġlove":867,"inary":868,"Ġowl":869,"Ġboth":870,"ges":871,"Ġpart":872,"Ġaway":873,"ied":874,"Ġfig":875,"Ġartif":876,"iec":877,"ination":878,"Ġshared":879,"Ġmorning":880,"sc":881,"Ġtrans":882,"ating":883,"aught":884,"by":885,"hes":886,"Ġmom":887,"ced":888,"Ġstood":889,"Ġspent":890,"Ġgif":891,"Ġlet":892,"Ġglowing":893,"ching":894,"Ġnext":895,"Ġgold":896,"Ġmade":897,"mbol":898,"ited":899,"Ġsymbol":900,"Ġless":901,"Ġexper":902,"orne":903,"Ġpassed":904,"Ġeveryone":905,"light":906,"Ġnest":907,"Ġgreat":908,"Ġdoor":909,"ique":910,"Ġpast":911,"imes":912,"Ġclock":913,"ustling":914,"Ġnoticed":915,"Ġmy":916,"Ġtales":917,"Ġdifferent":918,"Ġnestled":919,"urn":920,"Ġled":921,"Ġkee":922,"oming":923,"lling":924,"Ġwind":925,"Ġinc":926,"Ġfollow":927,"Ġdep":928,"Ġcent":929,"Ġtrave":930,"Ġstart":931,"Ġitself":932,"Ġfar":933,"li":934,"eared":935,"Ġunt":936,"Ġchallenges":937,"ories":938,"Ġmis":939,"Ġsaw":940,"Ġenchanted":941,"Ġsou":942,"Ġbene":943,"Ġsometimes":944,"pected":945,"Ġcle":946,"ual":947,"Ġwarm":948,"Ġuse":949,"Ġjo":950,"Ġouts":951,"Ġfeeling":952,"Ġvoice":953,"Ġpur":954,"Ġpeace":955,"Ġforgotten":956,"Ġlibrary":957,"Ġgard":958,"Ġbooks":959,"Ġinspir":960,"Ġvi":961,"Ġdid":962,"ĠâĢĵ":963,"Ġforward":964,"Ġspoke":965,"Ġwee":966,"aking":967,"Ġgarden":968,"Ġlost":969,"Ġdreamed":970,"Ġadventures":971,"Ġhills":972,"Ġtw":973,"ting":974,"Ġexplore":975,"Ġnearby":976,"Ġhappen":977,"Ġheld":978,"Ġleading":979,"Ġchang":980,"Ġface":981,"Ġmu":982,"Ġste":983,"imm":984,"Ġsoon":985,"Ġstone":986,"Ġleaves":987,"Ġcap":988,"Ġcryst":989,"Ġrevealed":990,"ater":991,"Ġexc":992,"Ġmet":993,"Ġused":994,"Ġsim":995,"Ġse":996,"Ġrolling":997,"ured":998,"Ġ(":999,"Ġed":1000,"Ġfigure":1001,"Ġanother":1002,"Ġhope":1003,"ired":1004,"atest":1005,"Ġfl":1006,"Ġpers":1007,"rought":1008,"pped":1009,"Ġmany":1010,"Ġunique":1011,"Ġgenerations":1012,"Ġexploring":1013,"Ġlocal":1014,"Ġagainst":1015,"Ġwandering":1016,"Ġtri":1017,"Ġweeks":1018,"ren":1019,"Ġdr":1020,"Ġact":1021,"Ġwork":1022,"Ġbrought":1023,"hip":1024,"Ġevening":1025,"wards":1026,"Ġhistory":1027,"ently":1028,"Ġsomeone":1029,"Ġdel":1030,"Ġbeneath":1031,"Ġuncover":1032,"Ġkey":1033,"Ġhaw":1034,"Ġpiec":1035,"Ġcurious":1036,"ree":1037,"ets":1038,"Ġroom":1039,"Ġcall":1040,"thorne":1041,"Ġopened":1042,"Ġhawthorne":1043,"Ġfur":1044,"ign":1045,"oria":1046,"Ġshimm":1047,"Ġorb":1048,"Ġencount":1049,"scap":1050,"Ġshadows":1051,"Ġwall":1052,"Ġfull":1053,"Ġbeauty":1054,"att":1055,"Ġexp":1056,"Ġdest":1057,"Ġpowerful":1058,"ues":1059,"Ġimport":1060,"Ġchild":1061,"umn":1062,"Ġfut":1063,"Ġexperi":1064,"Ġhands":1065,"Ġte":1066,"ened":1067,"Ġuntil":1068,"Ġsol":1069,"Ġautumn":1070,"form":1071,"Ġport":1072,"ths":1073,"Ġsky":1074,"Ġbu":1075,"Ġconf":1076,"Ġforever":1077,"air":1078,"ps":1079,"no":1080,"cho":1081,"Ġeldoria":1082,"Ġbustling":1083,"ural":1084,"Ġext":1085,"ush":1086,"Ġcast":1087,"Ġlessons":1088,"Ġhere":1089,"Ġmake":1090,"Ġche":1091,"Ġhar":1092,"Ġencountered":1093,"ead":1094,"Ġob":1095,"isp":1096,"Ġfurther":1097,"kins":1098,"Ġtreasures":1099,"Ġsurround":1100,"Ġfuture":1101,"app":1102,"Ġmoment":1103,"Ġcloser":1104,"Ġwords":1105,"Ġquick":1106,"Ġtowards":1107,"Ġgrou":1108,"enkins":1109,"Ġjenkins":1110,"Ġpurp":1111,"Ġdra":1112,"Ġpaintings":1113,"Ġmight":1114,"Ġunlo":1115,"Ġbelie":1116,"Ġmuch":1117,"Ġharm":1118,"Ġrevealing":1119,"ise":1120,"Ġser":1121,"uth":1122,"Ġmoon":1123,"Ġcol":1124,"Ġgo":1125,"Ġvar":1126,"Ġshare":1127,"Ġce":1128,"Ġunex":1129,"ished":1130,"Ġvent":1131,"Ġcrisp":1132,"Ġpages":1133,"Ġimag":1134,"Ġgroup":1135,"Ġpr":1136,"Ġyet":1137,"Ġcrystal":1138,"Ġsimp":1139,"Ġgreatest":1140,"ail":1141,"Ġmind":1142,"Ġatt":1143,"Ġleft":1144,"anger":1145,"Ġstud":1146,"Ġembr":1147,"Ġtow":1148,"Ġtruth":1149,"Ġseen":1150,"cc":1151,"Ġthom":1152,"Ġthought":1153,"Ġinstead":1154,"Ġlist":1155,"Ġbeing":1156,"Ġposs":1157,"Ġcommunity":1158,"Ġperson":1159,"Ġcouldn":1160,"Ġlooked":1161,"Ġunexpected":1162,"like":1163,"Ġbecoming":1164,"Ġsense":1165,"ars":1166,"Ġgift":1167,"Ġvarious":1168,"Ġinv":1169,"Ġrealm":1170,"Ġinspiring":1171,"Ġsymbols":1172,"Ġexplained":1173,"Ġtravel":1174,"Ġseek":1175,"ouse":1176,"Ġfe":1177,"Ġeverything":1178,"Ġstreng":1179,"inated":1180,"Ġfear":1181,"selves":1182,"Ġcoll":1183,"ying":1184,"Ġtou":1185,"Ġwrit":1186,"Ġbeautif":1187,"Ġdiscovery":1188,"Ġsor":1189,"Ġpowers":1190,"ted":1191,"Ġanim":1192,"Ġthroughout":1193,"Ġcreate":1194,"Ġprom":1195,"hy":1196,"uct":1197,"Ġfamily":1198,"vers":1199,"Ġasked":1200,"Ġextra":1201,"Ġcapt":1202,"ens":1203,"Ġappeared":1204,"Ġstarted":1205,"roll":1206,"ible":1207,"Ġcele":1208,"Ġlast":1209,"Ġchanged":1210,"pe":1211,"Ġhuman":1212,"Ġguid":1213,"Ġconnection":1214,"athe":1215,"Ġwa":1216,"Ġhold":1217,"Ġknowing":1218,"Ġremained":1219,"Ġmon":1220,"Ġgl":1221,"ordinary":1222,"Ġoutside":1223,"to":1224,"Ġneeded":1225,"Ġtale":1226,"Ġjoy":1227,"Ġextraordinary":1228,"Ġri":1229,"Ġvibr":1230,"ven":1231,"ition":1232,"Ġshow":1233,"iled":1234,"Ġthings":1235,"Ġabilities":1236,"Ġpu":1237,"Ġecho":1238,"Ġduring":1239,"Ġhour":1240,"Ġdreams":1241,"Ġbring":1242,"ement":1243,"fl":1244,"Ġrest":1245,"Ġstepped":1246,"ner":1247,"Ġunlike":1248,"rer":1249,"come":1250,"Ġdist":1251,"Ġspell":1252,"ully":1253,"ause":1254,"Ġwhispered":1255,"Ġwalls":1256,"Ġunderstand":1257,"asc":1258,"Ġreturn":1259,"Ġheal":1260,"Ġlandscap":1261,"Ġpurpose":1262,"Ġsw":1263,"Ġcare":1264,"Ġfaced":1265,"Ġmem":1266,"Ġquickly":1267,"Ġhouse":1268,"Ġwhispers":1269,"Ġvibrant":1270,"Ġtake":1271,"Ġstep":1272,"igate":1273,"Ġmysteries":1274,"athered":1275,"Ġheard":1276,"ff":1277,"ony":1278,"Ġintric":1279,"Ġess":1280,"Ġoften":1281,"Ġenerg":1282,"Ġpiece":1283,"aces":1284,"Ġbeautiful":1285,"cked":1286,"Ġcave":1287,"vest":1288,"Ġpot":1289,"Ġstory":1290,"ech":1291,"Ġintricate":1292,"Ġright":1293,"Ġcor":1294,"acts":1295,"its":1296,"Ġval":1297,"aim":1298,"Ġmar":1299,"Ġsafe":1300,"Ġcelebr":1301,"Ġdrag":1302,"Ġtook":1303,"Ġpainted":1304,"Ġready":1305,"ences":1306,"az":1307,"Ġstanding":1308,"?\"":1309,"Ġsuch":1310,"iny":1311,"Ġkeep":1312,"Ġsoftly":1313,"Ġfaint":1314,"arth":1315,"ject":1316,"idge":1317,"Ġbra":1318,"Ġhimself":1319,"Ġhours":1320,"Ġtest":1321,"Ġanyone":1322,"Ġcenter":1323,"Ġfasc":1324,"Ġbravery":1325,"Ġwo":1326,"Ġchest":1327,"kn":1328,"ink":1329,"ost":1330,"sit":1331,"ish":1332,"Ġgrow":1333,"Ġstrength":1334,"Ġlives":1335,"Ġthemselves":1336,"Ġbal":1337,"Ġhesit":1338,"Ġartifacts":1339,"Ġsought":1340,"Ġenergy":1341,"rived":1342,"Ġfinding":1343,"Ġventured":1344,"wor":1345,"Ġwell":1346,"Ġearth":1347,"Ġwar":1348,"Ġ/":1349,"Ġform":1350,"Ġscroll":1351,"Ġcollect":1352,"Ġthreat":1353,"Ġleaving":1354,"Ġdan":1355,"lud":1356,"acing":1357,"Ġrather":1358,"aching":1359,"Ġsil":1360,"Ġground":1361,"elf":1362,"whe":1363,"Ġspec":1364,"mother":1365,"Ġsound":1366,"Ġstill":1367,"Ġdepict":1368,"Ġens":1369,"Ġfinal":1370,"Ġsharing":1371,"ress":1372,"Ġfriendship":1373,"Ġchange":1374,"Ġhas":1375,"Ġwalked":1376,"com":1377,"igh":1378,"Ġago":1379,"ron":1380,"Ġtaught":1381,"Ġwater":1382,"Ġability":1383,"Ġedge":1384,"emb":1385,"Ġaw":1386,"ird":1387,"Ġflowers":1388,"fully":1389,"Ġdust":1390,"Ġsorce":1391,"Ġseeking":1392,"Ġpres":1393,"Ġbright":1394,"Ġinspired":1395,"Ġbl":1396,"ase":1397,"Ġgood":1398,"acy":1399,"Ġrun":1400,"abl":1401,"Ġdarkness":1402,"Ġfascinated":1403,"cri":1404,"Ġresp":1405,"Ġvisit":1406,"Ġtru":1407,"Ġanything":1408,"Ġartifact":1409,"Ġshimmering":1410,"Ġbalance":1411,"Ġbur":1412,"sing":1413,"Ġill":1414,"Ġpiqu":1415,"Ġstars":1416,"Ġnatural":1417,"known":1418,"Ġpiqued":1419,"ountain":1420,"Ġdanger":1421,"Ġord":1422,"Ġdiscover":1423,"Ġwaiting":1424,"oun":1425,"Ġcreature":1426,"ove":1427,"sed":1428,"wh":1429,"Ġmess":1430,"Ġtowns":1431,"Ġinvest":1432,"Ġevil":1433,"Ġanimals":1434,"Ġessence":1435,"Ġbatt":1436,"orm":1437,"elling":1438,"Ġmonths":1439,"ific":1440,"Ġsat":1441,"chie":1442,"Ġrel":1443,"Ġbrave":1444,"Ġtruly":1445,"Ġmay":1446,"Ġeli":1447,"Ġleg":1448,"Ġru":1449,"Ġcolors":1450,"Ġwide":1451,"Ġtoo":1452,"atter":1453,"Ġkindness":1454,"Ġtremb":1455,"Ġunknown":1456,"Ġemerg":1457,"aged":1458,"Ġrememb":1459,"Ġlit":1460,"Ġremind":1461,"Ġlater":1462,"Ġcalled":1463,"Ġtabl":1464,"Ġstrong":1465,"Ġclearing":1466,"Ġca":1467,"itement":1468,"Ġinter":1469,"Ġabove":1470,"Ġexcitement":1471,"ches":1472,"Ġhero":1473,"Ġstories":1474,"Ġlang":1475,"iously":1476,"Ġclaim":1477,"Ġsurrounded":1478,"Ġlangu":1479,"Ġdire":1480,"zz":1481,"Ġliving":1482,"face":1483,"Ġtold":1484,"Ġdragon":1485,"ough":1486,"rove":1487,"Ġinclud":1488,"Ġdelved":1489,"Ġsorcerer":1490,"Ġplay":1491,"Ġalone":1492,"Ġbelong":1493,"Ġhappened":1494,"aining":1495,"Ġimagination":1496,"Ġlearn":1497,"pr":1498,"Ġear":1499,"Ġdense":1500,"Ġvast":1501,"gr":1502,"Ġfew":1503,"Ġmean":1504,"idd":1505,"Ġind":1506,"Ġelse":1507,"Ġcontro":1508,"Ġgrandmother":1509,"Ġvery":1510,"Ġwent":1511,"Ġchildren":1512,"Ġ[":1513,"Ġflo":1514,"Ġmust":1515,"Ġwonder":1516,"Ġemerged":1517,"ny":1518,"Ġwild":1519,"Ġdetermination":1520,"ibil":1521,"Ġbird":1522,"Ġmountain":1523,"Ġbuild":1524,"Ġharmony":1525,"Ġblo":1526,"Ġwalking":1527,"ones":1528,"Ġpaths":1529,"Ġentire":1530,"icate":1531,"Ġalive":1532,"Ġpainter":1533,"ded":1534,"Ġmark":1535,"ants":1536,"Ġclim":1537,"now":1538,"ually":1539,"Ġbound":1540,"rous":1541,"Ġlegacy":1542,"Ġdirect":1543,"Ġcaut":1544,"arked":1545,"Ġgathered":1546,"ult":1547,"formed":1548,"Ġdisapp":1549,"Ġportal":1550,"Ġprofound":1551,"Ġmystery":1552,"Ġexplo":1553,"Ġdidn":1554,"vas":1555,"Ġter":1556,"Ġfair":1557,"Ġsame":1558,"Ġsin":1559,"aster":1560,"Ġclose":1561,"Ġ1":1562,"ody":1563,"Ġarrived":1564,"Ġsimple":1565,"Ġrece":1566,"ache":1567,"Ġcontained":1568,"Ġcanvas":1569,"Ġordinary":1570,"Ġeag":1571,"Ġworlds":1572,"Ġhearts":1573,"Ġlar":1574,"head":1575,"ield":1576,"Ġacc":1577,"Ġimportance":1578,"Ġsunny":1579,"ix":1580,"Ġechoed":1581,"acherous":1582,"Ġgent":1583,"cept":1584,"Ġpuzz":1585,"Ġtrembling":1586,"ateful":1587,"Ġinvestigate":1588,"Ġgentle":1589,"Ġbecause":1590,"Ġpromis":1591,"ott":1592,"Ġtex":1593,"Ġmrs":1594,"Ġunderstood":1595,"ivid":1596,"Ġgolden":1597,"Ġtower":1598,"Ġtech":1599,"Ġfad":1600,"Ġembrace":1601,"ns":1602,"Ġsing":1603,"Ġtreacherous":1604,"Ġguidance":1605,"ident":1606,"Ġseries":1607,"reed":1608,"Ġexperiences":1609,"flect":1610,"ped":1611,"ried":1612,"Ġdetail":1613,"Ġenough":1614,"Ġda":1615,"owed":1616,"els":1617,"Ġdusty":1618,"Ġhapp":1619,"Ġet":1620,"Ġguide":1621,"pson":1622,"Ġthompson":1623,"Ġnav":1624,"Ġreflect":1625,"used":1626,"ending":1627,"Ġrespons":1628,"Ġfollowed":1629,"vous":1630,"Ġcount":1631,"Ġtablet":1632,"Ġstreets":1633,"iet":1634,"Ġcurse":1635,"Ġtalent":1636,"Ġemot":1637,"ble":1638,"umin":1639,"Ġdrawn":1640,"wel":1641,"Ġsurpr":1642,"Ġspirits":1643,"welcome":1644,"sw":1645,"Ġsign":1646,"Ġsmiled":1647,"Ġdanced":1648,"Ġtransformed":1649,"Ġensuring":1650,"Ġz":1651,"ular":1652,"Ġsket":1653,"Ġsoul":1654,"Ġrecei":1655,"Ġunity":1656,"Ġstru":1657,"Ġeldr":1658,"Ġridd":1659,"Ġproving":1660,"Ġlearning":1661,"oud":1662,"Ġansw":1663,"Ġworked":1664,"Ġbran":1665,"Ġwarmly":1666,"Ġcontrol":1667,"gg":1668,"tle":1669,"Ġbreat":1670,"Ġfell":1671,"amb":1672,"ier":1673,"iness":1674,"Ġrespect":1675,"Ġpotent":1676,"Ġcelebrated":1677,"Ġname":1678,"Ġmarket":1679,"cking":1680,"alth":1681,"Ġwond":1682,"Ġfree":1683,"Ġplaces":1684,"Ġeager":1685,"Ġyear":1686,"Ġembarked":1687,"Ġbegin":1688,"Ġchallenge":1689,"Ġ<":1690,"urning":1691,"ĠâĢľ":1692,"Ġ/>":1693,"ians":1694,"Ġsear":1695,"Ġcautiously":1696,"Ġfaded":1697,"Ġfire":1698,"Ġdi":1699,"Ġspecial":1700,"ored":1701,"Ġsit":1702,"Ġquiet":1703,"Ġcarry":1704,"Ġcentur":1705,"Ġlanguage":1706,"Ġocc":1707,"Ġworks":1708,"Ġwealth":1709,"Ġsqu":1710,"Ġbeac":1711,"Ġforces":1712,"ized":1713,"Ġchamb":1714,"Ġkeeper":1715,"Ġimportant":1716,"Ġruins":1717,"Ġrare":1718,"Ġcompl":1719,"Ġmemories":1720,"Ġbeacon":1721,"Ġwel":1722,"Ġplan":1723,"du":1724,"Ġbox":1725,"Ġelder":1726,"Ġeldridge":1727,"Ġwhose":1728,"Ġskills":1729,"Ġhoping":1730,"Ġbetter":1731,"Ġharness":1732,"Ġforests":1733,"ival":1734,"ivity":1735,"Ġwindow":1736,"Ġlandscapes":1737,"Ġahead":1738,"Ġrep":1739,"Ġstop":1740,"Ġking":1741,"Ġspe":1742,"Ġchar":1743,"uable":1744,"Ġrenow":1745,"velo":1746,"Ġcons":1747,"Ġclues":1748,"Ġgifts":1749,"Ġrenowned":1750,"fect":1751,"Ġunus":1752,"Ġsurface":1753,"res":1754,"ices":1755,"Ġlistened":1756,"Ġmod":1757,"Ġones":1758,"Ġlies":1759,"Ġlive":1760,"lex":1761,"Ġexist":1762,"Ġwritten":1763,"Ġreceived":1764,"oned":1765,"Ġrepl":1766,"Ġshould":1767,"Ġpassion":1768,"Ġsupp":1769,"nal":1770,"Ġself":1771,"Ġador":1772,"Ġlands":1773,"Ġbond":1774,"Ġagreed":1775,"Ġmischie":1776,"Ġpossess":1777,"Ġexplored":1778,"Ġwanted":1779,"Ġfest":1780,"verse":1781,"Ġafterno":1782,"Ġdesp":1783,"ze":1784,"Ġbecome":1785,"Ġwatching":1786,"Ġriver":1787,"ounter":1788,"Ġcott":1789,"Ġstream":1790,"Ġcomplet":1791,"Ġwhy":1792,"ushed":1793,"Ġmoved":1794,"be":1795,"Ġpotential":1796,"Ġafternoon":1797,"Ġcottage":1798,"](":1799,"Ġetched":1800,"Ġcenturies":1801,"Ġadorned":1802,"Ġorig":1803,"Ġprep":1804,"Ġdraw":1805,"Ġho":1806,"Ġthick":1807,"Ġmove":1808,"Ġhumans":1809,"bed":1810,"aps":1811,"Ġdistant":1812,"Ġburied":1813,"Ġmountains":1814,"olk":1815,"Ġtwo":1816,"Ġincluding":1817,"Ġmeaning":1818,"sion":1819,"vice":1820,"Ġmaking":1821,"Ġlooking":1822,"never":1823,"Ġcasting":1824,"Ġunlock":1825,"Ġoccur":1826,"Ġwhenever":1827,"Ġhelping":1828,"ptic":1829,"Ġcompass":1830,"Ġdepicted":1831,"Ġstronger":1832,"Ġtool":1833,"Ġmir":1834,"Ġmater":1835,"Ġmystical":1836,"ruct":1837,"Ġreco":1838,"Ġspells":1839,"Ġturn":1840,"stone":1841,"Ġbelieved":1842,"Ġer":1843,"Ġget":1844,"Ġrec":1845,"Ġchamber":1846,"ience":1847,"Ġcry":1848,"Ġthomas":1849,"akes":1850,"Ġrequ":1851,"Ġletter":1852,"Ġcapturing":1853,"work":1854,"Ġwonders":1855,"Ġunusual":1856,"Ġtall":1857,"Ġfr":1858,"Ġstones":1859,"Ġmanaged":1860,"Ġsub":1861,"Ġtouch":1862,"but":1863,"Ġraced":1864,"Ġcold":1865,"ept":1866,"ern":1867,"arted":1868,"Ġwish":1869,"Ġfestival":1870,"cy":1871,"roke":1872,"Ġtimes":1873,"Ġreality":1874,"formation":1875,"Ġcarefully":1876,"Ġbreath":1877,"ety":1878,"ional":1879,"Ġvivid":1880,"Ġintently":1881,"Ġcreated":1882,"Ġamaz":1883,"Ġlegendary":1884,"Ġlarge":1885,"Ġmischievous":1886,"Ġshar":1887,"Ġnothing":1888,"acked":1889,"Ġgrant":1890,"Ġbest":1891,"ased":1892,"Ġdecip":1893,"Ġcra":1894,"Ġfeel":1895,"Ġtext":1896,"Ġstorm":1897,"log":1898,"aughter":1899,"Ġmoonlight":1900,"ront":1901,"Ġheav":1902,"Ġma":1903,"Ġpreser":1904,"bo":1905,"aren":1906,"Ġsimply":1907,"phe":1908,"Ġfears":1909,"ening":1910,"new":1911,"Ġtalking":1912,"Ġcreativity":1913,"Ġways":1914,"Ġcommon":1915,"Ġcarried":1916,"Ġsharp":1917,"Ġbody":1918,"Ġpage":1919,"Ġleave":1920,"Ġevents":1921,"Ġplaced":1922,"Ġencounter":1923,"hys":1924,"ek":1925,"Ġhues":1926,"Ġbeings":1927,"Ġrunes":1928,"arents":1929,"Ġgive":1930,"Ġfamil":1931,"Ġcountless":1932,"Ġcryptic":1933,"Ġhor":1934,"Ġuni":1935,"Ġwatched":1936,"Ġdefe":1937,"Ġpartic":1938,"Ġvaluable":1939,"Ġonto":1940,"Ġintro":1941,"abit":1942,"Ġexcited":1943,"Ġteaching":1944,"'d":1945,"edic":1946,"Ġmeant":1947,"Ġbrighter":1948,"Ġreminding":1949,"gn":1950,"Ġphys":1951,"Ġinner":1952,"Ġwhate":1953,"Ġnote":1954,"Ġwhatever":1955,"Ġmus":1956,"Ġnod":1957,"icked":1958,"Ġrevel":1959,"Ġpresent":1960,"Ġhead":1961,"ics":1962,"ention":1963,"loved":1964,"Ġsave":1965,"Ġgi":1966,"Ġbeloved":1967,"Ġadd":1968,"using":1969,"Ġoverwhe":1970,"Ġlittle":1971,"Ġoverwhel":1972,"Ġmere":1973,"Ġtwist":1974,"Ġrecogn":1975,"Ġevent":1976,"Ġmessage":1977,"ms":1978,"Ġvan":1979,"Ġtowering":1980,"00":1981,"Ġsay":1982,"Ġguardians":1983,"Ġcreation":1984,"Ġhesitation":1985,"Ġbelonged":1986,"Ġdespite":1987,"day":1988,"lessly":1989,"Ġmoments":1990,"Ġfollowing":1991,"Ġcastle":1992,"ssed":1993,"cing":1994,"ines":1995,"Ġstay":1996,"Ġbranches":1997,"port":1998,"row":1999,"Ġparents":2000,"Ġnews":2001,"ems":2002,"Ġble":2003,"Ġscen":2004,"Ġwriting":2005,"Ġtouched":2006,"Ġdirectly":2007,"Ġtiny":2008,"Ġlumin":2009,"Ġgather":2010,"Ġcomes":2011,"Ġuncovered":2012,"Ġsurprise":2013,"Ġoccurren":2014,"ative":2015,"Ġrenew":2016,"Ġaband":2017,"fered":2018,"Ġexperience":2019,"Ġpul":2020,"Ġthin":2021,"Ġph":2022,"Ġhelped":2023,"Ġlonger":2024,"Ġunlocking":2025,"Ġuniverse":2026,"ments":2027,"Ġslow":2028,"Ġtom":2029,"Ġmaster":2030,"Ġsoci":2031,"Ġartists":2032,"Ġtried":2033,"Ġtrying":2034,"iliz":2035,"Ġappre":2036,"Ġflower":2037,"Ġoccurrences":2038,"Ġdri":2039,"ulf":2040,"Ġmyth":2041,"Ġsquare":2042,"ph":2043,"irc":2044,"Ġinte":2045,"Ġbrush":2046,"Ġpersonal":2047,"Ġscrolls":2048,"Ġhigh":2049,"Ġcho":2050,"Ġcover":2051,"Ġdestiny":2052,"Ġterr":2053,"Ġdedic":2054,"Ġtrust":2055,"Ġeng":2056,"Ġportra":2057,"Ġwelcom":2058,"Ġcraft":2059,"Ġabandoned":2060,"Ġtu":2061,"ically":2062,"Ġwisely":2063,"ibility":2064,"Ġintrodu":2065,"Ġwelcomed":2066,"Ġslight":2067,"Ġcirc":2068,"Ġdim":2069,"Ġshap":2070,"Ġrealizing":2071,"Ġsingle":2072,"Ġtears":2073,"Ġshel":2074,"Ġreading":2075,"Ġholding":2076,"Ġelderly":2077,"Ġciv":2078,"Ġdat":2079,"aker":2080,"Ġperfect":2081,"Ġdecipher":2082,"Ġscenes":2083,"folk":2084,"Ġoffered":2085,"umm":2086,"Ġobject":2087,"Ġfamiliar":2088,"Ġciviliz":2089,"most":2090,"Ġbre":2091,"stac":2092,"Ġobstac":2093,"Ġmusic":2094,"bl":2095,"Ġwarmth":2096,"Ġstrugg":2097,"Ġtucked":2098,"Ġgained":2099,"Ġwatch":2100,"Ġvisions":2101,"Ġhard":2102,"ank":2103,"omed":2104,"Ġguided":2105,"Ġeye":2106,"Ġhistor":2107,"cript":2108,"Ġcontinue":2109,"Ġembark":2110,"Ġcommunicate":2111,"Ġpract":2112,"Ġcarrying":2113,"Ġoverwhelmed":2114,"arah":2115,"Ġbattle":2116,"io":2117,"rance":2118,"Ġalmost":2119,"Ġwooden":2120,"Ġclear":2121,"Ġsolve":2122,"Ġtownsfolk":2123,"Ġsince":2124,"Ġslightly":2125,"Ġsarah":2126,"âĢĿ":2127,"angers":2128,"Ġlandscape":2129,"Ġfather":2130,"Ġcat":2131,"Ġeer":2132,"rif":2133,"ters":2134,"Ġsour":2135,"Ġgrove":2136,"Ġneigh":2137,"Ġworth":2138,"Ġvision":2139,"Ġintroduced":2140,"Ġneighb":2141,"Ġdem":2142,"urous":2143,"Ġspark":2144,"Ġadventurous":2145,"Ġcomplex":2146,"Ġhoriz":2147,"ground":2148,"Ġunf":2149,"ights":2150,"Ġcomb":2151,"Ġcovered":2152,"Ġphysical":2153,"Ġcarved":2154,"Ġinspiration":2155,"Ġcollection":2156,"Ġrevelation":2157,"Ġappreci":2158,"piec":2159,"int":2160,"Ġsens":2161,"Ġcher":2162,"Ġamul":2163,"Ġscent":2164,"Ġdesire":2165,"Ġtrials":2166,"Ġvanished":2167,"Ġmythical":2168,"Ġfulf":2169,"Ġjew":2170,"Ġshif":2171,"Ġguarded":2172,"Ġfaintly":2173,"Ġdawn":2174,"Ġrenewed":2175,"Ġve":2176,"Ġtell":2177,"Ġpull":2178,"Ġkingdom":2179,"Ġreplied":2180,"Ġarth":2181,"Ġdeeply":2182,"people":2183,"arch":2184,"Ġrese":2185,"Ġleather":2186,"Ġchose":2187,"Ġcolor":2188,"Ġarthur":2189,"Ġjack":2190,"Ġwherever":2191,"Ġbuilding":2192,"Ġamulet":2193,"Ġtit":2194,"Ġwant":2195,"Ġgently":2196,"Ġexh":2197,"Ġworking":2198,"Ġrum":2199,"Ġentrance":2200,"Ġbelieve":2201,"Ġbirds":2202,"Ġsketching":2203,"Ġbree":2204,"Ġfacing":2205,"rok":2206,"Ġtap":2207,"Ġmel":2208,"Ġwishes":2209,"Ġgrateful":2210,"Ġinspire":2211,"Ġwandered":2212,"Ġtransport":2213,"Ġlumina":2214,"Ġhorizon":2215,"Ġpatter":2216,"ephy":2217,"Ġtraveler":2218,"Ġcomplete":2219,"Ġorigin":2220,"piece":2221,"Ġbreeze":2222,"Ġfant":2223,"Ġaccept":2224,"Ġdesign":2225,"Ġsurrounding":2226,"where":2227,"what":2228,"Ġtownspeople":2229,"Ġdisappear":2230,"fort":2231,"Ġdue":2232,"Ġpushed":2233,"Ġloved":2234,"Ġzephy":2235,"ert":2236,"Ġhon":2237,"Ġgod":2238,"Ġforce":2239,"ilt":2240,"Ġscene":2241,"Ġwalk":2242,"land":2243,"Ġeff":2244,"Ġcaught":2245,"Ġpure":2246,"Ġpacked":2247,"Ġmatter":2248,"Ġmix":2249,"idence":2250,"ung":2251,"Ġprophe":2252,"ude":2253,"Ġusual":2254,"Ġremember":2255,"Ġsearching":2256,"Ġdata":2257,"Ġinvent":2258,"Ġvict":2259,"Ġappear":2260,"Ġglowed":2261,"Ġcausing":2262,"Ġhappiness":2263,"Ġanswers":2264,"Ġtrad":2265,"Ġenvelo":2266,"Ġorion":2267,"Ġallow":2268,"Ġpresence":2269,"Ġpromised":2270,"ials":2271,"ining":2272,"Ġfun":2273,"Ġbelow":2274,"idst":2275,"Ġsho":2276,"Ġeerie":2277,"bb":2278,"Ġrustling":2279,"Ġpros":2280,"Ġauth":2281,"Ġfeet":2282,"Ġnavig":2283,"Ġslowly":2284,"place":2285,"Ġreg":2286,"redict":2287,"Ġdoors":2288,"acters":2289,"Ġcharacters":2290,"Ġzephyr":2291,"Ġdared":2292,"Ġshop":2293,"Ġstranger":2294,"Ġincred":2295,"book":2296,"vel":2297,"Ġstudying":2298,"Ġbringing":2299,"Ġclaimed":2300,"'ve":2301,"ple":2302,"Ġfoc":2303,"Ġhesitated":2304,"ners":2305,"Ġkept":2306,"Ġadm":2307,"flow":2308,"ging":2309,"mat":2310,"Ġtem":2311,"Ġsac":2312,"Ġinh":2313,"irts":2314,"ements":2315,"Ġdestro":2316,"Ġattic":2317,"Ġthoughts":2318,"Ġfairy":2319,"Ġjewels":2320,"gan":2321,"host":2322,"Ġsumm":2323,"itude":2324,"Ġseeing":2325,"aken":2326,"Ġactions":2327,"Ġremembered":2328,"Ġtapest":2329,"Ġincredible":2330,"Ġside":2331,"Ġmagn":2332,"Ġhaun":2333,"Ġshimmered":2334,"Ġguiding":2335,"Ġgrowing":2336,"Ġparticular":2337,"Ġmasterpiece":2338,"te":2339,"Ġsever":2340,"Ġpicked":2341,"ane":2342,"Ġsmile":2343,"Ġbridge":2344,"Ġcorner":2345,"kirts":2346,"ror":2347,"Ġlaughter":2348,"Ġghost":2349,"Ġamidst":2350,"Ġsucc":2351,"Ġoutskirts":2352,"Ġmemory":2353,"hop":2354,"la":2355,"Ġide":2356,"Ġtop":2357,"Ġpond":2358,"Ġcomfort":2359,"Ġlibrar":2360,"nolog":2361,"Ġheavy":2362,"Ġdear":2363,"Ġmist":2364,"Ġnone":2365,"Ġelements":2366,"Ġcha":2367,"Ġarmed":2368,"Ġwriter":2369,"Ġentirely":2370,"Ġcompassion":2371,"cess":2372,"vi":2373,"Ġthorne":2374,"Ġann":2375,"ately":2376,"Ġproject":2377,"Ġcontent":2378,"Ġactually":2379,"Ġfood":2380,"Ġpos":2381,"Ġstat":2382,"apped":2383,"Ġstudio":2384,"Ġresponsibility":2385,"ierce":2386,"Ġprepared":2387,"Ġsource":2388,"ash":2389,"Ġchos":2390,"Ġquite":2391,"Ġimm":2392,"Ġsurge":2393,"Ġdepths":2394,"Ġshowed":2395,"ificent":2396,"Ġtechnolog":2397,"Ġemotions":2398,"Ġriddles":2399,"Ġcolder":2400,"Ġtransported":2401,"Ġmagnificent":2402,"Ġseveral":2403,"Ġchosen":2404,"we":2405,"Ġant":2406,"Ġexam":2407,"Ġtrun":2408,"Ġproper":2409,"Ġpuzzles":2410,"Ġoneself":2411,"Ġmaj":2412,"Ġterrain":2413,"Ġprophecy":2414,"back":2415,"Ġfield":2416,"Ġhear":2417,"Ġjournal":2418,"Ġdiscovering":2419,"Ġdrawing":2420,"Ġnodded":2421,"ger":2422,"jo":2423,"Ġthr":2424,"Ġwea":2425,"Ġspreading":2426,"Ġembracing":2427,"Ġpubl":2428,"Ġdangerous":2429,"Ġclosely":2430,"Ġthinking":2431,"haps":2432,"Ġtelling":2433,"Ġsir":2434,"itions":2435,"Ġinformation":2436,"Ġdecis":2437,"Ġdressed":2438,"Ġperil":2439,"Ġtwink":2440,"attered":2441,"Ġlisten":2442,"Ġrestore":2443,"Ġtechn":2444,"Ġamazed":2445,"Ġsuccess":2446,"Ġty":2447,"Ġfierce":2448,"Ġrust":2449,"Ġgrat":2450,"Ġhappening":2451,"Ġsafely":2452,"Ġelias":2453,"!\"":2454,"telling":2455,"Ġdisc":2456,"Ġreturning":2457,"Ġtransform":2458,"Ġdriven":2459,"Ġchaos":2460,"Ġgratitude":2461,"Ġnar":2462,"Ġwrite":2463,"Ġsunlight":2464,"Ġpieces":2465,"Ġsupport":2466,"Ġoriginal":2467,"use":2468,"ries":2469,"Ġmeet":2470,"Ġeman":2471,"Ġlocation":2472,"Ġsilver":2473,"Ġauthor":2474,"Ġsent":2475,"Ġlie":2476,"ots":2477,"Ġconnected":2478,"Ġmissing":2479,"Ġexpress":2480,"Ġsolving":2481,"Ġplaying":2482,"ibilities":2483,"father":2484,"Ġfateful":2485,"Ġchance":2486,"Ġgrowth":2487,"Ġtools":2488,"Ġmaterial":2489,"upt":2490,"rest":2491,"Ġescap":2492,"Ġlush":2493,"Ġpap":2494,"cend":2495,"Ġmanus":2496,"Ġriddle":2497,"Ġinhabit":2498,"Ġdangers":2499,"ize":2500,"Ġmoving":2501,"Ġpassage":2502,"Ġattention":2503,"Ġdisappeared":2504,"Ġbus":2505,"unning":2506,"world":2507,"Ġwarned":2508,"Ġmessages":2509,"Ġdestroy":2510,"Ġeas":2511,"Ġlur":2512,"Ġthree":2513,"Ġenter":2514,"Ġcoming":2515,"Ġmaps":2516,"Ġvisited":2517,"Ġdef":2518,"Ġmarve":2519,"Ġblend":2520,"Ġtrunk":2521,"ith":2522,"Ġlant":2523,"Ġpan":2524,"Ġbeast":2525,"Ġuns":2526,"Ġsaved":2527,"Ġcompan":2528,"Ġinhabitants":2529,"son":2530,"Ġ3":2531,"Ġlate":2532,"ament":2533,"ously":2534,"Ġfigures":2535,"Ġnavigate":2536,"Ġsitting":2537,"Ġdedicated":2538,"Ġfulfill":2539,"Ġfunct":2540,"your":2541,"Ġturning":2542,"eds":2543,"Ġresil":2544,"Ġartistic":2545,"Ġdifferen":2546,"Ġhealing":2547,"Ġvalue":2548,"Ġsignific":2549,"Ġworkshop":2550,"ruction":2551,"Ġpatterns":2552,"Ġwin":2553,"Ġfate":2554,"Ġinno":2555,"ised":2556,"this":2557,"Ġfamous":2558,"Ġinvited":2559,"Ġdepicting":2560,"Ġfantast":2561,"Ġpark":2562,"Ġvide":2563,"Ġprov":2564,"Ġperhaps":2565,"Ġtraveled":2566,"Ġunfold":2567,"Ġresilience":2568,"con":2569,"dis":2570,"ially":2571,"Ġfall":2572,"Ġreaching":2573,"Ġfox":2574,"Ġfoot":2575,"Ġawa":2576,"Ġperilous":2577,"bs":2578,"Ġsure":2579,"Ġwiz":2580,"ates":2581,"Ġlila":2582,"oking":2583,"vings":2584,"Ġpossessed":2585,"Ġfantastical":2586,"Ġspace":2587,"Ġnotes":2588,"Ġrain":2589,"Ġchanges":2590,"Ġwizard":2591,"aked":2592,"val":2593,"Ġhall":2594,"Ġenchant":2595,"Ġedit":2596,"Ġimagined":2597,"Ġstudy":2598,"Ġrealms":2599,"Ġthreatened":2600,"Ġexistence":2601,"Ġsociety":2602,"Ġenveloped":2603,"__":2604,"Ġpredict":2605,"oration":2606,"asing":2607,"Ġspr":2608,"ode":2609,"ility":2610,"Ġorgan":2611,"Ġdesper":2612,"Ġcreek":2613,"Ġexperim":2614,"Ġventure":2615,"Ġfeed":2616,"Ġtradition":2617,"disco":2618,"Ġtire":2619,"Ġske":2620,"aph":2621,"Ġcalling":2622,"Ġshowing":2623,"Ġpromising":2624,"Ġpreserving":2625,"coming":2626,"vation":2627,"Ġap":2628,"Ġfit":2629,"Ġstar":2630,"Ġchoice":2631,"Ġflick":2632,"Ġfeat":2633,"Ġearly":2634,"Ġpuzzle":2635,"eed":2636,"side":2637,"Ġheartstone":2638,"Ġhanded":2639,"ibly":2640,"Ġcapture":2641,"Ġrepres":2642,"Ġtirelessly":2643,"wood":2644,"Ġident":2645,"Ġbaker":2646,"store":2647,"Ġass":2648,"izing":2649,"pping":2650,"Ġperched":2651,"Ġentered":2652,"Ġawe":2653,"Ġdefeat":2654,"zy":2655,"Ġmal":2656,"Ġmural":2657,"Ġmakes":2658,"Ġur":2659,"ames":2660,"Ġchap":2661,"Ġbookstore":2662,"Ġletters":2663,"Ġfairies":2664,"Ġspeak":2665,"Ġrequired":2666,"ike":2667,"Ġloud":2668,"orn":2669,"Ġprec":2670,"Ġhaving":2671,"Ġminds":2672,"Ġdiary":2673,"Ġtechnology":2674,"ism":2675,"Ġitems":2676,"Ġenv":2677,"Ġallies":2678,"Ġcrow":2679,"Ġperform":2680,"Ġpaper":2681,"up":2682,"tering":2683,"Ġadv":2684,"Ġcozy":2685,"Ġprotector":2686,"Ġcrystals":2687,"Ġconfidence":2688,"Ġinvol":2689,"Ġstorytelling":2690,"who":2691,"Ġreflecting":2692,"Ġinterest":2693,"Ġwound":2694,"Ġfallen":2695,"icing":2696,"Ġatop":2697,"Ġprove":2698,"Ġweren":2699,"Ġexplaining":2700,"Ġflour":2701,"Ġdelicate":2702,"Ġcivilization":2703,"Ġreach":2704,"Ġexact":2705,"Ġexpect":2706,"Ġcontaining":2707,"Ġtravelers":2708,"Ġmirror":2709,"Ġhistorical":2710,"path":2711,"sh":2712,"Ġtaken":2713,"Ġcult":2714,"iron":2715,"Ġformed":2716,"Ġris":2717,"Ġoffering":2718,"Ġtestament":2719,"Ġillum":2720,"Ġparticularly":2721,"Ġexperiment":2722,"ged":2723,"Ġfing":2724,"Ġput":2725,"Ġgame":2726,"ider":2727,"Ġweight":2728,"ilar":2729,"Ġcrim":2730,"Ġrespected":2731,"Ġgreater":2732,"Ġdestruction":2733,"Ġpossible":2734,"Ġrepresent":2735,"aw":2736,"Ġtas":2737,"Ġopp":2738,"Ġbed":2739,"Ġbark":2740,"step":2741,"Ġnec":2742,"ales":2743,"Ġweathered":2744,"Ġarch":2745,"Ġowner":2746,"Ġflowed":2747,"Ġunlocked":2748,"Ġcorners":2749,"Ġilluminated":2750,"ax":2751,"cest":2752,"elara":2753,"Ġisland":2754,"Ġplants":2755,"Ġclosed":2756,"Ġpoin":2757,"Ġarea":2758,"Ġconnections":2759,"Ġcarvings":2760,"Ġquestions":2761,"Ġcapable":2762,"Ġechoing":2763,"cribed":2764,"Ġdetails":2765,"uck":2766,"Ġwore":2767,"Ġfa":2768,"Ġgn":2769,"Ġgust":2770,"Ġancest":2771,"una":2772,"Ġunderground":2773,"Ġartwork":2774,"Ġguarding":2775,"iven":2776,"Ġfully":2777,"Ġblue":2778,"Ġindeed":2779,"Ġfields":2780,"ping":2781,"rave":2782,"Ġing":2783,"Ġfil":2784,"Ġlab":2785,"Ġspot":2786,"Ġconc":2787,"Ġnotice":2788,"Ġseem":2789,"Ġsaf":2790,"Ġcool":2791,"Ġreson":2792,"Ġpassing":2793,"Ġconfront":2794,"Ġsilence":2795,"Ġdiscoveries":2796,"Ġfreely":2797,"Ġbrushst":2798,"flowers":2799,"you":2800,"Ġ+":2801,"Ġachie":2802,"Ġbroke":2803,"Ġfront":2804,"Ġhu":2805,"Ġhig":2806,"rie":2807,"anging":2808,"Ġlights":2809,"Ġview":2810,"Ġseal":2811,"Ġtapestry":2812,"Ġlibrarian":2813,"Ġwoke":2814,"Ġfly":2815,"Ġfab":2816,"Ġmach":2817,"Ġgaz":2818,"Ġref":2819,"Ġable":2820,"iling":2821,"Ġjoin":2822,"Ġrivers":2823,"Ġgot":2824,"Ġwitness":2825,"acks":2826,"Ġalley":2827,"Ġviol":2828,"Ġpossibilities":2829,"Ġtested":2830,"Ġaccess":2831,"Ġobjects":2832,"erer":2833,"hood":2834,"tim":2835,"Ġast":2836,"edric":2837,"Ġfame":2838,"Ġcedric":2839,"Ġhomet":2840,"Ġunrave":2841,"Ġalar":2842,"Ġthanks":2843,"Ġfriendly":2844,"Ġvisitors":2845,"Ġmerely":2846,"Ġdimens":2847,"Ġfabric":2848,"Ġhometown":2849,"rupt":2850,"Ġinfl":2851,"room":2852,"igned":2853,"Ġcoursing":2854,"Ġwarning":2855,"Ġbreak":2856,"Ġvideo":2857,"Ġawaited":2858,"Ġfeedback":2859,"af":2860,"nate":2861,"hearted":2862,"Ġbore":2863,"ument":2864,"Ġlock":2865,"play":2866,"Ġadvice":2867,"Ġcontents":2868,"medi":2869,"Ġgranted":2870,"Ġcommunic":2871,"Ġbuilt":2872,"Ġpromise":2873,"Ġsounds":2874,"Ġmajest":2875,"vol":2876,"ought":2877,"ides":2878,"Ġtrace":2879,"antly":2880,"Ġotherworld":2881,"Ġresol":2882,"Ġshadowy":2883,"ertain":2884,"Ġlurking":2885,"discovery":2886,"Ġchapter":2887,"Ġcrimson":2888,"pes":2889,"ty":2890,"Ġ2":2891,"Ġtable":2892,"Ġmid":2893,"ances":2894,"looking":2895,"Ġprocess":2896,"Ġcoins":2897,"Ġhaven":2898,"Ġincre":2899,"Ġstreaming":2900,"Ġmaterials":2901,"Ġprosper":2902,"Ġcrowd":2903,"Ġotherworldly":2904,"do":2905,"duct":2906,"lit":2907,"Ġwings":2908,"Ġlord":2909,"Ġmed":2910,"ality":2911,"Ġyell":2912,"Ġprof":2913,"abb":2914,"Ġimmedi":2915,"Ġdoes":2916,"actic":2917,"Ġstreet":2918,"Ġdevice":2919,"view":2920,"Ġenviron":2921,"Ġsong":2922,"Ġconvers":2923,"Ġboy":2924,"umble":2925,"Ġbelieving":2926,"Ġeventually":2927,"Ġportraits":2928,"Ġcircle":2929,"Ġexactly":2930,"Ġalaric":2931,"Ġinflu":2932,"'re":2933,"hen":2934,"Ġav":2935,"Ġwield":2936,"Ġlatest":2937,"Ġcursed":2938,"Ġclue":2939,"Ġgrandfather":2940,"Ġexplorer":2941,"echan":2942,"Ġdancing":2943,"Ġwildflowers":2944,"Ġobstacle":2945,"joy":2946,"'m":2947,"pts":2948,"pack":2949,"ract":2950,"Ġ5":2951,"here":2952,"Ġsight":2953,"Ġball":2954,"Ġfaces":2955,"Ġple":2956,"Ġstore":2957,"Ġexcept":2958,"ystem":2959,"Ġovercome":2960,"Ġallowed":2961,"Ġyourself":2962,"Ġmemb":2963,"Ġdev":2964,"Ġprotecting":2965,"Ġheroes":2966,"Ġterrif":2967,"Ġdecision":2968,"Ġsafety":2969,"Ġmajestic":2970,"Ġage":2971,"Ġbar":2972,"Ġmur":2973,"Ġinit":2974,"Ġgain":2975,"Ġred":2976,"Ġrele":2977,"Ġreci":2978,"Ġenig":2979,"ateg":2980,"cial":2981,"Ġroots":2982,"Ġbackpack":2983,"Ġcourse":2984,"Ġdeath":2985,"Ġswe":2986,"Ġreminder":2987,"Ġenvironment":2988,"Ġpri":2989,"Ġmechan":2990,"anced":2991,"ishing":2992,"Ġgall":2993,"ptical":2994,"Ġdeepest":2995,"Ġuncovering":2996,"Ġclimactic":2997,"Ġera":2998,"Ġallowing":2999,"Ġstatue":3000,"ior":3001,"Ġfle":3002,"Ġmer":3003,"Ġmat":3004,"entric":3005,"Ġstand":3006,"sequ":3007,"ribut":3008,"ounding":3009,"lost":3010,"Ġinsights":3011,"Ġrose":3012,"Ġpoet":3013,"Ġquestion":3014,"avor":3015,"chool":3016,"Ġemotion":3017,"Ġstormy":3018,"Ġshelves":3019,"Ġhaunted":3020,"Ġprosperity":3021,"Ġschool":3022,"ery":3023,"Ġcross":3024,"Ġluna":3025,"ternal":3026,"Ġolder":3027,"Ġmoss":3028,"pty":3029,"iques":3030,"Ġdescend":3031,"Ġrecognized":3032,"Ġnarrow":3033,"Ġdifference":3034,"Ġskeptical":3035,"dd":3036,"Ġaud":3037,"Ġbig":3038,"arled":3039,"Ġlake":3040,"Ġdon":3041,"Ġdance":3042,"Ġmin":3043,"Ġspine":3044,"Ġconsequ":3045,"umer":3046,"oses":3047,"Ġthreatening":3048,"ressed":3049,"Ġclimbed":3050,"Ġimportantly":3051,"Ġbonds":3052,"Ġportrait":3053,"Ġgnarled":3054,"cle":3055,"uing":3056,"Ġpa":3057,"Ġmill":3058,"Ġthing":3059,"Ġthrived":3060,"Ġlift":3061,"Ġproved":3062,"Ġdreaming":3063,"Ġwinding":3064,"Ġfloor":3065,"Ġspeaking":3066,"Ġmodern":3067,"Ġweaving":3068,"Ġconsequences":3069,"Ġbes":3070,"Ġfon":3071,"Ġecc":3072,"Ġlau":3073,"Ġmen":3074,"Ġgave":3075,"Ġdisplay":3076,"Ġmanip":3077,"Ġstruct":3078,"ended":3079,"Ġresist":3080,"Ġsett":3081,"Ġseas":3082,"Ġsensation":3083,"Ġresearch":3084,"Ġbeasts":3085,"Ġeccentric":3086,"Ġmanipul":3087,"Ġsl":3088,"Ġcunning":3089,"Ġtor":3090,"Ġnumb":3091,"seen":3092,"iff":3093,"ustr":3094,"Ġwished":3095,"Ġjourneys":3096,"Ġfool":3097,"forts":3098,"Ġpurs":3099,"Ġglade":3100,"grand":3101,"Ġchoose":3102,"Ġengine":3103,"roken":3104,"she":3105,"Ġbas":3106,"Ġbag":3107,"Ġcode":3108,"Ġgiven":3109,"Ġweather":3110,"Ġchill":3111,"ortun":3112,"Ġdevelo":3113,"Ġoffer":3114,"Ġpeaceful":3115,"Ġteam":3116,"Ġhumanity":3117,"Ġfloating":3118,"Ġneighbors":3119,"Ġshift":3120,"Ġrumored":3121,"Ġaccepted":3122,"Ġtechniques":3123,"fall":3124,"fforts":3125,"Ġtrou":3126,"Ġefforts":3127,"Ġcal":3128,"Ġhin":3129,"Ġgone":3130,"Ġask":3131,"Ġmansion":3132,"Ġcond":3133,"Ġimage":3134,"Ġemily":3135,"Ġhollow":3136,"Ġobstacles":3137,"Ġeffect":3138,"cent":3139,"Ġsle":3140,"Ġmother":3141,"Ġthink":3142,"Ġintell":3143,"Ġjud":3144,"gest":3145,"ife":3146,"kest":3147,"Ġeveryday":3148,"Ġresponsibly":3149,"Ġdiscu":3150,"Ġunsure":3151,"Ġfunction":3152,"Ġresolve":3153,"tw":3154,"taking":3155,"ys":3156,"itage":3157,"llo":3158,"Ġheritage":3159,"Ġnumer":3160,"Ġvo":3161,"abits":3162,"empt":3163,"Ġprevent":3164,"Ġentity":3165,"Ġnumerous":3166,"cus":3167,"well":3168,"Ġcause":3169,"Ġdar":3170,"vert":3171,"Ġupright":3172,"Ġorange":3173,"plic":3174,"Ġplant":3175,"Ġgeneration":3176,"Ġinstruct":3177,"Ġteach":3178,"Ġmarked":3179,"Ġboundless":3180,"Ġtitled":3181,"Ġlantern":3182,"Ġwinter":3183,"Ġopportun":3184,"Ġyellowed":3185,"Ġfought":3186,"Ġlined":3187,"Ġdone":3188,"Ġwits":3189,"ades":3190,"Ġrit":3191,"Ġornate":3192,"Ġfindings":3193,"Ġobser":3194,"Ġmanuscript":3195,"Ġfoolish":3196,"Ġdarkest":3197,"Ġhabits":3198,"Ġund":3199,"ley":3200,"Ġsaving":3201,"Ġcru":3202,"Ġourselves":3203,"Ġdepth":3204,"Ġembraced":3205,"Ġplayed":3206,"Ġbreathtaking":3207,"Ġexhib":3208,"Ġvictor":3209,"Ġmarveled":3210,"Ġprecious":3211,"ean":3212,"ware":3213,"Ġvers":3214,"rene":3215,"Ġbased":3216,"Ġcertain":3217,"Ġpet":3218,"Ġlim":3219,"Ġgreen":3220,"Ġcreations":3221,"Ġlegends":3222,"Ġtransformation":3223,"Ġcaptured":3224,"Ġmarcus":3225,"Ġbattling":3226,"Ġdetailing":3227,"resh":3228,"matic":3229,"Ġdesperate":3230,"Ġhigher":3231,"night":3232,"Ġtight":3233,"Ġfile":3234,"Ġdare":3235,"Ġwilling":3236,"ustom":3237,"opy":3238,"Ġrole":3239,"Ġcliff":3240,"Ġsetting":3241,"Ġparts":3242,"Ġlesson":3243,"Ġgoing":3244,"Ġtruths":3245,"Ġrelics":3246,"Ġlanguages":3247,"Ġlarger":3248,"Ġdaily":3249,"Ġstruck":3250,"Ġanswer":3251,"Ġmelod":3252,"Ġeditor":3253,"Ġancestors":3254,"Ġsweet":3255,"Ġlow":3256,"Ġmult":3257,"Ġhumble":3258,"Ġvall":3259,"Ġworn":3260,"Ġlog":3261,"Ġimages":3262,"Ġnovel":3263,"Ġlocked":3264,"Ġexperien":3265,"Ġclaiming":3266,"Ġdeciphering":3267,"Ġcombined":3268,"Ġmelody":3269,"Ġimmediately":3270,"Ġdiscuss":3271,"Ġvalley":3272,"uit":3273,"Ġfavor":3274,"Ġpat":3275,"aging":3276,"Ġproble":3277,"Ġproduct":3278,"Ġwhisperer":3279,"there":3280,"Ġmission":3281,"Ġorbs":3282,"Ġchildhood":3283,"Ġglim":3284,"Ġsilent":3285,"Ġwindows":3286,"Ġconsum":3287,"Ġsaying":3288,"Ġnavigating":3289,"Ġantique":3290,"Ġemanating":3291,"Ġbakery":3292,"bes":3293,"ives":3294,"kee":3295,"hel":3296,"Ġfeared":3297,"Ġtoday":3298,"Ġpounding":3299,"Ġgate":3300,"amp":3301,"oney":3302,"Ġtalents":3303,"Ġthanked":3304,"Ġcloud":3305,"Ġencour":3306,"Ġserene":3307,"Ġanimal":3308,"Ġensure":3309,"Ġbrightly":3310,"Ġillumin":3311,"Ġreflection":3312,"Ġimmense":3313,"Ġidentity":3314,"steps":3315,"eanor":3316,"80":3317,"fly":3318,"ient":3319,"lies":3320,"ties":3321,"Ġwid":3322,"Ġfight":3323,"aries":3324,"Ġhart":3325,"Ġhabit":3326,"Ġdoing":3327,"Ġstret":3328,"Ġwrong":3329,"Ġflash":3330,"Ġrestored":3331,"Ġstopped":3332,"Ġhonor":3333,"Ġfootsteps":3334,"Ġtun":3335,"Ġcustom":3336,"ench":3337,"Ġhung":3338,"Ġlif":3339,"seek":3340,"Ġaspect":3341,"Ġcob":3342,"Ġtraveling":3343,"Ġintegr":3344,"Ġwatchful":3345,"Ġappreciation":3346,"Ġwounds":3347,"Ġbeside":3348,"ma":3349,"min":3350,"nings":3351,"ray":3352,"hello":3353,"Ġbread":3354,"Ġunseen":3355,"Ġran":3356,"Ġric":3357,"Ġsecond":3358,"Ġcost":3359,"Ġhair":3360,"Ġstepping":3361,"Ġperspect":3362,"Ġtexts":3363,"Ġworthy":3364,"Ġtwinkling":3365,"Ġterrified":3366,"Ġenigmatic":3367,"bound":3368,"of":3369,"Ġfarm":3370,"Ġaloud":3371,"Ġloss":3372,"Ġcoin":3373,"Ġsolace":3374,"Ġpurposes":3375,"Ġlistening":3376,"Ġintertw":3377,"Ġcrafted":3378,"rokes":3379,"Ġsacred":3380,"Ġsacrif":3381,"Ġapart":3382,"line":3383,"not":3384,"Ġtending":3385,"Ġtheo":3386,"Ġodd":3387,"Ġfro":3388,"Ġeve":3389,"Ġmass":3390,"Ġgem":3391,"vering":3392,"idation":3393,"ains":3394,"anded":3395,"Ġwhether":3396,"Ġoverlooking":3397,"Ġdoc":3398,"Ġsmallest":3399,"cks":3400,"Ġempty":3401,"ishment":3402,"Ġorigins":3403,"Ġshape":3404,"Ġcherish":3405,"Ġtemple":3406,"Ġproperties":3407,"Ġthrill":3408,"Ġfingers":3409,"let":3410,"Ġai":3411,"Ġbase":3412,"enu":3413,"ature":3414,"Ġhanging":3415,"Ġthri":3416,"Ġnorm":3417,"eted":3418,"Ġbutter":3419,"Ġalt":3420,"Ġalike":3421,"Ġscri":3422,"Ġsug":3423,"Ġlayer":3424,"comm":3425,"Ġbloomed":3426,"Ġsupplies":3427,"Ġtome":3428,"Ġrumors":3429,"Ġpanic":3430,"Ġachieve":3431,"Ġlifted":3432,"laim":3433,"my":3434,"Ġreb":3435,"rop":3436,"Ġvol":3437,"ria":3438,"Ġunw":3439,"Ġspare":3440,"Ġshone":3441,"Ġfinished":3442,"Ġseeker":3443,"Ġswir":3444,"Ġbelonging":3445,"Ġbranch":3446,"Ġtaller":3447,"Ġpulsed":3448,"Ġperfectly":3449,"Ġcivilizations":3450,"Ġcherished":3451,"Ġflourished":3452,"Ġexperimenting":3453,"how":3454,"Ġsan":3455,"rel":3456,"Ġomin":3457,"Ġtrail":3458,"Ġrul":3459,"ably":3460,"Ġuser":3461,"ief":3462,"Ġlayers":3463,"Ġperse":3464,"Ġbenef":3465,"Ġsteps":3466,"Ġwoven":3467,"Ġblack":3468,"Ġcanvases":3469,"Ġmixed":3470,"Ġpondered":3471,"Ġescape":3472,"Ġmachine":3473,"Ġsuggest":3474,"Ġrou":3475,"Ġsn":3476,"Ġwro":3477,"Ġfresh":3478,"Ġasking":3479,"Ġintent":3480,"Ġshake":3481,"Ġhadn":3482,"Ġbehav":3483,"Ġimpact":3484,"Ġadventurer":3485,"Ġconnecting":3486,"Ġpride":3487,"Ġinviting":3488,"Ġdragons":3489,"Ġexisted":3490,"Ġstruggled":3491,"Ġannual":3492,"Ġingred":3493,"Ġmurals":3494,"Ġintellig":3495,"Ġilluminating":3496,"Ġhartley":3497,"Ġwrote":3498,"more":3499,"pu":3500,"ral":3501,"Ġmast":3502,"Ġherbs":3503,"omen":3504,"Ġtrapped":3505,"Ġrad":3506,"Ġarri":3507,"Ġimpending":3508,"Ġbookshel":3509,"Ġshimmer":3510,"Ġsketches":3511,"Ġideas":3512,"Ġpublic":3513,"Ġbusiness":3514,"Ġswirling":3515,"Ġsystem":3516,"rem":3517,"Ġopt":3518,"Ġcoun":3519,"itive":3520,"Ġlin":3521,"Ġphen":3522,"Ġmain":3523,"Ġinf":3524,"Ġsty":3525,"Ġtrick":3526,"Ġrich":3527,"Ġadded":3528,"Ġgrace":3529,"Ġapps":3530,"Ġnowhere":3531,"lipped":3532,"Ġprice":3533,"Ġstreams":3534,"Ġgives":3535,"Ġpracticing":3536,"Ġtraditional":3537,"volent":3538,"Ġvoices":3539,"Ġcrucial":3540,"Ġfavorite":3541,"Ġsanct":3542,"Ġphenomen":3543,"uary":3544,"uals":3545,"Ġmush":3546,"ution":3547,"Ġbutt":3548,"chol":3549,"ulations":3550,"ords":3551,"Ġserved":3552,"Ġtravels":3553,"Ġcollab":3554,"Ġsinging":3555,"pathy":3556,"Ġintertwined":3557,"Ġmassive":3558,"Ġmushroom":3559,"Ġign":3560,"Ġtaking":3561,"Ġsage":3562,"Ġment":3563,"ises":3564,"omes":3565,"Ġreas":3566,"aming":3567,"Ġwash":3568,"Ġtry":3569,"Ġdeepen":3570,"Ġclot":3571,"Ġopening":3572,"Ġpost":3573,"Ġharmon":3574,"Ġeagerly":3575,"Ġtexture":3576,"Ġgiant":3577,"Ġadding":3578,"Ġtitle":3579,"Ġunravel":3580,"Ġinstructions":3581,"Ġsanctuary":3582,"30":3583,"Ġschol":3584,"Ġwary":3585,"Ġbroken":3586,"Ġpop":3587,"iding":3588,"outh":3589,"Ġeverywhere":3590,"Ġretrie":3591,"ready":3592,"Ġtrium":3593,"Ġkeeping":3594,"Ġthreats":3595,"Ġvisitor":3596,"Ġaccident":3597,"Ġmirac":3598,"Ġphot":3599,"Ġsparkled":3600,"Ġnavigated":3601,"Ġfocused":3602,"Ġtransforming":3603,"cil":3604,"case":3605,"Ġalex":3606,"Ġbord":3607,"Ġwitch":3608,"Ġspend":3609,"Ġenjoy":3610,"ulous":3611,"Ġrabb":3612,"usion":3613,"Ġskies":3614,"Ġendless":3615,"Ġclocks":3616,"Ġfeather":3617,"Ġburst":3618,"Ġillustr":3619,"Ġindivid":3620,"Ġappreciate":3621,"Ġshifted":3622,"Ġpulled":3623,"Ġdesigns":3624,"Ġsummer":3625,"cts":3626,"Ġoce":3627,"ndane":3628,"Ġbit":3629,"acter":3630,"Ġstri":3631,"Ġfort":3632,"Ġconst":3633,"Ġwhoever":3634,"kered":3635,"Ġstra":3636,"Ġrobes":3637,"Ġdarker":3638,"Ġended":3639,"Ġdifferently":3640,"Ġmisuse":3641,"Ġmundane":3642,"Ġpotions":3643,"Ġbattles":3644,"Ġconsider":3645,"Ġdesires":3646,"Ġghostly":3647,"Ġflickering":3648,"Ġlouder":3649,"Ġsealed":3650,"Ġincreasing":3651,"keeper":3652,"Ġborders":3653,"ming":3654,"mos":3655,"sp":3656,"Ġner":3657,"icking":3658,"Ġstair":3659,"Ġunic":3660,"Ġelders":3661,"Ġalongside":3662,"Ġsteal":3663,"Ġharold":3664,"Ġcaver":3665,"graph":3666,"Ġclimax":3667,"Ġsouls":3668,"Ġsearch":3669,"Ġcharacter":3670,"Ġexamined":3671,"Ġflew":3672,"Ġstraight":3673,"99":3674,"Ġpal":3675,"Ġmatt":3676,"Ġune":3677,"ushing":3678,"Ġgreeted":3679,"Ġtele":3680,"Ġconfron":3681,"Ġprin":3682,"Ġwriters":3683,"Ġinteract":3684,"Ġclimb":3685,"Ġidea":3686,"Ġtype":3687,"Ġaudience":3688,"Ġradi":3689,"Ġtriumph":3690,"nel":3691,"vant":3692,"Ġcand":3693,"itted":3694,"Ġprou":3695,"Ġpol":3696,"Ġparch":3697,"Ġmes":3698,"Ġhun":3699,"ickered":3700,"Ġalready":3701,"ister":3702,"Ġages":3703,"anged":3704,"Ġexploration":3705,"Ġcreating":3706,"Ġdrew":3707,"Ġemer":3708,"Ġembed":3709,"Ġenduring":3710,"Ġleader":3711,"Ġflowing":3712,"Ġflickered":3713,"Ġsolved":3714,"Ġglass":3715,"Ġrestoring":3716,"Ġfrag":3717,"Ġpulse":3718,"Ġexperienced":3719,"Ġcobble":3720,"Ġperspective":3721,"Ġproud":3722,"?)":3723,"che":3724,"vin":3725,"Ġsang":3726,"Ġbless":3727,"oub":3728,"atform":3729,"Ġpay":3730,"Ġpour":3731,"Ġpile":3732,"Ġmaint":3733,"Ġgle":3734,"Ġstroke":3735,"Ġkno":3736,"Ġarms":3737,"Ġcreative":3738,"Ġchallenging":3739,"Ġsyn":3740,"Ġactiv":3741,"Ġrelations":3742,"Ġliter":3743,"Ġboundaries":3744,"Ġ10":3745,"Ġhappy":3746,"Ġblew":3747,"Ġborn":3748,"Ġdaughter":3749,"Ġpict":3750,"irrel":3751,"ection":3752,"Ġbrid":3753,"Ġempathy":3754,"202":3755,"Ġchanging":3756,"Ġseeds":3757,"Ġbeautifully":3758,"Ġtablets":3759,"Ġfireplace":3760,"Ġsquirrel":3761,"Ġdefeated":3762,"Ġcrafting":3763,"Ġinvention":3764,"Ġsongs":3765,"Ġtightly":3766,"Ġintelligence":3767,"Ġincreasingly":3768,"Ġmatters":3769,"Ġparchment":3770,"Ġmot":3771,"otic":3772,"Ġsole":3773,"Ġprog":3774,"Ġplatform":3775,"Ġmeans":3776,"Ġdesigned":3777,"Ġleaf":3778,"Ġmetic":3779,"Ġsimilar":3780,"Ġsea":3781,"Ġunlikely":3782,"Ġintricately":3783,"Ġforms":3784,"Ġcollecting":3785,"Ġearli":3786,"Ġsocial":3787,"Ġdedication":3788,"Ġstruggles":3789,"Ġcatch":3790,"Ġfocus":3791,"Ġdimension":3792,"Ġconversation":3793,"Ġpoetry":3794,"Ġsleep":3795,"Ġwidened":3796,"Ġriches":3797,"Ġrelationship":3798,"ailed":3799,"bulations":3800,"fo":3801,"fic":3802,"rap":3803,"wr":3804,"Ġselling":3805,"Ġfal":3806,"Ġethere":3807,"Ġcab":3808,"ouched":3809,"ither":3810,"itation":3811,"Ġdoub":3812,"Ġthread":3813,"Ġforth":3814,"ify":3815,"Ġweb":3816,"ump":3817,"Ġlosing":3818,"Ġqueen":3819,"cience":3820,"ability":3821,"Ġovercoming":3822,"Ġdecades":3823,"brush":3824,"Ġartistry":3825,"Ġuntouched":3826,"Ġtribulations":3827,"Ġtea":3828,"Ġforming":3829,"Ġbuildings":3830,"Ġbeginning":3831,"Ġsignificant":3832,"Ġassist":3833,"Ġflying":3834,"Ġaston":3835,"Ġavo":3836,"Ġstructure":3837,"Ġversion":3838,"Ġnervous":3839,"Ġethereal":3840,"ients":3841,"man":3842,"Ġamb":3843,"Ġpain":3844,"ising":3845,"ission":3846,"Ġgas":3847,"idden":3848,"idents":3849,"imed":3850,"Ġintense":3851,"essary":3852,"Ġprodu":3853,"Ġinscript":3854,"Ġstrateg":3855,"Ġsmo":3856,"arkable":3857,"osing":3858,"Ġtalked":3859,"Ġjourneyed":3860,"Ġjoined":3861,"Ġgardens":3862,"Ġswept":3863,"Ġessent":3864,"Ġsitu":3865,"Ġgiving":3866,"Ġrecognition":3867,"Ġveins":3868,"Ġmale":3869,"Ġadvanced":3870,"Ġinfluence":3871,"Ġopportunity":3872,"Ġglimps":3873,"Ġdeepened":3874,"Ġpopular":3875,"Ġphoto":3876,"Ġcobblestone":3877,"Ġpouring":3878,"Ġcabin":3879,"aff":3880,"great":3881,"og":3882,"pidation":3883,"set":3884,"under":3885,"Ġaid":3886,"Ġson":3887,"erred":3888,"Ġbush":3889,"Ġequ":3890,"Ġmouth":3891,"Ġlid":3892,"ands":3893,"Ġtrepidation":3894,"Ġusers":3895,"Ġrealization":3896,"Ġprev":3897,"Ġpoor":3898,"Ġforged":3899,"Ġclean":3900,"Ġspecific":3901,"Ġmarketing":3902,"Ġmax":3903,"Ġpositive":3904,"Ġblending":3905,"Ġcultures":3906,"Ġcalm":3907,"Ġbookshelf":3908,"Ġearlier":3909,"Ġmalevolent":3910,"life":3911,"pro":3912,"pir":3913,"Ġscience":3914,"rect":3915,"erns":3916,"iss":3917,"ald":3918,"ases":3919,"Ġtimel":3920,"Ġroamed":3921,"osed":3922,"Ġremarkable":3923,"Ġpressed":3924,"Ġdescribed":3925,"enery":3926,"Ġdiffic":3927,"Ġcompleted":3928,"Ġgetting":3929,"Ġparticip":3930,"Ġsignificance":3931,"Ġbrushstroke":3932,"Ġdevelop":3933,"Ġbutterfly":3934,"Ġillustrations":3935,"Ġdifficult":3936,"10":3937,"grove":3938,"uild":3939,"Ġ'":3940,"arity":3941,"Ġline":3942,"str":3943,"Ġhide":3944,"Ġnet":3945,"Ġforget":3946,"Ġvines":3947,"uments":3948,"Ġpend":3949,"Ġbackground":3950,"Ġskill":3951,"Ġcanopy":3952,"Ġimparted":3953,"Ġowls":3954,"Ġhargrove":3955,"Ġrunning":3956,"Ġrespond":3957,"Ġcountry":3958,"gged":3959,"Ġmodel":3960,"Ġdrawings":3961,"Ġeras":3962,"Ġrequire":3963,"Ġsparkling":3964,"Ġrepresented":3965,"Ġrecipes":3966,"Ġgallery":3967,"Ġominously":3968,"Ġmiraculous":3969,"Ġfortun":3970,",âĢĿ":3971,"off":3972,"Ġ$":3973,"Ġtrove":3974,"Ġsad":3975,"Ġfol":3976,"Ġflipped":3977,"Ġlore":3978,"Ġmention":3979,"Ġmoney":3980,"Ġink":3981,"Ġinex":3982,"Ġbear":3983,"verance":3984,"ceed":3985,"Ġunderbrush":3986,"Ġgrown":3987,"Ġappl":3988,"cket":3989,"Ġresour":3990,"Ġcompet":3991,"Ġprotection":3992,"Ġoutsm":3993,"Ġconfident":3994,"versity":3995,"Ġinclude":3996,"Ġdipped":3997,"Ġdisappearing":3998,"Ġeasy":3999,"Ġenchantment":4000,"Ġinvolved":4001,"Ġexceptional":4002,"Ġmushrooms":4003,"Ġreason":4004,"Ġembedded":4005,"Ġvert":4006,"Ġtied":4007,"Ġsus":4008,"eries":4009,"Ġband":4010,"Ġfact":4011,"Ġfaster":4012,"Ġperm":4013,"Ġhill":4014,"Ġul":4015,"Ġreact":4016,"icious":4017,"Ġleast":4018,"Ġunve":4019,"Ġalter":4020,"apid":4021,"Ġconvin":4022,"Ġwhole":4023,"Ġcrit":4024,"Ġgreenery":4025,"Ġhailed":4026,"Ġneeds":4027,"Ġdram":4028,"Ġconfused":4029,"Ġharvest":4030,"Ġcorrect":4031,"Ġbloss":4032,"Ġsigns":4033,"Ġencountering":4034,"Ġshapes":4035,"Ġresear":4036,"Ġeffort":4037,"Ġvictory":4038,"Ġfeatures":4039,"Ġnecessary":4040,"Ġcooler":4041,"Ġmember":4042,"Ġbarri":4043,"Ġmanipulate":4044,"Ġvictorious":4045,"Ġsacrifice":4046,"laimed":4047,"Ġcouncil":4048,"Ġfalse":4049,"bby":4050,"gu":4051,"mark":4052,"po":4053,"Ġrender":4054,"Ġkit":4055,"Ġunp":4056,"Ġunch":4057,"Ġchat":4058,"aste":4059,"Ġcontribut":4060,"Ġanymore":4061,"Ġdetailed":4062,"Ġclarity":4063,"Ġskilled":4064,"Ġlocals":4065,"Ġcompon":4066,"Ġcelest":4067,"Ġcontrolling":4068,"Ġsubject":4069,"Ġshelf":4070,"Ġdisappearance":4071,"cont":4072,"Ġalleyway":4073,"Ġfonts":4074,"Ġtrouble":4075,"Ġperseverance":4076,"Ġinexplic":4077,"Ġultim":4078,"por":4079,"inite":4080,"Ġsel":4081,"Ġscient":4082,"ats":4083,"Ġstir":4084,"urt":4085,"Ġtraps":4086,"oded":4087,"ified":4088,"Ġarc":4089,"Ġinscribed":4090,"Ġacts":4091,"Ġaccom":4092,"elled":4093,"Ġnights":4094,"Ġstartled":4095},"merges":["Ġ t","h e","Ġ a","i n","Ġ s","Ġt he","r e","Ġ w","e d","Ġ o","e r","n d","in g","Ġ b","Ġ f","Ġ e","Ġ c","a r","o u","i t","e n","a t","Ġ he","o n","Ġt o","Ġ l","Ġ d","Ġ p","s t","Ġ m","o r","Ġ h","Ġo f","Ġa nd","l l","Ġ in","e s","a n","Ġhe r","Ġt h","o w","i s","o m","Ġ n","Ġs he","a l","Ġ g","Ġb e","Ġ u","a c","Ġe l","Ġ re","a s","l y","l d","i c","Ġo n","en t","r o","u t","Ġw it","g h","v er","Ġl i","Ġwit h","e t","Ġs t","v e","i d","i ll","a d","ar a","u r","Ġw h","e c","Ġel ara","s e","Ġ it","a g","l e","i on","i m","i r","Ġa s","a m","a y","o t","re d","o k","a in","Ġth at","Ġf or","Ġ v","e e","r ou","Ġw as","u re","gh t","Ġ y","Ġa n","Ġ k","o re","c e","Ġn e","r i","a nd","he r","Ġin t","a ll","Ġb ut","Ġ j","Ġl e","r om","Ġu n","Ġy ou","g e","Ġe x","q u","in d","Ġs p","er s","Ġf rom","Ġt r","Ġs h","â Ģ","i z","Ġthe y","Ġk n","Ġa l","Ġw ill","o d","Ġw or","a p","l ed","i f","Ġw e","at ion","c h","Ġb y","Ġh ad","u st","ou ld","Ġon e","ar t","Ġc on","Ġw he","ou t","v ed","Ġa b","Ġn ot","it y","Ġwh o","Ġc h","ec t","ag e","i l","u m","ou s","ain t","om e","Ġe n","es s","ar d","u l","Ġu p","ou nd","Ġt re","at e","l o","Ġwill ow","t h","Ġ \"","Ġs o","p er","an t","w n","ro ok","b rook","Ġwillow brook","' s","n ed","Ġl o","ou r","ver y","k e","Ġthe ir","Ġkn ow","e l","he d","Ġint o","o od","Ġ r","i es","rou gh","Ġth rough","on g","Ġ -","Ġa r","u n","on e","c o","t er","am e","Ġ qu","Ġo r","nd er","o p","Ġa t","a ve","ac h","i ght","ac e","Ġs ee","Ġth is","se l","d en","f e","id e","Ġh is","i st","p p","re at","am ed","Ġd ay","Ġab out","Ġv ill","i ous","Ġli ly","t s","Ġb o","Ġd is","e ar","a st","p l","y st","Ġup on","Ġt im","Ġu nder","n e","Ġp ro","Ġre al","Ġit s","Ġc om","o l","Ġthe m","s s","rou nd","ac k","e st","t her","Ġe v","Ġa d","l ow","sel f","Ġbe c","Ġin s","c i","Ġtim e","Ġo ld","Ġo ut","m b","u s","Ġne w","Ġj ust","Ġm ag","Ġe very","Ġc ould","Ġe ach","i g","Ġw is","n g","Ġf ore","u e","Ġp ow","k ed","Ġcon t","Ġwe re","Ġthe re","Ġmag ic","k ing","Ġar t","Ġ is","Ġp aint","Ġn amed","a b","Ġh ow","Ġd ee","Ġwor ld","l ing","om et","Ġwh is","ure s","w ay","Ġm an","Ġs a","Ġs ec","Ġo ver","m ed","Ġwhe n","Ġp l","Ġhe art","u d","Ġbo ok","Ġa ll","iz a","Ġg r","Ġg u","Ġel iza","Ġd ec","Ġs omet","Ġh id","u ed","Ġvill age","Ġm yst","i le","Ġsec re","Ġm o","v ing","Ġhid den","Ġst r","Ġdis co","Ġu s","Ġli ved","Ġo ther","âĢ Ļ","Ġp e","a re","Ġs m","Ġc r","Ġon ce","Ġwhe re","ar k","n t","o se","Ġyou ng","Ġa pp","h ing","Ġb r","Ġa c","ar y","Ġpow er","ur ned","âĢ Ķ","ci ent","Ġm ore","e red","Ġf ound","Ġto wn","e m","b r","Ġa g","v ent","Ġmyst er","v es","Ġan cient","Ġc ur","an g","Ġw ood","Ġfore st","Ġw ould","Ġc o","e w","ing s","Ġex pl","e en","Ġbe g","Ġreal iz","Ġev en","Ġwith in","Ġ im","id ed","a red","Ġre t","Ġ ro","p en","or t","Ġan y","an ce","Ġknow n","n ing","as s","at ed","Ġj our","e nd","ve red","at h","o s","Ġwh ile","Ġt al","all y","Ġb ack","a k","f ore","Ġc reat","Ġd et","Ġf ind","Ġc lo","Ġd re","Ġbe fore","Ġa m","Ġa round","e p","Ġth an","um b","Ġad vent","ac hed","Ġwh at","Ġbec ame","ne y","Ġo wn","Ġwood s","Ġjour ney","Ġm r","ion s","Ġd o","f t","Ġrealiz ed","e ll","o nd","' t","an ge","Ġbeg an","Ġa f","Ġdec ided","s o","Ġle ar","in ed","Ġon ly","Ġhe l","Ġsomet hing","Ġher self","Ġbe t","Ġg re","Ġunder st","i e","Ġtr ue","Ġhel p","ill ed","Ġli fe","Ġf in","er ing","Ġqu aint","en ce","Ġh im","i re","Ġsm all","Ġal so","c k","op le","er m","ow n","o ld","Ġc l","Ġli ke","Ġtre as","Ġre ve","ear s","Ġbe en","Ġg low","f ul","Ġaf ter","ain ed","Ġyou r","Ġh ome","ic e","umb led","Ġs ome","i ve","an s","Ġst umbled","Ġf illed","way s","Ġwhis per","n ess","Ġsee med","Ġre s","Ġw ay","w ard","Ġm e","Ġdet erm","r a","Ġn at","ri g","p t","Ġs c","Ġth ose","ation s","t en","Ġw om","a ut","f ound","Ġal ways","Ġwom an","Ġl and","Ġpe ople","el t","ar m","led ge","Ġdisco vered","Ġre m","and ing","or y","Ġknow ledge","Ġli ght","ac t","d om","Ġbe h","Ġp ass","Ġsecre ts","Ġs ur","Ġn o","Ġs k","w een","Ġbet ween","g et","Ġcont in","Ġc an","Ġp re","Ġgu ard","ou nt","Ġreve al","Ġ if","Ġf elt","Ġe y","Ġth ou","Ġmyster ious","i ld","i v","a ke","Ġins ide","a u","p ect","Ġbeh ind","Ġf o","Ġag ain","e ver","Ġs u","k s","Ġn ight","Ġother s","Ġwhisper ing","Ġh ave","ri end","ent s","Ġtre e","i p","Ġret urned","at her","Ġe m","Ġdee p","u ll","Ġo pen","al s","Ġkn ew","Ġins p","Ġst re","Ġs et","Ġel d","i qu","Ġthe se","Ġf riend","Ġwis dom","get her","or s","ic al","Ġdee per","Ġint rig","Ġto gether","Ġcom m","all en","Ġre ad","Ġm ap","re ad","Ġstr ange","c t","in s","Ġintrig ued","on s","Ġey es","Ġwor d","e x","ot her","c es","Ġd ark","Ġne ar","Ġd es","ic k","Ġdeterm ined","f or","Ġw at","Ġh a","Ġle a","Ġthe n","Ġp o","Ġe mb","Ġh and","Ġy ears","Ġcontin ued","Ġmagic al","ac ed","Ġnew found","ant ed","Ġbe aut","ur ing","i b","y ond","Ġbe yond","Ġlear ned","i an","Ġhow ever","Ġch allen","ab le","Ġnat ure",", \"","Ġs ud","Ġl ay","Ġsud den","ar ing","Ġwith out","Ġc re","i ar","Ġc our","Ġe nd","Ġle ad","en se","c hed","Ġp ath","Ġn ow","Ġfin ally","Ġtreas ure","Ġsp ir","Ġv is","Ġw r","Ġsh ad","Ġl ong","ro ss","Ġ âĢ","Ġim p","Ġspir it","2 0","Ġmo st","n ect","Ġlo c","Ġapp ro","Ġs un","ir l","Ġwis e","i os","ad e","Ġfor g","Ġsa id","Ġwhis p","Ġh ap","ge nd","Ġa re","Ġh op","ri ght","Ġle gend","Ġg irl","Ġlo ok","ag es","t he","ill s","Ġen c","Ġsecre t","Ġday s","Ġcur ios","Ġus ing","Ġcurios ity","Ġadvent ure","Ġwas n","Ġd e","Ġne ed","Ġsp read","Ġcon nect","Ġunderst anding","Ġw al","Ġc ame","Ġf ee","en er","Ġp er","Ġre ached","Ġal ong","Ġpaint ing","Ġd if","Ġof f","r ic","Ġart ist","s er","Ġdre am","Ġcom p","Ġt urned","Ġd own","Ġc ity","it ies","Ġshad ow","Ġfriend s","Ġo ur","Ġbe l","ot h","fe re","Ġpro t","Ġac ross","ic h","Ġtre es","en e","th ing","Ġam ong","Ġc ome","or d","Ġsudden ly","Ġne ver","Ġ i","l es","ic t","Ġforg ot","it e","Ġprot ect","Ġgre w","Ġdif fere","m ent","ag ers","Ġw and","Ġs y","Ġpl ace","i al","Ġab il","Ġcomm un","Ġg ener","i a","Ġc ar","in e","Ġvill agers","Ġappro ached","Ġf ir","i ly","Ġh um","Ġcreat ures","Ġli br","ec ul","Ġf am","ok e","Ġh ist","ll ow","Ġen t","Ġen ch","Ġe ver","Ġm or","Ġqu est","Ġf low","Ġguard ian","o ice","Ġgr and","Ġun co","it ing","Ġp ecul","Ġpecul iar","Ġcour age","Ġthou gh","a v","Ġfir st","Ġa ir","Ġwh ich","r y","Ġo ak","e y","Ġa ut","ic ed","x t","Ġo w","Ġso ft","er g","or ing","Ġk ind","l ess","Ġin st","Ġlo ve","in ary","Ġow l","Ġb oth","g es","Ġp art","Ġa way","i ed","Ġf ig","Ġart if","i ec","in ation","Ġsh ared","Ġmor ning","s c","Ġtr ans","at ing","au ght","b y","he s","Ġm om","c ed","Ġst ood","Ġsp ent","Ġg if","Ġl et","Ġglow ing","ch ing","Ġne xt","Ġg old","Ġm ade","mb ol","it ed","Ġsy mbol","Ġl ess","Ġex per","or ne","Ġpass ed","Ġevery one","l ight","Ġne st","Ġg reat","Ġdo or","iqu e","Ġp ast","im es","Ġclo ck","ust ling","Ġnot iced","Ġm y","Ġtal es","Ġdiffere nt","Ġnest led","ur n","Ġl ed","Ġk ee","om ing","ll ing","Ġw ind","Ġin c","Ġfo llow","Ġd ep","Ġc ent","Ġtr ave","Ġst art","Ġit self","Ġf ar","l i","e ared","Ġun t","Ġchallen ges","or ies","Ġm is","Ġsa w","Ġench anted","Ġs ou","Ġb ene","Ġsomet imes","pect ed","Ġc le","u al","Ġw arm","Ġu se","Ġj o","Ġout s","Ġfee ling","Ġv oice","Ġp ur","Ġpe ace","Ġforgot ten","Ġlibr ary","Ġg ard","Ġbook s","Ġinsp ir","Ġv i","Ġd id","ĠâĢ ĵ","Ġfor ward","Ġsp oke","Ġw ee","a king","Ġgard en","Ġlo st","Ġdre amed","Ġadvent ures","Ġh ills","Ġt w","t ing","Ġexpl ore","Ġnear by","Ġhap pen","Ġhe ld","Ġlead ing","Ġch ang","Ġf ace","Ġm u","Ġst e","im m","Ġso on","Ġst one","Ġlea ves","Ġc ap","Ġcr yst","Ġreveal ed","at er","Ġex c","Ġm et","Ġus ed","Ġs im","Ġs e","Ġro lling","u red","Ġ (","Ġ ed","Ġfig ure","Ġan other","Ġhop e","i red","ate st","Ġf l","Ġp ers","rou ght","pp ed","Ġman y","Ġun ique","Ġgener ations","Ġexpl oring","Ġloc al","Ġagain st","Ġwand ering","Ġt ri","Ġwee ks","re n","Ġd r","Ġac t","Ġwor k","Ġb rought","h ip","Ġeven ing","ward s","Ġhist ory","ent ly","Ġsome one","Ġd el","Ġbene ath","Ġunco ver","Ġk ey","Ġha w","Ġp iec","Ġcur ious","re e","et s","Ġro om","Ġc all","th orne","Ġopen ed","Ġhaw thorne","Ġf ur","ig n","or ia","Ġsh imm","Ġor b","Ġenc ount","sc ap","Ġshadow s","Ġw all","Ġf ull","Ġbeaut y","at t","Ġex p","Ġd est","Ġpower ful","u es","Ġimp ort","Ġch ild","um n","Ġf ut","Ġexper i","Ġhand s","Ġt e","en ed","Ġunt il","Ġso l","Ġaut umn","for m","Ġp ort","th s","Ġsk y","Ġb u","Ġcon f","Ġfore ver","a ir","p s","n o","ch o","Ġeld oria","Ġb ustling","ur al","Ġex t","us h","Ġc ast","Ġless ons","Ġhe re","Ġm ake","Ġc he","Ġh ar","Ġencount ered","e ad","Ġo b","is p","Ġfur ther","k ins","Ġtreas ures","Ġsur round","Ġfut ure","ap p","Ġmom ent","Ġclo ser","Ġword s","Ġqu ick","Ġto wards","Ġg rou","en kins","Ġj enkins","Ġpur p","Ġd ra","Ġpaint ings","Ġm ight","Ġun lo","Ġbel ie","Ġmu ch","Ġh arm","Ġreveal ing","is e","Ġs er","ut h","Ġmo on","Ġc ol","Ġg o","Ġv ar","Ġsh are","Ġc e","Ġun ex","is hed","Ġv ent","Ġcr isp","Ġp ages","Ġim ag","Ġgrou p","Ġp r","Ġy et","Ġcryst al","Ġsim p","Ġgre atest","a il","Ġm ind","Ġat t","Ġle ft","ang er","Ġst ud","Ġemb r","Ġto w","Ġtr uth","Ġs een","c c","Ġth om","Ġthou ght","Ġinst ead","Ġli st","Ġbe ing","Ġpo ss","Ġcommun ity","Ġpers on","Ġcould n","Ġlook ed","Ġunex pected","li ke","Ġbec oming","Ġs ense","ar s","Ġgif t","Ġvar ious","Ġin v","Ġreal m","Ġinspir ing","Ġsymbol s","Ġexpl ained","Ġtrave l","Ġsee k","ou se","Ġf e","Ġevery thing","Ġstre ng","in ated","Ġf ear","sel ves","Ġco ll","y ing","Ġt ou","Ġwr it","Ġbeaut if","Ġdisco very","Ġs or","Ġpow ers","t ed","Ġan im","Ġthrough out","Ġcre ate","Ġp rom","h y","u ct","Ġfam ily","ver s","Ġas ked","Ġext ra","Ġcap t","en s","Ġapp eared","Ġstart ed","ro ll","ib le","Ġce le","Ġl ast","Ġchang ed","p e","Ġhum an","Ġgu id","Ġconnect ion","at he","Ġw a","Ġh old","Ġknow ing","Ġrem ained","Ġm on","Ġg l","ord inary","Ġouts ide","t o","Ġneed ed","Ġtal e","Ġjo y","Ġextra ordinary","Ġ ri","Ġvi br","v en","it ion","Ġsh ow","i led","Ġth ings","Ġabil ities","Ġp u","Ġe cho","Ġd uring","Ġh our","Ġdream s","Ġbr ing","em ent","f l","Ġre st","Ġste pped","n er","Ġun like","re r","c ome","Ġd ist","Ġsp ell","ull y","au se","Ġwhisp ered","Ġwall s","Ġunderst and","as c","Ġret urn","Ġhe al","Ġland scap","Ġpurp ose","Ġs w","Ġc are","Ġf aced","Ġm em","Ġquick ly","Ġh ouse","Ġwhisp ers","Ġvibr ant","Ġt ake","Ġst ep","ig ate","Ġmyster ies","athe red","Ġhe ard","f f","on y","Ġint ric","Ġe ss","Ġof ten","Ġen erg","Ġpiec e","ac es","Ġbeautif ul","c ked","Ġc ave","ve st","Ġp ot","Ġst ory","ec h","Ġintric ate","Ġ right","Ġc or","ac ts","it s","Ġv al","a im","Ġm ar","Ġsa fe","Ġcele br","Ġdr ag","Ġto ok","Ġpaint ed","Ġread y","en ces","a z","Ġst anding","? \"","Ġsu ch","in y","Ġkee p","Ġsoft ly","Ġf aint","art h","j ect","id ge","Ġbr a","Ġhim self","Ġhour s","Ġt est","Ġany one","Ġcent er","Ġf asc","Ġbra very","Ġw o","Ġche st","k n","in k","o st","s it","is h","Ġgr ow","Ġstreng th","Ġli ves","Ġthem selves","Ġb al","Ġhe sit","Ġartif acts","Ġsou ght","Ġenerg y","ri ved","Ġfind ing","Ġvent ured","w or","Ġwe ll","Ġe arth","Ġw ar","Ġ /","Ġfor m","Ġsc roll","Ġcoll ect","Ġth reat","Ġlea ving","Ġd an","l ud","ac ing","Ġr ather","ach ing","Ġs il","Ġg round","el f","w he","Ġsp ec","m other","Ġs ound","Ġst ill","Ġdep ict","Ġen s","Ġfin al","Ġsh aring","re ss","Ġfriends hip","Ġch ange","Ġh as","Ġwal ked","c om","i gh","Ġag o","r on","Ġt aught","Ġwat er","Ġabil ity","Ġed ge","e mb","Ġa w","ir d","Ġflow ers","f ully","Ġd ust","Ġsor ce","Ġsee king","Ġpre s","Ġb right","Ġinsp ired","Ġb l","as e","Ġg ood","ac y","Ġr un","ab l","Ġdark ness","Ġfasc inated","c ri","Ġres p","Ġvis it","Ġtr u","Ġany thing","Ġartif act","Ġshimm ering","Ġbal ance","Ġb ur","s ing","Ġ ill","Ġp iqu","Ġst ars","Ġnat ural","kn own","Ġpiqu ed","ount ain","Ġd anger","Ġor d","Ġdisco ver","Ġwa iting","ou n","Ġcreat ure","o ve","s ed","w h","Ġm ess","Ġtown s","Ġin vest","Ġev il","Ġanim als","Ġess ence","Ġb att","or m","ell ing","Ġmon ths","if ic","Ġs at","ch ie","Ġre l","Ġbr ave","Ġtru ly","Ġm ay","Ġel i","Ġle g","Ġr u","Ġcol ors","Ġw ide","Ġto o","at ter","Ġkind ness","Ġtre mb","Ġun known","Ġem erg","ag ed","Ġrem emb","Ġl it","Ġrem ind","Ġl ater","Ġcall ed","Ġt abl","Ġstr ong","Ġcle aring","Ġc a","it ement","Ġint er","Ġab ove","Ġexc itement","c hes","Ġher o","Ġst ories","Ġl ang","ious ly","Ġcl aim","Ġsurround ed","Ġlang u","Ġd ire","z z","Ġli ving","f ace","Ġto ld","Ġdrag on","ou gh","ro ve","Ġinc lud","Ġdel ved","Ġsorce rer","Ġpl ay","Ġal one","Ġbel ong","Ġhappen ed","ain ing","Ġimag ination","Ġlear n","p r","Ġe ar","Ġd ense","Ġv ast","g r","Ġf ew","Ġme an","id d","Ġin d","Ġel se","Ġcont ro","Ġgrand mother","Ġ very","Ġw ent","Ġchild ren","Ġ [","Ġf lo","Ġm ust","Ġwo nder","Ġemerg ed","n y","Ġw ild","Ġdeterm ination","ib il","Ġb ird","Ġm ountain","Ġbu ild","Ġharm ony","Ġb lo","Ġwal king","on es","Ġpath s","Ġent ire","ic ate","Ġal ive","Ġpaint er","d ed","Ġm ark","ant s","Ġcl im","n ow","u ally","Ġb ound","rou s","Ġleg acy","Ġdire ct","Ġc aut","ar ked","Ġg athered","ul t","for med","Ġdis app","Ġport al","Ġpro found","Ġmyster y","Ġexp lo","Ġdid n","v as","Ġt er","Ġf air","Ġs ame","Ġs in","ast er","Ġclo se","Ġ 1","od y","Ġar rived","Ġsimp le","Ġre ce","ac he","Ġcont ained","Ġcan vas","Ġord inary","Ġe ag","Ġworld s","Ġheart s","Ġl ar","he ad","ie ld","Ġac c","Ġimport ance","Ġsun ny","i x","Ġecho ed","ache rous","Ġg ent","ce pt","Ġpu zz","Ġtremb ling","ate ful","Ġinvest igate","Ġgent le","Ġbec ause","Ġprom is","ot t","Ġt ex","Ġmr s","Ġunderst ood","iv id","Ġgold en","Ġtow er","Ġt ech","Ġf ad","Ġembr ace","n s","Ġs ing","Ġtre acherous","Ġguid ance","id ent","Ġser ies","re ed","Ġexperi ences","fl ect","p ed","ri ed","Ġdet ail","Ġen ough","Ġd a","ow ed","el s","Ġdust y","Ġhap p","Ġe t","Ġgu ide","ps on","Ġthom pson","Ġn av","Ġre flect","us ed","end ing","Ġresp ons","Ġfollow ed","v ous","Ġc ount","Ġtabl et","Ġstre ets","i et","Ġcur se","Ġtal ent","Ġem ot","b le","um in","Ġdra wn","w el","Ġsur pr","Ġspirit s","wel come","s w","Ġs ign","Ġsm iled","Ġdan ced","Ġtrans formed","Ġens uring","Ġ z","ul ar","Ġsk et","Ġsou l","Ġrece i","Ġun ity","Ġstr u","Ġeld r","Ġr idd","Ġpro ving","Ġlear ning","ou d","Ġan sw","Ġwor ked","Ġbr an","Ġwarm ly","Ġcontro l","g g","t le","Ġb reat","Ġf ell","am b","i er","in ess","Ġres pect","Ġpot ent","Ġcelebr ated","Ġn ame","Ġmark et","c king","al th","Ġw ond","Ġf ree","Ġpl aces","Ġeag er","Ġy ear","Ġemb arked","Ġbeg in","Ġchallen ge","Ġ <","ur ning","ĠâĢ ľ","Ġ/ >","i ans","Ġs ear","Ġcaut iously","Ġfad ed","Ġf ire","Ġd i","Ġspec ial","o red","Ġs it","Ġqu iet","Ġcar ry","Ġcent ur","Ġlangu age","Ġo cc","Ġwor ks","Ġwe alth","Ġs qu","Ġbe ac","Ġfor ces","iz ed","Ġch amb","Ġkee per","Ġimport ant","Ġru ins","Ġr are","Ġcom pl","Ġmem ories","Ġbeac on","Ġwe l","Ġpl an","d u","Ġbo x","Ġeld er","Ġeldr idge","Ġwho se","Ġsk ills","Ġhop ing","Ġbet ter","Ġhar ness","Ġforest s","iv al","iv ity","Ġwind ow","Ġlandscap es","Ġa head","Ġre p","Ġst op","Ġk ing","Ġsp e","Ġch ar","u able","Ġre now","ve lo","Ġcon s","Ġcl ues","Ġgif ts","Ġrenow ned","f ect","Ġun us","Ġsur face","re s","ic es","Ġlist ened","Ġm od","Ġon es","Ġli es","Ġli ve","le x","Ġex ist","Ġwrit ten","Ġrecei ved","on ed","Ġre pl","Ġsh ould","Ġpass ion","Ġsu pp","n al","Ġs elf","Ġad or","Ġland s","Ġbo nd","Ġag reed","Ġmis chie","Ġposs ess","Ġexplo red","Ġw anted","Ġf est","ver se","Ġafter no","Ġdes p","z e","Ġbec ome","Ġwat ching","Ġri ver","oun ter","Ġc ott","Ġstre am","Ġcompl et","Ġwh y","us hed","Ġmo ved","b e","Ġpotent ial","Ġafterno on","Ġcott age","] (","Ġet ched","Ġcentur ies","Ġador ned","Ġo rig","Ġpre p","Ġdra w","Ġh o","Ġth ick","Ġmo ve","Ġhum ans","b ed","ap s","Ġdist ant","Ġbur ied","Ġmountain s","ol k","Ġtw o","Ġinclud ing","Ġmean ing","s ion","v ice","Ġm aking","Ġlook ing","ne ver","Ġcast ing","Ġunlo ck","Ġocc ur","Ġwhe never","Ġhelp ing","pt ic","Ġcomp ass","Ġdepict ed","Ġstrong er","Ġto ol","Ġm ir","Ġm ater","Ġmyst ical","r uct","Ġre co","Ġspell s","Ġt urn","st one","Ġbelie ved","Ġ er","Ġg et","Ġre c","Ġchamb er","i ence","Ġcr y","Ġthom as","ak es","Ġre qu","Ġlet ter","Ġcapt uring","wor k","Ġwond ers","Ġunus ual","Ġt all","Ġf r","Ġst ones","Ġman aged","Ġsu b","Ġtou ch","b ut","Ġr aced","Ġco ld","ep t","er n","art ed","Ġwis h","Ġfest ival","c y","ro ke","Ġtim es","Ġreal ity","form ation","Ġcare fully","Ġbreat h","et y","ion al","Ġv ivid","Ġint ently","Ġcreat ed","Ġam az","Ġlegend ary","Ġlar ge","Ġmischie vous","Ġsh ar","Ġnot hing","ack ed","Ġgr ant","Ġbe st","as ed","Ġdec ip","Ġcr a","Ġfee l","Ġtex t","Ġst orm","lo g","aught er","Ġmoon light","ron t","Ġhe av","Ġm a","Ġpre ser","b o","are n","Ġsimp ly","p he","Ġf ears","en ing","ne w","Ġtal king","Ġcreat ivity","Ġway s","Ġcomm on","Ġcar ried","Ġshar p","Ġb ody","Ġp age","Ġle ave","Ġev ents","Ġpl aced","Ġenc ounter","hy s","e k","Ġh ues","Ġbe ings","Ġrun es","aren ts","Ġg ive","Ġfam il","Ġcount less","Ġcry ptic","Ġh or","Ġun i","Ġwat ched","Ġde fe","Ġpart ic","Ġval uable","Ġon to","Ġint ro","ab it","Ġexc ited","Ġte aching","' d","ed ic","Ġme ant","Ġbright er","Ġremind ing","g n","Ġp hys","Ġin ner","Ġwh ate","Ġnot e","Ġwhate ver","Ġm us","Ġn od","ic ked","Ġreve l","Ġpres ent","Ġhe ad","ic s","ent ion","lo ved","Ġs ave","Ġg i","Ġbe loved","Ġad d","us ing","Ġover whe","Ġlit tle","Ġoverwhe l","Ġme re","Ġtw ist","Ġreco gn","Ġev ent","Ġmess age","m s","Ġv an","Ġtow ering","0 0","Ġs ay","Ġguard ians","Ġcre ation","Ġhesit ation","Ġbelong ed","Ġdesp ite","d ay","less ly","Ġmom ents","Ġfollow ing","Ġcast le","ss ed","c ing","in es","Ġst ay","Ġbran ches","p ort","r ow","Ġp arents","Ġnew s","em s","Ġb le","Ġsc en","Ġwr iting","Ġtou ched","Ġdirect ly","Ġt iny","Ġl umin","Ġg ather","Ġcom es","Ġunco vered","Ġsurpr ise","Ġoccur ren","at ive","Ġre new","Ġab and","fe red","Ġexperi ence","Ġp ul","Ġth in","Ġp h","Ġhelp ed","Ġlong er","Ġunlo cking","Ġuni verse","m ents","Ġs low","Ġto m","Ġm aster","Ġso ci","Ġartist s","Ġtri ed","Ġtr ying","il iz","Ġapp re","Ġflow er","Ġoccurren ces","Ġd ri","ul f","Ġmy th","Ġsqu are","p h","ir c","Ġint e","Ġbr ush","Ġperson al","Ġscroll s","Ġh igh","Ġch o","Ġco ver","Ġdest iny","Ġter r","Ġd edic","Ġtr ust","Ġen g","Ġport ra","Ġwel com","Ġcra ft","Ġaband oned","Ġt u","ic ally","Ġwise ly","ibil ity","Ġintro du","Ġwelcom ed","Ġs light","Ġc irc","Ġd im","Ġsh ap","Ġrealiz ing","Ġsing le","Ġt ears","Ġshe l","Ġread ing","Ġhold ing","Ġelder ly","Ġc iv","Ġd at","ak er","Ġper fect","Ġdecip her","Ġscen es","f olk","Ġof fered","um m","Ġob ject","Ġfamil iar","Ġciv iliz","m ost","Ġb re","st ac","Ġob stac","Ġmus ic","b l","Ġwarm th","Ġstru gg","Ġtu cked","Ġg ained","Ġwat ch","Ġvis ions","Ġh ard","an k","om ed","Ġgu ided","Ġey e","Ġhist or","cri pt","Ġcontin ue","Ġemb ark","Ġcommun icate","Ġpr act","Ġcarry ing","Ġoverwhel med","ara h","Ġbatt le","i o","r ance","Ġal most","Ġwood en","Ġcle ar","Ġsol ve","Ġtowns folk","Ġsin ce","Ġslight ly","Ġs arah","âĢ Ŀ","ang ers","Ġlandscap e","Ġf ather","Ġc at","Ġe er","ri f","t ers","Ġs our","Ġg rove","Ġne igh","Ġwor th","Ġvis ion","Ġintrodu ced","Ġneigh b","Ġd em","ur ous","Ġsp ark","Ġadvent urous","Ġcomp lex","Ġhor iz","g round","Ġun f","ight s","Ġcom b","Ġco vered","Ġphys ical","Ġcar ved","Ġinspir ation","Ġcollect ion","Ġrevel ation","Ġappre ci","p iec","in t","Ġs ens","Ġc her","Ġam ul","Ġsc ent","Ġdes ire","Ġtri als","Ġvan ished","Ġmyth ical","Ġf ulf","Ġj ew","Ġsh if","Ġguard ed","Ġfaint ly","Ġda wn","Ġrenew ed","Ġ ve","Ġt ell","Ġp ull","Ġking dom","Ġrepl ied","Ġar th","Ġdeep ly","pe ople","ar ch","Ġre se","Ġle ather","Ġch ose","Ġcol or","Ġarth ur","Ġj ack","Ġwhere ver","Ġbuild ing","Ġamul et","Ġt it","Ġw ant","Ġg ently","Ġex h","Ġwor king","Ġr um","Ġent rance","Ġbelie ve","Ġbird s","Ġsket ching","Ġb ree","Ġf acing","ro k","Ġt ap","Ġm el","Ġwis hes","Ġgr ateful","Ġinsp ire","Ġwand ered","Ġtrans port","Ġlumin a","Ġhoriz on","Ġp atter","ep hy","Ġtravel er","Ġcomplet e","Ġorig in","piec e","Ġbree ze","Ġf ant","Ġac cept","Ġdes ign","Ġsurround ing","whe re","wh at","Ġtowns people","Ġdisapp ear","f ort","Ġd ue","Ġp ushed","Ġlo ved","Ġz ephy","er t","Ġh on","Ġg od","Ġfor ce","il t","Ġsc ene","Ġwal k","l and","Ġe ff","Ġc aught","Ġp ure","Ġp acked","Ġm atter","Ġm ix","id ence","un g","Ġpro phe","ud e","Ġus ual","Ġrememb er","Ġsear ching","Ġdat a","Ġin vent","Ġv ict","Ġapp ear","Ġglow ed","Ġca using","Ġhapp iness","Ġansw ers","Ġtr ad","Ġen velo","Ġor ion","Ġall ow","Ġpres ence","Ġpromis ed","i als","in ing","Ġf un","Ġbe low","id st","Ġsh o","Ġeer ie","b b","Ġr ustling","Ġpro s","Ġaut h","Ġfe et","Ġnav ig","Ġslow ly","pl ace","Ġre g","red ict","Ġdo ors","act ers","Ġchar acters","Ġzephy r","Ġd ared","Ġsh op","Ġstr anger","Ġinc red","bo ok","ve l","Ġstud ying","Ġbring ing","Ġclaim ed","' ve","p le","Ġfo c","Ġhesit ated","n ers","Ġk ept","Ġad m","f low","g ing","m at","Ġt em","Ġs ac","Ġin h","ir ts","em ents","Ġdest ro","Ġatt ic","Ġthought s","Ġfair y","Ġjew els","g an","h ost","Ġs umm","it ude","Ġsee ing","ak en","Ġact ions","Ġrememb ered","Ġtap est","Ġincred ible","Ġs ide","Ġmag n","Ġha un","Ġshimm ered","Ġguid ing","Ġgrow ing","Ġpartic ular","Ġmaster piece","t e","Ġs ever","Ġp icked","an e","Ġsm ile","Ġbr idge","Ġcor ner","k irts","r or","Ġl aughter","Ġg host","Ġam idst","Ġsu cc","Ġouts kirts","Ġmem ory","h op","l a","Ġ ide","Ġto p","Ġp ond","Ġcom fort","Ġlibr ar","no log","Ġheav y","Ġd ear","Ġm ist","Ġn one","Ġel ements","Ġch a","Ġar med","Ġwrit er","Ġentire ly","Ġcompass ion","c ess","v i","Ġth orne","Ġan n","ate ly","Ġpro ject","Ġcont ent","Ġact ually","Ġf ood","Ġp os","Ġst at","app ed","Ġstud io","Ġrespons ibility","ier ce","Ġprep ared","Ġsour ce","as h","Ġch os","Ġqu ite","Ġim m","Ġsur ge","Ġdep ths","Ġshow ed","ific ent","Ġtech nolog","Ġemot ions","Ġridd les","Ġcold er","Ġtransport ed","Ġmagn ificent","Ġsever al","Ġchos en","w e","Ġan t","Ġex am","Ġtr un","Ġpro per","Ġpuzz les","Ġones elf","Ġma j","Ġterr ain","Ġprophe cy","b ack","Ġf ield","Ġhe ar","Ġjour nal","Ġdiscover ing","Ġdraw ing","Ġnod ded","g er","j o","Ġth r","Ġwe a","Ġspread ing","Ġembr acing","Ġpu bl","Ġdanger ous","Ġclose ly","Ġthin king","h aps","Ġt elling","Ġs ir","it ions","Ġin formation","Ġdec is","Ġdre ssed","Ġper il","Ġtw ink","att ered","Ġlist en","Ġrest ore","Ġtech n","Ġamaz ed","Ġsucc ess","Ġt y","Ġf ierce","Ġr ust","Ġgr at","Ġhappen ing","Ġsafe ly","Ġeli as","! \"","t elling","Ġdis c","Ġret urning","Ġtrans form","Ġdri ven","Ġcha os","Ġgrat itude","Ġn ar","Ġwr ite","Ġsun light","Ġpiec es","Ġsupp ort","Ġorigin al","u se","ri es","Ġme et","Ġem an","Ġloc ation","Ġsil ver","Ġauth or","Ġs ent","Ġli e","ot s","Ġconnect ed","Ġmis sing","Ġexp ress","Ġsol ving","Ġplay ing","ibil ities","f ather","Ġf ateful","Ġch ance","Ġgrow th","Ġtool s","Ġmater ial","u pt","re st","Ġe scap","Ġl ush","Ġp ap","ce nd","Ġman us","Ġridd le","Ġinh abit","Ġd angers","iz e","Ġmo ving","Ġpass age","Ġatt ention","Ġdisapp eared","Ġb us","un ning","wor ld","Ġwar ned","Ġmess ages","Ġdestro y","Ġe as","Ġl ur","Ġth ree","Ġen ter","Ġcom ing","Ġmap s","Ġvis ited","Ġde f","Ġmar ve","Ġble nd","Ġtrun k","it h","Ġl ant","Ġp an","Ġbe ast","Ġun s","Ġsa ved","Ġcomp an","Ġinhabit ants","s on","Ġ 3","Ġl ate","am ent","ous ly","Ġfig ures","Ġnav igate","Ġsit ting","Ġdedic ated","Ġfulf ill","Ġfun ct","y our","Ġt urning","ed s","Ġres il","Ġartist ic","Ġdiffere n","Ġheal ing","Ġval ue","Ġsign ific","Ġworks hop","ruct ion","Ġpatter ns","Ġw in","Ġf ate","Ġin no","is ed","th is","Ġfam ous","Ġinv ited","Ġdepict ing","Ġfant ast","Ġp ark","Ġv ide","Ġpro v","Ġper haps","Ġtrave led","Ġunf old","Ġresil ience","c on","d is","i ally","Ġf all","Ġre aching","Ġfo x","Ġfo ot","Ġaw a","Ġperil ous","b s","Ġs ure","Ġw iz","at es","Ġli la","ok ing","ving s","Ġpossess ed","Ġfantast ical","Ġsp ace","Ġnot es","Ġr ain","Ġchang es","Ġwiz ard","a ked","v al","Ġh all","Ġench ant","Ġed it","Ġimag ined","Ġstud y","Ġrealm s","Ġthreat ened","Ġexist ence","Ġsoci ety","Ġenvelo ped","_ _","Ġp redict","or ation","as ing","Ġsp r","od e","il ity","Ġor gan","Ġdes per","Ġcre ek","Ġexper im","Ġvent ure","Ġfe ed","Ġtrad ition","dis co","Ġt ire","Ġs ke","ap h","Ġcall ing","Ġshow ing","Ġpromis ing","Ġpreser ving","c oming","v ation","Ġa p","Ġf it","Ġst ar","Ġch oice","Ġfl ick","Ġfe at","Ġear ly","Ġpuzz le","e ed","s ide","Ġheart stone","Ġhand ed","ib ly","Ġcapt ure","Ġrep res","Ġtire lessly","w ood","Ġ ident","Ġb aker","st ore","Ġas s","iz ing","pp ing","Ġper ched","Ġent ered","Ġaw e","Ġdefe at","z y","Ġm al","Ġm ural","Ġm akes","Ġu r","am es","Ġch ap","Ġbook store","Ġlet ters","Ġfair ies","Ġspe ak","Ġrequ ired","i ke","Ġl oud","or n","Ġpre c","Ġha ving","Ġmind s","Ġdi ary","Ġtechnolog y","is m","Ġit ems","Ġen v","Ġall ies","Ġcr ow","Ġper form","Ġpap er","u p","ter ing","Ġad v","Ġco zy","Ġprotect or","Ġcryst als","Ġconf idence","Ġinv ol","Ġstory telling","wh o","Ġreflect ing","Ġinte rest","Ġw ound","Ġf allen","ic ing","Ġat op","Ġpro ve","Ġwere n","Ġexpl aining","Ġfl our","Ġdel icate","Ġciviliz ation","Ġre ach","Ġex act","Ġex pect","Ġcont aining","Ġtravel ers","Ġmir ror","Ġhistor ical","p ath","s h","Ġt aken","Ġc ult","ir on","Ġfor med","Ġr is","Ġoff ering","Ġtest ament","Ġill um","Ġparticular ly","Ġexperim ent","g ed","Ġf ing","Ġp ut","Ġg ame","id er","Ġwe ight","il ar","Ġcr im","Ġres pected","Ġgreat er","Ġdest ruction","Ġposs ible","Ġrepres ent","a w","Ġt as","Ġo pp","Ġb ed","Ġb ark","st ep","Ġn ec","al es","Ġwe athered","Ġar ch","Ġown er","Ġflow ed","Ġunlo cked","Ġcor ners","Ġillum inated","a x","ce st","el ara","Ġis land","Ġpl ants","Ġclo sed","Ġpo in","Ġare a","Ġconnect ions","Ġcar vings","Ġquest ions","Ġcap able","Ġecho ing","cri bed","Ġdetail s","u ck","Ġw ore","Ġf a","Ġg n","Ġg ust","Ġan cest","un a","Ġunder ground","Ġart work","Ġguard ing","iv en","Ġfull y","Ġbl ue","Ġind eed","Ġfield s","p ing","r ave","Ġ ing","Ġf il","Ġl ab","Ġsp ot","Ġcon c","Ġnot ice","Ġsee m","Ġsa f","Ġco ol","Ġres on","Ġpass ing","Ġconf ront","Ġsil ence","Ġdiscover ies","Ġfree ly","Ġbrush st","flow ers","y ou","Ġ +","Ġa chie","Ġb roke","Ġf ront","Ġh u","Ġh ig","ri e","ang ing","Ġlight s","Ġvi ew","Ġse al","Ġtapest ry","Ġlibrar ian","Ġw oke","Ġf ly","Ġf ab","Ġm ach","Ġg az","Ġre f","Ġab le","il ing","Ġjo in","Ġri vers","Ġg ot","Ġwit ness","ack s","Ġall ey","Ġvi ol","Ġposs ibilities","Ġtest ed","Ġacc ess","Ġobject s","e rer","h ood","t im","Ġa st","ed ric","Ġf ame","Ġc edric","Ġh omet","Ġun rave","Ġal ar","Ġthan ks","Ġfriend ly","Ġvisit ors","Ġmere ly","Ġdim ens","Ġfab ric","Ġhomet own","r upt","Ġin fl","ro om","ig ned","Ġcour sing","Ġwar ning","Ġbre ak","Ġvide o","Ġawa ited","Ġfeed back","a f","n ate","he arted","Ġb ore","um ent","Ġlo ck","pl ay","Ġad vice","Ġcont ents","med i","Ġgr anted","Ġcommun ic","Ġbu ilt","Ġprom ise","Ġsound s","Ġmaj est","v ol","ou ght","id es","Ġtr ace","ant ly","Ġother world","Ġres ol","Ġshadow y","ert ain","Ġlur king","disco very","Ġchap ter","Ġcrim son","p es","t y","Ġ 2","Ġt able","Ġm id","an ces","lo oking","Ġpro cess","Ġco ins","Ġha ven","Ġinc re","Ġstream ing","Ġmater ials","Ġpros per","Ġcrow d","Ġotherworld ly","d o","d uct","l it","Ġw ings","Ġl ord","Ġm ed","al ity","Ġy ell","Ġpro f","ab b","Ġim medi","Ġdo es","act ic","Ġstre et","Ġde vice","vi ew","Ġenv iron","Ġs ong","Ġcon vers","Ġbo y","umb le","Ġbelie ving","Ġevent ually","Ġportra its","Ġcirc le","Ġexact ly","Ġalar ic","Ġinfl u","' re","he n","Ġa v","Ġw ield","Ġl atest","Ġcur sed","Ġcl ue","Ġgrand father","Ġexplore r","ech an","Ġdan cing","Ġwild flowers","Ġobstac le","jo y","' m","p ts","p ack","r act","Ġ 5","he re","Ġs ight","Ġb all","Ġf aces","Ġp le","Ġst ore","Ġex cept","yst em","Ġover come","Ġall owed","Ġyour self","Ġme mb","Ġde v","Ġprotect ing","Ġhero es","Ġter rif","Ġdecis ion","Ġsaf ety","Ġmajest ic","Ġa ge","Ġb ar","Ġm ur","Ġin it","Ġg ain","Ġre d","Ġre le","Ġre ci","Ġen ig","ate g","ci al","Ġro ots","Ġback pack","Ġcour se","Ġde ath","Ġsw e","Ġremind er","Ġenviron ment","Ġp ri","Ġm echan","an ced","is hing","Ġg all","pt ical","Ġdeep est","Ġuncover ing","Ġclim actic","Ġer a","Ġallow ing","Ġstat ue","i or","Ġf le","Ġm er","Ġm at","ent ric","Ġst and","se qu","ri but","ound ing","lo st","Ġins ights","Ġro se","Ġpo et","Ġquest ion","av or","cho ol","Ġemot ion","Ġstorm y","Ġshel ves","Ġhaun ted","Ġprosper ity","Ġs chool","er y","Ġc ross","Ġl una","ter nal","Ġold er","Ġmo ss","pt y","iqu es","Ġdes cend","Ġrecogn ized","Ġnar row","Ġdifferen ce","Ġske ptical","d d","Ġa ud","Ġb ig","ar led","Ġl ake","Ġd on","Ġd ance","Ġm in","Ġsp ine","Ġcon sequ","um er","os es","Ġthreat ening","ress ed","Ġclim bed","Ġimportant ly","Ġbond s","Ġportra it","Ġgn arled","c le","u ing","Ġp a","Ġm ill","Ġth ing","Ġth rived","Ġli ft","Ġpro ved","Ġdream ing","Ġwind ing","Ġflo or","Ġspe aking","Ġmod ern","Ġwea ving","Ġconsequ ences","Ġb es","Ġf on","Ġe cc","Ġl au","Ġm en","Ġg ave","Ġdis play","Ġman ip","Ġstr uct","end ed","Ġres ist","Ġset t","Ġse as","Ġsens ation","Ġrese arch","Ġbeast s","Ġecc entric","Ġmanip ul","Ġs l","Ġc unning","Ġto r","Ġn umb","se en","if f","ust r","Ġwis hed","Ġjourney s","Ġfo ol","for ts","Ġpur s","Ġgl ade","gr and","Ġcho ose","Ġeng ine","rok en","s he","Ġb as","Ġb ag","Ġc ode","Ġg iven","Ġwe ather","Ġch ill","ort un","Ġde velo","Ġoff er","Ġpeace ful","Ġte am","Ġhuman ity","Ġflo ating","Ġneighb ors","Ġshif t","Ġrum ored","Ġaccept ed","Ġtechn iques","f all","f forts","Ġt rou","Ġe fforts","Ġc al","Ġh in","Ġg one","Ġas k","Ġman sion","Ġco nd","Ġim age","Ġem ily","Ġho llow","Ġobstac les","Ġeff ect","c ent","Ġs le","Ġm other","Ġth ink","Ġint ell","Ġj ud","ge st","if e","ke st","Ġevery day","Ġrespons ibly","Ġdisc u","Ġuns ure","Ġfunct ion","Ġresol ve","t w","t aking","y s","it age","ll o","Ġher itage","Ġn umer","Ġv o","ab its","em pt","Ġpre vent","Ġent ity","Ġnumer ous","c us","w ell","Ġc ause","Ġd ar","ver t","Ġup right","Ġor ange","pl ic","Ġpl ant","Ġgener ation","Ġinst ruct","Ġte ach","Ġmar ked","Ġbound less","Ġtit led","Ġlant ern","Ġwin ter","Ġopp ortun","Ġyell owed","Ġf ought","Ġl ined","Ġd one","Ġwit s","ad es","Ġr it","Ġor nate","Ġfind ings","Ġob ser","Ġmanus cript","Ġfool ish","Ġdar kest","Ġh abits","Ġu nd","le y","Ġsa ving","Ġcr u","Ġour selves","Ġdep th","Ġembr aced","Ġplay ed","Ġbreath taking","Ġexh ib","Ġvict or","Ġmarve led","Ġprec ious","e an","w are","Ġ vers","re ne","Ġb ased","Ġc ertain","Ġp et","Ġli m","Ġgre en","Ġcre ations","Ġlegend s","Ġtrans formation","Ġcapt ured","Ġmar cus","Ġbatt ling","Ġdetail ing","res h","mat ic","Ġdesper ate","Ġhig her","n ight","Ġt ight","Ġf ile","Ġd are","Ġwill ing","ust om","op y","Ġro le","Ġcl iff","Ġset ting","Ġpart s","Ġless on","Ġgo ing","Ġtruth s","Ġrel ics","Ġlangu ages","Ġlar ger","Ġda ily","Ġstru ck","Ġansw er","Ġmel od","Ġedit or","Ġancest ors","Ġswe et","Ġl ow","Ġm ult","Ġh umble","Ġv all","Ġwor n","Ġlo g","Ġim ages","Ġno vel","Ġloc ked","Ġexperi en","Ġclaim ing","Ġdecipher ing","Ġcomb ined","Ġmel ody","Ġimmedi ately","Ġdiscu ss","Ġvall ey","u it","Ġf avor","Ġp at","ag ing","Ġpro ble","Ġpro duct","Ġwhisp erer","the re","Ġmis sion","Ġorb s","Ġchild hood","Ġgl im","Ġsil ent","Ġwindow s","Ġcons um","Ġsay ing","Ġnavig ating","Ġant ique","Ġeman ating","Ġbaker y","b es","i ves","k ee","he l","Ġf eared","Ġto day","Ġp ounding","Ġg ate","am p","one y","Ġtal ents","Ġthan ked","Ġcl oud","Ġenc our","Ġse rene","Ġanim al","Ġens ure","Ġbright ly","Ġill umin","Ġreflect ion","Ġimm ense","Ġident ity","step s","ean or","8 0","f ly","i ent","l ies","t ies","Ġw id","Ġf ight","ar ies","Ġh art","Ġh abit","Ġdo ing","Ġstre t","Ġwr ong","Ġfl ash","Ġrest ored","Ġstop ped","Ġhon or","Ġfoot steps","Ġt un","Ġc ustom","en ch","Ġh ung","Ġli f","se ek","Ġas pect","Ġco b","Ġtrave ling","Ġinte gr","Ġwatch ful","Ġappreci ation","Ġwound s","Ġbes ide","m a","m in","n ings","r ay","he llo","Ġb read","Ġun seen","Ġr an","Ġr ic","Ġsec ond","Ġco st","Ġha ir","Ġste pping","Ġpers pect","Ġtex ts","Ġworth y","Ġtwink ling","Ġterrif ied","Ġenig matic","b ound","o f","Ġf arm","Ġal oud","Ġlo ss","Ġco in","Ġsol ace","Ġpurp oses","Ġlist ening","Ġinter tw","Ġcraft ed","rok es","Ġsac red","Ġsac rif","Ġap art","l ine","n ot","Ġt ending","Ġthe o","Ġo dd","Ġf ro","Ġe ve","Ġm ass","Ġg em","ver ing","id ation","ain s","and ed","Ġwhe ther","Ġover looking","Ġdo c","Ġsmall est","ck s","Ġem pty","ish ment","Ġorig ins","Ġshap e","Ġcher ish","Ġtem ple","Ġproper ties","Ġthr ill","Ġfing ers","l et","Ġa i","Ġb ase","en u","at ure","Ġh anging","Ġth ri","Ġn orm","et ed","Ġbut ter","Ġal t","Ġal ike","Ġsc ri","Ġsu g","Ġlay er","com m","Ġblo omed","Ġsupp lies","Ġtom e","Ġrum ors","Ġpan ic","Ġachie ve","Ġlift ed","l aim","m y","Ġre b","ro p","Ġv ol","ri a","Ġun w","Ġsp are","Ġsh one","Ġfin ished","Ġseek er","Ġsw ir","Ġbelong ing","Ġbran ch","Ġtall er","Ġpul sed","Ġperfect ly","Ġciviliz ations","Ġcher ished","Ġflour ished","Ġexperiment ing","h ow","Ġs an","re l","Ġo min","Ġtr ail","Ġr ul","ab ly","Ġus er","ie f","Ġlay ers","Ġper se","Ġbene f","Ġstep s","Ġwo ven","Ġbl ack","Ġcanvas es","Ġmix ed","Ġpond ered","Ġescap e","Ġmach ine","Ġsug gest","Ġ rou","Ġs n","Ġw ro","Ġf resh","Ġas king","Ġint ent","Ġsh ake","Ġhad n","Ġbeh av","Ġimp act","Ġadventure r","Ġconnect ing","Ġpr ide","Ġinv iting","Ġdrag ons","Ġexist ed","Ġstrugg led","Ġann ual","Ġing red","Ġmur als","Ġintell ig","Ġillumin ating","Ġhart ley","Ġwro te","m ore","p u","r al","Ġm ast","Ġher bs","om en","Ġtr apped","Ġr ad","Ġar ri","Ġimp ending","Ġbooks hel","Ġshimm er","Ġsket ches","Ġide as","Ġpubl ic","Ġbus iness","Ġswir ling","Ġs ystem","re m","Ġo pt","Ġc oun","it ive","Ġl in","Ġp hen","Ġm ain","Ġin f","Ġst y","Ġtr ick","Ġr ich","Ġad ded","Ġgr ace","Ġapp s","Ġnow here","li pped","Ġpr ice","Ġstream s","Ġgi ves","Ġpract icing","Ġtradition al","vol ent","Ġvo ices","Ġcru cial","Ġfavor ite","Ġsan ct","Ġphen omen","u ary","u als","Ġm ush","ut ion","Ġbut t","ch ol","ul ations","ord s","Ġser ved","Ġtravel s","Ġcoll ab","Ġsing ing","path y","Ġintertw ined","Ġmass ive","Ġmush room","Ġ ign","Ġt aking","Ġs age","Ġm ent","is es","om es","Ġre as","am ing","Ġwas h","Ġtr y","Ġdee pen","Ġcl ot","Ġopen ing","Ġpo st","Ġharm on","Ġeager ly","Ġtext ure","Ġgi ant","Ġadd ing","Ġtit le","Ġunrave l","Ġinstruct ions","Ġsanct uary","3 0","Ġs chol","Ġw ary","Ġb roken","Ġp op","id ing","out h","Ġevery where","Ġret rie","read y","Ġtri um","Ġkeep ing","Ġthreat s","Ġvisit or","Ġacc ident","Ġmir ac","Ġph ot","Ġspark led","Ġnavig ated","Ġfoc used","Ġtransform ing","c il","c ase","Ġa lex","Ġb ord","Ġwit ch","Ġsp end","Ġen joy","ul ous","Ġr abb","us ion","Ġsk ies","Ġend less","Ġclock s","Ġfe ather","Ġbur st","Ġill ustr","Ġind ivid","Ġappreci ate","Ġshif ted","Ġpull ed","Ġdesign s","Ġsumm er","c ts","Ġo ce","nd ane","Ġb it","ac ter","Ġst ri","Ġfor t","Ġcon st","Ġwho ever","ke red","Ġstr a","Ġro bes","Ġdark er","Ġend ed","Ġdifferent ly","Ġmis use","Ġmu ndane","Ġpot ions","Ġbatt les","Ġcons ider","Ġdesire s","Ġghost ly","Ġflick ering","Ġloud er","Ġseal ed","Ġincre asing","kee per","Ġbord ers","m ing","m os","s p","Ġn er","ic king","Ġst air","Ġun ic","Ġeld ers","Ġalong side","Ġste al","Ġhar old","Ġca ver","gr aph","Ġclim ax","Ġsoul s","Ġsear ch","Ġchar acter","Ġexam ined","Ġfle w","Ġstra ight","9 9","Ġp al","Ġm att","Ġun e","us hing","Ġgre eted","Ġte le","Ġconf ron","Ġpr in","Ġwrit ers","Ġinter act","Ġclim b","Ġide a","Ġty pe","Ġaud ience","Ġrad i","Ġtrium ph","n el","v ant","Ġc and","it ted","Ġp rou","Ġp ol","Ġp arch","Ġm es","Ġh un","ic kered","Ġal ready","ist er","Ġag es","ang ed","Ġexpl oration","Ġcreat ing","Ġdre w","Ġem er","Ġemb ed","Ġend uring","Ġlead er","Ġflow ing","Ġfl ickered","Ġsol ved","Ġgl ass","Ġrest oring","Ġfr ag","Ġpul se","Ġexperien ced","Ġcob ble","Ġperspect ive","Ġprou d","? )","c he","v in","Ġs ang","Ġb less","ou b","at form","Ġp ay","Ġp our","Ġp ile","Ġm aint","Ġg le","Ġst roke","Ġkn o","Ġar ms","Ġcreat ive","Ġchallen ging","Ġsy n","Ġact iv","Ġrel ations","Ġlit er","Ġbound aries","Ġ1 0","Ġhapp y","Ġble w","Ġb orn","Ġd aughter","Ġp ict","ir rel","ect ion","Ġbr id","Ġem pathy","20 2","Ġchang ing","Ġse eds","Ġbeautif ully","Ġtabl ets","Ġfire place","Ġsqu irrel","Ġdefe ated","Ġcraft ing","Ġinvent ion","Ġsong s","Ġtight ly","Ġintellig ence","Ġincreasing ly","Ġmatt ers","Ġparch ment","Ġm ot","ot ic","Ġso le","Ġpro g","Ġpl atform","Ġme ans","Ġdes igned","Ġlea f","Ġmet ic","Ġsim ilar","Ġse a","Ġunlike ly","Ġintricate ly","Ġform s","Ġcollect ing","Ġear li","Ġsoci al","Ġdedic ation","Ġstrugg les","Ġcat ch","Ġfoc us","Ġdimens ion","Ġconvers ation","Ġpoet ry","Ġsle ep","Ġwid ened","Ġric hes","Ġrelations hip","a iled","b ulations","f o","f ic","r ap","w r","Ġs elling","Ġf al","Ġe there","Ġc ab","ou ched","it her","it ation","Ġd oub","Ġth read","Ġfor th","if y","Ġwe b","um p","Ġlo sing","Ġqu een","ci ence","ab ility","Ġover coming","Ġdec ades","br ush","Ġartist ry","Ġunt ouched","Ġtri bulations","Ġte a","Ġform ing","Ġbuild ings","Ġbegin ning","Ġsignific ant","Ġass ist","Ġfly ing","Ġast on","Ġav o","Ġstruct ure","Ġvers ion","Ġner vous","Ġethere al","i ents","m an","Ġa mb","Ġp ain","is ing","is sion","Ġg as","id den","id ents","im ed","Ġint ense","ess ary","Ġpro du","Ġins cript","Ġstr ateg","Ġsm o","ark able","os ing","Ġtal ked","Ġjourney ed","Ġjo ined","Ġgarden s","Ġsw ept","Ġess ent","Ġsit u","Ġgi ving","Ġrecogn ition","Ġve ins","Ġmal e","Ġadv anced","Ġinflu ence","Ġopportun ity","Ġglim ps","Ġdeepen ed","Ġpop ular","Ġphot o","Ġcobble stone","Ġpour ing","Ġcab in","a ff","g reat","o g","p idation","s et","u nder","Ġa id","Ġs on","er red","Ġb ush","Ġe qu","Ġm outh","Ġli d","and s","Ġtre pidation","Ġus ers","Ġrealiz ation","Ġpre v","Ġpo or","Ġforg ed","Ġcle an","Ġspec ific","Ġmarket ing","Ġma x","Ġpos itive","Ġblend ing","Ġcult ures","Ġcal m","Ġbookshel f","Ġearli er","Ġmale volent","l ife","p ro","p ir","Ġs cience","re ct","er ns","is s","al d","as es","Ġtim el","Ġro amed","os ed","Ġrem arkable","Ġpre ssed","Ġdes cribed","ener y","Ġdif fic","Ġcomplet ed","Ġget ting","Ġpartic ip","Ġsignific ance","Ġbrushst roke","Ġdevelo p","Ġbutter fly","Ġillustr ations","Ġdiffic ult","1 0","g rove","u ild","Ġ '","ar ity","Ġl ine","st r","Ġh ide","Ġn et","Ġfor get","Ġv ines","um ents","Ġpe nd","Ġback ground","Ġsk ill","Ġcan opy","Ġimp arted","Ġowl s","Ġhar grove","Ġrun ning","Ġresp ond","Ġcount ry","gg ed","Ġmod el","Ġdraw ings","Ġer as","Ġrequ ire","Ġspark ling","Ġrepresent ed","Ġreci pes","Ġgall ery","Ġomin ously","Ġmirac ulous","Ġfort un",", âĢĿ","o ff","Ġ $","Ġt rove","Ġs ad","Ġf ol","Ġf lipped","Ġl ore","Ġm ention","Ġm oney","Ġin k","Ġin ex","Ġbe ar","ver ance","ce ed","Ġunder brush","Ġgr own","Ġapp l","ck et","Ġres our","Ġcomp et","Ġprotect ion","Ġouts m","Ġconf ident","vers ity","Ġinclud e","Ġdi pped","Ġdisappear ing","Ġeas y","Ġenchant ment","Ġinvol ved","Ġexcept ional","Ġmushroom s","Ġreas on","Ġembed ded","Ġ vert","Ġt ied","Ġs us","er ies","Ġb and","Ġf act","Ġf aster","Ġp erm","Ġh ill","Ġu l","Ġre act","ic ious","Ġle ast","Ġun ve","Ġal ter","ap id","Ġcon vin","Ġwho le","Ġcr it","Ġgre enery","Ġha iled","Ġneed s","Ġdr am","Ġconf used","Ġhar vest","Ġcor rect","Ġblo ss","Ġsign s","Ġencounter ing","Ġshap es","Ġrese ar","Ġeff ort","Ġvict ory","Ġfeat ures","Ġnec essary","Ġcool er","Ġmemb er","Ġbar ri","Ġmanipul ate","Ġvictor ious","Ġsacrif ice","laim ed","Ġcoun cil","Ġfal se","b by","g u","m ark","p o","Ġre nder","Ġk it","Ġun p","Ġun ch","Ġch at","ast e","Ġcont ribut","Ġany more","Ġdet ailed","Ġcl arity","Ġsk illed","Ġloc als","Ġcomp on","Ġcele st","Ġcontro lling","Ġsub ject","Ġshel f","Ġdisappear ance","con t","Ġalley way","Ġfon ts","Ġtrou ble","Ġperse verance","Ġinex plic","Ġul tim","p or","in ite","Ġs el","Ġs cient","at s","Ġst ir","ur t","Ġtr aps","od ed","if ied","Ġar c","Ġins cribed","Ġac ts","Ġac com","ell ed","Ġnight s","Ġstart led"]}}