{"version":"1.0","truncation":null,"padding":null,"added_tokens":[{"id":0,"content":"<PAD>","single_word":false,"lstrip":false,"rstrip":false,"normalized":false,"special":true},{"id":1,"content":"<BOS>","single_word":false,"lstrip":false,"rstrip":false,"normalized":false,"special":true},{"id":2,"content":"<EOS>","single_word":false,"lstrip":false,"rstrip":false,"normalized":false,"special":true},{"id":3,"content":"<UNK>","single_word":false,"lstrip":false,"rstrip":false,"normalized":false,"special":true}],"normalizer":{"type":"Sequence","normalizers":[{"type":"NFC"},{"type":"Lowercase"}]},"pre_tokenizer":{"type":"ByteLevel","add_prefix_space":true,"trim_offsets":true,"use_regex":true},"post_processor":{"type":"TemplateProcessing","single":[{"SpecialToken":{"id":"<BOS>","type_id":0}},{"Sequence":{"id":"A","type_id":0}},{"SpecialToken":{"id":"<EOS>","type_id":0}}],"pair":[{"SpecialToken":{"id":"<BOS>","type_id":0}},{"Sequence":{"id":"A","type_id":0}},{"SpecialToken":{"id":"<EOS>","type_id":0}},{"Sequence":{"id":"B","type_id":1}},{"SpecialToken":{"id":"<EOS>","type_id":1}}],"special_tokens":{"<BOS>":{"id":"<BOS>","ids":[1],"tokens":["<BOS>"]},"<EOS>":{"id":"<EOS>","ids":[2],"tokens":["<EOS>"]}}},"decoder":{"type":"ByteLevel","add_prefix_space":true,"trim_offsets":true,"use_regex":true},"model":{"type":"BPE","dropout":null,"unk_token":null,"continuing_subword_prefix":null,"end_of_word_suffix":null,"fuse_unk":false,"byte_fallback":false,"ignore_merges":false,"vocab":{"<PAD>":0,"<BOS>":1,"<EOS>":2,"<UNK>":3,"!":4,"\"":5,"'":6,"(":7,")":8,"*":9,"+":10,",":11,"-":12,".":13,"/":14,"0":15,"1":16,"2":17,"3":18,"4":19,"5":20,"6":21,"7":22,"8":23,"9":24,":":25,";":26,"<":27,"=":28,">":29,"?":30,"^":31,"`":32,"a":33,"b":34,"c":35,"d":36,"e":37,"f":38,"g":39,"h":40,"i":41,"j":42,"k":43,"l":44,"m":45,"n":46,"o":47,"p":48,"q":49,"r":50,"s":51,"t":52,"u":53,"v":54,"w":55,"x":56,"y":57,"z":58,"¤":59,"¦":60,"Â":61,"â":62,"Ċ":63,"Ġ":64,"Ģ":65,"ī":66,"ĵ":67,"Ķ":68,"ĺ":69,"Ļ":70,"ľ":71,"Ŀ":72,"ł":73,"th":74,"Ġth":75,"Ġa":76,"Ġthe":77,"nd":78,"Ġs":79,"Ġand":80,"Ġo":81,"Ġh":82,"in":83,"Ġw":84,"er":85,"Ġof":86,"Ġb":87,"re":88,"to":89,"Ġf":90,"Ġi":91,"Ġm":92,"ou":93,"en":94,"ll":95,"Ġc":96,"at":97,"es":98,"on":99,"Ġu":100,"or":101,"Ġd":102,"ed":103,"Ġp":104,"Ġto":105,"Ġhi":106,"ing":107,"ar":108,"Ġg":109,"Ġsh":110,"Ġin":111,"Ġhe":112,"Ġn":113,"Ġj":114,"Ġbe":115,"an":116,"Ġl":117,"ho":118,"ah":119,"Ġun":120,"id":121,"as":122,"el":123,"Ġwi":124,"Ġsa":125,"Ġsha":126,"Ġthat":127,"Ġy":128,"Ġis":129,"Ġunto":130,"om":131,"Ġt":132,"Ġwh":133,"Ġe":134,"am":135,"Ġfor":136,"Ġha":137,"le":138,"Ġje":139,"Ġhis":140,"Ġshall":141,"se":142,"Ġjeho":143,"ld":144,"Ġno":145,"ut":146,"it":147,"vah":148,"Ġjehovah":149,"ve":150,"Ġit":151,"Ġgo":152,"ay":153,"ent":154,"ch":155,"Ġthou":156,"Ġk":157,"Ġhim":158,"st":159,"Ġwith":160,"ir":161,"gh":162,"ra":163,"ther":164,"Ġthey":165,"ver":166,"Ġall":167,"Ġthem":168,"ri":169,"ce":170,"Ġsaid":171,"Ġyou":172,"Ġup":173,"and":174,"Ġnot":175,"Ġthy":176,"ow":177,"ad":178,"ak":179,"Ġon":180,"et":181,"ght":182,"is":183,"Ġwas":184,"il":185,"Ġre":186,"ur":187,"Ġthere":188,"Ġye":189,"ore":190,"Ġme":191,"lt":192,"Ġas":193,"ere":194,"ro":195,"Ġch":196,"Ġthee":197,"Ġse":198,"al":199,"rael":200,"Ġisrael":201,"est":202,"Ġan":203,"Ġfr":204,"ven":205,"ame":206,"ion":207,"ord":208,"Ġson":209,"Ġgod":210,"Ġcom":211,"ain":212,"Ġfrom":213,"Ġwhi":214,"Ġtheir":215,"ake":216,"ren":217,"os":218,"fore":219,"Ġwill":220,"ess":221,"Ġking":222,"Ġout":223,"Ġso":224,"Ġfa":225,"Ġmy":226,"Ġman":227,"ild":228,"Ġwhich":229,"Ġpe":230,"of":231,"Ġab":232,"Ġsp":233,"op":234,"im":235,"Ġupon":236,"Ġchild":237,"Ġshalt":238,"ly":239,"Ġday":240,"Ġwere":241,"ab":242,"Ġwhen":243,"fer":244,"Ġchildren":245,"od":246,"Ġst":247,"Ġcame":248,"Ġthis":249,"Ġdo":250,"Ġda":251,"Ġpeop":252,"Ġfi":253,"ter":254,"Ġbut":255,"Ġhave":256,"Ġland":257,"Ġpeople":258,"Ġyour":259,"'s":260,"Ġby":261,"ant":262,"rou":263,"Ġag":264,"Ġher":265,"ok":266,"Ġare":267,"Ġwho":268,"Ġam":269,"Ġwe":270,"Ġli":271,"pt":272,"Ġshe":273,"ard":274,"ast":275,"Ġsay":276,"Ġone":277,"Ġbefore":278,"Ġthen":279,"Ġhou":280,"Ġhand":281,"ck":282,"ph":283,"Ġfather":284,"Ġde":285,"Ġgi":286,"urn":287,"ation":288,"Ġwent":289,"Ġ`":290,"Ġwhat":291,"ers":292,"ass":293,"Ġhouse":294,"Ġser":295,"vid":296,"Ġagain":297,"Ġv":298,"Ġhad":299,"eth":300,"Ġtw":301,"oses":302,"Ġca":303,"fering":304,"Ġmoses":305,"ath":306,"Ġhath":307,"ul":308,"ine":309,"ong":310,"em":311,"la":312,"Ġor":313,"Ġaf":314,"Ġal":315,"Ġdavid":316,"ge":317,"Ġne":318,"Ġle":319,"Ġif":320,"ot":321,"Ġover":322,"Ġmen":323,"Ġinto":324,"Ġserv":325,"our":326,"red":327,"Ġat":328,"ight":329,"Ġcome":330,"one":331,"offering":332,"ct":333,"art":334,"hold":335,"very":336,"sel":337,"Ġsaying":338,"ade":339,"us":340,"Ġus":341,"Ġbl":342,"ies":343,"Ġpass":344,"Ġcit":345,"Ġsu":346,"Ġmade":347,"Ġagainst":348,"Ġafter":349,"Ġnow":350,"um":351,"own":352,"Ġlo":353,"Ġlet":354,"so":355,"Ġyear":356,"Ġar":357,"Ġdid":358,"Ġsons":359,"ic":360,"Ġcon":361,"Ġdi":362,"Ġmay":363,"Ġbehold":364,"Ġpri":365,"Ġcomm":366,"ac":367,"Ġservant":368,"Ġput":369,"Ġph":370,"Ġr":371,"Ġbre":372,"au":373,"Ġbec":374,"out":375,"Ġkn":376,"Ġac":377,"Ġfl":378,"Ġel":379,"Ġtwo":380,"Ġpro":381,"ites":382,"Ġho":383,"Ġwhere":384,"fe":385,"Ġeven":386,"Ġevery":387,"ite":388,"gy":389,"ness":390,"ud":391,"be":392,"res":393,"Ġfe":394,"ose":395,"Ġmake":396,"Ġpriest":397,"Ġtake":398,"Ġthereof":399,"Ġcommand":400,"Ġegy":401,"Ġegypt":402,"Ġbr":403,"we":404,"oun":405,"Ġpla":406,"Ġgive":407,"Ġeat":408,"ice":409,"Ġthese":410,"Ġpr":411,"ist":412,"Ġdown":413,"Ġen":414,"ish":415,"rought":416,"ves":417,"Ġtook":418,"ep":419,"Ġacc":420,"ould":421,"Ġear":422,"oth":423,"Ġsin":424,"ft":425,"Ġga":426,"ings":427,"ill":428,"ward":429,"ording":430,"Ġmo":431,"Ġaccording":432,"ood":433,"Ġri":434,"reat":435,"ause":436,"Ġbecause":437,"orn":438,"ount":439,"Ġsto":440,"Ġbrought":441,"ment":442,"br":443,"Ġany":444,"Ġbu":445,"ith":446,"Ġsm":447,"Ġwor":448,"Ġsaul":449,"Ġjud":450,"ught":451,"Ġname":452,"Ġba":453,"ide":454,"Ġour":455,"Ġspake":456,"Ġwat":457,"Ġco":458,"Ġcall":459,"pp":460,"Ġhast":461,"und":462,"Ġcity":463,"Ġburn":464,"ance":465,"ered":466,"Ġalso":467,"ree":468,"ig":469,"amp":470,"ub":471,"Ġcan":472,"Ġz":473,"Ġdays":474,"ob":475,"Ġsam":476,"Ġgreat":477,"ate":478,"Ġseven":479,"way":480,"Ġset":481,"Ġword":482,"Ġyears":483,"Ġbring":484,"esh":485,"oh":486,"un":487,"Ġknow":488,"tle":489,"Ġsent":490,"aron":491,"all":492,"Ġaaron":493,"Ġtim":494,"ry":495,"ach":496,"sh":497,"Ġhund":498,"Ġhundred":499,"Ġro":500,"lean":501,"ue":502,"Ġ/":503,"Ġ<":504,"self":505,"Ġ/>":506,"ne":507,"Ġfam":508,"ither":509,"Ġdaught":510,"Ġsou":511,"irst":512,"Ġearth":513,"Ġforth":514,"Ġamong":515,"led":516,"Ġbro":517,"Ġnor":518,"Ġtherefore":519,"Ġsee":520,"Ġspe":521,"Ġway":522,"Ġcalled":523,"Ġalt":524,"Ġplace":525,"Ġaltar":526,"ces":527,"ind":528,"ign":529,"ved":530,"Ġwom":531,"ty":532,"Ġtent":533,"Ġtri":534,"Ġgood":535,"hu":536,"ie":537,"Ġaway":538,"Ġke":539,"Ġoff":540,"Ġits":541,"Ġinh":542,"Ġhea":543,"Ġfamil":544,"umb":545,"ara":546,"ke":547,"qu":548,"Ġheart":549,"Ġwife":550,"Ġfirst":551,"Ġsw":552,"sand":553,"Ġthousand":554,"round":555,"Ġcommanded":556,"til":557,"Ġlord":558,"Ġservants":559,"Ġburnt":560,"Ġpray":561,"Ġhear":562,"Ġex":563,"Ġabout":564,"ale":565,"Ġmore":566,"Ġother":567,"Ġhow":568,"Ġbo":569,"Ġmid":570,"ous":571,"nder":572,"ilist":573,"Ġfire":574,"Ġhead":575,"Ġjer":576,"Ġphilist":577,"ace":578,"Ġunc":579,"els":580,"eld":581,"Ġfathers":582,"Ġphara":583,"Ġpharaoh":584,"ink":585,"Ġturn":586,"Ġold":587,"Ġthree":588,"Ġuntil":589,"Ġjudah":590,"Ġmeet":591,"Ġbless":592,"ound":593,"Ġsi":594,"Ġper":595,"az":596,"Ġneither":597,"Ġwork":598,"Ġdel":599,"ans":600,"ations":601,"Ġah":602,"ines":603,"Ġmu":604,"Ġjac":605,"oss":606,"Ġbrother":607,"Ġ\"":608,"Ġsaw":609,"Ġsol":610,"Ġwater":611,"Ġjacob":612,"Ġra":613,"Ġano":614,"Ġbet":615,"Ġla":616,"Ġabr":617,"ock":618,"Ġoffer":619,"ari":620,"Ġgold":621,"ner":622,"Ġblood":623,"int":624,"Ġcities":625,"Ġnumb":626,"Ġbread":627,"Ġtime":628,"Ġwhom":629,"Ġmount":630,"Ġev":631,"ive":632,"Ġfour":633,"Ġdone":634,"Ġjos":635,"Ġret":636,"Ġrem":637,"rink":638,"hua":639,"Ġjoshua":640,"bs":641,"Ġholy":642,"Ġey":643,"Ġreturn":644,"Ġshould":645,"Ġcl":646,"Ġthing":647,"rough":648,"Ġphilistines":649,"ried":650,"Ġgave":651,"ern":652,"Ġben":653,"Ġthir":654,"cri":655,"Ġspeak":656,"iver":657,"erit":658,"Ġten":659,"ken":660,"Ġjose":661,"Ġwoman":662,"Ġjoseph":663,"ng":664,"wn":665,"attle":666,"Ġright":667,"Ġkeep":668,"Ġthine":669,"Ġbeg":670,"Ġtab":671,"selves":672,"Ġdeliver":673,"sw":674,"Ġthrough":675,"Ġposs":676,"ome":677,"Ġmight":678,"Ġunder":679,"ity":680,"Ġinherit":681,"Ġansw":682,"Ġapp":683,"Ġthose":684,"Ġevil":685,"Ġpeace":686,"Ġfield":687,"Ġbord":688,"owed":689,"ure":690,"Ġfo":691,"ence":692,"itt":693,"Ġyoung":694,"arch":695,"Ġjo":696,"âĢ":697,"Ġcomp":698,"Ġfive":699,"Ġsure":700,"ote":701,"Ġram":702,"Ġbeth":703,"Ġyet":704,"Ġtr":705,"Ġang":706,"Ġark":707,"les":708,"Ġstr":709,"thren":710,"Ġheard":711,"Ġbrethren":712,"if":713,"oice":714,"ses":715,"Ġcur":716,"Ġpart":717,"Ġwild":718,"Ġsmote":719,"Ġeyes":720,"uel":721,"Ġtold":722,"enty":723,"Ġunclean":724,"Ġpossess":725,"igh":726,"the":727,"Ġheaven":728,"are":729,"Ġdaughter":730,"te":731,"ween":732,"Ġsoul":733,"Ġbetween":734,"ond":735,"Ġjord":736,"Ġjordan":737,"ag":738,"ever":739,"Ġthings":740,"Ġpl":741,"Ġhimself":742,"Ġgather":743,"well":744,"omon":745,"ai":746,"yed":747,"Ġad":748,"Ġdest":749,"ets":750,"Ġsolomon":751,"Ġthus":752,"Ġsl":753,"Ġdrink":754,"Ġsacri":755,"Ġflesh":756,"Ġwords":757,"Ġsacrif":758,"Ġlife":759,"Ġleft":760,"ction":761,"ments":762,"Ġtribe":763,"Ġanswered":764,"erness":765,"aham":766,"ash":767,"Ġlev":768,"Ġinheritance":769,"Ġsurely":770,"Ġwilderness":771,"Ġside":772,"Ġfound":773,"Ġte":774,"Ġborder":775,"aan":776,"Ġdwell":777,"Ġlike":778,"Ġabraham":779,"de":780,"Ġsearch":781,"Ġgiven":782,"ving":783,"Ġreign":784,"Ġdestro":785,"Ġhost":786,"Ġwould":787,"Ġ(":788,"Ġvoice":789,"Ġface":790,"eb":791,"elt":792,"Ġcamp":793,"ang":794,"Ġonly":795,"gether":796,"Ġcar":797,"sed":798,"Ġsy":799,"ble":800,"Ġsix":801,"Ġlook":802,"Ġcanaan":803,"Ġeli":804,"Ġdes":805,"its":806,"soever":807,"Ġdie":808,"Ġfamilies":809,"Ġsle":810,"Ġsil":811,"Ġown":812,"Ġtogether":813,"Ġmidst":814,"Ġboth":815,"Ġdeath":816,"Ġthan":817,"Ġsc":818,"aken":819,"Ġmeeting":820,"over":821,"Ġrest":822,"Ġdep":823,"tain":824,"Ġwar":825,"Ġnear":826,"',":827,"ust":828,"Ġgen":829,"venant":830,"Ġstat":831,"Ġart":832,"Ġcovenant":833,"Ġsilver":834,"dom":835,"Ġsight":836,"Ġmorn":837,"Ġkind":838,"Ġdied":839,"Ġend":840,"Ġstand":841,"Ġfift":842,"Ġfell":843,"Ġsword":844,"row":845,"Ġdw":846,"Ġinc":847,"Ġmorning":848,"Ġround":849,"Ġmother":850,"Ġdwelt":851,"ull":852,"Ġmon":853,"Ġdaughters":854,"Ġhearken":855,"ort":856,"Ġpres":857,"Ġwell":858,"Ġproph":859,"Ġsamuel":860,"ol":861,"Ġes":862,"Ġeph":863,"Ġwithout":864,"ourne":865,"Ġwherefore":866,"mon":867,"thing":868,"Ġsan":869,"Ġoil":870,"Ġjourne":871,"ase":872,"Ġseed":873,"offerings":874,"Ġprin":875,"Ġenc":876,"Ġenem":877,"Ġgener":878,"ma":879,"Ġed":880,"Ġdoor":881,"Ġtwenty":882,"athan":883,"reg":884,"Ġdre":885,"alk":886,"Ġcons":887,"Ġsanct":888,"ful":889,"ron":890,"Ġgra":891,"Ġthemselves":892,"Ġcapt":893,"ip":894,"Ġdead":895,"Ġturned":896,"Ġencamp":897,"jam":898,"with":899,"Ġcong":900,"Ġob":901,"Ġnight":902,"Ġstood":903,"regation":904,"Ġcongregation":905,"Ġcub":906,"Ġlay":907,"Ġtaken":908,"Ġmeal":909,"Ġagent":910,"Ġmonth":911,"aph":912,"mb":913,"Ġbes":914,"Ġsea":915,"Ġass":916,"Ġlive":917,"Ġbenjam":918,"Ġcho":919,"Ġhill":920,"oney":921,"Ġblessed":922,"Ġjoab":923,"aac":924,"Ġ-":925,"Ġfoll":926,"ber":927,"Ġcut":928,"Ġdis":929,"jah":930,"Ġsk":931,"Ġox":932,"Ġclean":933,"Ġash":934,"Ġkings":935,"Ġhands":936,"Ġthirty":937,"ech":938,"Ġtoward":939,"Ġever":940,"Ġgods":941,"for":942,"ars":943,"ary":944,"Ġgar":945,"Ġbare":946,"Ġsacrifice":947,"Ġhor":948,"Ġwa":949,"Ġdoes":950,"ernac":951,"Ġtabernac":952,"Ġgathered":953,"Ġdepart":954,"Ġaro":955,"lead":956,"Ġbull":957,"Ġanother":958,"Ġvery":959,"eng":960,"Ġhigh":961,"Ġground":962,"Ġsub":963,"Ġmoab":964,"Ġback":965,"Ġbullock":966,"sal":967,"ains":968,"Ġfamily":969,"Ġanoint":970,"pe":971,"Ġjon":972,"Ġbeast":973,"Ġserve":974,"ister":975,"qui":976,"ied":977,"iah":978,"oam":979,"Ġeld":980,"Ġbenjamin":981,"Ġtabernacle":982,"ise":983,"Ġhar":984,"Ġpur":985,"Ġpill":986,"Ġkill":987,"Ġabsal":988,"ountry":989,"ledge":990,"Ġnumbered":991,"Ġabsalom":992,"jour":993,"use":994,"vor":995,"Ġwalk":996,"Ġbal":997,"Ġsojour":998,"Ġlove":999,"Ġston":1000,"ged":1001,"Ġoffering":1002,"Ġbear":1003,"Ġpassed":1004,"Ġreturned":1005,"Ġencamped":1006,"ins":1007,"Ġcattle":1008,"Ġisaac":1009,"Ġcover":1010,"Ġnumber":1011,"ead":1012,"ians":1013,"Ġent":1014,"Ġwhy":1015,"ised":1016,"ement":1017,"Ġjonathan":1018,"Ġhere":1019,"Ġpre":1020,"Ġrep":1021,"Ġfifty":1022,"Ġenemies":1023,"rees":1024,"ons":1025,"able":1026,"Ġconc":1027,"Ġflock":1028,"Ġsame":1029,"ton":1030,"Ġfull":1031,"ird":1032,"ilt":1033,"Ġsec":1034,"Ġdelivered":1035,"Ġstatut":1036,"mor":1037,"aster":1038,"ants":1039,"itten":1040,"uch":1041,"Ġfat":1042,"ief":1043,"born":1044,"Ġswe":1045,"atter":1046,"Ġnone":1047,"asse":1048,"Ġwhe":1049,"Ġsend":1050,"Ġspok":1051,"Ġpriests":1052,"Ġplag":1053,"Ġtrib":1054,"Ġtell":1055,"Ġcubits":1056,"ared":1057,"Ġhus":1058,"Ġmine":1059,"Ġhal":1060,"Ġfear":1061,"Ġwaters":1062,"Ġarose":1063,"Ġeach":1064,"Ġsyri":1065,"per":1066,"Ġwr":1067,"Ġmer":1068,"Ġforty":1069,"Ġtherein":1070,"Ġfled":1071,"Ġjerus":1072,"Ġephra":1073,"Ġwilt":1074,"Ġsheep":1075,"alem":1076,"Ġlevites":1077,"Ġslew":1078,"Ġstones":1079,"Ġjerusalem":1080,"Ġmou":1081,"Ġcast":1082,"Ġlest":1083,"Ġask":1084,"ime":1085,"Ġord":1086,"Ġreigned":1087,"Ġspoken":1088,"lation":1089,"Ġbattle":1090,"Ġwithin":1091,"Ġchari":1092,"Ġfall":1093,"Ġcont":1094,"Ġdestroy":1095,"Ġelders":1096,"Ġhalf":1097,"Ġmouth":1098,"Ġchariot":1099,"li":1100,"ought":1101,"Ġwhose":1102,"Ġstone":1103,"ret":1104,"cept":1105,"Ġremain":1106,"ned":1107,"ove":1108,"Ġsaith":1109,"ittle":1110,"Ġfru":1111,"Ġmanasse":1112,"Ġmanasseh":1113,"ew":1114,"Ġnations":1115,"elech":1116,"Ġlight":1117,"cked":1118,"Ġknowledge":1119,"Ġrose":1120,"Ġmult":1121,"Ġstrong":1122,"Ġplague":1123,"Ġephraim":1124,"iz":1125,"ile":1126,"Ġfine":1127,"ated":1128,"Ġbeen":1129,"Ġlittle":1130,"ased":1131,"imelech":1132,"Ġdef":1133,"Ġwherewith":1134,"Ġlaid":1135,"Ġthroughout":1136,"Ġesau":1137,"read":1138,"Ġmaster":1139,"Ġgu":1140,"Ġres":1141,"Ġgilead":1142,"Ġest":1143,"Ġshow":1144,"Ġbel":1145,"Ġlot":1146,"ions":1147,"Ġvess":1148,"Ġsouth":1149,"bb":1150,"ek":1151,"Ġaton":1152,"Ġim":1153,"Ġmess":1154,"Ġmoney":1155,"ames":1156,"Ġforg":1157,"Ġlea":1158,"Ġbegat":1159,"Ġanger":1160,"bor":1161,"ey":1162,"pen":1163,"Ġfore":1164,"Ġchar":1165,"Ġmany":1166,"Ġfind":1167,"Ġvall":1168,"Ġbaal":1169,"Ġatonement":1170,"Ġvalley":1171,"ian":1172,"Ġma":1173,"Ġlong":1174,"Ġshek":1175,"Ġjourneyed":1176,"Ġoblation":1177,"Ġmin":1178,"Ġcause":1179,"ress":1180,"Ġegyptians":1181,"Ġbuilt":1182,"Ġseek":1183,"Ġmuch":1184,"Ġlaw":1185,"aam":1186,"ba":1187,"band":1188,"eous":1189,"tter":1190,"ason":1191,"Ġwash":1192,"Ġchief":1193,"Ġappe":1194,"Ġgenerations":1195,"Ġdeparted":1196,"ning":1197,"Ġwood":1198,"oud":1199,"Ġsave":1200,"Ġamor":1201,"gor":1202,"ple":1203,"Ġble":1204,"Ġlam":1205,"ides":1206,"Ġref":1207,"Ġasse":1208,"Ġthence":1209,"Ġfeet":1210,"oboam":1211,"Ġseventh":1212,"Ġjeroboam":1213,"Ġahab":1214,"Ġhusband":1215,"Ġdan":1216,"Ġget":1217,"Ġgate":1218,"Ġeast":1219,"Ġreub":1220,"als":1221,"Ġspir":1222,"Ġele":1223,"Ġbuild":1224,"Ġsmite":1225,"Ġtribes":1226,"Ġreuben":1227,"Ġthr":1228,"Ġutter":1229,"Ġpers":1230,"abit":1231,"Ġlift":1232,"Ġdev":1233,"Ġriver":1234,"Ġinhabit":1235,"Ġwhether":1236,"Ġfruit":1237,"ense":1238,"ates":1239,"Ġpo":1240,"Ġseen":1241,"Ġmanner":1242,"Ġpossession":1243,"ages":1244,"ail":1245,"Ġtouch":1246,"Ġbeh":1247,"Ġhouses":1248,"pl":1249,"Ġhel":1250,"ask":1251,"Ġknew":1252,"Ġcloth":1253,"Ġmesseng":1254,"Ġsat":1255,"Ġopen":1256,"ined":1257,"Ġgad":1258,"Ġgone":1259,"Ġlab":1260,"Ġthyself":1261,"Ġwhile":1262,"Ġwhither":1263,"Ġabove":1264,"Ġammon":1265,"Ġsware":1266,"Ġmighty":1267,"blem":1268,"form":1269,"Ġsecond":1270,"age":1271,"Ġfood":1272,"aked":1273,"Ġtwel":1274,"Ġthird":1275,"Ġconcern":1276,"Ġassemb":1277,"Ġspirit":1278,"alt":1279,"ost":1280,"son":1281,"erv":1282,"Ġbur":1283,"Ġind":1284,"lea":1285,"Ġkingdom":1286,"Ġfight":1287,"Ġneigh":1288,"Ġelish":1289,"Ġproblem":1290,"Ġsanctu":1291,"Ġpillars":1292,"Ġinhabitants":1293,"Ġneighbor":1294,"ats":1295,"Ġpie":1296,"law":1297,"Ġalgor":1298,"Ġservice":1299,"Ġelijah":1300,"Ġprinces":1301,"Ġdream":1302,"Ġtest":1303,"Ġjez":1304,"urbs":1305,"Ġabimelech":1306,"Ġgibe":1307,"cts":1308,"Ġarm":1309,"Ġbrass":1310,"Ġburied":1311,"Ġrighteous":1312,"Ġslay":1313,"Ġdestroyed":1314,"Ġoxen":1315,"Ġstatutes":1316,"Ġvessels":1317,"Ġconcerning":1318,"Ġsanctuary":1319,"country":1320,"ff":1321,"ial":1322,"uth":1323,"Ġbow":1324,"ens":1325,"Ġstate":1326,"ards":1327,"Ġsuch":1328,"Ġmayest":1329,"Ġangel":1330,"Ġsuburbs":1331,"Ġtwelve":1332,"gth":1333,"hon":1334,"Ġobs":1335,"Ġbod":1336,"Ġcried":1337,"Ġdam":1338,"Ġjes":1339,"rength":1340,"Ġstrength":1341,"Ġwhole":1342,"Ġtimes":1343,"maid":1344,"Ġordin":1345,"Ġalgorith":1346,"ap":1347,"man":1348,"ĠâĢ":1349,"Ġai":1350,"Ġhard":1351,"Ġborn":1352,"Ġnames":1353,"ition":1354,"Ġcommandment":1355,"Ġcommandments":1356,"Ġpurs":1357,"Ġalgorithm":1358,"men":1359,"mish":1360,"Ġwall":1361,"Ġwives":1362,"Ġtree":1363,"owing":1364,"Ġabner":1365,"Ġcloud":1366,"Ġcontin":1367,"Ġsister":1368,"Ġiss":1369,"omin":1370,"Ġrede":1371,"Ġspo":1372,"Ġhandmaid":1373,"Ġwherein":1374,"Ġjudg":1375,"Ġwomen":1376,"Ġremem":1377,"Ġslain":1378,"Ġincense":1379,"Ġprophet":1380,"Ġprince":1381,"Ġsweet":1382,"Ġredeem":1383,"core":1384,"Ġari":1385,"Ġsome":1386,"Ġwine":1387,"Ġmale":1388,"Ġport":1389,"Ġgl":1390,"ents":1391,"chem":1392,"Ġsta":1393,"Ġwhatsoever":1394,"Ġval":1395,"ush":1396,"Ġhold":1397,"Ġenv":1398,"Ġzi":1399,"ally":1400,"Ġmidian":1401,"Ġabram":1402,"Ġbegan":1403,"Ġsanctif":1404,"Ġskin":1405,"Ġanointed":1406,"ds":1407,"ived":1408,"ps":1409,"yond":1410,"Ġcre":1411,"Ġdra":1412,"ark":1413,"arle":1414,"Ġbeyond":1415,"rie":1416,"Ġspread":1417,"Ġwhosoever":1418,"Ġlie":1419,"Ġshechem":1420,"Ġsamari":1421,"Ġoffered":1422,"Ġgarments":1423,"Ġbalaam":1424,"Ġchariots":1425,"Ġelisha":1426,"Ġsamaria":1427,"iqu":1428,"Ġbird":1429,"Ġfar":1430,"Ġgr":1431,"Ġiniqu":1432,"ump":1433,"Ġeaten":1434,"ished":1435,"Ġsinned":1436,"Ġbook":1437,"Ġlooked":1438,"Ġpresent":1439,"Ġedom":1440,"Ġconsum":1441,"Ġclothes":1442,"iath":1443,"lam":1444,"Ġsign":1445,"ertain":1446,"Ġfill":1447,"Ġdec":1448,"Ġalive":1449,"Ġsun":1450,"bron":1451,"Ġanything":1452,"Ġzeb":1453,"Ġcurse":1454,"Ġhearkened":1455,"Ġamorites":1456,"Ġcontinu":1457,"day":1458,"eed":1459,"ib":1460,"Ġaction":1461,"inen":1462,"Ġhebron":1463,"Ġwit":1464,"Ġep":1465,"ower":1466,"Ġyourselves":1467,"ckets":1468,"Ġbecame":1469,"resp":1470,"Ġfeast":1471,"Ġbond":1472,"Ġbesides":1473,"Ġblemish":1474,"Ġmessengers":1475,"Ġlaban":1476,"je":1477,"oint":1478,"Ġthither":1479,"Ġcam":1480,"Ġcour":1481,"Ġcould":1482,"Ġbeing":1483,"Ġlinen":1484,"Ġsabb":1485,"Ġred":1486,"vened":1487,"Ġstead":1488,"Ġvine":1489,"Ġkept":1490,"Ġappoint":1491,"âĢĿ":1492,"Ġcharge":1493,"Ġlifted":1494,"Ġbody":1495,"Ġarise":1496,"Ġportion":1497,"Ġsabbath":1498,"ick":1499,"zer":1500,"rew":1501,"Ġfle":1502,"Ġdri":1503,"ances":1504,"Ġform":1505,"ution":1506,"iron":1507,"raid":1508,"Ġaside":1509,"Ġsockets":1510,"Ġafraid":1511,"Ġdivid":1512,"Ġbecome":1513,"Ġknown":1514,"pped":1515,"azar":1516,"Ġedge":1517,"Ġeleazar":1518,"Ġenviron":1519,"Ġiniquity":1520,"ys":1521,"ched":1522,"ceived":1523,"Ġsep":1524,"Ġcometh":1525,"Ġabomin":1526,"Ġgiveth":1527,"Ġmost":1528,"Ġworld":1529,"Ġmoreover":1530,"Ġmountain":1531,"Ġtrump":1532,"Ġdrew":1533,"Ġwritten":1534,"Ġindeed":1535,"ĠâĢľ":1536,"he":1537,"tt":1538,"Ġbowed":1539,"Ġple":1540,"Ġtresp":1541,"ows":1542,"Ġrebe":1543,"Ġreason":1544,"Ġable":1545,"Ġplaces":1546,"teen":1547,"Ġliveth":1548,"Ġdisc":1549,"Ġasher":1550,"Ġutterly":1551,"Ġtrespass":1552,"cy":1553,"ich":1554,"tor":1555,"Ġtop":1556,"Ġtask":1557,"irc":1558,"Ġnew":1559,"Ġlear":1560,"Ġdist":1561,"Ġothers":1562,"Ġtenth":1563,"Ġprophets":1564,"Ġmultip":1565,"non":1566,"Ġfought":1567,"Ġcou":1568,"Ġnaked":1569,"hod":1570,"Ġwicked":1571,"Ġter":1572,"ute":1573,"Ġfavor":1574,"Ġwept":1575,"Ġmust":1576,"Ġrams":1577,"Ġsojourn":1578,"Ġhelp":1579,"Ġassembly":1580,"fli":1581,"ious":1582,"less":1583,"nah":1584,"not":1585,"pro":1586,"sen":1587,"serv":1588,"uri":1589,"wh":1590,"Ġwrought":1591,"Ġnothing":1592,"Ġmeas":1593,"Ġdoth":1594,"oke":1595,"icho":1596,"Ġflour":1597,"Ġprov":1598,"Ġrock":1599,"Ġnorth":1600,"Ġjericho":1601,"Ġsacrific":1602,"quire":1603,"Ġthrone":1604,"Ġwitness":1605,"Ġephod":1606,"kah":1607,"ued":1608,"Ġach":1609,"Ġcr":1610,"arah":1611,"Ġtar":1612,"Ġjehu":1613,"stand":1614,"Ġcher":1615,"Ġamale":1616,"Ġbreak":1617,"Ġcompan":1618,"Ġcursed":1619,"Ġcaptain":1620,"Ġflee":1621,"Ġamalek":1622,"cc":1623,"ire":1624,"ram":1625,"Ġobe":1626,"Ġhon":1627,"Ġcertain":1628,"Ġsavor":1629,"Ġtre":1630,"chel":1631,"ceed":1632,"imon":1633,"Ġhousehold":1634,"umc":1635,"Ġjudge":1636,"Ġcannot":1637,"Ġrachel":1638,"Ġcurtain":1639,"eba":1640,"Ġgrain":1641,"Ġfollowed":1642,"Ġminister":1643,"Ġperson":1644,"ircumc":1645,"aim":1646,"een":1647,"go":1648,"gs":1649,"gic":1650,"Ġbra":1651,"Ġbase":1652,"Ġpure":1653,"Ġinter":1654,"Ġhaz":1655,"Ġnoah":1656,"iled":1657,"ali":1658,"Ġsprink":1659,"Ġlived":1660,"Ġliving":1661,"Ġears":1662,"Ġworsh":1663,"Ġcaptains":1664,"Ġflocks":1665,"Ġasked":1666,"Ġleave":1667,"Ġglor":1668,"Ġcourt":1669,"gal":1670,"ru":1671,"Ġsore":1672,"Ġbound":1673,"Ġhid":1674,"Ġgide":1675,"Ġnab":1676,"Ġeight":1677,"ayed":1678,"Ġupward":1679,"abl":1680,"Ġpeoples":1681,"Ġdidst":1682,"Ġheads":1683,"âĢĻ":1684,"Ġcomple":1685,"Ġincre":1686,"Ġpresence":1687,"Ġsojourner":1688,"Ġrepres":1689,"Ġsyria":1690,"Ġestabl":1691,"Ġobser":1692,"Ġgideon":1693,"ijah":1694,"oc":1695,"vest":1696,"ying":1697,"Ġhorn":1698,"Ġwro":1699,"Ġgil":1700,"Ġunlea":1701,"right":1702,"Ġstill":1703,"Ġstrang":1704,"Ġhosts":1705,"Ġlamb":1706,"Ġtestimon":1707,"Ġremember":1708,"Ġunleavened":1709,"Ġve":1710,"Ġham":1711,"Ġhome":1712,"Ġbed":1713,"reel":1714,"Ġming":1715,"Ġwis":1716,"Ġjeph":1717,"Ġsev":1718,"osh":1719,"Ġstri":1720,"Ġserved":1721,"Ġblue":1722,"Ġrul":1723,"Ġsmitten":1724,"shaph":1725,"Ġperform":1726,"Ġcarry":1727,"Ġchoose":1728,"Ġbalak":1729,"Ġsyrians":1730,"Ġpoor":1731,"Ġbehind":1732,"Ġcherub":1733,"Ġrepresent":1734,"Ġmingled":1735,"Ġthrees":1736,"Ġmatter":1737,"oured":1738,"Ġcountry":1739,"Ġpower":1740,"Ġhitt":1741,"Ġshut":1742,"Ġshowed":1743,"Ġnah":1744,"Ġnigh":1745,"Ġlad":1746,"Ġgoing":1747,"Ġones":1748,"Ġasses":1749,"Ġaffli":1750,"Ġnever":1751,"Ġran":1752,"Ġrun":1753,"ressed":1754,"Ġearly":1755,"Ġfoot":1756,"Ġesc":1757,"Ġimp":1758,"Ġpieces":1759,"Ġspoil":1760,"Ġnakedness":1761,"Ġthreescore":1762,"most":1763,"nt":1764,"Ġ1":1765,"Ġwo":1766,"Ġwest":1767,"Ġmil":1768,"Ġmur":1769,"Ġpit":1770,"Ġgird":1771,"Ġnation":1772,"Ġish":1773,"Ġtill":1774,"Ġem":1775,"Ġalway":1776,"Ġrings":1777,"Ġways":1778,"Ġlevi":1779,"Ġmaid":1780,"Ġshekel":1781,"Ġjezreel":1782,"Ġordinances":1783,"Ġdraw":1784,"Ġzebul":1785,"Ġsepar":1786,"Ġwisdom":1787,"av":1788,"bon":1789,"sy":1790,"ures":1791,"xed":1792,"Ġqu":1793,"Ġbath":1794,"Ġuri":1795,"orrow":1796,"Ġtoo":1797,"Ġgates":1798,"Ġinst":1799,"Ġbeer":1800,"Ġwind":1801,"Ġtra":1802,"Ġhair":1803,"Ġjehoshaph":1804,"Ġgoest":1805,"ches":1806,"stem":1807,"Ġrec":1808,"rove":1809,"alm":1810,"Ġneed":1811,"Ġsins":1812,"Ġrise":1813,"Ġthousands":1814,"Ġahaz":1815,"Ġbreadth":1816,"Ġsystem":1817,"Ġkindled":1818,"Ġhorses":1819,"Ġwave":1820,"Ġbelong":1821,"Ġshekels":1822,"Ġviney":1823,"Ġhonor":1824,"Ġjehoshaphat":1825,"den":1826,"had":1827,"Ġhang":1828,"Ġfet":1829,"Ġnaph":1830,"Ġjab":1831,"Ġbeat":1832,"Ġleng":1833,"amar":1834,"adab":1835,"ily":1836,"Ġthereon":1837,"Ġlogic":1838,"Ġproc":1839,"Ġsamson":1840,"Ġseeing":1841,"ashan":1842,"Ġteach":1843,"Ġscarle":1844,"Ġjourney":1845,"Ġgarment":1846,"Ġbeasts":1847,"Ġmercy":1848,"Ġsanctify":1849,"ircumcised":1850,"Ġtestimony":1851,"Ġlength":1852,"Ġscarlet":1853,"ffer":1854,"iel":1855,"tali":1856,"ult":1857,"wor":1858,"Ġsarah":1859,"Ġhas":1860,"Ġbashan":1861,"Ġcoun":1862,"Ġjust":1863,"Ġforward":1864,"Ġabod":1865,"Ġvill":1866,"Ġconst":1867,"ude":1868,"Ġzer":1869,"shek":1870,"Ġoffic":1871,"Ġsick":1872,"Ġchosen":1873,"Ġcovered":1874,"Ġdamsel":1875,"Ġdrive":1876,"Ġstranger":1877,"Ġabode":1878,"Ġvillages":1879,"shekels":1880,"ia":1881,"ield":1882,"Ġara":1883,"Ġacts":1884,"Ġsime":1885,"Ġbar":1886,"reen":1887,"Ġmat":1888,"ough":1889,"Ġcreat":1890,"oram":1891,"Ġsake":1892,"Ġgoats":1893,"Ġkid":1894,"Ġrent":1895,"Ġalong":1896,"cted":1897,"Ġloc":1898,"Ġcost":1899,"Ġrod":1900,"Ġboards":1901,"Ġgolden":1902,"Ġtable":1903,"Ġcompass":1904,"Ġsouls":1905,"Ġpillar":1906,"Ġwalked":1907,"Ġresto":1908,"Ġappear":1909,"Ġgibeah":1910,"Ġstaves":1911,"Ġconsumed":1912,"Ġenvironment":1913,"Ġabomination":1914,"Ġmultiply":1915,"standing":1916,"Ġglory":1917,"Ġnaphtali":1918,"Ġsimeon":1919,"sing":1920,"Ġsel":1921,"Ġsla":1922,"Ġbas":1923,"Ġmod":1924,"ened":1925,"Ġcry":1926,"Ġhither":1927,"ely":1928,"Ġthought":1929,"Ġvow":1930,"Ġvari":1931,"Ġafterward":1932,"Ġru":1933,"Ġaccept":1934,"sheba":1935,"Ġheavens":1936,"Ġcanaanites":1937,"Ġhorse":1938,"morrow":1939,"Ġcreep":1940,"Ġobserve":1941,"),":1942,"ael":1943,"dle":1944,"first":1945,"gi":1946,"ling":1947,"lay":1948,"Ġqui":1949,"Ġbest":1950,"Ġfree":1951,"Ġcal":1952,"orah":1953,"Ġnine":1954,"hob":1955,"leh":1956,"ited":1957,"itude":1958,"Ġgoeth":1959,"Ġreach":1960,"Ġsold":1961,"Ġfaith":1962,"Ġweight":1963,"Ġleah":1964,"Ġlepro":1965,"Ġbreast":1966,"resh":1967,"Ġfamine":1968,"Ġestim":1969,"Ġbirds":1970,"Ġappointed":1971,"Ġseventy":1972,"Ġhittite":1973,"Ġzebulun":1974,"Ġleprosy":1975,".\"":1976,"lo":1977,"ran":1978,"Ġmah":1979,"ors":1980,"Ġdark":1981,"Ġgrie":1982,"Ġwise":1983,"Ġrej":1984,"Ġread":1985,"Ġmemor":1986,"road":1987,"Ġabroad":1988,"pher":1989,"Ġdeal":1990,"beit":1991,"Ġsmall":1992,"Ġheave":1993,"Ġhowbeit":1994,"Ġphilistine":1995,"Ġblessing":1996,"Ġsihon":1997,"Ġrain":1998,"itting":1999,"aiah":2000,"Ġdesire":2001,"Ġstatute":2002,"Ġmultitude":2003,"lambs":2004,"Ġgilgal":2005,"lehem":2006,"bus":2007,"lot":2008,"pah":2009,"Ġmic":2010,"Ġmach":2011,"Ġced":2012,"Ġshil":2013,"Ġjebus":2014,"vers":2015,"ribe":2016,"akes":2017,"Ġrehob":2018,"Ġyea":2019,"Ġspace":2020,"cks":2021,"Ġalone":2022,"used":2023,"Ġsucc":2024,"Ġfew":2025,"Ġsinai":2026,"Ġbrook":2027,"Ġuncover":2028,"Ġsolution":2029,"Ġfourth":2030,"Ġtables":2031,"Ġparts":2032,"Ġfollow":2033,"Ġappeared":2034,"Ġtoucheth":2035,"Ġjesse":2036,"Ġfilled":2037,"Ġcamels":2038,"osheth":2039,"Ġalways":2040,"Ġrule":2041,"'.":2042,"lest":2043,"vail":2044,"Ġhoney":2045,"Ġfun":2046,"Ġpath":2047,"Ġnay":2048,"ider":2049,"sec":2050,"Ġkir":2051,"ereth":2052,"Ġdealt":2053,"Ġcave":2054,"Ġbran":2055,"Ġknowest":2056,"Ġspear":2057,"Ġexamp":2058,"Ġexceed":2059,"Ġeye":2060,"Ġtruth":2061,"Ġbeside":2062,"Ġharlot":2063,"Ġbelie":2064,"Ġeastward":2065,"Ġopened":2066,"Ġjesus":2067,"Ġcherubim":2068,"work":2069,"Ġcounsel":2070,"Ġfunction":2071,"air":2072,"brew":2073,"pes":2074,"xt":2075,"thah":2076,"Ġsit":2077,"Ġmind":2078,"Ġce":2079,"Ġcount":2080,"Ġge":2081,"Ġhebrew":2082,"Ġlod":2083,"Ġtem":2084,"Ġgoal":2085,"ceive":2086,"ision":2087,"Ġreward":2088,"Ġdeep":2089,"Ġwhereof":2090,"achar":2091,"Ġbene":2092,"Ġtrans":2093,"ified":2094,"Ġadd":2095,"Ġadon":2096,"Ġcarried":2097,"mage":2098,"Ġpursued":2099,"Ġissue":2100,"Ġissachar":2101,"Ġactions":2102,"Ġdivided":2103,"Ġtrumpets":2104,"Ġrebekah":2105,"Ġsprinkle":2106,"Ġincrease":2107,"Ġveil":2108,"Ġofficers":2109,"Ġcedar":2110,"fth":2111,"ible":2112,"trees":2113,"ual":2114,"ured":2115,"Ġaven":2116,"Ġoath":2117,"Ġopp":2118,"Ġhur":2119,"Ġhate":2120,"Ġhumb":2121,"Ġfin":2122,"Ġiron":2123,"Ġmiz":2124,"Ġcand":2125,"Ġdrove":2126,"Ġpour":2127,"Ġhide":2128,"Ġsaved":2129,"Ġjeal":2130,"Ġken":2131,"Ġkoh":2132,"ilah":2133,"Ġchron":2134,"Ġstra":2135,"Ġstret":2136,"Ġherds":2137,"Ġvi":2138,"Ġcap":2139,"oted":2140,"Ġtents":2141,"Ġbetter":2142,"Ġtrue":2143,"Ġdesp":2144,"Ġwaxed":2145,"Ġharvest":2146,"Ġforgive":2147,"Ġforeign":2148,"Ġhorns":2149,"Ġjephthah":2150,"lestick":2151,"Ġkiriath":2152,"Ġcandlestick":2153,"Ġjealous":2154,"Ġkohath":2155,"Ġchronic":2156,"bah":2157,"ced":2158,"now":2159,"zah":2160,"Ġhesh":2161,"Ġimage":2162,"Ġcor":2163,"Ġpar":2164,"Ġpra":2165,"Ġgath":2166,"Ġnun":2167,"eless":2168,"Ġtrees":2169,"leb":2170,"Ġsoon":2171,"oph":2172,"iment":2173,"ott":2174,"Ġloved":2175,"Ġwatch":2176,"Ġsought":2177,"Ġbroken":2178,"Ġraiment":2179,"Ġbegin":2180,"Ġjoash":2181,"Ġenemy":2182,"Ġfollowing":2183,"pect":2184,"Ġpurple":2185,"Ġcovering":2186,"Ġswear":2187,"Ġforgi":2188,"Ġgibeon":2189,"Ġmeasure":2190,"Ġquick":2191,"Ġchronicles":2192,"ator":2193,"cious":2194,"mah":2195,"tribe":2196,"era":2197,"Ġmour":2198,"Ġmich":2199,"ont":2200,"Ġdet":2201,"Ġdust":2202,"Ġpoured":2203,"Ġshime":2204,"Ġheed":2205,"Ġheal":2206,"Ġheight":2207,"Ġlion":2208,"Ġnode":2209,"irg":2210,"Ġmeth":2211,"roach":2212,"Ġseem":2213,"Ġsodom":2214,"Ġabish":2215,"Ġcaleb":2216,"Ġneb":2217,"Ġconceived":2218,"acia":2219,"Ġacacia":2220,"Ġprom":2221,"Ġbuy":2222,"Ġworth":2223,"Ġplay":2224,"Ġcanaanite":2225,"Ġdescri":2226,"Ġslept":2227,"Ġstates":2228,"Ġlearning":2229,"Ġtarry":2230,"Ġconstra":2231,"Ġshiloh":2232,"Ġheshbon":2233,"do":2234,"hor":2235,"na":2236,"rah":2237,"vent":2238,"Ġer":2239,"nded":2240,"Ġhan":2241,"Ġhated":2242,"Ġwid":2243,"Ġwra":2244,"Ġmet":2245,"Ġmorrow":2246,"Ġuse":2247,"Ġgers":2248,"Ġinward":2249,"Ġinte":2250,"Ġnathan":2251,"Ġsal":2252,"Ġty":2253,"Ġhapp":2254,"seat":2255,"Ġkad":2256,"ada":2257,"add":2258,"adok":2259,"ilty":2260,"Ġasa":2261,"Ġseir":2262,"Ġabide":2263,"Ġabiath":2264,"ops":2265,"Ġamnon":2266,"Ġlieth":2267,"Ġalm":2268,"Ġlead":2269,"Ġarmor":2270,"Ġprovid":2271,"Ġzadok":2272,"Ġperish":2273,"Ġfours":2274,"Ġramah":2275,"thew":2276,"Ġcubit":2277,"Ġprep":2278,"Ġconcub":2279,"Ġfallen":2280,"Ġremained":2281,"Ġguilty":2282,"servant":2283,"Ġsacrifices":2284,"Ġcompany":2285,"Ġworshi":2286,"Ġbathe":2287,"Ġvineyard":2288,"Ġmatthew":2289,"Ġmodel":2290,"Ġestimation":2291,"Ġquickly":2292,"Ġabiathar":2293,"ban":2294,"ieth":2295,"kind":2296,"lah":2297,"min":2298,"run":2299,"sp":2300,"Âł":2301,"Ġthigh":2302,"Ġaz":2303,"Ġsid":2304,"Ġbought":2305,"Ġmar":2306,"Ġcu":2307,"Ġinquire":2308,"Ġsham":2309,"Ġwhite":2310,"Ġhall":2311,"Ġthough":2312,"Ġsole":2313,"Ġfeared":2314,"igent":2315,"Ġgreater":2316,"Ġgreatly":2317,"Ġfourteen":2318,"Ġplain":2319,"Ġcarm":2320,"Ġfifteen":2321,"Ġskil":2322,"Ġbullocks":2323,"Ġanointing":2324,"ilee":2325,"Ġpersons":2326,"plate":2327,"Ġpiece":2328,"Ġrighteousness":2329,"Ġjudgment":2330,"riend":2331,"Ġpleased":2332,"Ġreasoning":2333,"Ġuriah":2334,"Ġself":2335,"Ġbreastplate":2336,"Ġdarkness":2337,"Ġready":2338,"Ġexceeding":2339,"venture":2340,"Ġwidow":2341,"Ġkadesh":2342,").":2343,".âĢĿ":2344,"by":2345,"iada":2346,"kin":2347,"rance":2348,"uge":2349,"wise":2350,"Ġaught":2351,"Ġom":2352,"Ġfount":2353,"Ġmak":2354,"Ġtown":2355,"arm":2356,"ane":2357,"Ġlamp":2358,"Ġtid":2359,"Ġtamar":2360,"Ġjehoiada":2361,"Ġgoat":2362,"adventure":2363,"Ġmeans":2364,"Ġche":2365,"Ġsell":2366,"Ġmyself":2367,"Ġfifth":2368,"laid":2369,"Ġoverlaid":2370,"Ġpassover":2371,"Ġconf":2372,"Ġconsec":2373,"Ġprof":2374,"fect":2375,"Ġevening":2376,"Ġeverything":2377,"ounce":2378,"Ġjudged":2379,"Ġhearts":2380,"Ġexper":2381,"Ġperadventure":2382,"Ġmountains":2383,"Ġunderstanding":2384,"Ġborders":2385,"asha":2386,"Ġscreen":2387,"Ġstanding":2388,"Ġgeneration":2389,"Ġentrance":2390,"Ġprevail":2391,"izz":2392,"Ġrefuge":2393,"Ġdevoted":2394,"Ġbury":2395,"Ġcurtains":2396,"Ġwroth":2397,"Ġmilk":2398,"Ġmurm":2399,"Ġfetch":2400,"Ġhorsemen":2401,"Ġconstraint":2402,"Ġconsecr":2403,");":2404,"but":2405,"oah":2406,"time":2407,"uct":2408,"Ġmis":2409,"Ġcircumcised":2410,"Ġdry":2411,"Ġhiv":2412,"Ġsho":2413,"Ġshel":2414,"Ġshout":2415,"Ġna":2416,"Ġjoram":2417,"amber":2418,"Ġkorah":2419,"Ġonce":2420,"Ġreg":2421,"Ġrequire":2422,"Ġchang":2423,"Ġcoming":2424,"ima":2425,"Ġleban":2426,"Ġused":2427,"Ġloving":2428,"Ġarnon":2429,"ication":2430,"bear":2431,"Ġbaasha":2432,"Ġlords":2433,"Ġanswer":2434,"Ġlambs":2435,"ffic":2436,"Ġordinance":2437,"Ġredeemed":2438,"Ġwickedness":2439,"Ġcomplete":2440,"Ġestablish":2441,"Ġperformance":2442,"Ġempt":2443,"Ġahaziah":2444,"hadad":2445,"Ġbeaten":2446,"gilead":2447,"Ġmemorial":2448,"Ġbranches":2449,"Ġadonijah":2450,"Ġforgiven":2451,"Ġshimei":2452,"Ġgershon":2453,"Ġtowns":2454,"Ġlebanon":2455,"cus":2456,"ives":2457,"ks":2458,"much":2459,"oved":2460,"pla":2461,"pie":2462,"ray":2463,"ting":2464,"theless":2465,"Ġoh":2466,"Ġhin":2467,"iness":2468,"reth":2469,"Ġfal":2470,"Ġfast":2471,"Ġfriend":2472,"Ġmal":2473,"onounce":2474,"Ġded":2475,"Ġpast":2476,"Ġhiram":2477,"Ġinform":2478,"Ġjub":2479,"Ġlu":2480,"Ġlow":2481,"asmuch":2482,"Ġsalt":2483,"omi":2484,"Ġfors":2485,"Ġkis":2486,"Ġfail":2487,"Ġshem":2488,"Ġvis":2489,"Ġvirg":2490,"Ġloins":2491,"Ġprog":2492,"Ġpronounce":2493,"Ġhaste":2494,"ship":2495,"Ġexp":2496,"Ġuncleanness":2497,"Ġadvers":2498,"Ġlevite":2499,"ebel":2500,"Ġsleep":2501,"Ġkindness":2502,"Ġends":2503,"Ġephah":2504,"mael":2505,"Ġjezebel":2506,"Ġjudges":2507,"Ġcontinually":2508,"Ġdivide":2509,"Ġtrumpet":2510,"Ġlearn":2511,"Ġcrown":2512,"goats":2513,"Ġnabal":2514,"Ġnaboth":2515,"ocation":2516,"Ġescap":2517,"Ġishmael":2518,"Ġarabah":2519,"Ġwrath":2520,"Ġsidon":2521,"Ġtidings":2522,"ape":2523,"ient":2524,"ience":2525,"ls":2526,"lon":2527,"mmon":2528,"que":2529,"ts":2530,"yri":2531,"Ġthresh":2532,"Ġsing":2533,"Ġsim":2534,"Ġwre":2535,"Ġbit":2536,"Ġbri":2537,"Ġfro":2538,"Ġful":2539,"Ġfem":2540,"Ġcakes":2541,"ange":2542,"Ġled":2543,"Ġsack":2544,"Ġfort":2545,"Ġgoings":2546,"Ġmean":2547,"aint":2548,"Ġwhence":2549,"Ġstay":2550,"Ġdeed":2551,"Ġtwined":2552,"Ġeng":2553,"shem":2554,"Ġwomb":2555,"Ġboil":2556,"Ġboaz":2557,"Ġgraven":2558,"Ġmonths":2559,"Ġassyri":2560,"Ġkilled":2561,"Ġsecret":2562,"Ġorder":2563,"Ġdefile":2564,"Ġguard":2565,"Ġvalue":2566,"Ġcreator":2567,"Ġsigns":2568,"Ġrebell":2569,"servants":2570,"Ġachish":2571,"Ġbrake":2572,"Ġinterp":2573,"Ġestablished":2574,"Ġrepresentation":2575,"Ġnevertheless":2576,"Ġjabesh":2577,"Ġcreeping":2578,"Ġmicah":2579,"Ġjebusite":2580,"Ġrehoboam":2581,"Ġtransg":2582,"Ġinwards":2583,"Ġnaomi":2584,"Ġempty":2585,"place":2586,"Ġjubilee":2587,"Ġthreshing":2588,"Ġfemale":2589,"Ġassyria":2590,"der":2591,"gar":2592,"live":2593,"pos":2594,"ug":2595,"vy":2596,"ze":2597,"Ġque":2598,"Ġaw":2599,"Ġsn":2600,"Ġoak":2601,"Ġolive":2602,"Ġhum":2603,"Ġhence":2604,"Ġbad":2605,"Ġbind":2606,"Ġbars":2607,"Ġbask":2608,"Ġbarle":2609,"Ġfing":2610,"Ġdou":2611,"Ġdrun":2612,"arge":2613,"anah":2614,"Ġlame":2615,"Ġsad":2616,"Ġtal":2617,"Ġeigh":2618,"Ġemb":2619,"Ġforasmuch":2620,"irm":2621,"Ġwast":2622,"Ġreph":2623,"imb":2624,"Ġstayed":2625,"Ġherd":2626,"Ġnext":2627,"Ġblind":2628,"Ġconv":2629,"Ġsince":2630,"Ġrob":2631,"Ġsound":2632,"arai":2633,"Ġperizz":2634,"Ġworks":2635,"Ġbenaiah":2636,"Ġapproach":2637,"angu":2638,"Ġstandard":2639,"Ġprophes":2640,"Ġconsider":2641,"Ġofferings":2642,"Ġenter":2643,"Ġprey":2644,"Ġdefin":2645,"Ġdefiled":2646,"Ġsouthward":2647,"Ġcharged":2648,"Ġamorite":2649,"Ġrefle":2650,"Ġburden":2651,"Ġalgorithms":2652,"Ġstaff":2653,"Ġcontinual":2654,"Ġhazael":2655,"Ġwestward":2656,"Ġrestore":2657,"Ġmethod":2658,"Ġabishai":2659,"Ġpromised":2660,"Ġworshipped":2661,"Ġbarley":2662,"Ġeighth":2663,"cass":2664,"ger":2665,"kron":2666,"slay":2667,"zz":2668,"Ġog":2669,"Ġfurn":2670,"Ġith":2671,"ences":2672,"Ġcorn":2673,"Ġdon":2674,"Ġdim":2675,"Ġpen":2676,"Ġpot":2677,"arim":2678,"Ġgrow":2679,"Ġnaam":2680,"Ġbeam":2681,"Ġlangu":2682,"ahaz":2683,"ascus":2684,"Ġyield":2685,"Ġtalk":2686,"Ġeither":2687,"Ġekron":2688,"Ġkins":2689,"urity":2690,"Ġtherewith":2691,"ored":2692,"lten":2693,"Ġcomest":2694,"aining":2695,"Ġmanslay":2696,"Ġabel":2697,"Ġamaz":2698,"ption":2699,"Ġserp":2700,"Ġneck":2701,"Ġsupp":2702,"Ġarrow":2703,"Ġmolten":2704,"Ġcond":2705,"Ġcoat":2706,"Ġburning":2707,"Ġroom":2708,"Ġoffice":2709,"Ġperfect":2710,"Ġcarcass":2711,"Ġfellow":2712,"Ġcaptive":2713,"Ġagents":2714,"quired":2715,"Ġentreat":2716,"Ġrepent":2717,"Ġmerari":2718,"baal":2719,"Ġwashed":2720,"Ġthrust":2721,"Ġobserv":2722,"Ġdamascus":2723,"Ġpursue":2724,"lamb":2725,"Ġpleas":2726,"Ġsacrificed":2727,"Ġamalekites":2728,"Ġobey":2729,"Ġtreas":2730,"goat":2731,"Ġworship":2732,"Ġwrote":2733,"Ġafflict":2734,"Ġescape":2735,"Ġpitch":2736,"Ġinstead":2737,"Ġzeru":2738,"Ġcreated":2739,"Ġrejoice":2740,"Ġbeneath":2741,"Ġmizpah":2742,"Ġcapit":2743,"Ġnebat":2744,"kindness":2745,"Ġcarmel":2746,"Ġlovingkindness":2747,"pieces":2748,"Ġvirgin":2749,"Ġescaped":2750,"Ġbitter":2751,"Ġfulf":2752,"shemesh":2753,"Ġinterpret":2754,"Ġfinger":2755,"Ġmanslayer":2756,"'t":2757,".)":2758,"aw":2759,"cif":2760,"flo":2761,"ired":2762,"och":2763,"rings":2764,"ues":2765,"uly":2766,"Ġ>":2767,"Ġven":2768,"Ġesh":2769,"Ġthink":2770,"Ġsis":2771,"Ġsides":2772,"Ġow":2773,"ery":2774,"enance":2775,"Ġcush":2776,"Ġutil":2777,"Ġpi":2778,"Ġgat":2779,"Ġgard":2780,"Ġglean":2781,"Ġnet":2782,"Ġunw":2783,"Ġtir":2784,"Ġtrou":2785,"Ġtith":2786,"Ġhail":2787,"iting":2788,"ities":2789,"ral":2790,"rage":2791,"ety":2792,"Ġreap":2793,"Ġseason":2794,"Ġanak":2795,"osed":2796,"Ġmanoah":2797,"Ġste":2798,"Ġage":2799,"Ġlives":2800,"ctu":2801,"sely":2802,"Ġsuffer":2803,"ices":2804,"Ġdig":2805,"Ġdieth":2806,"Ġwhereon":2807,"Ġfeel":2808,"Ġegyptian":2809,"illed":2810,"ithoph":2811,"ughter":2812,"Ġhasted":2813,"ategy":2814,"Ġsett":2815,"Ġsworn":2816,"Ġprayer":2817,"Ġexcept":2818,"Ġexalt":2819,"Ġboard":2820,"Ġahithoph":2821,"Ġremoved":2822,"Ġyoungest":2823,"Ġtruly":2824,"Ġstrategy":2825,"areth":2826,"Ġadv":2827,"Ġlikewise":2828,"Ġscatter":2829,"Ġconsist":2830,"Ġhush":2831,"Ġstronghold":2832,"Ġrespect":2833,"Ġblew":2834,"Ġfruitful":2835,"Ġassembled":2836,"Ġconsume":2837,"Ġdecla":2838,"Ġbondage":2839,"Ġtremb":2840,"Ġrulers":2841,"Ġimpurity":2842,"Ġgirded":2843,"Ġslaughter":2844,"Ġhebrews":2845,"Ġhumble":2846,"Ġfinished":2847,"Ġstretched":2848,"Ġconcubine":2849,"Ġfountain":2850,"Ġinformation":2851,"Ġkissed":2852,"Ġdefinition":2853,"Ġzeruiah":2854,"Ġsisera":2855,"Ġutility":2856,"Ġahithophel":2857,"':":2858,"cent":2859,"come":2860,"cost":2861,"even":2862,"fo":2863,"has":2864,"hud":2865,"len":2866,"long":2867,"mn":2868,"ta":2869,"Ġsitting":2870,"Ġsarai":2871,"Ġhun":2872,"Ġwant":2873,"Ġbon":2874,"Ġband":2875,"Ġbos":2876,"Ġmark":2877,"lly":2878,"Ġclea":2879,"Ġpay":2880,"Ġpuri":2881,"Ġpalm":2882,"aroth":2883,"Ġgames":2884,"Ġshed":2885,"Ġinv":2886,"Ġnur":2887,"iding":2888,"elop":2889,"Ġyoke":2890,"Ġtro":2891,"Ġeg":2892,"Ġhaving":2893,"Ġjehoash":2894,"ility":2895,"Ġreb":2896,"Ġmeph":2897,"Ġchamber":2898,"Ġfront":2899,"rent":2900,"Ġfaces":2901,"Ġstre":2902,"Ġdoing":2903,"Ġdoeth":2904,"oks":2905,"Ġweak":2906,"asting":2907,"Ġgift":2908,"Ġcaused":2909,"inehas":2910,"Ġarray":2911,"ical":2912,"Ġcommit":2913,"Ġphinehas":2914,"Ġeateth":2915,"Ġmove":2916,"Ġrobe":2917,"Ġheap":2918,"Ġpercept":2919,"Ġworkman":2920,"Ġahijah":2921,"Ġlack":2922,"Ġshoulder":2923,"Ġshouldest":2924,"Ġspeaking":2925,"Ġconsp":2926,"Ġentered":2927,"Ġtribute":2928,"Ġwrong":2929,"Ġvessel":2930,"Ġchiefs":2931,"Ġarmed":2932,"Ġpresented":2933,"ject":2934,"Ġenvironments":2935,"Ġnorthward":2936,"Ġnahor":2937,"Ġ19":2938,"Ġrecover":2939,"Ġprocess":2940,"Ġvariable":2941,"Ġmachir":2942,"Ġhurt":2943,"Ġmichal":2944,"Ġdeter":2945,"Ġintell":2946,"Ġsolemn":2947,"Ġskilful":2948,"Ġprofane":2949,"Ġprevailed":2950,"Ġhivite":2951,"Ġbasket":2952,"imbing":2953,"Ġkinsman":2954,"floor":2955,"Ġgarden":2956,"Ġtirzah":2957,"Ġbones":2958,"Ġbosom":2959,"Ġpurif":2960,"based":2961,"cle":2962,"full":2963,"iv":2964,"nam":2965,"part":2966,"wi":2967,"wer":2968,"Ġthick":2969,"Ġfaint":2970,"Ġill":2971,"Ġmir":2972,"Ġmag":2973,"Ġcain":2974,"Ġtor":2975,"Ġhired":2976,"Ġger":2977,"Ġshield":2978,"Ġinner":2979,"Ġheld":2980,"Ġlarge":2981,"Ġtur":2982,"Ġkine":2983,"there":2984,"isf":2985,"isance":2986,"Ġreceive":2987,"Ġabi":2988,"Ġspy":2989,"Ġspot":2990,"ference":2991,"Ġherself":2992,"Ġamen":2993,"Ġweep":2994,"Ġweap":2995,"Ġsheba":2996,"Ġgiving":2997,"Ġcare":2998,"laim":2999,"Ġlost":3000,"Ġprison":3001,"Ġflowing":3002,"Ġelse":3003,"Ġprove":3004,"Ġpropos":3005,"Ġmaketh":3006,"Ġenough":3007,"Ġrich":3008,"eshur":3009,"shall":3010,"Ġhundreds":3011,"neys":3012,"Ġmiddle":3013,"Ġyounger":3014,"Ġramoth":3015,"Ġangry":3016,"Ġincl":3017,"ols":3018,"Ġdoors":3019,"Ġgrapes":3020,"Ġcleansed":3021,"Ġashes":3022,"Ġguilt":3023,"Ġeleven":3024,"Ġarmy":3025,"Ġhardened":3026,"Ġziba":3027,"Ġcamest":3028,"what":3029,"Ġobeisance":3030,"Ġproclaim":3031,"Ġkidneys":3032,"Ġlocal":3033,"Ġrestored":3034,"Ġappearance":3035,"Ġthoughts":3036,"Ġexample":3037,"Ġworthy":3038,"Ġlamps":3039,"Ġmurmur":3040,"Ġmales":3041,"Ġfortified":3042,"Ġconvocation":3043,"Ġcorners":3044,"Ġlanguage":3045,"Ġcleave":3046,"fully":3047,"?\"":3048,"aves":3049,"cl":3050,"cah":3051,"ec":3052,"ees":3053,"gran":3054,"haz":3055,"lasting":3056,"me":3057,"ror":3058,"rum":3059,"ten":3060,"ural":3061,"that":3062,"Ġsitt":3063,"Ġhore":3064,"Ġwond":3065,"tom":3066,"Ġmill":3067,"Ġcla":3068,"ating":3069,"ative":3070,"Ġdil":3071,"edah":3072,"Ġpome":3073,"Ġtower":3074,"Ġshun":3075,"Ġhew":3076,"Ġnin":3077,"Ġbef":3078,"Ġjew":3079,"Ġnoise":3080,"iture":3081,"Ġgosh":3082,"Ġked":3083,"stic":3084,"iram":3085,"Ġyouth":3086,"Ġupper":3087,"ison":3088,"isions":3089,"roth":3090,"Ġabund":3091,"Ġabhor":3092,"Ġdoest":3093,"Ġlib":3094,"Ġshepher":3095,"Ġbeforetime":3096,"Ġdeb":3097,"Ġdew":3098,"ulation":3099,"Ġlean":3100,"Ġsum":3101,"sol":3102,"Ġpros":3103,"Ġfeed":3104,"Ġtaketh":3105,"Ġrimmon":3106,"Ġknoweth":3107,"Ġsentence":3108,"Ġspeech":3109,"Ġgoodly":3110,"Ġkeilah":3111,"Ġheareth":3112,"Ġheavy":3113,"Ġexec":3114,"Ġjerub":3115,"Ġuncircumcised":3116,"Ġrather":3117,"Ġlaver":3118,"Ġpossible":3119,"ify":3120,"Ġplant":3121,"Ġwouldest":3122,"Ġbesie":3123,"Ġassign":3124,"Ġchose":3125,"Ġeverlasting":3126,"Ġwait":3127,"Ġbearing":3128,"Ġprecious":3129,"Ġwrite":3130,"Ġremaineth":3131,"Ġfores":3132,"Ġmessenger":3133,"Ġsatisf":3134,"Ġdreamed":3135,"Ġvalor":3136,"Ġsanctified":3137,"Ġdrawn":3138,"ibosheth":3139,"uristic":3140,"which":3141,"Ġhazor":3142,"Ġsprinkled":3143,"Ġaffliction":3144,"Ġrunning":3145,"Ġwindow":3146,"Ġhangings":3147,"Ġzerah":3148,"Ġsickness":3149,"Ġcompassed":3150,"Ġaccepted":3151,"Ġreached":3152,"ittingly":3153,"Ġsuccess":3154,"Ġsuccoth":3155,"Ġexamples":3156,"Ġbelieve":3157,"Ġcountenance":3158,"Ġhealed":3159,"Ġfourscore":3160,"Ġhallowed":3161,"bearer":3162,"Ġprogram":3163,"Ġdouble":3164,"Ġdrunk":3165,"Ġrephaim":3166,"Ġamaziah":3167,"Ġobservable":3168,"Ġfulfilled":3169,"Ġnetwork":3170,"Ġunwittingly":3171,"Ġmephibosheth":3172,"Ġdiligent":3173,"Ġpomegran":3174,"Ġgoshen":3175,"af":3176,"bed":3177,"bit":3178,"bosheth":3179,"dens":3180,"fl":3181,"fort":3182,"fru":3183,"hah":3184,"ier":3185,"ifer":3186,"ler":3187,"nal":3188,"other":3189,"test":3190,"take":3191,"will":3192,"Ġ6":3193,"Ġax":3194,"ndom":3195,"Ġora":3196,"Ġhot":3197,"Ġbright":3198,"rect":3199,"Ġmaac":3200,"Ġcle":3201,"Ġcord":3202,"Ġur":3203,"Ġpor":3204,"Ġpel":3205,"Ġhinder":3206,"Ġgrew":3207,"Ġinference":3208,"Ġheuristic":3209,"Ġless":3210,"Ġlying":3211,"omf":3212,"amed":3213,"Ġitself":3214,"chast":3215,"Ġkish":3216,"irt":3217,"aking":3218,"Ġreck":3219,"Ġsex":3220,"Ġsequ":3221,"alth":3222,"aliah":3223,"Ġcomfort":3224,"Ġabig":3225,"oked":3226,"Ġvain":3227,"Ġvows":3228,"Ġoverlay":3229,"Ġblow":3230,"Ġloops":3231,"Ġletter":3232,"Ġdiv":3233,"Ġdiffer":3234,"Ġcommitt":3235,"Ġflood":3236,"istic":3237,"Ġmoved":3238,"Ġrods":3239,"neh":3240,"Ġoffereth":3241,"Ġdelight":3242,"Ġrandom":3243,"ariah":3244,"Ġclimbing":3245,"Ġfields":3246,"Ġjoined":3247,"Ġpossessed":3248,"Ġplains":3249,"Ġplatter":3250,"Ġdwelling":3251,"Ġsixteen":3252,"Ġeliab":3253,"Ġscall":3254,"Ġdepth":3255,"tained":3256,"Ġgeneral":3257,"Ġdisple":3258,"Ġgarri":3259,"Ġkilleth":3260,"Ġwheat":3261,"Ġresp":3262,"Ġburdens":3263,"Ġbowl":3264,"itional":3265,"Ġdiscomf":3266,"Ġdistress":3267,"Ġcourage":3268,"Ġtarried":3269,"Ġmurder":3270,"Ġseparate":3271,"Ġbelongeth":3272,"Ġjustice":3273,"Ġlocust":3274,"Ġcalf":3275,"Ġgriev":3276,"Ġlodge":3277,"Ġforeigner":3278,"Ġjealousy":3279,"Ġbeginning":3280,"Ġseemeth":3281,"Ġdeeds":3282,"Ġtransgress":3283,"Ġtalents":3284,"Ġperizzite":3285,"Ġreflex":3286,"Ġnaaman":3287,"Ġserpent":3288,"Ġweapons":3289,"Ġhoreb":3290,"Ġjewels":3291,"Ġprosper":3292,"Ġjerubbaal":3293,"fruits":3294,"chastic":3295,"Ġreckon":3296,"19":3297,"aid":3298,"eg":3299,"gg":3300,"head":3301,"iam":3302,"iant":3303,"lings":3304,"lied":3305,"lication":3306,"ni":3307,"oic":3308,"rom":3309,"side":3310,"tree":3311,"uff":3312,"vation":3313,"Ġver":3314,"Ġthund":3315,"Ġoph":3316,"Ġwings":3317,"Ġwound":3318,"tory":3319,"Ġfirm":3320,"llow":3321,"Ġcake":3322,"Ġund":3323,"Ġdried":3324,"Ġpain":3325,"Ġtoken":3326,"Ġgom":3327,"Ġgame":3328,"Ġgeshur":3329,"Ġinquired":3330,"Ġhez":3331,"Ġheth":3332,"Ġnadab":3333,"Ġjaph":3334,"Ġlatter":3335,"asa":3336,"Ġsand":3337,"uted":3338,"rising":3339,"Ġrel":3340,"Ġrend":3341,"Ġrequ":3342,"Ġreje":3343,"Ġascent":3344,"Ġchaining":3345,"Ġseeth":3346,"Ġseals":3347,"order":3348,"Ġfair":3349,"Ġspices":3350,"imal":3351,"ables":3352,"Ġyourself":3353,"Ġwholly":3354,"Ġamb":3355,"Ġamasa":3356,"Ġfatherless":3357,"lag":3358,"Ġovertake":3359,"ighty":3360,"Ġcommun":3361,"Ġring":3362,"Ġrid":3363,"Ġrow":3364,"Ġbreath":3365,"Ġbreach":3366,"Ġflow":3367,"Ġhoof":3368,"Ġhooks":3369,"Ġeating":3370,"Ġgaz":3371,"Ġmoon":3372,"Ġbald":3373,"unneh":3374,"Ġaltars":3375,"Ġfirstling":3376,"Ġperver":3377,"Ġahimelech":3378,"Ġraised":3379,"Ġcompon":3380,"Ġcomput":3381,"Ġtrust":3382,"Ġcurrent":3383,"Ġephron":3384,"Ġaroer":3385,"Ġhighway":3386,"Ġmoabites":3387,"Ġharan":3388,"Ġremaining":3389,"Ġfruits":3390,"Ġimages":3391,"Ġmax":3392,"Ġminist":3393,"Ġbuilding":3394,"Ġuttermost":3395,"Ġdevoured":3396,"Ġtouched":3397,"pling":3398,"Ġwhithersoever":3399,"Ġpursu":3400,"Ġvaliant":3401,"Ġgrant":3402,"Ġsunrising":3403,"Ġsojourneth":3404,"Ġmeasures":3405,"Ġprovoke":3406,"Ġhamor":3407,"Ġjephunneh":3408,"Ġrules":3409,"Ġseparation":3410,"Ġquar":3411,"Ġinstrum":3412,"Ġbelonged":3413,"Ġvineyards":3414,"Ġbarak":3415,"Ġfreewill":3416,"Ġrejoic":3417,"Ġavenger":3418,"Ġvictu":3419,"Ġhannah":3420,"Ġsalvation":3421,"Ġalmighty":3422,"Ġarmorbearer":3423,"Ġprepared":3424,"Ġcup":3425,"Ġomri":3426,"Ġexpert":3427,"Ġqueue":3428,"Ġmethods":3429,"Ġarrows":3430,"Ġtreasures":3431,"Ġtroub":3432,"Ġtithe":3433,"Ġhushai":3434,"Ġeglon":3435,"Ġwonders":3436,"Ġdebir":3437,"Ġdiligently":3438,"Ġoracle":3439,"Ġabigail":3440,"Ġmurderer":3441,"Ġgrievous":3442,"Ġrejected":3443,"bre":3444,"bar":3445,"com":3446,"gon":3447,"him":3448,"ior":3449,"kes":3450,"kins":3451,"nant":3452,"pet":3453,"poss":3454,"say":3455,"zen":3456,"Ġav":3457,"Ġsom":3458,"Ġsow":3459,"Ġoho":3460,"Ġwag":3461,"Ġid":3462,"Ġmed":3463,"Ġmit":3464,"Ġmelt":3465,"Ġcens":3466,"Ġdish":3467,"Ġdun":3468,"Ġpun":3469,"Ġpledge":3470,"Ġgreen":3471,"Ġheifer":3472,"Ġner":3473,"Ġnat":3474,"Ġjok":3475,"Ġbew":3476,"anaim":3477,"Ġlach":3478,"ahel":3479,"Ġsaf":3480,"Ġhagar":3481,"Ġhabit":3482,"Ġjehoahaz":3483,"itess":3484,"Ġiter":3485,"child":3486,"Ġnotwith":3487,"Ġreal":3488,"Ġreceived":3489,"Ġasahel":3490,"erez":3491,"Ġchast":3492,"Ġchew":3493,"alu":3494,"alel":3495,"Ġsong":3496,"Ġpekah":3497,"Ġspies":3498,"Ġstars":3499,"Ġdagon":3500,"Ġamm":3501,"Ġwealth":3502,"ational":3503,"ulch":3504,"Ġafar":3505,"Ġservile":3506,"Ġarch":3507,"Ġconne":3508,"Ġruth":3509,"aught":3510,"Ġknees":3511,"Ġstore":3512,"Ġstolen":3513,"Ġstochastic":3514,"Ġburned":3515,"Ġbringeth":3516,"Ġknowing":3517,"Ġgoodness":3518,"Ġswall":3519,"Ġswarm":3520,"Ġprayed":3521,"Ġexpl":3522,"Ġperpet":3523,"Ġahima":3524,"Ġraise":3525,"Ġevalu":3526,"Ġremnant":3527,"Ġthirteen":3528,"Ġstruct":3529,"their":3530,"Ġsixth":3531,"Ġrested":3532,"Ġkindly":3533,"Ġfellows":3534,"Ġgrave":3535,"Ġchoice":3536,"Ġsubd":3537,"Ġharm":3538,"Ġstoned":3539,"Ġstronger":3540,"Ġforget":3541,"Ġforest":3542,"Ġrefused":3543,"Ġbuilded":3544,"Ġspoon":3545,"Ġbondmen":3546,"Ġsabbaths":3547,"Ġsepulch":3548,"Ġcoupling":3549,"Ġterah":3550,"Ġprovoked":3551,"Ġcompanies":3552,"Ġcertainly":3553,"Ġbrazen":3554,"Ġcomplex":3555,"Ġfetched":3556,"Ġlogical":3557,"Ġfaithful":3558,"Ġmahanaim":3559,"Ġgehaz":3560,"Ġoppressed":3561,"Ġstraw":3562,"Ġdespised":3563,"Ġcorru":3564,"Ġprovide":3565,"Ġmarried":3566,"Ġshelah":3567,"Ġchanges":3568,"Ġdedic":3569,"Ġluke":3570,"Ġforsake":3571,"Ġsidonians":3572,"Ġwreath":3573,"Ġprophesied":3574,"Ġithamar":3575,"Ġsupplication":3576,"Ġcapitals":3577,"Ġowner":3578,"Ġdigged":3579,"Ġmiriam":3580,"Ġbefall":3581,"Ġcommitted":3582,"Ġvictuals":3583,"Ġoholi":3584,"Ġlachish":3585,"Ġnotwithstanding":3586,"Ġahimaaz":3587,"Ġgehazi":3588,"action":3589,"bread":3590,"du":3591,"dod":3592,"hous":3593,"iar":3594,"jud":3595,"klag":3596,"land":3597,"ms":3598,"night":3599,"oa":3600,"pose":3601,"rary":3602,"said":3603,"taroth":3604,"up":3605,"uah":3606,"uph":3607,"uous":3608,"zur":3609,"than":3610,"them":3611,"Ġath":3612,"Ġaph":3613,"Ġapart":3614,"Ġocc":3615,"Ġwing":3616,"Ġbid":3617,"Ġbir":3618,"Ġfed":3619,"Ġmad":3620,"Ġcud":3621,"att":3622,"orrah":3623,"edy":3624,"Ġpadd":3625,"Ġtong":3626,"aram":3627,"Ġjoth":3628,"Ġjoh":3629,"Ġlim":3630,"Ġloss":3631,"Ġshave":3632,"Ġtum":3633,"Ġtail":3634,"Ġez":3635,"amm":3636,"Ġjeth":3637,"search":3638,"Ġgoals":3639,"ention":3640,"Ġrele":3641,"Ġchange":3642,"Ġwilling":3643,"Ġmanna":3644,"Ġabin":3645,"imum":3646,"ability":3647,"Ġstep":3648,"Ġdost":3649,"Ġlands":3650,"Ġherb":3651,"Ġliver":3652,"Ġsheol":3653,"Ġvale":3654,"Ġvowed":3655,"Ġcaul":3656,"Ġcaught":3657,"Ġlend":3658,"Ġoverth":3659,"Ġatt":3660,"Ġusing":3661,"Ġloose":3662,"Ġloves":3663,"icians":3664,"Ġconte":3665,"Ġdiffic":3666,"Ġprice":3667,"Ġprover":3668,"Ġsmit":3669,"Ġsmoke":3670,"Ġzalm":3671,"unna":3672,"Ġsentences":3673,"Ġtimnah":3674,"Ġrode":3675,"Ġspeck":3676,"Ġgoods":3677,"iezer":3678,"Ġfamiliar":3679,"Ġclose":3680,"Ġmightily":3681,"Ġunderstand":3682,"Ġappare":3683,"Ġpartial":3684,"Ġplayed":3685,"Ġadam":3686,"Ġsixty":3687,"Ġdesol":3688,"Ġgracious":3689,"Ġnights":3690,"aphim":3691,"Ġdisposs":3692,"Ġcleanse":3693,"Ġashdod":3694,"Ġashtaroth":3695,"Ġbackward":3696,"Ġleavened":3697,"Ġrefuse":3698,"Ġdreams":3699,"Ġborne":3700,"Ġwalls":3701,"Ġziph":3702,"Ġziklag":3703,"Ġmidianites":3704,"Ġgrown":3705,"Ġsignet":3706,"Ġdecisions":3707,"Ġzebah":3708,"Ġtaskwork":3709,"Ġteraphim":3710,"Ġsojourners":3711,"Ġwitnesses":3712,"Ġinterest":3713,"Ġwoven":3714,"Ġmilcah":3715,"Ġbases":3716,"Ġvariables":3717,"Ġcreepeth":3718,"Ġgrieved":3719,"Ġcease":3720,"Ġgezer":3721,"Ġtempt":3722,"Ġoppress":3723,"Ġstretch":3724,"Ġviol":3725,"Ġpract":3726,"Ġpraise":3727,"Ġtype":3728,"Ġprepare":3729,"Ġcups":3730,"Ġconstraints":3731,"Ġconsecration":3732,"Ġchanged":3733,"Ġadversary":3734,"Ġfrogs":3735,"Ġpige":3736,"Ġexalted":3737,"Ġdeterm":3738,"Ġtorn":3739,"Ġturtle":3740,"Ġpropositional":3741,"Ġsitteth":3742,"Ġlibnah":3743,"Ġcords":3744,"Ġporch":3745,"Ġsexual":3746,"Ġgarrison":3747,"Ġgomorrah":3748,"Ġgaza":3749,"Ġinstruments":3750,"Ġwagons":3751,"Ġmitre":3752,"Ġsubdued":3753,"Ġsepulchre":3754,"Ġcorrupt":3755,"houses":3756,"judah":3757,"Ġpaddan":3758,"Ġjotham":3759,"Ġjohn":3760,"Ġdifficult":3761,"Ġzalmunna":3762,"Ġdispossess":3763,"ait":3764,"app":3765,"bes":3766,"dled":3767,"end":3768,"fav":3769,"from":3770,"gn":3771,"gu":3772,"ires":3773,"ially":3774,"mer":3775,"mble":3776,"noc":3777,"oid":3778,"same":3779,"who":3780,"wait":3781,"this":3782,"Ġthumb":3783,"Ġact":3784,"Ġauth":3785,"Ġsens":3786,"Ġoper":3787,"Ġoften":3788,"Ġbil":3789,"Ġbot":3790,"Ġbone":3791,"Ġmam":3792,"Ġmort":3793,"ening":3794,"ency":3795,"lls":3796,"lled":3797,"Ġuzz":3798,"Ġdran":3799,"Ġpan":3800,"Ġpins":3801,"Ġperez":3802,"aring":3803,"aries":3804,"Ġinnoc":3805,"Ġloud":3806,"asps":3807,"elah":3808,"Ġshare":3809,"oms":3810,"Ġtah":3811,"Ġforso":3812,"itution":3813,"chant":3814,"Ġkin":3815,"rish":3816,"ander":3817,"Ġchains":3818,"Ġseest":3819,"aled":3820,"Ġanah":3821,"Ġtheirs":3822,"Ġabiram":3823,"Ġsprings":3824,"ably":3825,"Ġstub":3826,"Ġdogs":3827,"Ġfig":3828,"Ġfier":3829,"Ġliers":3830,"Ġliken":3831,"Ġdebor":3832,"Ġvic":3833,"Ġhadad":3834,"ular":3835,"Ġleast":3836,"Ġleper":3837,"Ġlegs":3838,"Ġovercome":3839,"Ġsuck":3840,"Ġconcept":3841,"Ġphys":3842,"Ġrational":3843,"Ġknop":3844,"Ġelah":3845,"Ġelement":3846,"Ġwhereby":3847,"ists":3848,"Ġmoves":3849,"Ġze":3850,"Ġzin":3851,"Ġzim":3852,"Ġtimber":3853,"Ġroof":3854,"nea":3855,"Ġspecif":3856,"Ġuncle":3857,"Ġbetwi":3858,"Ġremove":3859,"Ġclasps":3860,"Ġpossessions":3861,"Ġdrinking":3862,"Ġdwelleth":3863,"Ġdesign":3864,"Ġrestitution":3865,"Ġkindred":3866,"Ġobed":3867,"Ġhills":3868,"Ġfolly":3869,"Ġsojourned":3870,"Ġcovereth":3871,"Ġreport":3872,"Ġfully":3873,"Ġmerry":3874,"Ġleaven":3875,"Ġreubenites":3876,"Ġstrengthen":3877,"ĠâĢĺ":3878,"Ġzipp":3879,"Ġgrass":3880,"jearim":3881,"Ġabominations":3882,"Ġdiscern":3883,"Ġasherah":3884,"Ġdistressed":3885,"Ġmultiplied":3886,"Ġprovision":3887,"Ġincreased":3888,"Ġimport":3889,"Ġgirdle":3890,"Ġseparated":3891,"Ġsystems":3892,"Ġhanged":3893,"Ġcompassion":3894,"Ġuncovered":3895,"Ġbelieved":3896,"Ġlodged":3897,"Ġavenged":3898,"Ġparan":3899,"otted":3900,"Ġmourned":3901,"Ġmourning":3902,"addai":3903,"ministic":3904,"Ġazariah":3905,"Ġhallow":3906,"Ġfifteenth":3907,"Ġselfsame":3908,"Ġexceedingly":3909,"Ġmaking":3910,"Ġshouted":3911,"Ġregion":3912,"Ġregard":3913,"Ġfalse":3914,"Ġfalsely":3915,"Ġlowland":3916,"Ġforsaken":3917,"Ġengra":3918,"Ġrebelled":3919,"Ġhuman":3920,"Ġlamech":3921,"Ġsaddled":3922,"Ġembro":3923,"Ġfurniture":3924,"Ġcondem":3925,"Ġcushite":3926,"Ġsteal":3927,"Ġsettings":3928,"Ġscattered":3929,"Ġdeclared":3930,"Ġtrembling":3931,"fold":3932,"Ġconspired":3933,"Ġintelligent":3934,"ivity":3935,"Ġguiltless":3936,"Ġkedesh":3937,"solving":3938,"Ġpomegranates":3939,"Ġclear":3940,"Ġverily":3941,"Ġhezron":3942,"Ġflowers":3943,"Ġcomponents":3944,"Ġministered":3945,"Ġrejoiced":3946,"Ġtroubled":3947,"barnea":3948,"saying":3949,"Ġbirth":3950,"Ġjethro":3951,"Ġrelease":3952,"Ġapparel":3953,"favored":3954,"Ġmamre":3955,"Ġdrank":3956,"Ġforsook":3957,"Ġlikeness":3958,"Ġdeborah":3959,"Ġbetwixt":3960,"..":3961,"aut":3962,"ares":3963,"aved":3964,"bered":3965,"con":3966,"cense":3967,"ctor":3968,"dish":3969,"fin":3970,"ging":3971,"gid":3972,"horam":3973,"hair":3974,"kanah":3975,"kedah":3976,"line":3977,"post":3978,"ring":3979,"sah":3980,"sop":3981,"vings":3982,"wood":3983,"thood":3984,"Ġsur":3985,"Ġsort":3986,"Ġhat":3987,"Ġhos":3988,"Ġhop":3989,"Ġhys":3990,"ination":3991,"Ġwages":3992,"ert":3993,"erved":3994,"Ġbade":3995,"Ġfish":3996,"ouse":3997,"Ġcart":3998,"esthood":3999,"onite":4000,"ority":4001,"Ġdin":4002,"Ġdat":4003,"Ġdro":4004,"Ġdyed":4005,"Ġdress":4006,"Ġpat":4007,"Ġpover":4008,"Ġtooth":4009,"Ġhire":4010,"Ġgent":4011,"Ġgitt":4012,"Ġshot":4013,"Ġship":4014,"Ġheat":4015,"Ġnaz":4016,"Ġbez":4017,"Ġbeard":4018,"Ġbeaut":4019,"ankin":4020,"Ġlast":4021,"Ġline":4022,"Ġsacks":4023,"Ġtast":4024,"Ġtry":4025,"Ġeb":4026,"amah":4027,"ament":4028,"Ġjehoram":4029,"Ġnob":4030,"utions":4031,"itish":4032,"Ġgover":4033,"Ġgott":4034,"stre":4035,"stra":4036,"stance":4037,"irite":4038,"rible":4039,"cended":4040,"Ġsaidst":4041,"Ġupright":4042,"Ġony":4043,"iles":4044,"Ġreve":4045,"Ġrelation":4046,"Ġthereto":4047,"Ġseat":4048,"Ġseas":4049,"Ġfrankin":4050,"ained":4051,"aketh":4052,"Ġspied":4053,"fers":4054,"Ġstrove":4055,"Ġdog":4056,"Ġdathan":4057,"Ġhermon":4058,"Ġweek":4059,"cken":4060,"Ġhadst":4061,"Ġhadade":4062,"athite":4063,"emption":4064,"geance":4065,"arted":4066,"Ġloaves":4067,"Ġdip":4068,"Ġpriesthood":4069,"acy":4070,"Ġride":4071,"Ġrows":4072,"Ġknops":4073,"Ġelon":4074,"Ġelkanah":4075,"Ġprolong":4076,"Ġhollow":4077,"Ġwhereas":4078,"Ġenl":4079,"Ġenoch":4080,"Ġaccount":4081,"Ġsinn":4082,"Ġgaal":4083,"Ġrisen":4084,"brance":4085,"Ġzo":4086,"Ġzob":4087,"Ġzelop":4088,"Ġgreatness":4089,"unto":4090,"unah":4091,"quare":4092,"Ġexpect":4093,"Ġboiled":4094,"Ġblessings":4095},"merges":["t h","Ġ th","Ġ a","Ġth e","n d","Ġ s","Ġa nd","Ġ o","Ġ h","i n","Ġ w","e r","Ġo f","Ġ b","r e","t o","Ġ f","Ġ i","Ġ m","o u","e n","l l","Ġ c","a t","e s","o n","Ġ u","o r","Ġ d","e d","Ġ p","Ġ to","Ġh i","in g","a r","Ġ g","Ġs h","Ġ in","Ġh e","Ġ n","Ġ j","Ġb e","a n","Ġ l","h o","a h","Ġu n","i d","a s","e l","Ġw i","Ġs a","Ġsh a","Ġth at","Ġ y","Ġi s","Ġun to","o m","Ġ t","Ġw h","Ġ e","a m","Ġf or","Ġh a","l e","Ġj e","Ġhi s","Ġsha ll","s e","Ġje ho","l d","Ġn o","u t","i t","v ah","Ġjeho vah","v e","Ġi t","Ġg o","a y","en t","c h","Ġth ou","Ġ k","Ġhi m","s t","Ġwi th","i r","g h","r a","th er","Ġthe y","v er","Ġa ll","Ġthe m","r i","c e","Ġsa id","Ġy ou","Ġu p","a nd","Ġno t","Ġth y","o w","a d","a k","Ġo n","e t","gh t","i s","Ġw as","i l","Ġ re","u r","Ġthe re","Ġy e","o re","Ġm e","l t","Ġa s","er e","r o","Ġc h","Ġthe e","Ġs e","a l","ra el","Ġis rael","es t","Ġa n","Ġf r","v en","am e","i on","or d","Ġs on","Ġgo d","Ġc om","a in","Ġfr om","Ġwh i","Ġthe ir","ak e","re n","o s","f ore","Ġwi ll","es s","Ġk ing","Ġo ut","Ġs o","Ġf a","Ġm y","Ġm an","i ld","Ġwhi ch","Ġp e","o f","Ġa b","Ġs p","o p","i m","Ġup on","Ġch ild","Ġsha lt","l y","Ġd ay","Ġw ere","a b","Ġwh en","f er","Ġchild ren","o d","Ġs t","Ġc ame","Ġth is","Ġd o","Ġd a","Ġpe op","Ġf i","t er","Ġb ut","Ġha ve","Ġl and","Ġpeop le","Ġyou r","' s","Ġb y","an t","r ou","Ġa g","Ġh er","o k","Ġa re","Ġw ho","Ġa m","Ġw e","Ġl i","p t","Ġsh e","ar d","as t","Ġsa y","Ġon e","Ġbe fore","Ġthe n","Ġh ou","Ġha nd","c k","p h","Ġfa ther","Ġd e","Ġg i","ur n","at ion","Ġw ent","Ġ `","Ġwh at","er s","as s","Ġhou se","Ġs er","v id","Ġag ain","Ġ v","Ġha d","e th","Ġt w","os es","Ġc a","fer ing","Ġm oses","a th","Ġha th","u l","in e","on g","e m","l a","Ġo r","Ġa f","Ġa l","Ġda vid","g e","Ġn e","Ġl e","Ġi f","o t","Ġo ver","Ġm en","Ġin to","Ġser v","ou r","re d","Ġa t","i ght","Ġcom e","on e","of fering","c t","ar t","ho ld","ver y","s el","Ġsay ing","ad e","u s","Ġu s","Ġb l","i es","Ġp ass","Ġc it","Ġs u","Ġm ade","Ġagain st","Ġaf ter","Ġno w","u m","ow n","Ġl o","Ġl et","s o","Ġye ar","Ġa r","Ġd id","Ġson s","i c","Ġc on","Ġd i","Ġm ay","Ġbe hold","Ġp ri","Ġcom m","a c","Ġserv ant","Ġp ut","Ġp h","Ġ r","Ġb re","a u","Ġbe c","ou t","Ġk n","Ġa c","Ġf l","Ġ el","Ġtw o","Ġp ro","it es","Ġh o","Ġwh ere","f e","Ġe ven","Ġe very","it e","g y","n ess","u d","b e","re s","Ġf e","o se","Ġm ake","Ġpri est","Ġt ake","Ġthere of","Ġcomm and","Ġe gy","Ġegy pt","Ġb r","w e","ou n","Ġp la","Ġgi ve","Ġe at","i ce","Ġthe se","Ġp r","i st","Ġd own","Ġ en","is h","rou ght","v es","Ġto ok","e p","Ġac c","ou ld","Ġe ar","o th","Ġs in","f t","Ġg a","ing s","i ll","w ard","ord ing","Ġm o","Ġacc ording","o od","Ġ ri","re at","au se","Ġbec ause","or n","oun t","Ġs to","Ġb rought","m ent","b r","Ġan y","Ġb u","i th","Ġs m","Ġw or","Ġsa ul","Ġj ud","u ght","Ġn ame","Ġb a","id e","Ġo ur","Ġsp ake","Ġw at","Ġc o","Ġca ll","p p","Ġh ast","u nd","Ġcit y","Ġb urn","an ce","er ed","Ġal so","re e","i g","am p","u b","Ġc an","Ġ z","Ġday s","o b","Ġsa m","Ġg reat","at e","Ġse ven","w ay","Ġs et","Ġw ord","Ġyear s","Ġbr ing","es h","o h","u n","Ġkn ow","t le","Ġs ent","ar on","a ll","Ġa aron","Ġt im","r y","a ch","s h","Ġh und","Ġhund red","Ġ ro","le an","u e","Ġ /","Ġ <","sel f","Ġ/ >","n e","Ġf am","i ther","Ġda ught","Ġs ou","ir st","Ġear th","Ġfor th","Ġam ong","l ed","Ġb ro","Ġn or","Ġthere fore","Ġse e","Ġsp e","Ġw ay","Ġcall ed","Ġa lt","Ġpla ce","Ġalt ar","c es","i nd","ig n","v ed","Ġw om","t y","Ġt ent","Ġt ri","Ġgo od","h u","i e","Ġa way","Ġk e","Ġof f","Ġit s","Ġin h","Ġhe a","Ġfam il","um b","ar a","k e","q u","Ġhe art","Ġwi fe","Ġf irst","Ġs w","s and","Ġthou sand","rou nd","Ġcommand ed","t il","Ġl ord","Ġservant s","Ġburn t","Ġpr ay","Ġhe ar","Ġe x","Ġab out","a le","Ġm ore","Ġo ther","Ġh ow","Ġb o","Ġm id","ou s","nd er","il ist","Ġfi re","Ġhe ad","Ġj er","Ġph ilist","a ce","Ġun c","el s","el d","Ġfather s","Ġph ara","Ġphara oh","in k","Ġt urn","Ġo ld","Ġth ree","Ġun til","Ġjud ah","Ġme et","Ġbl ess","ou nd","Ġs i","Ġp er","a z","Ġne ither","Ġwor k","Ġd el","an s","ation s","Ġa h","in es","Ġm u","Ġj ac","os s","Ġbro ther","Ġ \"","Ġsa w","Ġso l","Ġwat er","Ġjac ob","Ġ ra","Ġan o","Ġbe t","Ġl a","Ġab r","o ck","Ġof fer","ar i","Ġgo ld","n er","Ġbl ood","in t","Ġcit ies","Ġn umb","Ġbre ad","Ġtim e","Ġwho m","Ġm ount","Ġe v","i ve","Ġf our","Ġd one","Ġj os","Ġre t","Ġre m","r ink","hu a","Ġjos hua","b s","Ġho ly","Ġe y","Ġret urn","Ġsh ould","Ġc l","Ġth ing","rou gh","Ġphilist ines","ri ed","Ġga ve","er n","Ġb en","Ġth ir","c ri","Ġspe ak","i ver","er it","Ġt en","k en","Ġj ose","Ġwom an","Ġjose ph","n g","w n","at tle","Ġri ght","Ġke ep","Ġth ine","Ġbe g","Ġt ab","sel ves","Ġdel iver","s w","Ġth rough","Ġp oss","om e","Ġm ight","Ġu nder","it y","Ġinh erit","Ġan sw","Ġa pp","Ġth ose","Ġev il","Ġpe ace","Ġfi eld","Ġb ord","ow ed","u re","Ġf o","en ce","it t","Ġyou ng","ar ch","Ġj o","â Ģ","Ġcom p","Ġfi ve","Ġsu re","ot e","Ġr am","Ġbe th","Ġy et","Ġt r","Ġan g","Ġar k","l es","Ġst r","th ren","Ġhe ard","Ġbre thren","i f","o ice","s es","Ġc ur","Ġp art","Ġwi ld","Ġsm ote","Ġey es","u el","Ġto ld","ent y","Ġunc lean","Ġposs ess","i gh","th e","Ġhea ven","a re","Ġdaught er","t e","we en","Ġsou l","Ġbet ween","o nd","Ġj ord","Ġjord an","a g","e ver","Ġth ings","Ġp l","Ġhim self","Ġga ther","we ll","om on","a i","y ed","Ġa d","Ġd est","et s","Ġsol omon","Ġth us","Ġs l","Ġd rink","Ġsa cri","Ġfl esh","Ġword s","Ġsacri f","Ġli fe","Ġle ft","ct ion","ment s","Ġtri be","Ġansw ered","er ness","ah am","as h","Ġle v","Ġinherit ance","Ġsure ly","Ġwild erness","Ġs ide","Ġf ound","Ġt e","Ġbord er","a an","Ġd well","Ġli ke","Ġabr aham","d e","Ġse arch","Ġgi ven","v ing","Ġre ign","Ġdest ro","Ġho st","Ġw ould","Ġ (","Ġv oice","Ġfa ce","e b","el t","Ġc amp","an g","Ġon ly","ge ther","Ġc ar","s ed","Ġs y","b le","Ġsi x","Ġlo ok","Ġcan aan","Ġel i","Ġd es","it s","so ever","Ġdi e","Ġfamil ies","Ġs le","Ġs il","Ġo wn","Ġto gether","Ġmid st","Ġb oth","Ġde ath","Ġth an","Ġs c","ak en","Ġmeet ing","o ver","Ġre st","Ġde p","t ain","Ġw ar","Ġne ar","' ,","u st","Ġg en","ven ant","Ġst at","Ġar t","Ġco venant","Ġsil ver","d om","Ġs ight","Ġm orn","Ġk ind","Ġdi ed","Ġe nd","Ġst and","Ġfi ft","Ġfe ll","Ġsw ord","r ow","Ġd w","Ġin c","Ġmorn ing","Ġ round","Ġmo ther","Ġdw elt","u ll","Ġm on","Ġdaught ers","Ġhear ken","or t","Ġp res","Ġwe ll","Ġpro ph","Ġsam uel","o l","Ġ es","Ġe ph","Ġwith out","our ne","Ġwhere fore","m on","th ing","Ġs an","Ġo il","Ġj ourne","as e","Ġse ed","offering s","Ġpr in","Ġen c","Ġen em","Ġgen er","m a","Ġ ed","Ġdo or","Ġtw enty","ath an","re g","Ġd re","al k","Ġcon s","Ġsan ct","f ul","r on","Ġg ra","Ġthem selves","Ġca pt","i p","Ġde ad","Ġturn ed","Ġenc amp","j am","w ith","Ġc ong","Ġo b","Ġn ight","Ġsto od","reg ation","Ġcong regation","Ġc ub","Ġl ay","Ġt aken","Ġme al","Ġag ent","Ġmon th","a ph","m b","Ġb es","Ġse a","Ġas s","Ġli ve","Ġben jam","Ġc ho","Ġhi ll","one y","Ġbless ed","Ġjo ab","a ac","Ġ -","Ġfo ll","b er","Ġc ut","Ġd is","j ah","Ġs k","Ġo x","Ġc lean","Ġas h","Ġking s","Ġhand s","Ġthir ty","e ch","Ġto ward","Ġe ver","Ġgod s","f or","ar s","ar y","Ġg ar","Ġba re","Ġsacrif ice","Ġh or","Ġw a","Ġdo es","ern ac","Ġtab ernac","Ġgather ed","Ġdep art","Ġa ro","le ad","Ġbu ll","Ġano ther","Ġ very","en g","Ġhi gh","Ġg round","Ġsu b","Ġmo ab","Ġba ck","Ġbull ock","s al","ain s","Ġfamil y","Ġano int","p e","Ġj on","Ġbe ast","Ġser ve","ist er","qu i","i ed","i ah","o am","Ġel d","Ġbenjam in","Ġtabernac le","i se","Ġh ar","Ġp ur","Ġp ill","Ġk ill","Ġab sal","ount ry","led ge","Ġnumb ered","Ġabsal om","j our","u se","v or","Ġw alk","Ġb al","Ġso jour","Ġlo ve","Ġsto n","g ed","Ġof fering","Ġbe ar","Ġpass ed","Ġreturn ed","Ġencamp ed","in s","Ġc attle","Ġis aac","Ġco ver","Ġnumb er","e ad","i ans","Ġ ent","Ġwh y","is ed","em ent","Ġjon athan","Ġh ere","Ġp re","Ġre p","Ġfift y","Ġenem ies","re es","on s","ab le","Ġcon c","Ġfl ock","Ġsam e","to n","Ġf ull","ir d","il t","Ġse c","Ġdeliver ed","Ġstat ut","m or","as ter","ant s","itt en","u ch","Ġf at","ie f","b orn","Ġs we","at ter","Ġn one","as se","Ġwh e","Ġse nd","Ġsp ok","Ġpriest s","Ġpla g","Ġtri b","Ġte ll","Ġcub its","a red","Ġh us","Ġm ine","Ġha l","Ġfe ar","Ġwat ers","Ġaro se","Ġe ach","Ġsy ri","p er","Ġw r","Ġm er","Ġfor ty","Ġthere in","Ġfl ed","Ġjer us","Ġeph ra","Ġwi lt","Ġshe ep","ale m","Ġlev ites","Ġsle w","Ġston es","Ġjerus alem","Ġm ou","Ġc ast","Ġl est","Ġas k","im e","Ġor d","Ġreign ed","Ġspok en","l ation","Ġb attle","Ġwith in","Ġch ari","Ġfa ll","Ġcon t","Ġdestro y","Ġeld ers","Ġhal f","Ġmou th","Ġchari ot","l i","ou ght","Ġwho se","Ġsto ne","re t","ce pt","Ġrem ain","n ed","o ve","Ġsa ith","it tle","Ġfr u","Ġman asse","Ġmanasse h","e w","Ġn ations","el ech","Ġli ght","ck ed","Ġknow ledge","Ġro se","Ġmu lt","Ġstr ong","Ġplag ue","Ġephra im","i z","i le","Ġf ine","at ed","Ġbe en","Ġl ittle","as ed","im elech","Ġde f","Ġwhere with","Ġla id","Ġthrough out","Ġes au","re ad","Ġm aster","Ġg u","Ġre s","Ġgi lead","Ġ est","Ġsh ow","Ġbe l","Ġl ot","ion s","Ġv ess","Ġsou th","b b","e k","Ġa ton","Ġi m","Ġm ess","Ġm oney","am es","Ġfor g","Ġle a","Ġbeg at","Ġang er","b or","e y","p en","Ġf ore","Ġch ar","Ġman y","Ġfi nd","Ġv all","Ġba al","Ġaton ement","Ġvall ey","i an","Ġm a","Ġl ong","Ġshe k","Ġjourne yed","Ġob lation","Ġm in","Ġca use","res s","Ġegypt ians","Ġbu ilt","Ġsee k","Ġmu ch","Ġla w","a am","b a","b and","e ous","t ter","as on","Ġwas h","Ġch ief","Ġapp e","Ġgener ations","Ġdepart ed","n ing","Ġw ood","ou d","Ġsa ve","Ġam or","g or","p le","Ġb le","Ġl am","id es","Ġre f","Ġas se","Ġthen ce","Ġfe et","ob oam","Ġseven th","Ġjer oboam","Ġah ab","Ġhus band","Ġd an","Ġg et","Ġg ate","Ġe ast","Ġre ub","al s","Ġsp ir","Ġel e","Ġbu ild","Ġsm ite","Ġtrib es","Ġreub en","Ġth r","Ġu tter","Ġp ers","ab it","Ġli ft","Ġde v","Ġri ver","Ġinh abit","Ġwhe ther","Ġfru it","en se","at es","Ġp o","Ġse en","Ġman ner","Ġpossess ion","ag es","a il","Ġto uch","Ġbe h","Ġhou ses","p l","Ġhe l","as k","Ġkn ew","Ġcl oth","Ġmess eng","Ġs at","Ġo pen","in ed","Ġg ad","Ġg one","Ġl ab","Ġthy self","Ġwhi le","Ġwhi ther","Ġab ove","Ġam mon","Ġsw are","Ġmight y","ble m","for m","Ġsec ond","a ge","Ġf ood","ak ed","Ġtw el","Ġthir d","Ġconc ern","Ġasse mb","Ġspir it","a lt","o st","s on","er v","Ġb ur","Ġi nd","le a","Ġking dom","Ġfi ght","Ġne igh","Ġel ish","Ġpro blem","Ġsanct u","Ġpill ars","Ġinhabit ants","Ġneigh bor","at s","Ġp ie","la w","Ġal gor","Ġserv ice","Ġeli jah","Ġprin ces","Ġdre am","Ġt est","Ġje z","ur bs","Ġab imelech","Ġgi be","ct s","Ġar m","Ġbr ass","Ġbu ried","Ġright eous","Ġsl ay","Ġdestro yed","Ġox en","Ġstatut es","Ġvess els","Ġconcern ing","Ġsanctu ary","c ountry","f f","i al","u th","Ġb ow","en s","Ġst ate","ard s","Ġsu ch","Ġmay est","Ġang el","Ġsub urbs","Ġtwel ve","g th","h on","Ġo bs","Ġb od","Ġc ried","Ġd am","Ġj es","ren gth","Ġst rength","Ġwho le","Ġtim es","ma id","Ġord in","Ġalgor ith","a p","m an","Ġ âĢ","Ġa i","Ġh ard","Ġb orn","Ġn ames","it ion","Ġcommand ment","Ġcommand ments","Ġpur s","Ġalgorith m","m en","m ish","Ġw all","Ġwi ves","Ġt ree","ow ing","Ġab ner","Ġcl oud","Ġcont in","Ġs ister","Ġis s","om in","Ġre de","Ġsp o","Ġhand maid","Ġwhere in","Ġjud g","Ġwom en","Ġrem em","Ġsl ain","Ġinc ense","Ġproph et","Ġprin ce","Ġswe et","Ġrede em","c ore","Ġa ri","Ġs ome","Ġw ine","Ġm ale","Ġp ort","Ġg l","ent s","ch em","Ġst a","Ġwhat soever","Ġv al","us h","Ġho ld","Ġen v","Ġz i","all y","Ġmid ian","Ġabr am","Ġbeg an","Ġsanct if","Ġsk in","Ġanoint ed","d s","i ved","p s","y ond","Ġc re","Ġd ra","ar k","ar le","Ġbe yond","ri e","Ġsp read","Ġwho soever","Ġli e","Ġshe chem","Ġsam ari","Ġoffer ed","Ġgar ments","Ġbal aam","Ġchariot s","Ġelish a","Ġsamari a","i qu","Ġb ird","Ġf ar","Ġg r","Ġin iqu","um p","Ġeat en","ish ed","Ġsin ned","Ġbo ok","Ġlook ed","Ġpres ent","Ġed om","Ġcons um","Ġcloth es","i ath","l am","Ġs ign","er tain","Ġfi ll","Ġde c","Ġal ive","Ġsu n","br on","Ġany thing","Ġz eb","Ġcur se","Ġhearken ed","Ġamor ites","Ġcontin u","d ay","e ed","i b","Ġa ction","in en","Ġhe bron","Ġwi t","Ġe p","ow er","Ġyour selves","ck ets","Ġbec ame","res p","Ġfe ast","Ġbo nd","Ġbes ides","Ġble mish","Ġmesseng ers","Ġlab an","j e","o int","Ġth ither","Ġc am","Ġc our","Ġc ould","Ġbe ing","Ġl inen","Ġsa bb","Ġre d","ven ed","Ġst ead","Ġv ine","Ġke pt","Ġapp oint","âĢ Ŀ","Ġchar ge","Ġlift ed","Ġbod y","Ġari se","Ġport ion","Ġsabb ath","i ck","z er","re w","Ġf le","Ġd ri","an ces","Ġfor m","ut ion","ir on","ra id","Ġas ide","Ġso ckets","Ġaf raid","Ġdi vid","Ġbec ome","Ġkn own","pp ed","az ar","Ġed ge","Ġele azar","Ġenv iron","Ġiniqu ity","y s","ch ed","ce ived","Ġse p","Ġcom eth","Ġab omin","Ġgive th","Ġmo st","Ġwor ld","Ġmore over","Ġmount ain","Ġtr ump","Ġdre w","Ġwr itten","Ġind eed","ĠâĢ ľ","h e","t t","Ġb owed","Ġp le","Ġt resp","ow s","Ġre be","Ġre ason","Ġab le","Ġpla ces","te en","Ġlive th","Ġdis c","Ġash er","Ġutter ly","Ġtresp ass","c y","i ch","to r","Ġto p","Ġt ask","ir c","Ġne w","Ġle ar","Ġdi st","Ġother s","Ġten th","Ġproph ets","Ġmult ip","n on","Ġf ought","Ġc ou","Ġn aked","ho d","Ġwi cked","Ġt er","ut e","Ġfa vor","Ġwe pt","Ġmu st","Ġram s","Ġsojour n","Ġhel p","Ġassemb ly","f li","i ous","l ess","n ah","n ot","p ro","s en","s erv","u ri","w h","Ġw rought","Ġno thing","Ġme as","Ġdo th","ok e","ic ho","Ġfl our","Ġpro v","Ġro ck","Ġnor th","Ġjer icho","Ġsacrif ic","qui re","Ġthr one","Ġwit ness","Ġep hod","k ah","u ed","Ġa ch","Ġc r","ar ah","Ġt ar","Ġje hu","st and","Ġch er","Ġam ale","Ġbre ak","Ġcomp an","Ġcur sed","Ġcapt ain","Ġfle e","Ġamale k","c c","i re","r am","Ġo be","Ġh on","Ġc ertain","Ġsa vor","Ġt re","ch el","ce ed","im on","Ġhouse hold","um c","Ġjud ge","Ġcan not","Ġra chel","Ġcur tain","eb a","Ġgra in","Ġfoll owed","Ġmin ister","Ġpers on","irc umc","a im","e en","g o","g s","g ic","Ġb ra","Ġb ase","Ġp ure","Ġin ter","Ġha z","Ġno ah","il ed","al i","Ġsp rink","Ġli ved","Ġli ving","Ġear s","Ġwor sh","Ġcapt ains","Ġflock s","Ġask ed","Ġlea ve","Ġgl or","Ġcour t","g al","r u","Ġs ore","Ġb ound","Ġhi d","Ġg ide","Ġn ab","Ġe ight","ay ed","Ġup ward","ab l","Ġpeop les","Ġdid st","Ġhead s","âĢ Ļ","Ġcomp le","Ġinc re","Ġpres ence","Ġsojour ner","Ġrep res","Ġsyri a","Ġest abl","Ġobs er","Ġgide on","i jah","o c","v est","y ing","Ġh orn","Ġw ro","Ġg il","Ġun lea","ri ght","Ġst ill","Ġstr ang","Ġhost s","Ġlam b","Ġtest imon","Ġremem ber","Ġunlea vened","Ġ ve","Ġh am","Ġh ome","Ġb ed","re el","Ġm ing","Ġwi s","Ġje ph","Ġse v","os h","Ġst ri","Ġserv ed","Ġbl ue","Ġr ul","Ġsm itten","sh aph","Ġper form","Ġcar ry","Ġcho ose","Ġbal ak","Ġsyri ans","Ġpo or","Ġbeh ind","Ġcher ub","Ġrepres ent","Ġming led","Ġth rees","Ġm atter","ou red","Ġc ountry","Ġp ower","Ġhi tt","Ġsh ut","Ġsh owed","Ġn ah","Ġn igh","Ġl ad","Ġgo ing","Ġon es","Ġas ses","Ġaf fli","Ġne ver","Ġr an","Ġr un","res sed","Ġear ly","Ġfo ot","Ġes c","Ġim p","Ġpie ces","Ġspo il","Ġnaked ness","Ġthrees core","m ost","n t","Ġ 1","Ġw o","Ġw est","Ġm il","Ġm ur","Ġp it","Ġg ird","Ġn ation","Ġis h","Ġt ill","Ġe m","Ġal way","Ġr ings","Ġway s","Ġlev i","Ġma id","Ġshek el","Ġjez reel","Ġordin ances","Ġdra w","Ġzeb ul","Ġsep ar","Ġwis dom","a v","b on","s y","u res","x ed","Ġ qu","Ġb ath","Ġu ri","or row","Ġto o","Ġg ates","Ġin st","Ġbe er","Ġwi nd","Ġt ra","Ġha ir","Ġjeho shaph","Ġgo est","ch es","st em","Ġre c","ro ve","al m","Ġne ed","Ġsin s","Ġri se","Ġthousand s","Ġah az","Ġbread th","Ġsy stem","Ġkind led","Ġhor ses","Ġwa ve","Ġbel ong","Ġshek els","Ġvine y","Ġhon or","Ġjehoshaph at","d en","h ad","Ġh ang","Ġf et","Ġn aph","Ġj ab","Ġbe at","Ġl eng","am ar","ad ab","il y","Ġthere on","Ġlo gic","Ġpro c","Ġsam son","Ġsee ing","ash an","Ġte ach","Ġsc arle","Ġjourne y","Ġgar ment","Ġbeast s","Ġmer cy","Ġsanctif y","ircumc ised","Ġtestimon y","Ġleng th","Ġscarle t","f fer","i el","t ali","u lt","w or","Ġs arah","Ġh as","Ġb ashan","Ġc oun","Ġj ust","Ġfor ward","Ġab od","Ġv ill","Ġcon st","ud e","Ġz er","sh ek","Ġoff ic","Ġsi ck","Ġcho sen","Ġcover ed","Ġdam sel","Ġdri ve","Ġstrang er","Ġabod e","Ġvill ages","shek els","i a","i eld","Ġa ra","Ġa cts","Ġs ime","Ġb ar","re en","Ġm at","ou gh","Ġc reat","or am","Ġsa ke","Ġgo ats","Ġk id","Ġre nt","Ġal ong","ct ed","Ġlo c","Ġco st","Ġro d","Ġbo ards","Ġgold en","Ġtab le","Ġcomp ass","Ġsoul s","Ġpill ar","Ġwalk ed","Ġres to","Ġappe ar","Ġgibe ah","Ġsta ves","Ġconsum ed","Ġenviron ment","Ġabomin ation","Ġmultip ly","stand ing","Ġglor y","Ġnaph tali","Ġsime on","s ing","Ġs el","Ġs la","Ġb as","Ġm od","en ed","Ġc ry","Ġhi ther","el y","Ġthou ght","Ġv ow","Ġv ari","Ġafter ward","Ġr u","Ġac cept","sh eba","Ġheaven s","Ġcanaan ites","Ġhor se","mor row","Ġcre ep","Ġobser ve",") ,","a el","d le","f irst","g i","l ing","l ay","Ġ qui","Ġb est","Ġf ree","Ġc al","or ah","Ġn ine","ho b","le h","it ed","it ude","Ġgo eth","Ġre ach","Ġso ld","Ġfa ith","Ġwe ight","Ġle ah","Ġle pro","Ġbre ast","res h","Ġfam ine","Ġest im","Ġbird s","Ġappoint ed","Ġsev enty","Ġhitt ite","Ġzebul un","Ġlepro sy",". \"","l o","r an","Ġm ah","or s","Ġd ark","Ġg rie","Ġwi se","Ġre j","Ġre ad","Ġme mor","ro ad","Ġab road","ph er","Ġde al","be it","Ġsm all","Ġhea ve","Ġhow beit","Ġphilist ine","Ġbless ing","Ġsi hon","Ġra in","itt ing","ai ah","Ġdes ire","Ġstatut e","Ġmult itude","lam bs","Ġgil gal","leh em","b us","l ot","p ah","Ġm ic","Ġm ach","Ġc ed","Ġsh il","Ġje bus","ver s","ri be","ak es","Ġre hob","Ġye a","Ġsp ace","ck s","Ġal one","us ed","Ġsu cc","Ġfe w","Ġsin ai","Ġbro ok","Ġunc over","Ġsol ution","Ġfour th","Ġtab les","Ġpart s","Ġfoll ow","Ġappe ared","Ġtouch eth","Ġjes se","Ġfill ed","Ġcam els","osh eth","Ġalway s","Ġru le","' .","l est","v ail","Ġh oney","Ġf un","Ġp ath","Ġn ay","id er","se c","Ġk ir","ere th","Ġde alt","Ġca ve","Ġbr an","Ġknow est","Ġspe ar","Ġex amp","Ġex ceed","Ġey e","Ġtr uth","Ġbes ide","Ġhar lot","Ġbel ie","Ġeast ward","Ġopen ed","Ġjes us","Ġcherub im","wor k","Ġcoun sel","Ġfun ction","a ir","b rew","p es","x t","th ah","Ġs it","Ġm ind","Ġc e","Ġc ount","Ġg e","Ġhe brew","Ġl od","Ġt em","Ġgo al","ce ive","is ion","Ġre ward","Ġde ep","Ġwhere of","ach ar","Ġben e","Ġtr ans","if ied","Ġad d","Ġad on","Ġcar ried","ma ge","Ġpurs ued","Ġiss ue","Ġiss achar","Ġaction s","Ġdivid ed","Ġtrump ets","Ġrebe kah","Ġsprink le","Ġincre ase","Ġve il","Ġoffic ers","Ġced ar","f th","i ble","t rees","u al","u red","Ġa ven","Ġo ath","Ġo pp","Ġh ur","Ġh ate","Ġh umb","Ġf in","Ġi ron","Ġm iz","Ġc and","Ġd rove","Ġp our","Ġhi de","Ġsa ved","Ġje al","Ġk en","Ġk oh","il ah","Ġch ron","Ġst ra","Ġst ret","Ġher ds","Ġv i","Ġca p","ot ed","Ġtent s","Ġbet ter","Ġtr ue","Ġdes p","Ġwa xed","Ġhar vest","Ġforg ive","Ġfore ign","Ġhorn s","Ġjeph thah","lest ick","Ġkir iath","Ġcand lestick","Ġjeal ous","Ġkoh ath","Ġchron ic","b ah","c ed","n ow","z ah","Ġh esh","Ġi mage","Ġc or","Ġp ar","Ġp ra","Ġg ath","Ġn un","el ess","Ġt rees","le b","Ġso on","op h","im ent","ot t","Ġlo ved","Ġwat ch","Ġsou ght","Ġbro ken","Ġra iment","Ġbeg in","Ġjo ash","Ġenem y","Ġfoll owing","pe ct","Ġpur ple","Ġcover ing","Ġswe ar","Ġforg i","Ġgibe on","Ġmeas ure","Ġqui ck","Ġchronic les","a tor","c ious","m ah","t ribe","er a","Ġm our","Ġm ich","on t","Ġd et","Ġd ust","Ġp oured","Ġsh ime","Ġhe ed","Ġhe al","Ġhe ight","Ġl ion","Ġno de","ir g","Ġme th","ro ach","Ġse em","Ġso dom","Ġab ish","Ġca leb","Ġne b","Ġcon ceived","ac ia","Ġac acia","Ġpr om","Ġbu y","Ġwor th","Ġpl ay","Ġcanaan ite","Ġdes cri","Ġsle pt","Ġstat es","Ġlear ning","Ġtar ry","Ġconst ra","Ġshil oh","Ġhesh bon","d o","h or","n a","r ah","v ent","Ġ er","nd ed","Ġh an","Ġh ated","Ġw id","Ġw ra","Ġm et","Ġm orrow","Ġu se","Ġg ers","Ġin ward","Ġin te","Ġn athan","Ġsa l","Ġt y","Ġha pp","se at","Ġk ad","ad a","ad d","ad ok","il ty","Ġas a","Ġse ir","Ġab ide","Ġab iath","op s","Ġam non","Ġli eth","Ġal m","Ġle ad","Ġar mor","Ġpro vid","Ġz adok","Ġper ish","Ġfour s","Ġram ah","the w","Ġcub it","Ġpre p","Ġconc ub","Ġfall en","Ġremain ed","Ġgu ilty","serv ant","Ġsacrific es","Ġcompan y","Ġworsh i","Ġbath e","Ġviney ard","Ġmat thew","Ġmod el","Ġestim ation","Ġquick ly","Ġabiath ar","b an","i eth","k ind","l ah","m in","r un","s p","Â ł","Ġth igh","Ġa z","Ġs id","Ġb ought","Ġm ar","Ġc u","Ġin quire","Ġsha m","Ġwh ite","Ġha ll","Ġthou gh","Ġso le","Ġfe ared","ig ent","Ġgreat er","Ġgreat ly","Ġfour teen","Ġpl ain","Ġcar m","Ġfift een","Ġsk il","Ġbullock s","Ġanoint ing","ile e","Ġpers ons","pl ate","Ġpie ce","Ġrighteous ness","Ġjudg ment","rie nd","Ġple ased","Ġreason ing","Ġuri ah","Ġsel f","Ġbreast plate","Ġdark ness","Ġread y","Ġexceed ing","vent ure","Ġwid ow","Ġkad esh",") .",". âĢĿ","b y","i ada","k in","r ance","u ge","w ise","Ġa ught","Ġo m","Ġf ount","Ġm ak","Ġto wn","ar m","an e","Ġl amp","Ġt id","Ġt amar","Ġjeho iada","Ġgo at","ad venture","Ġme ans","Ġch e","Ġse ll","Ġmy self","Ġfi fth","la id","Ġover laid","Ġpass over","Ġcon f","Ġcon sec","Ġpro f","fe ct","Ġeven ing","Ġevery thing","oun ce","Ġjud ged","Ġheart s","Ġex per","Ġper adventure","Ġmount ains","Ġunder standing","Ġbord ers","ash a","Ġsc reen","Ġstand ing","Ġgener ation","Ġent rance","Ġpre vail","iz z","Ġref uge","Ġdev oted","Ġbur y","Ġcurtain s","Ġwro th","Ġmil k","Ġmur m","Ġfet ch","Ġhorse men","Ġconstra int","Ġconsec r",") ;","b ut","o ah","t ime","u ct","Ġm is","Ġc ircumcised","Ġd ry","Ġhi v","Ġsh o","Ġsh el","Ġsh out","Ġn a","Ġj oram","am ber","Ġk orah","Ġon ce","Ġre g","Ġre quire","Ġch ang","Ġcom ing","im a","Ġle ban","Ġus ed","Ġlo ving","Ġar non","ic ation","be ar","Ġba asha","Ġlord s","Ġansw er","Ġlam bs","ff ic","Ġordin ance","Ġredeem ed","Ġwicked ness","Ġcomple te","Ġestabl ish","Ġperform ance","Ġem pt","Ġahaz iah","had ad","Ġbeat en","gi lead","Ġmemor ial","Ġbran ches","Ġadon ijah","Ġforgi ven","Ġshime i","Ġgers hon","Ġtown s","Ġleban on","c us","i ves","k s","m uch","o ved","p la","p ie","r ay","t ing","th eless","Ġo h","Ġh in","in ess","re th","Ġf al","Ġf ast","Ġf riend","Ġm al","on ounce","Ġd ed","Ġp ast","Ġhi ram","Ġin form","Ġj ub","Ġl u","Ġl ow","as much","Ġsa lt","om i","Ġfor s","Ġk is","Ġfa il","Ġshe m","Ġv is","Ġv irg","Ġlo ins","Ġpro g","Ġpr onounce","Ġhast e","sh ip","Ġex p","Ġunclean ness","Ġad vers","Ġlev ite","eb el","Ġsle ep","Ġkind ness","Ġend s","Ġeph ah","ma el","Ġjez ebel","Ġjudg es","Ġcontinu ally","Ġdivid e","Ġtrump et","Ġlear n","Ġcr own","go ats","Ġnab al","Ġnab oth","oc ation","Ġesc ap","Ġish mael","Ġara bah","Ġwra th","Ġsid on","Ġtid ings","a pe","i ent","i ence","l s","l on","m mon","q ue","t s","y ri","Ġth resh","Ġs ing","Ġs im","Ġw re","Ġb it","Ġb ri","Ġf ro","Ġf ul","Ġf em","Ġc akes","an ge","Ġl ed","Ġsa ck","Ġfor t","Ġgo ings","Ġme an","ain t","Ġwhen ce","Ġst ay","Ġde ed","Ġtw ined","Ġen g","sh em","Ġwom b","Ġbo il","Ġbo az","Ġgra ven","Ġmonth s","Ġass yri","Ġkill ed","Ġsec ret","Ġord er","Ġdef ile","Ġgu ard","Ġval ue","Ġcre ator","Ġsign s","Ġrebe ll","serv ants","Ġach ish","Ġbra ke","Ġinter p","Ġestabl ished","Ġrepresent ation","Ġnever theless","Ġjab esh","Ġcreep ing","Ġmic ah","Ġjebus ite","Ġrehob oam","Ġtrans g","Ġinward s","Ġna omi","Ġempt y","pla ce","Ġjub ilee","Ġthresh ing","Ġfem ale","Ġassyri a","d er","g ar","l ive","p os","u g","v y","z e","Ġ que","Ġa w","Ġs n","Ġo ak","Ġo live","Ġh um","Ġh ence","Ġb ad","Ġb ind","Ġb ars","Ġb ask","Ġb arle","Ġf ing","Ġd ou","Ġd run","ar ge","an ah","Ġl ame","Ġsa d","Ġt al","Ġe igh","Ġe mb","Ġfor asmuch","ir m","Ġwas t","Ġre ph","im b","Ġst ayed","Ġher d","Ġne xt","Ġbl ind","Ġcon v","Ġsin ce","Ġro b","Ġsou nd","ara i","Ġper izz","Ġwork s","Ġben aiah","Ġapp roach","ang u","Ġstand ard","Ġproph es","Ġcons ider","Ġoffering s","Ġent er","Ġpre y","Ġdef in","Ġdef iled","Ġsouth ward","Ġchar ged","Ġamor ite","Ġref le","Ġbur den","Ġalgorithm s","Ġsta ff","Ġcontinu al","Ġhaz ael","Ġwest ward","Ġresto re","Ġmeth od","Ġabish ai","Ġprom ised","Ġworshi pped","Ġbarle y","Ġeigh th","c ass","g er","k ron","s lay","z z","Ġo g","Ġf urn","Ġi th","en ces","Ġc orn","Ġd on","Ġd im","Ġp en","Ġp ot","ar im","Ġg row","Ġn aam","Ġbe am","Ġl angu","ah az","as cus","Ġy ield","Ġt alk","Ġe ither","Ġe kron","Ġk ins","ur ity","Ġthere with","ore d","lt en","Ġcom est","ain ing","Ġman slay","Ġab el","Ġam az","pt ion","Ġser p","Ġne ck","Ġsu pp","Ġar row","Ġmo lten","Ġco nd","Ġco at","Ġburn ing","Ġro om","Ġoff ice","Ġper fect","Ġcar cass","Ġfell ow","Ġcapt ive","Ġagent s","qui red","Ġent reat","Ġrep ent","Ġmer ari","ba al","Ġwash ed","Ġthr ust","Ġobs erv","Ġdam ascus","Ġpurs ue","lam b","Ġple as","Ġsacrific ed","Ġamalek ites","Ġobe y","Ġtre as","go at","Ġworsh ip","Ġwro te","Ġaffli ct","Ġesc ape","Ġpit ch","Ġinst ead","Ġzer u","Ġcreat ed","Ġrej oice","Ġbene ath","Ġmiz pah","Ġcap it","Ġneb at","kind ness","Ġcarm el","Ġloving kindness","pie ces","Ġvirg in","Ġescap ed","Ġbit ter","Ġful f","shem esh","Ġinterp ret","Ġfing er","Ġmanslay er","' t",". )","a w","c if","f lo","i red","o ch","r ings","u es","u ly","Ġ >","Ġ ven","Ġ esh","Ġth ink","Ġs is","Ġs ides","Ġo w","er y","en ance","Ġc ush","Ġu til","Ġp i","Ġg at","Ġg ard","Ġg lean","Ġn et","Ġun w","Ġt ir","Ġt rou","Ġt ith","Ġha il","it ing","it ies","ra l","ra ge","et y","Ġre ap","Ġse ason","Ġan ak","os ed","Ġman oah","Ġst e","Ġag e","Ġli ves","ct u","sel y","Ġsu ffer","ic es","Ġdi g","Ġdi eth","Ġwhere on","Ġfe el","Ġegypt ian","ill ed","ith oph","ught er","Ġhast ed","ate gy","Ġset t","Ġsw orn","Ġpray er","Ġex cept","Ġex alt","Ġbo ard","Ġah ithoph","Ġrem oved","Ġyoung est","Ġtr uly","Ġstr ategy","are th","Ġad v","Ġlike wise","Ġsc atter","Ġcons ist","Ġhus h","Ġstrong hold","Ġres pect","Ġble w","Ġfruit ful","Ġassemb led","Ġconsum e","Ġdec la","Ġbond age","Ġtre mb","Ġrul ers","Ġimp urity","Ġgird ed","Ġsla ughter","Ġhebrew s","Ġhumb le","Ġfin ished","Ġstret ched","Ġconcub ine","Ġfount ain","Ġinform ation","Ġkis sed","Ġdefin ition","Ġzeru iah","Ġsis era","Ġutil ity","Ġahithoph el","' :","c ent","c ome","c ost","e ven","f o","h as","h ud","l en","l ong","m n","t a","Ġs itting","Ġs arai","Ġh un","Ġw ant","Ġb on","Ġb and","Ġb os","Ġm ark","ll y","Ġc lea","Ġp ay","Ġp uri","Ġp alm","ar oth","Ġg ames","Ġsh ed","Ġin v","Ġn ur","id ing","el op","Ġy oke","Ġt ro","Ġe g","Ġha ving","Ġjeho ash","il ity","Ġre b","Ġme ph","Ġch amber","Ġfr ont","ren t","Ġfa ces","Ġst re","Ġdo ing","Ġdo eth","ok s","Ġwe ak","ast ing","Ġgi ft","Ġca used","ine has","Ġar ray","ic al","Ġcomm it","Ġph inehas","Ġeat eth","Ġmo ve","Ġro be","Ġhea p","Ġper cept","Ġwork man","Ġah ijah","Ġla ck","Ġshould er","Ġshould est","Ġspeak ing","Ġcons p","Ġent ered","Ġtrib ute","Ġwr ong","Ġvess el","Ġchief s","Ġarm ed","Ġpresent ed","je ct","Ġenviron ments","Ġnorth ward","Ġnah or","Ġ1 9","Ġrec over","Ġproc ess","Ġvari able","Ġmach ir","Ġhur t","Ġmich al","Ġdet er","Ġinte ll","Ġsole mn","Ġskil ful","Ġprof ane","Ġprevail ed","Ġhiv ite","Ġbask et","imb ing","Ġkins man","flo or","Ġgard en","Ġtir zah","Ġbon es","Ġbos om","Ġpuri f","b ased","c le","f ull","i v","n am","p art","w i","w er","Ġth ick","Ġf aint","Ġi ll","Ġm ir","Ġm ag","Ġc ain","Ġto r","Ġhi red","Ġg er","Ġsh ield","Ġin ner","Ġhe ld","Ġl arge","Ġt ur","Ġk ine","ther e","is f","is ance","Ġre ceive","Ġab i","Ġsp y","Ġsp ot","fer ence","Ġher self","Ġam en","Ġwe ep","Ġwe ap","Ġshe ba","Ġgi ving","Ġca re","la im","Ġlo st","Ġpri son","Ġfl owing","Ġel se","Ġpro ve","Ġpro pos","Ġmake th","Ġen ough","Ġri ch","esh ur","sh all","Ġhundred s","ne ys","Ġmid dle","Ġyoung er","Ġram oth","Ġang ry","Ġinc l","ol s","Ġdoor s","Ġgra pes","Ġclean sed","Ġash es","Ġgu ilt","Ġele ven","Ġarm y","Ġhard ened","Ġzi ba","Ġcam est","wh at","Ġobe isance","Ġproc laim","Ġkid neys","Ġloc al","Ġresto red","Ġappear ance","Ġthought s","Ġexamp le","Ġworth y","Ġlamp s","Ġmurm ur","Ġmal es","Ġfort ified","Ġconv ocation","Ġcorn ers","Ġlangu age","Ġclea ve","full y","? \"","a ves","c l","c ah","e c","e es","g ran","h az","l asting","m e","r or","r um","t en","u ral","th at","Ġs itt","Ġh ore","Ġw ond","to m","Ġm ill","Ġc la","at ing","at ive","Ġd il","ed ah","Ġp ome","Ġto wer","Ġsh un","Ġhe w","Ġn in","Ġbe f","Ġje w","Ġno ise","it ure","Ġgo sh","Ġk ed","st ic","ir am","Ġyou th","Ġup per","is on","is ions","ro th","Ġab und","Ġab hor","Ġdo est","Ġli b","Ġshe pher","Ġbefore time","Ġde b","Ġde w","ul ation","Ġle an","Ġsu m","so l","Ġpro s","Ġfe ed","Ġtake th","Ġri mmon","Ġknow eth","Ġsent ence","Ġspe ech","Ġgood ly","Ġke ilah","Ġhea reth","Ġhea vy","Ġex ec","Ġjer ub","Ġunc ircumcised","Ġra ther","Ġla ver","Ġposs ible","if y","Ġpl ant","Ġwould est","Ġbes ie","Ġass ign","Ġcho se","Ġever lasting","Ġwa it","Ġbear ing","Ġpre cious","Ġwr ite","Ġremain eth","Ġfore s","Ġmesseng er","Ġsat isf","Ġdream ed","Ġval or","Ġsanctif ied","Ġdra wn","ib osheth","uri stic","wh ich","Ġhaz or","Ġsprink led","Ġaffli ction","Ġrun ning","Ġwind ow","Ġhang ings","Ġzer ah","Ġsick ness","Ġcompass ed","Ġaccept ed","Ġreach ed","itting ly","Ġsucc ess","Ġsucc oth","Ġexamp les","Ġbelie ve","Ġcount enance","Ġheal ed","Ġfours core","Ġhall owed","bear er","Ġprog ram","Ġdou ble","Ġdrun k","Ġreph aim","Ġamaz iah","Ġobserv able","Ġfulf illed","Ġnet work","Ġunw ittingly","Ġmeph ibosheth","Ġdil igent","Ġpome gran","Ġgosh en","a f","b ed","b it","b osheth","d ens","f l","f ort","f ru","h ah","i er","i fer","l er","n al","o ther","t est","t ake","w ill","Ġ 6","Ġa x","nd om","Ġo ra","Ġh ot","Ġb right","re ct","Ġm aac","Ġc le","Ġc ord","Ġu r","Ġp or","Ġp el","Ġhi nder","Ġg rew","Ġin ference","Ġhe uristic","Ġl ess","Ġl ying","om f","am ed","Ġit self","ch ast","Ġk ish","ir t","ak ing","Ġre ck","Ġse x","Ġse qu","al th","al iah","Ġcom fort","Ġab ig","ok ed","Ġv ain","Ġv ows","Ġover lay","Ġbl ow","Ġlo ops","Ġlet ter","Ġdi v","Ġdi ffer","Ġcomm itt","Ġfl ood","ist ic","Ġmo ved","Ġro ds","ne h","Ġoff ereth","Ġdel ight","Ġra ndom","ari ah","Ġcl imbing","Ġfield s","Ġjo ined","Ġpossess ed","Ġpl ains","Ġpl atter","Ġdwell ing","Ġsix teen","Ġeli ab","Ġsc all","Ġdep th","tain ed","Ġgener al","Ġdis ple","Ġgar ri","Ġkill eth","Ġwhe at","Ġres p","Ġbur dens","Ġbow l","ition al","Ġdisc omf","Ġdist ress","Ġcou rage","Ġtar ried","Ġmur der","Ġsepar ate","Ġbelong eth","Ġjust ice","Ġloc ust","Ġcal f","Ġgrie v","Ġlod ge","Ġforeign er","Ġjealous y","Ġbegin ning","Ġseem eth","Ġdeed s","Ġtransg ress","Ġtal ents","Ġperizz ite","Ġrefle x","Ġnaam an","Ġserp ent","Ġweap ons","Ġhore b","Ġjew els","Ġpros per","Ġjerub baal","fru its","chast ic","Ġreck on","1 9","a id","e g","g g","h ead","i am","i ant","l ings","l ied","l ication","n i","o ic","r om","s ide","t ree","u ff","v ation","Ġ ver","Ġth und","Ġo ph","Ġw ings","Ġw ound","to ry","Ġf irm","ll ow","Ġc ake","Ġu nd","Ġd ried","Ġp ain","Ġto ken","Ġg om","Ġg ame","Ġg eshur","Ġin quired","Ġhe z","Ġhe th","Ġn adab","Ġj aph","Ġl atter","as a","Ġsa nd","ut ed","ri sing","Ġre l","Ġre nd","Ġre qu","Ġre je","Ġas cent","Ġch aining","Ġse eth","Ġse als","ord er","Ġfa ir","Ġsp ices","im al","ab les","Ġyour self","Ġwho lly","Ġam b","Ġam asa","Ġfather less","la g","Ġover take","ight y","Ġcomm un","Ġr ing","Ġr id","Ġr ow","Ġbre ath","Ġbre ach","Ġfl ow","Ġho of","Ġho oks","Ġeat ing","Ġga z","Ġmo on","Ġba ld","un neh","Ġaltar s","Ġfirst ling","Ġper ver","Ġah imelech","Ġra ised","Ġcomp on","Ġcomp ut","Ġtr ust","Ġcur rent","Ġeph ron","Ġaro er","Ġhigh way","Ġmoab ites","Ġhar an","Ġremain ing","Ġfru its","Ġim ages","Ġma x","Ġmin ist","Ġbuild ing","Ġutter most","Ġdev oured","Ġtouch ed","pl ing","Ġwhither soever","Ġpurs u","Ġval iant","Ġgr ant","Ġsun rising","Ġsojourn eth","Ġmeas ures","Ġprov oke","Ġham or","Ġjeph unneh","Ġrul es","Ġsepar ation","Ġqu ar","Ġinst rum","Ġbelong ed","Ġviney ards","Ġbar ak","Ġfree will","Ġrej oic","Ġaven ger","Ġvi ctu","Ġhan nah","Ġsal vation","Ġalm ighty","Ġarmor bearer","Ġprep ared","Ġcu p","Ġom ri","Ġexper t","Ġque ue","Ġmethod s","Ġarrow s","Ġtreas ures","Ġtrou b","Ġtith e","Ġhush ai","Ġeg lon","Ġwond ers","Ġdeb ir","Ġdiligent ly","Ġora cle","Ġabig ail","Ġmurder er","Ġgriev ous","Ġreje cted","b re","b ar","c om","g on","h im","i or","k es","k ins","n ant","p et","p oss","s ay","z en","Ġa v","Ġs om","Ġs ow","Ġo ho","Ġw ag","Ġi d","Ġm ed","Ġm it","Ġm elt","Ġc ens","Ġd ish","Ġd un","Ġp un","Ġp ledge","Ġg reen","Ġhe ifer","Ġn er","Ġn at","Ġj ok","Ġbe w","an aim","Ġl ach","ah el","Ġsa f","Ġha gar","Ġha bit","Ġjeho ahaz","it ess","Ġit er","ch ild","Ġnot with","Ġre al","Ġre ceived","Ġas ahel","ere z","Ġch ast","Ġch ew","al u","al el","Ġson g","Ġpe kah","Ġsp ies","Ġst ars","Ġda gon","Ġam m","Ġwe alth","ation al","ul ch","Ġaf ar","Ġserv ile","Ġar ch","Ġcon ne","Ġr uth","au ght","Ġkn ees","Ġsto re","Ġsto len","Ġsto chastic","Ġburn ed","Ġbring eth","Ġknow ing","Ġgood ness","Ġsw all","Ġsw arm","Ġpray ed","Ġex pl","Ġper pet","Ġah ima","Ġra ise","Ġev alu","Ġrem nant","Ġthir teen","Ġstr uct","the ir","Ġsix th","Ġrest ed","Ġkind ly","Ġfell ows","Ġgra ve","Ġcho ice","Ġsub d","Ġhar m","Ġston ed","Ġstrong er","Ġforg et","Ġfore st","Ġref used","Ġbuild ed","Ġspo on","Ġbond men","Ġsabbath s","Ġsep ulch","Ġcou pling","Ġter ah","Ġprov oked","Ġcompan ies","Ġcertain ly","Ġbra zen","Ġcomple x","Ġfet ched","Ġlogic al","Ġfaith ful","Ġmah anaim","Ġge haz","Ġopp ressed","Ġstra w","Ġdesp ised","Ġcor ru","Ġprovid e","Ġmar ried","Ġshel ah","Ġchang es","Ġded ic","Ġlu ke","Ġfors ake","Ġsidon ians","Ġwre ath","Ġprophes ied","Ġith amar","Ġsupp lication","Ġcapit als","Ġow ner","Ġdig ged","Ġmir iam","Ġbef all","Ġcommitt ed","Ġvictu als","Ġoho li","Ġlach ish","Ġnotwith standing","Ġahima az","Ġgehaz i","a ction","b read","d u","d od","h ous","i ar","j ud","k lag","l and","m s","n ight","o a","p ose","r ary","s aid","t aroth","u p","u ah","u ph","u ous","z ur","th an","th em","Ġa th","Ġa ph","Ġa part","Ġo cc","Ġw ing","Ġb id","Ġb ir","Ġf ed","Ġm ad","Ġc ud","at t","or rah","ed y","Ġp add","Ġto ng","ar am","Ġj oth","Ġj oh","Ġl im","Ġl oss","Ġsha ve","Ġt um","Ġt ail","Ġe z","am m","Ġje th","se arch","Ġgo als","ent ion","Ġre le","Ġch ange","Ġwill ing","Ġman na","Ġab in","im um","ab ility","Ġst ep","Ġdo st","Ġland s","Ġher b","Ġli ver","Ġshe ol","Ġv ale","Ġv owed","Ġca ul","Ġca ught","Ġle nd","Ġover th","Ġat t","Ġus ing","Ġlo ose","Ġlo ves","ic ians","Ġcon te","Ġdi ffic","Ġpri ce","Ġpro ver","Ġsm it","Ġsm oke","Ġz alm","un na","Ġsent ences","Ġtim nah","Ġro de","Ġspe ck","Ġgood s","ie zer","Ġfamil iar","Ġcl ose","Ġmight ily","Ġunder stand","Ġapp are","Ġpart ial","Ġpl ayed","Ġad am","Ġsix ty","Ġdes ol","Ġgra cious","Ġnight s","aph im","Ġdis poss","Ġclean se","Ġash dod","Ġash taroth","Ġback ward","Ġlea vened","Ġref use","Ġdream s","Ġborn e","Ġwall s","Ġzi ph","Ġzi klag","Ġmidian ites","Ġgr own","Ġsign et","Ġdec isions","Ġzeb ah","Ġtask work","Ġter aphim","Ġsojourn ers","Ġwitness es","Ġinter est","Ġwo ven","Ġmil cah","Ġbas es","Ġvari ables","Ġcreep eth","Ġgrie ved","Ġce ase","Ġge zer","Ġtem pt","Ġopp ress","Ġstret ch","Ġvi ol","Ġpra ct","Ġpra ise","Ġty pe","Ġprep are","Ġcu ps","Ġconstraint s","Ġconsecr ation","Ġchang ed","Ġadvers ary","Ġfro gs","Ġpi ge","Ġexalt ed","Ġdeter m","Ġtor n","Ġtur tle","Ġpropos itional","Ġsitt eth","Ġlib nah","Ġcord s","Ġpor ch","Ġsex ual","Ġgarri son","Ġgom orrah","Ġgaz a","Ġinstrum ents","Ġwag ons","Ġmit re","Ġsubd ued","Ġsepulch re","Ġcorru pt","hous es","jud ah","Ġpadd an","Ġjoth am","Ġjoh n","Ġdiffic ult","Ġzalm unna","Ġdisposs ess","a it","a pp","b es","d led","e nd","f av","f rom","g n","g u","i res","i ally","m er","m ble","n oc","o id","s ame","w ho","w ait","th is","Ġth umb","Ġa ct","Ġa uth","Ġs ens","Ġo per","Ġof ten","Ġb il","Ġb ot","Ġb one","Ġm am","Ġm ort","en ing","en cy","ll s","ll ed","Ġu zz","Ġd ran","Ġp an","Ġp ins","Ġp erez","ar ing","ar ies","Ġin noc","Ġl oud","as ps","el ah","Ġsha re","om s","Ġt ah","Ġfor so","it ution","ch ant","Ġk in","ri sh","and er","Ġch ains","Ġse est","al ed","Ġan ah","Ġtheir s","Ġab iram","Ġsp rings","ab ly","Ġst ub","Ġdo gs","Ġfi g","Ġfi er","Ġli ers","Ġli ken","Ġde bor","Ġv ic","Ġhad ad","ul ar","Ġle ast","Ġle per","Ġle gs","Ġover come","Ġsu ck","Ġcon cept","Ġph ys","Ġr ational","Ġkn op","Ġel ah","Ġel ement","Ġwhere by","ist s","Ġmo ves","Ġz e","Ġz in","Ġz im","Ġtim ber","Ġro of","ne a","Ġspe cif","Ġunc le","Ġbet wi","Ġrem ove","Ġcl asps","Ġpossess ions","Ġdrink ing","Ġdwell eth","Ġdes ign","Ġrest itution","Ġkind red","Ġob ed","Ġhill s","Ġfoll y","Ġsojour ned","Ġcover eth","Ġrep ort","Ġfull y","Ġmer ry","Ġlea ven","Ġreuben ites","Ġstrength en","ĠâĢ ĺ","Ġzi pp","Ġgr ass","je arim","Ġabomin ations","Ġdisc ern","Ġasher ah","Ġdist ressed","Ġmultip lied","Ġprov ision","Ġincre ased","Ġimp ort","Ġgird le","Ġsepar ated","Ġsystem s","Ġhang ed","Ġcompass ion","Ġuncover ed","Ġbelie ved","Ġlod ged","Ġaven ged","Ġpar an","ott ed","Ġmour ned","Ġmour ning","add ai","min istic","Ġaz ariah","Ġhall ow","Ġfifteen th","Ġself same","Ġexceeding ly","Ġmak ing","Ġshout ed","Ġreg ion","Ġreg ard","Ġfal se","Ġfal sely","Ġlow land","Ġfors aken","Ġeng ra","Ġrebell ed","Ġhum an","Ġlame ch","Ġsad dled","Ġemb ro","Ġfurn iture","Ġcond em","Ġcush ite","Ġste al","Ġsett ings","Ġscatter ed","Ġdecla red","Ġtremb ling","fo ld","Ġconsp ired","Ġintell igent","iv ity","Ġguilt less","Ġked esh","sol ving","Ġpomegran ates","Ġcle ar","Ġver ily","Ġhez ron","Ġflow ers","Ġcompon ents","Ġminist ered","Ġrejoic ed","Ġtroub led","bar nea","say ing","Ġbir th","Ġjeth ro","Ġrele ase","Ġappare l","fav ored","Ġmam re","Ġdran k","Ġforso ok","Ġliken ess","Ġdebor ah","Ġbetwi xt",". .","a ut","a res","a ved","b ered","c on","c ense","c tor","d ish","f in","g ing","g id","h oram","h air","k anah","k edah","l ine","p ost","r ing","s ah","s op","v ings","w ood","th ood","Ġs ur","Ġs ort","Ġh at","Ġh os","Ġh op","Ġh ys","in ation","Ġw ages","er t","er ved","Ġb ade","Ġf ish","ou se","Ġc art","es thood","on ite","or ity","Ġd in","Ġd at","Ġd ro","Ġd yed","Ġd ress","Ġp at","Ġp over","Ġto oth","Ġhi re","Ġg ent","Ġg itt","Ġsh ot","Ġsh ip","Ġhe at","Ġn az","Ġbe z","Ġbe ard","Ġbe aut","an kin","Ġl ast","Ġl ine","Ġsa cks","Ġt ast","Ġt ry","Ġe b","am ah","am ent","Ġje horam","Ġno b","ut ions","it ish","Ġgo ver","Ġgo tt","st re","st ra","st ance","ir ite","ri ble","ce nded","Ġsaid st","Ġup right","Ġon y","il es","Ġre ve","Ġre lation","Ġthere to","Ġse at","Ġse as","Ġfr ankin","ain ed","ake th","Ġsp ied","fer s","Ġst rove","Ġdo g","Ġda than","Ġher mon","Ġwe ek","ck en","Ġhad st","Ġhad ade","ath ite","em ption","ge ance","art ed","Ġlo aves","Ġdi p","Ġpri esthood","ac y","Ġr ide","Ġr ows","Ġkn ops","Ġel on","Ġel kanah","Ġpro long","Ġho llow","Ġwhere as","Ġen l","Ġen och","Ġacc ount","Ġsin n","Ġga al","Ġri sen","br ance","Ġz o","Ġz ob","Ġz elop","Ġgreat ness","un to","un ah","qu are","Ġex pect","Ġbo iled","Ġbless ings"]}}