{"version":"1.0","truncation":null,"padding":null,"added_tokens":[{"id":0,"content":"<PAD>","single_word":false,"lstrip":false,"rstrip":false,"normalized":false,"special":true},{"id":1,"content":"<BOS>","single_word":false,"lstrip":false,"rstrip":false,"normalized":false,"special":true},{"id":2,"content":"<EOS>","single_word":false,"lstrip":false,"rstrip":false,"normalized":false,"special":true},{"id":3,"content":"<UNK>","single_word":false,"lstrip":false,"rstrip":false,"normalized":false,"special":true},{"id":4,"content":"{","single_word":false,"lstrip":false,"rstrip":false,"normalized":false,"special":true},{"id":5,"content":"}","single_word":false,"lstrip":false,"rstrip":false,"normalized":false,"special":true},{"id":6,"content":"[","single_word":false,"lstrip":false,"rstrip":false,"normalized":false,"special":true},{"id":7,"content":"]","single_word":false,"lstrip":false,"rstrip":false,"normalized":false,"special":true},{"id":8,"content":":","single_word":false,"lstrip":false,"rstrip":false,"normalized":false,"special":true},{"id":9,"content":",","single_word":false,"lstrip":false,"rstrip":false,"normalized":false,"special":true},{"id":10,"content":"\"","single_word":false,"lstrip":false,"rstrip":false,"normalized":false,"special":true},{"id":11,"content":"\n","single_word":false,"lstrip":false,"rstrip":false,"normalized":false,"special":true}],"normalizer":{"type":"Sequence","normalizers":[{"type":"NFC"},{"type":"Lowercase"}]},"pre_tokenizer":{"type":"ByteLevel","add_prefix_space":true,"trim_offsets":true,"use_regex":true},"post_processor":{"type":"TemplateProcessing","single":[{"SpecialToken":{"id":"<BOS>","type_id":0}},{"Sequence":{"id":"A","type_id":0}},{"SpecialToken":{"id":"<EOS>","type_id":0}}],"pair":[{"SpecialToken":{"id":"<BOS>","type_id":0}},{"Sequence":{"id":"A","type_id":0}},{"SpecialToken":{"id":"<EOS>","type_id":0}},{"Sequence":{"id":"B","type_id":1}},{"SpecialToken":{"id":"<EOS>","type_id":1}}],"special_tokens":{"<BOS>":{"id":"<BOS>","ids":[1],"tokens":["<BOS>"]},"<EOS>":{"id":"<EOS>","ids":[2],"tokens":["<EOS>"]}}},"decoder":{"type":"ByteLevel","add_prefix_space":true,"trim_offsets":true,"use_regex":true},"model":{"type":"BPE","dropout":null,"unk_token":null,"continuing_subword_prefix":null,"end_of_word_suffix":null,"fuse_unk":false,"byte_fallback":false,"ignore_merges":false,"vocab":{"<PAD>":0,"<BOS>":1,"<EOS>":2,"<UNK>":3,"{":4,"}":5,"[":6,"]":7,":":8,",":9,"\"":10,"\n":11,"!":12,"#":13,"$":14,"%":15,"&":16,"'":17,"(":18,")":19,"+":20,"-":21,".":22,"/":23,"0":24,"1":25,"2":26,"3":27,"4":28,"5":29,"6":30,"7":31,"8":32,"9":33,";":34,"?":35,"a":36,"b":37,"c":38,"d":39,"e":40,"f":41,"g":42,"h":43,"i":44,"j":45,"k":46,"l":47,"m":48,"n":49,"o":50,"p":51,"q":52,"r":53,"s":54,"t":55,"u":56,"v":57,"w":58,"x":59,"y":60,"z":61,"¡":62,"¢":63,"£":64,"©":65,"°":66,"Â":67,"Ã":68,"â":69,"Ċ":70,"Ġ":71,"Ģ":72,"ĵ":73,"Ķ":74,"ĺ":75,"Ļ":76,"ľ":77,"Ŀ":78,"ł":79,"Ġt":80,"Ġa":81,"in":82,"Ġth":83,"Ġs":84,"Ġthe":85,"at":86,"es":87,"er":88,"Ġc":89,"Ġw":90,"an":91,"or":92,"Ġp":93,"Ġb":94,"ing":95,"Ġto":96,"on":97,"Ġf":98,"ar":99,"Ġm":100,"Ġi":101,"nd":102,"Ġh":103,"re":104,"Ġand":105,"Ġd":106,"en":107,"om":108,"ou":109,"it":110,"al":111,"us":112,"le":113,"Ġo":114,"el":115,"Ġin":116,"Ġwh":117,"Ġst":118,"Ġis":119,"ed":120,"Ġl":121,"Ġthat":122,"Ġg":123,"ers":124,"et":125,"art":126,"il":127,"is":128,"Ġfor":129,"Ġof":130,"as":131,"ic":132,"ro":133,"Ġe":134,"ts":135,"ac":136,"up":137,"ow":138,"Ġy":139,"ir":140,"Ġcom":141,"ke":142,"ion":143,"Ġstart":144,"Ġn":145,"ess":146,"âĢ":147,"Ġyou":148,"ent":149,"Ġwhat":150,"Ġstartup":151,"ith":152,"Ġwith":153,"Ġcomp":154,"ec":155,"elp":156,"Ġdo":157,"ay":158,"Ġhelp":159,"Ġon":160,"Ġbu":161,"Ġpl":162,"Ġtheir":163,"Ġre":164,"Ġit":165,"op":166,"ve":167,"Ġpro":168,"ig":169,"id":170,"ag":171,"Ġcompan":172,"Ġgo":173,"Ġus":174,"Ġli":175,"ol":176,"am":177,"th":178,"for":179,"Ġma":180,"os":181,"Ġcan":182,"Ġpe":183,"ur":184,"'s":185,"ople":186,"Ġpeople":187,"âĢĻ":188,"Ġr":189,"ly":190,"ust":191,"Ġal":192,"form":193,"im":194,"Ġan":195,"Ġtr":196,"age":197,"Ġbuil":198,"ies":199,"Ġbus":200,"iness":201,"Ġbe":202,"Ġbusiness":203,"pp":204,"ce":205,"Ġcon":206,"Ġplat":207,"Ġplatform":208,"est":209,"Ġlike":210,"Ġbuild":211,"ch":212,"Ġcompany":213,"Ġne":214,"Ġsh":215,"ot":216,"out":217,"un":218,"Ġv":219,"ation":220,"ate":221,"king":222,"Ġman":223,"Ġfr":224,"Ġle":225,"Ġj":226,"ter":227,"Ġha":228,"oc":229,"Ġme":230,"Ġhelps":231,"Ġare":232,"Ġhow":233,"Ġwor":234,"and":235,"ant":236,"Ġthey":237,"Ġyour":238,"Ġor":239,"od":240,"uc":241,"ver":242,"st":243,"Ġsp":244,"are":245,"mp":246,"ustom":247,"Ġcustom":248,"Ġch":249,"Ġab":250,"ad":251,"Ġcre":252,"Ġall":253,"Ġthis":254,"Ġapp":255,"Ġde":256,"igh":257,"Ġby":258,"if":259,"vic":260,"Ġmake":261,"ial":262,"Ġfrom":263,"Ġser":264,"one":265,"ill":266,"ell":267,"ab":268,"Ġdoes":269,"Ġex":270,"ul":271,"Ġse":272,"Ġsm":273,"ob":274,"ind":275,"Ġthem":276,"iv":277,"ace":278,"ut":279,"ack":280,"Ġas":281,"Ġbuilding":282,"ents":283,"Ġwhy":284,"Ġpr":285,"Ġhe":286,"duc":287,"ants":288,"ist":289,"Ġgod":290,"ore":291,"Ġservic":292,"all":293,"Ġcompanies":294,"ans":295,"Ġmanage":296,"Ġproduc":297,"ome":298,"ine":299,"ment":300,"Ġmar":301,"Ġac":302,"Ġwe":303,"ard":304,"ket":305,"Ġso":306,"ity":307,"nt":308,"ks":309,"ect":310,"de":311,"Ġget":312,"Ġlo":313,"Ġtool":314,"ra":315,"ight":316,"ip":317,"Ġoth":318,"ure":319,"ide":320,"Ġallow":321,"Ġabout":322,"ive":323,"ort":324,"iz":325,"ass":326,"ld":327,"Ġad":328,"Ġhave":329,"Ġmarket":330,"Ġta":331,"um":332,"ĠâĢ":333,"ep":334,"lo":335,"fer":336,"Ġwants":337,"ail":338,"Ġcustomers":339,"Ġplan":340,"Ġpay":341,"Ġsa":342,"ions":343,"ings":344,"Ġmore":345,"ach":346,"Ġusers":347,"Ġfind":348,"Ġway":349,"Ġwhen":350,"Ġnew":351,"Ġexp":352,"Ġte":353,"ain":354,"âĢĿ":355,"Ġbusinesses":356,"ĠâĢľ":357,"em":358,"ie":359,"Ġservice":360,"Ġimp":361,"ime":362,"Ġat":363,"Ġhas":364,"ance":365,"als":366,"Ġwork":367,"qu":368,"Ġsmall":369,"rou":370,"Ġph":371,"Ġother":372,"Ġwho":373,"cess":374,"und":375,"ere":376,"Ġmy":377,"Ġbr":378,"Ġcl":379,"Ġpass":380,"00":381,"Ġun":382,"ft":383,"Ġk":384,"Ġbet":385,"arn":386,"Ġbut":387,"Ġfe":388,"ge":389,"Ġnot":390,"ving":391,"ign":392,"ile":393,"Ġdat":394,"Ġbec":395,"Ġsay":396,"vel":397,"aus":398,"our":399,"Ġprov":400,"kes":401,"Ġint":402,"ud":403,"able":404,"Ġproduct":405,"Ġsell":406,"act":407,"ations":408,"Ġgood":409,"Ġcreate":410,"eth":411,"Ġneed":412,"ors":413,"Ġeas":414,"Ġpassage":415,"ased":416,"Ġallows":417,"ens":418,"Ġsome":419,"ause":420,"wn":421,"ory":422,"ost":423,"Ġout":424,"ware":425,"pt":426,"Ġtime":427,"Ġup":428,"Ġdata":429,"ib":430,"Ġinv":431,"ct":432,"Ġwas":433,"Ġhis":434,"ence":435,"Ġemp":436,"line":437,"loy":438,"Ġbecause":439,"Ġwant":440,"Ġcur":441,"gh":442,"Ġcont":443,"ital":444,"Ġide":445,"Ġdid":446,"Ġtrack":447,"Ġuse":448,"Ġown":449,"ia":450,"Ġcomm":451,"Ġwill":452,"ocus":453,"Ġmean":454,"ftware":455,"Ġsoftware":456,"ire":457,"Ġlearn":458,"Ġemploy":459,"ars":460,"Ġinter":461,"oney":462,"Ġmoney":463,"Ġsy":464,"Ġfocus":465,"erson":466,"Ġshow":467,"Ġpart":468,"Ġcustomer":469,"ould":470,"Ġonline":471,"Ġinc":472,"Ġcons":473,"anc":474,"oo":475,"Ġen":476,"ame":477,"Ġmo":478,"ff":479,"alth":480,"Ġimport":481,"ah":482,"Ġspec":483,"ong":484,"row":485,"ting":486,"Ġidea":487,"Ġdes":488,"Ġ$":489,"Ġdif":490,"Ġthings":491,"Ġcurre":492,"se":493,"igital":494,"Ġperson":495,"Ġbig":496,"Ġhealth":497,"ry":498,"ub":499,"Ġconn":500,"ound":501,"Ġone":502,"very":503,"stem":504,"Ġrec":505,"Ġmed":506,"ally":507,"ments":508,"Ġsmart":509,"Ġsystem":510,"Ġdigital":511,"pl":512,"Ġres":513,"Ġsee":514,"Ġimportant":515,"Ġsup":516,"gy":517,"Ġbeing":518,"Ġoff":519,"ose":520,"Ġdiffer":521,"Ġprovid":522,"Ġset":523,"Ġsc":524,"Ġbuy":525,"low":526,"Ġemploye":527,"dit":528,"Ġke":529,"Ġcurrent":530,"Ġsom":531,"ocial":532,"Ġproducts":533,"ich":534,"ite":535,"Ġev":536,"Ġspace":537,"Ġif":538,"Ġhapp":539,"ount":540,"Ġwhere":541,"Ġcreat":542,"ize":543,"now":544,"Ġfir":545,"Ġacc":546,"Ġmakes":547,"Ġinvest":548,"Ġmeans":549,"Ġtake":550,"Ġbrand":551,"ise":552,"ice":553,"Ġweb":554,"Ġloo":555,"Ġstory":556,"Ġfin":557,"Ġdec":558,"acob":559,"Ġjacob":560,"gr":561,"Ġinto":562,"end":563,"Ġsol":564,"Ġind":565,"Ġsocial":566,"ful":567,"Ġpre":568,"Ġteam":569,"obile":570,"Ġwhich":571,"ims":572,"ites":573,"ets":574,"ood":575,"ue":576,"Ġqu":577,"ivers":578,"Ġro":579,"Ġbl":580,"ily":581,"Ġknow":582,"Ġcurrently":583,"wor":584,"Ġmobile":585,"Ġover":586,"ap":587,"Ġcredit":588,"rough":589,"ething":590,"Ġsomething":591,"fe":592,"Ġcol":593,"Ġvide":594,"Ġits":595,"ific":596,"ier":597,"velop":598,"Ġdevelop":599,"Ġspecial":600,"'t":601,"Ġworking":602,"Ġmaking":603,"Ġjob":604,"Ġgoals":605,"ath":606,"ree":607,"Ġusing":608,"ren":609,"arth":610,"Ġsupp":611,"fit":612,"Ġfam":613,"ast":614,"Ġbetter":615,"Ġemployees":616,"based":617,"Ġlets":618,"enc":619,"Ġris":620,"Ġearth":621,"Ġreal":622,"eph":623,"Ġaut":624,"Ġjos":625,"Ġservices":626,"Ġfirst":627,"Ġag":628,"Ġthrough":629,"ang":630,"Ġkeep":631,"Ġjoseph":632,"int":633,"Ġstr":634,"ech":635,"uch":636,"Ġfound":637,"ient":638,"ower":639,"Ġconnect":640,"ash":641,"Ġshare":642,"Ġent":643,"Ġund":644,"Ġmon":645,"ects":646,"xt":647,"Ġfood":648,"ear":649,"ated":650,"Ġret":651,"oses":652,"Ġprocess":653,"read":654,"Ġthen":655,"ase":656,"ual":657,"Ġbest":658,"Ġcommun":659,"Ġlist":660,"Ġfinanc":661,"ons":662,"Ġla":663,"Ġloc":664,"Ġgrow":665,"pr":666,"aging":667,"ook":668,"iend":669,"Ġdifferent":670,"hip":671,"way":672,"Ġdel":673,"ick":674,"illion":675,"Ġeasier":676,"Ġautom":677,"Ġmost":678,"Ġmoses":679,"Ġam":680,"Ġincl":681,"ves":682,"Ġco":683,"ates":684,"Ġday":685,"ical":686,"cr":687,"ning":688,"Ġcare":689,"Ġar":690,"Ġhome":691,"Ġsays":692,"Ġno":693,"Ġai":694,"Ġsal":695,"Ġright":696,"Ġtoo":697,"Ġhard":698,"Ġlooking":699,"Ġaims":700,"Ġrel":701,"Ġtra":702,"Ġfriend":703,"ience":704,"so":705,"we":706,"Ġaf":707,"Ġthan":708,"Ġdesign":709,"Ġinst":710,"Ġvideo":711,"ities":712,"Ġnet":713,"ds":714,"Ġcard":715,"rael":716,"Ġany":717,"Ġpartn":718,"get":719,"Ġback":720,"Ġfund":721,"Ġhigh":722,"Ġisrael":723,"Ġexper":724,"Ġprovides":725,"Ġ1":726,"Ġcle":727,"Ġlead":728,"Ġunivers":729,"Ġpersonal":730,"Ġmarketing":731,"Ġstay":732,"Ġoffer":733,"Ġevery":734,"Ġyes":735,"ible":736,"Ġ2":737,"Ġtech":738,"Ġfamily":739,"Ġwithout":740,"Ġban":741,"Ġcontent":742,"Ġop":743,"Ġlife":744,"Ġtry":745,"Ġdeli":746,"Ġdis":747,"ized":748,"Ġunders":749,"000":750,"ients":751,"Ġins":752,"Ġhelping":753,"tand":754,"Ġbased":755,"place":756,"Ġnetwor":757,"ify":758,"au":759,"av":760,"ink":761,"Ġsim":762,"Ġalso":763,"Ġmanagement":764,"Ġeff":765,"ult":766,"mand":767,"Ġcar":768,"ous":769,"Ġunderstand":770,"ble":771,"Ġsign":772,"Ġfail":773,"Ġeach":774,"Ġprogr":775,"Ġused":776,"ween":777,"Ġplace":778,"Ġshould":779,"Ġmany":780,"Ġhaving":781,"Ġbetween":782,"Ġem":783,"Ġuses":784,"Ġval":785,"Ġav":786,"Ġstars":787,"Ġvis":788,"les":789,"Ġthere":790,"Ġper":791,"Ġmedia":792,"ber":793,"ior":794,"Ġrest":795,"Ġsomeone":796,"ph":797,"Ġhim":798,"Ġdon":799,"Ġhappen":800,"ara":801,"Ġinform":802,"Ġless":803,"Ġtrans":804,"Ġour":805,"Ġrem":806,"Ġdeb":807,"Ġsave":808,"Ġdecis":809,"Ġsuc":810,"Ġbo":811,"Ġuniverse":812,"Ġpat":813,"Ġshar":814,"Ġsun":815,"Ġtrust":816,"Ġact":817,"Ġtravel":818,"oh":819,"ely":820,"der":821,"Ġmess":822,"Ġsame":823,"led":824,"Ġtaking":825,"ready":826,"Ġinclud":827,"Ġfinancial":828,"Ġgiv":829,"Ġalready":830,"ather":831,"Ġothers":832,"Ġconsum":833,"gan":834,"Ġbuilt":835,"Ġsupply":836,"ating":837,"ition":838,"unch":839,"Ġass":840,"ty":841,"Ġ'":842,"Ġmillion":843,"Ġtools":844,"rah":845,"Ġphara":846,"Ġwebs":847,"Ġpharaoh":848,"Ġcal":849,"round":850,"Ġtas":851,"Ġtell":852,"Ġfeel":853,"Ġprovide":854,"Ġstud":855,"ures":856,"ven":857,"ange":858,"Ġlight":859,"Ġsales":860,"raham":861,"ock":862,"Ġabraham":863,"Ġsend":864,"Ġpur":865,"ices":866,"ness":867,"Ġwr":868,"ages":869,"Ġapps":870,"atch":871,"Ġlong":872,"ists":873,"ov":874,"Ġsec":875,"ery":876,"Ġpo":877,"Ġmuch":878,"Ġorgan":879,"Ġcash":880,"Ġgive":881,"ility":882,"Ġimpro":883,"Ġkind":884,"Ġresp":885,"ater":886,"Ġwell":887,"arge":888,"Ġcompet":889,"Ġpayments":890,"Ġlearning":891,"Ġinformation":892,"lic":893,"Ġwould":894,"oun":895,"elf":896,"Ġisraelites":897,"ary":898,"own":899,"Ġjust":900,"Ġsch":901,"Ġfree":902,"Ġprom":903,"Ġmarketplace":904,"Ġexpens":905,"Ġeasy":906,"Ġindust":907,"Ġlaunch":908,"Ġincluding":909,"aur":910,"ram":911,"ward":912,"Ġplanets":913,"Ġdr":914,"thing":915,"Ġdevic":916,"Ġaccess":917,"Ġmonth":918,"Ġfriends":919,"Ġrestaur":920,"ak":921,"Ġbro":922,"Ġteach":923,"air":924,"bo":925,"Ġhand":926,"Ġaccount":927,"og":928,"aly":929,"lect":930,"Ġrisk":931,"Ġdecisions":932,"Ġproj":933,"Ġra":934,"Ġnext":935,"ether":936,"Ġretail":937,"Ġpower":938,"ish":939,"eh":940,"uit":941,"Ġanaly":942,"Ġworld":943,"Ġnetwork":944,"Ġdebt":945,"co":946,"Ġhum":947,"ict":948,"amp":949,"Ġdemand":950,"Ġsuccess":951,"ll":952,"ract":953,"Ġfol":954,"Ġmanaging":955,"Ġprior":956,"blem":957,"'re":958,"Ġproblem":959,"Ġoffers":960,"Ġallowing":961,"Ġbrands":962,"Ġpos":963,"ream":964,"Ġneeds":965,"Ġtechn":966,"Ġstartups":967,"iew":968,"Ġbring":969,"ron":970,"omm":971,"ics":972,"Ġegy":973,"Ġfocused":974,"Ġcommunic":975,"Ġlocal":976,"Ġtrying":977,"Ġtasks":978,"Ġegypt":979,"Ġthose":980,"Ġface":981,"Ġlet":982,"vert":983,"Ġphone":984,"Ġgoal":985,"Ġchat":986,"Ġclear":987,"ead":988,"Ġinsur":989,"Ġprogram":990,"Ġfollow":991,"Ġpriorit":992,"to":993,"yal":994,"Ġflow":995,"Ġdown":996,"Ġshop":997,"Ġcho":998,"Ġeng":999,"Ġ20":1000,"ovah":1001,"ehovah":1002,"reat":1003,"urn":1004,"ax":1005,"gether":1006,"Ġtw":1007,"Ġthink":1008,"Ġtogether":1009,"Ġdire":1010,"Ġaround":1011,"arch":1012,"ild":1013,"Ġeven":1014,"Ġafter":1015,"Ġexperience":1016,"Ġloyal":1017,"Ġatt":1018,"Ġdelivery":1019,"Ġconsumers":1020,"Ġimprove":1021,"ounts":1022,"Ġdirect":1023,"oid":1024,"par":1025,"Ġtal":1026,"Ġec":1027,"urs":1028,"Ġrun":1029,"ular":1030,"aac":1031,"Ġgu":1032,"Ġsearch":1033,"fits":1034,"Ġpartners":1035,"Ġfailure":1036,"Ġsharing":1037,"Ġtechnol":1038,"Ġinsurance":1039,"ied":1040,"ogy":1041,"Ġes":1042,"Ġisaac":1043,"Ġcomb":1044,"Ġprof":1045,"Ġselling":1046,"Ġlesson":1047,"Ġ3":1048,"Ġap":1049,"Ġben":1050,"Ġhot":1051,"Ġonly":1052,"Ġrep":1053,"Ġrent":1054,"Ġprice":1055,"Ġindustry":1056,"Ġfar":1057,"rep":1058,"Ġwhile":1059,"Ġstor":1060,"Ġyear":1061,"Ġphot":1062,"Ġintern":1063,"Ġcreating":1064,"ug":1065,"Ġjehovah":1066,"Ġplanning":1067,"Ġrisks":1068,"book":1069,"tion":1070,"Ġaway":1071,"Ġgra":1072,"Ġmade":1073,"Ġquick":1074,"rene":1075,"Ġentrep":1076,"Ġbank":1077,"Ġemail":1078,"Ġexpenses":1079,"Ġentreprene":1080,"Ġmeet":1081,"Ġspe":1082,"roup":1083,"Ġopen":1084,"Ġprioritize":1085,"Ġhol":1086,"oud":1087,"ouse":1088,"Ġgal":1089,"Ġgroup":1090,"ised":1091,"Ġdoct":1092,"Ġorder":1093,"ution":1094,"Ġshows":1095,"Ġart":1096,"Ġdist":1097,"Ġadvert":1098,"Ġsaving":1099,"Ġfut":1100,"Ġworks":1101,"Ġmoon":1102,"Ġtechnology":1103,"ved":1104,"Ġtar":1105,"Ġwere":1106,"Ġmist":1107,"imes":1108,"Ġmedical":1109,"Ġdevelopers":1110,"Ġfounders":1111,"Ġcombin":1112,"ually":1113,"Ġu":1114,"Ġest":1115,"Ġmach":1116,"Ġchang":1117,"Ġabram":1118,"Ġgetting":1119,"Ġbroth":1120,"Ġfuture":1121,"Ġfather":1122,"els":1123,"Ġplans":1124,"Ġmain":1125,"Ġchild":1126,"Ġpayment":1127,"Ġfunding":1128,"Ġgalax":1129,"pe":1130,"Ġbill":1131,"Ġopt":1132,"Ġneg":1133,"Ġspend":1134,"Ġlove":1135,"Ġconnects":1136,"aid":1137,"ert":1138,"Ġhire":1139,"Ġgen":1140,"ising":1141,"abor":1142,"Ġads":1143,"ten":1144,"Ġcod":1145,"Ġbook":1146,"Ġid":1147,"Ġstore":1148,"Ġform":1149,"Ġvir":1150,"Ġchange":1151,"Ġbene":1152,"Ġentrepreneurs":1153,"Ġtarget":1154,"Ġmista":1155,"Ġfre":1156,"Ġmod":1157,"Ġmight":1158,"Ġprofit":1159,"Ġmeant":1160,"ieve":1161,"Ġlisten":1162,"crip":1163,"Ġsignific":1164,"ss":1165,"Ġed":1166,"Ġsing":1167,"ough":1168,"Ġbud":1169,"ames":1170,"Ġvia":1171,"Ġvery":1172,"Ġsetting":1173,"Ġident":1174,"Ġtest":1175,"Ġdet":1176,"Ġeffic":1177,"Ġland":1178,"Ġtrad":1179,"Ġbeen":1180,"Ġexpand":1181,"Ġcloud":1182,"Ġmult":1183,"ross":1184,"uring":1185,"Ġsaas":1186,"Ġexpl":1187,"Ġcoll":1188,"Ġfacebook":1189,"gest":1190,"let":1191,"aster":1192,"Ġdoing":1193,"Ġlive":1194,"Ġmem":1195,"Ġcommon":1196,"Ġstrong":1197,"crib":1198,"Ġretailers":1199,"ky":1200,"Ġstill":1201,"Ġclients":1202,"Ġmove":1203,"board":1204,"Ġquickly":1205,"bit":1206,"ger":1207,"io":1208,"vant":1209,"Âł":1210,"Ġ(":1211,"Ġcity":1212,"ord":1213,"Ġhouse":1214,"ull":1215,"Ġadd":1216,"âĢĿ.":1217,"ways":1218,"Ġrelations":1219,"Ġrestaurants":1220,"Ġmachine":1221,"ave":1222,"ix":1223,"iqu":1224,"ple":1225,"time":1226,"tual":1227,"Ġbre":1228,"Ġfit":1229,"ession":1230,"fore":1231,"Ġmeas":1232,"Ġask":1233,"Ġpres":1234,"Ġblock":1235,"Ġpoint":1236,"Ġach":1237,"Ġmer":1238,"Ġmil":1239,"ential":1240,"ider":1241,"Ġinterest":1242,"Ġspecific":1243,"view":1244,"eles":1245,"aces":1246,"Ġalways":1247,"Ġbefore":1248,"Ġdifference":1249,"ences":1250,"Ġenter":1251,"Ġwebsite":1252,"Ġstudents":1253,"Ġsched":1254,"Ġvirtual":1255,"Ġbudget":1256,"Ġrelationship":1257,"back":1258,"ike":1259,"Ġcall":1260,"Ġpar":1261,"omes":1262,"ically":1263,"Ġdeal":1264,"Ġcommunity":1265,"Ġloyalty":1266,"Ġestate":1267,"Ġsignificance":1268,"cop":1269,"ek":1270,"vers":1271,"Ġboo":1272,"Ġhad":1273,"Ġteams":1274,"Ġavail":1275,"Ġassist":1276,"Ġsub":1277,"Ġthese":1278,"Ġcamp":1279,"Ġlow":1280,"Ġanim":1281,"chain":1282,"oti":1283,"Ġtext":1284,"Ġsupport":1285,"Ġnegoti":1286,"Ġefficient":1287,"cy":1288,"Ġteles":1289,"Ġpaid":1290,"Ġmet":1291,"Ġob":1292,"Ġold":1293,"Ġlot":1294,"Ġlarge":1295,"Ġearn":1296,"Ġplay":1297,"Ġfew":1298,"Ġfeat":1299,"Ġdesigned":1300,"Ġgrav":1301,"Ġtelescop":1302,"egr":1303,"Ġmus":1304,"ises":1305,"Ġnight":1306,"Ġacross":1307,"Ġdescrib":1308,"Ġeverything":1309,"Ġraised":1310,"Ġcollabor":1311,"Ġast":1312,"erce":1313,"itor":1314,"Ġtakes":1315,"Ġintegr":1316,"Ġconsider":1317,"Ġpartner":1318,"Ġvalue":1319,"Ġavoid":1320,"Ġsingle":1321,"ique":1322,"Ġavailable":1323,"Ġgravity":1324,"Ġmusic":1325,"ears":1326,"Ġsl":1327,"Ġwater":1328,"Ġpub":1329,"Ġstarting":1330,"Ġreven":1331,"Ġfinding":1332,"Ġinvent":1333,"Ġprofession":1334,"Ġgener":1335,"dict":1336,"iring":1337,"Ġname":1338,"Ġprot":1339,"Ġbuilds":1340,"Ġrevenue":1341,"ues":1342,"Ġty":1343,"Ġcount":1344,"ond":1345,"Ġnon":1346,"Ġnum":1347,"Ġcompare":1348,"Ġreally":1349,"Ġsav":1350,"Ġfeed":1351,"Ġhappens":1352,"ency":1353,"Ġastron":1354,"Ġinventory":1355,"wh":1356,"Ġair":1357,"Ġsur":1358,"Ġcost":1359,"Ġgro":1360,"Ġgame":1361,"Ġoften":1362,"earch":1363,"Ġesau":1364,"Ġbenefits":1365,"Ġblockchain":1366,"ries":1367,"ys":1368,"Ġthing":1369,"Ġsure":1370,"Ġgr":1371,"Ġgreat":1372,"Ġreg":1373,"osts":1374,"Ġconst":1375,"Ġincre":1376,"Ġresearch":1377,"Ġsolution":1378,"Ġsimple":1379,"Ġ201":1380,"pro":1381,"ruit":1382,"tle":1383,"ines":1384,"iting":1385,"ention":1386,"Ġang":1387,"Ġbeh":1388,"Ġboth":1389,"ommerce":1390,"care":1391,"ges":1392,"Ġput":1393,"Ġfl":1394,"Ġim":1395,"Ġlab":1396,"acking":1397,"Ġitem":1398,"Ġeasily":1399,"Ġaccounts":1400,"Ġinvestment":1401,"Ġjobs":1402,"Ġpurch":1403,"Ġdevices":1404,"ool":1405,"ses":1406,"uce":1407,"Ġcour":1408,"Ġcrow":1409,"Ġport":1410,"Ġapplic":1411,"ights":1412,"ains":1413,"Ġrecruit":1414,"pres":1415,"Ġeffect":1416,"Ġmistakes":1417,"Ġsubs":1418,"Ġdescribe":1419,"apt":1420,"br":1421,"bot":1422,"duce":1423,"ule":1424,"ones":1425,"Ġhon":1426,"Ġstep":1427,"ety":1428,"Ġbur":1429,"Ġread":1430,"Ġreward":1431,"Ġrepres":1432,"Ġmanag":1433,"Ġcla":1434,"Ġcontract":1435,"Ġevents":1436,"auts":1437,"avor":1438,"Ġdoctors":1439,"Ġcode":1440,"Ġidentify":1441,"Ġastronauts":1442,"'?":1443,"ser":1444,"Ġsens":1445,"ator":1446,"erm":1447,"ality":1448,"Ġnow":1449,"tern":1450,"lood":1451,"Ġunique":1452,"Ġinteract":1453,"Ġorganiz":1454,"Ġmultip":1455,"Ġassistant":1456,"Ġsavings":1457,"aign":1458,"Ġel":1459,"Ġaud":1460,"Ġwal":1461,"Ġseed":1462,"Ġemployers":1463,"Ġbuying":1464,"Ġpredict":1465,"prise":1466,"Ġoffering":1467,"Ġdeliver":1468,"Ġwebsites":1469,"Ġadvertising":1470,"Ġbrothers":1471,"Ġanimals":1472,"az":1473,"sh":1474,"ude":1475,"Ġaff":1476,"ative":1477,"Ġfaster":1478,"Ġmatch":1479,"Ġstream":1480,"ilar":1481,"Ġrece":1482,"Ġuser":1483,"ables":1484,"Ġworkers":1485,"Ġvideos":1486,"Ġautomat":1487,"Ġinstead":1488,"Ġgiving":1489,"Ġproject":1490,"Ġposs":1491,"Ġengine":1492,"Ġuk":1493,"Ġachieve":1494,"Ġcampaign":1495,"Ġfeedback":1496,"ruc":1497,"Ġcosts":1498,"Ġfavor":1499,"Ġgl":1500,"iss":1501,"Ġrequ":1502,"ther":1503,"Ġprices":1504,"Ġplanet":1505,"Ġblack":1506,"Ġoper":1507,"Ġsimilar":1508,"Ġprojects":1509,"Ġchildren":1510,"Ġfreel":1511,"cription":1512,"Ġnumber":1513,"bers":1514,"Ġself":1515,"Ġcars":1516,"arly":1517,"Ġhiring":1518,"Ġyears":1519,"Ġtracking":1520,"Ġsafe":1521,"phone":1522,"Ġpurp":1523,"Ġdevice":1524,"Ġphotos":1525,"Ġmeasure":1526,"ians":1527,"just":1528,"Ġtimes":1529,"Ġcent":1530,"rol":1531,"eck":1532,"Ġdep":1533,"Ġexist":1534,"Ġhealthcare":1535,"Ġsystems":1536,"Ġkey":1537,"Ġevent":1538,"Ġinvestors":1539,"Ġcollect":1540,"Ġmonitor":1541,"Ġleaders":1542,"Ġvisual":1543,"sel":1544,"ern":1545,"Ġwom":1546,"Ġbal":1547,"Ġmay":1548,"Ġduring":1549,"Ġcome":1550,"Ġref":1551,"Ġadjust":1552,"ourc":1553,"Ġindia":1554,"Ġpatients":1555,"Ġtwo":1556,"commerce":1557,"Ġ5":1558,"Ġsan":1559,"red":1560,"Ġstand":1561,"icing":1562,"Ġlook":1563,"Ġbless":1564,"ral":1565,"Ġve":1566,"Ġpot":1567,"Ġpast":1568,"Ġfair":1569,"itch":1570,"Ġpriv":1571,"Ġrespect":1572,"Ġhumans":1573,"Ġchanges":1574,"Ġspending":1575,"where":1576,"Ġmultiple":1577,"face":1578,"ious":1579,"power":1580,"uf":1581,"Ġbad":1582,"Ġhomes":1583,"Ġdail":1584,"Ġprop":1585,"ote":1586,"Ġappro":1587,"Ġheart":1588,"Ġautomate":1589,"Ġamaz":1590,"Ġperform":1591,"Ġmessaging":1592,"Ġdirectly":1593,"Ġspeed":1594,"Ġitems":1595,"Ġclaims":1596,"Ġdaily":1597,"lip":1598,"lish":1599,"Ġturn":1600,"Ġcities":1601,"Ġreview":1602,"Ġgoog":1603,"Ġtrain":1604,"Ġchar":1605,"Ġloans":1606,"Ġbeta":1607,"ource":1608,"Ġproviding":1609,"Ġemployee":1610,"Ġnoah":1611,"Ġeclip":1612,"Ġenterprise":1613,"Ġmete":1614,"Ġautomatically":1615,"Ġpurpose":1616,"rib":1617,"Ġtre":1618,"Ġsons":1619,"ests":1620,"Ġeat":1621,"Ġgoing":1622,"osp":1623,"Ġcontrol":1624,"Ġagain":1625,"Ġclean":1626,"Ġanalyz":1627,"Ġgroc":1628,"Ġpotential":1629,"ake":1630,"Ġhop":1631,"Ġhosp":1632,"Ġreach":1633,"Ġano":1634,"cept":1635,"ules":1636,"Ġloan":1637,"Ġtax":1638,"Ġpaying":1639,"ember":1640,"Ġphys":1641,"Ġowners":1642,"Ġquest":1643,"Ġcalled":1644,"Ġmonthly":1645,"Ġcommunicate":1646,"Ġinternet":1647,"Ġgoogle":1648,"Ġaar":1649,"itive":1650,"Ġconf":1651,"Ġvar":1652,"Ġvers":1653,"ife":1654,"Ġext":1655,"Ġgoods":1656,"Ġmov":1657,"Ġsolar":1658,"Ġdevelopment":1659,"Ġstrate":1660,"Ġactiv":1661,"Ġgives":1662,"Ġapart":1663,"Ġfeatures":1664,"Ġaaron":1665,"uter":1666,"Ġmind":1667,"Ġearly":1668,"Ġliving":1669,"allen":1670,"Ġclose":1671,"Ġsells":1672,"rypt":1673,"Ġrecip":1674,"Ġleader":1675,"Ġsuccessful":1676,"Ġgalaxies":1677,"Ġmodel":1678,"Ġtelescopes":1679,"selves":1680,"uth":1681,"Ġsin":1682,"Ġbillion":1683,"Ġtop":1684,"ale":1685,"Ġinf":1686,"ases":1687,"Ġend":1688,"urity":1689,"Ġleave":1690,"Ġche":1691,"Ġchallen":1692,"Ġcolle":1693,"Ġdisco":1694,"Ġprogress":1695,"Ġsecure":1696,"Ġhuman":1697,"Ġshopp":1698,"Ġaffect":1699,"gor":1700,"less":1701,"ms":1702,"sw":1703,"tics":1704,"Ġaim":1705,"Ġcr":1706,"Ġcould":1707,"Ġbel":1708,"Ġcharge":1709,"Ġdoesn":1710,"Ġseas":1711,"Ġthemselves":1712,"ivid":1713,"Ġwanted":1714,"Ġwilling":1715,"Ġlocation":1716,"Ġinclude":1717,"Ġdisc":1718,"Ġwrong":1719,"Ġanalytics":1720,"Ġtradition":1721,"Ġlaban":1722,"Ġcontractors":1723,"cum":1724,"fol":1725,"ipp":1726,"ne":1727,"Ġtent":1728,"Ġcap":1729,"Ġfil":1730,"Ġfull":1731,"lex":1732,"Ġlit":1733,"Ġcards":1734,"Ġremember":1735,"Ġpatient":1736,"Ġpromises":1737,"Ġchatbot":1738,"Ġstores":1739,"Ġmilky":1740,"Ġprofessionals":1741,"Ġcampaigns":1742,"Ġprivate":1743,"Ġphysical":1744,"tions":1745,"Ġsuch":1746,"Ġcut":1747,"Ġdream":1748,"Ġnames":1749,"Ġcand":1750,"Ġconc":1751,"Ġword":1752,"Ġways":1753,"Ġdidn":1754,"Ġconsist":1755,"Ġpersonalized":1756,"Ġmessage":1757,"Ġschool":1758,"Ġoptions":1759,"Ġmerch":1760,"Ġobj":1761,"Ġcollaborate":1762,"Ġconstell":1763,"Ġincrease":1764,"Ġsubscription":1765,"Ġhonest":1766,"Ġfavorite":1767,".âĢĿ":1768,"arm":1769,"Ġmin":1770,"Ġdash":1771,"Ġreduce":1772,"Ġmaint":1773,"Ġshe":1774,"Ġmanuf":1775,"Ġlend":1776,"Ġcheck":1777,"iven":1778,"kets":1779,"Ġideas":1780,"Ġsolve":1781,"Ġquality":1782,"Ġautomated":1783,"Ġsecurity":1784,"Ġbills":1785,"Ġprotect":1786,"Ġcrowd":1787,"Ġportfol":1788,"Ġpossible":1789,"Ġmeteor":1790,"Ġanother":1791,"Ġmanufact":1792,"Ġbible":1793,"Ġmen":1794,"Ġher":1795,"Ġhur":1796,"reen":1797,"Ġcomputer":1798,"Ġtrue":1799,"vern":1800,"ives":1801,"Ġpricing":1802,"Ġadapt":1803,"Ġnews":1804,"Ġtemp":1805,"Ġshowing":1806,"Ġenables":1807,"Ġbiggest":1808,"Ġsmartphone":1809,"Ġfamil":1810,"Ġbanks":1811,"Ġtranspar":1812,"Ġrestaurant":1813,"Ġhandle":1814,"Ġcommunication":1815,"ugg":1816,"Ġrepresent":1817,"powered":1818,"Ġtraditional":1819,"dr":1820,"ium":1821,"iety":1822,"ric":1823,"Ġwin":1824,"Ġfun":1825,"Ġmat":1826,"Ġinde":1827,"Ġgif":1828,"Ġreb":1829,"Ġlives":1830,"Ġansw":1831,"Ġtrip":1832,"term":1833,"Ġorbit":1834,"ellig":1835,"aper":1836,"Ġconnecting":1837,"Ġfinances":1838,"Ġhappening":1839,"ledge":1840,"Ġmembers":1841,"Ġbalance":1842,"ribut":1843,"Ġlittle":1844,"Ġdashboard":1845,"bor":1846,"iences":1847,"Ġ4":1848,"Ġthough":1849,"ann":1850,"Ġyet":1851,"Ġplaces":1852,"Ġgovern":1853,"Ġarea":1854,"Ġdef":1855,"Ġmoving":1856,"uber":1857,"Ġindivid":1858,"Ġhappened":1859,"Ġtransact":1860,"Ġproblems":1861,"ertain":1862,"Ġnegotiation":1863,"Ġcountries":1864,"aking":1865,"like":1866,"Ġbang":1867,"Ġmot":1868,"Ġhr":1869,"roll":1870,"Ġability":1871,"demand":1872,"Ġgets":1873,"Ġscore":1874,"Ġdeveloping":1875,"Ġfounder":1876,"Ġunder":1877,"Ġ10":1878,"Ġorganize":1879,"Ġrespons":1880,"Ġcombinator":1881,"Ġgalaxy":1882,"Ġamazon":1883,"oint":1884,"Ġtic":1885,"ford":1886,"Ġrules":1887,"Ġalt":1888,"Ġvo":1889,"Ġable":1890,"load":1891,"Ġener":1892,"Ġscient":1893,"Ġcreated":1894,"angu":1895,"Ġark":1896,"Ġschedule":1897,"Ġbooks":1898,"iec":1899,"vent":1900,"Ġking":1901,"Ġson":1902,"Ġsite":1903,"Ġwatch":1904,"Ġwife":1905,"ords":1906,"Ġpost":1907,"Ġpiec":1908,"onom":1909,"Ġlangu":1910,"isco":1911,"acts":1912,"Ġvent":1913,"Ġchain":1914,"iving":1915,"izing":1916,"Ġintellig":1917,"Ġhappy":1918,"Ġdecide":1919,"Ġprep":1920,"Ġagents":1921,"Ġfounded":1922,"Ġgrowing":1923,"Ġvisit":1924,"Ġlaunched":1925,"Ġrunning":1926,"Ġrelationships":1927,"Ġfreelanc":1928,"Ġseasons":1929,"Ġenergy":1930,"ress":1931,"yle":1932,"Ġuber":1933,"Ġcrypt":1934,"Ġpop":1935,"Ġbit":1936,"Ġfast":1937,"Ġgames":1938,"icro":1939,"Ġcomplet":1940,"Ġconvers":1941,"Ġfranc":1942,"Ġjud":1943,"ability":1944,"Ġinterface":1945,"Ġrecomm":1946,"Ġinvestments":1947,"Ġroom":1948,"Ġafford":1949,"Ġanyone":1950,"Ġchoices":1951,"Ġguid":1952,"Ġapi":1953,"ekah":1954,"Ġpublish":1955,"Ġregular":1956,"Ġmanagers":1957,"Ġapproach":1958,"Ġquestions":1959,"Ġshopping":1960,"Ġrebekah":1961,"Ġfrancisco":1962,"Ġrecommend":1963,"ee":1964,"Ġsk":1965,"Ġce":1966,"Ġfix":1967,"Ġflood":1968,"Ġmiss":1969,"Ġiss":1970,"Ġrates":1971,"ceed":1972,"Ġshort":1973,"Ġservant":1974,"Ġbecome":1975,"Ġslack":1976,"Ġglob":1977,"Ġperformance":1978,"Ġcandid":1979,"Ġaltar":1980,"Ġscientists":1981,"aut":1982,"ling":1983,"ps":1984,"Ġtab":1985,"esus":1986,"Ġband":1987,"Ġmom":1988,"Ġmicro":1989,"Ġelect":1990,"Ġhelped":1991,"Ġlived":1992,"the":1993,"Ġlevel":1994,"Ġjour":1995,"Ġjesus":1996,"Ġworth":1997,"ively":1998,"Ġwear":1999,"Ġproviders":2000,"Ġscale":2001,"Ġrole":2002,"Ġknowledge":2003,"Ġremote":2004,"Ġattention":2005,"Ġdeterm":2006,"Ġrecipe":2007,"Ġfamilies":2008,"Ġintelligence":2009,"app":2010,"ffor":2011,"ked":2012,"oy":2013,"Ġpitch":2014,"Ġfa":2015,"Ġlower":2016,"Ġeffor":2017,"acle":2018,"Ġcomets":2019,"Ġrele":2020,"Ġalgor":2021,"Ġview":2022,"Ġsmaller":2023,"ired":2024,"Ġincome":2025,"Ġcreates":2026,"Ġinvesting":2027,"Ġlaw":2028,"Ġgrowth":2029,"Ġdays":2030,"Ġexperiences":2031,"Ġcompetition":2032,"Ġchoose":2033,"Ġdistribut":2034,"Ġconstellations":2035,"Ġvoice":2036,"Ġalgorith":2037,"ders":2038,"day":2039,"yc":2040,"Ġsac":2041,"Ġside":2042,"Ġcor":2043,"Ġcam":2044,"Ġpol":2045,"Ġment":2046,"Ġmass":2047,"Ġopp":2048,"etimes":2049,"Ġforg":2050,"Ġrach":2051,"Ġplatforms":2052,"Ġnear":2053,"ational":2054,"Ġpray":2055,"Ġexpect":2056,"Ġoffice":2057,"Ġsometimes":2058,"Ġroad":2059,"work":2060,"Ġagree":2061,"Ġreturn":2062,"Ġvalu":2063,"Ġshared":2064,"Ġcompete":2065,"Ġpromise":2066,"Ġcalls":2067,"Ġtyp":2068,"Ġrewards":2069,"Ġorganizations":2070,"Ġelse":2071,"Ġreceive":2072,"ernacle":2073,"Ġwomen":2074,"Ġvariety":2075,"Ġversion":2076,"Ġdiscover":2077,"Ġfreelancers":2078,"Ġtabernacle":2079,"Ġrachel":2080,"ging":2081,"head":2082,"pect":2083,"person":2084,"Ġsum":2085,"Ġpull":2086,"Ġtoward":2087,"Ġfig":2088,"ark":2089,"Ġmid":2090,"Ġhist":2091,"Ġdest":2092,"Ġstop":2093,"ilities":2094,"Ġcoming":2095,"Ġgot":2096,"urren":2097,"ocks":2098,"ocurren":2099,"Ġmarkets":2100,"ĠâĢĶ":2101,"Ġpayroll":2102,"irement":2103,"Ġprepar":2104,"Ġreli":2105,"Ġguide":2106,"Ġexisting":2107,"Ġmatter":2108,"Ġcryptocurren":2109,"Ġglobal":2110,"ban":2111,"ian":2112,"mers":2113,"te":2114,"ork":2115,"Ġbar":2116,"Ġtouch":2117,"Ġhost":2118,"Ġstations":2119,"Ġlar":2120,"Ġlink":2121,"Ġgold":2122,"Ġappoint":2123,"Ġfee":2124,"Ġbigger":2125,"Ġroc":2126,"Ġstrugg":2127,"Ġretirement":2128,"Ġcover":2129,"Ġstudent":2130,"Ġraise":2131,"Ġegyptians":2132,"Ġfollowing":2133,"ording":2134,"Ġbreak":2135,"Ġparents":2136,"Ġpublic":2137,"Ġtype":2138,"Ġimages":2139,"ralized":2140,"Ġmerchants":2141,"Ġportfolio":2142,"Ġanswer":2143,"Ġfigure":2144,"20":2145,"cul":2146,"come":2147,"ex":2148,"gth":2149,"joy":2150,"Ġtreat":2151,"Ġahead":2152,"Ġsw":2153,"ats":2154,"Ġbor":2155,"Ġmag":2156,"Ġdone":2157,"Ġstock":2158,"Ġgas":2159,"Ġequ":2160,"ides":2161,"Ġleg":2162,"ands":2163,"vice":2164,"Ġaccept":2165,"âĢĿ,":2166,"Ġclass":2167,"Ġenjoy":2168,"Ġcurren":2169,"ape":2170,"Ġamount":2171,"Ġeveryone":2172,"Ġunderstanding":2173,"Ġgiven":2174,"Ġeconom":2175,"Ġmeetings":2176,"Ġholy":2177,"Ġholes":2178,"Ġdoctor":2179,"Ġtesting":2180,"Ġbooking":2181,"Ġbehav":2182,"Ġpurchase":2183,"Ġeffective":2184,"Ġsince":2185,"Ġconsistent":2186,"Ġtickets":2187,"by":2188,"fic":2189,"self":2190,"uite":2191,"ĠĊ":2192,"ins":2193,"Ġclo":2194,"Ġcaus":2195,"Ġwent":2196,"Ġpu":2197,"Ġpill":2198,"Ġbra":2199,"Ġdark":2200,"Ġrate":2201,"Ġbeaut":2202,"Ġwords":2203,"Ġdeals":2204,"ials":2205,"Ġexc":2206,"Ġadv":2207,"Ġadam":2208,"Ġsaying":2209,"ense":2210,"Ġpartic":2211,"Ġbuyers":2212,"Ġfinance":2213,"hips":2214,"Ġvalues":2215,"Ġcalcul":2216,"Ġwrite":2217,"Ġpowerful":2218,"Ġartists":2219,"Ġoptim":2220,"Ġrecruiting":2221,"Ġsteps":2222,"Ġcapital":2223,"Ġmanufactur":2224,"Ġtransactions":2225,"Ġcandidates":2226,"Ġdetermine":2227,"iver":2228,"ole":2229,"ried":2230,"ters":2231,"Ġsuite":2232,"Ġpack":2233,"Ġbas":2234,"Ġfac":2235,"aring":2236,"Ġhour":2237,"ened":2238,"outs":2239,"Ġstation":2240,"Ġyork":2241,"Ġwithin":2242,"Ġride":2243,"Ġconfer":2244,"Ġshipp":2245,"Ġareas":2246,"Ġexch":2247,"Ġasking":2248,"Ġsaf":2249,"Ġkid":2250,"Ġfocusing":2251,"Ġimportance":2252,"ificial":2253,"Ġkeeping":2254,"Ġcoff":2255,"Ġcareful":2256,"Ġsale":2257,"Ġ100":2258,"Ġmessages":2259,"Ġconsumer":2260,"Ġlaunching":2261,"Ġartificial":2262,"Ġbrother":2263,"Ġeduc":2264,"Ġapplications":2265,"Ġsense":2266,"Ġgrocery":2267,"Ġmovie":2268,"Ġprepare":2269,"Ġaffordable":2270,"Ġcamer":2271,"Ġsumm":2272,"Ġbehavior":2273,"'ll":2274,"lu":2275,"mart":2276,"set":2277,"ining":2278,"Ġsle":2279,"erc":2280,"eric":2281,"Ġple":2282,"Ġpet":2283,"Ġfact":2284,"Ġfire":2285,"Ġdivers":2286,"rop":2287,"Ġones":2288,"agram":2289,"osing":2290,"Ġleft":2291,"Ġchann":2292,"utions":2293,"Ġimpact":2294,"Ġinterests":2295,"Ġinstagram":2296,"Ġnetworks":2297,"Ġremind":2298,"Ġsending":2299,"Ġaccounting":2300,"Ġattract":2301,"Ġhotel":2302,"Ġpresent":2303,"Ġpresence":2304,"Ġaudience":2305,"ources":2306,"Ġhospital":2307,"Ġobjects":2308,"Ġpopular":2309,"10":2310,"aan":2311,"do":2312,"iel":2313,"mit":2314,"oot":2315,"ring":2316,"Ġauth":2317,"Ġsar":2318,"Ġsource":2319,"orts":2320,"Ġpict":2321,"Ġbike":2322,"Ġmount":2323,"Ġstarted":2324,"Ġlif":2325,"Ġlibr":2326,"amed":2327,"Ġcanaan":2328,"teroid":2329,"antly":2330,"ody":2331,"uling":2332,"Ġasteroid":2333,"ibility":2334,"Ġrecords":2335,"Ġmedic":2336,"Ġsuppl":2337,"Ġscreen":2338,"Ġanywhere":2339,"Ġpattern":2340,"venant":2341,"Ġletting":2342,"Ġtalks":2343,"Ġgroups":2344,"Ġlistening":2345,"Ġapplication":2346,"Ġcenter":2347,"Ġeclipses":2348,"Ġinflu":2349,"Ġlanguage":2350,"Ġmoment":2351,"Ġcoffee":2352,"Ġsleep":2353,"Ġsarah":2354,"be":2355,"ker":2356,"zz":2357,"erg":2358,"Ġdi":2359,"itter":2360,"use":2361,"ilt":2362,"Ġnav":2363,"Ġusually":2364,"oss":2365,"Ġpeer":2366,"Ġtrou":2367,"Ġhabit":2368,"Ġspread":2369,"Ġhead":2370,"istic":2371,"Ġmars":2372,"raid":2373,"Ġbright":2374,"Ġunc":2375,"Ġupload":2376,"Ġshowers":2377,"Ġcreators":2378,"rength":2379,"encies":2380,"Ġconnected":2381,"Ġcovenant":2382,"Ġafraid":2383,"Ġsimpl":2384,"Ġdecision":2385,"Ġchanging":2386,"Ġfitness":2387,"Ġscheduling":2388,"Ġcourses":2389,"Ġ50":2390,"Ġtraining":2391,"Ġanalyze":2392,"Ġcollege":2393,"ney":2394,"Ġmaintain":2395,"Ġlending":2396,"Ġcomplete":2397,"Ġhistory":2398,"Ġcryptocurrency":2399,"Ġappointments":2400,"Ġlegal":2401,"Ġmanufacturers":2402,"'m":2403,"aving":2404,"fund":2405,"ken":2406,"kers":2407,"light":2408,"ming":2409,"racts":2410,"ture":2411,"Ġing":2412,"Ġtable":2413,"Ġsites":2414,"eries":2415,"Ġpain":2416,"ared":2417,"Ġste":2418,"Ġdoor":2419,"Ġround":2420,"Ġnever":2421,"Ġspot":2422,"abase":2423,"Ġsever":2424,"Ġlog":2425,"Ġclos":2426,"Ġdatabase":2427,"Ġparty":2428,"Ġenough":2429,"Ġevil":2430,"Ġameric":2431,"Ġbox":2432,"Ġboard":2433,"Ġactions":2434,"Ġcompetitive":2435,"Ġteaches":2436,"Ġpartnership":2437,"profits":2438,"Ġhurt":2439,"Ġgovernment":2440,"Ġventure":2441,"Ġtowards":2442,"Ġexchange":2443,"Ġnavig":2444,"flow":2445,"hic":2446,"pend":2447,"rom":2448,"Ġz":2449,"ination":2450,"Ġthree":2451,"Ġsent":2452,"Ġslow":2453,"Ġblood":2454,"ret":2455,"Ġstrength":2456,"ires":2457,"irst":2458,"Ġdocum":2459,"ural":2460,"Ġrout":2461,"Ġaltern":2462,"Ġasks":2463,"raph":2464,"ortun":2465,"Ġsaid":2466,"Ġsellers":2467,"Ġcontracts":2468,"Ġdiffic":2469,"Ġfirm":2470,"Ġaccording":2471,"Ġsucceed":2472,"Ġcalm":2473,"Ġmonths":2474,"aker":2475,"Ġprograms":2476,"Ġtalent":2477,"Ġtalking":2478,"Ġfarmers":2479,"Ġexplain":2480,"Ġpurchases":2481,"Ġburn":2482,"Ġblessing":2483,"Ġeclipse":2484,"Ġcleaning":2485,"Ġstrateg":2486,"Ġstrategy":2487,"Ġchallenges":2488,"Ġtransparent":2489,"Ġsacr":2490,"Ġopportun":2491,"Ġingred":2492,"Ġdocuments":2493,"Ġdifficult":2494,"Ġsug":2495,"Ġcir":2496,"Ġwa":2497,"Ġwis":2498,"Ġpick":2499,"Ġpaper":2500,"Ġbrow":2501,"Ġhole":2502,"Ġoil":2503,"Ġgard":2504,"Ġplant":2505,"Ġorders":2506,"Ġpries":2507,"Ġadvant":2508,"Ġtracks":2509,"Ġlearned":2510,"Ġinterview":2511,"Ġcreative":2512,"Ġdecent":2513,"Ġprefer":2514,"Ġagencies":2515,"Ġhardware":2516,"Ġvision":2517,"Ġassets":2518,"Ġteachers":2519,"ograph":2520,"ample":2521,"Ġtwitter":2522,"Ġreport":2523,"Ġasked":2524,"Ġtelescope":2525,"Ġprofessional":2526,"Ġbehind":2527,"Ġcourse":2528,"Ġvehic":2529,"Ġguidance":2530,"Ġissues":2531,"Ġreliable":2532,"Ġpuzz":2533,"Ġinfluenc":2534,"Ġingredients":2535,"Ġpuzzle":2536,"com":2537,"man":2538,"per":2539,"sc":2540,"vir":2541,"Ġouts":2542,"Ġtree":2543,"Ġcou":2544,"oring":2545,"Ġpod":2546,"Ġbread":2547,"Ġhous":2548,"its":2549,"itals":2550,"Ġey":2551,"ird":2552,"Ġdog":2553,"Ġhelpful":2554,"old":2555,"Ġpeace":2556,"urring":2557,"ified":2558,"Ġpract":2559,"Ġbrings":2560,"iled":2561,"ube":2562,"Ġdesigners":2563,"Ġfunds":2564,"Ġbanking":2565,"Ġperf":2566,"Ġactually":2567,"Ġwriting":2568,"Ġdrivers":2569,"Ġhands":2570,"Ġengage":2571,"Ġphoto":2572,"Ġmeeting":2573,"Ġmistake":2574,"Ġplaying":2575,"Ġangry":2576,"Ġproper":2577,"driven":2578,"Ġthought":2579,"Ġjudah":2580,"Ġelectric":2581,"Ġjourney":2582,"Ġvaluable":2583,"Ġeconomy":2584,"Ġasteroids":2585,"Ġgarden":2586,"Ġdecentralized":2587,"bu":2588,"cts":2589,"dom":2590,"first":2591,"iers":2592,"kit":2593,"kay":2594,"mb":2595,"med":2596,"of":2597,"smart":2598,"ump":2599,"Ġur":2600,"Ġens":2601,"Ġtv":2602,"Ġthin":2603,"Ġsize":2604,"Ġsky":2605,"ores":2606,"ories":2607,"ont":2608,"Ġfill":2609,"aries":2610,"Ġios":2611,"used":2612,"Ġeph":2613,"Ġcomes":2614,"Ġreas":2615,"Ġpros":2616,"Ġlimit":2617,"Ġrather":2618,"Ġneigh":2619,"Ġvac":2620,"Ġcustomized":2621,"Ġchains":2622,"Ġapply":2623,"Ġexample":2624,"Ġseen":2625,"Ġsepar":2626,"ivity":2627,"Ġphil":2628,"Ġphones":2629,"Ġneeded":2630,"Ġupset":2631,"Ġinvo":2632,"Ġinvol":2633,"Ġrecurring":2634,"Ġscience":2635,"Ġinstruc":2636,"Ġleads":2637,"Ġpoor":2638,"Ġkinds":2639,"Ġrespond":2640,"ogn":2641,"Ġtalk":2642,"Ġ30":2643,"Ġprofitable":2644,"Ġefficiently":2645,"Ġintegrate":2646,"Ġinteractive":2647,"Ġaudio":2648,"Ġengineers":2649,"Ġoperations":2650,"Ġtrend":2651,"Ġhospitals":2652,"Ġbelieve":2653,"Ġdiscounts":2654,"Ġminim":2655,"born":2656,"Ġindividual":2657,"Ġmotiv":2658,"Ġfaith":2659,"Ġlibrary":2660,"Ġhabits":2661,"Ġseveral":2662,"Ġbrowser":2663,"50":2664,"emp":2665,"found":2666,"gre":2667,"iate":2668,"ner":2669,"social":2670,"uals":2671,"Ġ8":2672,"Ġer":2673,"Ġess":2674,"Ġthird":2675,"Ġwarm":2676,"Ġpers":2677,"Ġpil":2678,"Ġpun":2679,"Ġdie":2680,"itors":2681,"Ġokay":2682,"Ġsta":2683,"Ġstocks":2684,"asing":2685,"acy":2686,"ows":2687,"ently":2688,"Ġcomput":2689,"Ġonce":2690,"Ġcann":2691,"Ġann":2692,"Ġworried":2693,"Ġyourself":2694,"iful":2695,"ults":2696,"ute":2697,"Ġworkflow":2698,"Ġsymb":2699,"Ġparts":2700,"Ġrecogn":2701,"Ġcreator":2702,"Ġaccur":2703,"Ġsold":2704,"Ġprevent":2705,"Ġtook":2706,"Ġbacked":2707,"augh":2708,"Ġemot":2709,"Ġlonger":2710,"Ġaccessible":2711,"Ġcombination":2712,"peer":2713,"criptions":2714,"Ġdetect":2715,"Ġfeature":2716,"Ġdepend":2717,"Ġvend":2718,"Ġagainst":2719,"Ġtaxes":2720,"Ġapartment":2721,"Ġaiming":2722,"Ġgift":2723,"Ġmental":2724,"Ġagreement":2725,"Ġcurrency":2726,"Ġparticular":2727,"Ġshipping":2728,"Ġcamera":2729,"Ġpatterns":2730,"Ġpodc":2731,"Ġessential":2732,"Ġpunish":2733,"Ġsymbol":2734,"den":2735,"ever":2736,"ma":2737,"tube":2738,"ugh":2739,"vest":2740,"erat":2741,"Ġcoo":2742,"Ġcame":2743,"Ġwon":2744,"Ġbot":2745,"Ġfall":2746,"Ġfoot":2747,"Ġmill":2748,"Ġhag":2749,"Ġdaugh":2750,"Ġgain":2751,"Ġeating":2752,"Ġyoutube":2753,"Ġreplace":2754,"Ġrule":2755,"Ġtruth":2756,"Ġleaving":2757,"Ġmeal":2758,"Ġspo":2759,"Ġspaces":2760,"ade":2761,"raw":2762,"raft":2763,"izes":2764,"Ġatm":2765,"Ġenvir":2766,"ffic":2767,"Ġprocesses":2768,"Ġanything":2769,"Ġtask":2770,"Ġtelling":2771,"Ġindustries":2772,"Ġdrive":2773,"box":2774,"Ġformer":2775,"Ġexplore":2776,"Ġmember":2777,"Ġinterested":2778,"Ġwalk":2779,"Ġstreamline":2780,"Ġfreelance":2781,"Ġwoman":2782,"Ġcharges":2783,"Ġhopes":2784,"Ġmovies":2785,"Ġactivity":2786,"Ġactivities":2787,"Ġtemperat":2788,"Ġindepend":2789,"Ġ40":2790,"Ġprepared":2791,"Ġlinked":2792,"Ġeducation":2793,"Ġchannels":2794,"Ġtrouble":2795,"funding":2796,"Ġalternative":2797,"Ġsuggest":2798,"Ġadvantage":2799,"Ġproperty":2800,"Ġhagar":2801,"Ġenviron":2802,"30":2803,"bn":2804,"bs":2805,"dle":2806,"ler":2807,"over":2808,"uff":2809,"Ġ-":2810,"Ġball":2811,"Ġful":2812,"Ġfash":2813,"Ġmor":2814,"Ġmention":2815,"Ġhund":2816,"Ġdom":2817,"Ġground":2818,"ister":2819,"acec":2820,"Ġyum":2821,"Ġnamed":2822,"Ġonboard":2823,"Ġmap":2824,"Ġanc":2825,"une":2826,"Ġven":2827,"Ġspir":2828,"Ġspacec":2829,"Ġapple":2830,"Ġseries":2831,"Ġexec":2832,"Ġtail":2833,"log":2834,"Ġfees":2835,"Ġproductivity":2836,"Ġfocuses":2837,"ances":2838,"Ġmoves":2839,"Ġsuper":2840,"Ġlooks":2841,"Ġitself":2842,"Ġhigher":2843,"Ġinformed":2844,"Ġtransfer":2845,"Ġsends":2846,"Ġrepair":2847,"Ġemails":2848,"Ġspeak":2849,"Ġbudgeting":2850,"Ġnegotiate":2851,"Ġearning":2852,"profit":2853,"Ġflights":2854,"Ġcrowds":2855,"Ġeffectively":2856,"Ġrepresents":2857,"Ġwallet":2858,"Ġmatching":2859,"Ġrequest":2860,"Ġgroceries":2861,"Ġcrm":2862,"iveness":2863,"Ġpiece":2864,"Ġregularly":2865,"Ġskill":2866,"Ġeffort":2867,"Ġalgorithms":2868,"Ġnearby":2869,"Ġmiddle":2870,"Ġstruggle":2871,"Ġcauses":2872,"Ġbeautiful":2873,"Ġhours":2874,"Ġconference":2875,"Ġsafety":2876,"Ġkids":2877,"Ġlifest":2878,"Ġindependent":2879,"Ġfashion":2880,"Ġyumon":2881,"Ġspacecraft":2882,"aud":2883,"gin":2884,"gets":2885,"tains":2886,"Ġet":2887,"Ġsit":2888,"ators":2889,"Ġcause":2890,"Ġcapt":2891,"orm":2892,"Ġpath":2893,"Ġpair":2894,"Ġbi":2895,"Ġbase":2896,"Ġtold":2897,"onds":2898,"Ġfight":2899,"Ġmater":2900,"Ġhar":2901,"rem":2902,"Ġdied":2903,"Ġdrop":2904,"enance":2905,"edom":2906,"Ġlam":2907,"Ġline":2908,"Ġlost":2909,"Ġgre":2910,"ision":2911,"Ġforward":2912,"Ġeve":2913,"Ġyc":2914,"ional":2915,"ecess":2916,"Ġproduce":2917,"Ġgoes":2918,"thes":2919,"Ġmaj":2920,"Ġalign":2921,"pping":2922,"Ġfruit":2923,"Ġfraud":2924,"Ġjeth":2925,"Ġcreation":2926,"ifice":2927,"Ġserve":2928,"Ġserves":2929,"utes":2930,"Ġtoolkit":2931,"Ġclin":2932,"Ġwaste":2933,"Ġcurtains":2934,"Ġcommand":2935,"Ġmeaning":2936,"Ġdesk":2937,"Ġrecord":2938,"Ġresults":2939,"Ġseek":2940,"Ġscan":2941,"Ġsolving":2942,"Ġsolutions":2943,"Ġknowing":2944,"rought":2945,"Ġentire":2946,"Ġmonet":2947,"Ġtraffic":2948,"Ġdebts":2949,"Ġfeels":2950,"Ġfeeling":2951,"Ġanalys":2952,"Ġbringing":2953,"Ġstories":2954,"Ġordering":2955,"Ġadvertis":2956,"Ġadding":2957,"Ġcollaboration":2958,"Ġintegrated":2959,"Ġ2019":2960,"Ġreading":2961,"Ġoperating":2962,"Ġconfid":2963,"Ġconflic":2964,"Ġcheap":2965,"Ġcheaper":2966,"Ġtransparency":2967,"Ġindeed":2968,"Ġdefine":2969,"Ġindividuals":2970,"Ġpieces":2971,"Ġrelevant":2972,"Ġtypes":2973,"Ġclothes":2974,"Ġpillar":2975,"ield":2976,"Ġperfect":2977,"Ġvendors":2978,"Ġlinkedin":2979,"Ġjethro":2980,"100":2981,"500":2982,"fr":2983,"gs":2984,"hma":2985,"lines":2986,"ship":2987,"uge":2988,"Ġsuit":2989,"Ġpage":2990,"Ġbab":2991,"Ġbody":2992,"Ġboss":2993,"Ġfly":2994,"Ġflex":2995,"Ġhuge":2996,"Ġdate":2997,"oms":2998,"lebr":2999,"Ġstate":3000,"Ġstuff":3001,"Ġishma":3002,"Ġlate":3003,"Ġlast":3004,"arter":3005,"asts":3006,"icks":3007,"Ġcomprom":3008,"Ġred":3009,"iding":3010,"Ġlik":3011,"Ġshall":3012,"Ġvr":3013,"Ġvet":3014,"Ġleah":3015,"ief":3016,"Ġdating":3017,"ensive":3018,"Ġupd":3019,"Ġcontin":3020,"Ġuseful":3021,"Ġmedium":3022,"Ġsets":3023,"Ġscores":3024,"Ġbranded":3025,"ifications":3026,"ierge":3027,"Ġaggre":3028,"Ġconnection":3029,"Ġprocessing":3030,"print":3031,"Ġnothing":3032,"Ġactive":3033,"Ġtells":3034,"Ġprogramming":3035,"Ġesc":3036,"Ġhotels":3037,"Ġmodels":3038,"Ġgeneration":3039,"service":3040,"ourced":3041,"Ġreviews":3042,"Ġextra":3043,"cumc":3044,"Ġconcierge":3045,"Ġcrowdfunding":3046,"Ġgifts":3047,"Ġmotion":3048,"Ġpublishers":3049,"Ġrecommendations":3050,"Ġcelebr":3051,"Ġmission":3052,"banked":3053,"Ġlarger":3054,"Ġborrow":3055,"Ġequip":3056,"Ġsummer":3057,"Ġplease":3058,"Ġdiversify":3059,"Ġpictures":3060,"Ġnavigate":3061,"Ġsacrifice":3062,"Ġensure":3063,"Ġreason":3064,"Ġneighbor":3065,"Ġinstructions":3066,"bnb":3067,"Ġancient":3068,"Ġlifestyle":3069,"Ġmajor":3070,"Ġanalysis":3071,"Ġishmael":3072,"Ġaggreg":3073,"cent":3074,"ios":3075,"la":3076,"mon":3077,"port":3078,"sp":3079,"Ġtilt":3080,"ina":3081,"ints":3082,"Ġthous":3083,"Ġsou":3084,"Ġsust":3085,"Ġsad":3086,"erts":3087,"Ġcult":3088,"Ġwide":3089,"oration":3090,"Ġbrought":3091,"Ġtoy":3092,"Ġfile":3093,"rel":3094,"Ġandro":3095,"Ġstage":3096,"Ġly":3097,"Ġgig":3098,"Ġgave":3099,"Ġforce":3100,"Ġever":3101,"Ġyoun":3102,"Ġcomplex":3103,"Ġcondit":3104,"Ġchance":3105,"Ġseven":3106,"Ġprint":3107,"Ġmark":3108,"Ġweek":3109,"Ġmarketers":3110,"iev":3111,"Ġclip":3112,"Ġwash":3113,"Ġenc":3114,"Ġhealthy":3115,"Ġresources":3116,"Ġsolid":3117,"Ġfoundation":3118,"Ġamounts":3119,"Ġhardened":3120,"Ġdesigns":3121,"Ġinstantly":3122,"Ġfunded":3123,"Ġtravelers":3124,"Ġstudy":3125,"Ġwrit":3126,"Ġorganized":3127,"Ġimproving":3128,"ronic":3129,"Ġchoice":3130,"Ġrental":3131,"Ġbillions":3132,"Ġfreedom":3133,"Ġexpanding":3134,"Ġmercy":3135,"Ġintegrates":3136,"Ġcountry":3137,"Ġsurv":3138,"Ġangels":3139,"Ġreceiv":3140,"Ġdepart":3141,"Ġeventually":3142,"Ġcollecting":3143,"Ġmonitoring":3144,"Ġaimed":3145,"Ġobject":3146,"Ġmaintenance":3147,"Ġbitco":3148,"Ġdistribute":3149,"Ġexpectations":3150,"Ġstrategies":3151,"Ġopportunities":3152,"Ġinfluencers":3153,"employ":3154,"Ġpilot":3155,"Ġenvironment":3156,"Ġcompromise":3157,"Ġequipment":3158,"Ġandroid":3159,"cies":3160,"digital":3161,"hood":3162,"li":3163,"nov":3164,"off":3165,"uly":3166,"Ġ9":3167,"Ġtin":3168,"inter":3169,"inting":3170,"Ġsil":3171,"Ġsound":3172,"Ġcate":3173,"Ġcertain":3174,"Ġwind":3175,"Ġblog":3176,"Ġfle":3177,"Ġmaster":3178,"rec":3179,"Ġdry":3180,"ited":3181,"aling":3182,"Ġwhite":3183,"Ġstones":3184,"Ġgam":3185,"roy":3186,"Ġeu":3187,"Ġdoc":3188,"osph":3189,"Ġcanad":3190,"Ġriver":3191,"imate":3192,"Ġbegin":3193,"verage":3194,"Ġcher":3195,"Ġexerc":3196,"ization":3197,"Ġworked":3198,"arning":3199,"Ġproductive":3200,"Ġconsult":3201,"Ġprem":3202,"Ġprev":3203,"Ġcolor":3204,"Ġcolors":3205,"Ġrealistic":3206,"Ġago":3207,"Ġkeeps":3208,"Ġrelate":3209,"Ġhighlight":3210,"Ġinsights":3211,"Ġfailing":3212,"Ġsecond":3213,"Ġwellness":3214,"Ġposts":3215,"Ġprofile":3216,"Ġrentals":3217,"Ġphotograph":3218,"Ġinternal":3219,"Ġinternational":3220,"Ġidentity":3221,"Ġaddress":3222,"Ġachiev":3223,"Ġairbnb":3224,"Ġangel":3225,"Ġhonor":3226,"Ġburied":3227,"Ġmanager":3228,"Ġmatches":3229,"Ġsanct":3230,"Ġhope":3231,"driving":3232,"Ġrooms":3233,"Ġefforts":3234,"Ġalgorithm":3235,"Ġhosting":3236,"Ġoptimize":3237,"Ġthinking":3238,"Ġatmosph":3239,"Ġetc":3240,"Ġsitu":3241,"friend":3242,"Ġtiny":3243,"Ġcanada":3244,"Ġachievable":3245,",âĢĿ":3246,"'ve":3247,"cur":3248,"comes":3249,"focus":3250,"gn":3251,"ls":3252,"lates":3253,"zy":3254,"Ġage":3255,"Ġsat":3256,"Ġsod":3257,"Ġsix":3258,"Ġcase":3259,"Ġbay":3260,"Ġhass":3261,"Ġhere":3262,"rect":3263,"lement":3264,"Ġstub":3265,"Ġlater":3266,"Ġforec":3267,"rope":3268,"acing":3269,"Ġnecess":3270,"entic":3271,"Ġalong":3272,"Ġconvert":3273,"Ġshel":3274,"Ġshape":3275,"otely":3276,"Ġled":3277,"Ġapprec":3278,"Ġdead":3279,"abb":3280,"Ġseem":3281,"Ġacqu":3282,"Ġweather":3283,"Ġweak":3284,"undry":3285,"Ġclient":3286,"Ġintake":3287,"action":3288,"ubim":3289,"Ġrecently":3290,"worth":3291,"Ġstrang":3292,"Ġlaundry":3293,"Ġinside":3294,"Ġnetworking":3295,"Ġcarry":3296,"Ġemerg":3297,"Ġremotely":3298,"Ġaction":3299,"Ġincludes":3300,"nesses":3301,"Ġexpense":3302,"Ġteaching":3303,"bots":3304,"Ġposition":3305,"Ġsearching":3306,"Ġdistance":3307,"Ġdistract":3308,"Ġtargeted":3309,"Ġgenerate":3310,"Ġputting":3311,"Ġrecruiters":3312,"Ġready":3313,"Ġdelivered":3314,"sharing":3315,"Ġextrem":3316,"Ġfiles":3317,"Ġdreams":3318,"Ġconcern":3319,"Ġfunct":3320,"ycle":3321,"Ġcorrect":3322,"Ġdestination":3323,"Ġdestroy":3324,"Ġlargest":3325,"Ġuncertain":3326,"Ġsimplify":3327,"Ġplanting":3328,"Ġpriest":3329,"Ġvehicles":3330,"Ġeye":3331,"Ġvacation":3332,"Ġinvoices":3333,"Ġmotivated":3334,"Ġcomputers":3335,"Ġannual":3336,"Ġdomain":3337,"Ġconditions":3338,"Ġeurope":3339,"Ġcherubim":3340,"Ġhassle":3341,"cl":3342,"ding":3343,"eous":3344,"fl":3345,"mo":3346,"nc":3347,"pre":3348,"uary":3349,"Ġut":3350,"Ġten":3351,"Ġterm":3352,"Ġsabb":3353,"aters":3354,"ering":3355,"Ġca":3356,"Ġbonds":3357,"Ġtoday":3358,"Ġmix":3359,"Ġdin":3360,"ush":3361,"Ġstick":3362,"Ġlat":3363,"Ġlabor":3364,"Ġlights":3365,"ups":3366,"Ġnat":3367,"Ġnur":3368,"Ġplants":3369,"Ġplast":3370,"Ġreduc":3371,"fort":3372,"force":3373,"Ġrides":3374,"Ġshine":3375,"Ġshem":3376,"stop":3377,"style":3378,"mpt":3379,"Ġchina":3380,"Ġexact":3381,"Ġunex":3382,"ples":3383,"Ġfirms":3384,"Ġrobot":3385,"apes":3386,"Ġlocations":3387,"Ġautomation":3388,"Ġarr":3389,"Ġrelax":3390,"soft":3391,"Ġexpert":3392,"Ġsigned":3393,"Ġtraveling":3394,"Ġcalend":3395,"Ġcompetitors":3396,"Ġpromot":3397,"Ġexpensive":3398,"Ġdriving":3399,"Ġclearly":3400,"Ġrenters":3401,"Ġadvertise":3402,"erties":3403,"Ġcoding":3404,"Ġtargeting":3405,"Ġmiles":3406,"Ġgrad":3407,"Ġ2017":3408,"Ġimage":3409,"Ġorganizing":3410,"Ġstreaml":3411,"Ġrequires":3412,"Ġpropos":3413,"Ġproperties":3414,"Ġanalyzing":3415,"Ġinfr":3416,"Ġdiscovery":3417,"Ġminutes":3418,"Ġresponsible":3419,"Ġceo":3420,"Ġmassive":3421,"Ġelsewhere":3422,"Ġpulls":3423,"Ġrock":3424,"Ġmagn":3425,"Ġcalculated":3426,"Ġpackages":3427,"Ġcarefully":3428,"Ġhospitality":3429,"Ġauthentic":3430,"Ġcircumc":3431,"Ġwisdom":3432,"Ġpractice":3433,"Ġtrends":3434,"Ġperspect":3435,"Ġfootprint":3436,"Ġonboarding":3437,"Ġskills":3438,"Ġlikely":3439,"Ġlyft":3440,"Ġreceived":3441,"Ġbitcoin":3442,"Ġatmosphere":3443,"friendly":3444,"worthy":3445,"Ġsabbath":3446,"fair":3447,"ged":3448,"house":3449,"hold":3450,"nal":3451,"ove":3452,"por":3453,"sized":3454,"uel":3455,"vants":3456,"wise":3457,"ym":3458,"inate":3459,"Ġsoc":3460,"Ġsort":3461,"ately":3462,"eration":3463,"Ġcain":3464,"Ġwar":3465,"Ġwise":3466,"Ġwish":3467,"ored":3468,"Ġbaker":3469,"Ġtough":3470,"Ġhims":3471,"Ġdraw":3472,"itude":3473,"lech":3474,"Ġox":3475,"elt":3476,"eline":3477,"Ġinnov":3478,"Ġwhether":3479,"Ġstead":3480,"Ġlic":3481,"Ġlack":3482,"Ġlists":3483,"Ġlord":3484,"Ġgather":3485,"acter":3486,"Ġrange":3487,"Ġalerts":3488,"Ġtruc":3489,"Ġbusy":3490,"Ġship":3491,"oty":3492,"Ġvert":3493,"Ġmeals":3494,"Ġspare":3495,"Ġabime":3496,"Ġappear":3497,"Ġdeep":3498,"ially":3499,"Ġservants":3500,"Ġsevent":3501,"Ġsmo":3502,"istics":3503,"Ġaddit":3504,"ĠâĢĵ":3505,"Ġexpress":3506,"ements":3507,"Ġwhole":3508,"Ġfear":3509,"Ġnotes":3510,"Ġproduction":3511,"Ġoutcomes":3512,"ibilities":3513,"Ġsympt":3514,"ooth":3515,"Ġseeking":3516,"Ġindian":3517,"Ġqual":3518,"words":3519,"astruc":3520,"Ġreality":3521,"Ġdelivers":3522,"Ġ15":3523,"Ġsigns":3524,"Ġpercent":3525,"phones":3526,"Ġtrustworthy":3527,"Ġassess":3528,"Ġfeelings":3529,"Ġsecret":3530,"Ġcommunications":3531,"Ġchoosing":3532,"Ġdirection":3533,"Ġcombining":3534,"Ġforms":3535,"Ġtrade":3536,"Ġexploration":3537,"Ġstronger":3538,"Ġparking":3539,"Ġpartnering":3540,"Ġprototy":3541,"Ġconstruc":3542,"Ġimag":3543,"Ġsensors":3544,"ission":3545,"Ġ500":3546,"Ġturns":3547,"Ġquestion":3548,"Ġapartments":3549,"Ġconsistency":3550,"Ġgovernments":3551,"Ġventures":3552,"Ġfastest":3553,"Ġmicrosoft":3554,"Ġjournal":3555,"Ġpolic":3556,"pected":3557,"Ġauthor":3558,"Ġsuppliers":3559,"Ġpreferences":3560,"Ġseparate":3561,"Ġdepending":3562,"Ġcooking":3563,"Ġdaughters":3564,"Ġspaceships":3565,"Ġadvertisers":3566,"Ġflexible":3567,"Ġescape":3568,"Ġculture":3569,"Ġsurvive":3570,"employed":3571,"Ġpremium":3572,"focused":3573,"Ġstubborn":3574,"Ġstrangers":3575,"Ġunexpected":3576,"Ġinfrastruc":3577,"Ġhimself":3578,"Ġabimelech":3579,"Ġsymptoms":3580,"Ġinfrastructure":3581,"25":3582,"ball":3583,"eal":3584,"fill":3585,"iation":3586,"lock":3587,"part":3588,"pay":3589,"res":3590,"rup":3591,"top":3592,"tech":3593,"val":3594,"wide":3595,"yers":3596,"Ġtur":3597,"inal":3598,"Ġsqu":3599,"erate":3600,"Ġcra":3601,"Ġcoun":3602,"Ġcycle":3603,"Ġwood":3604,"ana":3605,"Ġpen":3606,"Ġbir":3607,"Ġfurn":3608,"Ġmut":3609,"Ġiphone":3610,"Ġhor":3611,"Ġhub":3612,"iter":3613,"Ġinbox":3614,"Ġstability":3615,"Ġlose":3616,"asting":3617,"Ġnurs":3618,"Ġbul":3619,"Ġbury":3620,"Ġrefer":3621,"Ġreub":3622,"Ġusage":3623,"amin":3624,"Ġvol":3625,"ationally":3626,"Ġlev":3627,"Ġhair":3628,"Ġworship":3629,"Ġorig":3630,"Ġchec":3631,"elling":3632,"Ġpress":3633,"Ġheal":3634,"Ġheav":3635,"Ġgods":3636,"Ġloves":3637,"Ġadvice":3638,"ume":3639,"Ġtele":3640,"Ġpharm":3641,"Ġunfair":3642,"Ġnotifications":3643,"abled":3644,"Ġcommit":3645,"Ġcommerc":3646,"Ġlearns":3647,"Ġshower":3648,"Ġparties":3649,"seat":3650,"Ġprovider":3651,"Ġrob":3652,"Ġrot":3653,"Ġdeveloper":3654,"Ġfinancing":3655,"Ġcoop":3656,"Ġ25":3657,"Ġinsp":3658,"avened":3659,"Ġtrusting":3660,"Ġpoints":3661,"Ġkindness":3662,"Ġcompeting":3663,"Ġprioritizing":3664,"Ġengaging":3665,"Ġreports":3666,"Ġbilling":3667,"Ġbenefit":3668,"Ġediting":3669,"ought":3670,"Ġbreast":3671,"Ġparent":3672,"Ġnegotiating":3673,"Ġconsidering":3674,"Ġsubscriptions":3675,"Ġidentifying":3676,"Ġsensor":3677,"Ġpredictive":3678,"she":3679,"Ġmaybe":3680,"Ġreflect":3681,"Ġstandard":3682,"Ġamazing":3683,"Ġreaching":3684,"Ġvarious":3685,"Ġrecipes":3686,"Ġchallenge":3687,"Ġdiscount":3688,"Ġprotection":3689,"Ġportfolios":3690,"Ġconversation":3691,"Ġfixed":3692,"Ġfailed":3693,"Ġprayer":3694,"Ġclothing":3695,"Ġfactors":3696,"Ġmedication":3697,"Ġamerica":3698,"Ġslowly":3699,"Ġwait":3700,"Ġinterviews":3701,"Ġoutside":3702,"Ġhousing":3703,"Ġinvolved":3704,"Ġstaff":3705,"Ġmillions":3706,"Ġfulfill":3707,"Ġmorning":3708,"ormal":3709,"Ġmaterials":3710,"Ġgreater":3711,"Ġmonetize":3712,"Ġthousands":3713,"Ġsustain":3714,"Ġcategor":3715,"Ġprevious":3716,"Ġemergency":3717,"Ġexactly":3718,"Ġconstruction":3719,"party":3720,"Ġreuben":3721,"Ġcommercial":3722,"aks":3723,"aves":3724,"bon":3725,"con":3726,"cost":3727,"home":3728,"iet":3729,"jamin":3730,"know":3731,"lords":3732,"min":3733,"ners":3734,"pec":3735,"source":3736,"ton":3737,"ument":3738,"yond":3739,"Ġeth":3740,"Ġtut":3741,"Ġalex":3742,"Ġaverage":3743,"Ġsn":3744,"Ġsect":3745,"Ġsara":3746,"Ġsister":3747,"attle":3748,"Ġcruc":3749,"Ġbars":3750,"Ġfour":3751,"Ġmis":3752,"Ġmort":3753,"Ġiot":3754,"Ġhit":3755,"reh":3756,"Ġdiv":3757,"enabled":3758,"Ġstar":3759,"Ġstre":3760,"eds":3761,"Ġlay":3762,"iles":3763,"ilit":3764,"icking":3765,"road":3766,"Ġcomfort":3767,"Ġcompli":3768,"Ġcompreh":3769,"Ġdoll":3770,"iders":3771,"idden":3772,"Ġlikes":3773,"Ġmapping":3774,"osed":3775,"urable":3776,"Ġran":3777,"Ġrural":3778,"Ġali":3779,"Ġalone":3780,"Ġbeyond":3781,"Ġmanages":3782,"Ġjo":3783,"Ġworry":3784,"store":3785,"Ġspin":3786,"Ġabroad":3787,"Ġdeath":3788,"ells":3789,"Ġexists":3790,"acks":3791,"Ġmarry":3792,"Ġweigh":3793,"ipe":3794,"Ġclick":3795,"Ġnote":3796,"Ġease":3797,"enses":3798,"Ġshowc":3799,"Ġshowed":3800,"ooks":3801,"Ġmother":3802,"Ġseeing":3803,"Ġscary":3804,"Ġaccel":3805,"Ġknown":3806,"Ġstress":3807,"Ġcommunities":3808,"Ġgrows":3809,"prises":3810,"Ġamong":3811,"Ġcoach":3812,"Ġrighteous":3813,"Ġrelat":3814,"Ġ12":3815,"Ġcarbon":3816,"Ġvalid":3817,"Ġtoolset":3818,"Ġpromote":3819,"Ġpositive":3820,"Ġattend":3821,"Ġruns":3822,"Ġespec":3823,"Ġbenjamin":3824,"Ġcombines":3825,"Ġentrepreneurship":3826,"Ġdetail":3827,"Ġlandlords":3828,"Ġmemory":3829,"verse":3830,"Ġ2018":3831,"Ġflight":3832,"Ġcentral":3833,"Ġvisualize":3834,"Ġfairly":3835,"Ġtreated":3836,"Ġhoping":3837,"Ġchallenging":3838,"Ġschools":3839,"Ġlenders":3840,"Ġthoughts":3841,"ertainment":3842,"Ġkings":3843,"Ġlanguages":3844,"Ġconversations":3845,"Ġmissing":3846,"Ġwearable":3847,"Ġcorpor":3848,"Ġforgiveness":3849,"Ġreturns":3850,"Ġvalued":3851,"Ġbeauty":3852,"Ġfacilit":3853,"Ġsupplies":3854,"Ġlogistics":3855,"Ġamerican":3856,"Ġboards":3857,"Ġhouses":3858,"Ġcannot":3859,"Ġspiral":3860,"Ġexecut":3861,"Ġdesktop":3862,"Ġconfident":3863,"Ġbaby":3864,"Ġneighborhood":3865,"interest":3866,"Ġphotographers":3867,"Ġcalendar":3868,"Ġsteady":3869,"Ġseventh":3870,"Ġpercentage":3871,"Ġsarai":3872,"Ġcrucial":3873,"Ġespecially":3874,"bt":3875,"band":3876,"cle":3877,"cod":3878,"ey":3879,"eat":3880,"fi":3881,"he":3882,"iod":3883,"iency":3884,"jehovah":3885,"lit":3886,"lus":3887,"pool":3888,"rial":3889,"rics":3890,"ted":3891,"uate":3892,"vin":3893,"Ġ7":3894,"incts":3895,"Ġsong":3896,"Ġsources":3897,"erv":3898,"Ġcake":3899,"Ġpure":3900,"Ġpush":3901,"Ġbow":3902,"Ġbid":3903,"Ġbond":3904,"Ġtown":3905,"onse":3906,"Ġmust":3907,"Ġharm":3908,"reds":3909,"Ġdense":3910,"ley":3911,"lements":3912,"learning":3913,"Ġlamp":3914,"Ġlosing":3915,"Ġgar":3916,"Ġgent":3917,"ilder":3918,"ison":3919,"room":3920,"upiter":3921,"Ġnob":3922,"Ġnormal":3923,"Ġbugs":3924,"idge":3925,"Ġmaps":3926,"Ġalm":3927,"Ġshapes":3928,"Ġver":3929,"Ġjupiter":3930,"Ġspent":3931,"Ġchronic":3932,"Ġdeeds":3933,"Ġexam":3934,"Ġsea":3935,"utation":3936,"Ġloved":3937,"rap":3938,"umb":3939,"Ġsaw":3940,"Ġworkplace":3941,"Ġpassion":3942,"Ġuns":3943,"Ġunions":3944,"Ġbutler":3945,"Ġintuit":3946,"Ġowner":3947,"Ġsync":3948,"ancy":3949,"Ġdescription":3950,"play":3951,"plate":3952,"Ġeval":3953,"Ġcreatures":3954,"Ġoverall":3955,"Ġcold":3956,"Ġstruc":3957,"Ġentertainment":3958,"Ġfoods":3959,"Ġretain":3960,"Ġautomating":3961,"Ġfriendly":3962,"Ġinstit":3963,"Ġinstincts":3964,"Ġleading":3965,"Ġdisag":3966,"Ġeffects":3967,"Ġfailures":3968,"Ġperiod":3969,"Ġtransport":3970,"Ġdebit":3971,"Ġmessen":3972,"Ġresponse":3973,"Ġdrag":3974,"Ġdriver":3975,"Ġ2020":3976,"Ġdirectory":3977,"Ġecommerce":3978,"Ġstoring":3979,"Ġstorage":3980,"Ġinternationally":3981,"Ġgrain":3982,"Ġoption":3983,"Ġnegative":3984,"Ġedom":3985,"Ġedit":3986,"Ġefficiency":3987,"Ġtrading":3988,"Ġhousehold":3989,"Ġbreath":3990,"Ġmeasurable":3991,"backed":3992,"Ġnonprofits":3993,"Ġgrown":3994,"Ġburning":3995,"Ġelim":3996,"Ġstreaming":3997,"Ġprojections":3998,"Ġrequire":3999,"ourcing":4000,"Ġhearts":4001,"Ġcharacter":4002,"Ġanalyzes":4003,"Ġsecurely":4004,"Ġbelong":4005,"Ġmerchand":4006,"Ġconstellation":4007,"Ġtemplates":4008,"Ġwinter":4009,"Ġanswers":4010,"Ġtransaction":4011,"Ġwatching":4012,"personal":4013,"Ġgolden":4014,"Ġpillars":4015,"Ġbrave":4016,"Ġsafely":4017,"Ġreminder":4018,"Ġpicture":4019,"Ġclosest":4020,"Ġstrengths":4021,"Ġaccordingly":4022,"Ġminimum":4023,"founder":4024,"Ġerr":4025,"Ġcannab":4026,"Ġrecognition":4027,"Ġpodcasts":4028,"Ġtemperature":4029,"Ġtemperatures":4030,"Ġhundreds":4031,"Ġcapture":4032,"Ġsuits":4033,"Ġcontinue":4034,"related":4035,"Ġyoung":4036,"Ġencrypt":4037,"Ġwritten":4038,"Ġdepartments":4039,"Ġfleet":4040,"Ġdocument":4041,"Ġexercise":4042,"Ġsanctify":4043,"Ġnecessary":4044,"Ġweaknesses":4045,"Ġdistractions":4046,"Ġuncertainty":4047,"flix":4048,"Ġnatural":4049,"Ġplastic":4050,"Ġreducing":4051,"Ġturning":4052,"Ġsquare":4053,"Ġbreastplate":4054,"Ġmortg":4055,"Ġcompliance":4056,"Ġcomprehensive":4057,"Ġgentle":4058,"Ġintuitive":4059,".)":4060,"aired":4061,"books":4062,"ded":4063,"go":4064,"iant":4065,"list":4066,"life":4067,"na":4068,"nam":4069,"tal":4070,"xic":4071,"zil":4072,"Ġtim":4073,"Ġtests":4074,"ined":4075,"inks":4076,"invest":4077,"Ġsight":4078,"Ġsuf":4079,"Ġcatch":4080,"Ġpace":4081,"Ġpets":4082,"Ġbought":4083,"Ġfing":4084,"Ġfed":4085,"Ġfarth":4086,"Ġmeth":4087,"Ġill":4088,"Ġign":4089,"Ġhy":4090,"Ġhate":4091,"Ġhide":4092,"Ġdou":4093,"Ġdust":4094,"Ġdue":4095},"merges":["Ġ t","Ġ a","i n","Ġt h","Ġ s","Ġth e","a t","e s","e r","Ġ c","Ġ w","a n","o r","Ġ p","Ġ b","in g","Ġt o","o n","Ġ f","a r","Ġ m","Ġ i","n d","Ġ h","r e","Ġa nd","Ġ d","e n","o m","o u","i t","a l","u s","l e","Ġ o","e l","Ġ in","Ġw h","Ġs t","Ġi s","e d","Ġ l","Ġth at","Ġ g","er s","e t","ar t","i l","i s","Ġf or","Ġo f","a s","i c","r o","Ġ e","t s","a c","u p","o w","Ġ y","i r","Ġc om","k e","i on","Ġst art","Ġ n","es s","â Ģ","Ġy ou","en t","Ġwh at","Ġstart up","it h","Ġw ith","Ġcom p","e c","el p","Ġd o","a y","Ġh elp","Ġ on","Ġb u","Ġp l","Ġthe ir","Ġ re","Ġi t","o p","v e","Ġp ro","i g","i d","a g","Ġcomp an","Ġg o","Ġ us","Ġl i","o l","a m","t h","f or","Ġm a","o s","Ġc an","Ġp e","u r","' s","op le","Ġpe ople","âĢ Ļ","Ġ r","l y","us t","Ġa l","for m","i m","Ġa n","Ġt r","ag e","Ġbu il","i es","Ġb us","in ess","Ġb e","Ġbus iness","p p","c e","Ġc on","Ġpl at","Ġplat form","es t","Ġli ke","Ġbuil d","c h","Ġcompan y","Ġn e","Ġs h","o t","ou t","u n","Ġ v","at ion","at e","k ing","Ġm an","Ġf r","Ġ le","Ġ j","t er","Ġh a","o c","Ġm e","Ġhelp s","Ġa re","Ġh ow","Ġw or","an d","an t","Ġthe y","Ġyou r","Ġ or","o d","u c","v er","s t","Ġs p","ar e","m p","ust om","Ġc ustom","Ġc h","Ġa b","a d","Ġc re","Ġal l","Ġth is","Ġa pp","Ġd e","ig h","Ġb y","i f","v ic","Ġma ke","i al","Ġfr om","Ġs er","on e","il l","el l","a b","Ġdo es","Ġe x","u l","Ġs e","Ġs m","o b","in d","Ġthe m","i v","ac e","u t","ac k","Ġa s","Ġbuild ing","en ts","Ġwh y","Ġp r","Ġh e","d uc","an ts","is t","Ġgo d","or e","Ġser vic","al l","Ġcompan ies","an s","Ġman age","Ġpro duc","om e","in e","m ent","Ġm ar","Ġa c","Ġw e","ar d","k et","Ġs o","it y","n t","k s","ec t","d e","Ġg et","Ġl o","Ġto ol","r a","igh t","i p","Ġo th","u re","id e","Ġall ow","Ġab out","i ve","or t","i z","as s","l d","Ġa d","Ġha ve","Ġmar ket","Ġt a","u m","Ġ âĢ","e p","l o","f er","Ġw ants","a il","Ġcustom ers","Ġpl an","Ġp ay","Ġs a","ion s","ing s","Ġm ore","ac h","Ġus ers","Ġf ind","Ġw ay","Ġwh en","Ġne w","Ġex p","Ġt e","a in","âĢ Ŀ","Ġbusiness es","ĠâĢ ľ","e m","i e","Ġservic e","Ġi mp","im e","Ġa t","Ġh as","an ce","al s","Ġwor k","q u","Ġsm all","r ou","Ġp h","Ġoth er","Ġwh o","c ess","u nd","er e","Ġm y","Ġb r","Ġc l","Ġp ass","0 0","Ġ un","f t","Ġ k","Ġb et","ar n","Ġbu t","Ġf e","g e","Ġn ot","v ing","ig n","i le","Ġd at","Ġb ec","Ġs ay","v el","a us","ou r","Ġpro v","k es","Ġin t","u d","ab le","Ġproduc t","Ġs ell","ac t","ation s","Ġgo od","Ġcre ate","et h","Ġne ed","or s","Ġe as","Ġpass age","as ed","Ġallow s","en s","Ġs ome","aus e","w n","or y","os t","Ġ out","w are","p t","Ġt ime","Ġ up","Ġdat a","i b","Ġin v","c t","Ġw as","Ġh is","en ce","Ġe mp","l ine","lo y","Ġbec ause","Ġw ant","Ġc ur","g h","Ġcon t","it al","Ġi de","Ġd id","Ġtr ack","Ġus e","Ġo wn","i a","Ġcom m","Ġw ill","oc us","Ġme an","ft ware","Ġso ftware","i re","Ġle arn","Ġemp loy","ar s","Ġin ter","one y","Ġm oney","Ġs y","Ġf ocus","ers on","Ġsh ow","Ġp art","Ġcustom er","ou ld","Ġon line","Ġin c","Ġcon s","an c","o o","Ġ en","am e","Ġm o","f f","al th","Ġimp ort","a h","Ġsp ec","on g","ro w","t ing","Ġide a","Ġd es","Ġ $","Ġd if","Ġth ings","Ġcur re","s e","ig ital","Ġp erson","Ġb ig","Ġhe alth","r y","u b","Ġcon n","ou nd","Ġon e","ver y","st em","Ġre c","Ġm ed","al ly","m ents","Ġsm art","Ġsy stem","Ġd igital","p l","Ġr es","Ġse e","Ġimport ant","Ġs up","g y","Ġbe ing","Ġof f","os e","Ġdif fer","Ġprov id","Ġs et","Ġs c","Ġbu y","l ow","Ġemploy e","d it","Ġ ke","Ġcurre nt","Ġs om","oc ial","Ġproduc ts","ic h","it e","Ġe v","Ġsp ace","Ġi f","Ġha pp","ou nt","Ġwh ere","Ġcre at","iz e","n ow","Ġf ir","Ġac c","Ġma kes","Ġinv est","Ġme ans","Ġta ke","Ġbr and","is e","ic e","Ġwe b","Ġlo o","Ġst ory","Ġf in","Ġd ec","ac ob","Ġj acob","g r","Ġint o","e nd","Ġs ol","Ġin d","Ġs ocial","f ul","Ġp re","Ġte am","ob ile","Ġwh ich","im s","it es","et s","o od","u e","Ġ qu","iv ers","Ġ ro","Ġb l","il y","Ġk now","Ġcurrent ly","w or","Ġm obile","Ġo ver","a p","Ġcre dit","rou gh","eth ing","Ġsom ething","f e","Ġc ol","Ġv ide","Ġi ts","if ic","i er","vel op","Ġde velop","Ġspec ial","' t","Ġwor king","Ġma king","Ġj ob","Ġgo als","at h","re e","Ġus ing","re n","art h","Ġsup p","f it","Ġf am","as t","Ġbet ter","Ġemploye es","b ased","Ġle ts","en c","Ġr is","Ġe arth","Ġre al","ep h","Ġa ut","Ġj os","Ġservic es","Ġfir st","Ġa g","Ġth rough","an g","Ġke ep","Ġjos eph","in t","Ġst r","ec h","u ch","Ġf ound","i ent","ow er","Ġconn ect","as h","Ġsh are","Ġ ent","Ġ und","Ġm on","ec ts","x t","Ġf ood","e ar","at ed","Ġre t","os es","Ġpro cess","re ad","Ġthe n","as e","u al","Ġb est","Ġcomm un","Ġl ist","Ġfin anc","on s","Ġl a","Ġl oc","Ġg row","p r","ag ing","oo k","ie nd","Ġdiffer ent","h ip","w ay","Ġd el","ic k","ill ion","Ġeas ier","Ġaut om","Ġm ost","Ġm oses","Ġa m","Ġinc l","v es","Ġc o","at es","Ġd ay","ic al","c r","n ing","Ġc are","Ġa r","Ġh ome","Ġsay s","Ġn o","Ġa i","Ġs al","Ġr ight","Ġto o","Ġh ard","Ġloo king","Ġa ims","Ġre l","Ġtr a","Ġfr iend","i ence","s o","w e","Ġa f","Ġth an","Ġdes ign","Ġin st","Ġvide o","it ies","Ġn et","d s","Ġc ard","ra el","Ġan y","Ġpart n","g et","Ġb ack","Ġf und","Ġh igh","Ġis rael","Ġexp er","Ġprovid es","Ġ 1","Ġc le","Ġle ad","Ġun ivers","Ġperson al","Ġmarket ing","Ġst ay","Ġof fer","Ġe very","Ġy es","ib le","Ġ 2","Ġt ech","Ġfam ily","Ġwith out","Ġb an","Ġcont ent","Ġo p","Ġli fe","Ġtr y","Ġdel i","Ġd is","iz ed","Ġund ers","00 0","i ents","Ġin s","Ġhelp ing","t and","Ġb ased","pl ace","Ġnet wor","if y","a u","a v","in k","Ġs im","Ġal so","Ġmanage ment","Ġe ff","ul t","m and","Ġc ar","ou s","Ġunders tand","b le","Ġs ign","Ġf ail","Ġe ach","Ġpro gr","Ġus ed","we en","Ġpl ace","Ġsh ould","Ġman y","Ġha ving","Ġbet ween","Ġe m","Ġus es","Ġv al","Ġa v","Ġst ars","Ġv is","l es","Ġthe re","Ġp er","Ġmed ia","b er","i or","Ġr est","Ġsome one","p h","Ġh im","Ġd on","Ġhapp en","ar a","Ġin form","Ġl ess","Ġtr ans","Ġ our","Ġre m","Ġde b","Ġsa ve","Ġdec is","Ġs uc","Ġb o","Ġunivers e","Ġp at","Ġsh ar","Ġs un","Ġtr ust","Ġac t","Ġtra vel","o h","el y","d er","Ġm ess","Ġs ame","le d","Ġta king","read y","Ġincl ud","Ġfinanc ial","Ġg iv","Ġal ready","ath er","Ġoth ers","Ġcons um","g an","Ġbuil t","Ġsupp ly","at ing","it ion","un ch","Ġas s","t y","Ġ '","Ġm illion","Ġtool s","ra h","Ġph ara","Ġweb s","Ġphara oh","Ġc al","rou nd","Ġt as","Ġt ell","Ġfe el","Ġprov ide","Ġst ud","ur es","v en","an ge","Ġl ight","Ġsal es","rah am","oc k","Ġab raham","Ġse nd","Ġp ur","ic es","n ess","Ġw r","ag es","Ġapp s","at ch","Ġl ong","is ts","o v","Ġs ec","er y","Ġp o","Ġm uch","Ġor gan","Ġc ash","Ġg ive","il ity","Ġimp ro","Ġk ind","Ġres p","at er","Ġw ell","ar ge","Ġcomp et","Ġpay ments","Ġlearn ing","Ġinform ation","l ic","Ġw ould","ou n","el f","Ġisrael ites","ar y","ow n","Ġj ust","Ġs ch","Ġf ree","Ġpr om","Ġmarket place","Ġexp ens","Ġeas y","Ġind ust","Ġla unch","Ġinclud ing","a ur","r am","w ard","Ġplan ets","Ġd r","th ing","Ġde vic","Ġac cess","Ġmon th","Ġfriend s","Ġrest aur","a k","Ġb ro","Ġte ach","a ir","b o","Ġh and","Ġacc ount","o g","al y","le ct","Ġris k","Ġdecis ions","Ġpro j","Ġr a","Ġne xt","eth er","Ġret ail","Ġp ower","is h","e h","u it","Ġan aly","Ġwor ld","Ġnetwor k","Ġdeb t","c o","Ġh um","ic t","am p","Ġde mand","Ġsuc cess","l l","r act","Ġf ol","Ġman aging","Ġpr ior","ble m","' re","Ġpro blem","Ġoff ers","Ġallow ing","Ġbrand s","Ġp os","re am","Ġneed s","Ġtech n","Ġstartup s","ie w","Ġbr ing","r on","om m","ic s","Ġe gy","Ġfocus ed","Ġcommun ic","Ġloc al","Ġtry ing","Ġtas ks","Ġegy pt","Ġth ose","Ġf ace","Ġle t","ver t","Ġph one","Ġgo al","Ġch at","Ġcle ar","e ad","Ġins ur","Ġprogr am","Ġfol low","Ġprior it","t o","y al","Ġf low","Ġd own","Ġsh op","Ġch o","Ġen g","Ġ2 0","ov ah","eh ovah","re at","ur n","a x","g ether","Ġt w","Ġth ink","Ġto gether","Ġd ire","Ġa round","ar ch","il d","Ġev en","Ġaf ter","Ġexper ience","Ġlo yal","Ġat t","Ġdeli very","Ġconsum ers","Ġimpro ve","oun ts","Ġdire ct","o id","p ar","Ġt al","Ġe c","ur s","Ġr un","ul ar","a ac","Ġg u","Ġse arch","fit s","Ġpartn ers","Ġfail ure","Ġshar ing","Ġtechn ol","Ġinsur ance","i ed","o gy","Ġ es","Ġis aac","Ġcom b","Ġpro f","Ġsell ing","Ġless on","Ġ 3","Ġa p","Ġb en","Ġh ot","Ġon ly","Ġre p","Ġre nt","Ġpr ice","Ġindust ry","Ġf ar","re p","Ġwh ile","Ġst or","Ġy ear","Ġph ot","Ġinter n","Ġcreat ing","u g","Ġj ehovah","Ġplan ning","Ġris ks","b ook","t ion","Ġa way","Ġg ra","Ġma de","Ġqu ick","ren e","Ġent rep","Ġban k","Ġem ail","Ġexpens es","Ġentrep rene","Ġme et","Ġsp e","rou p","Ġop en","Ġpriorit ize","Ġh ol","ou d","ou se","Ġg al","Ġg roup","is ed","Ġdo ct","Ġor der","ut ion","Ġshow s","Ġar t","Ġd ist","Ġad vert","Ġsa ving","Ġf ut","Ġwor ks","Ġmo on","Ġtechnol ogy","v ed","Ġt ar","Ġw ere","Ġm ist","im es","Ġmed ical","Ġdevelop ers","Ġfound ers","Ġcomb in","u ally","Ġ u","Ġ est","Ġm ach","Ġch ang","Ġab ram","Ġget ting","Ġbro th","Ġfut ure","Ġf ather","el s","Ġpl ans","Ġma in","Ġch ild","Ġpay ment","Ġfund ing","Ġgal ax","p e","Ġb ill","Ġo pt","Ġne g","Ġsp end","Ġlo ve","Ġconn ects","a id","er t","Ġh ire","Ġg en","is ing","ab or","Ġad s","t en","Ġc od","Ġb ook","Ġi d","Ġst ore","Ġfor m","Ġv ir","Ġch ange","Ġben e","Ġentreprene urs","Ġtar get","Ġmist a","Ġf re","Ġm od","Ġm ight","Ġpro fit","Ġme ant","ie ve","Ġlist en","cr ip","Ġsign ific","s s","Ġ ed","Ġs ing","ou gh","Ġbu d","am es","Ġv ia","Ġv ery","Ġset ting","Ġid ent","Ġt est","Ġd et","Ġeff ic","Ġl and","Ġtr ad","Ġbe en","Ġexp and","Ġcl oud","Ġm ult","ro ss","ur ing","Ġsa as","Ġexp l","Ġcol l","Ġface book","g est","le t","as ter","Ġdo ing","Ġli ve","Ġme m","Ġcomm on","Ġstr ong","cr ib","Ġretail ers","k y","Ġst ill","Ġcl ients","Ġmo ve","bo ard","Ġquick ly","b it","g er","i o","v ant","Â ł","Ġ (","Ġc ity","or d","Ġh ouse","ul l","Ġad d","âĢĿ .","way s","Ġrel ations","Ġrestaur ants","Ġmach ine","a ve","i x","i qu","p le","t ime","t ual","Ġb re","Ġf it","ess ion","for e","Ġme as","Ġas k","Ġpr es","Ġbl ock","Ġpo int","Ġa ch","Ġm er","Ġm il","ent ial","id er","Ġinter est","Ġspec ific","v iew","el es","ac es","Ġal ways","Ġbe fore","Ġdiffer ence","enc es","Ġent er","Ġwebs ite","Ġstud ents","Ġsch ed","Ġvir tual","Ġbud get","Ġrelations hip","b ack","i ke","Ġc all","Ġp ar","om es","ic ally","Ġde al","Ġcommun ity","Ġloyal ty","Ġest ate","Ġsignific ance","c op","e k","v ers","Ġb oo","Ġha d","Ġteam s","Ġav ail","Ġass ist","Ġs ub","Ġthe se","Ġc amp","Ġl ow","Ġan im","ch ain","ot i","Ġte xt","Ġsupp ort","Ġneg oti","Ġeffic ient","c y","Ġt eles","Ġp aid","Ġm et","Ġo b","Ġo ld","Ġl ot","Ġl arge","Ġe arn","Ġpl ay","Ġfe w","Ġfe at","Ġdesign ed","Ġgra v","Ġteles cop","e gr","Ġm us","is es","Ġn ight","Ġac ross","Ġdes crib","Ġevery thing","Ġra ised","Ġcoll abor","Ġa st","er ce","it or","Ġta kes","Ġint egr","Ġcons ider","Ġpartn er","Ġval ue","Ġav oid","Ġsing le","iqu e","Ġavail able","Ġgrav ity","Ġmus ic","e ars","Ġs l","Ġw ater","Ġp ub","Ġstart ing","Ġre ven","Ġfind ing","Ġinv ent","Ġprof ession","Ġgen er","d ict","ir ing","Ġn ame","Ġpro t","Ġbuild s","Ġreven ue","u es","Ġt y","Ġc ount","on d","Ġn on","Ġn um","Ġcomp are","Ġre ally","Ġsa v","Ġfe ed","Ġhapp ens","enc y","Ġast ron","Ġinvent ory","w h","Ġa ir","Ġs ur","Ġc ost","Ġg ro","Ġg ame","Ġof ten","ear ch","Ġes au","Ġbene fits","Ġblock chain","r ies","y s","Ġth ing","Ġs ure","Ġg r","Ġg reat","Ġre g","os ts","Ġcon st","Ġinc re","Ġres earch","Ġsol ution","Ġsim ple","Ġ20 1","p ro","r uit","t le","in es","it ing","ent ion","Ġan g","Ġbe h","Ġbo th","omm erce","c are","g es","Ġp ut","Ġf l","Ġi m","Ġl ab","ac king","Ġit em","Ġeas ily","Ġacc ounts","Ġinvest ment","Ġjob s","Ġpur ch","Ġdevic es","o ol","s es","u ce","Ġc our","Ġc row","Ġp ort","Ġapp lic","igh ts","ain s","Ġrec ruit","pr es","Ġeff ect","Ġmista kes","Ġsub s","Ġdescrib e","a pt","b r","b ot","d uce","u le","on es","Ġh on","Ġst ep","et y","Ġbu r","Ġre ad","Ġre ward","Ġre pres","Ġman ag","Ġcl a","Ġcont ract","Ġev ents","au ts","av or","Ġdoct ors","Ġcod e","Ġident ify","Ġastron auts","' ?","s er","Ġs ens","at or","er m","al ity","Ġn ow","ter n","lo od","Ġun ique","Ġinter act","Ġorgan iz","Ġmult ip","Ġassist ant","Ġsav ings","a ign","Ġ el","Ġa ud","Ġw al","Ġse ed","Ġemploy ers","Ġbuy ing","Ġpre dict","pr ise","Ġoffer ing","Ġdeli ver","Ġwebs ites","Ġadvert ising","Ġbroth ers","Ġanim als","a z","s h","u de","Ġa ff","at ive","Ġf aster","Ġm atch","Ġst ream","il ar","Ġre ce","Ġus er","ab les","Ġwork ers","Ġvide os","Ġautom at","Ġinst ead","Ġgiv ing","Ġproj ect","Ġpos s","Ġeng ine","Ġu k","Ġach ieve","Ġcamp aign","Ġfeed back","r uc","Ġc osts","Ġf avor","Ġg l","is s","Ġre qu","th er","Ġpr ices","Ġplan et","Ġbl ack","Ġop er","Ġsim ilar","Ġproj ects","Ġchild ren","Ġfre el","crip tion","Ġnum ber","b ers","Ġs elf","Ġc ars","ar ly","Ġh iring","Ġy ears","Ġtr acking","Ġsa fe","ph one","Ġpur p","Ġdevic e","Ġphot os","Ġmeas ure","i ans","j ust","Ġt imes","Ġc ent","ro l","ec k","Ġde p","Ġex ist","Ġhealth care","Ġsystem s","Ġke y","Ġev ent","Ġinvest ors","Ġcol lect","Ġmon itor","Ġlead ers","Ġvis ual","s el","er n","Ġw om","Ġb al","Ġm ay","Ġd uring","Ġcom e","Ġre f","Ġad just","our c","Ġind ia","Ġpat ients","Ġtw o","c ommerce","Ġ 5","Ġs an","re d","Ġst and","ic ing","Ġloo k","Ġbl ess","r al","Ġ ve","Ġp ot","Ġp ast","Ġf air","it ch","Ġpr iv","Ġresp ect","Ġhum ans","Ġchang es","Ġspend ing","wh ere","Ġmultip le","f ace","i ous","p ower","u f","Ġb ad","Ġh omes","Ġd ail","Ġpro p","ot e","Ġapp ro","Ġhe art","Ġautom ate","Ġam az","Ġper form","Ġmess aging","Ġdirect ly","Ġspe ed","Ġitem s","Ġcla ims","Ġdail y","l ip","l ish","Ġt urn","Ġc ities","Ġre view","Ġgo og","Ġtr ain","Ġch ar","Ġlo ans","Ġbet a","our ce","Ġprovid ing","Ġemploye e","Ġno ah","Ġec lip","Ġenter prise","Ġmet e","Ġautomat ically","Ġpurp ose","r ib","Ġt re","Ġs ons","es ts","Ġe at","Ġgo ing","os p","Ġcont rol","Ġag ain","Ġcle an","Ġanaly z","Ġgro c","Ġpot ential","a ke","Ġh op","Ġh osp","Ġre ach","Ġan o","ce pt","ul es","Ġlo an","Ġta x","Ġpay ing","em ber","Ġph ys","Ġown ers","Ġqu est","Ġcal led","Ġmonth ly","Ġcommunic ate","Ġintern et","Ġgoog le","Ġa ar","it ive","Ġcon f","Ġv ar","Ġv ers","if e","Ġex t","Ġgood s","Ġmo v","Ġsol ar","Ġdevelop ment","Ġstr ate","Ġact iv","Ġgiv es","Ġap art","Ġfeat ures","Ġaar on","u ter","Ġm ind","Ġe arly","Ġli ving","all en","Ġcl ose","Ġsell s","ry pt","Ġrec ip","Ġlead er","Ġsuccess ful","Ġgalax ies","Ġmod el","Ġtelescop es","sel ves","u th","Ġs in","Ġb illion","Ġto p","al e","Ġin f","as es","Ġe nd","ur ity","Ġle ave","Ġch e","Ġch allen","Ġcol le","Ġdis co","Ġprogr ess","Ġsec ure","Ġhum an","Ġshop p","Ġaff ect","g or","l ess","m s","s w","t ics","Ġa im","Ġc r","Ġc ould","Ġb el","Ġch arge","Ġdoes n","Ġse as","Ġthem selves","iv id","Ġwant ed","Ġwill ing","Ġloc ation","Ġincl ude","Ġdis c","Ġwr ong","Ġanaly tics","Ġtrad ition","Ġlab an","Ġcontract ors","c um","f ol","i pp","n e","Ġt ent","Ġc ap","Ġf il","Ġf ull","le x","Ġl it","Ġcard s","Ġrem ember","Ġpat ient","Ġprom ises","Ġchat bot","Ġstor es","Ġmil ky","Ġprofession als","Ġcampaign s","Ġpriv ate","Ġphys ical","t ions","Ġs uch","Ġc ut","Ġd ream","Ġn ames","Ġcan d","Ġcon c","Ġwor d","Ġway s","Ġdid n","Ġcons ist","Ġpersonal ized","Ġmess age","Ġsch ool","Ġopt ions","Ġmer ch","Ġob j","Ġcollabor ate","Ġconst ell","Ġincre ase","Ġsubs cription","Ġhon est","Ġfavor ite",". âĢĿ","ar m","Ġm in","Ġd ash","Ġre duce","Ġma int","Ġsh e","Ġman uf","Ġle nd","Ġch eck","iv en","ket s","Ġide as","Ġsol ve","Ġqu ality","Ġautom ated","Ġsec urity","Ġbill s","Ġprot ect","Ġcrow d","Ġport fol","Ġposs ible","Ġmete or","Ġano ther","Ġmanuf act","Ġb ible","Ġm en","Ġh er","Ġh ur","re en","Ġcomp uter","Ġtr ue","ver n","iv es","Ġpr icing","Ġad apt","Ġnew s","Ġte mp","Ġshow ing","Ġen ables","Ġbig gest","Ġsmart phone","Ġfam il","Ġban ks","Ġtrans par","Ġrestaur ant","Ġhand le","Ġcommunic ation","ug g","Ġrepres ent","power ed","Ġtradition al","d r","i um","i ety","r ic","Ġw in","Ġf un","Ġm at","Ġin de","Ġg if","Ġre b","Ġli ves","Ġan sw","Ġtr ip","ter m","Ġor bit","ell ig","ap er","Ġconnect ing","Ġfinanc es","Ġhappen ing","led ge","Ġmem bers","Ġbal ance","rib ut","Ġlit tle","Ġdash board","b or","i ences","Ġ 4","Ġth ough","an n","Ġy et","Ġpl aces","Ġgo vern","Ġare a","Ġde f","Ġmo ving","ub er","Ġind ivid","Ġhappen ed","Ġtrans act","Ġproblem s","ert ain","Ġnegoti ation","Ġcount ries","a king","l ike","Ġb ang","Ġm ot","Ġh r","ro ll","Ġab ility","de mand","Ġget s","Ġsc ore","Ġdevelop ing","Ġfound er","Ġund er","Ġ1 0","Ġorgan ize","Ġresp ons","Ġcombin ator","Ġgalax y","Ġamaz on","o int","Ġt ic","for d","Ġr ules","Ġal t","Ġv o","Ġab le","lo ad","Ġen er","Ġsc ient","Ġcreat ed","ang u","Ġar k","Ġsched ule","Ġboo ks","i ec","v ent","Ġ king","Ġs on","Ġs ite","Ġw atch","Ġw ife","or ds","Ġp ost","Ġp iec","on om","Ġl angu","is co","ac ts","Ġv ent","Ġch ain","iv ing","iz ing","Ġint ellig","Ġhapp y","Ġdec ide","Ġpre p","Ġag ents","Ġfound ed","Ġgrow ing","Ġvis it","Ġlaunch ed","Ġrun ning","Ġrelationship s","Ġfreel anc","Ġseas ons","Ġener gy","r ess","y le","Ġ uber","Ġc rypt","Ġp op","Ġb it","Ġf ast","Ġg ames","ic ro","Ġcomp let","Ġcon vers","Ġfr anc","Ġj ud","ab ility","Ġinter face","Ġrec omm","Ġinvest ments","Ġro om","Ġaf ford","Ġany one","Ġcho ices","Ġgu id","Ġap i","ek ah","Ġpub lish","Ġreg ular","Ġmanag ers","Ġappro ach","Ġquest ions","Ġshopp ing","Ġreb ekah","Ġfranc isco","Ġrecomm end","e e","Ġs k","Ġc e","Ġf ix","Ġf lood","Ġm iss","Ġis s","Ġr ates","ce ed","Ġsh ort","Ġser vant","Ġbec ome","Ġsl ack","Ġgl ob","Ġperform ance","Ġcand id","Ġalt ar","Ġscient ists","a ut","l ing","p s","Ġt ab","es us","Ġb and","Ġm om","Ġm icro","Ġe lect","Ġhelp ed","Ġli ved","th e","Ġle vel","Ġj our","Ġj esus","Ġwor th","iv ely","Ġwe ar","Ġprovid ers","Ġsc ale","Ġro le","Ġknow ledge","Ġrem ote","Ġatt ention","Ġdet erm","Ġrecip e","Ġfamil ies","Ġintellig ence","a pp","f for","k ed","o y","Ġp itch","Ġf a","Ġl ower","Ġe ffor","ac le","Ġcom ets","Ġre le","Ġal gor","Ġv iew","Ġsmall er","ire d","Ġinc ome","Ġcreat es","Ġinvest ing","Ġla w","Ġgrow th","Ġday s","Ġexper iences","Ġcompet ition","Ġcho ose","Ġdist ribut","Ġconstell ations","Ġvo ice","Ġalgor ith","d ers","d ay","y c","Ġs ac","Ġs ide","Ġc or","Ġc am","Ġp ol","Ġm ent","Ġm ass","Ġo pp","et imes","Ġfor g","Ġr ach","Ġplatform s","Ġne ar","ation al","Ġpr ay","Ġexp ect","Ġoff ice","Ġsom etimes","Ġro ad","wor k","Ġag ree","Ġret urn","Ġval u","Ġshar ed","Ġcompet e","Ġprom ise","Ġcall s","Ġty p","Ġreward s","Ġorganiz ations","Ġel se","Ġrece ive","ern acle","Ġwom en","Ġvar iety","Ġvers ion","Ġdisco ver","Ġfreelanc ers","Ġtab ernacle","Ġrach el","g ing","h ead","p ect","p erson","Ġs um","Ġp ull","Ġto ward","Ġf ig","ar k","Ġm id","Ġh ist","Ġd est","Ġst op","il ities","Ġcom ing","Ġgo t","ur ren","oc ks","oc urren","Ġmarket s","ĠâĢ Ķ","Ġpay roll","ire ment","Ġpre par","Ġrel i","Ġgu ide","Ġexist ing","Ġmat ter","Ġcrypt ocurren","Ġglob al","b an","i an","m ers","t e","or k","Ġb ar","Ġto uch","Ġh ost","Ġst ations","Ġl ar","Ġl ink","Ġgo ld","Ġapp oint","Ġfe e","Ġbig ger","Ġro c","Ġstr ugg","Ġret irement","Ġco ver","Ġstud ent","Ġra ise","Ġegypt ians","Ġfollow ing","ord ing","Ġbre ak","Ġpar ents","Ġpub lic","Ġty pe","Ġim ages","ral ized","Ġmerch ants","Ġportfol io","Ġansw er","Ġfig ure","2 0","c ul","c ome","e x","g th","j oy","Ġt reat","Ġa head","Ġs w","at s","Ġb or","Ġm ag","Ġd one","Ġst ock","Ġg as","Ġe qu","id es","Ġle g","and s","vic e","Ġac cept","âĢĿ ,","Ġcl ass","Ġen joy","Ġcurre n","ap e","Ġam ount","Ġevery one","Ġunderstand ing","Ġgiv en","Ġec onom","Ġmeet ings","Ġhol y","Ġhol es","Ġdoct or","Ġtest ing","Ġboo king","Ġbeh av","Ġpurch ase","Ġeffect ive","Ġsin ce","Ġconsist ent","Ġtic kets","b y","f ic","s elf","u ite","Ġ Ċ","in s","Ġc lo","Ġc aus","Ġw ent","Ġp u","Ġp ill","Ġb ra","Ġd ark","Ġr ate","Ġbe aut","Ġwor ds","Ġde als","ial s","Ġex c","Ġad v","Ġad am","Ġsay ing","ens e","Ġpart ic","Ġbuy ers","Ġfin ance","hip s","Ġval ues","Ġcal cul","Ġwr ite","Ġpower ful","Ġart ists","Ġopt im","Ġrecruit ing","Ġstep s","Ġcap ital","Ġmanufact ur","Ġtransact ions","Ġcandid ates","Ġdeterm ine","i ver","o le","r ied","t ers","Ġs uite","Ġp ack","Ġb as","Ġf ac","ar ing","Ġh our","en ed","ou ts","Ġst ation","Ġy ork","Ġwith in","Ġr ide","Ġcon fer","Ġsh ipp","Ġare as","Ġex ch","Ġas king","Ġsa f","Ġk id","Ġfocus ing","Ġimport ance","ific ial","Ġkeep ing","Ġco ff","Ġcare ful","Ġsal e","Ġ1 00","Ġmess ages","Ġconsum er","Ġlaunch ing","Ġart ificial","Ġbroth er","Ġed uc","Ġapplic ations","Ġsens e","Ġgroc ery","Ġmov ie","Ġprep are","Ġafford able","Ġcam er","Ġsum m","Ġbehav ior","' ll","l u","m art","s et","in ing","Ġs le","er c","er ic","Ġp le","Ġp et","Ġf act","Ġf ire","Ġd ivers","ro p","Ġon es","ag ram","os ing","Ġle ft","Ġch ann","ut ions","Ġimp act","Ġinter ests","Ġinst agram","Ġnetwor ks","Ġrem ind","Ġsend ing","Ġaccount ing","Ġatt ract","Ġhot el","Ġpres ent","Ġpres ence","Ġaud ience","ourc es","Ġhosp ital","Ġobj ects","Ġpop ular","1 0","a an","d o","i el","m it","o ot","r ing","Ġa uth","Ġs ar","Ġs ource","or ts","Ġp ict","Ġb ike","Ġm ount","Ġstart ed","Ġli f","Ġli br","am ed","Ġcan aan","ter oid","ant ly","od y","ul ing","Ġas teroid","ib ility","Ġrec ords","Ġmed ic","Ġsup pl","Ġsc reen","Ġany where","Ġpat tern","ven ant","Ġlet ting","Ġtal ks","Ġgroup s","Ġlisten ing","Ġapplic ation","Ġcent er","Ġeclip ses","Ġinf lu","Ġlangu age","Ġmom ent","Ġcoff ee","Ġsle ep","Ġsar ah","b e","k er","z z","er g","Ġd i","it ter","us e","il t","Ġn av","Ġus ually","os s","Ġpe er","Ġtr ou","Ġha bit","Ġsp read","Ġhe ad","ist ic","Ġmar s","ra id","Ġbr ight","Ġun c","Ġup load","Ġshow ers","Ġcreat ors","ren gth","enc ies","Ġconnect ed","Ġco venant","Ġaf raid","Ġsim pl","Ġdecis ion","Ġchang ing","Ġfit ness","Ġsched uling","Ġcour ses","Ġ5 0","Ġtrain ing","Ġanalyz e","Ġcolle ge","ne y","Ġmaint ain","Ġlend ing","Ġcomplet e","Ġhist ory","Ġcryptocurren cy","Ġappoint ments","Ġleg al","Ġmanufactur ers","' m","a ving","f und","k en","k ers","l ight","m ing","r acts","t ure","Ġ ing","Ġt able","Ġs ites","er ies","Ġp ain","ar ed","Ġst e","Ġdo or","Ġr ound","Ġne ver","Ġsp ot","ab ase","Ġse ver","Ġlo g","Ġcl os","Ġdat abase","Ġpart y","Ġen ough","Ġev il","Ġam eric","Ġbo x","Ġbo ard","Ġact ions","Ġcompet itive","Ġteach es","Ġpartners hip","pro fits","Ġhur t","Ġgovern ment","Ġvent ure","Ġtoward s","Ġexch ange","Ġnav ig","f low","h ic","p end","r om","Ġ z","in ation","Ġth ree","Ġs ent","Ġs low","Ġb lood","re t","Ġst rength","ir es","ir st","Ġdo cum","ur al","Ġr out","Ġal tern","Ġas ks","ra ph","ort un","Ġsa id","Ġsell ers","Ġcont racts","Ġdif fic","Ġfir m","Ġacc ording","Ġsuc ceed","Ġcal m","Ġmonth s","ak er","Ġprogram s","Ġtal ent","Ġtal king","Ġfar mers","Ġexpl ain","Ġpurch ases","Ġbur n","Ġbless ing","Ġeclip se","Ġclean ing","Ġstrate g","Ġstrate gy","Ġchallen ges","Ġtranspar ent","Ġsac r","Ġopp ortun","Ġing red","Ġdocum ents","Ġdiffic ult","Ġs ug","Ġc ir","Ġw a","Ġw is","Ġp ick","Ġp aper","Ġb row","Ġh ole","Ġo il","Ġg ard","Ġpl ant","Ġor ders","Ġpr ies","Ġad vant","Ġtrack s","Ġlearn ed","Ġinter view","Ġcreat ive","Ġdec ent","Ġpre fer","Ġag encies","Ġhard ware","Ġvis ion","Ġass ets","Ġteach ers","og raph","amp le","Ġtw itter","Ġrep ort","Ġask ed","Ġtelescop e","Ġprofession al","Ġbeh ind","Ġcour se","Ġve hic","Ġguid ance","Ġiss ues","Ġreli able","Ġpu zz","Ġinflu enc","Ġingred ients","Ġpuzz le","c om","m an","p er","s c","v ir","Ġ outs","Ġt ree","Ġc ou","or ing","Ġp od","Ġb read","Ġh ous","it s","it als","Ġe y","ir d","Ġdo g","Ġhelp ful","ol d","Ġpe ace","ur ring","if ied","Ġpr act","Ġbr ings","ile d","ub e","Ġdesign ers","Ġfund s","Ġban king","Ġper f","Ġact ually","Ġwr iting","Ġdr ivers","Ġhand s","Ġeng age","Ġphot o","Ġmeet ing","Ġmista ke","Ġplay ing","Ġang ry","Ġprop er","dr iven","Ġthough t","Ġjud ah","Ġelect ric","Ġjour ney","Ġvalu able","Ġeconom y","Ġasteroid s","Ġgard en","Ġdecent ralized","b u","c ts","d om","f irst","i ers","k it","k ay","m b","m ed","o f","s mart","u mp","Ġ ur","Ġ ens","Ġt v","Ġth in","Ġs ize","Ġs ky","or es","or ies","on t","Ġf ill","ar ies","Ġi os","us ed","Ġe ph","Ġcom es","Ġre as","Ġpro s","Ġli mit","Ġr ather","Ġne igh","Ġv ac","Ġcustom ized","Ġch ains","Ġapp ly","Ġex ample","Ġse en","Ġse par","iv ity","Ġph il","Ġph ones","Ġneed ed","Ġup set","Ġinv o","Ġinv ol","Ġrec urring","Ġsc ience","Ġinst ruc","Ġlead s","Ġpo or","Ġkind s","Ġresp ond","og n","Ġtal k","Ġ3 0","Ġprofit able","Ġefficient ly","Ġintegr ate","Ġinteract ive","Ġaud io","Ġengine ers","Ġoper ations","Ġtre nd","Ġhosp itals","Ġbel ieve","Ġdisc ounts","Ġmin im","bor n","Ġindivid ual","Ġmot iv","Ġfa ith","Ġlibr ary","Ġhabit s","Ġsever al","Ġbrow ser","5 0","e mp","f ound","g re","i ate","n er","s ocial","u als","Ġ 8","Ġ er","Ġ ess","Ġth ird","Ġw arm","Ġp ers","Ġp il","Ġp un","Ġd ie","it ors","Ġo kay","Ġst a","Ġst ocks","as ing","ac y","ow s","ent ly","Ġcomp ut","Ġon ce","Ġcan n","Ġan n","Ġwor ried","Ġyour self","if ul","ul ts","ut e","Ġwork flow","Ġsy mb","Ġpart s","Ġrec ogn","Ġcreat or","Ġacc ur","Ġsol d","Ġpre vent","Ġtoo k","Ġback ed","au gh","Ġem ot","Ġlong er","Ġaccess ible","Ġcombin ation","pe er","crip tions","Ġdet ect","Ġfeat ure","Ġdep end","Ġve nd","Ġagain st","Ġtax es","Ġapart ment","Ġaim ing","Ġgif t","Ġment al","Ġagree ment","Ġcurren cy","Ġpartic ular","Ġshipp ing","Ġcamer a","Ġpattern s","Ġpod c","Ġess ential","Ġpun ish","Ġsymb ol","d en","e ver","m a","t ube","u gh","v est","er at","Ġc oo","Ġc ame","Ġw on","Ġb ot","Ġf all","Ġf oot","Ġm ill","Ġh ag","Ġd augh","Ġg ain","Ġe ating","Ġyou tube","Ġre place","Ġr ule","Ġtr uth","Ġle aving","Ġme al","Ġsp o","Ġsp aces","ad e","ra w","ra ft","iz es","Ġat m","Ġen vir","ff ic","Ġprocess es","Ġany thing","Ġtas k","Ġtell ing","Ġindust ries","Ġdr ive","bo x","Ġform er","Ġexpl ore","Ġmem ber","Ġinterest ed","Ġwal k","Ġstream line","Ġfreel ance","Ġwom an","Ġchar ges","Ġhop es","Ġmov ies","Ġactiv ity","Ġactiv ities","Ġtemp erat","Ġinde pend","Ġ4 0","Ġprepar ed","Ġlink ed","Ġeduc ation","Ġchann els","Ġtrou ble","fund ing","Ġaltern ative","Ġsug gest","Ġadvant age","Ġproper ty","Ġhag ar","Ġenvir on","3 0","b n","b s","d le","l er","o ver","u ff","Ġ -","Ġb all","Ġf ul","Ġf ash","Ġm or","Ġm ention","Ġh und","Ġd om","Ġg round","is ter","ac ec","Ġy um","Ġn amed","Ġon board","Ġma p","Ġan c","un e","Ġv en","Ġsp ir","Ġsp acec","Ġapp le","Ġser ies","Ġex ec","Ġta il","lo g","Ġfe es","Ġproduct ivity","Ġfocus es","anc es","Ġmo ves","Ġsup er","Ġloo ks","Ġits elf","Ġhigh er","Ġinform ed","Ġtrans fer","Ġsend s","Ġrep air","Ġemail s","Ġspe ak","Ġbudget ing","Ġnegoti ate","Ġearn ing","pro fit","Ġfl ights","Ġcrow ds","Ġeffect ively","Ġrepres ents","Ġwal let","Ġmatch ing","Ġrequ est","Ġgroc eries","Ġcr m","iven ess","Ġpiec e","Ġregular ly","Ġsk ill","Ġeffor t","Ġalgorith ms","Ġnear by","Ġmid dle","Ġstrugg le","Ġcaus es","Ġbeaut iful","Ġhour s","Ġconfer ence","Ġsaf ety","Ġkid s","Ġlif est","Ġindepend ent","Ġfash ion","Ġyum on","Ġspacec raft","a ud","g in","g ets","t ains","Ġ et","Ġs it","at ors","Ġc ause","Ġc apt","or m","Ġp ath","Ġp air","Ġb i","Ġb ase","Ġto ld","on ds","Ġf ight","Ġm ater","Ġh ar","re m","Ġd ied","Ġd rop","en ance","ed om","Ġl am","Ġl ine","Ġl ost","Ġg re","is ion","Ġfor ward","Ġe ve","Ġy c","ion al","ec ess","Ġpro duce","Ġgo es","th es","Ġma j","Ġal ign","pp ing","Ġfr uit","Ġfr aud","Ġj eth","Ġcre ation","if ice","Ġser ve","Ġser ves","ut es","Ġtool kit","Ġcl in","Ġwas te","Ġcur tains","Ġcomm and","Ġmean ing","Ġdes k","Ġrec ord","Ġres ults","Ġsee k","Ġsc an","Ġsol ving","Ġsol utions","Ġknow ing","rough t","Ġent ire","Ġmon et","Ġtra ffic","Ġdeb ts","Ġfeel s","Ġfeel ing","Ġanaly s","Ġbring ing","Ġstor ies","Ġorder ing","Ġadvert is","Ġadd ing","Ġcollabor ation","Ġintegr ated","Ġ201 9","Ġread ing","Ġoper ating","Ġconf id","Ġconf lic","Ġche ap","Ġche aper","Ġtranspar ency","Ġinde ed","Ġdef ine","Ġindivid uals","Ġpiec es","Ġrele vant","Ġtyp es","Ġclo thes","Ġpill ar","iel d","Ġperf ect","Ġvend ors","Ġlinked in","Ġjeth ro","1 00","5 00","f r","g s","h ma","l ines","s hip","u ge","Ġs uit","Ġp age","Ġb ab","Ġb ody","Ġb oss","Ġf ly","Ġf lex","Ġh uge","Ġd ate","om s","le br","Ġst ate","Ġst uff","Ġis hma","Ġl ate","Ġl ast","art er","as ts","ic ks","Ġcomp rom","Ġre d","id ing","Ġli k","Ġsh all","Ġv r","Ġv et","Ġle ah","ie f","Ġdat ing","ens ive","Ġup d","Ġcont in","Ġuse ful","Ġmed ium","Ġset s","Ġsc ores","Ġbrand ed","ific ations","ier ge","Ġag gre","Ġconnect ion","Ġprocess ing","pr int","Ġno thing","Ġact ive","Ġtell s","Ġprogram ming","Ġes c","Ġhot els","Ġmod els","Ġgener ation","ser vice","ourc ed","Ġreview s","Ġext ra","cum c","Ġconc ierge","Ġcrowd funding","Ġgif ts","Ġmot ion","Ġpublish ers","Ġrecommend ations","Ġce lebr","Ġmiss ion","ban ked","Ġlar ger","Ġbor row","Ġequ ip","Ġsumm er","Ġple ase","Ġdivers ify","Ġpict ures","Ġnavig ate","Ġsacr ifice","Ġens ure","Ġreas on","Ġneigh bor","Ġinstruc tions","bn b","Ġanc ient","Ġlifest yle","Ġmaj or","Ġanalys is","Ġishma el","Ġaggre g","c ent","i os","l a","m on","p ort","s p","Ġt ilt","in a","in ts","Ġth ous","Ġs ou","Ġs ust","Ġs ad","er ts","Ġc ult","Ġw ide","or ation","Ġb rought","Ġto y","Ġf ile","re l","Ġand ro","Ġst age","Ġl y","Ġg ig","Ġg ave","Ġfor ce","Ġe ver","Ġyou n","Ġcomp lex","Ġcon dit","Ġch ance","Ġse ven","Ġpr int","Ġmar k","Ġwe ek","Ġmarket ers","ie v","Ġcl ip","Ġwas h","Ġen c","Ġhealth y","Ġres ources","Ġsol id","Ġfound ation","Ġam ounts","Ġhard ened","Ġdesign s","Ġinst antly","Ġfund ed","Ġtravel ers","Ġstud y","Ġwr it","Ġorgan ized","Ġimpro ving","ron ic","Ġcho ice","Ġrent al","Ġbill ions","Ġfre edom","Ġexpand ing","Ġmer cy","Ġintegr ates","Ġcount ry","Ġsur v","Ġang els","Ġrece iv","Ġdep art","Ġevent ually","Ġcollect ing","Ġmonitor ing","Ġaim ed","Ġobj ect","Ġmaint enance","Ġbit co","Ġdistribut e","Ġexpect ations","Ġstrateg ies","Ġopportun ities","Ġinfluenc ers","emp loy","Ġpil ot","Ġenviron ment","Ġcomprom ise","Ġequip ment","Ġandro id","c ies","d igital","h ood","l i","n ov","o ff","u ly","Ġ 9","Ġt in","in ter","in ting","Ġs il","Ġs ound","Ġc ate","Ġc ertain","Ġw ind","Ġb log","Ġf le","Ġm aster","re c","Ġd ry","it ed","al ing","Ġwh ite","Ġst ones","Ġg am","ro y","Ġe u","Ġdo c","os ph","Ġcan ad","Ġr iver","im ate","Ġbe gin","ver age","Ġch er","Ġex erc","iz ation","Ġwork ed","arn ing","Ġproduct ive","Ġcons ult","Ġpre m","Ġpre v","Ġcol or","Ġcol ors","Ġreal istic","Ġag o","Ġkeep s","Ġrel ate","Ġhigh light","Ġins ights","Ġfail ing","Ġsec ond","Ġwell ness","Ġpos ts","Ġprof ile","Ġrent als","Ġphot ograph","Ġintern al","Ġintern ational","Ġident ity","Ġadd ress","Ġach iev","Ġair bnb","Ġang el","Ġhon or","Ġbur ied","Ġmanag er","Ġmatch es","Ġsan ct","Ġhop e","dr iving","Ġroom s","Ġeffor ts","Ġalgorith m","Ġhost ing","Ġoptim ize","Ġthin king","Ġatm osph","Ġet c","Ġsit u","fr iend","Ġtin y","Ġcanad a","Ġachiev able",", âĢĿ","' ve","c ur","c omes","f ocus","g n","l s","l ates","z y","Ġa ge","Ġs at","Ġs od","Ġs ix","Ġc ase","Ġb ay","Ġh ass","Ġh ere","re ct","le ment","Ġst ub","Ġl ater","Ġfor ec","ro pe","ac ing","Ġn ecess","ent ic","Ġal ong","Ġcon vert","Ġsh el","Ġsh ape","ot ely","Ġle d","Ġapp rec","Ġde ad","ab b","Ġse em","Ġac qu","Ġwe ather","Ġwe ak","und ry","Ġcl ient","Ġint ake","act ion","ub im","Ġrec ently","wor th","Ġstr ang","Ġla undry","Ġins ide","Ġnetwor king","Ġcar ry","Ġem erg","Ġrem otely","Ġact ion","Ġinclud es","ness es","Ġexpens e","Ġteach ing","bo ts","Ġpos ition","Ġsearch ing","Ġdist ance","Ġdist ract","Ġtarget ed","Ġgener ate","Ġput ting","Ġrecruit ers","Ġread y","Ġdeliver ed","sh aring","Ġext rem","Ġfil es","Ġdream s","Ġconc ern","Ġfun ct","yc le","Ġcor rect","Ġdest ination","Ġdest roy","Ġlar gest","Ġunc ertain","Ġsimpl ify","Ġplant ing","Ġpries t","Ġvehic les","Ġey e","Ġvac ation","Ġinvo ices","Ġmotiv ated","Ġcomput ers","Ġann ual","Ġdom ain","Ġcondit ions","Ġeu rope","Ġcher ubim","Ġhass le","c l","d ing","e ous","f l","m o","n c","p re","u ary","Ġ ut","Ġt en","Ġt erm","Ġs abb","at ers","er ing","Ġc a","Ġb onds","Ġto day","Ġm ix","Ġd in","us h","Ġst ick","Ġl at","Ġl abor","Ġl ights","up s","Ġn at","Ġn ur","Ġpl ants","Ġpl ast","Ġre duc","for t","for ce","Ġr ides","Ġsh ine","Ġsh em","st op","st yle","mp t","Ġch ina","Ġex act","Ġun ex","pl es","Ġfir ms","Ġro bot","ap es","Ġloc ations","Ġautom ation","Ġar r","Ġrel ax","so ft","Ġexper t","Ġsign ed","Ġtravel ing","Ġcal end","Ġcompet itors","Ġprom ot","Ġexpens ive","Ġdr iving","Ġclear ly","Ġrent ers","Ġadvert ise","ert ies","Ġcod ing","Ġtarget ing","Ġmil es","Ġgr ad","Ġ201 7","Ġim age","Ġorganiz ing","Ġstream l","Ġrequ ires","Ġprop os","Ġprop erties","Ġanalyz ing","Ġinf r","Ġdisco very","Ġmin utes","Ġrespons ible","Ġce o","Ġmass ive","Ġelse where","Ġpull s","Ġroc k","Ġmag n","Ġcalcul ated","Ġpack ages","Ġcareful ly","Ġhospital ity","Ġauth entic","Ġcir cumc","Ġwis dom","Ġpract ice","Ġtrend s","Ġpers pect","Ġfoot print","Ġonboard ing","Ġskill s","Ġlik ely","Ġly ft","Ġreceiv ed","Ġbitco in","Ġatmosph ere","friend ly","worth y","Ġsabb ath","f air","g ed","h ouse","h old","n al","o ve","p or","s ized","u el","v ants","w ise","y m","in ate","Ġs oc","Ġs ort","at ely","er ation","Ġc ain","Ġw ar","Ġw ise","Ġw ish","or ed","Ġb aker","Ġto ugh","Ġh ims","Ġd raw","it ude","le ch","Ġo x","el t","el ine","Ġin nov","Ġwh ether","Ġst ead","Ġl ic","Ġl ack","Ġl ists","Ġl ord","Ġg ather","ac ter","Ġr ange","Ġal erts","Ġtr uc","Ġbus y","Ġsh ip","ot y","Ġv ert","Ġme als","Ġsp are","Ġab ime","Ġapp ear","Ġde ep","ial ly","Ġser vants","Ġse vent","Ġsm o","ist ics","Ġad dit","ĠâĢ ĵ","Ġexp ress","em ents","Ġwho le","Ġfe ar","Ġnot es","Ġproduct ion","Ġout comes","ib ilities","Ġsy mpt","oo th","Ġsee king","Ġind ian","Ġqu al","wor ds","ast ruc","Ġreal ity","Ġdel ivers","Ġ1 5","Ġsign s","Ġper cent","ph ones","Ġtrust worthy","Ġass ess","Ġfeel ings","Ġsec ret","Ġcommunic ations","Ġcho osing","Ġdirect ion","Ġcombin ing","Ġform s","Ġtrad e","Ġexpl oration","Ġstrong er","Ġpar king","Ġpartner ing","Ġprot oty","Ġconst ruc","Ġim ag","Ġsens ors","iss ion","Ġ5 00","Ġturn s","Ġquest ion","Ġapart ments","Ġconsist ency","Ġgovern ments","Ġvent ures","Ġfast est","Ġmicro soft","Ġjour nal","Ġpol ic","pect ed","Ġauth or","Ġsuppl iers","Ġprefer ences","Ġsepar ate","Ġdepend ing","Ġcoo king","Ġdaugh ters","Ġspaces hips","Ġadvertis ers","Ġflex ible","Ġesc ape","Ġcult ure","Ġsurv ive","employ ed","Ġprem ium","focus ed","Ġstub born","Ġstrang ers","Ġunex pected","Ġinfr astruc","Ġhims elf","Ġabime lech","Ġsympt oms","Ġinfrastruc ture","2 5","b all","e al","f ill","i ation","l ock","p art","p ay","r es","r up","t op","t ech","v al","w ide","y ers","Ġt ur","in al","Ġs qu","er ate","Ġc ra","Ġc oun","Ġc ycle","Ġw ood","an a","Ġp en","Ġb ir","Ġf urn","Ġm ut","Ġi phone","Ġh or","Ġh ub","it er","Ġin box","Ġst ability","Ġl ose","as ting","Ġn urs","Ġbu l","Ġbu ry","Ġre fer","Ġre ub","Ġus age","am in","Ġv ol","ation ally","Ġle v","Ġha ir","Ġwor ship","Ġor ig","Ġch ec","ell ing","Ġpr ess","Ġhe al","Ġhe av","Ġgod s","Ġlo ves","Ġad vice","um e","Ġte le","Ġph arm","Ġun fair","Ġnot ifications","able d","Ġcomm it","Ġcomm erc","Ġlearn s","Ġshow er","Ġpart ies","se at","Ġprovid er","Ġro b","Ġro t","Ġdevelop er","Ġfinanc ing","Ġco op","Ġ2 5","Ġins p","av ened","Ġtrust ing","Ġpo ints","Ġkind ness","Ġcompet ing","Ġpriorit izing","Ġeng aging","Ġrep orts","Ġbill ing","Ġbene fit","Ġed iting","ough t","Ġbre ast","Ġpar ent","Ġnegoti ating","Ġconsider ing","Ġsubs criptions","Ġidentify ing","Ġsens or","Ġpredict ive","sh e","Ġmay be","Ġref lect","Ġstand ard","Ġamaz ing","Ġreach ing","Ġvar ious","Ġrecip es","Ġchallen ge","Ġdisc ount","Ġprotect ion","Ġportfol ios","Ġconvers ation","Ġfix ed","Ġfa iled","Ġpray er","Ġclo thing","Ġfact ors","Ġmedic ation","Ġameric a","Ġslow ly","Ġwa it","Ġinterview s","Ġouts ide","Ġhous ing","Ġinvol ved","Ġsta ff","Ġmill ions","Ġful fill","Ġmor ning","orm al","Ġmater ials","Ġgre ater","Ġmonet ize","Ġthous ands","Ġsust ain","Ġcate gor","Ġprev ious","Ġemerg ency","Ġexact ly","Ġconstruc tion","part y","Ġreub en","Ġcommerc ial","a ks","a ves","b on","c on","c ost","h ome","i et","j amin","k now","l ords","m in","n ers","p ec","s ource","t on","u ment","y ond","Ġ eth","Ġt ut","Ġa lex","Ġa verage","Ġs n","Ġs ect","Ġs ara","Ġs ister","at tle","Ġc ruc","Ġb ars","Ġf our","Ġm is","Ġm ort","Ġi ot","Ġh it","re h","Ġd iv","en abled","Ġst ar","Ġst re","ed s","Ġl ay","il es","il it","ic king","ro ad","Ġcom fort","Ġcomp li","Ġcomp reh","Ġdo ll","id ers","id den","Ġli kes","Ġma pping","os ed","ur able","Ġr an","Ġr ural","Ġal i","Ġal one","Ġbe yond","Ġman ages","Ġj o","Ġwor ry","st ore","Ġsp in","Ġab road","Ġde ath","ell s","Ġex ists","ack s","Ġmar ry","Ġwe igh","ip e","Ġcl ick","Ġnot e","Ġeas e","ens es","Ġshow c","Ġshow ed","oo ks","Ġmo ther","Ġsee ing","Ġsc ary","Ġacc el","Ġknow n","Ġstr ess","Ġcommun ities","Ġgrow s","pr ises","Ġam ong","Ġco ach","Ġright eous","Ġrel at","Ġ1 2","Ġcar bon","Ġval id","Ġtools et","Ġprom ote","Ġpos itive","Ġatt end","Ġrun s","Ġes pec","Ġben jamin","Ġcombin es","Ġentrepreneurs hip","Ġdet ail","Ġland lords","Ġmem ory","vers e","Ġ201 8","Ġfl ight","Ġcent ral","Ġvisual ize","Ġfair ly","Ġtre ated","Ġhop ing","Ġchallen ging","Ġschool s","Ġlend ers","Ġthough ts","ertain ment","Ġking s","Ġlangu ages","Ġconvers ations","Ġmiss ing","Ġwear able","Ġcor por","Ġforg iveness","Ġreturn s","Ġvalu ed","Ġbeaut y","Ġfac ilit","Ġsuppl ies","Ġlog istics","Ġameric an","Ġboard s","Ġhous es","Ġcann ot","Ġspir al","Ġexec ut","Ġdesk top","Ġconfid ent","Ġbab y","Ġneighbor hood","inter est","Ġphotograph ers","Ġcalend ar","Ġstead y","Ġsevent h","Ġpercent age","Ġsara i","Ġcruc ial","Ġespec ially","b t","b and","c le","c od","e y","e at","f i","h e","i od","i ency","j ehovah","l it","l us","p ool","r ial","r ics","t ed","u ate","v in","Ġ 7","in cts","Ġs ong","Ġs ources","er v","Ġc ake","Ġp ure","Ġp ush","Ġb ow","Ġb id","Ġb ond","Ġto wn","on se","Ġm ust","Ġh arm","re ds","Ġd ense","le y","le ments","le arning","Ġl amp","Ġl osing","Ġg ar","Ġg ent","il der","is on","ro om","up iter","Ġn ob","Ġn ormal","Ġbu gs","id ge","Ġma ps","Ġal m","Ġsh apes","Ġv er","Ġj upiter","Ġsp ent","Ġch ronic","Ġde eds","Ġex am","Ġse a","ut ation","Ġlo ved","ra p","um b","Ġsa w","Ġwork place","Ġpass ion","Ġun s","Ġun ions","Ġbut ler","Ġint uit","Ġown er","Ġsy nc","anc y","Ġdes cription","pl ay","pl ate","Ġev al","Ġcreat ures","Ġover all","Ġcol d","Ġstr uc","Ġent ertainment","Ġfood s","Ġret ain","Ġautom ating","Ġfriend ly","Ġinst it","Ġinst incts","Ġlead ing","Ġdis ag","Ġeff ects","Ġfail ures","Ġper iod","Ġtrans port","Ġdeb it","Ġmess en","Ġresp onse","Ġdr ag","Ġdr iver","Ġ20 20","Ġdirect ory","Ġec ommerce","Ġstor ing","Ġstor age","Ġintern ationally","Ġgra in","Ġopt ion","Ġneg ative","Ġed om","Ġed it","Ġeffic iency","Ġtrad ing","Ġhouse hold","Ġbre ath","Ġmeas urable","back ed","Ġnon profits","Ġgro wn","Ġbur ning","Ġel im","Ġstream ing","Ġproject ions","Ġrequ ire","ourc ing","Ġheart s","Ġchar acter","Ġanalyz es","Ġsecure ly","Ġbel ong","Ġmerch and","Ġconstell ation","Ġtemp lates","Ġwin ter","Ġansw ers","Ġtransact ion","Ġwatch ing","person al","Ġgold en","Ġpill ars","Ġbra ve","Ġsaf ely","Ġremind er","Ġpict ure","Ġclos est","Ġstrength s","Ġaccording ly","Ġminim um","found er","Ġer r","Ġcann ab","Ġrecogn ition","Ġpodc asts","Ġtemperat ure","Ġtemperat ures","Ġhund reds","Ġcapt ure","Ġsuit s","Ġcontin ue","rel ated","Ġyoun g","Ġenc rypt","Ġwrit ten","Ġdepart ments","Ġfle et","Ġdoc ument","Ġexerc ise","Ġsanct ify","Ġnecess ary","Ġweak nesses","Ġdistract ions","Ġuncertain ty","fl ix","Ġnat ural","Ġplast ic","Ġreduc ing","Ġtur ning","Ġsqu are","Ġbreast plate","Ġmort g","Ġcompli ance","Ġcompreh ensive","Ġgent le","Ġintuit ive",". )","a ired","b ooks","d ed","g o","i ant","l ist","l ife","n a","n am","t al","x ic","z il","Ġt im","Ġt ests","in ed","in ks","in vest","Ġs ight","Ġs uf","Ġc atch","Ġp ace","Ġp ets","Ġb ought","Ġf ing","Ġf ed","Ġf arth","Ġm eth","Ġi ll","Ġi gn","Ġh y","Ġh ate","Ġh ide","Ġd ou","Ġd ust","Ġd ue"]}}