{"version":"1.0","truncation":null,"padding":null,"added_tokens":[{"id":0,"content":"<PAD>","single_word":false,"lstrip":false,"rstrip":false,"normalized":false,"special":true},{"id":1,"content":"<BOS>","single_word":false,"lstrip":false,"rstrip":false,"normalized":false,"special":true},{"id":2,"content":"<EOS>","single_word":false,"lstrip":false,"rstrip":false,"normalized":false,"special":true},{"id":3,"content":"<UNK>","single_word":false,"lstrip":false,"rstrip":false,"normalized":false,"special":true}],"normalizer":{"type":"Sequence","normalizers":[{"type":"NFC"},{"type":"Lowercase"}]},"pre_tokenizer":{"type":"ByteLevel","add_prefix_space":true,"trim_offsets":true,"use_regex":true},"post_processor":{"type":"TemplateProcessing","single":[{"SpecialToken":{"id":"<BOS>","type_id":0}},{"Sequence":{"id":"A","type_id":0}},{"SpecialToken":{"id":"<EOS>","type_id":0}}],"pair":[{"SpecialToken":{"id":"<BOS>","type_id":0}},{"Sequence":{"id":"A","type_id":0}},{"SpecialToken":{"id":"<EOS>","type_id":0}},{"Sequence":{"id":"B","type_id":1}},{"SpecialToken":{"id":"<EOS>","type_id":1}}],"special_tokens":{"<BOS>":{"id":"<BOS>","ids":[1],"tokens":["<BOS>"]},"<EOS>":{"id":"<EOS>","ids":[2],"tokens":["<EOS>"]}}},"decoder":{"type":"ByteLevel","add_prefix_space":true,"trim_offsets":true,"use_regex":true},"model":{"type":"BPE","dropout":null,"unk_token":null,"continuing_subword_prefix":null,"end_of_word_suffix":null,"fuse_unk":false,"byte_fallback":false,"ignore_merges":false,"vocab":{"<PAD>":0,"<BOS>":1,"<EOS>":2,"<UNK>":3,"!":4,"\"":5,"$":6,"%":7,"&":8,"'":9,"(":10,")":11,"*":12,"+":13,",":14,"-":15,".":16,"/":17,"0":18,"1":19,"2":20,"3":21,"4":22,"5":23,"6":24,"7":25,"8":26,"9":27,":":28,";":29,"<":30,"=":31,">":32,"?":33,"@":34,"[":35,"]":36,"_":37,"`":38,"a":39,"b":40,"c":41,"d":42,"e":43,"f":44,"g":45,"h":46,"i":47,"j":48,"k":49,"l":50,"m":51,"n":52,"o":53,"p":54,"q":55,"r":56,"s":57,"t":58,"u":59,"v":60,"w":61,"x":62,"y":63,"z":64,"~":65,"¢":66,"¦":67,"µ":68,"Â":69,"Ã":70,"Ï":71,"â":72,"ð":73,"Ċ":74,"Ġ":75,"Ģ":76,"Ħ":77,"Ĩ":78,"ī":79,"İ":80,"Ĵ":81,"Ķ":82,"Ĺ":83,"ĺ":84,"Ļ":85,"ľ":86,"Ŀ":87,"Ł":88,"ł":89,"Ġt":90,"he":91,"Ġa":92,"Ġthe":93,"Ġo":94,"nd":95,"Ġw":96,"in":97,"Ġs":98,"Ġand":99,"Ġof":100,"Ġh":101,"re":102,"Ġb":103,"Ġf":104,"ou":105,"Ġto":106,"Ġm":107,"or":108,"er":109,"is":110,"ing":111,"Ġc":112,"Ġg":113,"at":114,"en":115,"Ġl":116,"it":117,"Ġy":118,"Ġp":119,"on":120,"Ġyou":121,"es":122,"Ġd":123,"ll":124,"Ġin":125,"ar":126,"Ġn":127,"Ġbe":128,"Ġhe":129,"om":130,"as":131,"an":132,"Ġth":133,"ve":134,"id":135,"ut":136,"Ġe":137,"le":138,"Ġis":139,"Ġsa":140,"Ġfor":141,"Ġon":142,"se":143,"Ġha":144,"Ġwh":145,"ord":146,"ent":147,"am":148,"Ġno":149,"im":150,"Ġgo":151,"ke":152,"ill":153,"Ġyour":154,"Ġma":155,"Ġhis":156,"ac":157,"Ġu":158,"Ġ-":159,"ir":160,"ed":161,"Ġi":162,"Ġlord":163,"ith":164,"il":165,"Ġit":166,"Ġwill":167,"et":168,"Ġwith":169,"ic":170,"ver":171,"el":172,"ra":173,"Ġsaid":174,"ion":175,"Ġwe":176,"Ġj":177,"her":178,"Ġse":179,"Ġwas":180,"gh":181,"Ġfr":182,"ay":183,"Ġall":184,"ro":185,"th":186,"al":187,"Ġhim":188,"Ġre":189,"st":190,"Ġan":191,"Ġgi":192,"Ġfrom":193,"Ġnot":194,"Ġthem":195,"Ġthat":196,"king":197,"ur":198,"Ġare":199,"Ġas":200,"Ġhave":201,"Ġthey":202,"Ġso":203,"and":204,"ame":205,"Ġcom":206,"Ġdo":207,"Ġput":208,"Ġta":209,"Ġme":210,"Ġor":211,"Ġtheir":212,"ri":213,"ght":214,"od":215,"ad":216,"Ġst":217,"Ġch":218,"op":219,"ly":220,"ath":221,"Ġli":222,"Ġmo":223,"ah":224,"Ġby":225,"Ġwho":226,"Ġisra":227,"Ġisrael":228,"Ġson":229,"Ġde":230,"ich":231,"Ġwhe":232,"Ġpe":233,"ct":234,"Ġmy":235,"ven":236,"Ġup":237,"Ġthis":238,"Ġbut":239,"Ġthen":240,"Ġgod":241,"ers":242,"Ġhad":243,"ain":244,"Ġwhich":245,"de":246,"Ġout":247,"Ġking":248,"Ġwent":249,"ace":250,"ild":251,"est":252,"ow":253,"Ġland":254,"Ġpeop":255,"ther":256,"Ġgive":257,"Ġman":258,"ok":259,"wn":260,"Ġpeople":261,"ren":262,"Ġmade":263,"'s":264,"Ġlet":265,"Ġwere":266,"Ġchild":267,"ter":268,"Ġwhen":269,"ant":270,"Ġtake":271,"Ġcame":272,"Ġfi":273,"Ġoff":274,"au":275,"ear":276,"Ġher":277,"ge":278,"Ġat":279,"ering":280,"ep":281,"Ġam":282,"Ġhas":283,"Ġpl":284,"ch":285,"Ġab":286,"ore":287,"Ġcome":288,"Ġmay":289,"ru":290,"ld":291,"Ġv":292,"ses":293,"Ġone":294,"ack":295,"ave":296,"one":297,"ation":298,"Ġshe":299,"Ġchildren":300,"pt":301,"Ġfat":302,"Ġnow":303,"Ġmake":304,"Ġag":305,"Ġthere":306,"Ġint":307,"ong":308,"Ġif":309,"ide":310,"Ġgave":311,"ab":312,"Ġar":313,"very":314,"Ġover":315,"Ġbec":316,"ving":317,"fe":318,"Ġday":319,"Ġbef":320,"art":321,"Ġne":322,"Ġbefore":323,"Ġsay":324,"red":325,"Ġtook":326,"ul":327,"Ġfather":328,"reat":329,"vant":330,"Ġoffering":331,"ose":332,"Ġser":333,"Ġinto":334,"Ġke":335,"Ġdeath":336,"Ġus":337,"Ġear":338,"Ġ(":339,"Ġmen":340,"Ġpro":341,"ess":342,"Ġtw":343,"Ġagain":344,"ood":345,"av":346,"all":347,"Ġwhat":348,"Ġevery":349,"Ġhou":350,"rou":351,"ment":352,"way":353,"os":354,"Ġservant":355,"sel":356,"Ġmoses":357,"Ġsee":358,"Ġhand":359,"Ġsh":360,"Ġback":361,"ight":362,"ph":363,"urn":364,"Ġdav":365,"Ġdavid":366,"nt":367,"Ġany":368,"Ġhouse":369,"ry":370,"Ġour":371,"Ġwor":372,"Ġplace":373,"Ġaf":374,"age":375,"pp":376,"Ġtown":377,"âĢ":378,"Ġlo":379,"ree":380,"out":381,"Ġafter":382,"um":383,"ause":384,"Ġgiven":385,"Ġaway":386,"Ġthese":387,"ction":388,"ount":389,"Ġbl":390,"Ġal":391,"ime":392,"ce":393,"Ġho":394,"Ġtent":395,"Ġcon":396,"us":397,"qu":398,"Ġfl":399,"ud":400,"ome":401,"Ġyear":402,"Ġk":403,"ist":404,"te":405,"ites":406,"Ġsp":407,"Ġsons":408,"ard":409,"Ġdid":410,"Ġagainst":411,"Ġco":412,"ine":413,"Ġcan":414,"Ġliving":415,"Ġph":416,"be":417,"ves":418,"Ġpri":419,"Ġgreat":420,"Ġfe":421,"our":422,"Ġsent":423,"Ġword":424,"Ġget":425,"ting":426,"ure":427,"ty":428,"Ġord":429,"Ġother":430,"ate":431,"Ġbecause":432,"Ġtwo":433,"Ġwat":434,"Ġun":435,"gy":436,"Ġbro":437,"ie":438,"un":439,"Ġle":440,"Ġkeep":441,"Ġpriest":442,"ken":443,"ast":444,"Ġdown":445,"ite":446,"ies":447,"Ġbeen":448,"thing":449,"Ġro":450,"Ġway":451,"ble":452,"Ġits":453,"Ġsin":454,"ig":455,"Ġ/":456,"ings":457,"Ġegy":458,"Ġegypt":459,"Ġholy":460,"Ġwr":461,"Ġfam":462,"br":463,"Ġearth":464,"Ġfamil":465,"ub":466,"Ġca":467,"Ġfood":468,"Ġsam":469,"Ġwi":470,"ag":471,"ous":472,"ould":473,"Ġthose":474,"Ġburn":475,"Ġtime":476,"ive":477,"Ġgood":478,"Ġbo":479,"ort":480,"Ġex":481,"Ġad":482,"Ġamong":483,"ations":484,"Ġz":485,"Ġlike":486,"Ġpart":487,"ob":488,"nder":489,"Ġev":490,"pl":491,"ol":492,"Ġarm":493,"âĢĻ":494,"ish":495,"Ġsaul":496,"Ġrest":497,"right":498,"Ġen":499,"Ġjud":500,"Ġbrother":501,"Ġorders":502,"lean":503,"Ġwork":504,"ws":505,"mon":506,"irst":507,"Ġtaken":508,"Ġdone":509,"self":510,"Ġte":511,"ile":512,"Ġsu":513,"pe":514,"Ġwhere":515,"Ġfirst":516,"Ġname":517,"Ġmar":518,"ps":519,"ice":520,"Ġwom":521,"und":522,"sh":523,"Ġcl":524,"Ġservants":525,"Ġed":526,"ple":527,"Ġpr":528,"Ġru":529,"Ġgot":530,"Ġwater":531,"Ġim":532,"ity":533,"Ġyears":534,"if":535,"Ġuse":536,"Ġqu":537,"Ġhund":538,"Ġhundred":539,"aron":540,"Ġaaron":541,"get":542,"ull":543,"ire":544,"Ġapp":545,"Ġdau":546,"oh":547,"Ġ<":548,"Ġhands":549,"Ġ/>":550,"Ġdaught":551,"ust":552,"Ġr":553,"ign":554,"tar":555,"Ġnum":556,"Ġhead":557,"Ġtill":558,"Ġabout":559,"Ġevil":560,"ot":561,"Ġsaw":562,"rough":563,"Ġeven":564,"we":565,"Ġstr":566,"ass":567,"Ġmore":568,"Ġsaying":569,"Ġburned":570,"Ġel":571,"Ġsome":572,"Ġheart":573,"Ġlife":574,"Ġwould":575,"Ġey":576,"Ġaltar":577,"Ġwar":578,"Ġside":579,"Ġdes":580,"rain":581,"Ġhow":582,"ial":583,"Ġgen":584,"Ġunder":585,"Ġcreat":586,"ne":587,"Ġhere":588,"Ġthrough":589,"Ġonly":590,"Ġje":591,"per":592,"ind":593,"ts":594,"hu":595,"Ġ1":596,"hed":597,"Ġbas":598,"Ġherit":599,"igh":600,"ff":601,"ines":602,"Ġwithout":603,"Ġsend":604,"Ġheritage":605,"Ġright":606,"ise":607,"Ġwife":608,"cre":609,"orn":610,"Ġfamily":611,"esh":612,"ara":613,"Ġeyes":614,"Ġgener":615,"Ġcut":616,"Ġcur":617,"Ġthan":618,"les":619,"sp":620,"Ġjo":621,"Ġbecame":622,"ng":623,"Ġbet":624,"Ġunc":625,"Ġac":626,"tain":627,"Ġdays":628,"Ġthings":629,"Ġmeet":630,"Ġneed":631,"gether":632,"Ġox":633,"Ġbu":634,"Ġtogether":635,"iz":636,"Ġend":637,"ions":638,"ck":639,"Ġtri":640,"Ġtowns":641,"Ġpo":642,"az":643,"xt":644,"Ġold":645,"Ġfear":646,"ountry":647,"Ġturn":648,"Ġyoung":649,"Ġmeeting":650,"Ġbir":651,"ory":652,"ans":653,"ach":654,"round":655,"Ġphil":656,"Ġphilist":657,"Ġwoman":658,"ix":659,"Ġthous":660,"Ġfire":661,"Ġthousand":662,"iting":663,"Ġseven":664,"Ġjer":665,"Ġwords":666,"Ġjudah":667,"ale":668,"ber":669,"Ġkept":670,"Ġphara":671,"Ġpharaoh":672,"now":673,"Ġfull":674,"its":675,"Ġgold":676,"Ġsou":677,"Ġmeal":678,"ever":679,"Ġah":680,"Ġthree":681,"selves":682,"for":683,"Ġjac":684,"kes":685,"Ġsheep":686,"Ġunclean":687,"Ġjacob":688,"aven":689,"ase":690,"Ġtents":691,"ated":692,"ked":693,"Ġtru":694,"Ġmount":695,"ief":696,"du":697,"side":698,"Ġatt":699,"other":700,"tle":701,"Ġread":702,"ition":703,"Ġwhy":704,"Ġwhom":705,"Ġcont":706,"Ġop":707,"ons":708,"Ġlong":709,"Ġthir":710,"Ġwaste":711,"Ġfathers":712,"Ġjos":713,"ip":714,"Ġface":715,"Ġanother":716,"hua":717,"Ġjoshua":718,"ible":719,"Ġbre":720,"Ġben":721,"Ġbod":722,"Ġnear":723,"ue":724,"res":725,"ds":726,"essing":727,"so":728,"Ġhel":729,"Ġcommon":730,"able":731,"em":732,"Ġsm":733,"Ġdest":734,"enty":735,"Ġoil":736,"Ġans":737,"Ġphilistines":738,"oth":739,"Ġoath":740,"Ġhigh":741,"Ġdat":742,"aces":743,"Ġwell":744,"row":745,"ruction":746,"Ġansw":747,"Ġjose":748,"Ġjoseph":749,"tt":750,"ink":751,"Ġla":752,"Ġfight":753,"Ġchief":754,"Ġfiel":755,"Ġblood":756,"off":757,"Ġround":758,"Ġwhile":759,"ang":760,"Ġknow":761,"Ġbook":762,"Ġdestruction":763,"Ġfo":764,"ick":765,"Ġcomp":766,"Ġdoor":767,"Ġblessing":768,"rah":769,"are":770,"Ġgone":771,"ft":772,"Ġhimself":773,"Ġsame":774,"Ġper":775,"Ġdaughter":776,"ia":777,"cts":778,"ower":779,"Ġpeace":780,"ertain":781,"Ġpos":782,"Ġbody":783,"Ġbeth":784,"act":785,"offering":786,"Ġsol":787,"Ġopen":788,"Ġpra":789,"Ġofferings":790,"place":791,"//":792,"://":793,"ai":794,"Ġ2":795,"Ġang":796,"Ġark":797,"ween":798,"Ġbetween":799,"Ġacc":800,"Ġstre":801,"word":802,"Ġ[":803,"Ġfour":804,"Ġcertain":805,"ally":806,"Ġstrong":807,"Ġbest":808,"Ġmat":809,"Ġmale":810,"Ġpur":811,"Ġdata":812,"Ġbr":813,"ordan":814,"Ġjordan":815,"Ġdead":816,"Ġcountry":817,"led":818,"Ġfamilies":819,"htt":820,"Ġrel":821,"Ġnews":822,"Ġbuild":823,"Ġeph":824,"Ġseen":825,"Ġadd":826,"uel":827,"Ġcomes":828,"Ġcare":829,"Ġbirth":830,"Ġvery":831,"aring":832,"Ġstill":833,"Ġlove":834,"Ġspe":835,"Ġmon":836,"Ġnam":837,"Ġgoing":838,"Ġagree":839,"Ġgr":840,"Ġfar":841,"Ġanswer":842,"cl":843,"Ġ\"":844,"ough":845,"aan":846,"Ġhard":847,"Ġmod":848,"omon":849,"Ġthing":850,"Ġnumber":851,"Ġhelp":852,"Ġsolomon":853,"ward":854,"Ġgrain":855,"Ġnight":856,"itor":857,"Ġdr":858,"Ġoverc":859,"Ġflight":860,"Ġarmy":861,"https":862,"Ġagreement":863,"day":864,"phe":865,"Ġmother":866,"Ġfive":867,"ages":868,"Ġimp":869,"co":870,"Ġtim":871,"Ġsix":872,"ision":873,"Ġdire":874,"Ġind":875,"Ġfif":876,"Ġtext":877,"ledge":878,"Ġheaven":879,"Ġever":880,"Ġbrothers":881,"Ġsc":882,"Ġwrong":883,"Ġsuch":884,"oking":885,"Ġwhose":886,"Ġlev":887,"ma":888,"Ġdis":889,"Ġable":890,"Ġabrah":891,"Ġfield":892,"Ġabraham":893,"ence":894,"Ġbread":895,"Ġknowledge":896,"Ġmonth":897,"Ġfun":898,"ary":899,"Ġdec":900,"Ġnew":901,"Ġprodu":902,"Ġsword":903,"Ġmid":904,"arch":905,"Ġplaces":906,"Ġcanaan":907,"Ġdesign":908,"Ġsil":909,"Ġset":910,"Ġcover":911,"Ġ3":912,"Ġmorn":913,"ont":914,"oney":915,"dom":916,"Ġtribe":917,"form":918,"hem":919,"Ġpower":920,"Ġsev":921,"Ġlight":922,"Ġsilver":923,"Ġmorning":924,"Ġsim":925,"els":926,"Ġresp":927,"athan":928,"Ġvide":929,"Ġorder":930,"Ġty":931,"Ġfree":932,"Ġclean":933,"Ġval":934,"Ġeli":935,"wor":936,"lear":937,"Ġston":938,"Ġalso":939,"Ġmountain":940,"ls":941,"othing":942,"oud":943,"Ġtoday":944,"Ġclear":945,"Ġsecre":946,"ance":947,"Ġseed":948,"Ġtwenty":949,"Ġworsh":950,"oice":951,"Ġcry":952,"bes":953,"Ġpray":954,"Ġpurp":955,"back":956,"Ġhearing":957,"ba":958,"je":959,"ash":960,"Ġgiving":961,"Ġused":962,"Ġact":963,"Ġpers":964,"Ġbeast":965,"ange":966,"Ġgods":967,"ments":968,"Ġsamuel":969,"Ġfunction":970,"Ġsecret":971,"jam":972,"Ġsafe":973,"Ġcomple":974,"Ġprophe":975,"Ġfeed":976,"ures":977,"Ġpriests":978,"Ġrespons":979,"00":980,"og":981,"Ġten":982,"Ġsign":983,"ely":984,"Ġdaughters":985,"ak":986,"iah":987,"ĠâĢ":988,"Ġhor":989,"Ġdise":990,"Ġresponsible":991,"Ġple":992,"Ġform":993,"Ġdoes":994,"Ġkings":995,"Ġcurse":996,"Ġthirty":997,"Ġdrink":998,"cess":999,"Ġhill":1000,"Ġpre":1001,"Ġmaking":1002,"Ġstart":1003,"Ġbenjam":1004,"Ġass":1005,"ands":1006,"Ġcreate":1007,"cy":1008,"Ġcub":1009,"uth":1010,"amb":1011,"Ġnothing":1012,"Ġrec":1013,"Ġvoice":1014,"Ġbecome":1015,"Ġeverything":1016,"Ġclothing":1017,"Ġjoab":1018,"Ġ+":1019,"Ġtimes":1020,"jah":1021,"Ġai":1022,"Ġgoes":1023,"Ġthemselves":1024,"Ġlooking":1025,"Ġhon":1026,"Ġmer":1027,"essel":1028,"Ġvessel":1029,"âĢĿ":1030,"Ġlim":1031,"Ġsea":1032,"Ġtal":1033,"Ġmight":1034,"Ġcons":1035,"Ġvideo":1036,"aph":1037,"ock":1038,"Ġgu":1039,"Ġrequ":1040,"Ġmoab":1041,"Ġeditor":1042,"ents":1043,"irc":1044,"Ġres":1045,"Ġinte":1046,"Ġcapt":1047,"Ġrul":1048,"Ġready":1049,"ĠâĢľ":1050,"ib":1051,"tc":1052,"uch":1053,"Ġsk":1054,"Ġbal":1055,"ound":1056,"Ġmind":1057,"Ġpay":1058,"vel":1059,"Ġburning":1060,"Ġsupp":1061,"Ġbenjamin":1062,"ious":1063,"ner":1064,"ta":1065,"Ġtr":1066,"Ġcat":1067,"Ġpill":1068,"Ġjeh":1069,"Ġturned":1070,"Ġstones":1071,"Ġfeedback":1072,"Ġpleas":1073,"ness":1074,"enth":1075,"Ġjon":1076,"ching":1077,"Ġwhatever":1078,"bered":1079,"Ġpillar":1080,"Ġflesh":1081,"Ġnumbered":1082,"Ġworship":1083,"sal":1084,"Ġmas":1085,"ices":1086,"eping":1087,"Ġsays":1088,"Ġmarke":1089,"Ġsmall":1090,"Ġspec":1091,"Ġmoney":1092,"Ġcause":1093,"Ġmost":1094,"Ġlaw":1095,"iv":1096,"men":1097,"Ġjust":1098,"Ġsheke":1099,"Ġproper":1100,"Ġturning":1101,"Ġattack":1102,"ians":1103,"ning":1104,"Ġtrou":1105,"Ġba":1106,"Ġcru":1107,"Ġflow":1108,"Ġchiefs":1109,"work":1110,"Ġpurpose":1111,"Ġgl":1112,"Ġtaking":1113,"ney":1114,"Ġfifty":1115,"Ġcattle":1116,"Ġjonathan":1117,"ey":1118,"Ġwa":1119,"Ġwood":1120,"Ġmuch":1121,"Ġpun":1122,"Ġele":1123,"rent":1124,"Ġabsal":1125,"Ġoxen":1126,"Ġabsalom":1127,"bb":1128,"oam":1129,"Ġver":1130,"Ġlit":1131,"eth":1132,"Ġvall":1133,"Ġnever":1134,"Ġanyone":1135,"Ġexper":1136,"Ġtruly":1137,"Ġdisease":1138,"Ġvalley":1139,"ram":1140,"ative":1141,"Ġinst":1142,"ical":1143,"Ġfru":1144,"Ġeng":1145,"Ġwomen":1146,"Ġcaptain":1147,"aac":1148,"ience":1149,"Ġinside":1150,"asse":1151,"Ġisaac":1152,"Ġmark":1153,"Ġbuilding":1154,"ered":1155,"lic":1156,"Ġhus":1157,"Ġfa":1158,"Ġtool":1159,"Ġcar":1160,"ular":1161,"Ġquick":1162,"Ġevening":1163,"Ġaccount":1164,"Ġnamed":1165,"ces":1166,"ful":1167,"ww":1168,"Ġincl":1169,"Ġnations":1170,"Ġconne":1171,"Ġwaters":1172,"Ġwrath":1173,"Ġtrue":1174,"Ġpunish":1175,"](":1176,"ss":1177,"Ġhal":1178,"ult":1179,"Ġanything":1180,"Ġways":1181,"__":1182,"ual":1183,"Ġsort":1184,"Ġhorn":1185,"Ġred":1186,"Ġaram":1187,"alled":1188,"Ġjerus":1189,"Ġperson":1190,"Ġcubits":1191,"sc":1192,"vie":1193,"Ġes":1194,"Ġsy":1195,"Ġtakes":1196,"ows":1197,"Ġflock":1198,"Ġfeet":1199,"Ġothers":1200,"alem":1201,"Ġovercome":1202,"Ġprayer":1203,"Ġjerusalem":1204,"eb":1205,"ef":1206,"gth":1207,"up":1208,"Ġwant":1209,"lech":1210,"Ġimage":1211,"Ġquest":1212,"ian":1213,"la":1214,"ors":1215,"Ġforty":1216,"Ġcoming":1217,"Ġbroken":1218,"Ġlittle":1219,"Ġown":1220,"Ġyourselves":1221,"Ġwriting":1222,"oboam":1223,"Ġmarked":1224,"Ġcontent":1225,"cond":1226,"Ġhalf":1227,"Ġincre":1228,"Ġeast":1229,"Ġsearch":1230,"Ġfile":1231,"Ġgeneration":1232,"Ġfighting":1233,"Ġshekels":1234,"Ġquickly":1235,"ail":1236,"pes":1237,"sing":1238,"erial":1239,"ison":1240,"ved":1241,"Ġhair":1242,"Ġjour":1243,"Ġspir":1244,"Ġparts":1245,"Ġresting":1246,"Ġsupport":1247,"Ġpunishment":1248,"ced":1249,"mo":1250,"ms":1251,"Ġmou":1252,"Ġdri":1253,"raim":1254,"Ġmany":1255,"Ġmanasse":1256,"Ġmaterial":1257,"Ġmaster":1258,"Ġmanasseh":1259,"do":1260,"lo":1261,"ring":1262,"hel":1263,"Ġgrow":1264,"lead":1265,"Ġones":1266,"Ġstore":1267,"imelech":1268,"Ġdirection":1269,"Ġlevites":1270,"ought":1271,"Ġtop":1272,"Ġthought":1273,"Ġweeping":1274,"Ġcloud":1275,"ize":1276,"Ġjourney":1277,"ats":1278,"ating":1279,"ates":1280,"Ġgilead":1281,"pect":1282,"Ġprice":1283,"Ġephraim":1284,"Ġwaiting":1285,"ex":1286,"Ġlin":1287,"Ġeach":1288,"Ġcutting":1289,"Ġposition":1290,"Ġpayment":1291,"Ġproperty":1292,"gin":1293,"li":1294,"Ġtou":1295,"hes":1296,"ides":1297,"Ġsecond":1298,"Ġgives":1299,"Ġbrass":1300,"Ġlimit":1301,"Ġbaal":1302,"Ġpub":1303,"Ġdet":1304,"ased":1305,"ention":1306,"Ġstren":1307,"Ġvar":1308,"Ġfruit":1309,"Ġhusb":1310,"orrow":1311,"Ġlab":1312,"Ġdif":1313,"Ġbeing":1314,"Ġart":1315,"Ġenough":1316,"Ġstrange":1317,"aam":1318,"com":1319,"Ġsis":1320,"Ġgra":1321,"ather":1322,"Ġyourself":1323,"Ġoutside":1324,"Ġfeast":1325,"Ġrecord":1326,"Ġhonour":1327,"Ġesau":1328,"Ġmouth":1329,"bo":1330,"but":1331,"to":1332,"Ġwine":1333,"Ġinter":1334,"Ġreg":1335,"Ġdesire":1336,"Ġcertainly":1337,"Ġmercy":1338,"ell":1339,"Ġ5":1340,"Ġtra":1341,"Ġdoing":1342,"Ġamor":1343,"Ġsouth":1344,"Ġaddition":1345,"Ġtrouble":1346,"country":1347,"go":1348,"ser":1349,"~~":1350,"Ġauth":1351,"Ġdan":1352,"ross":1353,"Ġkingdom":1354,"Ġuser":1355,"Ġcoll":1356,"Ġthird":1357,"ject":1358,"Ġengine":1359,"Ġspirit":1360,"Ġstrength":1361,"han":1362,"Ġwo":1363,"Ġpass":1364,"ode":1365,"Ġstone":1366,"Ġrock":1367,"Ġegyptians":1368,"Ġlaws":1369,"Ġhusband":1370,"Ġri":1371,"int":1372,"Ġsl":1373,"Ġband":1374,"Ġdam":1375,"Ġdist":1376,"vered":1377,"Ġcomm":1378,"Ġsha":1379,"Ġprison":1380,"Ġtribes":1381,"Ġsound":1382,"Ġahab":1383,"ffe":1384,"par":1385,"ron":1386,"the":1387,"Ġswe":1388,"ream":1389,"Ġbit":1390,"alth":1391,"Ġreub":1392,"Ġdef":1393,"Ġfeat":1394,"Ġseventh":1395,"Ġskin":1396,"Ġreuben":1397,"iness":1398,"Ġfal":1399,"Ġgame":1400,"Ġsal":1401,"Ġfront":1402,"Ġwives":1403,"Ġarms":1404,"Ġimport":1405,"Ġvalue":1406,"Ġvessels":1407,"ura":1408,"Ġwall":1409,"Ġcam":1410,"Ġlamb":1411,"Ġeffe":1412,"Ġammon":1413,"Ġwind":1414,"Ġapps":1415,"Ġbetter":1416,"ress":1417,"Ġangry":1418,"Ġprophet":1419,"Ġpillars":1420,"Ġsweet":1421,"?)":1422,"cu":1423,"Ġgri":1424,"Ġdry":1425,"ality":1426,"Ġgibe":1427,"Ġmeas":1428,"Ġgoods":1429,"Ġelish":1430,"Ġhearts":1431,"Ġjeroboam":1432,"Ġrelations":1433,"Ġelijah":1434,"Ġfaith":1435,"Ġfalse":1436,"Ġide":1437,"Ġmult":1438,"Ġgad":1439,"itt":1440,"ics":1441,"Ġweight":1442,"Ġtwel":1443,"Ġposs":1444,"tched":1445,"law":1446,"cus":1447,"gr":1448,"po":1449,"ens":1450,"Ġforward":1451,"Ġhaving":1452,"Ġbutt":1453,"Ġhouses":1454,"Ġshut":1455,"Ġjudg":1456,"Ġtexture":1457,"Ġmaterials":1458,"Ġauthor":1459,"Ġwit":1460,"Ġcau":1461,"Ġabimelech":1462,"Ġcol":1463,"Ġedge":1464,"fted":1465,"Ġjes":1466,"Ġsepar":1467,"Ġfrie":1468,"Ġlifted":1469,"Ġprov":1470,"Ġtenth":1471,"Ġjez":1472,"Ġconsid":1473,"velop":1474,"Ġdiffe":1475,"Ġriver":1476,"Ġfriend":1477,"aut":1478,"gs":1479,"hon":1480,"ware":1481,"Ġob":1482,"Ġopt":1483,"Ġhat":1484,"Ġbed":1485,"Ġputting":1486,"Ġloc":1487,"Ġlook":1488,"Ġspace":1489,"Ġjudge":1490,"Ġedom":1491,"Ġrun":1492,"Ġacross":1493,"Ġcontro":1494,"Ġangel":1495,"Ġproduct":1496,"Ġdriving":1497,"Ġtwelve":1498,"lands":1499,"rees":1500,"Ġbus":1501,"Ġgrou":1502,"Ġdream":1503,"Ġears":1504,"Ġcovered":1505,"Ġgenerations":1506,"resent":1507,"Ġdirect":1508,"Ġcrying":1509,"Ġamorites":1510,"Ġsub":1511,"isions":1512,"Ġmakes":1513,"Ġsex":1514,"Ġfind":1515,"Ġearly":1516,"Ġkind":1517,"Ġboard":1518,"Ġheads":1519,"Ġattention":1520,"Ġstream":1521,"Ġgrass":1522,"Ġtype":1523,"Ġimportant":1524,"she":1525,"Ġra":1526,"Ġtree":1527,"Ġach":1528,"Ġmet":1529,"Ġmus":1530,"Ġcode":1531,"Ġinv":1532,"Ġnor":1533,"Ġforce":1534,"riages":1535,"Ġabner":1536,"Ġeveryone":1537,"Ġshould":1538,"Ġprom":1539,"Ġmidian":1540,"Ġrequest":1541,"Ġelisha":1542,"Ġmulti":1543,"chem":1544,"ks":1545,"Ġwide":1546,"Ġsur":1547,"Ġfall":1548,"Ġcr":1549,"Ġcould":1550,"Ġlow":1551,"Ġpar":1552,"Ġpain":1553,"Ġforg":1554,"Ġdevelop":1555,"Ġusers":1556,"Ġgetting":1557,"ircle":1558,"Ġspecif":1559,"Ġsister":1560,"Ġdifferent":1561,"io":1562,"xed":1563,"Ġeas":1564,"Ġham":1565,"Ġyours":1566,"Ġtable":1567,"Ġoffered":1568,"Ġshechem":1569,"Ġoverta":1570,"Ġroom":1571,"bron":1572,"Ġfoot":1573,"offerings":1574,"Ġstretched":1575,"Ġmidd":1576,"Ġseventy":1577,"Ġbalaam":1578,"Ġcausing":1579,"pro":1580,"Ġve":1581,"Ġline":1582,"aria":1583,"Ġnation":1584,"Ġhebron":1585,"ional":1586,"Ġreward":1587,"Ġprocess":1588,"Ġsamaria":1589,"spring":1590,"Ġpost":1591,"Ġsimple":1592,"Ġlinen":1593,"Ġmiddle":1594,"ae":1595,"cial":1596,"iath":1597,"Ġche":1598,"ense":1599,"Ġem":1600,"Ġwealth":1601,"Ġdeep":1602,"Ġneigh":1603,"Ġusing":1604,"Ġzi":1605,"Ġarmies":1606,"Ġtech":1607,"Ġjoin":1608,"Ġconnection":1609,"servant":1610,"Ġneighb":1611,"Ġhum":1612,"Ġbag":1613,"Ġfil":1614,"ames":1615,"ket":1616,"ility":1617,"Ġrem":1618,"ribut":1619,"Ġabram":1620,"Ġwrit":1621,"Ġzeb":1622,"Ġjeho":1623,"Ġhorns":1624,"Ġconsider":1625,"autif":1626,"pu":1627,"Ġ4":1628,"Ġtest":1629,"Ġwis":1630,"Ġcall":1631,"Ġpull":1632,"Ġwashed":1633,"als":1634,"Ġfixed":1635,"Ġrods":1636,"Ġprophets":1637,"Ġruler":1638,"Ġpublic":1639,"Ġlaban":1640,"Ġneighbour":1641,"na":1642,"Ġer":1643,"Ġmix":1644,"ason":1645,"Ġseat":1646,"Ġgreater":1647,"Ġsoul":1648,"Ġdisg":1649,"Ġintegr":1650,"Ġwitness":1651,"Ġhaters":1652,"Ġmusic":1653,"autiful":1654,"..":1655,"ys":1656,"Ġaud":1657,"Ġeight":1658,"sed":1659,"stem":1660,"Ġupright":1661,"ateg":1662,"azar":1663,"Ġcommonplace":1664,"Ġcomplet":1665,"Ġmarketing":1666,"Ġeleazar":1667,"Ġtools":1668,"Ġgrowth":1669,"Ġvarious":1670,"Ġregular":1671,"Ġauthority":1672,"Ġdisgust":1673,"ker":1674,"kah":1675,"oke":1676,"vation":1677,"read":1678,"Ġfin":1679,"Ġfon":1680,"Ġchang":1681,"Ġroad":1682,"Ġcreative":1683,"Ġbases":1684,"Ġcurtain":1685,"Ġdecisions":1686,"bbath":1687,"view":1688,"Ġeffect":1689,"Ġseparate":1690,"Ġbusiness":1691,"Ġfonts":1692,"iel":1693,"man":1694,"ply":1695,"son":1696,"zer":1697,"Ġ$":1698,"org":1699,"Ġsabbath":1700,"Ġrele":1701,"Ġrese":1702,"Ġmem":1703,"ways":1704,"Ġworld":1705,"Ġfeel":1706,"Ġrobes":1707,"Ġ10":1708,"Ġsmell":1709,"Ġcompon":1710,"Ġovercame":1711,"Ġbeasts":1712,"Ġexperience":1713,"Ġbitter":1714,"Ġpossible":1715,"car":1716,"put":1717,"Ġter":1718,"ark":1719,"Ġsales":1720,"Ġweb":1721,"Ġseated":1722,"Ġasses":1723,"Ġstru":1724,"Ġplant":1725,"Ġnext":1726,"Ġkey":1727,"Ġprof":1728,"Ġshame":1729,"Ġshare":1730,"teen":1731,"Ġrod":1732,"Ġjehu":1733,"Ġnames":1734,"Ġcaptains":1735,"Ġbutton":1736,"aim":1737,"circle":1738,"ude":1739,"Ġwest":1740,"llow":1741,"Ġmoving":1742,"Ġupd":1743,"osh":1744,"Ġarmed":1745,"Ġram":1746,"Ġbase":1747,"Ġmodel":1748,"Ġcursed":1749,"Ġgrief":1750,"Ġnorth":1751,"/)":1752,"ns":1753,"non":1754,"nah":1755,"Ġlay":1756,"ribe":1757,"eph":1758,"Ġamale":1759,"Ġimages":1760,"Ġbirds":1761,"Ġdecision":1762,"Ġcovering":1763,"Ġsimply":1764,"Ġcomplete":1765,"Ġmarket":1766,"www":1767,"ural":1768,"Ġfalling":1769,"Ġmixed":1770,"Ġamalek":1771,"tion":1772,"tal":1773,"Ġ`":1774,"Ġsle":1775,"Ġhang":1776,"Ġmil":1777,"Ġcirc":1778,"Ġpot":1779,"Ġnet":1780,"Ġthough":1781,"Ġreason":1782,"Ġanim":1783,"Ġsoft":1784,"Ġlibr":1785,"Ġmoved":1786,"icho":1787,"ists":1788,"Ġwatch":1789,"Ġpoor":1790,"Ġjericho":1791,"avened":1792,"Ġdoorway":1793,"Ġrelation":1794,"Ġglory":1795,"Ġinclude":1796,"Ġfeatures":1797,"Ġcompletely":1798,"lamb":1799,"Ġent":1800,"Ġwound":1801,"Ġsure":1802,"Ġsense":1803,"Ġlear":1804,"Ġbeh":1805,"Ġish":1806,"Ġhaz":1807,"Ġrend":1808,"Ġmyself":1809,"Ġlandsc":1810,"Ġvis":1811,"Ġcanaanites":1812,"jects":1813,"Ġinclud":1814,"Ġsystem":1815,"Ġtouching":1816,"Ġcommun":1817,"Ġgroup":1818,"Ġtechn":1819,"Ġfiles":1820,"Ġdisgusting":1821,"Ġlandsca":1822,".\"":1823,"fl":1824,"nam":1825,"ually":1826,"vi":1827,"Ġacts":1828,"orah":1829,"era":1830,"Ġcord":1831,"Ġgil":1832,"Ġgide":1833,"Ġpast":1834,"Ġdel":1835,"Ġdiv":1836,"Ġvine":1837,"Ġkeeping":1838,"Ġexp":1839,"Ġperf":1840,"Ġmodels":1841,"Ġvalu":1842,"doing":1843,"Ġrecorded":1844,"Ġovertake":1845,"Ġgideon":1846,"10":1847,"gal":1848,"pi":1849,"reel":1850,"iss":1851,"Ġless":1852,"Ġyet":1853,"Ġpath":1854,"Ġpresent":1855,"Ġnab":1856,"achel":1857,"Ġstop":1858,"Ġstate":1859,"Ġstory":1860,"Ġoffspring":1861,"Ġproject":1862,"Ġlot":1863,"Ġrobe":1864,"Ġcap":1865,"Ġcakes":1866,"Ġrachel":1867,"Ġfields":1868,"Ġephod":1869,"Ġgrace":1870,"aphat":1871,"Ġflowing":1872,"Ġaramae":1873,"Ġquestion":1874,"Ġcontrol":1875,"Ġforgi":1876,"Ġperfum":1877,"\",":1878,"ches":1879,"ijah":1880,"pr":1881,"Ġtar":1882,"Ġsorrow":1883,"Ġhitt":1884,"Ġfut":1885,"Ġfont":1886,"ities":1887,"Ġonce":1888,"Ġgoat":1889,"acing":1890,"stand":1891,"Ġsocial":1892,"Ġdocu":1893,"ript":1894,"Ġnecess":1895,"oshe":1896,"Ġblue":1897,"Ġconc":1898,"arden":1899,"Ġsins":1900,"Ġrule":1901,"Ġneeds":1902,"Ġtalking":1903,"Ġrespect":1904,"Ġinstru":1905,"Ġincreased":1906,"Ġcolle":1907,"Ġidea":1908,"Ġrunning":1909,"Ġwisdom":1910,"fting":1911,"ground":1912,"gpu":1913,"ient":1914,"wh":1915,"Ġwgpu":1916,"Ġloud":1917,"Ġdon":1918,"Ġdro":1919,"Ġinform":1920,"iron":1921,"Ġjeph":1922,"Ġmanage":1923,"Ġworking":1924,"Ġunw":1925,"Ġleft":1926,"Ġlonger":1927,"Ġ20":1928,"Ġhorse":1929,"Ġrequire":1930,"Ġbalak":1931,"Ġquestions":1932,"Ġboards":1933,"carriages":1934,"gan":1935,"ips":1936,"oked":1937,"Ġrain":1938,"Ġopp":1939,"Ġsun":1940,"Ġhar":1941,"atform":1942,"Ġlep":1943,"Ġlast":1944,"Ġinit":1945,"Ġnah":1946,"Ġbeautiful":1947,"Ġetc":1948,"acking":1949,"Ġwhoever":1950,"Ġdeb":1951,"ept":1952,"Ġseem":1953,"Ġwrite":1954,"Ġrules":1955,"Ġhorses":1956,"Ġguid":1957,"Ġpleasing":1958,"Ġpleasure":1959,"Ġflocks":1960,"Ġdistribut":1961,"Ġjezreel":1962,"Ġresearch":1963,"Ġforgiven":1964,"Ġnecessary":1965,"20":1966,"cision":1967,"ives":1968,"not":1969,"tw":1970,"Ġwave":1971,"Ġsom":1972,"Ġbad":1973,"ater":1974,"Ġnaph":1975,"Ġnoah":1976,"edia":1977,"ict":1978,"Ġsele":1979,"Ġorde":1980,"Ġlifting":1981,"Ġplatform":1982,"Ġvi":1983,"Ġseek":1984,"Ġalways":1985,"Ġneeded":1986,"Ġcommonos":1987,"Ġstret":1988,"Ġlevi":1989,"Ġtypes":1990,"Ġspecial":1991,"ails":1992,"Ġsalvation":1993,"Ġzebul":1994,"Ġordered":1995,"app":1996,"bl":1997,"ek":1998,"eous":1999,"hing":2000,"iqu":2001,"ror":2002,"shed":2003,"Ġ6":2004,"Ġwid":2005,"ins":2006,"Ġsides":2007,"rest":2008,"oram":2009,"Ġge":2010,"Ġbegin":2011,"Ġema":2012,"leavened":2013,"iram":2014,"etry":2015,"Ġjab":2016,"Ġrep":2017,"Ġchar":2018,"Ġdev":2019,"tex":2020,"text":2021,"Ġspear":2022,"Ġpriv":2023,"Ġunleavened":2024,"Ġsamson":2025,"Ġexam":2026,"Ġquality":2027,"Ġrather":2028,"Ġhowever":2029,"aziah":2030,"Ġphilistine":2031,"Ġwrongdoing":2032,"Ġsigns":2033,"Ġjehosh":2034,"Ġemail":2035,"Ġjehoshaphat":2036,"had":2037,"line":2038,"Ġ0":2039,"Ġ~~":2040,"Ġav":2041,"inking":2042,"Ġsar":2043,"Ġhate":2044,"Ġbands":2045,"Ġmic":2046,"Ġmine":2047,"Ġdark":2048,"Ġbel":2049,"ically":2050,"Ġasa":2051,"adab":2052,"Ġstra":2053,"Ġpeoples":2054,"Ġvie":2055,"Ġshad":2056,"Ġbackground":2057,"Ġblow":2058,"aged":2059,"Ġzer":2060,"Ġrings":2061,"Ġbashan":2062,"Ġsetting":2063,"Ġlights":2064,"Ġgraph":2065,"Ġgibeah":2066,"Ġmeasure":2067,"tali":2068,"Ġsoftware":2069,"Ġtarget":2070,"Ġfuture":2071,"Ġinformation":2072,"Ġleper":2073,"Ġforgiveness":2074,"two":2075,".)":2076,"bus":2077,"me":2078,"of":2079,"Ġaut":2080,"Ġcre":2081,"Ġcateg":2082,"Ġdust":2083,"Ġbeer":2084,"Ġsavi":2085,"Ġwhite":2086,"vers":2087,"verage":2088,"Ġreal":2089,"Ġnote":2090,"Ġmeat":2091,"Ġseems":2092,"umcision":2093,"Ġteach":2094,"ustom":2095,"Ġnumb":2096,"Ġbuff":2097,"ized":2098,"Ġimpro":2099,"Ġinterest":2100,"Ġcruel":2101,"Ġcrushed":2102,"Ġconnect":2103,"Ġsyn":2104,"Ġcolor":2105,"Ġstruct":2106,"Ġcircumcision":2107,"Ġnaphtali":2108,"Ġstraight":2109,"ap":2110,"cut":2111,"ied":2112,"ted":2113,"Ġtrees":2114,"Ġwise":2115,"Ġfact":2116,"Ġcustom":2117,"Ġlist":2118,"ases":2119,"amar":2120,"Ġgoats":2121,"aced":2122,"rand":2123,"Ġorgan":2124,"Ġcho":2125,"oss":2126,"Ġgets":2127,"Ġcale":2128,"Ġboy":2129,"Ġteam":2130,"Ġappro":2131,"Ġunderstand":2132,"Ġrighteous":2133,"creen":2134,"Ġcompan":2135,"Ġsecretly":2136,"Ġtalk":2137,"views":2138,"load":2139,"Ġmultiple":2140,"Ġrelevant":2141,"Ġaramaeans":2142,"Ġsarah":2143,"Ġcreation":2144,").":2145,"ael":2146,"ared":2147,"ci":2148,"ired":2149,"no":2150,"Ġsime":2151,"Ġtom":2152,"Ġmesh":2153,"Ġdra":2154,"let":2155,"Ġiss":2156,"Ġmaj":2157,"irl":2158,"Ġwashing":2159,"Ġasher":2160,"Ġseeing":2161,"Ġconf":2162,"shing":2163,"Ġcreator":2164,"Ġbooks":2165,"Ġtextures":2166,"Ġsetup":2167,"Ġruling":2168,"Ġgilgal":2169,"Ġmanagement":2170,"Ġunwalled":2171,"Ġsimeon":2172,"bon":2173,"ched":2174,"mi":2175,"mar":2176,"oy":2177,"Ġara":2178,"Ġwing":2179,"Ġwand":2180,"Ġsize":2181,"Ġbat":2182,"Ġthink":2183,"lehem":2184,"Ġframe":2185,"Ġrender":2186,"Ġask":2187,"Ġmotion":2188,"oks":2189,"Ġplay":2190,"abor":2191,"avi":2192,"Ġshow":2193,"Ġcurrent":2194,"Ġthousands":2195,"Ġfocus":2196,"Ġpraise":2197,"Ġaccess":2198,"Ġbran":2199,"Ġscale":2200,"000":2201,"ething":2202,"Ġdirections":2203,"Ġdefin":2204,"Ġjesse":2205,"sheba":2206,"Ġmetal":2207,"Ġveil":2208,"Ġerror":2209,"Ġnetwork":2210,"Ġbehavi":2211,"Ġlandscape":2212,"osheth":2213,"Ġinitial":2214,"Ġviol":2215,"Ġstretching":2216,"Ġsaviour":2217,"Ġtomorrow":2218,"eed":2219,"lah":2220,"mer":2221,"net":2222,"pah":2223,"wood":2224,"Ġhoney":2225,"Ġcalled":2226,"Ġdang":2227,"ently":2228,"Ġuri":2229,"ily":2230,"Ġash":2231,"Ġstick":2232,"Ġoutc":2233,"pping":2234,"Ġloose":2235,"Ġleg":2236,"Ġleah":2237,"play":2238,"Ġjebus":2239,"Ġjoy":2240,"aiah":2241,"Ġindeed":2242,"Ġformat":2243,"Ġglad":2244,"Ġvertex":2245,"Ġprovide":2246,"Ġwriters":2247,"Ġaudience":2248,"Ġmemory":2249,"Ġsomething":2250,"Ġview":2251,"Ġmajor":2252,"),":2253,"bre":2254,"cing":2255,"con":2256,"five":2257,"gg":2258,"ihon":2259,"less":2260,"mf":2261,"ured":2262,"Ġtry":2263,"Ġapi":2264,"Ġsihon":2265,"Ġhig":2266,"orm":2267,"ern":2268,"Ġlater":2269,"Ġpage":2270,"omes":2271,"Ġhapp":2272,"ential":2273,"Ġmach":2274,"Ġsees":2275,"uring":2276,"Ġstep":2277,"rence":2278,"Ġvir":2279,"Ġoverse":2280,"Ġshall":2281,"Ġhole":2282,"Ġkir":2283,"ieve":2284,"Ġboth":2285,"Ġsuc":2286,"Ġbased":2287,"Ġpoint":2288,"Ġscen":2289,"Ġdesigns":2290,"Ġincrease":2291,"Ġjesus":2292,"Ġdivision":2293,"Ġzebulun":2294,"Ġwinged":2295,"Ġdanger":2296,"ban":2297,"hou":2298,"mah":2299,"ners":2300,"ping":2301,"Ġ7":2302,"Ġiron":2303,"Ġtas":2304,"Ġtrain":2305,"Ġwal":2306,"Ġbrand":2307,"Ġmass":2308,"Ġmiz":2309,"Ġced":2310,"Ġgath":2311,"Ġlang":2312,"Ġloss":2313,"Ġhist":2314,"eline":2315,"rable":2316,"Ġreh":2317,"Ġrebe":2318,"Ġputs":2319,"Ġchat":2320,"Ġwhenever":2321,"Ġvia":2322,"Ġshil":2323,"Ġsinai":2324,"Ġadon":2325,"Ġwherever":2326,"Ġrust":2327,"Ġgenerate":2328,"Ġreaders":2329,"Ġbenef":2330,"Ġcomput":2331,"Ġdoors":2332,"Ġfourth":2333,"Ġpurple":2334,"Ġdrinking":2335,"formance":2336,"Ġtrans":2337,"Ġsorts":2338,"Ġcollabor":2339,"Ġshaking":2340,"Ġcamels":2341,"Ġspecify":2342,"Ġeasy":2343,"Ġlibrary":2344,"Ġselection":2345,"Ġcedar":2346,"Ġlangu":2347,".âĢĿ":2348,"col":2349,"face":2350,"ho":2351,"ik":2352,"ien":2353,"Ġsel":2354,"Ġbow":2355,"Ġbind":2356,"Ġfre":2357,"oured":2358,"Ġpa":2359,"Ġhebre":2360,"omi":2361,"ets":2362,"add":2363,"Ġherds":2364,"Ġhandl":2365,"Ġblog":2366,"Ġken":2367,"type":2368,"durable":2369,"Ġbreast":2370,"Ġanswering":2371,"Ġstronger":2372,"Ġsixty":2373,"Ġindia":2374,"Ġprep":2375,"Ġdetails":2376,"Ġwindow":2377,"Ġgibeon":2378,"Ġdevelopment":2379,"Ġjoined":2380,"Ġremem":2381,"Ġcomponent":2382,"Ġupdate":2383,"lambs":2384,"Ġdistribution":2385,"ique":2386,"Ġteaching":2387,"Ġnumbers":2388,"Ġkiriath":2389,"Ġrebekah":2390,"over":2391,"ract":2392,"ups":2393,"zah":2394,"Âł":2395,"Ġtv":2396,"Ġsw":2397,"atural":2398,"Ġpop":2399,"Ġnun":2400,"Ġui":2401,"ilah":2402,"Ġitself":2403,"thah":2404,"Ġref":2405,"riage":2406,"ada":2407,"ade":2408,"Ġplan":2409,"Ġabish":2410,"Ġvision":2411,"Ġloop":2412,"Ġads":2413,"Ġtem":2414,"ify":2415,"Ġcreating":2416,"Ġjoash":2417,"achar":2418,"ems":2419,"Ġfollow":2420,"Ġproducts":2421,"Ġactually":2422,"ogle":2423,"Ġdamaged":2424,"Ġjudges":2425,"Ġprompt":2426,"Ġprofess":2427,"Ġmilk":2428,"Ġperfume":2429,"Ġhittite":2430,"Ġjephthah":2431,"Ġcaleb":2432,"Ġmesha":2433,"Ġissachar":2434,"Ġhistory":2435,"lon":2436,"nal":2437,"ters":2438,"Ġ8":2439,"Ġsqu":2440,"Ġscreen":2441,"Ġhop":2442,"Ġbru":2443,"erm":2444,"Ġcro":2445,"Ġgre":2446,"enc":2447,"lling":2448,"ari":2449,"Ġnathan":2450,"Ġhesh":2451,"Ġseir":2452,"Ġreviews":2453,"Ġornam":2454,"ried":2455,"Ġlives":2456,"Ġfate":2457,"Ġkad":2458,"Ġcooked":2459,"Ġfee":2460,"Ġlead":2461,"Ġleather":2462,"Ġprim":2463,"Ġpride":2464,"Ġunderta":2465,"Ġattacking":2466,"Ġmountains":2467,"Ġvers":2468,"Ġdeterm":2469,"Ġwonder":2470,"Ġlambs":2471,"point":2472,"Ġlocal":2473,"Ġcrit":2474,"Ġchanges":2475,"Ġlayout":2476,"Ġhanging":2477,"Ġoppos":2478,"Ġcategory":2479,"house":2480,"Ġprofessional":2481,"'t":2482,"bah":2483,"cher":2484,"cript":2485,"Ġair":2486,"Ġhan":2487,"Ġmin":2488,"Ġmich":2489,"Ġmess":2490,"Ġgers":2491,"Ġgirl":2492,"Ġlion":2493,"Ġlau":2494,"Ġforces":2495,"Ġforced":2496,"adok":2497,"Ġstand":2498,"Ġchance":2499,"Ġsong":2500,"Ġabiath":2501,"ability":2502,"Ġarch":2503,"Ġearli":2504,"Ġshime":2505,"ush":2506,"Ġkoh":2507,"Ġspices":2508,"Ġcond":2509,"Ġcost":2510,"Ġgreatly":2511,"Ġfem":2512,"Ġfew":2513,"Ġleverage":2514,"Ġexc":2515,"Ġzadok":2516,"Ġenc":2517,"Ġapplic":2518,"Ġoldest":2519,"Ġbird":2520,"Ġcontin":2521,"Ġmatthe":2522,"Ġacting":2523,"Ġlimits":2524,"Ġeditors":2525,"Ġexpert":2526,"Ġgrapes":2527,"board":2528,"Ġtroubled":2529,"puts":2530,"Ġremember":2531,"Ġheshbon":2532,"Ġkadesh":2533,"Ġfeeble":2534,"Ġabiathar":2535,"Ġkohath":2536,"Ġmatthew":2537,"hol":2538,"land":2539,"rs":2540,"trees":2541,"tribe":2542,"yle":2543,"Ġill":2544,"Ġaz":2545,"Ġmedia":2546,"ories":2547,"Ġpip":2548,"Ġdrain":2549,"Ġur":2550,"Ġunt":2551,"Ġwithin":2552,"alm":2553,"ries":2554,"Ġmove":2555,"Ġplaced":2556,"Ġalong":2557,"Ġflat":2558,"Ġmarried":2559,"Ġediting":2560,"Ġeye":2561,"Ġreading":2562,"Ġopin":2563,"Ġbodies":2564,"Ġmode":2565,"Ġfifth":2566,"Ġproduce":2567,"Ġvideos":2568,"Ġworshi":2569,"Ġpubl":2570,"Ġfriends":2571,"...":2572,"Ġramah":2573,"Ġsleep":2574,"Ġvisual":2575,"Ġcommunity":2576,"Ġdocument":2577,"Ġprivate":2578,"Ġbranches":2579,"Ġvirgin":2580,"Ġwalking":2581,"Ġshiloh":2582,"Ġopposite":2583,"air":2584,"bar":2585,"ere":2586,"fru":2587,"fort":2588,"gu":2589,"iet":2590,"iada":2591,"lt":2592,"oses":2593,"ped":2594,"wr":2595,"Ġ9":2596,"Ġbon":2597,"Ġbath":2598,"Ġcop":2599,"itions":2600,"Ġinc":2601,"iring":2602,"icle":2603,"ication":2604,"Ġseo":2605,"Ġallow":2606,"rows":2607,"Ġreph":2608,"Ġamnon":2609,"Ġsham":2610,"Ġworked":2611,"Ġhooks":2612,"izz":2613,"Ġpoetry":2614,"Ġperformance":2615,"Ġopening":2616,"Ġdisplay":2617,"Ġstoned":2618,"Ġactive":2619,"Ġvert":2620,"took":2621,"Ġwool":2622,"Ġpassover":2623,"Ġdirectory":2624,"Ġinvol":2625,"Ġjehoiada":2626,"Ġamalekites":2627,"Ġinstruments":2628,"Ġhorsemen":2629,"Ġwidow":2630,"hadad":2631,"Ġrighteousness":2632,"letter":2633,"Ġwandering":2634,"Ġuriah":2635,"Ġhigher":2636,"Ġlanguage":2637,"cm":2638,"fo":2639,"ges":2640,"gile":2641,"live":2642,"mel":2643,"ond":2644,"ten":2645,"tow":2646,"tree":2647,"time":2648,"whe":2649,"Ġsna":2650,"Ġhy":2651,"Ġhiv":2652,"Ġbar":2653,"Ġbright":2654,"Ġfing":2655,"Ġfaces":2656,"Ġlu":2657,"Ġna":2658,"Ġnile":2659,"Ġnatural":2660,"Ġthin":2661,"Ġequ":2662,"Ġgoogle":2663,"ilar":2664,"Ġjoram":2665,"Ġasse":2666,"Ġmeans":2667,"Ġstar":2668,"Ġaround":2669,"Ġbecomes":2670,"Ġkorah":2671,"Ġcoat":2672,"Ġleban":2673,"aging":2674,"Ġext":2675,"Ġexch":2676,"Ġexpect":2677,"Ġenable":2678,"ilee":2679,"ully":2680,"Ġahaziah":2681,"mael":2682,"Ġsimilar":2683,"world":2684,"Ġstarting":2685,"Ġcubit":2686,"Ġpleased":2687,"Ġowner":2688,"Ġsearching":2689,"Ġdamage":2690,"Ġoptions":2691,"servants":2692,"Ġishmael":2693,"Ġrendering":2694,"Ġincluding":2695,"Ġimprove":2696,"Ġcompany":2697,"Ġdraw":2698,"Ġpopular":2699,"Ġcrown":2700,"Ġgershon":2701,"Ġfemale":2702,"gilead":2703,"Ġlebanon":2704,"25":2705,"aking":2706,"bs":2707,"bat":2708,"bed":2709,"den":2710,"een":2711,"oah":2712,"vice":2713,"Ġaw":2714,"Ġolive":2715,"Ġtoo":2716,"orre":2717,"Ġgames":2718,"Ġlar":2719,"Ġlines":2720,"Ġlink":2721,"Ġlower":2722,"Ġyoke":2723,"Ġinner":2724,"Ġnine":2725,"Ġthread":2726,"idon":2727,"Ġonline":2728,"icate":2729,"Ġreach":2730,"uri":2731,"Ġcomfort":2732,"Ġtauri":2733,"venue":2734,"ains":2735,"Ġintro":2736,"Ġarnon":2737,"ference":2738,"pped":2739,"Ġunique":2740,"Ġevent":2741,"Ġhundreds":2742,"Ġnewsletter":2743,"Ġlevite":2744,"Ġpurposes":2745,"asha":2746,"Ġpersons":2747,"Ġprev":2748,"Ġtrack":2749,"Ġfair":2750,"Ġcarriage":2751,"most":2752,"Ġthoughts":2753,"goats":2754,"Ġsalt":2755,"Ġsubsc":2756,"Ġposts":2757,"Ġhumans":2758,"Ġlearn":2759,"Ġcords":2760,"Ġnaboth":2761,"Ġcapac":2762,"which":2763,"Ġgraphics":2764,"Ġadonijah":2765,"Ġself":2766,"Ġsquare":2767,"Ġgreen":2768,"Ġstandard":2769,"Ġshimei":2770,"fruits":2771,"/](":2772,"awn":2773,"garden":2774,"ially":2775,"shem":2776,"Ġtamar":2777,"Ġog":2778,"Ġwalled":2779,"ining":2780,"ination":2781,"Ġsing":2782,"Ġoften":2783,"Ġhome":2784,"Ġbud":2785,"Ġfer":2786,"Ġmust":2787,"Ġmeth":2788,"ished":2789,"Ġcent":2790,"Ġcart":2791,"Ġcorre":2792,"Ġgarden":2793,"Ġpen":2794,"Ġduring":2795,"lled":2796,"Ġnode":2797,"Ġmak":2798,"ilt":2799,"Ġsodom":2800,"Ġdear":2801,"Ġplated":2802,"Ġprop":2803,"Ġprojects":2804,"Ġtwist":2805,"tem":2806,"Ġlegs":2807,"Ġboaz":2808,"Ġexist":2809,"Ġzidon":2810,"Ġparted":2811,"Ġcloth":2812,"Ġsending":2813,"Ġgrid":2814,"Ġmonthly":2815,"Ġvalid":2816,"baal":2817,"Ġrulers":2818,"Ġbaasha":2819,"ebel":2820,"Ġwalls":2821,"Ġjezebel":2822,"Ġachish":2823,"Ġwriter":2824,"Ġpulling":2825,"Ġintegrations":2826,"Ġcomponents":2827,"Ġterms":2828,"Ġlearning":2829,"Ġsystems":2830,"Ġvaluable":2831,"Ġnabal":2832,"Ġjabesh":2833,"Ġmicah":2834,"Ġshader":2835,"Ġoutcry":2836,"Ġoverseers":2837,"Ġabishai":2838,"Ġfinger":2839,"Ġnaomi":2840,"Ġsingle":2841,"aps":2842,"based":2843,"cious":2844,"des":2845,"iver":2846,"pher":2847,"Ġess":2848,"hest":2849,"head":2850,"ints":2851,"Ġhiram":2852,"Ġfacing":2853,"ator":2854,"Ġheight":2855,"Ġsaf":2856,"Ġux":2857,"ithub":2858,"ilities":2859,"Ġjub":2860,"Ġret":2861,"storm":2862,"Ġtaker":2863,"Ġchange":2864,"ctive":2865,"Ġlands":2866,"Ġplate":2867,"ables":2868,"fect":2869,"Ġneck":2870,"Ġsho":2871,"Ġshar":2872,"Ġload":2873,"Ġblind":2874,"Ġhollow":2875,"Ġkit":2876,"teenth":2877,"Ġexpl":2878,"Ġevents":2879,"ples":2880,"Ġenv":2881,"Ġquiet":2882,"Ġbasic":2883,"ighth":2884,"Ġgenerative":2885,"Ġthank":2886,"Ġbuy":2887,"ization":2888,"Ġbenaiah":2889,"Ġhighly":2890,"Ġperizz":2891,"Ġmonths":2892,"Ġtyp":2893,"Ġfunctions":2894,"Ġcomplex":2895,"Ġcrushing":2896,"Ġcarmel":2897,"like":2898,"Ġtouched":2899,"common":2900,"book":2901,"Ġwond":2902,"Ġprisoners":2903,"Ġhamm":2904,"Ġsleeping":2905,"Ġhazael":2906,"Ġsettings":2907,"Ġscene":2908,"Ġrehoboam":2909,"Ġbenefits":2910,"Ġversion":2911,"Ġcopy":2912,"by":2913,"ew":2914,"gard":2915,"hip":2916,"pth":2917,"rings":2918,"wer":2919,"yri":2920,"ype":2921,"Ïī":2922,"Ġith":2923,"Ġ__":2924,"Ġ...":2925,"Ġhin":2926,"Ġhore":2927,"Ġfount":2928,"Ġtoken":2929,"Ġcows":2930,"Ġyew":2931,"Ġinno":2932,"aries":2933,"Ġnaam":2934,"Ġsand":2935,"Ġsave":2936,"immon":2937,"Ġmah":2938,"acter":2939,"Ġuz":2940,"raph":2941,"Ġwasted":2942,"Ġframes":2943,"Ġrevenue":2944,"Ġtheirs":2945,"Ġstor":2946,"Ġstud":2947,"ahaz":2948,"Ġherd":2949,"Ġshem":2950,"Ġovertook":2951,"Ġnebat":2952,"Ġblows":2953,"Ġkid":2954,"Ġkiss":2955,"Ġspo":2956,"ource":2957,"Ġenj":2958,"Ġpract":2959,"Ġbasket":2960,"arai":2961,"Ġbuilt":2962,"Ġended":2963,"Ġfold":2964,"Ġfocu":2965,"map":2966,"Ġmidpoint":2967,"Ġstartup":2968,"Ġassyri":2969,"Ġguide":2970,"Ġcarriages":2971,"Ġinteract":2972,"Ġmeasures":2973,"Ġjudged":2974,"Ġchanged":2975,"Ġcurtains":2976,"Ġkeyword":2977,"Ġhangings":2978,"Ġpotential":2979,"Ġwounded":2980,"Ġtechnol":2981,"flow":2982,"prise":2983,"Ġcollect":2984,"Ġcollection":2985,"Ġrepresent":2986,"Ġcharacter":2987,"Ġavail":2988,"Ġzeru":2989,"Ġarabah":2990,"context":2991,"ggest":2992,"Ġmizpah":2993,"Ġcomputer":2994,"Ġprimary":2995,"Ġearlier":2996,"erer":2997,"Ġrephaim":2998,"Ġvertices":2999,"towns":3000,"Ġprevious":3001,"shemesh":3002,"Ġmethod":3003,"Ġjubilee":3004,"Ġwonders":3005,"Ġassyria":3006,"40":3007,"bd":3008,"bles":3009,"fer":3010,"flo":3011,"ged":3012,"ier":3013,"kron":3014,"pa":3015,"tile":3016,"ues":3017,"Ġ>":3018,"Ġesh":3019,"Ġtir":3020,"Ġfill":3021,"Ġcou":3022,"Ġgaz":3023,"atype":3024,"ency":3025,"Ġpi":3026,"Ġpat":3027,"Ġport":3028,"Ġpity":3029,"esses":3030,"Ġdawn":3031,"Ġnative":3032,"ascus":3033,"Ġeff":3034,"Ġeighth":3035,"Ġekron":3036,"Ġmain":3037,"Ġweek":3038,"Ġallows":3039,"Ġreview":3040,"Ġanak":3041,"urther":3042,"ody":3043,"Ġlive":3044,"Ġdepe":3045,"Ġabel":3046,"Ġarts":3047,"Ġseries":3048,"Ġsport":3049,"vessel":3050,"ategy":3051,"Ġegyptian":3052,"Ġadv":3053,"Ġsuggest":3054,"Ġstrategy":3055,"Ġolder":3056,"Ġyoungest":3057,"Ġahijah":3058,"Ġsmoke":3059,"Ġindices":3060,"Ġmerari":3061,"Ġresul":3062,"Ġskill":3063,"Ġsmaller":3064,"Ġstored":3065,"Ġvari":3066,"Ġsisera":3067,"Ġtrad":3068,"Ġdamascus":3069,"Ġsounded":3070,"Ġeffects":3071,"Ġjudging":3072,"Ġobjects":3073,"Ġinvest":3074,"Ġpromot":3075,"Ġsurve":3076,"Ġlowlands":3077,"Ġspecific":3078,"Ġcheck":3079,"Ġjoining":3080,"Ġtesting":3081,"Ġcalls":3082,"Ġeighty":3083,"Ġinstrument":3084,"Ġguiding":3085,"Ġexample":3086,"Ġexamples":3087,"Ġsync":3088,"Ġorganic":3089,"Ġchoose":3090,"Ġunderstanding":3091,"Ġbathed":3092,"Ġtaste":3093,"Ġhandler":3094,"Ġornaments":3095,"Ġlaun":3096,"Ġpipeline":3097,"Ġsharp":3098,"Ġenjoy":3099,"Ġfocused":3100,"Ġavailable":3101,"Ġzeruiah":3102,"Ġdepend":3103,"cs":3104,"end":3105,"ger":3106,"gar":3107,"has":3108,"hud":3109,"och":3110,"âĨ":3111,"Ġtbd":3112,"Ġahead":3113,"Ġbone":3114,"Ġbmf":3115,"Ġfit":3116,"Ġfound":3117,"Ġfurther":3118,"orting":3119,"Ġcal":3120,"Ġcred":3121,"itive":3122,"Ġpol":3123,"Ġpres":3124,"Ġpict":3125,"asing":3126,"ann":3127,"ided":3128,"Ġeg":3129,"Ġmales":3130,"acy":3131,"eds":3132,"Ġice":3133,"ithop":3134,"Ġsec":3135,"aling":3136,"state":3137,"Ġmeph":3138,"Ġorig":3139,"Ġdece":3140,"ctor":3141,"Ġupload":3142,"Ġmanoah":3143,"ternal":3144,"Ġoffer":3145,"Ġplacing":3146,"Ġshort":3147,"Ġaff":3148,"Ġlog":3149,"ctions":3150,"Ġhobb":3151,"inehas":3152,"Ġcanv":3153,"Ġphinehas":3154,"ources":3155,"Ġsince":3156,"Ġedit":3157,"ified":3158,"Ġsomeone":3159,"index":3160,"Ġ15":3161,"Ġgeneral":3162,"Ġyounger":3163,"Ġahithop":3164,"Ġhelps":3165,"Ġbring":3166,"Ġephah":3167,"itors":3168,"Ġpowerful":3169,"Ġprayers":3170,"Ġguest":3171,"Ġexperien":3172,"Ġinstant":3173,"Ġpersonal":3174,"goat":3175,"Ġslop":3176,"Ġslow":3177,"Ġfeature":3178,"Ġpossib":3179,"Ġbuttons":3180,"Ġshutting":3181,"Ġgroups":3182,"Ġpainting":3183,"Ġeasily":3184,"Ġjehoash":3185,"Ġrenderer":3186,"Ġpaths":3187,"Ġstopped":3188,"Ġstatement":3189,"Ġdocuments":3190,"Ġnahor":3191,"Ġseemed":3192,"Ġbuffer":3193,"Ġbuffers":3194,"Ġviolent":3195,"Ġmachir":3196,"Ġfreely":3197,"Ġhebrews":3198,"Ġundertaking":3199,"Ġcritical":3200,"chers":3201,"Ġbones":3202,"Ġfertile":3203,"Ġtwisted":3204,"floor":3205,"Ġtirzah":3206,"âĨĴ":3207,"Ġahithophel":3208,"'re":3209,"dat":3210,"dress":3211,"fully":3212,"gment":3213,"hai":3214,"just":3215,"ni":3216,"night":3217,"nothing":3218,"unt":3219,"val":3220,"ynam":3221,"Ġwings":3222,"ined":3223,"inadab":3224,"Ġsarai":3225,"Ġhit":3226,"Ġbent":3227,"Ġtower":3228,"Ġmir":3229,"ised":3230,"Ġcain":3231,"Ġcup":3232,"Ġger":3233,"ately":3234,"atives":3235,"ength":3236,"ited":3237,"Ġdynam":3238,"Ġinsp":3239,"ansp":3240,"anced":3241,"ution":3242,"seven":3243,"Ġgoshe":3244,"Ġreve":3245,"start":3246,"Ġarea":3247,"Ġoutputs":3248,"Ġamm":3249,"Ġabi":3250,"Ġsheba":3251,"Ġprog":3252,"Ġspring":3253,"Ġadvant":3254,"Ġworks":3255,"Ġundergo":3256,"Ġ100":3257,"Ġbasin":3258,"Ġending":3259,"Ġpoints":3260,"Ġtrust":3261,"Ġfool":3262,"Ġcountrymen":3263,"Ġrelated":3264,"Ġloved":3265,"Ġdisco":3266,"Ġdesigner":3267,"ontro":3268,"Ġflowers":3269,"neys":3270,"Ġfruits":3271,"Ġprisoner":3272,"Ġcamera":3273,"Ġprovides":3274,"Ġoptim":3275,"Ġziba":3276,"Ġfinally":3277,"Ġdelight":3278,"Ġconcept":3279,"Ġrequires":3280,"Ġautom":3281,"apter":3282,"ciated":3283,"market":3284,"Ġsteps":3285,"Ġbrush":3286,"Ġcontinue":3287,"Ġopinion":3288,"Ġexchange":3289,"Ġsafely":3290,"Ġkidneys":3291,"Ġorigin":3292,"Ġgoshen":3293,"bosheth":3294,"cah":3295,"gen":3296,"hor":3297,"hah":3298,"ogy":3299,"ric":3300,"sk":3301,"tv":3302,"use":3303,"µf":3304,"Âµf":3305,"ĠâĨĴ":3306,"Ġaro":3307,"Ġwra":3308,"Ġsud":3309,"Ġhated":3310,"Ġber":3311,"Ġbes":3312,"Ġfast":3313,"Ġml":3314,"ism":3315,"Ġcups":3316,"Ġcush":3317,"Ġgain":3318,"Ġll":3319,"Ġded":3320,"Ġdura":3321,"Ġnin":3322,"Ġnon":3323,"omme":3324,"anah":3325,"Ġthum":3326,"Ġsaved":3327,"aming":3328,"kets":3329,"room":3330,"tham":3331,"three":3332,"though":3333,"aliah":3334,"Ġanal":3335,"Ġcomb":3336,"Ġstyle":3337,"Ġmanag":3338,"Ġherself":3339,"Ġamaziah":3340,"Ġarrow":3341,"Ġneare":3342,"Ġservice":3343,"aves":3344,"osen":3345,"Ġshun":3346,"Ġours":3347,"Ġworth":3348,"Ġalthough":3349,"Ġcontext":3350,"Ġflo":3351,"Ġflag":3352,"tend":3353,"Ġspice":3354,"Ġleast":3355,"Ġleaven":3356,"ubbaal":3357,"Ġcake":3358,"ific":3359,"Ġrimmon":3360,"oted":3361,"Ġaltars":3362,"Ġdesc":3363,"Ġdesiring":3364,"eshur":3365,"Ġcursing":3366,"Ġthanks":3367,"Ġneedle":3368,"Ġends":3369,"Ġjerubbaal":3370,"Ġahim":3371,"Ġahaz":3372,"kedin":3373,"Ġangles":3374,"Ġbuilder":3375,"Ġspeak":3376,"Ġmodern":3377,"Ġswords":3378,"Ġdesigned":3379,"Ġstarted":3380,"Ġassure":3381,"Ġrecomme":3382,"Ġtalents":3383,"ibosheth":3384,"Ġtransp":3385,"Ġshekel":3386,"Ġelect":3387,"cedural":3388,"Ġlinkedin":3389,"Ġshared":3390,"Ġcampa":3391,"Ġcoloured":3392,"Ġstreaming":3393,"Ġachieve":3394,"Ġsurface":3395,"Ġvector":3396,"Ġhumble":3397,"ready":3398,"Ġplants":3399,"Ġramoth":3400,"Ġanimations":3401,"Ġlibraries":3402,"Ġincludes":3403,"Ġvalues":3404,"Ġperfumes":3405,"Ġplatforms":3406,"Ġzerah":3407,"Ġstructure":3408,"Ġjebusites":3409,"Ġjebusite":3410,"Ġhappy":3411,"Ġtraining":3412,"Ġcollaboration":3413,"hole":3414,"Ġmichal":3415,"Ġarchite":3416,"Ġapplication":3417,"Ġstars":3418,"gardens":3419,"Ġfountain":3420,"Ġtechnology":3421,"Ġmephibosheth":3422,"Ġfoolish":3423,"Ġsudden":3424,"Ġrecommend":3425,"Ġcampaign":3426,"\":":3427,"30":3428,"apt":3429,"coth":3430,"cket":3431,"ead":3432,"fr":3433,"fram":3434,"haz":3435,"iam":3436,"las":3437,"nesses":3438,"oid":3439,"ties":3440,"wik":3441,"Ġ&":3442,"Ġom":3443,"Ġwin":3444,"Ġwel":3445,"Ġhire":3446,"Ġbur":3447,"Ġbara":3448,"oub":3449,"Ġcow":3450,"atic":3451,"Ġyes":3452,"Ġpc":3453,"ller":3454,"Ġeternal":3455,"Ġsad":3456,"entially":3457,"Ġmaac":3458,"Ġmahan":3459,"vert":3460,"ray":3461,"Ġsell":3462,"Ġrece":3463,"Ġasso":3464,"Ġtail":3465,"oded":3466,"Ġstems":3467,"Ġchin":3468,"Ġchosen":3469,"opt":3470,"lying":3471,"Ġmoon":3472,"Ġdem":3473,"Ġdew":3474,"Ġletter":3475,"epts":3476,"Ġabig":3477,"Ġkeilah":3478,"Ġprote":3479,"Ġproble":3480,"essings":3481,"Ġtwists":3482,"Ġseeking":3483,"Ġourselves":3484,"Ġworse":3485,"Ġblessings":3486,"Ġkish":3487,"Ġkne":3488,"istic":3489,"Ġcannot":3490,"Ġbrow":3491,"agon":3492,"Ġpartic":3493,"Ġtell":3494,"weight":3495,"Ġstrateg":3496,"Ġcreated":3497,"neh":3498,"Ġ18":3499,"Ġbasins":3500,"Ġcurses":3501,"Ġtownsmen":3502,"Ġbreak":3503,"Ġoaths":3504,"Ġperfect":3505,"Ġfourteen":3506,"Ġnaming":3507,"Ġhardware":3508,"Ġheavens":3509,"Ġlightweight":3510,"Ġclearly":3511,"Ġconsum":3512,"Ġminds":3513,"Ġtruth":3514,"Ġdiff":3515,"Ġartists":3516,"Ġarticle":3517,"Ġ50":3518,"Ġstreams":3519,"Ġrequesting":3520,"Ġforgive":3521,"Ġdeeper":3522,"Ġconnections":3523,"Ġhuman":3524,"Ġbags":3525,"Ġeffective":3526,"Ġfeeling":3527,"Ġterrain":3528,"Ġenter":3529,"Ġhazor":3530,"flu":3531,"ission":3532,"Ġhittites":3533,"Ġdropped":3534,"Ġguided":3535,"Ġdevice":3536,"Ġconnecting":3537,"cutting":3538,"Ġconfig":3539,"Ġbehavior":3540,"Ġbehaviors":3541,"Ġsuccoth":3542,"color":3543,"where":3544,"Ġsnake":3545,"Ġassets":3546,"Ġawa":3547,"Ġcenter":3548,"Ġtypical":3549,"Ġhammered":3550,"Ġhoreb":3551,"Ġnaaman":3552,"Ġdeceit":3553,"Ġrendererstate":3554,"Ġneedlework":3555,"Ġbarak":3556,"Ġabigail":3557,",)":3558,"cast":3559,"pers":3560,"six":3561,"uah":3562,"uph":3563,"Ġsiz":3564,"Ġsource":3565,"Ġhur":3566,"Ġfart":3567,"Ġtops":3568,"Ġmill":3569,"Ġmed":3570,"Ġcra":3571,"Ġga":3572,"Ġgom":3573,"Ġgpu":3574,"Ġgithub":3575,"itely":3576,"Ġdue":3577,"Ġdoub":3578,"llig":3579,"aram":3580,"Ġnadab":3581,"Ġheat":3582,"Ġheth":3583,"asa":3584,"Ġthorn":3585,"level":3586,"ordin":3587,"ented":3588,"Ġlords":3589,"Ġwear":3590,"thites":3591,"Ġreally":3592,"Ġreference":3593,"Ġnotice":3594,"uration":3595,"Ġstation":3596,"Ġchains":3597,"Ġlib":3598,"Ġdepth":3599,"ault":3600,"Ġattem":3601,"Ġatlas":3602,"Ġamount":3603,"Ġamasa":3604,"Ġshelah":3605,"ably":3606,"Ġarrows":3607,"Ġusage":3608,"Ġearn":3609,"Ġtwice":3610,"osing":3611,"Ġshop":3612,"Ġsharing":3613,"Ġbacks":3614,"âĢ¦":3615,"Ġphys":3616,"beautiful":3617,"unneh":3618,"Ġlevel":3619,"Ġkeeper":3620,"Ġroof":3621,"Ġzo":3622,"Ġpartners":3623,"ploy":3624,"Ġclose":3625,"Ġquant":3626,"Ġruth":3627,"Ġcreates":3628,"news":3629,"Ġjew":3630,"Ġendless":3631,"Ġfearing":3632,"Ġahimelech":3633,"ressed":3634,"Ġpositions":3635,"Ġadded":3636,"Ġ\"__":3637,"Ġsixteen":3638,"Ġindust":3639,"Ġfifteen":3640,"Ġdiscus":3641,"Ġproduction":3642,"Ġcanaanite":3643,"Ġeliab":3644,"Ġactual":3645,"Ġfunctionality":3646,"ogs":3647,"Ġdiseased":3648,"Ġforms":3649,"Ġhills":3650,"Ġconscious":3651,"Ġresist":3652,"workers":3653,"Ġwaving":3654,"Ġamorite":3655,"Ġpassion":3656,"Ġdistance":3657,"Ġgrip":3658,"Ġideas":3659,"Ġobject":3660,"Ġlocust":3661,"Ġdreams":3662,"Ġsubm":3663,"Ġsexual":3664,"Ġlowland":3665,"Ġembed":3666,"Ġaudio":3667,"Ġfinish":3668,"Ġplanted":3669,"Ġjephunneh":3670,"Ġharan":3671,"Ġdebir":3672,"Ġwaved":3673,"blog":3674,"Ġavoid":3675,"Ġfactors":3676,"Ġdefinitely":3677,"Ġinitialize":3678,"Ġsticks":3679,"Ġpaid":3680,"Ġdetermine":3681,"Ġhannah":3682,"Ġworshipping":3683,"Ġlinks":3684,"Ġreturn":3685,"Ġresults":3686,"Ġeglon":3687,"Ġhobby":3688,"Ġcanvas":3689,"Ġdynamic":3690,"Ġwrap":3691,"Ġdurable":3692,"Ġmanager":3693,"Ġknees":3694,"Ġfarthest":3695,"Ġattempt":3696,"22":3697,"64":3698,"aff":3699,"aaz":3700,"come":3701,"fit":3702,"gn":3703,"hips":3704,"iving":3705,"iate":3706,"mod":3707,"mant":3708,"vative":3709,"with":3710,"wise":3711,"ÃĹ":3712,"Ġx":3713,"Ġaim":3714,"Ġos":3715,"Ġoph":3716,"Ġohol":3717,"Ġsite":3718,"rez":3719,"oura":3720,"ounder":3721,"Ġtong":3722,"Ġtoward":3723,"Ġtonight":3724,"erate":3725,"Ġcore":3726,"Ġcour":3727,"Ġcase":3728,"Ġgeshur":3729,"ature":3730,"Ġlach":3731,"ital":3732,"Ġdi":3733,"Ġinmost":3734,"ariah":3735,"Ġner":3736,"Ġhez":3737,"omach":3738,"aste":3739,"anel":3740,"Ġthick":3741,"set":3742,"Ġhagar":3743,"Ġnoise":3744,"Ġmaker":3745,"Ġuses":3746,"ety":3747,"Ġjok":3748,"Ġjoh":3749,"Ġreuel":3750,"Ġcomment":3751,"Ġstomach":3752,"Ġchapter":3753,"Ġdeeds":3754,"Ġpekah":3755,"cture":3756,"Ġhadade":3757,"deep":3758,"term":3759,"Ġvines":3760,"Ġshel":3761,"Ġargu":3762,"Ġserver":3763,"Ġhandle":3764,"Ġcoordin":3765,"Ġwatching":3766,"agraph":3767,"Ġbox":3768,"Ġadam":3769,"Ġadjust":3770,"Ġzel":3771,"Ġlikely":3772,"Ġevol":3773,"iled":3774,"Ġsuite":3775,"pects":3776,"Ġedges":3777,"plement":3778,"Ġrushing":3779,"Ġimplement":3780,"iff":3781,"othed":3782,"Ġgenre":3783,"Ġ16":3784,"Ġgenerating":3785,"Ġaccept":3786,"Ġephron":3787,"Ġadding":3788,"Ġspeed":3789,"Ġgran":3790,"class":3791,"Ġhelping":3792,"maker":3793,"Ġlighting":3794,"Ġplease":3795,"Ġpreview":3796,"Ġhonor":3797,"Ġhonoured":3798,"Ġconsist":3799,"Ġgui":3800,"ibility":3801,"Ġproperties":3802,"Ġtroubles":3803,"Ġincreasing":3804,"looking":3805,"Ġjourneying":3806,"Ġlimited":3807,"coming":3808,"Ġtrave":3809,"Ġsounding":3810,"Ġdefine":3811,"Ġdefault":3812,"Ġwitnesses":3813,"Ġoption":3814,"Ġdirectly":3815,"Ġpromo":3816,"Ġmidianites":3817,"Ġparagraph":3818,"Ġhamor":3819,"produ":3820,"Ġjehoahaz":3821,"Ġintegrated":3822,"Ġterah":3823,"Ġwebso":3824,"Ġstructs":3825,"Ġtechnical":3826,"Ġlandscapes":3827,"Ġexport":3828,"bling":3829,"Ġgehaz":3830,"Ġasahel":3831,"Ġauto":3832,"Ġcustomer":3833,"Ġviolently":3834,"Ġsuccess":3835,"Ġtransform":3836,"Ġhebrew":3837,"Ġprepared":3838,"Ġdrained":3839,"Ġpublish":3840,"writing":3841,"Ġhivite":3842,"Ġluke":3843,"Ġequal":3844,"Ġintrodu":3845,"Ġcorrect":3846,"Ġexisting":3847,"Ġshoes":3848,"Ġperizzites":3849,"Ġithamar":3850,"Ġspoon":3851,"Ġeffic":3852,"Ġadvanced":3853,"Ġexperiences":3854,"Ġmiriam":3855,"Ġadvantage":3856,"Ġaroer":3857,"Ġahimaaz":3858,"Ġomri":3859,"Ġwelcome":3860,"Ġmahanaim":3861,"Ġassociated":3862,"Ġdiffic":3863,"mantic":3864,"Ġlachish":3865,"Ġjohn":3866,"Ġhadadezer":3867,"Ġgehazi":3868,"15":3869,"99":3870,"dod":3871,"four":3872,"first":3873,"ging":3874,"haps":3875,"ients":3876,"kl":3877,"know":3878,"kÏī":3879,"nine":3880,"oc":3881,"spe":3882,"tu":3883,"top":3884,"ule":3885,"uctive":3886,"Ġrough":3887,"Ġtre":3888,"Ġsat":3889,"Ġfra":3890,"orrah":3891,"ergy":3892,"Ġcircle":3893,"Ġcries":3894,"Ġlength":3895,"iter":3896,"ither":3897,"Ġpack":3898,"Ġpix":3899,"Ġpmf":3900,"Ġpadd":3901,"Ġpalm":3902,"Ġdig":3903,"arm":3904,"arma":3905,"oming":3906,"asting":3907,"Ġeb":3908,"ley":3909,"icy":3910,"Ġjob":3911,"Ġseas":3912,"Ġselling":3913,"Ġsemantic":3914,"Ġfrogs":3915,"rop":3916,"this":3917,"stre":3918,"ades":3919,"Ġchoice":3920,"Ġliver":3921,"Ġisraelites":3922,"Ġisraelite":3923,"Ġwhether":3924,"Ġpele":3925,"Ġouter":3926,"rency":3927,"Ġletting":3928,"Ġfig":3929,"Ġoffice":3930,"earim":3931,"Ġvs":3932,"redict":3933,"ulse":3934,"Ġked":3935,"Ġprocedural":3936,"Ġeveryday":3937,"Ġloves":3938,"Ġalready":3939,"Ġhold":3940,"Ġcontain":3941,"Ġkarma":3942,"Ġcooking":3943,"Ġbrows":3944,"iezer":3945,"unna":3946,"Ġdownload":3947,"Ġsinning":3948,"Ġsinners":3949,"Ġbot":3950,"ortun":3951,"Ġadvert":3952,"Ġzalm":3953,"places":3954,"Ġpric":3955,"Ġquad":3956,"Ġappe":3957,"Ġappear":3958,"ots":3959,"Ġgenerated":3960,"Ġjotham":3961,"Ġbeta":3962,"Ġuncontro":3963,"alel":3964,"Ġhelper":3965,"Ġknowing":3966,"icks":3967,"Ġcompet":3968,"Ġmatch":3969,"http":3970,"Ġrelative":3971,"Ġspend":3972,"Ġnights":3973,"Ġtimnah":3974,"Ġsixth":3975,"Ġindex":3976,"Ġmoabites":3977,"Ġresources":3978,"Ġintellig":3979,"Ġskir":3980,"Ġelements":3981,"Ġinstead":3982,"Ġhushai":3983,"lied":3984,"Ġtouch":3985,"Ġartist":3986,"Ġinternet":3987,"Ġinterface":3988,"Ġregard":3989,"Ġdesires":3990,"Ġcontrols":3991,"Ġparam":3992,"Ġziph":3993,"Ġzikl":3994,"Ġzebah":3995,"Ġregularly":3996,"Ġfeelings":3997,"Ġwebs":3998,"Ġmilcah":3999,"Ġexpand":4000,"Ġrequirements":4001,"Ġopportun":4002,"Ġgezer":4003,"Ġprivacy":4004,"Ġbelieve":4005,"Ġapproval":4006,"Ġaccessible":4007,"Ġashdod":4008,"Ġtrained":4009,"Ġpaper":4010,"Ġrefine":4011,"Ġtemple":4012,"Ġencoura":4013,"Ġapplications":4014,"Ġhivites":4015,"Ġbarley":4016,"Ġlarge":4017,"Ġcarts":4018,"Ġenviron":4019,"Ġ____":4020,"Ġpractice":4021,"Ġkeywords":4022,"Ġrepresentatives":4023,"Ġgaza":4024,"Ġpige":4025,"Ġskills":4026,"Ġtradition":4027,"datatype":4028,"Ġhitl":4029,"Ġnearest":4030,"fluenc":4031,"Ġgomorrah":4032,"Ġweariness":4033,"Ġjewels":4034,"Ġcourse":4035,"Ġgranular":4036,"Ġpaddan":4037,"Ġzalmunna":4038,"Ġziklag":4039,"19":4040,"50":4041,"body":4042,"hi":4043,"ham":4044,"ios":4045,"jud":4046,"jearim":4047,"mim":4048,"pre":4049,"tes":4050,"test":4051,"uc":4052,"ug":4053,"yond":4054,"ze":4055,"Ġid":4056,"Ġtired":4057,"heart":4058,"incl":4059,"inoam":4060,"Ġsum":4061,"Ġsens":4062,"Ġhtt":4063,"Ġbil":4064,"Ġmam":4065,"Ġmel":4066,"Ġcy":4067,"Ġcount":4068,"Ġgent":4069,"Ġlic":4070,"Ġlame":4071,"itle":4072,"itch":4073,"Ġyum":4074,"Ġpin":4075,"Ġpages":4076,"Ġdagon":4077,"Ġinf":4078,"Ġinput":4079,"Ġinputs":4080,"Ġnails":4081,"Ġbeyond":4082,"aster":4083,"see":4084,"Ġgoals":4085,"Ġmag":4086,"Ġmap":4087,"Ġuv":4088,"iration":4089,"Ġja":4090,"Ġareas":4091,"Ġdoves":4092,"Ġdogs":4093,"Ġmech":4094,"Ġstat":4095},"merges":["Ġ t","h e","Ġ a","Ġt he","Ġ o","n d","Ġ w","i n","Ġ s","Ġa nd","Ġo f","Ġ h","r e","Ġ b","Ġ f","o u","Ġt o","Ġ m","o r","e r","i s","in g","Ġ c","Ġ g","a t","e n","Ġ l","i t","Ġ y","Ġ p","o n","Ġy ou","e s","Ġ d","l l","Ġ in","a r","Ġ n","Ġb e","Ġ he","o m","a s","a n","Ġt h","v e","i d","u t","Ġ e","l e","Ġ is","Ġs a","Ġf or","Ġo n","s e","Ġh a","Ġw h","or d","en t","a m","Ġn o","i m","Ġg o","k e","i ll","Ġyou r","Ġm a","Ġh is","a c","Ġ u","Ġ -","i r","e d","Ġ i","Ġl ord","it h","i l","Ġ it","Ġw ill","e t","Ġw ith","i c","v er","e l","r a","Ġsa id","i on","Ġw e","Ġ j","he r","Ġs e","Ġw as","g h","Ġf r","a y","Ġa ll","r o","t h","a l","Ġh im","Ġ re","s t","Ġa n","Ġg i","Ġfr om","Ġno t","Ġthe m","Ġth at","k ing","u r","Ġa re","Ġa s","Ġha ve","Ġthe y","Ġs o","a nd","am e","Ġc om","Ġd o","Ġp ut","Ġt a","Ġm e","Ġo r","Ġthe ir","r i","gh t","o d","a d","Ġs t","Ġc h","o p","l y","at h","Ġl i","Ġm o","a h","Ġb y","Ġwh o","Ġis ra","Ġisra el","Ġs on","Ġd e","ic h","Ġw he","Ġp e","c t","Ġm y","v en","Ġu p","Ġth is","Ġb ut","Ġthe n","Ġgo d","er s","Ġha d","a in","Ġwh ich","d e","Ġo ut","Ġ king","Ġw ent","ac e","il d","es t","o w","Ġl and","Ġpe op","t her","Ġgi ve","Ġm an","o k","w n","Ġpeop le","re n","Ġma de","' s","Ġl et","Ġwe re","Ġch ild","t er","Ġwhe n","an t","Ġta ke","Ġc ame","Ġf i","Ġof f","a u","e ar","Ġhe r","g e","Ġa t","er ing","e p","Ġa m","Ġh as","Ġp l","c h","Ġa b","o re","Ġcom e","Ġma y","r u","l d","Ġ v","s es","Ġon e","ac k","a ve","on e","at ion","Ġs he","Ġchild ren","p t","Ġf at","Ġno w","Ġma ke","Ġa g","Ġthe re","Ġin t","on g","Ġi f","id e","Ġg ave","a b","Ġa r","ver y","Ġo ver","Ġbe c","v ing","f e","Ġd ay","Ġbe f","ar t","Ġn e","Ġbef ore","Ġsa y","re d","Ġto ok","u l","Ġfat her","re at","v ant","Ġoff ering","o se","Ġs er","Ġint o","Ġ ke","Ġde ath","Ġu s","Ġe ar","Ġ (","Ġm en","Ġp ro","es s","Ġt w","Ġag ain","o od","a v","a ll","Ġwh at","Ġe very","Ġh ou","r ou","m ent","w ay","o s","Ġser vant","se l","Ġmo ses","Ġse e","Ġha nd","Ġs h","Ġb ack","i ght","p h","ur n","Ġd av","Ġdav id","n t","Ġan y","Ġhou se","r y","Ġo ur","Ġw or","Ġpl ace","Ġa f","a ge","p p","Ġto wn","â Ģ","Ġl o","re e","ou t","Ġaf ter","u m","au se","Ġgi ven","Ġa way","Ġthe se","ct ion","ou nt","Ġb l","Ġa l","im e","c e","Ġh o","Ġt ent","Ġc on","u s","q u","Ġf l","u d","om e","Ġy ear","Ġ k","is t","t e","it es","Ġs p","Ġson s","ar d","Ġd id","Ġagain st","Ġc o","in e","Ġc an","Ġli ving","Ġp h","b e","v es","Ġp ri","Ġg reat","Ġf e","ou r","Ġs ent","Ġw ord","Ġg et","t ing","u re","t y","Ġor d","Ġo ther","at e","Ġbec ause","Ġtw o","Ġw at","Ġu n","g y","Ġb ro","i e","u n","Ġl e","Ġke ep","Ġpri est","k en","as t","Ġdo wn","it e","i es","Ġbe en","th ing","Ġ ro","Ġw ay","b le","Ġit s","Ġs in","i g","Ġ /","ing s","Ġe gy","Ġegy pt","Ġho ly","Ġw r","Ġf am","b r","Ġear th","Ġfam il","u b","Ġc a","Ġf ood","Ġsa m","Ġw i","a g","ou s","ou ld","Ġth ose","Ġb urn","Ġt ime","i ve","Ġgo od","Ġb o","or t","Ġe x","Ġa d","Ġam ong","ation s","Ġ z","Ġli ke","Ġp art","o b","nd er","Ġe v","p l","o l","Ġar m","âĢ Ļ","is h","Ġsa ul","Ġre st","ri ght","Ġ en","Ġj ud","Ġbro ther","Ġord ers","le an","Ġwor k","w s","m on","ir st","Ġta ken","Ġd one","sel f","Ġt e","i le","Ġs u","p e","Ġwhe re","Ġf irst","Ġn ame","Ġm ar","p s","ic e","Ġw om","u nd","s h","Ġc l","Ġservant s","Ġe d","p le","Ġp r","Ġ ru","Ġgo t","Ġwat er","Ġ im","it y","Ġyear s","i f","Ġu se","Ġ qu","Ġh und","Ġhund red","ar on","Ġa aron","g et","u ll","i re","Ġa pp","Ġd au","o h","Ġ <","Ġhand s","Ġ/ >","Ġdau ght","u st","Ġ r","ig n","t ar","Ġn um","Ġhe ad","Ġt ill","Ġab out","Ġev il","o t","Ġsa w","rou gh","Ġe ven","w e","Ġst r","as s","Ġmo re","Ġsay ing","Ġburn ed","Ġe l","Ġs ome","Ġhe art","Ġli fe","Ġw ould","Ġe y","Ġal tar","Ġw ar","Ġs ide","Ġd es","ra in","Ġh ow","i al","Ġg en","Ġu nder","Ġc reat","n e","Ġhe re","Ġth rough","Ġon ly","Ġj e","p er","i nd","t s","h u","Ġ 1","he d","Ġb as","Ġher it","i gh","f f","in es","Ġwith out","Ġse nd","Ġherit age","Ġ right","is e","Ġwi fe","c re","or n","Ġfamil y","es h","ar a","Ġey es","Ġgen er","Ġc ut","Ġc ur","Ġth an","l es","s p","Ġj o","Ġbec ame","n g","Ġbe t","Ġun c","Ġa c","t ain","Ġday s","Ġth ings","Ġme et","Ġne ed","get her","Ġo x","Ġb u","Ġto gether","i z","Ġe nd","ion s","c k","Ġt ri","Ġtown s","Ġp o","a z","x t","Ġo ld","Ġf ear","ount ry","Ġt urn","Ġyou ng","Ġmeet ing","Ġb ir","or y","an s","ac h","rou nd","Ġph il","Ġphil ist","Ġwom an","i x","Ġth ous","Ġfi re","Ġthous and","it ing","Ġse ven","Ġj er","Ġword s","Ġjud ah","a le","b er","Ġke pt","Ġph ara","Ġphara oh","n ow","Ġf ull","it s","Ġgo ld","Ġs ou","Ġme al","e ver","Ġa h","Ġth ree","sel ves","f or","Ġj ac","k es","Ġshe ep","Ġunc lean","Ġjac ob","a ven","as e","Ġtent s","at ed","ke d","Ġt ru","Ġm ount","ie f","d u","s ide","Ġat t","o ther","t le","Ġre ad","it ion","Ġwh y","Ġwh om","Ġcon t","Ġo p","on s","Ġl ong","Ġth ir","Ġwas te","Ġfather s","Ġj os","i p","Ġf ace","Ġan other","hu a","Ġjos hua","i ble","Ġb re","Ġb en","Ġb od","Ġn ear","u e","re s","d s","ess ing","s o","Ġhe l","Ġcom mon","ab le","e m","Ġs m","Ġd est","ent y","Ġo il","Ġan s","Ġphilist ines","o th","Ġo ath","Ġh igh","Ġd at","ac es","Ġwe ll","ro w","ru ction","Ġans w","Ġj ose","Ġjose ph","t t","in k","Ġl a","Ġfi ght","Ġch ief","Ġfi el","Ġbl ood","o ff","Ġ round","Ġwh ile","an g","Ġk now","Ġbo ok","Ġdest ruction","Ġf o","ic k","Ġcom p","Ġdo or","Ġbl essing","ra h","a re","Ġg one","f t","Ġhim self","Ġsam e","Ġp er","Ġdaught er","i a","ct s","ow er","Ġpe ace","er tain","Ġp os","Ġbod y","Ġbe th","ac t","off ering","Ġso l","Ġop en","Ġp ra","Ġoffering s","pl ace","/ /",": //","a i","Ġ 2","Ġan g","Ġar k","we en","Ġbet ween","Ġac c","Ġst re","w ord","Ġ [","Ġf our","Ġc ertain","all y","Ġstr ong","Ġb est","Ġm at","Ġma le","Ġp ur","Ġdat a","Ġb r","ord an","Ġj ordan","Ġde ad","Ġc ountry","le d","Ġfamil ies","h tt","Ġre l","Ġne ws","Ġbu ild","Ġe ph","Ġse en","Ġad d","u el","Ġcom es","Ġca re","Ġbir th","Ġ very","ar ing","Ġst ill","Ġlo ve","Ġsp e","Ġm on","Ġn am","Ġgo ing","Ġag ree","Ġg r","Ġf ar","Ġansw er","c l","Ġ \"","ou gh","a an","Ġh ard","Ġm od","om on","Ġth ing","Ġnum ber","Ġhel p","Ġsol omon","w ard","Ġg rain","Ġn ight","it or","Ġd r","Ġover c","Ġfl ight","Ġarm y","htt ps","Ġagree ment","d ay","p he","Ġmo ther","Ġfi ve","ag es","Ġim p","c o","Ġt im","Ġs ix","is ion","Ġd ire","Ġi nd","Ġfi f","Ġte xt","led ge","Ġhe aven","Ġe ver","Ġbrother s","Ġs c","Ġwr ong","Ġsu ch","o king","Ġwho se","Ġle v","m a","Ġd is","Ġab le","Ġab rah","Ġfiel d","Ġabrah am","en ce","Ġbre ad","Ġknow ledge","Ġmon th","Ġf un","ar y","Ġde c","Ġne w","Ġpro du","Ġs word","Ġm id","ar ch","Ġpl aces","Ġcan aan","Ġdes ign","Ġs il","Ġs et","Ġco ver","Ġ 3","Ġm orn","on t","one y","d om","Ġtri be","for m","he m","Ġp ower","Ġse v","Ġli ght","Ġsil ver","Ġmorn ing","Ġs im","el s","Ġre sp","ath an","Ġv ide","Ġord er","Ġt y","Ġf ree","Ġc lean","Ġv al","Ġel i","w or","le ar","Ġst on","Ġal so","Ġmount ain","l s","o thing","ou d","Ġto day","Ġc lear","Ġse cre","an ce","Ġse ed","Ġtw enty","Ġwor sh","o ice","Ġc ry","b es","Ġpra y","Ġpur p","b ack","Ġhe aring","b a","j e","as h","Ġgi ving","Ġuse d","Ġa ct","Ġp ers","Ġbe ast","an ge","Ġgod s","ment s","Ġsam uel","Ġfun ction","Ġsecre t","j am","Ġsa fe","Ġcom ple","Ġpro phe","Ġfe ed","ure s","Ġpriest s","Ġresp ons","0 0","o g","Ġt en","Ġs ign","el y","Ġdaught ers","a k","i ah","Ġ âĢ","Ġh or","Ġd ise","Ġrespons ible","Ġp le","Ġfor m","Ġdo es","Ġking s","Ġcur se","Ġthir ty","Ġdr ink","c ess","Ġh ill","Ġp re","Ġma king","Ġst art","Ġben jam","Ġas s","and s","Ġcreat e","c y","Ġc ub","ut h","am b","Ġno thing","Ġre c","Ġv oice","Ġbec ome","Ġevery thing","Ġcl othing","Ġjo ab","Ġ +","Ġtim es","j ah","Ġa i","Ġgo es","Ġthem selves","Ġlo oking","Ġh on","Ġm er","es sel","Ġv essel","âĢ Ŀ","Ġl im","Ġse a","Ġt al","Ġm ight","Ġcon s","Ġvide o","a ph","o ck","Ġg u","Ġre qu","Ġmo ab","Ġed itor","ent s","ir c","Ġre s","Ġint e","Ġca pt","Ġru l","Ġread y","ĠâĢ ľ","i b","t c","u ch","Ġs k","Ġb al","ou nd","Ġm ind","Ġp ay","ve l","Ġburn ing","Ġsu pp","Ġbenjam in","i ous","n er","t a","Ġt r","Ġc at","Ġp ill","Ġje h","Ġturn ed","Ġston es","Ġfeed back","Ġple as","n ess","ent h","Ġj on","ch ing","Ġwhat ever","be red","Ġpill ar","Ġfl esh","Ġnum bered","Ġworsh ip","s al","Ġm as","ic es","ep ing","Ġsay s","Ġmar ke","Ġsm all","Ġspe c","Ġm oney","Ġc ause","Ġmo st","Ġla w","i v","m en","Ġj ust","Ġshe ke","Ġpro per","Ġturn ing","Ġatt ack","i ans","n ing","Ġt rou","Ġb a","Ġc ru","Ġfl ow","Ġchief s","wor k","Ġpurp ose","Ġg l","Ġta king","ne y","Ġfif ty","Ġcat tle","Ġjon athan","e y","Ġw a","Ġw ood","Ġm uch","Ġp un","Ġe le","ren t","Ġab sal","Ġox en","Ġabsal om","b b","o am","Ġ ver","Ġl it","et h","Ġv all","Ġne ver","Ġany one","Ġex per","Ġtru ly","Ġdise ase","Ġvall ey","r am","at ive","Ġin st","ic al","Ġfr u","Ġen g","Ġwom en","Ġcapt ain","a ac","i ence","Ġin side","as se","Ġis aac","Ġmar k","Ġbuild ing","e red","l ic","Ġh us","Ġf a","Ġto ol","Ġc ar","ul ar","Ġqu ick","Ġeven ing","Ġacc ount","Ġnam ed","c es","f ul","w w","Ġin cl","Ġn ations","Ġcon ne","Ġwat ers","Ġwr ath","Ġtru e","Ġpun ish","] (","s s","Ġha l","ul t","Ġany thing","Ġway s","_ _","u al","Ġs ort","Ġh orn","Ġre d","Ġar am","all ed","Ġjer us","Ġpers on","Ġcub its","s c","v ie","Ġ es","Ġs y","Ġta kes","ow s","Ġfl ock","Ġfe et","Ġother s","ale m","Ġoverc ome","Ġpray er","Ġjerus alem","e b","e f","g th","u p","Ġw ant","le ch","Ġim age","Ġqu est","i an","l a","or s","Ġfor ty","Ġcom ing","Ġbro ken","Ġlit tle","Ġo wn","Ġyour selves","Ġwr iting","ob oam","Ġmar ked","Ġcont ent","co nd","Ġhal f","Ġin cre","Ġe ast","Ġse arch","Ġfi le","Ġgener ation","Ġfight ing","Ġsheke ls","Ġquick ly","a il","p es","s ing","er ial","is on","ve d","Ġha ir","Ġj our","Ġsp ir","Ġpart s","Ġrest ing","Ġsupp ort","Ġpunish ment","c ed","m o","m s","Ġm ou","Ġd ri","ra im","Ġman y","Ġman asse","Ġmat erial","Ġmas ter","Ġmanasse h","d o","l o","r ing","he l","Ġg row","le ad","Ġon es","Ġst ore","ime lech","Ġdire ction","Ġlev ites","ou ght","Ġto p","Ġth ought","Ġwe eping","Ġcl oud","iz e","Ġjour ney","at s","at ing","at es","Ġgi lead","pe ct","Ġpr ice","Ġeph raim","Ġwa iting","e x","Ġl in","Ġe ach","Ġcut ting","Ġpos ition","Ġpay ment","Ġproper ty","g in","l i","Ġt ou","he s","id es","Ġse cond","Ġgi ves","Ġbr ass","Ġlim it","Ġba al","Ġp ub","Ġd et","as ed","ent ion","Ġst ren","Ġv ar","Ġfru it","Ġhus b","or row","Ġl ab","Ġd if","Ġbe ing","Ġar t","Ġen ough","Ġstr ange","a am","c om","Ġs is","Ġg ra","at her","Ġyour self","Ġout side","Ġfe ast","Ġrec ord","Ġhon our","Ġes au","Ġmou th","b o","b ut","t o","Ġw ine","Ġin ter","Ġre g","Ġdes ire","Ġcertain ly","Ġmer cy","e ll","Ġ 5","Ġt ra","Ġdo ing","Ġam or","Ġsou th","Ġadd ition","Ġtrou ble","c ountry","g o","s er","~ ~","Ġa uth","Ġd an","ro ss","Ġking dom","Ġus er","Ġco ll","Ġthir d","je ct","Ġeng ine","Ġspir it","Ġstren gth","h an","Ġw o","Ġp ass","od e","Ġst one","Ġro ck","Ġegypt ians","Ġla ws","Ġhusb and","Ġ ri","in t","Ġs l","Ġb and","Ġd am","Ġd ist","ve red","Ġcom m","Ġsh a","Ġpr ison","Ġtri bes","Ġsou nd","Ġah ab","f fe","p ar","r on","t he","Ġs we","re am","Ġb it","al th","Ġre ub","Ġde f","Ġfe at","Ġsev enth","Ġsk in","Ġreub en","in ess","Ġf al","Ġg ame","Ġsa l","Ġfr ont","Ġwi ves","Ġarm s","Ġimp ort","Ġval ue","Ġvessel s","u ra","Ġw all","Ġc am","Ġl amb","Ġe ffe","Ġam mon","Ġwi nd","Ġapp s","Ġbet ter","res s","Ġang ry","Ġprophe t","Ġpillar s","Ġswe et","? )","c u","Ġg ri","Ġd ry","al ity","Ġgi be","Ġme as","Ġgood s","Ġel ish","Ġheart s","Ġjer oboam","Ġrel ations","Ġeli jah","Ġfa ith","Ġfal se","Ġ ide","Ġm ult","Ġg ad","it t","ic s","Ġwe ight","Ġtw el","Ġpos s","tc hed","la w","c us","g r","p o","en s","Ġfor ward","Ġha ving","Ġbut t","Ġhou ses","Ġsh ut","Ġjud g","Ġtext ure","Ġmaterial s","Ġauth or","Ġw it","Ġc au","Ġab imelech","Ġco l","Ġed ge","ft ed","Ġj es","Ġse par","Ġfr ie","Ġli fted","Ġpro v","Ġtent h","Ġje z","Ġcons id","vel op","Ġdif fe","Ġri ver","Ġfrie nd","a ut","g s","h on","w are","Ġo b","Ġo pt","Ġh at","Ġbe d","Ġput ting","Ġlo c","Ġlo ok","Ġsp ace","Ġjud ge","Ġed om","Ġru n","Ġac ross","Ġcont ro","Ġang el","Ġprodu ct","Ġdri ving","Ġtwel ve","l ands","re es","Ġb us","Ġg rou","Ġd ream","Ġear s","Ġco vered","Ġgener ations","res ent","Ġdire ct","Ġcry ing","Ġamor ites","Ġs ub","is ions","Ġma kes","Ġse x","Ġfi nd","Ġear ly","Ġk ind","Ġbo ard","Ġhead s","Ġatt ention","Ġstre am","Ġgr ass","Ġty pe","Ġimport ant","s he","Ġ ra","Ġt ree","Ġa ch","Ġm et","Ġm us","Ġc ode","Ġin v","Ġn or","Ġfor ce","ri ages","Ġab ner","Ġevery one","Ġsh ould","Ġpr om","Ġmid ian","Ġrequ est","Ġelish a","Ġmult i","c hem","k s","Ġw ide","Ġs ur","Ġf all","Ġc r","Ġc ould","Ġl ow","Ġp ar","Ġp ain","Ġfor g","Ġde velop","Ġus ers","Ġget ting","irc le","Ġspec if","Ġsis ter","Ġdiffe rent","i o","x ed","Ġe as","Ġha m","Ġyour s","Ġta ble","Ġoff ered","Ġshe chem","Ġover ta","Ġro om","br on","Ġfo ot","offering s","Ġstre tched","Ġmid d","Ġsev enty","Ġbal aam","Ġcau sing","p ro","Ġ ve","Ġl ine","ar ia","Ġn ation","Ġhe bron","ion al","Ġre ward","Ġpro cess","Ġsam aria","sp ring","Ġpo st","Ġsim ple","Ġlin en","Ġmidd le","a e","c ial","i ath","Ġc he","en se","Ġe m","Ġwe alth","Ġde ep","Ġne igh","Ġus ing","Ġz i","Ġarm ies","Ġte ch","Ġjo in","Ġconne ction","ser vant","Ġneigh b","Ġh um","Ġb ag","Ġf il","am es","ke t","il ity","Ġre m","ri but","Ġab ram","Ġwr it","Ġz eb","Ġjeh o","Ġhorn s","Ġconsid er","aut if","p u","Ġ 4","Ġt est","Ġw is","Ġc all","Ġp ull","Ġwas hed","al s","Ġfi xed","Ġro ds","Ġprophe ts","Ġrul er","Ġpub lic","Ġlab an","Ġneighb our","n a","Ġ er","Ġm ix","as on","Ġse at","Ġgreat er","Ġsou l","Ġdis g","Ġinte gr","Ġwit ness","Ġhat ers","Ġmus ic","autif ul",". .","y s","Ġa ud","Ġe ight","se d","st em","Ġup right","ate g","az ar","Ġcommon place","Ġcomple t","Ġmarke ting","Ġele azar","Ġtool s","Ġgrow th","Ġvar ious","Ġreg ular","Ġauthor ity","Ġdisg ust","k er","k ah","o ke","v ation","re ad","Ġf in","Ġf on","Ġch ang","Ġro ad","Ġcreat ive","Ġbas es","Ġcur tain","Ġdec isions","bb ath","vie w","Ġeffe ct","Ġsepar ate","Ġbus iness","Ġfon ts","i el","m an","p ly","s on","z er","Ġ $","or g","Ġsa bbath","Ġre le","Ġre se","Ġme m","way s","Ġwor ld","Ġfe el","Ġro bes","Ġ1 0","Ġsm ell","Ġcomp on","Ġoverc ame","Ġbeast s","Ġexper ience","Ġbit ter","Ġposs ible","c ar","p ut","Ġt er","ar k","Ġsa les","Ġwe b","Ġse ated","Ġas ses","Ġst ru","Ġpl ant","Ġne xt","Ġke y","Ġpro f","Ġsh ame","Ġsh are","te en","Ġro d","Ġje hu","Ġnam es","Ġcaptain s","Ġbutt on","a im","c ircle","u de","Ġw est","ll ow","Ġmo ving","Ġup d","os h","Ġarm ed","Ġr am","Ġbas e","Ġmod el","Ġcurse d","Ġgri ef","Ġnor th","/ )","n s","n on","n ah","Ġl ay","ri be","ep h","Ġam ale","Ġim ages","Ġbir ds","Ġdec ision","Ġcover ing","Ġsim ply","Ġcomple te","Ġmarke t","ww w","ura l","Ġfall ing","Ġmix ed","Ġamale k","t ion","t al","Ġ `","Ġs le","Ġh ang","Ġm il","Ġc irc","Ġp ot","Ġn et","Ġth ough","Ġre ason","Ġan im","Ġso ft","Ġli br","Ġmo ved","ich o","ist s","Ġwat ch","Ġpo or","Ġjer icho","aven ed","Ġdoor way","Ġrel ation","Ġgl ory","Ġincl ude","Ġfeat ures","Ġcomplet ely","l amb","Ġ ent","Ġw ound","Ġs ure","Ġs ense","Ġl ear","Ġbe h","Ġis h","Ġha z","Ġre nd","Ġmy self","Ġland sc","Ġv is","Ġcanaan ites","je cts","Ġincl ud","Ġsy stem","Ġtou ching","Ġcomm un","Ġgrou p","Ġtech n","Ġfil es","Ġdisgust ing","Ġlandsc a",". \"","f l","n am","u ally","v i","Ġa cts","or ah","er a","Ġc ord","Ġg il","Ġg ide","Ġp ast","Ġd el","Ġd iv","Ġv ine","Ġkeep ing","Ġex p","Ġper f","Ġmod els","Ġval u","do ing","Ġrecord ed","Ġoverta ke","Ġgide on","1 0","g al","p i","re el","is s","Ġl ess","Ġy et","Ġp ath","Ġp resent","Ġn ab","ac hel","Ġst op","Ġst ate","Ġst ory","Ġoff spring","Ġpro ject","Ġlo t","Ġro be","Ġca p","Ġca kes","Ġr achel","Ġfiel ds","Ġeph od","Ġgr ace","aph at","Ġflow ing","Ġaram ae","Ġquest ion","Ġcontro l","Ġforg i","Ġperf um","\" ,","c hes","i jah","p r","Ġt ar","Ġs orrow","Ġh itt","Ġf ut","Ġf ont","it ies","Ġon ce","Ġgo at","ac ing","st and","Ġso cial","Ġdo cu","ri pt","Ġne cess","os he","Ġbl ue","Ġcon c","ard en","Ġsin s","Ġru le","Ġneed s","Ġtal king","Ġres pect","Ġinst ru","Ġincre ased","Ġcoll e","Ġide a","Ġrun ning","Ġwis dom","f ting","g round","g pu","i ent","w h","Ġw gpu","Ġl oud","Ġd on","Ġd ro","Ġin form","ir on","Ġj eph","Ġman age","Ġwor king","Ġun w","Ġle ft","Ġlong er","Ġ2 0","Ġhor se","Ġrequ ire","Ġbal ak","Ġquest ions","Ġboard s","car riages","g an","i ps","o ked","Ġ rain","Ġo pp","Ġs un","Ġh ar","at form","Ġl ep","Ġl ast","Ġin it","Ġn ah","Ġbe autiful","Ġe tc","ac king","Ġwho ever","Ġde b","ep t","Ġsee m","Ġwr ite","Ġru les","Ġhor ses","Ġgu id","Ġpleas ing","Ġpleas ure","Ġflock s","Ġdist ribut","Ġjez reel","Ġrese arch","Ġforgi ven","Ġnecess ary","2 0","c ision","i ves","n ot","t w","Ġw ave","Ġs om","Ġb ad","at er","Ġn aph","Ġno ah","ed ia","ic t","Ġse le","Ġor de","Ġli fting","Ġpl atform","Ġv i","Ġsee k","Ġal ways","Ġneed ed","Ġcommon os","Ġstre t","Ġlev i","Ġty pes","Ġspec ial","ail s","Ġsal vation","Ġzeb ul","Ġorde red","a pp","b l","e k","e ous","h ing","i qu","r or","s hed","Ġ 6","Ġw id","in s","Ġs ides","re st","or am","Ġg e","Ġbe gin","Ġe ma","le avened","ir am","et ry","Ġj ab","Ġre p","Ġch ar","Ġde v","te x","te xt","Ġsp ear","Ġpri v","Ġun leavened","Ġsam son","Ġex am","Ġqu ality","Ġr ather","Ġhow ever","az iah","Ġphilist ine","Ġwrong doing","Ġsign s","Ġjeh osh","Ġema il","Ġjehosh aphat","h ad","l ine","Ġ 0","Ġ ~~","Ġa v","in king","Ġs ar","Ġh ate","Ġb ands","Ġm ic","Ġm ine","Ġd ark","Ġbe l","ic ally","Ġas a","ad ab","Ġst ra","Ġpeop les","Ġv ie","Ġsh ad","Ġback ground","Ġbl ow","ag ed","Ġz er","Ġr ings","Ġbas han","Ġset ting","Ġlight s","Ġgra ph","Ġgibe ah","Ġmeas ure","tal i","Ġsoft ware","Ġtar get","Ġfut ure","Ġinform ation","Ġlep er","Ġforgiven ess","tw o",". )","b us","m e","o f","Ġa ut","Ġc re","Ġc ateg","Ġd ust","Ġbe er","Ġsa vi","Ġwh ite","ver s","ver age","Ġre al","Ġnot e","Ġme at","Ġsee ms","um cision","Ġte ach","ust om","Ġnum b","Ġbu ff","iz ed","Ġimp ro","Ġinte rest","Ġcru el","Ġcru shed","Ġconne ct","Ġsy n","Ġcol or","Ġstru ct","Ġcirc umcision","Ġnaph tali","Ġstra ight","a p","c ut","i ed","t ed","Ġt rees","Ġw ise","Ġf act","Ġc ustom","Ġl ist","as es","am ar","Ġgo ats","ac ed","ra nd","Ġor gan","Ġch o","os s","Ġget s","Ġca le","Ġbo y","Ġte am","Ġapp ro","Ġunder stand","Ġright eous","cre en","Ġcomp an","Ġsecret ly","Ġtal k","vie ws","lo ad","Ġmulti ple","Ġrele vant","Ġaramae ans","Ġsar ah","Ġcre ation",") .","a el","a red","c i","i red","n o","Ġs ime","Ġto m","Ġm esh","Ġd ra","le t","Ġis s","Ġma j","ir l","Ġwas hing","Ġas her","Ġsee ing","Ġcon f","sh ing","Ġcreat or","Ġbook s","Ġtext ures","Ġset up","Ġrul ing","Ġgil gal","Ġmanage ment","Ġunw alled","Ġsime on","b on","c hed","m i","m ar","o y","Ġa ra","Ġw ing","Ġw and","Ġs ize","Ġb at","Ġth ink","le hem","Ġfr ame","Ġre nder","Ġas k","Ġmo tion","ok s","Ġpl ay","ab or","av i","Ġsh ow","Ġcur rent","Ġthousand s","Ġfo cus","Ġpra ise","Ġacc ess","Ġbr an","Ġsc ale","00 0","eth ing","Ġdirection s","Ġdef in","Ġjes se","she ba","Ġmet al","Ġve il","Ġer ror","Ġnet work","Ġbeh avi","Ġlandsca pe","oshe th","Ġinit ial","Ġvi ol","Ġstret ching","Ġsavi our","Ġtom orrow","e ed","l ah","m er","n et","p ah","w ood","Ġh oney","Ġc alled","Ġd ang","ent ly","Ġu ri","il y","Ġas h","Ġst ick","Ġout c","pp ing","Ġlo ose","Ġle g","Ġle ah","pl ay","Ġje bus","Ġjo y","ai ah","Ġind eed","Ġform at","Ġgl ad","Ġver tex","Ġprov ide","Ġwrit ers","Ġaud ience","Ġmem ory","Ġsom ething","Ġvie w","Ġmaj or",") ,","b re","c ing","c on","f ive","g g","i hon","l ess","m f","u red","Ġt ry","Ġa pi","Ġs ihon","Ġh ig","or m","er n","Ġl ater","Ġp age","om es","Ġha pp","ent ial","Ġma ch","Ġse es","ur ing","Ġst ep","ren ce","Ġv ir","Ġover se","Ġsh all","Ġho le","Ġk ir","ie ve","Ġbo th","Ġsu c","Ġbas ed","Ġpo int","Ġsc en","Ġdesign s","Ġincre ase","Ġjes us","Ġdiv ision","Ġzebul un","Ġwing ed","Ġdang er","b an","h ou","m ah","n ers","p ing","Ġ 7","Ġ iron","Ġt as","Ġt rain","Ġw al","Ġb rand","Ġm ass","Ġm iz","Ġc ed","Ġg ath","Ġl ang","Ġl oss","Ġhis t","el ine","ra ble","Ġre h","Ġre be","Ġput s","Ġch at","Ġwhen ever","Ġv ia","Ġsh il","Ġsin ai","Ġad on","Ġwhere ver","Ġru st","Ġgener ate","Ġread ers","Ġben ef","Ġcomp ut","Ġdoor s","Ġfour th","Ġpur ple","Ġdr inking","form ance","Ġtr ans","Ġsort s","Ġcoll abor","Ġsha king","Ġcam els","Ġspecif y","Ġeas y","Ġlibr ary","Ġsele ction","Ġced ar","Ġlang u",". âĢĿ","c ol","f ace","h o","i k","i en","Ġs el","Ġb ow","Ġb ind","Ġf re","ou red","Ġp a","Ġhe bre","om i","et s","ad d","Ġher ds","Ġhand l","Ġbl og","Ġk en","ty pe","du rable","Ġbre ast","Ġansw ering","Ġstrong er","Ġsix ty","Ġind ia","Ġpre p","Ġdet ails","Ġwind ow","Ġgibe on","Ġdevelop ment","Ġjoin ed","Ġrem em","Ġcompon ent","Ġupd ate","lamb s","Ġdistribut ion","iqu e","Ġteach ing","Ġnumb ers","Ġkir iath","Ġrebe kah","o ver","r act","u ps","z ah","Â ł","Ġt v","Ġs w","at ural","Ġp op","Ġn un","Ġu i","il ah","Ġit self","th ah","Ġre f","ri age","ad a","ad e","Ġpl an","Ġab ish","Ġv ision","Ġlo op","Ġad s","Ġte m","if y","Ġcreat ing","Ġjo ash","ach ar","em s","Ġfo llow","Ġprodu cts","Ġact ually","og le","Ġdam aged","Ġjudg es","Ġprom pt","Ġprof ess","Ġmil k","Ġperfum e","Ġhitt ite","Ġjeph thah","Ġcale b","Ġmesh a","Ġiss achar","Ġhist ory","l on","n al","t ers","Ġ 8","Ġs qu","Ġs creen","Ġh op","Ġb ru","er m","Ġc ro","Ġg re","en c","ll ing","ar i","Ġn athan","Ġhe sh","Ġse ir","Ġre views","Ġor nam","ri ed","Ġli ves","Ġfat e","Ġk ad","Ġco oked","Ġfe e","Ġle ad","Ġle ather","Ġpr im","Ġpr ide","Ġunder ta","Ġatt acking","Ġmountain s","Ġver s","Ġdet erm","Ġwo nder","Ġlamb s","po int","Ġloc al","Ġcr it","Ġchang es","Ġlay out","Ġhang ing","Ġopp os","Ġcateg ory","hou se","Ġprofess ional","' t","b ah","c her","c ript","Ġa ir","Ġh an","Ġm in","Ġm ich","Ġm ess","Ġg ers","Ġg irl","Ġl ion","Ġl au","Ġfor ces","Ġfor ced","ad ok","Ġst and","Ġch ance","Ġson g","Ġab iath","ab ility","Ġar ch","Ġear li","Ġsh ime","us h","Ġk oh","Ġsp ices","Ġco nd","Ġco st","Ġgreat ly","Ġfe m","Ġfe w","Ġle verage","Ġex c","Ġz adok","Ġen c","Ġapp lic","Ġold est","Ġbir d","Ġcont in","Ġmat the","Ġact ing","Ġlim its","Ġeditor s","Ġexper t","Ġgra pes","bo ard","Ġtrouble d","put s","Ġremem ber","Ġhesh bon","Ġkad esh","Ġfee ble","Ġabiath ar","Ġkoh ath","Ġmatthe w","h ol","l and","r s","t rees","t ribe","y le","Ġ ill","Ġa z","Ġm edia","or ies","Ġp ip","Ġd rain","Ġu r","Ġu nt","Ġwith in","al m","ri es","Ġmo ve","Ġpl aced","Ġal ong","Ġfl at","Ġmar ried","Ġed iting","Ġey e","Ġread ing","Ġop in","Ġbod ies","Ġmod e","Ġfif th","Ġprodu ce","Ġvide os","Ġworsh i","Ġpub l","Ġfriend s",".. .","Ġram ah","Ġsle ep","Ġvis ual","Ġcommun ity","Ġdocu ment","Ġpriv ate","Ġbran ches","Ġvir gin","Ġwal king","Ġshil oh","Ġoppos ite","a ir","b ar","e re","f ru","f ort","g u","i et","i ada","l t","o ses","p ed","w r","Ġ 9","Ġb on","Ġb ath","Ġc op","it ions","Ġin c","ir ing","ic le","ic ation","Ġse o","Ġall ow","ro ws","Ġre ph","Ġam non","Ġsh am","Ġwor ked","Ġho oks","iz z","Ġpo etry","Ġper formance","Ġopen ing","Ġdis play","Ġston ed","Ġact ive","Ġver t","to ok","Ġwo ol","Ġpass over","Ġdirect ory","Ġinv ol","Ġjeho iada","Ġamalek ites","Ġinstru ments","Ġhorse men","Ġwid ow","had ad","Ġrighteous ness","let ter","Ġwand ering","Ġuri ah","Ġhig her","Ġlangu age","c m","f o","g es","g ile","l ive","m el","o nd","t en","t ow","t ree","t ime","w he","Ġs na","Ġh y","Ġh iv","Ġb ar","Ġb right","Ġf ing","Ġf aces","Ġl u","Ġn a","Ġn ile","Ġn atural","Ġth in","Ġe qu","Ġgo ogle","il ar","Ġj oram","Ġas se","Ġme ans","Ġst ar","Ġar ound","Ġbec omes","Ġk orah","Ġco at","Ġle ban","ag ing","Ġex t","Ġex ch","Ġex pect","Ġen able","ile e","ull y","Ġah aziah","ma el","Ġsim ilar","wor ld","Ġstart ing","Ġcub it","Ġpleas ed","Ġown er","Ġsearch ing","Ġdam age","Ġopt ions","servant s","Ġish mael","Ġrend ering","Ġinclud ing","Ġimpro ve","Ġcompan y","Ġdra w","Ġpop ular","Ġcro wn","Ġgers hon","Ġfem ale","gile ad","Ġleban on","2 5","a king","b s","b at","b ed","d en","e en","o ah","v ice","Ġa w","Ġo live","Ġto o","or re","Ġg ames","Ġl ar","Ġl ines","Ġl ink","Ġl ower","Ġy oke","Ġin ner","Ġn ine","Ġth read","id on","Ġon line","ic ate","Ġre ach","ur i","Ġcom fort","Ġta uri","ven ue","ain s","Ġint ro","Ġar non","fe rence","pp ed","Ġun ique","Ġev ent","Ġhundred s","Ġnews letter","Ġlev ite","Ġpurp oses","ash a","Ġpers ons","Ġpre v","Ġtr ack","Ġfa ir","Ġcar riage","mo st","Ġthought s","go ats","Ġsal t","Ġsub sc","Ġpost s","Ġhum ans","Ġlear n","Ġcord s","Ġnab oth","Ġcap ac","wh ich","Ġgraph ics","Ġadon ijah","Ġsel f","Ġsqu are","Ġgre en","Ġstand ard","Ġshime i","fru its","/ ](","a wn","g arden","i ally","s hem","Ġt amar","Ġo g","Ġw alled","in ing","in ation","Ġs ing","Ġof ten","Ġh ome","Ġb ud","Ġf er","Ġm ust","Ġm eth","is hed","Ġc ent","Ġc art","Ġc orre","Ġg arden","Ġp en","Ġd uring","ll ed","Ġno de","Ġma k","il t","Ġso dom","Ġde ar","Ġpl ated","Ġpro p","Ġpro jects","Ġtw ist","te m","Ġle gs","Ġbo az","Ġex ist","Ġz idon","Ġpart ed","Ġcl oth","Ġsend ing","Ġgr id","Ġmonth ly","Ġval id","ba al","Ġrul ers","Ġba asha","eb el","Ġwall s","Ġjez ebel","Ġach ish","Ġwrit er","Ġpull ing","Ġintegr ations","Ġcompon ents","Ġter ms","Ġlear ning","Ġsystem s","Ġvalu able","Ġnab al","Ġjab esh","Ġmic ah","Ġshad er","Ġoutc ry","Ġoverse ers","Ġabish ai","Ġfing er","Ġna omi","Ġsing le","a ps","b ased","c ious","d es","i ver","p her","Ġ ess","he st","he ad","in ts","Ġh iram","Ġf acing","at or","Ġhe ight","Ġsa f","Ġu x","ith ub","il ities","Ġj ub","Ġre t","st orm","Ġta ker","Ġch ange","ct ive","Ġland s","Ġpl ate","ab les","fe ct","Ġne ck","Ġsh o","Ġsh ar","Ġlo ad","Ġbl ind","Ġho llow","Ġk it","te enth","Ġex pl","Ġev ents","pl es","Ġen v","Ġqu iet","Ġbas ic","igh th","Ġgener ative","Ġthan k","Ġbu y","iz ation","Ġben aiah","Ġhigh ly","Ġper izz","Ġmonth s","Ġty p","Ġfunction s","Ġcomple x","Ġcru shing","Ġcar mel","li ke","Ġtou ched","com mon","bo ok","Ġwo nd","Ġprison ers","Ġham m","Ġsle eping","Ġhaz ael","Ġsetting s","Ġscen e","Ġreh oboam","Ġbenef its","Ġvers ion","Ġcop y","b y","e w","g ard","h ip","p th","r ings","w er","y ri","y pe","Ï ī","Ġ ith","Ġ __","Ġ ...","Ġh in","Ġh ore","Ġf ount","Ġto ken","Ġc ows","Ġy ew","Ġin no","ar ies","Ġn aam","Ġsa nd","Ġsa ve","im mon","Ġma h","ac ter","Ġu z","ra ph","Ġwas ted","Ġfr ames","Ġre venue","Ġtheir s","Ġst or","Ġst ud","ah az","Ġher d","Ġshe m","Ġover took","Ġne bat","Ġbl ows","Ġk id","Ġk iss","Ġsp o","our ce","Ġen j","Ġpr act","Ġbas ket","ara i","Ġbu ilt","Ġend ed","Ġfo ld","Ġfo cu","ma p","Ġmid point","Ġstart up","Ġass yri","Ġgu ide","Ġcar riages","Ġinter act","Ġmeas ures","Ġjudg ed","Ġchang ed","Ġcurtain s","Ġkey word","Ġhang ings","Ġpot ential","Ġwound ed","Ġtechn ol","fl ow","pr ise","Ġcolle ct","Ġcolle ction","Ġrep resent","Ġchar acter","Ġav ail","Ġzer u","Ġara bah","con text","gg est","Ġmiz pah","Ġcomput er","Ġprim ary","Ġearli er","ere r","Ġreph aim","Ġvert ices","tow ns","Ġprev ious","shem esh","Ġmeth od","Ġjub ilee","Ġwond ers","Ġassyri a","4 0","b d","b les","f er","f lo","g ed","i er","k ron","p a","t ile","u es","Ġ >","Ġ esh","Ġt ir","Ġf ill","Ġc ou","Ġg az","at ype","en cy","Ġp i","Ġp at","Ġp ort","Ġp ity","es ses","Ġd awn","Ġn ative","as cus","Ġe ff","Ġe ighth","Ġe kron","Ġma in","Ġwe ek","Ġall ows","Ġre view","Ġan ak","ur ther","od y","Ġli ve","Ġde pe","Ġab el","Ġar ts","Ġser ies","Ġsp ort","ves sel","ate gy","Ġegypt ian","Ġad v","Ġsu ggest","Ġstr ategy","Ġold er","Ġyoung est","Ġah ijah","Ġsm oke","Ġind ices","Ġmer ari","Ġres ul","Ġsk ill","Ġsmall er","Ġstore d","Ġvar i","Ġsis era","Ġtra d","Ġdam ascus","Ġsound ed","Ġeffe cts","Ġjudg ing","Ġob jects","Ġinv est","Ġprom ot","Ġsur ve","Ġlow lands","Ġspecif ic","Ġche ck","Ġjoin ing","Ġtest ing","Ġcall s","Ġeight y","Ġinstru ment","Ġguid ing","Ġexam ple","Ġexam ples","Ġsyn c","Ġorgan ic","Ġcho ose","Ġunderstand ing","Ġbat hed","Ġtas te","Ġhandl er","Ġornam ents","Ġlau n","Ġpip eline","Ġshar p","Ġenj oy","Ġfocu sed","Ġavail able","Ġzeru iah","Ġdepe nd","c s","e nd","g er","g ar","h as","h ud","o ch","â Ĩ","Ġt bd","Ġa head","Ġb one","Ġb mf","Ġf it","Ġf ound","Ġf urther","or ting","Ġc al","Ġc red","it ive","Ġp ol","Ġp res","Ġp ict","as ing","an n","id ed","Ġe g","Ġma les","ac y","ed s","Ġi ce","ith op","Ġse c","al ing","st ate","Ġme ph","Ġor ig","Ġde ce","ct or","Ġup load","Ġman oah","ter nal","Ġoff er","Ġpl acing","Ġsh ort","Ġaf f","Ġlo g","ction s","Ġho bb","ine has","Ġcan v","Ġph inehas","our ces","Ġsin ce","Ġed it","if ied","Ġsome one","ind ex","Ġ1 5","Ġgener al","Ġyoung er","Ġah ithop","Ġhel ps","Ġbr ing","Ġeph ah","itor s","Ġpower ful","Ġpray ers","Ġgu est","Ġexper ien","Ġinst ant","Ġperson al","go at","Ġsl op","Ġsl ow","Ġfeat ure","Ġposs ib","Ġbutt ons","Ġshut ting","Ġgrou ps","Ġpain ting","Ġeas ily","Ġjeho ash","Ġrend erer","Ġpath s","Ġstop ped","Ġstate ment","Ġdocu ments","Ġnah or","Ġseem ed","Ġbuff er","Ġbuff ers","Ġviol ent","Ġmach ir","Ġfre ely","Ġhebre ws","Ġunderta king","Ġcrit ical","cher s","Ġbon es","Ġfer tile","Ġtwist ed","flo or","Ġtir zah","âĨ Ĵ","Ġahithop hel","' re","d at","d ress","f ully","g ment","h ai","j ust","n i","n ight","n othing","u nt","v al","y nam","Ġw ings","in ed","in adab","Ġs arai","Ġh it","Ġb ent","Ġto wer","Ġm ir","is ed","Ġc ain","Ġc up","Ġg er","at ely","at ives","en gth","it ed","Ġd ynam","Ġin sp","an sp","an ced","ut ion","se ven","Ġgo she","Ġre ve","st art","Ġare a","Ġout puts","Ġam m","Ġab i","Ġshe ba","Ġpro g","Ġsp ring","Ġad vant","Ġwork s","Ġunder go","Ġ1 00","Ġbas in","Ġend ing","Ġpo ints","Ġtru st","Ġfo ol","Ġcountry men","Ġrel ated","Ġlove d","Ġdis co","Ġdesign er","ont ro","Ġflow ers","ney s","Ġfru its","Ġprison er","Ġcam era","Ġprov ides","Ġopt im","Ġzi ba","Ġfin ally","Ġdel ight","Ġconc ept","Ġrequire s","Ġaut om","ap ter","ci ated","mar ket","Ġstep s","Ġbru sh","Ġcontin ue","Ġopin ion","Ġexch ange","Ġsaf ely","Ġkid neys","Ġorig in","Ġgoshe n","b osheth","c ah","g en","h or","h ah","o gy","r ic","s k","t v","u se","µ f","Â µf","Ġ âĨĴ","Ġa ro","Ġw ra","Ġs ud","Ġh ated","Ġb er","Ġb es","Ġf ast","Ġm l","is m","Ġc ups","Ġc ush","Ġg ain","Ġl l","Ġd ed","Ġd ura","Ġn in","Ġn on","om me","an ah","Ġth um","Ġsa ved","am ing","ke ts","ro om","th am","th ree","th ough","al iah","Ġan al","Ġcom b","Ġst yle","Ġman ag","Ġher self","Ġam aziah","Ġar row","Ġne are","Ġser vice","av es","os en","Ġsh un","Ġour s","Ġwor th","Ġal though","Ġcon text","Ġfl o","Ġfl ag","te nd","Ġsp ice","Ġle ast","Ġle aven","ub baal","Ġca ke","if ic","Ġr immon","ot ed","Ġaltar s","Ġdes c","Ġdes iring","esh ur","Ġcur sing","Ġthan ks","Ġneed le","Ġend s","Ġjer ubbaal","Ġah im","Ġah az","ked in","Ġang les","Ġbuild er","Ġspe ak","Ġmod ern","Ġsword s","Ġdesign ed","Ġstart ed","Ġass ure","Ġrec omme","Ġtal ents","ib osheth","Ġtr ansp","Ġsheke l","Ġele ct","ced ural","Ġlin kedin","Ġsha red","Ġcam pa","Ġcol oured","Ġstream ing","Ġach ieve","Ġsur face","Ġve ctor","Ġhum ble","read y","Ġplant s","Ġram oth","Ġanim ations","Ġlibr aries","Ġinclud es","Ġvalu es","Ġperfum es","Ġplatform s","Ġzer ah","Ġstruct ure","Ġjebus ites","Ġjebus ite","Ġhapp y","Ġtrain ing","Ġcollabor ation","ho le","Ġmich al","Ġarch ite","Ġapplic ation","Ġstar s","gard ens","Ġfount ain","Ġtechnol ogy","Ġmeph ibosheth","Ġfool ish","Ġsud den","Ġrecomme nd","Ġcampa ign","\" :","3 0","a pt","c oth","c ket","e ad","f r","f ram","h az","i am","l as","n esses","o id","t ies","w ik","Ġ &","Ġo m","Ġw in","Ġw el","Ġh ire","Ġb ur","Ġb ara","ou b","Ġc ow","at ic","Ġy es","Ġp c","ll er","Ġe ternal","Ġsa d","ent ially","Ġma ac","Ġma han","ver t","ra y","Ġse ll","Ġre ce","Ġas so","Ġta il","od ed","Ġst ems","Ġch in","Ġch osen","op t","ly ing","Ġmo on","Ġde m","Ġde w","Ġlet ter","ep ts","Ġab ig","Ġke ilah","Ġpro te","Ġpro ble","ess ings","Ġtw ists","Ġsee king","Ġour selves","Ġwor se","Ġbl essings","Ġk ish","Ġk ne","ist ic","Ġcan not","Ġbro w","ag on","Ġpart ic","Ġte ll","we ight","Ġstr ateg","Ġcreat ed","ne h","Ġ1 8","Ġbas ins","Ġcur ses","Ġtowns men","Ġbre ak","Ġoath s","Ġper fect","Ġfour teen","Ġnam ing","Ġhard ware","Ġheaven s","Ġlight weight","Ġclear ly","Ġcons um","Ġmind s","Ġtr uth","Ġdif f","Ġart ists","Ġart icle","Ġ5 0","Ġstream s","Ġrequest ing","Ġforg ive","Ġdeep er","Ġconnection s","Ġhum an","Ġbag s","Ġeffect ive","Ġfeel ing","Ġter rain","Ġent er","Ġhaz or","fl u","iss ion","Ġhitt ites","Ġdro pped","Ġguid ed","Ġdev ice","Ġconnect ing","cut ting","Ġconf ig","Ġbehavi or","Ġbehavi ors","Ġsuc coth","col or","whe re","Ġsna ke","Ġasse ts","Ġaw a","Ġcent er","Ġtyp ical","Ġhamm ered","Ġhore b","Ġnaam an","Ġdece it","Ġrenderer state","Ġneedle work","Ġbara k","Ġabig ail",", )","c ast","p ers","s ix","u ah","u ph","Ġs iz","Ġs ource","Ġh ur","Ġf art","Ġto ps","Ġm ill","Ġm ed","Ġc ra","Ġg a","Ġg om","Ġg pu","Ġg ithub","it ely","Ġd ue","Ġd oub","ll ig","ar am","Ġn adab","Ġhe at","Ġhe th","as a","Ġth orn","le vel","ord in","ent ed","Ġlord s","Ġwe ar","th ites","Ġre ally","Ġre ference","Ġnot ice","ur ation","Ġst ation","Ġch ains","Ġli b","Ġde pth","au lt","Ġat tem","Ġat las","Ġam ount","Ġam asa","Ġshe lah","ab ly","Ġar rows","Ġus age","Ġear n","Ġtw ice","os ing","Ġsh op","Ġsh aring","Ġback s","âĢ ¦","Ġph ys","be autiful","un neh","Ġle vel","Ġkeep er","Ġro of","Ġz o","Ġpart ners","pl oy","Ġcl ose","Ġqu ant","Ġr uth","Ġcreat es","ne ws","Ġje w","Ġend less","Ġfear ing","Ġah imelech","res sed","Ġpos itions","Ġadd ed","Ġ\" __","Ġsix teen","Ġind ust","Ġfif teen","Ġdis cus","Ġprodu ction","Ġcanaan ite","Ġeli ab","Ġact ual","Ġfunction ality","og s","Ġdise ased","Ġform s","Ġhill s","Ġcons cious","Ġres ist","work ers","Ġwa ving","Ġamor ite","Ġpass ion","Ġdist ance","Ġgri p","Ġide as","Ġob ject","Ġloc ust","Ġdream s","Ġsub m","Ġsex ual","Ġlow land","Ġem bed","Ġaud io","Ġfin ish","Ġplant ed","Ġjeph unneh","Ġhar an","Ġdeb ir","Ġwave d","bl og","Ġav oid","Ġfact ors","Ġdefin itely","Ġinitial ize","Ġstick s","Ġpa id","Ġdeterm ine","Ġhan nah","Ġworshi pping","Ġlink s","Ġret urn","Ġresul ts","Ġeg lon","Ġhobb y","Ġcanv as","Ġdynam ic","Ġwra p","Ġdura ble","Ġmanag er","Ġkne es","Ġfart hest","Ġattem pt","2 2","6 4","a ff","a az","c ome","f it","g n","h ips","i ving","i ate","m od","m ant","v ative","w ith","w ise","Ã Ĺ","Ġ x","Ġa im","Ġo s","Ġo ph","Ġo hol","Ġs ite","re z","ou ra","ou nder","Ġto ng","Ġto ward","Ġto night","er ate","Ġc ore","Ġc our","Ġc ase","Ġg eshur","at ure","Ġl ach","it al","Ġd i","Ġin most","ar iah","Ġn er","Ġhe z","om ach","as te","an el","Ġth ick","se t","Ġha gar","Ġno ise","Ġma ker","Ġu ses","et y","Ġj ok","Ġj oh","Ġre uel","Ġcom ment","Ġst omach","Ġch apter","Ġde eds","Ġpe kah","ct ure","Ġhad ade","de ep","ter m","Ġv ines","Ġshe l","Ġar gu","Ġser ver","Ġhand le","Ġco ordin","Ġwat ching","ag raph","Ġbo x","Ġad am","Ġad just","Ġz el","Ġlike ly","Ġev ol","ile d","Ġsu ite","pe cts","Ġed ges","ple ment","Ġru shing","Ġim plement","if f","ot hed","Ġgen re","Ġ1 6","Ġgener ating","Ġacc ept","Ġeph ron","Ġadd ing","Ġspe ed","Ġgr an","cl ass","Ġhelp ing","ma ker","Ġlight ing","Ġple ase","Ġpre view","Ġhon or","Ġhon oured","Ġcons ist","Ġgu i","ib ility","Ġproper ties","Ġtrou bles","Ġincre asing","lo oking","Ġjourney ing","Ġlimit ed","com ing","Ġtra ve","Ġsound ing","Ġdef ine","Ġdef ault","Ġwit nesses","Ġopt ion","Ġdirect ly","Ġprom o","Ġmidian ites","Ġpar agraph","Ġham or","pro du","Ġjeho ahaz","Ġintegr ated","Ġter ah","Ġweb so","Ġstru cts","Ġtechn ical","Ġlandsca pes","Ġexp ort","bl ing","Ġge haz","Ġasa hel","Ġaut o","Ġcustom er","Ġviol ently","Ġsuc cess","Ġtrans form","Ġhebre w","Ġprep ared","Ġdrain ed","Ġpubl ish","wr iting","Ġhiv ite","Ġlu ke","Ġequ al","Ġintro du","Ġcorre ct","Ġexist ing","Ġsho es","Ġperizz ites","Ġith amar","Ġspo on","Ġeff ic","Ġadv anced","Ġexperien ces","Ġmir iam","Ġadvant age","Ġaro er","Ġahim aaz","Ġom ri","Ġwel come","Ġmahan aim","Ġasso ciated","Ġdiff ic","mant ic","Ġlach ish","Ġjoh n","Ġhadade zer","Ġgehaz i","1 5","9 9","d od","f our","f irst","g ing","h aps","i ents","k l","k now","k Ïī","n ine","o c","s pe","t u","t op","u le","u ctive","Ġ rough","Ġt re","Ġs at","Ġf ra","or rah","er gy","Ġc ircle","Ġc ries","Ġl ength","it er","it her","Ġp ack","Ġp ix","Ġp mf","Ġp add","Ġp alm","Ġd ig","ar m","ar ma","om ing","as ting","Ġe b","le y","ic y","Ġj ob","Ġse as","Ġse lling","Ġse mantic","Ġfr ogs","ro p","th is","st re","ad es","Ġch oice","Ġli ver","Ġisrael ites","Ġisrael ite","Ġwhe ther","Ġpe le","Ġout er","ren cy","Ġlet ting","Ġfi g","Ġoff ice","ear im","Ġv s","red ict","ul se","Ġke d","Ġpro cedural","Ġevery day","Ġlo ves","Ġal ready","Ġho ld","Ġcon tain","Ġk arma","Ġco oking","Ġbro ws","ie zer","un na","Ġdown load","Ġsin ning","Ġsin ners","Ġbo t","ort un","Ġad vert","Ġz alm","pl aces","Ġpr ic","Ġqu ad","Ġapp e","Ġapp ear","ot s","Ġgener ated","Ġjo tham","Ġbet a","Ġunc ontro","ale l","Ġhel per","Ġknow ing","ick s","Ġcomp et","Ġmat ch","htt p","Ġrel ative","Ġspe nd","Ġnight s","Ġtim nah","Ġsix th","Ġind ex","Ġmoab ites","Ġres ources","Ġinte llig","Ġsk ir","Ġele ments","Ġinst ead","Ġhus hai","li ed","Ġtou ch","Ġart ist","Ġinter net","Ġinter face","Ġreg ard","Ġdesire s","Ġcontro ls","Ġpar am","Ġzi ph","Ġzi kl","Ġzeb ah","Ġregular ly","Ġfeel ings","Ġweb s","Ġmil cah","Ġexp and","Ġrequire ments","Ġopp ortun","Ġge zer","Ġpriv acy","Ġbel ieve","Ġappro val","Ġaccess ible","Ġash dod","Ġtrain ed","Ġpa per","Ġref ine","Ġtem ple","Ġenc oura","Ġapplic ations","Ġhiv ites","Ġbar ley","Ġlar ge","Ġcart s","Ġenv iron","Ġ__ __","Ġpract ice","Ġkeyword s","Ġrepresent atives","Ġgaz a","Ġpi ge","Ġskill s","Ġtrad ition","dat atype","Ġhit l","Ġneare st","flu enc","Ġgom orrah","Ġwear iness","Ġjew els","Ġcour se","Ġgran ular","Ġpadd an","Ġzalm unna","Ġzikl ag","1 9","5 0","b ody","h i","h am","i os","j ud","j earim","m im","p re","t es","t est","u c","u g","y ond","z e","Ġ id","Ġt ired","he art","in cl","in oam","Ġs um","Ġs ens","Ġh tt","Ġb il","Ġm am","Ġm el","Ġc y","Ġc ount","Ġg ent","Ġl ic","Ġl ame","it le","it ch","Ġy um","Ġp in","Ġp ages","Ġd agon","Ġin f","Ġin put","Ġin puts","Ġn ails","Ġbe yond","as ter","se e","Ġgo als","Ġma g","Ġma p","Ġu v","ir ation","Ġj a","Ġare as","Ġdo ves","Ġdo gs","Ġme ch","Ġst at"]}}