{"version":"1.0","truncation":null,"padding":null,"added_tokens":[{"id":0,"content":"<PAD>","single_word":false,"lstrip":false,"rstrip":false,"normalized":false,"special":true},{"id":1,"content":"<BOS>","single_word":false,"lstrip":false,"rstrip":false,"normalized":false,"special":true},{"id":2,"content":"<EOS>","single_word":false,"lstrip":false,"rstrip":false,"normalized":false,"special":true},{"id":3,"content":"<UNK>","single_word":false,"lstrip":false,"rstrip":false,"normalized":false,"special":true},{"id":4,"content":"{","single_word":false,"lstrip":false,"rstrip":false,"normalized":false,"special":true},{"id":5,"content":"}","single_word":false,"lstrip":false,"rstrip":false,"normalized":false,"special":true},{"id":6,"content":"[","single_word":false,"lstrip":false,"rstrip":false,"normalized":false,"special":true},{"id":7,"content":"]","single_word":false,"lstrip":false,"rstrip":false,"normalized":false,"special":true},{"id":8,"content":":","single_word":false,"lstrip":false,"rstrip":false,"normalized":false,"special":true},{"id":9,"content":",","single_word":false,"lstrip":false,"rstrip":false,"normalized":false,"special":true},{"id":10,"content":"\"","single_word":false,"lstrip":false,"rstrip":false,"normalized":false,"special":true},{"id":11,"content":"\n","single_word":false,"lstrip":false,"rstrip":false,"normalized":false,"special":true}],"normalizer":{"type":"Sequence","normalizers":[{"type":"NFC"},{"type":"Lowercase"}]},"pre_tokenizer":{"type":"ByteLevel","add_prefix_space":true,"trim_offsets":true,"use_regex":true},"post_processor":{"type":"TemplateProcessing","single":[{"SpecialToken":{"id":"<BOS>","type_id":0}},{"Sequence":{"id":"A","type_id":0}},{"SpecialToken":{"id":"<EOS>","type_id":0}}],"pair":[{"SpecialToken":{"id":"<BOS>","type_id":0}},{"Sequence":{"id":"A","type_id":0}},{"SpecialToken":{"id":"<EOS>","type_id":0}},{"Sequence":{"id":"B","type_id":1}},{"SpecialToken":{"id":"<EOS>","type_id":1}}],"special_tokens":{"<BOS>":{"id":"<BOS>","ids":[1],"tokens":["<BOS>"]},"<EOS>":{"id":"<EOS>","ids":[2],"tokens":["<EOS>"]}}},"decoder":{"type":"ByteLevel","add_prefix_space":true,"trim_offsets":true,"use_regex":true},"model":{"type":"BPE","dropout":null,"unk_token":null,"continuing_subword_prefix":null,"end_of_word_suffix":null,"fuse_unk":false,"byte_fallback":false,"ignore_merges":false,"vocab":{"<PAD>":0,"<BOS>":1,"<EOS>":2,"<UNK>":3,"{":4,"}":5,"[":6,"]":7,":":8,",":9,"\"":10,"\n":11,"!":12,"#":13,"$":14,"%":15,"&":16,"'":17,"(":18,")":19,"*":20,"+":21,"-":22,".":23,"/":24,"0":25,"1":26,"2":27,"3":28,"4":29,"5":30,"6":31,"7":32,"8":33,"9":34,";":35,"<":36,"=":37,">":38,"?":39,"@":40,"\\":41,"^":42,"_":43,"`":44,"a":45,"b":46,"c":47,"d":48,"e":49,"f":50,"g":51,"h":52,"i":53,"j":54,"k":55,"l":56,"m":57,"n":58,"o":59,"p":60,"q":61,"r":62,"s":63,"t":64,"u":65,"v":66,"w":67,"x":68,"y":69,"z":70,"|":71,"~":72,"¡":73,"¢":74,"£":75,"¤":76,"¥":77,"¦":78,"§":79,"¨":80,"©":81,"ª":82,"«":83,"¬":84,"®":85,"¯":86,"°":87,"±":88,"²":89,"³":90,"´":91,"µ":92,"¶":93,"·":94,"¸":95,"¹":96,"º":97,"»":98,"¼":99,"½":100,"¾":101,"¿":102,"Â":103,"Ã":104,"Ä":105,"Å":106,"Æ":107,"È":108,"É":109,"Ì":110,"Î":111,"Ï":112,"Ð":113,"Ñ":114,"×":115,"Ø":116,"Ù":117,"Ú":118,"Û":119,"à":120,"á":121,"â":122,"ã":123,"ä":124,"å":125,"æ":126,"ç":127,"è":128,"é":129,"ê":130,"ë":131,"ì":132,"í":133,"ï":134,"ð":135,"ĉ":136,"Ċ":137,"ċ":138,"Ġ":139,"Ģ":140,"ģ":141,"Ĥ":142,"ĥ":143,"Ħ":144,"ħ":145,"Ĩ":146,"ĩ":147,"Ī":148,"ī":149,"Ĭ":150,"ĭ":151,"Į":152,"į":153,"İ":154,"ı":155,"Ĳ":156,"ĳ":157,"Ĵ":158,"ĵ":159,"Ķ":160,"ķ":161,"ĸ":162,"Ĺ":163,"ĺ":164,"Ļ":165,"ļ":166,"Ľ":167,"ľ":168,"Ŀ":169,"ŀ":170,"Ł":171,"ł":172,"Ń":173,"Ġt":174,"Ġa":175,"Ġth":176,"in":177,"Ġs":178,"at":179,"Ġthe":180,"er":181,"Ġc":182,"or":183,"es":184,"Ġp":185,"an":186,"Ġto":187,"Ġf":188,"Ġw":189,"on":190,"ar":191,"nd":192,"ing":193,"Ġb":194,"it":195,"Ġm":196,"Ġh":197,"Ġand":198,"re":199,"om":200,"Ġo":201,"en":202,"al":203,"Ġthat":204,"is":205,"el":206,"Ġin":207,"us":208,"Ġd":209,"le":210,"ou":211,"Ġst":212,"Ġfor":213,"ed":214,"art":215,"up":216,"ers":217,"ic":218,"Ġof":219,"il":220,"ts":221,"âĢ":222,"Ġcom":223,"ro":224,"ir":225,"Ġstart":226,"Ġstartup":227,"as":228,"Ġe":229,"Ġl":230,"Ġcomp":231,"et":232,"Ġtheir":233,"Ġg":234,"elp":235,"Ġhelp":236,"Ġcompan":237,"Ġy":238,"ac":239,"ion":240,"Ġis":241,"ith":242,"Ġon":243,"Ġwith":244,"Ġbu":245,"ent":246,"Ġn":247,"Ġpl":248,"Ġit":249,"Ġpro":250,"Ġyou":251,"âĢĻ":252,"id":253,"for":254,"Ġre":255,"ess":256,"ay":257,"op":258,"ow":259,"form":260,"Ġus":261,"Ġwh":262,"ol":263,"ag":264,"ke":265,"ec":266,"Ġal":267,"ve":268,"atform":269,"Ġplatform":270,"Ġcompany":271,"ig":272,"Ġbuil":273,"ies":274,"ur":275,"th":276,"im":277,"Ġan":278,"Ġbuild":279,"pp":280,"Ġpe":281,"Ġhelps":282,"ly":283,"Ġr":284,"oc":285,"ople":286,"ut":287,"Ġpeople":288,"Ġcon":289,"ate":290,"oo":291,"ch":292,"am":293,"Ġman":294,"age":295,"Ġma":296,"Ġapp":297,"Ġtr":298,"Ġv":299,"st":300,"ust":301,"ce":302,"Ġall":303,"est":304,"ation":305,"ork":306,"are":307,"Ġbe":308,"ot":309,"Ġfr":310,"vic":311,"ver":312,"Ġcre":313,"ter":314,"Ġcompanies":315,"Ġle":316,"ide":317,"Ġcan":318,"Ġthey":319,"Ġne":320,"Ġwan":321,"Ġi":322,"iness":323,"Ġbus":324,"uc":325,"Ġbusiness":326,"ad":327,"pl":328,"Ġbuilding":329,"un":330,"ell":331,"Ġser":332,"ents":333,"Ġsh":334,"ine":335,"Ġmanage":336,"ill":337,"Ġthem":338,"Ġfin":339,"ack":340,"Ġor":341,"Ġthis":342,"Ġli":343,"ab":344,"Ġde":345,"and":346,"Ġtool":347,"Ġallow":348,"Ġch":349,"ore":350,"ustom":351,"Ġcustom":352,"Ġservic":353,"ĠâĢ":354,"Ġby":355,"os":356,"Ġwork":357,"one":358,"Ġyour":359,"Ġfrom":360,"ial":361,"Ġac":362,"Ġas":363,"Ġso":364,"em":365,"duc":366,"Ġmo":367,"âĢĿ":368,"ĠâĢľ":369,"Ġare":370,"nt":371,"Ġproduc":372,"ook":373,"Ġha":374,"Ġwants":375,"Ġmar":376,"Ġmake":377,"Ġse":378,"Ġwe":379,"ment":380,"Ġhe":381,"Ġem":382,"ace":383,"iv":384,"Ġdat":385,"Ġusers":386,"Ġsm":387,"Ġex":388,"Ġhas":389,"um":390,"ket":391,"00":392,"Ġmore":393,"Ġbusinesses":394,"iz":395,"all":396,"Ġj":397,"Ġmarket":398,"ect":399,"ity":400,"igh":401,"ul":402,"ft":403,"Ġget":404,"Ġfind":405,"Ġdata":406,"Ġpay":407,"Ġallows":408,"ive":409,"Ġlike":410,"ther":411,"ist":412,"Ġprov":413,"Ġway":414,"if":415,"Ġeas":416,"Ġcl":417,"ware":418,"oy":419,"Ġhave":420,"Ġsell":421,"line":422,"ud":423,"Ġnew":424,"ard":425,"ail":426,"ile":427,"cess":428,"Ġtrack":429,"Ġme":430,"Ġservice":431,"Ġph":432,"vel":433,"ased":434,"Ġwho":435,"ound":436,"Ġint":437,"ors":438,"ital":439,"Ġcreate":440,"ain":441,"Ġdo":442,"ip":443,"ans":444,"Ġsoft":445,"ploy":446,"ome":447,"Ġgo":448,"Ġsoftware":449,"ach":450,"Ġsp":451,"ia":452,"Ġonline":453,"Ġother":454,"out":455,"ld":456,"ure":457,"Ġpr":458,"Ġoff":459,"Ġcont":460,"end":461,"qu":462,"Ġcustomers":463,"Ġemploy":464,"Ġk":465,"ich":466,"und":467,"ign":468,"Ġte":469,"ant":470,"Ġbr":471,"ere":472,"act":473,"per":474,"wn":475,"Ġat":476,"Ġsmall":477,"Ġen":478,"Ġout":479,"Ġprovid":480,"ance":481,"Ġ$":482,"Ġbet":483,"ood":484,"Ġta":485,"Ġad":486,"Ġwhat":487,"ions":488,"Ġup":489,"Ġconn":490,"Ġwhich":491,"Ġinter":492,"ime":493,"igital":494,"Ġsa":495,"Ġab":496,"Ġide":497,"ight":498,"ical":499,"Ġcur":500,"Ġinv":501,"able":502,"Ġown":503,"bs":504,"Ġmed":505,"Ġsay":506,"Ġproduct":507,"ations":508,"Ġwill":509,"Ġbut":510,"Ġuse":511,"anc":512,"Ġdigital":513,"bile":514,"ire":515,"Ġemploye":516,"alth":517,"ge":518,"king":519,"Ġfe":520,"Ġmobile":521,"Ġidea":522,"erson":523,"Ġsy":524,"ocial":525,"ual":526,"ings":527,"ort":528,"Ġcurre":529,"gr":530,"our":531,"rou":532,"ff":533,"Ġind":534,"ite":535,"Ġhealth":536,"Ġco":537,"Ġbuy":538,"gh":539,"Ġrec":540,"ier":541,"Ġar":542,"velop":543,"Ġreal":544,"stem":545,"'s":546,"Ġsocial":547,"Ġinc":548,"Ġdevelop":549,"ry":550,"Ġdes":551,"Ġproducts":552,"Ġvide":553,"ocus":554,"Ġcurrent":555,"Ġsystem":556,"Ġaim":557,"ments":558,"Ġnot":559,"ord":560,"pt":561,"Ġlets":562,"Ġhow":563,"Ġaut":564,"kes":565,"Ġperson":566,"Ġlook":567,"ks":568,"Ġmon":569,"Ġprocess":570,"Ġcomm":571,"very":572,"Ġfocus":573,"Ġservices":574,"arn":575,"ence":576,"dit":577,"based":578,"Ġwas":579,"ech":580,"work":581,"Ġinto":582,"..":583,"row":584,"Ġcurrently":585,"ep":586,"oney":587,"Ġemployees":588,"ub":589,"Ġone":590,"Ġthen":591,"ous":592,"Ġcol":593,"Ġeasier":594,"imp":595,"Ġtime":596,"ens":597,"Ġhome":598,"Ġautom":599,"Ġmoney":600,"Ġacc":601,"ates":602,"ame":603,"Ġover":604,"Ġwant":605,"Ġprovides":606,"Ġteam":607,"Ġneed":608,"Ġloc":609,"ount":610,"Ġconnect":611,"Ġsc":612,"Ġret":613,"Ġshare":614,"og":615,"Ġfound":616,"Ġdesign":617,"Ġwhere":618,"Ġits":619,"Ġ2":620,"illion":621,"Ġla":622,"ib":623,"Ġworking":624,"Ġbetter":625,"Ġabout":626,"Ġnet":627,"place":628,"ap":629,"Ġaims":630,"eli":631,"Ġlearn":632,"rough":633,"Ġsal":634,"ects":635,"Ġusing":636,"Ġjo":637,"Ġthrough":638,"Ġev":639,"Ġcar":640,"Ġcredit":641,"Ġfre":642,"Ġqu":643,"Ġai":644,"fer":645,"lud":646,"ating":647,"ct":648,"Ġno":649,"aging":650,"Ġwor":651,"Ġcons":652,"Ġinclud":653,"Ġam":654,"Ġ1":655,"Ġnetwork":656,"Ġpre":657,"so":658,"ants":659,"Ġtech":660,"ients":661,"000":662,"ase":663,"read":664,"Ġlooking":665,"Ġag":666,"Ġmarketing":667,"ting":668,"ient":669,"Ġrest":670,"Ġsu":671,"Ġcustomer":672,"Ġvideo":673,"Ġins":674,"Ġcommun":675,"Ġres":676,"Ġfinanc":677,"enc":678,"Ġinvest":679,"Ġbook":680,"Ġpart":681,"Ġun":682,"ould":683,"Ġcard":684,"ice":685,"Ġcontent":686,"Ġany":687,"Ġmakes":688,"ated":689,"Ġexp":690,"Ġthan":691,"Ġhelping":692,"Ġalso":693,"ize":694,"ie":695,"ands":696,"Ġpersonal":697,"Ġdon":698,"Ġdoc":699,"Ġsays":700,"Ġbest":701,"ized":702,"Ġsup":703,"Ġuses":704,"ving":705,"her":706,"ional":707,"ast":708,"Ġdeli":709,"now":710,"Ġro":711,"Ġmillion":712,"Ġye":713,"Ġdr":714,"Ġused":715,"aur":716,"Ġrestaur":717,"ready":718,"der":719,"Ġretail":720,"Ġalready":721,"Ġworld":722,"Ġprof":723,"Ġbased":724,"Ġtake":725,"Ġweb":726,"Ġmedia":727,"Ġfund":728,"Ġsol":729,"Ġfood":730,"Ġsales":731,"Ġlo":732,"se":733,"Ġmarketplace":734,"ower":735,"Ġimp":736,"ory":737,"Ġright":738,"ise":739,"unch":740,"Ġsmart":741,"Ġwhen":742,"int":743,"Ġconsum":744,"get":745,"Ġper":746,"Ġmy":747,"Ġsee":748,"Ġwebs":749,"Ġallowing":750,"Ġsec":751,"Ġke":752,"Ġent":753,"Ġaccess":754,"bo":755,"Ġeff":756,"Ġpat":757,"Ġfir":758,"ick":759,"de":760,"Ġstud":761,"Ġsch":762,"Ġdevic":763,"Ġphone":764,"Ġtrans":765,"Ġincluding":766,"Ġbl":767,"Ġban":768,"xt":769,"Ġeasy":770,"Ġtools":771,"Ġpo":772,"Ġinst":773,"Ġknow":774,"gan":775,"ities":776,"Ġapps":777,"Ġdec":778,"ind":779,"Ġbuilt":780,"Ġra":781,"Ġund":782,"Ġdis":783,"lic":784,"Ġsend":785,"Ġexper":786,"Ġwithout":787,"ash":788,"Ġlaunch":789,"Ġ20":790,"Ġstartups":791,"Ġorgan":792,"ose":793,"Ġjust":794,"ages":795,"Ġoffer":796,"Ġthings":797,"Ġmonth":798,"Ġwell":799,"Ġeng":800,"ys":801,"iend":802,"Ġinsur":803,"Ġtra":804,"Ġpa":805,"Ġmanagement":806,"Ġlocal":807,"Ġmess":808,"co":809,"Ġass":810,"Ġprogr":811,"pr":812,"Ġlearning":813,"cr":814,"omm":815,"its":816,"arch":817,"Ġdif":818,"ue":819,"Ġfinancial":820,"Ġsupp":821,"les":822,"Ġgood":823,"ific":824,"ber":825,"ily":826,"Ġevery":827,"Ġtechn":828,"Ġmach":829,"Ġinsurance":830,"ult":831,"Ġindust":832,"Ġchat":833,"Ġu":834,"Ġ3":835,"av":836,"Ġpayments":837,"Ġbo":838,"Ġlet":839,"Ġbeen":840,"ics":841,"ience":842,"olog":843,"Ġbrands":844,"tion":845,"Ġshar":846,"Ġart":847,"Ġdoct":848,"Ġrev":849,"book":850,"Ġshop":851,"lo":852,"Ġoffers":853,"Ġemail":854,"Ġplan":855,"pe":856,"Ġif":857,"led":858,"Ġmachine":859,"Ġdiffer":860,"Ġset":861,"Ġkeep":862,"ph":863,"Ġinform":864,"Ġfirst":865,"Ġanal":866,"Ġcare":867,"Ġrestaurants":868,"Ġretailers":869,"Ġmanaging":870,"tual":871,"ock":872,"ren":873,"Ġtw":874,"Ġfounders":875,"Ġ(":876,"ong":877,"Ġvis":878,"ink":879,"Ġtechnolog":880,"Ġrem":881,"atch":882,"Ġconnects":883,"ah":884,"Ġintern":885,"ss":886,"Ġtravel":887,"Ġorder":888,"Ġback":889,"Ġfriend":890,"ang":891,"Ġthere":892,"Ġoh":893,"Ġgiv":894,"'t":895,"Ġprovide":896,"...":897,"Ġdifferent":898,"Ġel":899,"abor":900,"Ġface":901,"als":902,"ish":903,"Ġindustry":904,"ll":905,"Ġrent":906,"Ġcam":907,"ify":908,"ists":909,"Ġmedical":910,"Ġlist":911,"Ġconsumers":912,"Ġcal":913,"Ġsing":914,"Ġclients":915,"Ġinformation":916,"Ġstor":917,"Ġproj":918,"Ġteams":919,"Ġcolle":920,"urn":921,"Ġtechnology":922,"Ġdevelopers":923,"oun":924,"Ġprogram":925,"pa":926,"we":927,"Ġmaking":928,"iew":929,"Ġdelivery":930,"Ġfunding":931,"ites":932,"Ġrais":933,"Ġmod":934,"oud":935,"Ġgrow":936,"own":937,"Ġgive":938,"ely":939,"Ġaccount":940,"Ġcreating":941,"Ġcomb":942,"Âł":943,"Ġcontr":944,"Ġanaly":945,"Ġfree":946,"Ġeffic":947,"Ġ201":948,"Ġmost":949,"Ġhis":950,"Ġav":951,"Ġphot":952,"Ġyear":953,"Ġplace":954,"Ġselling":955,"az":956,"Ġplans":957,"Ġfocused":958,"Ġap":959,"Ġrun":960,"Ġjob":961,"Ġstudents":962,"ary":963,"Ġeach":964,"Ġcoll":965,"Ġbring":966,"Ġassist":967,"Ġsingle":968,"ative":969,"to":970,"ically":971,"Ġunders":972,"Ġraised":973,"Ġest":974,"Ġstore":975,"Ġvia":976,"Ġtal":977,"els":978,"Ġtas":979,"li":980,"ict":981,"Ġcombin":982,"Ġpur":983,"Ġcloud":984,"Ġpub":985,"Ġfriends":986,"Ġdire":987,"Ġtrad":988,"hip":989,"Ġprofess":990,"Ġaf":991,"ves":992,"Ġsome":993,"Ġfacebook":994,"Ġdirect":995,"Ġimpro":996,"Ġok":997,"Ġunderst":998,"ross":999,"Ġcommunic":1000,"ution":1001,"uch":1002,"Ġfl":1003,"Ġwebsite":1004,"ms":1005,"arge":1006,"Ġunderstand":1007,"thing":1008,"ures":1009,"Ġcollabor":1010,"crip":1011,"ass":1012,"âĢĿ.":1013,"use":1014,"Ġprofessional":1015,"Ġsame":1016,"Ġhous":1017,"Ġsaas":1018,"ible":1019,"ounts":1020,"Ġed":1021,"irtual":1022,"ra":1023,"Ġwould":1024,"Ġaround":1025,"uit":1026,"Ġnow":1027,"ility":1028,"Ġop":1029,"itor":1030,"Ġhigh":1031,"ivers":1032,"Ġhire":1033,"Ġwr":1034,"Ġgu":1035,"Ġthose":1036,"Ġdoctors":1037,"time":1038,"Ġefficient":1039,"Ġpar":1040,"Ġbec":1041,"Ġsim":1042,"ream":1043,"Ġsched":1044,"Ġsharing":1045,"Ġapplic":1046,"Ġnum":1047,"elf":1048,"board":1049,"Ġsearch":1050,"Ġopt":1051,"fe":1052,"reat":1053,"Ġitem":1054,"Ġmeant":1055,"ener":1056,"Ġday":1057,"Ġcall":1058,"Ġvirtual":1059,"Ġdesigned":1060,"Ġgoal":1061,"egr":1062,"Ġworks":1063,"ning":1064,"Ġexperience":1065,"Ġassistant":1066,"Ġfam":1067,"Ġfreel":1068,"Ġcommunity":1069,"ident":1070,"Ġacross":1071,"Ġpayment":1072,"Ġinvent":1073,"Ġpatients":1074,"Ġgrou":1075,"osts":1076,"Ġgroup":1077,"Ġimprove":1078,"ourc":1079,"Ġmus":1080,"Ġvideos":1081,"Ġpurch":1082,"Ġestate":1083,"Ġopen":1084,"Ġintegr":1085,"Ġinvestors":1086,"ari":1087,"Ġspend":1088,"care":1089,"Ġspec":1090,"Ġhaving":1091,"Ġbuilds":1092,"Ġpartn":1093,"Ġdevices":1094,"ator":1095,"ery":1096,"ater":1097,"Ġsubs":1098,"Ġtasks":1099,"fits":1100,"Ġengine":1101,"Ġdecis":1102,"io":1103,"Ġmusic":1104,"Ġrep":1105,"Ġinventory":1106,"Ġoper":1107,"ange":1108,"erce":1109,"Ġexpens":1110,"erg":1111,"Ġenter":1112,"Ġevents":1113,"ble":1114,"Ġorganiz":1115,"ool":1116,"Ġput":1117,"Ġhand":1118,"owered":1119,"Ġdevice":1120,"Ġnumber":1121,"ords":1122,"low":1123,"dr":1124,"ote":1125,"Ġphys":1126,"ween":1127,"Ġact":1128,"Ġbill":1129,"kets":1130,"Ġpaid":1131,"Ġgr":1132,"Ġcount":1133,"ices":1134,"comm":1135,"Ġavail":1136,"Ġsave":1137,"phone":1138,"Ġdown":1139,"Ġuser":1140,"Ġmeet":1141,"ral":1142,"bot":1143,"Ġbank":1144,"fr":1145,"Ġexpand":1146,"Ġbetween":1147,"Ġhim":1148,"iring":1149,"Ġmult":1150,"Ġstream":1151,"Ġair":1152,"Ġmodel":1153,"Ġfeat":1154,"Ġyeah":1155,"Ġtoget":1156,"Ġtogether":1157,"ones":1158,"ty":1159,"ness":1160,"Ġcome":1161,"Ġtext":1162,"Ġcontract":1163,"let":1164,"Ġaccounts":1165,"Ġitems":1166,"Ġmonitor":1167,"istr":1168,"enue":1169,"Ġamaz":1170,"gle":1171,"Ġform":1172,"Ġgener":1173,"Ġemployers":1174,"Ġlord":1175,"Ġhealthcare":1176,"Ġautomat":1177,"Ġdeliver":1178,"Ġident":1179,"Ġche":1180,"Ġperform":1181,"Ġdet":1182,"paign":1183,"Ġcampaign":1184,"Ġsolution":1185,"Ġquick":1186,"Ġavailable":1187,"Ġvisual":1188,"Ġneeds":1189,"Ġvari":1190,"ale":1191,"Ġ5":1192,"Ġtry":1193,"'m":1194,"Ġemployee":1195,"Ġrevenue":1196,"arg":1197,"Ġrecr":1198,"lish":1199,"itch":1200,"ular":1201,"uce":1202,"Ġautomate":1203,"Ġsubscrip":1204,"commerce":1205,"Ġhad":1206,"Ġty":1207,"Ġrecruit":1208,"Ġokay":1209,"ds":1210,"Ġlive":1211,"Ġblock":1212,"ights":1213,"Ġstr":1214,"Ġpred":1215,"vert":1216,"Ġbeing":1217,"Ġamazon":1218,"Ġmay":1219,"Ġcle":1220,"duce":1221,"Ġsaid":1222,"ons":1223,"Ġmuch":1224,"aim":1225,"Ġwhile":1226,"Ġsign":1227,"Ġhouse":1228,"oogle":1229,"Ġworkers":1230,"ather":1231,"Ġdecisions":1232,"Ġeasily":1233,"Ġher":1234,"Ġmade":1235,"ause":1236,"Ġspace":1237,"Ġfit":1238,"chain":1239,"Ġshe":1240,"ak":1241,"Ġrece":1242,"ource":1243,"ellig":1244,"thers":1245,"Ġim":1246,"Ġautomatically":1247,"Ġkind":1248,"bers":1249,"Ġwebsites":1250,"Ġhot":1251,"Ġdid":1252,"Ġbuying":1253,"Ġteach":1254,"Ġsecure":1255,"Ġsimp":1256,"Ġhom":1257,"Ġtwo":1258,"âĢĿ,":1259,"Ġrel":1260,"Ġpres":1261,"ety":1262,"Ġchain":1263,"Ġturn":1264,"Ġtracking":1265,"Ġpriv":1266,"Ġclaim":1267,"Ġonly":1268,"Ġphotos":1269,"Ġmonthly":1270,"Ġcars":1271,"pro":1272,"Ġmessaging":1273,"Ġintellig":1274,"Ġoffering":1275,"Ġseed":1276,"Ġlarge":1277,"powered":1278,"rol":1279,"urs":1280,"Ġnon":1281,"Ġdoes":1282,"Ġjobs":1283,"Ġshopp":1284,"Ġwere":1285,"Ġproviding":1286,"ull":1287,"way":1288,"Ġbig":1289,"Ġgro":1290,"Ġve":1291,"Ġcity":1292,"'re":1293,"Ġgoogle":1294,"Ġinteract":1295,"Ġinternet":1296,"ser":1297,"Ġhard":1298,"Ġnext":1299,"Ġplay":1300,"Ġhiring":1301,"ines":1302,"Ġapi":1303,"arm":1304,"Ġblockchain":1305,"Ġmem":1306,"Ġtrain":1307,"Ġcomput":1308,"Ġsupply":1309,"Ġphysical":1310,"ables":1311,"br":1312,"Ġleg":1313,"Ġdeveloping":1314,"aster":1315,"Ġsl":1316,"Ġcards":1317,"Ġsells":1318,"Ġgoods":1319,"sh":1320,"Ġfew":1321,"Ġcost":1322,"Ġlife":1323,"Ġgoing":1324,"ries":1325,"ene":1326,"ree":1327,"Ġhey":1328,"Ġsimple":1329,"Ġtop":1330,"Ġproble":1331,"Ġtax":1332,"iple":1333,"Ġcampaigns":1334,"Ġdirectly":1335,"Ġcommunicate":1336,"ee":1337,"ough":1338,"Ġothers":1339,"Ġread":1340,"ational":1341,"Ġpredict":1342,"Ġeven":1343,"Ġintelligence":1344,"Ġuk":1345,"urity":1346,"Ġfounded":1347,"Ġgam":1348,"aces":1349,"face":1350,"Ġdistr":1351,"Ġschool":1352,"na":1353,"Ġtrying":1354,"back":1355,"Ġmer":1356,"Ġenterpr":1357,"Ġtest":1358,"Ġwal":1359,"Ġcr":1360,"Ġcrow":1361,"entral":1362,"ost":1363,"ond":1364,"Ġmultiple":1365,"fore":1366,"Ġshow":1367,"Ġprojects":1368,"Ġstores":1369,"Ġbeta":1370,"Ġport":1371,"Ġvers":1372,"ead":1373,"Ġsubscription":1374,"Ġcollect":1375,"Ġbro":1376,"Ġfeed":1377,"Ġatt":1378,"ug":1379,"Ġquickly":1380,"Ġtoo":1381,"ences":1382,"ruc":1383,"arget":1384,"Ġcalled":1385,"Ġsupport":1386,"Ġthink":1387,"Ġcontrol":1388,"itional":1389,"lob":1390,"Ġloans":1391,"Ġgetting":1392,"Ġbefore":1393,"Ġhr":1394,"ert":1395,"Ġinterest":1396,"Ġmanag":1397,"Ġhomes":1398,"Ġgod":1399,"ild":1400,"Ġtarget":1401,"Ġfamily":1402,"uber":1403,"Ġsecurity":1404,"ency":1405,"Ġmin":1406,"Ġlaunched":1407,"tics":1408,"Ġmatch":1409,"Ġpos":1410,"ases":1411,"ilar":1412,"Ġsmartphone":1413,"lobal":1414,"Ġidentify":1415,"Ġ\"":1416,"Ġcollaborate":1417,"Ġanalytics":1418,"Ġcosts":1419,"Ġhere":1420,"Ġprofessionals":1421,"Ġtell":1422,"Ġhum":1423,"tern":1424,"Ġdoing":1425,"Ġtraditional":1426,"vice":1427,"Ġsimilar":1428,"Ġadvert":1429,"Ġcould":1430,"Ġprivate":1431,"ful":1432,"Ġcap":1433,"Ġrestaurant":1434,"Ġadv":1435,"Ġglobal":1436,"Ġowners":1437,"rypt":1438,"ources":1439,"Ġclaims":1440,"vers":1441,"iss":1442,"cept":1443,"ath":1444,"oice":1445,"Ġsuch":1446,"Ġlocation":1447,"Ġcode":1448,"ivid":1449,"con":1450,"Ġgame":1451,"Ġchec":1452,"Ġable":1453,"Ġear":1454,"Ġdash":1455,"Ġchatbot":1456,"Ġlegal":1457,"Ġproject":1458,"Ġpower":1459,"Ġarea":1460,"icro":1461,"Ġgreat":1462,"Ġindia":1463,"ward":1464,"fact":1465,"ix":1466,"Ġsens":1467,"cy":1468,"Ġconnecting":1469,"par":1470,"Ġdevelopment":1471,"iting":1472,"ividual":1473,"Ġdistrib":1474,"Ġpersonalized":1475,"Ġbanks":1476,"Ġversion":1477,"Ġbene":1478,"Ġsystems":1479,"Ġfaster":1480,"Ġsite":1481,"ric":1482,"Ġindividual":1483,"ests":1484,"Ġgroc":1485,"Ġtakes":1486,"Ġdashboard":1487,"Ġanalyz":1488,"Ġrecomm":1489,"ipp":1490,"Ġrecommend":1491,"itt":1492,"Ġbrand":1493,"Ġagain":1494,"Ġlow":1495,"Ġproviders":1496,"Ġclean":1497,"Ġtic":1498,"Ġland":1499,".âĢĿ":1500,"driv":1501,"Ġorganize":1502,"roll":1503,"osp":1504,"Ġrequ":1505,"Ġfun":1506,"Ġbeh":1507,"Ġfreelanc":1508,"Ġenterprise":1509,"Ġelect":1510,"Ġafter":1511,"Ġprom":1512,"Ġsan":1513,"ificial":1514,"Ġbecause":1515,"Ġperformance":1516,"Ġinterface":1517,"Ġnews":1518,"Ġpublish":1519,"Ġschedul":1520,"oint":1521,"ential":1522,"Ġroom":1523,"Ġartificial":1524,"Ġslack":1525,"Ġcontractors":1526,"Ġcombinator":1527,"gor":1528,"old":1529,"Ġreview":1530,"Ġexpenses":1531,"Ġcand":1532,"Ġhosp":1533,"Ġhospital":1534,"Ġshopping":1535,"Ġval":1536,"Ġads":1537,"vern":1538,"Ġmerch":1539,"ours":1540,"Ġuber":1541,"dem":1542,"Ġfil":1543,"ars":1544,"rep":1545,"Ġreg":1546,"Ġsure":1547,"Ġplatforms":1548,"angu":1549,"Ġpatient":1550,"orts":1551,"isco":1552,"Ġeffect":1553,"Ġremote":1554,"eth":1555,"Ġenables":1556,"Ġadvertis":1557,"Ġoffice":1558,"day":1559,"Ġz":1560,"ann":1561,"Ġgot":1562,"Ġcompet":1563,"ergy":1564,"Ġdeal":1565,"Ġmanu":1566,"ium":1567,"Ġless":1568,"Ġmanufact":1569,"Ġpost":1570,"rene":1571,"Ġcut":1572,"erm":1573,"Ġgovern":1574,"Ġenergy":1575,"Ġfreelancers":1576,"demand":1577,"Ġproper":1578,"Ġfranc":1579,"Ġcomputer":1580,"Ġquest":1581,"Ġmicro":1582,"ved":1583,"ators":1584,"the":1585,"reprene":1586,"Ġlangu":1587,"Ġfrancisco":1588,"lex":1589,"Ġinstead":1590,"earch":1591,"Ġmembers":1592,"Ġfinding":1593,"ality":1594,"Ġpublic":1595,"Ġentreprene":1596,"load":1597,"Ġtransact":1598,"Ġgiving":1599,"Ġcandid":1600,"Ġmany":1601,"Ġresearch":1602,"Ġhop":1603,"Ġreduce":1604,"entralized":1605,"Ġcountries":1606,"ave":1607,"Ġevent":1608,"Ġfeedback":1609,"Ġcash":1610,"Ġbenefits":1611,"Ġlot":1612,"Ġself":1613,"ition":1614,"te":1615,"cc":1616,"Ġadd":1617,"Ġagents":1618,"ivity":1619,"Ġloan":1620,"Ġsin":1621,"ps":1622,"Ġreally":1623,"Ġspending":1624,"aph":1625,"other":1626,"Ġappoint":1627,"ian":1628,"Ġprice":1629,"Ġshould":1630,"like":1631,"Ġstill":1632,"Ġchild":1633,"Ġboth":1634,"wh":1635,"Ġanyone":1636,"Ġthese":1637,"Ġwhy":1638,"Ġoptim":1639,"ule":1640,"Ġwom":1641,"Ġeverything":1642,"Ġhuman":1643,"Ġround":1644,"ied":1645,"Ġability":1646,"Ġincre":1647,"Ġfol":1648,"Ġyork":1649,"Ġdesigners":1650,"Ġanother":1651,"Ġfull":1652,"ute":1653,"Ġstay":1654,"Ġcrypt":1655,"hips":1656,"Ġcreates":1657,"Ġspe":1658,"Ġ10":1659,"Ġmanufactur":1660,"Ġlong":1661,"Ġfeatures":1662,"Ġdatab":1663,"sw":1664,"Ġpartners":1665,"Ġnear":1666,"Ġlend":1667,"ĠâĢĶ":1668,"ues":1669,"Ġdeals":1670,"Ġcapital":1671,"Ġfinances":1672,"Ġorganizations":1673,"Ġappro":1674,"Ġhapp":1675,"Ġtalent":1676,"Ġfee":1677,"ious":1678,"Ġspecific":1679,"Ġexist":1680,"Ġrelations":1681,"dy":1682,"Ġcharg":1683,"Ġdone":1684,"Ġcities":1685,"Ġend":1686,"Ġuh":1687,"Ġgives":1688,"Ġentrepreneurs":1689,"Ġvariety":1690,"Ġbit":1691,"Ġapplication":1692,"Ġautomated":1693,"com":1694,"acts":1695,"Ġtaking":1696,"ior":1697,"fol":1698,"Ġphoto":1699,"Ġbuyers":1700,"Ġunder":1701,"Ġbills":1702,"Ġprot":1703,"Ġpop":1704,"mart":1705,"Ġmean":1706,"Ġgames":1707,"Ġdoctor":1708,"Ġinvestment":1709,"ram":1710,"Ġansw":1711,"Ġmove":1712,"onna":1713,"Ġfarm":1714,"ford":1715,"Ġalgor":1716,"Ġgonna":1717,"Ġreceive":1718,"Ġalgorith":1719,"Ġpaper":1720,"Ġposs":1721,"aring":1722,"Ġdep":1723,"Ġlink":1724,"ne":1725,"Ġfollow":1726,"Ġlog":1727,"Ġdatabase":1728,"Ġpayroll":1729,"Ġprev":1730,"Ġpurchase":1731,"Ġvent":1732,"Ġmen":1733,"ders":1734,"Ġcandidates":1735,"Ġhardware":1736,"Ġsellers":1737,"Ġprofit":1738,"Ġcheck":1739,"Ġportfol":1740,"Ġwa":1741,"Ġpitch":1742,"Ġartists":1743,"Ġsk":1744,"Ġlaw":1745,"Ġearly":1746,"Ġaccounting":1747,"be":1748,"Ġrecords":1749,"Ġexisting":1750,"less":1751,"Ġengage":1752,"Ġeduc":1753,"Ġbas":1754,"Ġsomeone":1755,"sel":1756,"Ġapplications":1757,"agram":1758,"Ġris":1759,"Ġtickets":1760,"Ġtim":1761,"Ġschedule":1762,"Ġfitness":1763,"person":1764,"Ġpartner":1765,"Ġconsumer":1766,"Ġafford":1767,"Ġsur":1768,"Ġmid":1769,"Ġinstagram":1770,"Ġproblem":1771,"uts":1772,"Ġmeas":1773,"Ġca":1774,"Ġrecord":1775,"Ġsom":1776,"Ġold":1777,"Ġ4":1778,"Ġresp":1779,"Ġdisco":1780,"Ġphones":1781,"Ġdrivers":1782,"Ġdem":1783,"Ġorders":1784,"fl":1785,"ired":1786,"Ġfinance":1787,"Ġ100":1788,"Ġvoice":1789,"ited":1790,"Ġappointments":1791,"Ġscale":1792,"Ġmanagers":1793,"Ġfut":1794,"Ġsuppl":1795,"Ġequ":1796,"ffee":1797,"uments":1798,"driven":1799,"Ġpaying":1800,"Ġdeb":1801,"Ġkid":1802,"Ġvery":1803,"ĠĊ":1804,"Ġtraining":1805,"Ġtype":1806,"Ġcoffee":1807,"ird":1808,"Ġwrite":1809,"Ġyears":1810,"Ġbillion":1811,"Ġpot":1812,"Ġcrowd":1813,"Ġmessages":1814,"Ġcamer":1815,"urren":1816,"Ġwee":1817,"ken":1818,"Ġrate":1819,"Ġclass":1820,"Ġge":1821,"Ġaltern":1822,"Ġdisc":1823,"Ġfuture":1824,"Ġoperations":1825,"Ġtracks":1826,"by":1827,"ocurren":1828,"Ġconc":1829,"Ġpossible":1830,"ials":1831,"Ġgrowing":1832,"Ġparents":1833,"Ġfreelance":1834,"Ġpack":1835,"verage":1836,"fund":1837,"Ġcryptocurren":1838,"Ġchann":1839,"Ġaud":1840,"Ġformer":1841,"Ġmarkets":1842,"iers":1843,"Ġride":1844,"selves":1845,"encies":1846,"Ġyes":1847,"itter":1848,"eric":1849,"Ġreport":1850,"Ġscheduling":1851,"ten":1852,"Ġsuite":1853,"Ġlaunching":1854,"Ġbi":1855,"Ġview":1856,"Ġlead":1857,"50":1858,"Ġour":1859,"Ġraise":1860,"Ġexperi":1861,"Ġprin":1862,"iel":1863,"Ġcor":1864,"Ġrather":1865,"Ġpol":1866,"Ġstudent":1867,"Ġmaint":1868,"Ġsince":1869,"Ġhist":1870,"Ġbooking":1871,"ker":1872,"Ġbrow":1873,"Ġcomplet":1874,"avor":1875,"yc":1876,"Ġname":1877,"kers":1878,"iron":1879,"Ġwomen":1880,"Ġaway":1881,"Ġthree":1882,"Ġfarmers":1883,"app":1884,"Ġenv":1885,"20":1886,"Ġagainst":1887,"Ġquality":1888,"Ġprograms":1889,"Ġdi":1890,"Ġmerchants":1891,"Ġext":1892,"Ġking":1893,"ittle":1894,"Ġlanguage":1895,"profits":1896,"Ġthemselves":1897,"aily":1898,"Ġpast":1899,"Ġinternational":1900,"Ġlittle":1901,"Ġplanning":1902,"ring":1903,"Ġpotential":1904,"Ġquestions":1905,"Ġtyp":1906,"Ġdaily":1907,"Ġcent":1908,"ians":1909,"utions":1910,"Ġclo":1911,"Ġgovernment":1912,"Ġprofitable":1913,"ruct":1914,"Ġalternative":1915,"Ġshipp":1916,"Ġfavor":1917,"Ġaccept":1918,"Ġteachers":1919,"Ġhotels":1920,"ides":1921,"Ġreplace":1922,"Ġhead":1923,"rop":1924,"smart":1925,"Ġdocuments":1926,"ling":1927,"Ġletting":1928,"Ġthough":1929,"Ġbooks":1930,"wards":1931,"Ġideas":1932,"Ġanalyze":1933,"Ġsometh":1934,"Ġameric":1935,"Ġcalls":1936,"Ġagencies":1937,"Ġdecentralized":1938,"Ġtransactions":1939,"ked":1940,"ilities":1941,"Ġcollege":1942,"ron":1943,"reen":1944,"Ġshared":1945,"Ġengineers":1946,"Ġsomething":1947,"Ġrisk":1948,"dle":1949,"Ġgiven":1950,"bn":1951,"Ġcompare":1952,"Ġexch":1953,"Ġinvo":1954,"ple":1955,"Ġscience":1956,"man":1957,"orrow":1958,"Ġlast":1959,"Ġiss":1960,"Ġresources":1961,"Ġpurchases":1962,"Ġaffordable":1963,"Ġanswer":1964,"Ġtre":1965,"Ġimport":1966,"Ġbud":1967,"epend":1968,"Ġtimes":1969,"Ġmeetings":1970,"Ġoptimize":1971,"Ġrele":1972,"ven":1973,"Ġpod":1974,"ises":1975,"air":1976,"Ġprogress":1977,"Ġindepend":1978,"Ġearn":1979,"Ġactual":1980,"Ġadvertising":1981,"Ġfavorite":1982,"Ġenviron":1983,"Ġcert":1984,"Ġfac":1985,"Ġlibr":1986,"ger":1987,"Ġet":1988,"Ġupload":1989,"sets":1990,"Ġunivers":1991,"aud":1992,"Ġwatch":1993,"Ġhost":1994,"Ġintegrate":1995,"Ġbecome":1996,"Ġchildren":1997,"Ġob":1998,"Ġexperiences":1999,"Ġment":2000,"Ġconfer":2001,"Ġindividuals":2002,"Ġpick":2003,"ont":2004,"Ġlove":2005,"tech":2006,"graph":2007,"Ġaimed":2008,"ashion":2009,"Ġfraud":2010,"yle":2011,"Ġimages":2012,"bnb":2013,"umm":2014,"Ġpict":2015,"Ġes":2016,"Ġdate":2017,"Ġapart":2018,"Ġplaces":2019,"aper":2020,"ban":2021,"Ġfounder":2022,"ural":2023,"hic":2024,"Ġsolve":2025,"Ġsource":2026,"service":2027,"Ġcame":2028,"ade":2029,"Ġfact":2030,"Ġpodc":2031,"Ġindependent":2032,"Ġtranspar":2033,"Ġclos":2034,"Ġvehic":2035,"no":2036,"Ġwithin":2037,"Ġshort":2038,"Ġphil":2039,"Ġcheaper":2040,"Ġthing":2041,"Ġcalend":2042,"Ġoften":2043,"Ġpopular":2044,"ift":2045,"Ġtwitter":2046,"10":2047,"Ġsites":2048,"Ġincrease":2049,"Ġbrings":2050,"Ġsle":2051,"roid":2052,"flu":2053,"Ġwater":2054,"conom":2055,"Ġfashion":2056,"Ġconnected":2057,"Ġfeature":2058,"Ġmeasure":2059,"Ġautomation":2060,"Ġeconom":2061,"Ġlower":2062,"Ġelectric":2063,"Ġairbnb":2064,"ner":2065,"Ġdoor":2066,"Ġassets":2067,"Ġprocessing":2068,"crib":2069,"Ġisra":2070,"erc":2071,"Ġoptions":2072,"asts":2073,"Ġseries":2074,"Ġwent":2075,"ively":2076,"Ġtem":2077,"Ġbehav":2078,"Ġfig":2079,"Ġbot":2080,"Ġconvers":2081,"Ġbre":2082,"Ġinflu":2083,"Ġcontracts":2084,"Ġhandle":2085,"Ġsw":2086,"Ġword":2087,"flow":2088,"Ġapply":2089,"Ġrecent":2090,"Ġnetworks":2091,"Ġkids":2092,"utes":2093,"Ġandroid":2094,"Ġann":2095,"Ġparking":2096,"Ġchange":2097,"iqu":2098,"Ġprices":2099,"Ġchang":2100,"Ġpartic":2101,"Ġlinked":2102,"hous":2103,"Ġfeel":2104,"Ġsale":2105,"Ġcryptocurrency":2106,"Ġetc":2107,"red":2108,"Ġpeer":2109,"Ġrunning":2110,"Ġapproach":2111,"Ġisrael":2112,"por":2113,"Ġefficiently":2114,"found":2115,"Ġgrocery":2116,"where":2117,"Ġple":2118,"Ġprocesses":2119,"Ġprogramm":2120,"Ġcamera":2121,"uff":2122,"Ġinfr":2123,"Ġspecial":2124,"Ġexpl":2125,"Ġthird":2126,"Ġflights":2127,"Ġsuc":2128,"Ġmessage":2129,"Ġsleep":2130,"Ġreality":2131,"Ġreach":2132,"Ġlevel":2133,"Ġmiddle":2134,"Ġliving":2135,"urring":2136,"Ġwear":2137,"Ġexchange":2138,"view":2139,"Ġsent":2140,"Ġrecruiters":2141,"Ġcharge":2142,"know":2143,"Ġstarted":2144,"Ġsimpl":2145,"Ġstock":2146,"Ġvarious":2147,"ake":2148,"Ġpain":2149,"Ġpoint":2150,"icing":2151,"Ġconst":2152,"Ġios":2153,"Ġdiscover":2154,"Ġeducation":2155,"Ġpresence":2156,"Ġmov":2157,"of":2158,"Ġproperty":2159,"Ġenvironment":2160,"bu":2161,"ĠÐ":2162,"Ġcleaning":2163,"Ġamount":2164,"ina":2165,"ruction":2166,"Ġdetect":2167,"ats":2168,"Ġstreamline":2169,"Ġvend":2170,"ng":2171,"Ġaiming":2172,"Ġson":2173,"Ġmanufacturers":2174,"Ġlibrary":2175,"Ġaccessible":2176,"fir":2177,"Ġportfolio":2178,"Ġcreators":2179,"Ġdesk":2180,"eries":2181,"oot":2182,"Ġrecommendations":2183,"Ġcurren":2184,"Ġhistory":2185,"Ġbar":2186,"jor":2187,"ills":2188,"Ġfigure":2189,"ding":2190,"Ġlarg":2191,"Ġtalk":2192,"ructure":2193,"Ġdog":2194,"Ġtv":2195,"Ġinclude":2196,"Ġhours":2197,"Ġdeterm":2198,"ether":2199,"Ġyc":2200,"itors":2201,"Ġdel":2202,"Ġchar":2203,"Ġrecurring":2204,"Ġguys":2205,"Ġrecruiting":2206,"Ġgoals":2207,"Ġactually":2208,"Ġmarketers":2209,"Ġfamil":2210,"vant":2211,"Ġcertain":2212,"Ġmight":2213,"Ġmajor":2214,"Ġmodels":2215,"Ġinfluenc":2216,"Ġhol":2217,"Ġwait":2218,"Ġacqu":2219,"Ġcountry":2220,"Ġchoo":2221,"Ġinfrast":2222,"Ġhospitals":2223,"Ġones":2224,"Ġfees":2225,"Ġadvice":2226,"Ġchannels":2227,"Ġinfrastructure":2228,"Ġentire":2229,"ission":2230,"Ġcook":2231,"Ġfix":2232,"Ġstuff":2233,"Ġwhether":2234,"Ġrates":2235,"ified":2236,"Ġhappen":2237,"Ġrepa":2238,"Ġbanking":2239,"Ġtreat":2240,"Ġlending":2241,"Ġcrowdfund":2242,"Ġbehavior":2243,"Ġeveryone":2244,"'ll":2245,"Ġtable":2246,"ips":2247,"Ġeu":2248,"ives":2249,"Ġside":2250,"do":2251,"alty":2252,"Ġshipping":2253,"cl":2254,"Ġweek":2255,"oid":2256,"Ġpublishers":2257,"Ġeffective":2258,"Ġventure":2259,"Ġsends":2260,"Ġdistribut":2261,"Ġimportant":2262,"ally":2263,"Ġdepart":2264,"Ġaccur":2265,"Ġhotel":2266,"Ġlinkedin":2267,"reg":2268,"Ġborrow":2269,"Ġstand":2270,"ateg":2271,"Ġclient":2272,"Ġworkflow":2273,"Ġbox":2274,"Ġrepair":2275,"Ġcrowds":2276,"Ġprint":2277,"Ġhopes":2278,"sc":2279,"Ġcou":2280,"box":2281,"Ġloy":2282,"Ġcommunication":2283,"Ġinterested":2284,"Ġalgorithm":2285,"uth":2286,"Ġsav":2287,"ffic":2288,"Ġreviews":2289,"Ġminutes":2290,"iles":2291,"force":2292,"Ġ2019":2293,"Ġcheap":2294,"Ġwaste":2295,"Ġsecond":2296,"Ġcomplete":2297,"Ġang":2298,"Ġcondit":2299,"Ġinterview":2300,"avig":2301,"Ġmedium":2302,"Ġscore":2303,"Ġincludes":2304,"Ġdetermine":2305,"Ġhab":2306,"Ġ30":2307,"atter":2308,"bots":2309,"Ġproblems":2310,"uring":2311,"peer":2312,"friend":2313,"Ġfunct":2314,"first":2315,"Ġmill":2316,"Ġcalendar":2317,"Ġcreative":2318,"Ġcour":2319,"Ġfar":2320,"Ġsigned":2321,"500":2322,"Ġopp":2323,"Ġlab":2324,"Ġrelationships":2325,"Ġdoesn":2326,"Ġyoung":2327,"Ġremot":2328,"Ġfocuses":2329,"elie":2330,"mo":2331,"Ġsold":2332,"Ġexam":2333,"Ġremotely":2334,"Ġavoid":2335,"Ġchains":2336,"Ġrewards":2337,"Ġmater":2338,"acy":2339,"Ġjour":2340,"ember":2341,"Ġloyalty":2342,"Ġnavig":2343,"Ġmedic":2344,"fit":2345,"Ġcharges":2346,"Ġther":2347,"Ġcustomized":2348,"Ġsending":2349,"Ġah":2350,"Ġpil":2351,"Ġsor":2352,"Ġcrm":2353,"Ġparts":2354,"Ġ50":2355,"Ġcrowdfunding":2356,"Ġut":2357,"Ġtouch":2358,"asing":2359,"ique":2360,"Ġways":2361,"Ġrental":2362,"ract":2363,"Ġcollaboration":2364,"Ġhi":2365,"Ġ500":2366,"Ġer":2367,"?!":2368,"ey":2369,"port":2370,"ually":2371,"Ġissues":2372,"Ġeuro":2373,"Ġmet":2374,"Ġsources":2375,"Ġsorry":2376,"Ġlight":2377,"Ġapple":2378,"Ġonboard":2379,"Ġgave":2380,"Ġexec":2381,"Ġsuccess":2382,"Ġouts":2383,"Ġfast":2384,"Ġstop":2385,"stop":2386,"Ġdelivered":2387,"dd":2388,"Ġusage":2389,"house":2390,"aut":2391,"greg":2392,"tions":2393,"iate":2394,"Ġvac":2395,"Ġplease":2396,"digital":2397,"Ġordering":2398,"Ġgroceries":2399,"Ġbrowser":2400,"ield":2401,"Ġfunds":2402,"Ġsuppliers":2403,"ties":2404,"Ġanything":2405,"Ġsense":2406,"Ġbelie":2407,"Ġsavings":2408,"Ġeurope":2409,"Ġbab":2410,"Ġtransl":2411,"Ġbase":2412,"Ġfiles":2413,"ins":2414,"Ġmich":2415,"Ġever":2416,"Ġgroups":2417,"Ġce":2418,"Ġmonths":2419,"Ġlives":2420,"Ġaggreg":2421,"Ġkey":2422,"Ġinsights":2423,"Ġlat":2424,"iving":2425,"Ġey":2426,"iver":2427,"self":2428,"sharing":2429,"Ġvet":2430,"Ġchina":2431,"ym":2432,"Ġcompete":2433,"aking":2434,"ories":2435,"Ġenc":2436,"Ġtook":2437,"Ġlooks":2438,"Ġactivity":2439,"Ġinfluencers":2440,"une":2441,"Ġdidn":2442,"Ġadvis":2443,"Ġfamilies":2444,"Ġnever":2445,"Ġemerg":2446,"izing":2447,"Ġinvestments":2448,"pec":2449,"Ġmonet":2450,"Ġactiv":2451,"Ġchoose":2452,"Ġask":2453,"Ġcreated":2454,"Ġfurn":2455,"ush":2456,"ipment":2457,"Ġhands":2458,"ube":2459,"Ġinteractive":2460,"Ġtesting":2461,"Ġtargeting":2462,"Ġfocusing":2463,"ios":2464,"Ġstories":2465,"dress":2466,"!!":2467,"ledge":2468,"Ġengagement":2469,"Ġvendors":2470,"Ġdrop":2471,"iture":2472,"Ġdays":2473,"istics":2474,"fin":2475,"gg":2476,"Ġheart":2477,"Ġtaxes":2478,"Ġskills":2479,"Ġparticular":2480,"Ġsta":2481,"Ð¾":2482,"ering":2483,"erts":2484,"Ġled":2485,"room":2486,"Ġinvoices":2487,"Ġthous":2488,"ael":2489,"Ġnat":2490,"100":2491,"Ġfurniture":2492,"Ġdating":2493,"Ġrequest":2494,"Ġbudget":2495,"Ġcombination":2496,"Ġhu":2497,"Ġeat":2498,"Ġlisten":2499,"Ġtypes":2500,"Ġcomplex":2501,"Ġinterests":2502,"Ġtoday":2503,"Ġline":2504,"Ġeconomy":2505,"od":2506,"Ġfill":2507,"enn":2508,"ints":2509,"Ġconcier":2510,"Ġcoming":2511,"Ġproductivity":2512,"Ġworth":2513,"ization":2514,"ourced":2515,"Ġshows":2516,"Ġproduce":2517,"Ġcoach":2518,"Ġanywhere":2519,"Ġcours":2520,"Ġtown":2521,"Ġmom":2522,"ffor":2523,"Ġgl":2524,"Ġstorage":2525,"Ġcourses":2526,"Ġcreation":2527,"play":2528,"ected":2529,"ults":2530,"social":2531,"Ġdrive":2532,"Ġgeneration":2533,"Ġtrend":2534,"Ġconcierge":2535,"Ġemails":2536,"cccc":2537,"Ġfile":2538,",âĢĿ":2539,"Ġdebt":2540,"Ġschools":2541,"Ġareas":2542,"Ġupd":2543,"Ġ6":2544,"Ġhund":2545,"Ġeffor":2546,"ention":2547,"phones":2548,"Ġangel":2549,"top":2550,"ipe":2551,"Ġposts":2552,"Ġstory":2553,"Ġaddress":2554,"Ġpass":2555,"izes":2556,"Ġfans":2557,"Ġnight":2558,"Ġsever":2559,"people":2560,"arth":2561,"Ġmoving":2562,"Ġhabits":2563,"Ġtask":2564,"med":2565,"inate":2566,"Ġver":2567,"Ġsort":2568,"Ġactivities":2569,"Ġscan":2570,"'ve":2571,"tr":2572,"Ġknowledge":2573,"ially":2574,"Ġsafe":2575,"Ġsaying":2576,"Ġceo":2577,"Ġreturn":2578,"Ġvalue":2579,"Ġrooms":2580,"Ġproperties":2581,"Ġobj":2582,"ges":2583,"ilit":2584,"Ġmichael":2585,"Ġrecently":2586,"Ġparty":2587,"Ġturns":2588,"Ġvehicles":2589,"Ġconstruction":2590,"Ġlik":2591,"Ġretire":2592,"Ġflight":2593,"Ġcenter":2594,"Ġblog":2595,"Ġflow":2596,"Ġnearby":2597,"Ġamong":2598,"come":2599,"kit":2600,"Ġequipment":2601,"Ġsound":2602,"ex":2603,"Ġsolutions":2604,"Ġscient":2605,"Ġprem":2606,"Ġspeak":2607,"Ġbitco":2608,"Ġarr":2609,"Ġscreen":2610,"Ġseveral":2611,"Ġboard":2612,"Ġbacked":2613,"Ġlabor":2614,"ability":2615,"Ġdeploy":2616,"Ġexpensive":2617,"Ġgenerate":2618,"Ġcomes":2619,"Ġearth":2620,"min":2621,"oll":2622,"Ġtrade":2623,"Ġnavigate":2624,"Ġbad":2625,"cent":2626,"Ġfirms":2627,"Ġprevious":2628,"Ġyout":2629,"Ġmeeting":2630,"Ġsect":2631,"Ġrange":2632,"Ġ2018":2633,"friendly":2634,"Ġwallet":2635,"Ġwearable":2636,"Ġsumm":2637,"Ġitself":2638,"Ġsaving":2639,"Ġcorpor":2640,"rup":2641,"Ġbur":2642,"Ġcurrency":2643,"Ġfour":2644,"Ġgift":2645,"ada":2646,"Ġsyn":2647,"rel":2648,"Ġunique":2649,"Ġbringing":2650,"Ġintegrates":2651,"Ġexample":2652,"Ġsel":2653,"att":2654,"Ġcommon":2655,"Ġprofile":2656,"Ġyoutube":2657,"Ġstep":2658,"Ġtravelers":2659,"Ġprevent":2660,"Ġdemand":2661,"Ġstaff":2662,"Ġtel":2663,"Ġross":2664,"Ġmonitoring":2665,"Ġpet":2666,"Ġpull":2667,"Ġhass":2668,"Ġwhole":2669,"Ġintegrated":2670,"Ġsurve":2671,"Ġretirement":2672,"Ġseen":2673,"Ġ2017":2674,"Ġmaintain":2675,"Ġrobot":2676,"Ġwhite":2677,"right":2678,"Ġgrowth":2679,"iency":2680,"Ġcombines":2681,"alf":2682,"Ġdav":2683,"Ġnotific":2684,"Ġdesktop":2685,"Ġjourn":2686,"Ġkitch":2687,"Ġsit":2688,"Ġsub":2689,"Ġnonprofits":2690,"Ġum":2691,"Ġauth":2692,"Ġcover":2693,"Ġhomeown":2694,"Ġstarting":2695,"Ġlawy":2696,"Ġbitcoin":2697,"ances":2698,"Ġlocations":2699,"Ġresum":2700,"Ġtraffic":2701,"Ġediting":2702,"Ġrides":2703,"Ġfoot":2704,"Ġpodcasts":2705,"Ġsaf":2706,"Ġsolar":2707,"Ġinstant":2708,"Ġpilot":2709,"Ġmeal":2710,"ways":2711,"Ġbay":2712,"Ġdeveloped":2713,"ument":2714,"Ġtransfer":2715,").":2716,"ret":2717,"Ġpoints":2718,"Ġbody":2719,"Ġopport":2720,"Ġscr":2721,"Ġlistings":2722,"Ġhassle":2723,"source":2724,"Ġimpact":2725,"erv":2726,"Ġdesigns":2727,"Ġlogistics":2728,"Ġdest":2729,"Ġvacation":2730,"ately":2731,"Ġbeaut":2732,"enance":2733,"Ġste":2734,"Ġjud":2735,"Ġindian":2736,"Ġthank":2737,"Ð°":2738,"Ġadvant":2739,"Ġdavid":2740,"Ġaudio":2741,"Ġapartment":2742,"Ðµ":2743,"Ġvr":2744,"Ġpromote":2745,"Ġrelevant":2746,"des":2747,"oring":2748,"Ġalgorithms":2749,"Ġopportun":2750,"Ġready":2751,"Ġsou":2752,"Ġrelationship":2753,"Ġstrateg":2754,"ronic":2755,"Ġship":2756,"Ġtransparent":2757,"Ġmaterials":2758,"ogn":2759,"Ġprinting":2760,"Ġchanges":2761,"Ġefficiency":2762,"Ġlin":2763,"Ġhell":2764,"icult":2765,"Ġwords":2766,"Ġstreaming":2767,"Ġbranded":2768,"Ġ7":2769,"Ġstat":2770,"Ġreports":2771,"ler":2772,"Ġrout":2773,"Ġjournal":2774,"Ġpract":2775,"Ġlikely":2776,"Ġtaken":2777,"body":2778,"Ġleave":2779,"Ġbike":2780,"ton":2781,"Ġmort":2782,"oty":2783,"Ġblood":2784,"Ġwar":2785,"Ġinternal":2786,"Ġmap":2787,"print":2788,"Ġclothing":2789,"Ġcourse":2790,"Ġspot":2791,"Ġprofiles":2792,"Ġthought":2793,"ores":2794,"Ġstates":2795,"Ġonce":2796,"Ġrecogn":2797,"Ġinvesting":2798,"Ġfintech":2799,"Ġprefer":2800,"Ġpredictive":2801,"Ġprototy":2802,"go":2803,"Ġtoolkit":2804,"pecially":2805,"list":2806,"Ġmass":2807,"Ġ8":2808,"Ġstage":2809,"Ġlif":2810,"Ġunited":2811,"Ġguy":2812,"Ġonboarding":2813,"Ġadvantage":2814,"Ġly":2815,"Ġmaintenance":2816,"sized":2817,"Ġdriver":2818,"Ġcapt":2819,"Ġoperating":2820,"mm":2821,"Ġauto":2822,"Ġfive":2823,"Ġlists":2824,"Ġhomeowners":2825,"Ġful":2826,"Ġkeeping":2827,"liance":2828,"ots":2829,"mon":2830,"Ġtruc":2831,"Ġmonetize":2832,"cies":2833,"Ġremind":2834,"Ġaverage":2835,"Ġoffices":2836,"Ġdeveloper":2837,"Ġcann":2838,"Ġespecially":2839,"Ġsensors":2840,"most":2841,"Ġlic":2842,"Ġnam":2843,"term":2844,"Ġneigh":2845,"Ġneighb":2846,"abilities":2847,"ley":2848,"Ġelim":2849,"Ġspread":2850,"Ġshoppers":2851,"Ġprovider":2852,"Ġpage":2853,"Ġwon":2854,"Ġpi":2855,"Ġrul":2856,"Ġlicens":2857,"Ġlos":2858,"ica":2859,"rupt":2860,"Ġenable":2861,"Ġvision":2862,"Ġsimplify":2863,"fs":2864,"Ġess":2865,"Ġcanada":2866,"Ġlim":2867,"Ġsugg":2868,"Ġaug":2869,"Ġadvertisers":2870,"Ġclin":2871,"hood":2872,"hold":2873,"Ġdoll":2874,"Ġbehind":2875,"focus":2876,"Ġ200":2877,"Ġnatural":2878,"aries":2879,"itive":2880,"cost":2881,"ters":2882,"Ġbul":2883,"Ġpair":2884,"oh":2885,"ensive":2886,"Ġlandl":2887,"Ġprotect":2888,"Ġresults":2889,"founder":2890,"Ġworkflows":2891,"Ġsync":2892,"Ġdeath":2893,"Ġstate":2894,"thes":2895,"Ġcommunities":2896,"au":2897,"part":2898,"Ġrach":2899,"Ġclosed":2900,"Ġ'":2901,"Ġhold":2902,"Ġworked":2903,"Ġens":2904,"Ġactive":2905,"Ġaccurate":2906,"pay":2907,"iah":2908,"Ġgrad":2909,"Ġsil":2910,"Ġwin":2911,"Ġarm":2912,"Ġwriting":2913,"Ġschedules":2914,"Ã©":2915,"Ġdrug":2916,"Ġincome":2917,"Ġvisualize":2918,"Ġfront":2919,"Ġnotes":2920,"Ġfirm":2921,"Ġventures":2922,"Ġkitchen":2923,"Ġrentals":2924,"Ġconference":2925,"ement":2926,"Ġproduction":2927,"Ġevil":2928,"nov":2929,"Ġpages":2930,"Ġiphone":2931,"Ġagency":2932,"Ġjoey":2933,"ister":2934,"Ġeffectively":2935,"Ġpicture":2936,"Ġreduc":2937,"ife":2938,"pos":2939,"Ġrefer":2940,"ground":2941,"Ġphotograph":2942,"Ġcolor":2943,"Ġmanufacturing":2944,"Ġsetting":2945,"Ġbelieve":2946,"Ġserves":2947,"Ġelse":2948,"focused":2949,"Ġ15":2950,"Ġsalespeople":2951,"Ġchatbots":2952,"Ġpolic":2953,"Ġpictures":2954,"off":2955,"Ġfinancing":2956,"Ġhousing":2957,"uly":2958,"Ġpresent":2959,"soft":2960,"Ġexplain":2961,"Ġten":2962,"Ġedit":2963,"Ġstandard":2964,"Ġanalys":2965,"Ġware":2966,"Ġattract":2967,"Ġbaby":2968,"aw":2969,"Ġmanager":2970,"Ġalerts":2971,"Ġgets":2972,"Ġleads":2973,"bit":2974,"ÑĤ":2975,"Ġpress":2976,"profit":2977,"ress":2978,"Ġconditions":2979,"Ġfollowing":2980,"Ġquestion":2981,"Ġprogramming":2982,"Ġhour":2983,"Ġflex":2984,"Ġclear":2985,"Ġelder":2986,"used":2987,"ced":2988,"Ġclose":2989,"Ġdescrib":2990,"Ġlater":2991,"Ġsports":2992,"Ġpricing":2993,"Ġmatches":2994,"personal":2995,"Ġlanguages":2996,"Ġamerica":2997,"Ġleft":2998,"party":2999,"driving":3000,"ycle":3001,"Ġsafety":3002,"cul":3003,"Ġcase":3004,"Ġred":3005,"izz":3006,"Ġsmartphones":3007,"Ġdecide":3008,"mar":3009,"Ġpharm":3010,"eline":3011,"Ġdent":3012,"Ġgovernments":3013,"Ġuniversity":3014,"abling":3015,"Ġcontact":3016,"Ġje":3017,"Ġannual":3018,"arter":3019,"acing":3020,"Ġelderly":3021,"banked":3022,"Ġdin":3023,"Ġmoder":3024,"Ġbraz":3025,"Ġindustries":3026,"Ġdocument":3027,"Ġmaybe":3028,"Ġdistribute":3029,"Ġalways":3030,"Ġconcept":3031,"Ġcorporate":3032,"Ġbrazil":3033,"lin":3034,"Ġenabling":3035,"Ġcharging":3036,"Ġfather":3037,"Ġcompliance":3038,"Ġwalking":3039,"Ġnotifications":3040,"Ġbuildings":3041,"Ġtrading":3042,"ĠâĢĺ":3043,"Ġq":3044,"action":3045,"Ġtalking":3046,"Ġattend":3047,"Ġinvol":3048,"ocks":3049,"Ġorig":3050,"Ġdisrupt":3051,"Ġdownload":3052,"Ġtot":3053,"Ġagent":3054,"Ġbreak":3055,"Ġmind":3056,"Ġdom":3057,"Ġlikes":3058,"Ġtalks":3059,"Ġcra":3060,"ups":3061,"ico":3062,"abled":3063,"uary":3064,"Ġjan":3065,"Ġdoz":3066,"Ġiot":3067,"Ġoil":3068,"Ġtransport":3069,"Ġclothes":3070,"Ġscientists":3071,"Ġfield":3072,"Ġbir":3073,"Ġaddit":3074,"Ġpremium":3075,"Ġrecognition":3076,"Ġhub":3077,"Ġdw":3078,"Ġrepl":3079,"Ġadmin":3080,"Ġportfolios":3081,"Ġcollaborative":3082,"iet":3083,"Ġrespond":3084,"ercial":3085,"Ġ-":3086,"Ġtoolset":3087,"Ġwellness":3088,"Ġter":3089,"Ġrenters":3090,"related":3091,"Ġcollection":3092,"Ġessential":3093,"Ð¸":3094,"Ġhy":3095,"Ġyet":3096,"Ġneg":3097,"Ġcoord":3098,"'d":3099,"irl":3100,"Ġexerc":3101,"Ġsector":3102,"Ġartic":3103,"Ġdealers":3104,"Ġtrends":3105,"ising":3106,"Ġamerican":3107,"Ġmental":3108,"Ġconvert":3109,"Ġpercent":3110,"Ġexperts":3111,"Ġ40":3112,"Ġpackages":3113,"iction":3114,"Ġspaces":3115,"Ġmovie":3116,"gage":3117,"ider":3118,"Ġsust":3119,"Ġsat":3120,"books":3121,"Ġsn":3122,"Ġserve":3123,"Ġautomating":3124,"Ġaccord":3125,"Ġpip":3126,"Ġdef":3127,"inking":3128,"Ġpiec":3129,"Ġmovies":3130,"tain":3131,"Ġaccording":3132,"ism":3133,"Ġconsult":3134,"Ġlarger":3135,"nch":3136,"agn":3137,"Ġexc":3138,"Ġspent":3139,"Ġill":3140,"Ġhealthy":3141,"Ġsqu":3142,"Ġreserv":3143,"Ġremo":3144,"Ġoption":3145,"Ġorigin":3146,"Ġfire":3147,"Ġroad":3148,"Ġcentral":3149,"Ġgig":3150,"Ġcentralized":3151,"uss":3152,"Ġspeed":3153,"Ġwind":3154,"Ġdrag":3155,"Ġinteresting":3156,"Ġpowered":3157,"store":3158,"ibility":3159,"Ġmatching":3160,"Ġdry":3161,"Ġnothing":3162,"Ġinterviews":3163,"Ġsong":3164,"Ġcommercial":3165,"Ġtrip":3166,"ails":3167,"Ġlost":3168,"Ġdistributed":3169,"Ġband":3170,"ature":3171,"Ġbroker":3172,"Ġhello":3173,"Ġscores":3174,"Ġnetworking":3175,"Ġbackground":3176,"Ġbilling":3177,"Ġmeans":3178,"Ġdiff":3179,"Ġsustain":3180,"ires":3181,"press":3182,"Ġselect":3183,"Ġmor":3184,"Ġgoes":3185,"Ġdrink":3186,"Ġdistribution":3187,"Ġtrou":3188,"Ġforms":3189,"Ġlargest":3190,"Ġaren":3191,"lix":3192,"Ġexecut":3193,"Ġenough":3194,"Ġdriving":3195,"Ġshops":3196,"Ġprescrip":3197,"Ġobjects":3198,"Ġlyft":3199,"Ġbid":3200,"Ġgirl":3201,"pres":3202,"Ġsuggest":3203,"Ġlandlords":3204,"Ġsupplies":3205,"Ġtransparency":3206,"pal":3207,"Ġticket":3208,"Ġcult":3209,"Ġstatus":3210,"Ġdwight":3211,"Ġworkplace":3212,"Ġexpert":3213,"Ġtargeted":3214,"ooth":3215,"Ġcool":3216,"Ġmodern":3217,"pose":3218,"Ġsaw":3219,"Ġmusicians":3220,"Ġdemo":3221,"Ġneighbor":3222,"ging":3223,"Ġur":3224,"Ġjer":3225,"Ġsons":3226,"Ġwide":3227,"Ġknown":3228,"Ġmillenn":3229,"Ġinstall":3230,"Ġ2020":3231,"ought":3232,"Ġminim":3233,"idge":3234,"Ġdebit":3235,"outs":3236,"Ġplayers":3237,"Ġopportunities":3238,"Ġjournalists":3239,"Ġec":3240,"iven":3241,"Ġsmaller":3242,"Ġdisplay":3243,"Ġcannab":3244,"ob":3245,"Ġlawyers":3246,"flix":3247,"imate":3248,"Ġmicrosoft":3249,"Ġdepartments":3250,"ption":3251,"Ġ2015":3252,"Ġorganizing":3253,"Ġunderstanding":3254,"Ġhor":3255,"Ġmulti":3256,"Ġdelivers":3257,"Ġaccel":3258,"Ġchr":3259,"Ġcustomize":3260,"Ġsms":3261,"Ġwrong":3262,"Ġhundred":3263,"lines":3264,"alu":3265,"Ġuseful":3266,"oe":3267,"Ġchand":3268,"ements":3269,"Ġinstit":3270,"Ġcalcul":3271,"Ġrespons":3272,"Ġconversations":3273,"Ġadj":3274,"Ġpattern":3275,"Ġbal":3276,"Ġ2016":3277,"Ġmerchand":3278,"Ġdepartment":3279,"Ġadvisors":3280,"Ġcannabis":3281,"Ġrenting":3282,"Ġruns":3283,"Ġsuccessful":3284,"Ġthousands":3285,"Ġneighborhood":3286,"Ġbatter":3287,"Ġalong":3288,"Ġturning":3289,"Ġtreatment":3290,"Ġefforts":3291,"icians":3292,"Ġgain":3293,"home":3294,"Ġinside":3295,"Ġsecurely":3296,"Ġhope":3297,"Ġguide":3298,"Ġdiscounts":3299,"he":3300,"Ġlights":3301,"Ġdollars":3302,"ever":3303,"pect":3304,"Ġenglish":3305,"Ġoutside":3306,"Ġchandler":3307,"Ġeb":3308,"Ġpool":3309,"Ġstrong":3310,"ystem":3311,"Ġven":3312,"osed":3313,"Ġpreviously":3314,"Ġanim":3315,"Ġbasis":3316,"Ġdirectory":3317,"Ġreceiv":3318,"Ġpromises":3319,"cre":3320,"Ġevalu":3321,"Ġeye":3322,"Ġsummer":3323,"Ġcause":3324,"Ġwow":3325,"Ġtrust":3326,"Ġvalu":3327,"Ġextra":3328,"aving":3329,"Ġwanted":3330,"Ġstorefr":3331,"ta":3332,"Ġalex":3333,"bus":3334,"ension":3335,"quality":3336,"Ġlenders":3337,"Ġanalysis":3338,"ason":3339,"Ġcrowdsourced":3340,"Ġdifficult":3341,"Ġfunded":3342,"Ġpaperwork":3343,"Ġwine":3344,"Ġtransaction":3345,"Ġbatch":3346,"Ġnurs":3347,"Ġnice":3348,"Ġproductive":3349,"Ġcombining":3350,"Ġhousehold":3351,"ows":3352,"Ġsubscriptions":3353,"bon":3354,"wor":3355,"Ġcat":3356,"Ġaction":3357,"Ġunused":3358,"Ġengineering":3359,"Ġjune":3360,"Ġpackage":3361,"Ġsam":3362,"25":3363,"ai":3364,"Ġ9":3365,"lement":3366,"Ġecommerce":3367,"Ġdiscount":3368,"fort":3369,"Ġensure":3370,"enger":3371,"Ġgif":3372,"Ġmonica":3373,"Ġinteractions":3374,"Ġreporting":3375,"Ġrachel":3376,"lock":3377,"enabled":3378,"Ġconven":3379,"Ġmission":3380,"Ġautomates":3381,"Ġkinds":3382,"Ġbrokers":3383,"Ġflexible":3384,"Ġhair":3385,"Ġpays":3386,"rics":3387,"inese":3388,"Ġebay":3389,"ination":3390,"Ġhelped":3391,"Ġacts":3392,"Ġdecision":3393,"Ġreducing":3394,"Ñģ":3395,"Ġapartments":3396,"Ġcop":3397,"uses":3398,"Ġprototype":3399,"Ġreli":3400,"Ġpaypal":3401,"Ġpret":3402,"Ġrepairs":3403,"Ġexpense":3404,"Ġinvoicing":3405,"Ġcheapest":3406,"Ġaust":3407,"learn":3408,"Ġnor":3409,"Ġwhose":3410,"Ġmessenger":3411,"Ġ2014":3412,"Ġorganization":3413,"new":3414,"Ġpartnered":3415,"Ġ.":3416,"fect":3417,"Ġtut":3418,"osystem":3419,"Ġheav":3420,"Ġdisabilities":3421,"Ġmortgage":3422,"Ġsix":3423,"esh":3424,"âĢĶ":3425,"Ġdozen":3426,"Ġip":3427,"Ġessentially":3428,"Ġnational":3429,"Ġref":3430,"estyle":3431,"Ġthanks":3432,"Ġhalf":3433,"keep":3434,"Ġrequire":3435,"Ġsepar":3436,"Ġweight":3437,"Ġwoman":3438,"Ġreminders":3439,"onom":3440,"Ġvol":3441,"Ġstreamlin":3442,"Ġdiscovery":3443,"free":3444,"Ġprior":3445,"Ġpreferences":3446,"Ġpatterns":3447,"xim":3448,"Ġaw":3449,"Ġran":3450,"Ġchinese":3451,"Ġphilipp":3452,"Ġbulk":3453,"Ġassistants":3454,"Ġtempl":3455,"kend":3456,"Ġalum":3457,"Ġjim":3458,"Ġcontacts":3459,"dom":3460,"uct":3461,"Ġdonate":3462,"Ġborrowers":3463,"duct":3464,"Ġtransportation":3465,"Ġecosystem":3466,"Ġmex":3467,"Ġpublishing":3468,"present":3469,"Ġaff":3470,"Ġcareer":3471,"Ġbroad":3472,"Ġtests":3473,"Ġmiss":3474,"Ġmix":3475,"Ġcoding":3476,"Ġimage":3477,"Ġfacial":3478,"Ġpipeline":3479,"business":3480,"Ġmeth":3481,"Ġmeals":3482,"Ġregul":3483,"Ġlonger":3484,"Ġhappy":3485,"Ð½":3486,"Ġnumbers":3487,"ison":3488,"Ġconsumption":3489,"Ġpitching":3490,"Ġbasic":3491,"cts":3492,"put":3493,"Ġpartnership":3494,"Ġsquare":3495,"itize":3496,"Ġremember":3497,"you":3498,"Ġrid":3499,"ification":3500,"Ġphilippines":3501,".)":3502,"Ġcell":3503,"allen":3504,"Ġ12":3505,"Ġrules":3506,"Ġpercentage":3507,"icks":3508,"Ġtherap":3509,"Ġton":3510,"Ġdig":3511,"Ġbeg":3512,"gets":3513,"ners":3514,"Ġgps":3515,"Ġconf":3516,"Ġconver":3517,"style":3518,"Ġorganized":3519,"cle":3520,"Ġnote":3521,"Ġresearchers":3522,"Ġacceler":3523,"made":3524,"Ġage":3525,"Ġnative":3526,"Ġplug":3527,"Ġguess":3528,"Ġemerging":3529,"Ġvehicle":3530,"nia":3531,"Ġgar":3532,"Ġalright":3533,"ples":3534,"elling":3535,"Ġextension":3536,"Ġhosting":3537,"Ġbirth":3538,"Ġchoice":3539,"Ġchronic":3540,"Ġgraph":3541,"Ġgrown":3542,"Ġcompar":3543,"Ġfine":3544,"Ġbed":3545,"reet":3546,"abet":3547,"there":3548,"ape":3549,"Ġmembership":3550,"Ġmillions":3551,"Ġswe":3552,"Ġcoverage":3553,"Ġcommission":3554,"Ġjoin":3555,"learning":3556,"Ġseekers":3557,"Ġcenters":3558,"Ġspreadsh":3559,"200":3560,"Ġwanna":3561,"Ġrecip":3562,"Ġsalesforce":3563,"Ġseeing":3564,"Ġsize":3565,"Ġbars":3566,"Ġpromot":3567,"Ġmentors":3568,"attle":3569,"izable":3570,"Ġspare":3571,"Ġhouses":3572,"Ġnurses":3573,"Ġinnov":3574,"Ġlatin":3575,"iters":3576,"Ġmot":3577,"Ġmain":3578,"Ġfacilit":3579,"Ġbattery":3580,"uel":3581,"Ġmanages":3582,"Ġtrue":3583,"Ġencour":3584,"Ġlifestyle":3585,"Ġpros":3586,"uck":3587,"Ġadjust":3588,"Ġfair":3589,"Ġdisp":3590,"Ġformat":3591,"Ġcross":3592,"itz":3593,"oses":3594,"backed":3595,"Ġcart":3596,"Ġwire":3597,"ney":3598,"Ġwarehouse":3599,"iety":3600,"Ġdraw":3601,"Ġchannel":3602,"Ġgeneral":3603,"Ġmeaning":3604,"Ġdiagn":3605,"dddd":3606,"Ġcurated":3607,"Ġvalley":3608,"Ġcycle":3609,"Ġweather":3610,"Ġphoe":3611,"Ġcarbon":3612,"Ġclasses":3613,"Ġthermost":3614,"Ġwed":3615,"istic":3616,"Ġutility":3617,"Ġclick":3618,"Ġoffline":3619,"Ġanswers":3620,"Ġencrypt":3621,"Ġwall":3622,"Ġframe":3623,"Ġcarp":3624,"Ġidentity":3625,"Ġpam":3626,"Ġgas":3627,"Ġpurchasing":3628,"Ġresume":3629,"Ġsustainable":3630,"Ġeating":3631,"Ġeventually":3632,"Ġmerchandise":3633,"Ġtex":3634,"cccccccc":3635,"Ġmillennials":3636,"ets":3637,"Ġcomputers":3638,"Ġerr":3639,"ÑĢ":3640,"Ġath":3641,"Ġcro":3642,"Ġtap":3643,"Ġmonitors":3644,"Ġcoordinate":3645,"Ġfight":3646,"Ġworkforce":3647,"Ġdeliveries":3648,"Ġexact":3649,"Ġmiddleman":3650,"gy":3651,"Ġumm":3652,"Ġcontain":3653,"Ġexpress":3654,"Ġinvolved":3655,"Ġmexico":3656,"ither":3657,"Ġenterprises":3658,"Ġadding":3659,"Ġaggregates":3660,"Ġarticles":3661,"ike":3662,"Ġfle":3663,"Ġappli":3664,"Ġprinter":3665,"Ġmoment":3666,"level":3667,"Ġwilling":3668,"Ġcommunications":3669,"Ġanalyzes":3670,"Ġboo":3671,"Ġinbox":3672,"Ġblind":3673,"Ġinternationally":3674,"design":3675,"Ġnegot":3676,"Ġcustomizable":3677,"Ġ25":3678,"Ġchallen":3679,"Ġfunctional":3680,"ifor":3681,"Ġmatter":3682,"Ġdead":3683,"Ġintuit":3684,"Ġcases":3685,"Ġpy":3686,"Ġgym":3687,"Ġcalifor":3688,"Ġeyes":3689,"Ġtail":3690,"only":3691,"Ġpoor":3692,"Ġtemper":3693,"Ġupdates":3694,"Ġpodcast":3695,"Ġinstantly":3696,"Ġcalifornia":3697,"sing":3698,"Ġfly":3699,"iful":3700,"Ġagre":3701,"anging":3702,"atives":3703,"ana":3704,"road":3705,"Ġlock":3706,"Ġsensor":3707,"scale":3708,"Ġ...":3709,"Ġautonom":3710,"ief":3711,"Ġduring":3712,"Ġscal":3713,"Ġstudy":3714,"Ġphoebe":3715,"pping":3716,"Ġsets":3717,"rect":3718,"astic":3719,"Ġmount":3720,"oss":3721,"Ġregular":3722,"Ġacquis":3723,"gth":3724,"income":3725,"Ġmech":3726,"Ġmaps":3727,"Ġpush":3728,"Ġjuly":3729,"encing":3730,"Ġinformed":3731,"Ġfunn":3732,"bed":3733,"Ġemph":3734,"Ġholy":3735,"Ġtotal":3736,"Ġdise":3737,"Ġdonations":3738,"Ġimproving":3739,"Ġreceip":3740,"Ġathlet":3741,"Ġcow":3742,"Ġlond":3743,"acks":3744,"ifies":3745,"Ġentertain":3746,"akers":3747,"Ġsurveys":3748,"Ġbeautiful":3749,"Ġinstitutions":3750,"Ġlondon":3751,"ored":3752,"Ġdrone":3753,"Ġcutting":3754,"Ġaustral":3755,"Ġmechan":3756,"Ġemphas":3757,"gener":3758,"la":3759,"Ġ&":3760,"Ġplum":3761,"Ġtrips":3762,"Ġchance":3763,"cont":3764,"Ġtin":3765,"amp":3766,"Ġcanc":3767,"Ġneeding":3768,"Ġpurpose":3769,"ourcing":3770,"Ġelectron":3771,"Ġacquired":3772,"Ġht":3773,"Ġisn":3774,"ended":3775,"Ġbrain":3776,"Ġneeded":3777,"eets":3778,"Ġveter":3779,"Ġcapture":3780,"Ġreservations":3781,"Ġtag":3782,"Ġgone":3783,"Ġrepresent":3784,"Ġfear":3785,"Ġhospitality":3786,"Ġaudience":3787,"Ġhuh":3788,"wide":3789,"onds":3790,"Ġmorning":3791,"oms":3792,"Ġethere":3793,"Ġexpanding":3794,"Ġattention":3795,"Ġanalyzing":3796,"Ġfall":3797,"Ġhack":3798,"Ġcomfort":3799,"Ġautonomous":3800,"Ġethereum":3801,"Ġach":3802,"Ġmark":3803,"Ġbutton":3804,"Ġ300":3805,"Ġcollects":3806,"Ġincreasing":3807,"Ġlatest":3808,"Ġaugust":3809,"Ġadministr":3810,"Ġmag":3811,"order":3812,"Ġkeeps":3813,"Ġfully":3814,"Ġcompre":3815,"Ġwaiting":3816,"Ġ19":3817,"Ġillness":3818,"ned":3819,"ategor":3820,"hia":3821,"vis":3822,"Ġpizz":3823,"Ġhosts":3824,"Ġhigher":3825,"Ġdetails":3826,"Ð¾Ð":3827,"nam":3828,"Ġtast":3829,"Ġbag":3830,"owers":3831,"amless":3832,"Ġvisualization":3833,"Ġteaching":3834,"Ġdiscuss":3835,"Ġthinking":3836,"erman":3837,"Ġalexa":3838,"icon":3839,"elphia":3840,"Ġpets":3841,"adelphia":3842,"Ġbrick":3843,"Ġculture":3844,"Ġreceived":3845,"cons":3846,"Ġx":3847,"Ġcarr":3848,"Ġphiladelphia":3849,"Ġpries":3850,"Ġuniversities":3851,"Ġfunctions":3852,"ged":3853,"Ġcategor":3854,"Ġwash":3855,"Ġresource":3856,"Ġtemplates":3857,"Ġcompreh":3858,"words":3859,"Ġabroad":3860,"ense":3861,"Ġprepar":3862,"Ġchecking":3863,"Ġcouple":3864,"Ġwedding":3865,"ilt":3866,"Ġgen":3867,"Ġpractice":3868,"Ġtemperature":3869,"Ġathletes":3870,"Ġexercise":3871,"Ġpiece":3872,"Ġemphasis":3873,"ux":3874,"inter":3875,"Ġcup":3876,"Ġcondition":3877,"Ġwhom":3878,"Ġvert":3879,"priet":3880,"Ġtechnologies":3881,"itten":3882,"build":3883,"300":3884,"ls":3885,"employ":3886,"Ġprim":3887,"Ġtechnical":3888,"inating":3889,"Ġwi":3890,"Ġstrategy":3891,"Ġlinks":3892,"Ġadop":3893,"Ġmachines":3894,"Ġgerman":3895,"entic":3896,"ted":3897,"Ġsym":3898,"Ġhappening":3899,"ear":3900,"Ġsmbs":3901,"Ġperfect":3902,"Ġwalk":3903,"Ġdinner":3904,"Ġpropriet":3905,"Ġasia":3906,"Ġarch":3907,"Ġoperates":3908,"Ġequity":3909,"Ġfixed":3910,"Ġdropbox":3911,"ilitary":3912,"Ġentertainment":3913,"Ġworkout":3914,"Ġqual":3915,"Ġseparate":3916,"Ġcomprehensive":3917,"mobile":3918,"Ġeast":3919,"Ġlevels":3920,"Ġthousand":3921,"thon":3922,"Ġconnections":3923,"Ġcameras":3924,"Ġcorrect":3925,"Ġtrucks":3926,"Ġphotographers":3927,"Ġtom":3928,"Ġstocks":3929,"Ġblack":3930,"Ġmit":3931,"Ġnetflix":3932,"Ġdelivering":3933,"Ġpretty":3934,"ung":3935,"Ġkick":3936,"Ġphysicians":3937,"Ġcrypto":3938,"Ġsex":3939,"Ġvisually":3940,"set":3941,"Ġfa":3942,"Ġgold":3943,"Ġ24":3944,"Ġground":3945,"light":3946,"Ġstyle":3947,"ured":3948,"Ġairline":3949,"Ġverify":3950,"Ġreliable":3951,"Ġadvance":3952,"Ġemergency":3953,"Ġfootprint":3954,"Ġexpertise":3955,"vent":3956,"Ġinstance":3957,"Ġwriters":3958,"iveness":3959,"Ġaustralia":3960,"Ġmilitary":3961,"Ġseamless":3962,"Ġapr":3963,"aged":3964,"Ġperio":3965,"Ġpan":3966,"icals":3967,"Ġterms":3968,"Ġpizza":3969,"Ġtold":3970,"key":3971,"Ġrobots":3972,"Ġorganizers":3973,"Ġproprietary":3974,"Ġded":3975,"ecess":3976,"Ġputting":3977,"Ġchefs":3978,"Ġdiabet":3979,"Ġsouth":3980,"Ġnamed":3981,"ele":3982,"Ġproducers":3983,"Ġminute":3984,"Ġrecommendation":3985,"Ġintuitive":3986,"ext":3987,"¿½":3988,"ï¿½":3989,"Ġball":3990,"ump":3991,"Ġlisting":3992,"Ġhoping":3993,"Ġjudah":3994,"Ġachie":3995,"drop":3996,"Ġeither":3997,"Ġcompon":3998,"Ġvi":3999,"osit":4000,"Ġstripe":4001,"Ġstick":4002,"hu":4003,"Ġroll":4004,"Ġeditor":4005,"Ġstudio":4006,"Ġpairs":4007,"keeping":4008,"reds":4009,"places":4010,"ably":4011,"ulation":4012,"Ġbots":4013,"Ġprivacy":4014,"Ġtaxi":4015,"Ġpython":4016,"Ġtraveling":4017,"Ġsoon":4018,"Ġscre":4019,"Ġdescribe":4020,"Ġleaving":4021,"undry":4022,"Ġshopify":4023,"Ġprinted":4024,"Ġcoaching":4025,"Ġrecipes":4026,"Ġstreet":4027,"Ġmode":4028,"Ġfilter":4029,"Ġcompetitor":4030,"Ġpolicy":4031,"15":4032,"Ġdrones":4033,"Ġcolleges":4034,"wr":4035,"Ġrely":4036,"Ġyourself":4037,"Ġsuper":4038,"Ġimplement":4039,"Ġreleased":4040,"Ġfactors":4041,"--":4042,"Ġterm":4043,"icts":4044,"Ġgather":4045,"Ġofferings":4046,"Ġappointment":4047,"Ġannoun":4048,"Ġprob":4049,"Ġwireless":4050,"Ġoperate":4051,"Ġmail":4052,"Ġque":4053,"Ġeliminate":4054,"Ġjanuary":4055,"pects":4056,"iled":4057,"Ġrecording":4058,"Ġbeauty":4059,"over":4060,"Ġmaker":4061,"Ġhear":4062,"Ġemot":4063,"Ġunbanked":4064,"Ġapis":4065,"ball":4066,"ded":4067,"ocol":4068,"Ġwealth":4069,"Ġcommerce":4070,"Ġweeks":4071,"Ġtranslate":4072,"chec":4073,"ifically":4074,"Ġcurrencies":4075,"Ġcooking":4076,"me":4077,"Ġbac":4078,"Ġmoses":4079,"eless":4080,"Ġstages":4081,"Ġlay":4082,"Ġdar":4083,"Ġconferences":4084,"Ġlabel":4085,"Ġbegin":4086,"land":4087,"ided":4088,"Ġdeep":4089,"Ġfinds":4090,"grade":4091,"paid":4092,"Ġcontractor":4093,"Ġwalmart":4094,"Ġsitu":4095},"merges":["Ġ t","Ġ a","Ġt h","i n","Ġ s","a t","Ġth e","e r","Ġ c","o r","e s","Ġ p","a n","Ġt o","Ġ f","Ġ w","o n","a r","n d","in g","Ġ b","i t","Ġ m","Ġ h","Ġa nd","r e","o m","Ġ o","e n","a l","Ġth at","i s","e l","Ġ in","u s","Ġ d","l e","o u","Ġs t","Ġf or","e d","ar t","u p","er s","i c","Ġo f","i l","t s","â Ģ","Ġc om","r o","i r","Ġst art","Ġstart up","a s","Ġ e","Ġ l","Ġcom p","e t","Ġthe ir","Ġ g","el p","Ġh elp","Ġcomp an","Ġ y","a c","i on","Ġ is","it h","Ġ on","Ġw ith","Ġb u","en t","Ġ n","Ġp l","Ġ it","Ġp ro","Ġy ou","âĢ Ļ","i d","f or","Ġ re","es s","a y","o p","o w","for m","Ġ us","Ġw h","o l","a g","k e","e c","Ġa l","v e","at form","Ġpl atform","Ġcompan y","i g","Ġbu il","i es","u r","t h","i m","Ġa n","Ġbuil d","p p","Ġp e","Ġhelp s","l y","Ġ r","o c","op le","u t","Ġpe ople","Ġc on","at e","o o","c h","a m","Ġm an","ag e","Ġm a","Ġa pp","Ġt r","Ġ v","s t","us t","c e","Ġal l","es t","at ion","or k","ar e","Ġb e","o t","Ġf r","v ic","v er","Ġc re","t er","Ġcompan ies","Ġ le","id e","Ġc an","Ġthe y","Ġn e","Ġw an","Ġ i","in ess","Ġb us","u c","Ġbus iness","a d","p l","Ġbuild ing","u n","el l","Ġs er","en ts","Ġs h","in e","Ġman age","il l","Ġthe m","Ġf in","ac k","Ġ or","Ġth is","Ġl i","a b","Ġd e","an d","Ġto ol","Ġall ow","Ġc h","or e","ust om","Ġc ustom","Ġser vic","Ġ âĢ","Ġb y","o s","Ġw ork","on e","Ġyou r","Ġfr om","i al","Ġa c","Ġa s","Ġs o","e m","d uc","Ġm o","âĢ Ŀ","ĠâĢ ľ","Ġa re","n t","Ġpro duc","oo k","Ġh a","Ġwan ts","Ġm ar","Ġma ke","Ġs e","Ġw e","m ent","Ġh e","Ġe m","ac e","i v","Ġd at","Ġus ers","Ġs m","Ġe x","Ġh as","u m","k et","0 0","Ġm ore","Ġbusiness es","i z","al l","Ġ j","Ġmar ket","ec t","it y","ig h","u l","f t","Ġg et","Ġfin d","Ġdat a","Ġp ay","Ġallow s","i ve","Ġli ke","th er","is t","Ġpro v","Ġw ay","i f","Ġe as","Ġc l","w are","o y","Ġha ve","Ġs ell","l ine","u d","Ġne w","ar d","a il","i le","c ess","Ġtr ack","Ġm e","Ġservic e","Ġp h","v el","as ed","Ġwh o","ou nd","Ġin t","or s","it al","Ġcre ate","a in","Ġd o","i p","an s","Ġso ft","pl oy","om e","Ġg o","Ġsoft ware","ac h","Ġs p","i a","Ġon line","Ġo ther","ou t","l d","u re","Ġp r","Ġof f","Ġcon t","e nd","q u","Ġcustom ers","Ġem ploy","Ġ k","ic h","u nd","ig n","Ġt e","an t","Ġb r","er e","ac t","p er","w n","Ġa t","Ġsm all","Ġ en","Ġo ut","Ġprov id","an ce","Ġ $","Ġb et","oo d","Ġt a","Ġa d","Ġwh at","ion s","Ġ up","Ġcon n","Ġwh ich","Ġin ter","im e","ig ital","Ġs a","Ġa b","Ġ ide","igh t","ic al","Ġc ur","Ġin v","ab le","Ġo wn","b s","Ġm ed","Ġs ay","Ġproduc t","ation s","Ġw ill","Ġbu t","Ġus e","an c","Ġd igital","b ile","i re","Ġemploy e","al th","g e","k ing","Ġf e","Ġmo bile","Ġide a","ers on","Ġs y","oc ial","u al","ing s","or t","Ġcur re","g r","ou r","r ou","f f","Ġin d","it e","Ġhe alth","Ġc o","Ġbu y","g h","Ġre c","i er","Ġa r","vel op","Ġre al","st em","' s","Ġs ocial","Ġin c","Ġde velop","r y","Ġd es","Ġproduc ts","Ġv ide","oc us","Ġcurre nt","Ġsy stem","Ġa im","m ents","Ġn ot","or d","p t","Ġle ts","Ġh ow","Ġa ut","k es","Ġp erson","Ġl ook","k s","Ġm on","Ġpro cess","Ġcom m","ver y","Ġf ocus","Ġservic es","ar n","en ce","d it","b ased","Ġw as","ec h","w ork","Ġint o",". .","ro w","Ġcurrent ly","e p","one y","Ġemploye es","u b","Ġon e","Ġthe n","o us","Ġc ol","Ġeas ier","im p","Ġt ime","en s","Ġh ome","Ġaut om","Ġm oney","Ġac c","at es","am e","Ġo ver","Ġwan t","Ġprovid es","Ġte am","Ġne ed","Ġl oc","ou nt","Ġconn ect","Ġs c","Ġre t","Ġsh are","o g","Ġf ound","Ġdes ign","Ġwh ere","Ġit s","Ġ 2","ill ion","Ġl a","i b","Ġwork ing","Ġbet ter","Ġab out","Ġn et","pl ace","a p","Ġaim s","el i","Ġle arn","rou gh","Ġs al","ec ts","Ġus ing","Ġj o","Ġth rough","Ġe v","Ġc ar","Ġcre dit","Ġf re","Ġ qu","Ġa i","f er","l ud","at ing","c t","Ġn o","ag ing","Ġw or","Ġcon s","Ġinc lud","Ġa m","Ġ 1","Ġnet work","Ġp re","s o","an ts","Ġt ech","i ents","00 0","as e","re ad","Ġlook ing","Ġa g","Ġmarket ing","t ing","i ent","Ġr est","Ġs u","Ġcustom er","Ġvide o","Ġin s","Ġcomm un","Ġr es","Ġfin anc","en c","Ġinv est","Ġb ook","Ġp art","Ġ un","ou ld","Ġc ard","ic e","Ġcont ent","Ġan y","Ġma kes","at ed","Ġex p","Ġth an","Ġhelp ing","Ġal so","iz e","i e","and s","Ġperson al","Ġd on","Ġd oc","Ġsay s","Ġb est","iz ed","Ġs up","Ġus es","v ing","h er","ion al","as t","Ġd eli","n ow","Ġ ro","Ġm illion","Ġy e","Ġd r","Ġus ed","a ur","Ġrest aur","read y","d er","Ġret ail","Ġal ready","Ġwor ld","Ġpro f","Ġb ased","Ġta ke","Ġwe b","Ġmed ia","Ġf und","Ġs ol","Ġf ood","Ġsal es","Ġl o","s e","Ġmarket place","ow er","Ġ imp","or y","Ġr ight","is e","un ch","Ġsm art","Ġwh en","in t","Ġcons um","g et","Ġp er","Ġm y","Ġse e","Ġwe bs","Ġallow ing","Ġs ec","Ġ ke","Ġ ent","Ġac cess","b o","Ġe ff","Ġp at","Ġf ir","ic k","d e","Ġst ud","Ġs ch","Ġde vic","Ġph one","Ġtr ans","Ġinclud ing","Ġb l","Ġb an","x t","Ġeas y","Ġtool s","Ġp o","Ġin st","Ġk now","g an","it ies","Ġapp s","Ġd ec","in d","Ġbuil t","Ġr a","Ġ und","Ġd is","l ic","Ġse nd","Ġex per","Ġwith out","as h","Ġla unch","Ġ2 0","Ġstartup s","Ġor gan","os e","Ġj ust","ag es","Ġoff er","Ġth ings","Ġmon th","Ġw ell","Ġen g","y s","i end","Ġins ur","Ġtr a","Ġp a","Ġmanage ment","Ġloc al","Ġm ess","c o","Ġas s","Ġpro gr","p r","Ġlearn ing","c r","om m","it s","ar ch","Ġd if","u e","Ġfinanc ial","Ġsup p","l es","Ġg ood","if ic","b er","il y","Ġe very","Ġtech n","Ġm ach","Ġinsur ance","ul t","Ġind ust","Ġch at","Ġ u","Ġ 3","a v","Ġpay ments","Ġb o","Ġle t","Ġbe en","ic s","i ence","ol og","Ġbr ands","t ion","Ġsh ar","Ġar t","Ġdoc t","Ġre v","b ook","Ġsh op","l o","Ġoff ers","Ġem ail","Ġpl an","p e","Ġi f","le d","Ġmach ine","Ġdif fer","Ġs et","Ġke ep","p h","Ġin form","Ġfir st","Ġan al","Ġc are","Ġrestaur ants","Ġretail ers","Ġman aging","t ual","oc k","re n","Ġt w","Ġfound ers","Ġ (","on g","Ġv is","in k","Ġtechn olog","Ġre m","at ch","Ġconn ects","a h","Ġinter n","s s","Ġtra vel","Ġor der","Ġb ack","Ġfr iend","an g","Ġthe re","Ġo h","Ġg iv","' t","Ġprov ide",".. .","Ġdiffer ent","Ġ el","ab or","Ġf ace","al s","is h","Ġindust ry","l l","Ġre nt","Ġc am","if y","is ts","Ġmed ical","Ġl ist","Ġconsum ers","Ġc al","Ġs ing","Ġcl ients","Ġinform ation","Ġst or","Ġpro j","Ġteam s","Ġcol le","ur n","Ġtechnolog y","Ġdevelop ers","ou n","Ġprogr am","p a","w e","Ġma king","ie w","Ġdeli very","Ġfund ing","it es","Ġra is","Ġmo d","ou d","Ġg row","ow n","Ġg ive","el y","Ġacc ount","Ġcre ating","Ġcom b","Â ł","Ġcont r","Ġanal y","Ġfre e","Ġeff ic","Ġ20 1","Ġmo st","Ġh is","Ġa v","Ġph ot","Ġye ar","Ġpl ace","Ġsell ing","a z","Ġpl ans","Ġfocus ed","Ġa p","Ġr un","Ġjo b","Ġstud ents","ar y","Ġe ach","Ġcol l","Ġbr ing","Ġass ist","Ġsing le","at ive","t o","ical ly","Ġund ers","Ġrais ed","Ġ est","Ġst ore","Ġv ia","Ġt al","el s","Ġt as","l i","ic t","Ġcomb in","Ġp ur","Ġcl oud","Ġp ub","Ġfriend s","Ġd ire","Ġtr ad","h ip","Ġprof ess","Ġa f","v es","Ġs ome","Ġface book","Ġdire ct","Ġimp ro","Ġo k","Ġunders t","ro ss","Ġcommun ic","ut ion","u ch","Ġf l","Ġwebs ite","m s","ar ge","Ġunderst and","th ing","ur es","Ġcoll abor","cr ip","as s","âĢĿ .","us e","Ġprofess ional","Ġs ame","Ġh ous","Ġsa as","ib le","oun ts","Ġ ed","ir tual","r a","Ġw ould","Ġar ound","u it","Ġn ow","il ity","Ġo p","it or","Ġh igh","iv ers","Ġh ire","Ġw r","Ġg u","Ġth ose","Ġdoct ors","t ime","Ġeffic ient","Ġp ar","Ġb ec","Ġs im","re am","Ġsch ed","Ġshar ing","Ġapp lic","Ġn um","el f","bo ard","Ġse arch","Ġo pt","f e","re at","Ġit em","Ġme ant","en er","Ġd ay","Ġc all","Ġv irtual","Ġdesign ed","Ġgo al","e gr","Ġwork s","n ing","Ġexper ience","Ġassist ant","Ġf am","Ġfre el","Ġcommun ity","id ent","Ġac ross","Ġpay ment","Ġinv ent","Ġpat ients","Ġg rou","os ts","Ġgrou p","Ġimpro ve","our c","Ġm us","Ġvide os","Ġpur ch","Ġest ate","Ġop en","Ġint egr","Ġinvest ors","ar i","Ġsp end","c are","Ġsp ec","Ġha ving","Ġbuild s","Ġpart n","Ġdevic es","at or","er y","at er","Ġsu bs","Ġtas ks","f its","Ġeng ine","Ġdec is","i o","Ġmus ic","Ġre p","Ġinvent ory","Ġo per","an ge","er ce","Ġexp ens","er g","Ġent er","Ġev ents","b le","Ġorgan iz","o ol","Ġp ut","Ġh and","ower ed","Ġdevic e","Ġnum ber","ord s","l ow","d r","ot e","Ġph ys","we en","Ġac t","Ġb ill","ke ts","Ġpa id","Ġg r","Ġc ount","ic es","c omm","Ġav ail","Ġsa ve","ph one","Ġd own","Ġus er","Ġme et","r al","b ot","Ġban k","f r","Ġexp and","Ġbet ween","Ġh im","ir ing","Ġm ult","Ġst ream","Ġa ir","Ġmod el","Ġfe at","Ġye ah","Ġto get","Ġtoget her","on es","t y","n ess","Ġcom e","Ġte xt","Ġcontr act","le t","Ġacc ounts","Ġitem s","Ġmon itor","ist r","en ue","Ġam az","g le","Ġfor m","Ġg ener","Ġemploy ers","Ġl ord","Ġhealth care","Ġautom at","Ġdeli ver","Ġ ident","Ġch e","Ġper form","Ġd et","pa ign","Ġcam paign","Ġsol ution","Ġqu ick","Ġavail able","Ġvis ual","Ġneed s","Ġv ari","al e","Ġ 5","Ġtr y","' m","Ġemploye e","Ġrev enue","ar g","Ġrec r","l ish","it ch","ul ar","u ce","Ġautom ate","Ġsubs crip","comm erce","Ġh ad","Ġt y","Ġrecr uit","Ġok ay","d s","Ġli ve","Ġbl ock","igh ts","Ġst r","Ġpre d","ver t","Ġbe ing","Ġamaz on","Ġm ay","Ġc le","d uce","Ġsa id","on s","Ġm uch","a im","Ġwh ile","Ġs ign","Ġhous e","oo gle","Ġwork ers","at her","Ġdecis ions","Ġeas ily","Ġh er","Ġma de","a use","Ġsp ace","Ġf it","ch ain","Ġsh e","a k","Ġre ce","our ce","ell ig","th ers","Ġ im","Ġautomat ically","Ġk ind","b ers","Ġwebs ites","Ġh ot","Ġd id","Ġbuy ing","Ġte ach","Ġsec ure","Ġs imp","Ġh om","Ġtw o","âĢĿ ,","Ġre l","Ġpr es","et y","Ġch ain","Ġt urn","Ġtrack ing","Ġpr iv","Ġcl aim","Ġon ly","Ġphot os","Ġmonth ly","Ġcar s","p ro","Ġmess aging","Ġint ellig","Ġoffer ing","Ġse ed","Ġl arge","p owered","ro l","ur s","Ġn on","Ġdo es","Ġjo bs","Ġshop p","Ġw ere","Ġprovid ing","ul l","w ay","Ġb ig","Ġg ro","Ġ ve","Ġc ity","' re","Ġg oogle","Ġinter act","Ġintern et","s er","Ġh ard","Ġne xt","Ġpl ay","Ġh iring","in es","Ġap i","ar m","Ġblock chain","Ġm em","Ġtr ain","Ġcomp ut","Ġsupp ly","Ġphys ical","ab les","b r","Ġle g","Ġdevelop ing","as ter","Ġs l","Ġcard s","Ġsell s","Ġgood s","s h","Ġfe w","Ġco st","Ġli fe","Ġgo ing","r ies","en e","re e","Ġhe y","Ġsimp le","Ġto p","Ġpro ble","Ġta x","ip le","Ġcampaign s","Ġdirect ly","Ġcommunic ate","e e","ou gh","Ġo thers","Ġre ad","ation al","Ġpred ict","Ġev en","Ġintellig ence","Ġu k","ur ity","Ġfound ed","Ġg am","ac es","f ace","Ġd istr","Ġsch ool","n a","Ġtry ing","b ack","Ġm er","Ġenter pr","Ġt est","Ġw al","Ġc r","Ġc row","ent ral","o st","on d","Ġmult iple","for e","Ġsh ow","Ġproj ects","Ġstor es","Ġbet a","Ġp ort","Ġv ers","e ad","Ġsubscrip tion","Ġcolle ct","Ġb ro","Ġfe ed","Ġat t","u g","Ġquick ly","Ġto o","enc es","r uc","ar get","Ġcal led","Ġsupp ort","Ġth ink","Ġcont rol","it ional","lo b","Ġlo ans","Ġget ting","Ġbe fore","Ġh r","er t","Ġinter est","Ġman ag","Ġhom es","Ġgo d","il d","Ġt arget","Ġfam ily","ub er","Ġsec urity","enc y","Ġm in","Ġlaunch ed","t ics","Ġm atch","Ġp os","as es","il ar","Ġsmart phone","lob al","Ġident ify","Ġ \"","Ġcollabor ate","Ġanaly tics","Ġc osts","Ġh ere","Ġprofessional s","Ġt ell","Ġh um","ter n","Ġdo ing","Ġtrad itional","vic e","Ġsim ilar","Ġad vert","Ġc ould","Ġpriv ate","f ul","Ġc ap","Ġrestaur ant","Ġad v","Ġg lobal","Ġown ers","ry pt","ourc es","Ġclaim s","v ers","is s","ce pt","at h","o ice","Ġsu ch","Ġloc ation","Ġco de","iv id","c on","Ġg ame","Ġch ec","Ġab le","Ġe ar","Ġd ash","Ġchat bot","Ġleg al","Ġproj ect","Ġp ower","Ġare a","ic ro","Ġg reat","Ġind ia","w ard","f act","i x","Ġs ens","c y","Ġconnect ing","p ar","Ġdevelop ment","it ing","ivid ual","Ġdistr ib","Ġpersonal ized","Ġban ks","Ġvers ion","Ġb ene","Ġsystem s","Ġf aster","Ġs ite","r ic","Ġind ividual","es ts","Ġgro c","Ġta kes","Ġdash board","Ġanaly z","Ġrec omm","i pp","Ġrecomm end","it t","Ġbr and","Ġag ain","Ġl ow","Ġprovid ers","Ġcle an","Ġt ic","Ġl and",". âĢĿ","dr iv","Ġorgan ize","ro ll","os p","Ġre qu","Ġf un","Ġbe h","Ġfreel anc","Ġenterpr ise","Ġel ect","Ġaf ter","Ġpr om","Ġs an","ific ial","Ġbec ause","Ġperform ance","Ġinter face","Ġnew s","Ġpub lish","Ġsched ul","o int","ent ial","Ġro om","Ġart ificial","Ġsl ack","Ġcontract ors","Ġcombin ator","g or","ol d","Ġrev iew","Ġexpens es","Ġcan d","Ġh osp","Ġhosp ital","Ġshopp ing","Ġv al","Ġad s","ver n","Ġmer ch","our s","Ġ uber","d em","Ġf il","ar s","re p","Ġre g","Ġs ure","Ġplatform s","ang u","Ġpat ient","or ts","is co","Ġeff ect","Ġrem ote","et h","Ġen ables","Ġadvert is","Ġoff ice","d ay","Ġ z","an n","Ġg ot","Ġcomp et","erg y","Ġde al","Ġman u","i um","Ġl ess","Ġmanu fact","Ġpo st","ren e","Ġc ut","er m","Ġgo vern","Ġen ergy","Ġfreelanc ers","dem and","Ġpro per","Ġfr anc","Ġcomput er","Ġqu est","Ġm icro","v ed","at ors","th e","rep rene","Ġl angu","Ġfranc isco","le x","Ġinst ead","e arch","Ġmem bers","Ġfind ing","al ity","Ġpub lic","Ġent reprene","lo ad","Ġtrans act","Ġgiv ing","Ġcand id","Ġman y","Ġres earch","Ġh op","Ġre duce","entral ized","Ġcount ries","a ve","Ġev ent","Ġfeed back","Ġc ash","Ġbene fits","Ġl ot","Ġs elf","it ion","t e","c c","Ġad d","Ġag ents","iv ity","Ġlo an","Ġs in","p s","Ġreal ly","Ġspend ing","ap h","o ther","Ġapp oint","i an","Ġpr ice","Ġsh ould","li ke","Ġst ill","Ġch ild","Ġbo th","w h","Ġany one","Ġthe se","Ġwh y","Ġopt im","u le","Ġw om","Ġevery thing","Ġhum an","Ġr ound","i ed","Ġab ility","Ġinc re","Ġf ol","Ġy ork","Ġdesign ers","Ġan other","Ġf ull","ut e","Ġst ay","Ġc rypt","hip s","Ġcre ates","Ġsp e","Ġ1 0","Ġmanufact ur","Ġl ong","Ġfeat ures","Ġdat ab","s w","Ġpartn ers","Ġne ar","Ġle nd","ĠâĢ Ķ","u es","Ġde als","Ġcap ital","Ġfinanc es","Ġorganiz ations","Ġapp ro","Ġha pp","Ġtal ent","Ġfe e","i ous","Ġspec ific","Ġex ist","Ġrel ations","d y","Ġch arg","Ġd one","Ġc ities","Ġe nd","Ġu h","Ġgiv es","Ġentreprene urs","Ġvari ety","Ġb it","Ġapplic ation","Ġautom ated","c om","ac ts","Ġta king","i or","f ol","Ġphot o","Ġbuy ers","Ġund er","Ġbill s","Ġpro t","Ġp op","m art","Ġme an","Ġgam es","Ġdoct or","Ġinvest ment","r am","Ġan sw","Ġmo ve","on na","Ġf arm","for d","Ġal gor","Ġg onna","Ġrece ive","Ġalgor ith","Ġpa per","Ġpos s","ar ing","Ġde p","Ġl ink","n e","Ġfol low","Ġl og","Ġdatab ase","Ġpay roll","Ġpre v","Ġpurch ase","Ġv ent","Ġm en","d ers","Ġcandid ates","Ġhard ware","Ġsell ers","Ġprof it","Ġchec k","Ġport fol","Ġw a","Ġp itch","Ġart ists","Ġs k","Ġla w","Ġear ly","Ġaccount ing","b e","Ġrec ords","Ġexist ing","l ess","Ġeng age","Ġed uc","Ġb as","Ġsome one","s el","Ġapplic ations","ag ram","Ġr is","Ġtic kets","Ġt im","Ġsched ule","Ġfit ness","p erson","Ġpartn er","Ġconsum er","Ġaf ford","Ġs ur","Ġm id","Ġinst agram","Ġproble m","u ts","Ġme as","Ġc a","Ġrec ord","Ġs om","Ġo ld","Ġ 4","Ġres p","Ġdis co","Ġph ones","Ġdr ivers","Ġde m","Ġor ders","f l","ire d","Ġfin ance","Ġ1 00","Ġv oice","it ed","Ġappoint ments","Ġsc ale","Ġmanag ers","Ġf ut","Ġsup pl","Ġe qu","ff ee","um ents","driv en","Ġpay ing","Ġde b","Ġk id","Ġv ery","Ġ Ċ","Ġtrain ing","Ġty pe","Ġco ffee","ir d","Ġwr ite","Ġyear s","Ġb illion","Ġp ot","Ġcrow d","Ġmess ages","Ġcam er","ur ren","Ġwe e","k en","Ġr ate","Ġcl ass","Ġg e","Ġal tern","Ġdis c","Ġfut ure","Ġoper ations","Ġtrack s","b y","oc urren","Ġcon c","Ġposs ible","ial s","Ġgrow ing","Ġpar ents","Ġfreel ance","Ġp ack","ver age","f und","Ġcrypt ocurren","Ġch ann","Ġa ud","Ġform er","Ġmar kets","i ers","Ġr ide","sel ves","enc ies","Ġy es","it ter","er ic","Ġrep ort","Ġschedul ing","t en","Ġsu ite","Ġlaunch ing","Ġb i","Ġv iew","Ġle ad","5 0","Ġo ur","Ġra ise","Ġexper i","Ġpr in","i el","Ġc or","Ġr ather","Ġp ol","Ġstud ent","Ġma int","Ġsin ce","Ġh ist","Ġbook ing","k er","Ġb row","Ġcomp let","av or","y c","Ġn ame","k ers","ir on","Ġwom en","Ġa way","Ġth ree","Ġfarm ers","a pp","Ġen v","2 0","Ġagain st","Ġqu ality","Ġprogram s","Ġd i","Ġmerch ants","Ġex t","Ġk ing","itt le","Ġlangu age","pro fits","Ġthem selves","ail y","Ġp ast","Ġintern ational","Ġl ittle","Ġplan ning","r ing","Ġpot ential","Ġquest ions","Ġty p","Ġd aily","Ġc ent","i ans","ut ions","Ġcl o","Ġgovern ment","Ġprofit able","ruc t","Ġaltern ative","Ġsh ipp","Ġf avor","Ġac cept","Ġteach ers","Ġhot els","id es","Ġre place","Ġhe ad","ro p","s mart","Ġdoc uments","l ing","Ġlet ting","Ġth ough","Ġbook s","ward s","Ġide as","Ġanalyz e","Ġsom eth","Ġam eric","Ġcall s","Ġag encies","Ġdec entralized","Ġtransact ions","k ed","il ities","Ġcolle ge","r on","re en","Ġshar ed","Ġengine ers","Ġsometh ing","Ġris k","d le","Ġgiv en","b n","Ġcomp are","Ġex ch","Ġinv o","p le","Ġsc ience","m an","or row","Ġl ast","Ġis s","Ġres ources","Ġpurch ases","Ġafford able","Ġansw er","Ġt re","Ġimp ort","Ġbu d","ep end","Ġtim es","Ġmeet ings","Ġoptim ize","Ġre le","v en","Ġpo d","is es","a ir","Ġprogr ess","Ġind epend","Ġe arn","Ġac tual","Ġadvertis ing","Ġfavor ite","Ġenv iron","Ġc ert","Ġf ac","Ġli br","g er","Ġe t","Ġup load","se ts","Ġun ivers","a ud","Ġw atch","Ġh ost","Ġintegr ate","Ġbec ome","Ġchild ren","Ġo b","Ġexperi ences","Ġm ent","Ġcon fer","Ġindividual s","Ġp ick","on t","Ġlo ve","t ech","gr aph","Ġaim ed","ash ion","Ġfr aud","y le","Ġim ages","bn b","um m","Ġp ict","Ġ es","Ġd ate","Ġap art","Ġpl aces","a per","b an","Ġfound er","ur al","h ic","Ġsol ve","Ġs ource","ser vice","Ġc ame","ad e","Ġf act","Ġpod c","Ġindepend ent","Ġtrans par","Ġcl os","Ġve hic","n o","Ġwith in","Ġsh ort","Ġph il","Ġche aper","Ġth ing","Ġcal end","Ġof ten","Ġpop ular","i ft","Ġtw itter","1 0","Ġs ites","Ġincre ase","Ġbr ings","Ġs le","ro id","fl u","Ġw ater","con om","Ġf ashion","Ġconnect ed","Ġfeat ure","Ġmeas ure","Ġautom ation","Ġe conom","Ġl ower","Ġelect ric","Ġair bnb","n er","Ġdo or","Ġas sets","Ġprocess ing","cr ib","Ġis ra","er c","Ġopt ions","as ts","Ġser ies","Ġw ent","iv ely","Ġt em","Ġbeh av","Ġf ig","Ġb ot","Ġcon vers","Ġb re","Ġin flu","Ġcontr acts","Ġhand le","Ġs w","Ġw ord","f low","Ġapp ly","Ġrec ent","Ġnetwork s","Ġkid s","ut es","Ġand roid","Ġan n","Ġpar king","Ġch ange","i qu","Ġpr ices","Ġch ang","Ġpart ic","Ġlink ed","h ous","Ġfe el","Ġsal e","Ġcryptocurren cy","Ġet c","re d","Ġpe er","Ġrun ning","Ġappro ach","Ġisra el","p or","Ġefficient ly","f ound","Ġgroc ery","wh ere","Ġp le","Ġprocess es","Ġprogram m","Ġcamer a","u ff","Ġin fr","Ġspec ial","Ġex pl","Ġth ird","Ġfl ights","Ġs uc","Ġmess age","Ġsle ep","Ġreal ity","Ġre ach","Ġle vel","Ġmid dle","Ġli ving","ur ring","Ġwe ar","Ġexch ange","v iew","Ġs ent","Ġrecruit ers","Ġch arge","k now","Ġstart ed","Ġsim pl","Ġst ock","Ġvari ous","a ke","Ġp ain","Ġpo int","ic ing","Ġcon st","Ġi os","Ġdisco ver","Ġeduc ation","Ġpres ence","Ġmo v","o f","Ġproper ty","Ġenviron ment","b u","Ġ Ð","Ġclean ing","Ġam ount","in a","ruc tion","Ġdet ect","at s","Ġstream line","Ġve nd","n g","Ġaim ing","Ġs on","Ġmanufactur ers","Ġlibr ary","Ġaccess ible","f ir","Ġportfol io","Ġcre ators","Ġdes k","er ies","oo t","Ġrecommend ations","Ġcurre n","Ġhist ory","Ġb ar","j or","ill s","Ġfig ure","d ing","Ġl arg","Ġtal k","ruct ure","Ġdo g","Ġt v","Ġinclud e","Ġh ours","Ġdet erm","et her","Ġy c","it ors","Ġd el","Ġch ar","Ġrec urring","Ġgu ys","Ġrecruit ing","Ġgo als","Ġactual ly","Ġmarket ers","Ġfam il","v ant","Ġcert ain","Ġm ight","Ġma jor","Ġmod els","Ġinflu enc","Ġh ol","Ġwa it","Ġac qu","Ġcount ry","Ġch oo","Ġinfr ast","Ġhospital s","Ġon es","Ġfe es","Ġad vice","Ġchann els","Ġinfrast ructure","Ġent ire","iss ion","Ġc ook","Ġf ix","Ġst uff","Ġwh ether","Ġr ates","if ied","Ġhapp en","Ġre pa","Ġban king","Ġt reat","Ġlend ing","Ġcrowd fund","Ġbehav ior","Ġevery one","' ll","Ġt able","ip s","Ġe u","iv es","Ġs ide","d o","al ty","Ġshipp ing","c l","Ġwee k","o id","Ġpublish ers","Ġeffect ive","Ġvent ure","Ġsend s","Ġdistrib ut","Ġimport ant","al ly","Ġdep art","Ġacc ur","Ġhot el","Ġlinked in","re g","Ġb orrow","Ġst and","ate g","Ġcl ient","Ġwork flow","Ġbo x","Ġrepa ir","Ġcrow ds","Ġpr int","Ġhop es","s c","Ġc ou","bo x","Ġl oy","Ġcommunic ation","Ġinterest ed","Ġalgorith m","u th","Ġsa v","ff ic","Ġreview s","Ġmin utes","il es","for ce","Ġ201 9","Ġche ap","Ġwas te","Ġsec ond","Ġcomplet e","Ġan g","Ġcon dit","Ġinter view","av ig","Ġmed ium","Ġsc ore","Ġinclud es","Ġdeterm ine","Ġh ab","Ġ3 0","at ter","bo ts","Ġproble ms","ur ing","pe er","fr iend","Ġfun ct","fir st","Ġm ill","Ġcalend ar","Ġcre ative","Ġc our","Ġf ar","Ġsign ed","5 00","Ġo pp","Ġl ab","Ġrelations hips","Ġdoes n","Ġyou ng","Ġrem ot","Ġfocus es","eli e","m o","Ġsol d","Ġex am","Ġremot ely","Ġav oid","Ġchain s","Ġre wards","Ġm ater","ac y","Ġj our","em ber","Ġloy alty","Ġn avig","Ġmed ic","f it","Ġcharg es","Ġthe r","Ġcustom ized","Ġsend ing","Ġa h","Ġp il","Ġs or","Ġcr m","Ġpart s","Ġ5 0","Ġcrowdfund ing","Ġ ut","Ġto uch","as ing","iqu e","Ġway s","Ġrent al","r act","Ġcollabor ation","Ġh i","Ġ5 00","Ġ er","? !","e y","p ort","ual ly","Ġiss ues","Ġeu ro","Ġm et","Ġs ources","Ġsor ry","Ġl ight","Ġapp le","Ġon board","Ġg ave","Ġex ec","Ġsuc cess","Ġo uts","Ġf ast","Ġst op","st op","Ġdeliver ed","d d","Ġus age","hous e","a ut","g reg","t ions","i ate","Ġv ac","Ġple ase","d igital","Ġorder ing","Ġgroc eries","Ġbrow ser","iel d","Ġfund s","Ġsuppl iers","t ies","Ġany thing","Ġsens e","Ġb elie","Ġsav ings","Ġeuro pe","Ġb ab","Ġtrans l","Ġb ase","Ġfil es","in s","Ġm ich","Ġe ver","Ġgroup s","Ġc e","Ġmonth s","Ġli ves","Ġag greg","Ġke y","Ġins ights","Ġl at","iv ing","Ġe y","i ver","s elf","sh aring","Ġv et","Ġch ina","y m","Ġcompet e","a king","or ies","Ġen c","Ġtoo k","Ġlook s","Ġact ivity","Ġinfluenc ers","un e","Ġdid n","Ġadv is","Ġfamil ies","Ġne ver","Ġem erg","iz ing","Ġinvest ments","p ec","Ġmon et","Ġact iv","Ġchoo se","Ġas k","Ġcre ated","Ġf urn","us h","ip ment","Ġh ands","ub e","Ġinteract ive","Ġtest ing","Ġtarget ing","Ġfocus ing","i os","Ġstor ies","dr ess","! !","led ge","Ġengage ment","Ġvend ors","Ġd rop","it ure","Ġday s","ist ics","f in","g g","Ġhe art","Ġtax es","Ġsk ills","Ġpartic ular","Ġst a","Ð ¾","er ing","er ts","Ġle d","ro om","Ġinvo ices","Ġth ous","a el","Ġn at","1 00","Ġfurn iture","Ġdat ing","Ġrequ est","Ġbud get","Ġcombin ation","Ġh u","Ġe at","Ġlist en","Ġtyp es","Ġcomp lex","Ġinter ests","Ġto day","Ġl ine","Ġeconom y","o d","Ġf ill","en n","in ts","Ġconc ier","Ġcom ing","Ġproduct ivity","Ġwor th","iz ation","ourc ed","Ġshow s","Ġpro duce","Ġco ach","Ġany where","Ġc ours","Ġto wn","Ġm om","f for","Ġg l","Ġstor age","Ġcours es","Ġcre ation","pl ay","ect ed","ul ts","s ocial","Ġdr ive","Ġgener ation","Ġtre nd","Ġconcier ge","Ġemail s","cc cc","Ġf ile",", âĢĿ","Ġdeb t","Ġschool s","Ġare as","Ġup d","Ġ 6","Ġh und","Ġe ffor","ent ion","ph ones","Ġang el","t op","ip e","Ġp osts","Ġst ory","Ġad dress","Ġp ass","iz es","Ġf ans","Ġn ight","Ġse ver","pe ople","art h","Ġmo ving","Ġhab its","Ġtas k","m ed","in ate","Ġv er","Ġs ort","Ġactiv ities","Ġsc an","' ve","t r","Ġknow ledge","ial ly","Ġsa fe","Ġsay ing","Ġce o","Ġret urn","Ġval ue","Ġroom s","Ġproper ties","Ġob j","g es","il it","Ġmich ael","Ġrecent ly","Ġpart y","Ġturn s","Ġvehic les","Ġconst ruction","Ġli k","Ġret ire","Ġfl ight","Ġcent er","Ġbl og","Ġfl ow","Ġnear by","Ġam ong","c ome","k it","Ġequ ipment","Ġs ound","e x","Ġsol utions","Ġsc ient","Ġpre m","Ġspe ak","Ġbit co","Ġar r","Ġsc reen","Ġsever al","Ġbo ard","Ġback ed","Ġl abor","ab ility","Ġde ploy","Ġexpens ive","Ġgener ate","Ġcom es","Ġe arth","m in","ol l","Ġtrad e","Ġnavig ate","Ġb ad","c ent","Ġfir ms","Ġprev ious","Ġyou t","Ġmeet ing","Ġs ect","Ġr ange","Ġ201 8","friend ly","Ġwal let","Ġwear able","Ġs umm","Ġits elf","Ġsa ving","Ġcor por","r up","Ġbu r","Ġcurren cy","Ġf our","Ġg ift","ad a","Ġsy n","re l","Ġun ique","Ġbring ing","Ġintegr ates","Ġexam ple","Ġs el","at t","Ġcomm on","Ġprof ile","Ġyout ube","Ġst ep","Ġtravel ers","Ġprev ent","Ġdem and","Ġsta ff","Ġt el","Ġro ss","Ġmonitor ing","Ġp et","Ġp ull","Ġhas s","Ġwho le","Ġintegr ated","Ġsur ve","Ġretire ment","Ġse en","Ġ201 7","Ġmaint ain","Ġro bot","Ġwh ite","r ight","Ġgrow th","i ency","Ġcombin es","al f","Ġd av","Ġnot ific","Ġdesk top","Ġjour n","Ġk itch","Ġs it","Ġs ub","Ġnon profits","Ġ um","Ġa uth","Ġco ver","Ġhome own","Ġstart ing","Ġlaw y","Ġbitco in","anc es","Ġloc ations","Ġres um","Ġtra ffic","Ġed iting","Ġr ides","Ġf oot","Ġpodc asts","Ġsa f","Ġsol ar","Ġinst ant","Ġpil ot","Ġme al","way s","Ġb ay","Ġdevelop ed","u ment","Ġtrans fer",") .","re t","Ġpo ints","Ġbo dy","Ġopp ort","Ġsc r","Ġlist ings","Ġhass le","s ource","Ġimp act","er v","Ġdesign s","Ġlog istics","Ġd est","Ġvac ation","at ely","Ġbe aut","en ance","Ġst e","Ġj ud","Ġind ian","Ġthan k","Ð °","Ġadv ant","Ġdav id","Ġaud io","Ġapart ment","Ð µ","Ġv r","Ġprom ote","Ġrele vant","d es","or ing","Ġalgorith ms","Ġopport un","Ġread y","Ġs ou","Ġrelations hip","Ġstr ateg","ron ic","Ġsh ip","Ġtranspar ent","Ġmater ials","og n","Ġprin ting","Ġchang es","Ġeffic iency","Ġl in","Ġh ell","ic ult","Ġw ords","Ġstream ing","Ġbrand ed","Ġ 7","Ġst at","Ġrep orts","l er","Ġr out","Ġjourn al","Ġpr act","Ġlik ely","Ġta ken","bo dy","Ġle ave","Ġbi ke","t on","Ġm ort","ot y","Ġbl ood","Ġw ar","Ġintern al","Ġma p","pr int","Ġclo thing","Ġcour se","Ġsp ot","Ġprof iles","Ġthough t","or es","Ġst ates","Ġon ce","Ġrec ogn","Ġinvest ing","Ġfin tech","Ġpre fer","Ġpredict ive","Ġprot oty","g o","Ġtool kit","pec ially","l ist","Ġm ass","Ġ 8","Ġst age","Ġli f","Ġun ited","Ġgu y","Ġonboard ing","Ġadvant age","Ġl y","Ġmaint enance","s ized","Ġdr iver","Ġca pt","Ġoper ating","m m","Ġaut o","Ġf ive","Ġl ists","Ġhomeown ers","Ġf ul","Ġkeep ing","li ance","o ts","m on","Ġtr uc","Ġmonet ize","c ies","Ġrem ind","Ġa verage","Ġoff ices","Ġdevelop er","Ġcan n","Ġes pecially","Ġsens ors","m ost","Ġl ic","Ġn am","ter m","Ġne igh","Ġneigh b","ab ilities","le y","Ġel im","Ġsp read","Ġshopp ers","Ġprovid er","Ġp age","Ġw on","Ġp i","Ġr ul","Ġlic ens","Ġl os","ic a","rup t","Ġen able","Ġvis ion","Ġsimpl ify","f s","Ġ ess","Ġcan ada","Ġl im","Ġsu gg","Ġa ug","Ġadvertis ers","Ġcl in","h ood","h old","Ġd oll","Ġbeh ind","f ocus","Ġ2 00","Ġnat ural","ar ies","it ive","co st","t ers","Ġbu l","Ġpa ir","o h","ens ive","Ġland l","Ġprot ect","Ġres ults","found er","Ġworkflow s","Ġsyn c","Ġde ath","Ġst ate","th es","Ġcommun ities","a u","p art","Ġr ach","Ġclos ed","Ġ '","Ġh old","Ġwork ed","Ġen s","Ġact ive","Ġaccur ate","p ay","ia h","Ġgr ad","Ġs il","Ġw in","Ġar m","Ġwr iting","Ġschedul es","Ã ©","Ġdr ug","Ġinc ome","Ġvisual ize","Ġfr ont","Ġnot es","Ġfir m","Ġvent ures","Ġkitch en","Ġrent als","Ġconfer ence","em ent","Ġproduct ion","Ġev il","no v","Ġp ages","Ġi phone","Ġag ency","Ġjo ey","is ter","Ġeffect ively","Ġpict ure","Ġre duc","if e","p os","Ġre fer","gr ound","Ġphoto graph","Ġcol or","Ġmanufactur ing","Ġset ting","Ġbelie ve","Ġser ves","Ġel se","focus ed","Ġ1 5","Ġsales people","Ġchat bots","Ġpol ic","Ġpict ures","o ff","Ġfinanc ing","Ġhous ing","u ly","Ġpres ent","so ft","Ġexpl ain","Ġt en","Ġed it","Ġstand ard","Ġanal ys","Ġw are","Ġatt ract","Ġbab y","a w","Ġmanag er","Ġal erts","Ġge ts","Ġlead s","b it","Ñ Ĥ","Ġpr ess","pro fit","r ess","Ġcondit ions","Ġfollow ing","Ġquest ion","Ġprogramm ing","Ġh our","Ġf lex","Ġcle ar","Ġel der","us ed","c ed","Ġcl ose","Ġdes crib","Ġl ater","Ġsp orts","Ġpr icing","Ġmatch es","person al","Ġlangu ages","Ġameric a","Ġle ft","part y","driv ing","yc le","Ġsaf ety","c ul","Ġc ase","Ġre d","iz z","Ġsmart phones","Ġdec ide","m ar","Ġph arm","el ine","Ġd ent","Ġgovern ments","Ġunivers ity","ab ling","Ġcont act","Ġj e","Ġann ual","art er","ac ing","Ġelder ly","ban ked","Ġd in","Ġmo der","Ġbr az","Ġindust ries","Ġdoc ument","Ġmay be","Ġdistrib ute","Ġal ways","Ġcon cept","Ġcorpor ate","Ġbraz il","l in","Ġen abling","Ġcharg ing","Ġf ather","Ġcomp liance","Ġwal king","Ġnotific ations","Ġbuilding s","Ġtrad ing","ĠâĢ ĺ","Ġ q","act ion","Ġtal king","Ġatt end","Ġinv ol","oc ks","Ġor ig","Ġdis rupt","Ġdown load","Ġto t","Ġag ent","Ġbre ak","Ġm ind","Ġd om","Ġli kes","Ġtal ks","Ġc ra","up s","ic o","able d","u ary","Ġj an","Ġdo z","Ġi ot","Ġo il","Ġtrans port","Ġclo thes","Ġscient ists","Ġf ield","Ġb ir","Ġad dit","Ġprem ium","Ġrecogn ition","Ġh ub","Ġd w","Ġre pl","Ġad min","Ġportfol ios","Ġcollabor ative","i et","Ġresp ond","erc ial","Ġ -","Ġtools et","Ġwell ness","Ġt er","Ġrent ers","rel ated","Ġcollect ion","Ġess ential","Ð ¸","Ġh y","Ġy et","Ġne g","Ġco ord","' d","ir l","Ġex erc","Ġsect or","Ġart ic","Ġdeal ers","Ġtrend s","is ing","Ġameric an","Ġment al","Ġcon vert","Ġper cent","Ġexper ts","Ġ4 0","Ġpack ages","ic tion","Ġsp aces","Ġmov ie","g age","id er","Ġs ust","Ġs at","book s","Ġs n","Ġser ve","Ġautom ating","Ġacc ord","Ġp ip","Ġde f","in king","Ġpi ec","Ġmov ies","t ain","Ġaccord ing","is m","Ġcons ult","Ġlarg er","n ch","ag n","Ġex c","Ġsp ent","Ġ ill","Ġhealth y","Ġs qu","Ġres erv","Ġrem o","Ġopt ion","Ġorig in","Ġf ire","Ġro ad","Ġc entral","Ġg ig","Ġc entralized","us s","Ġspe ed","Ġw ind","Ġdr ag","Ġinterest ing","Ġp owered","st ore","ib ility","Ġmatch ing","Ġd ry","Ġno thing","Ġinterview s","Ġs ong","Ġcomm ercial","Ġtr ip","ail s","Ġlo st","Ġdistribut ed","Ġb and","at ure","Ġbro ker","Ġhell o","Ġsc ores","Ġnetwork ing","Ġback ground","Ġbill ing","Ġme ans","Ġdif f","Ġsust ain","ir es","pr ess","Ġsel ect","Ġm or","Ġgo es","Ġdr ink","Ġdistrib ution","Ġtr ou","Ġfor ms","Ġlarg est","Ġare n","li x","Ġexec ut","Ġen ough","Ġdr iving","Ġshop s","Ġpres crip","Ġobj ects","Ġly ft","Ġb id","Ġg irl","pr es","Ġsugg est","Ġlandl ords","Ġsuppl ies","Ġtranspar ency","p al","Ġtic ket","Ġc ult","Ġstat us","Ġdw ight","Ġwork place","Ġexper t","Ġtarget ed","oo th","Ġco ol","Ġmoder n","p ose","Ġsa w","Ġmusic ians","Ġdem o","Ġneighb or","g ing","Ġ ur","Ġj er","Ġs ons","Ġw ide","Ġknow n","Ġmill enn","Ġinst all","Ġ20 20","ough t","Ġmin im","id ge","Ġdeb it","ou ts","Ġplay ers","Ġopportun ities","Ġjournal ists","Ġe c","iv en","Ġsmall er","Ġdis play","Ġcann ab","o b","Ġlawy ers","f lix","im ate","Ġmicro soft","Ġdepart ments","pt ion","Ġ201 5","Ġorganiz ing","Ġunderstand ing","Ġh or","Ġmult i","Ġdel ivers","Ġacc el","Ġch r","Ġcustom ize","Ġsm s","Ġwr ong","Ġhund red","l ines","al u","Ġuse ful","o e","Ġch and","em ents","Ġinst it","Ġcal cul","Ġresp ons","Ġconvers ations","Ġad j","Ġpat tern","Ġb al","Ġ201 6","Ġmerch and","Ġdepart ment","Ġadvis ors","Ġcannab is","Ġrent ing","Ġrun s","Ġsuccess ful","Ġthous ands","Ġneighbor hood","Ġb atter","Ġal ong","Ġturn ing","Ġtreat ment","Ġeffor ts","ic ians","Ġg ain","h ome","Ġins ide","Ġsecure ly","Ġhop e","Ġgu ide","Ġdisc ounts","h e","Ġl ights","Ġdoll ars","e ver","p ect","Ġeng lish","Ġouts ide","Ġchand ler","Ġe b","Ġpo ol","Ġstr ong","y stem","Ġv en","os ed","Ġprevious ly","Ġan im","Ġbas is","Ġdirect ory","Ġrece iv","Ġprom ises","c re","Ġev alu","Ġey e","Ġsumm er","Ġc ause","Ġw ow","Ġtr ust","Ġval u","Ġext ra","a ving","Ġwant ed","Ġstore fr","t a","Ġa lex","b us","ens ion","qu ality","Ġlend ers","Ġanalys is","as on","Ġcrowds ourced","Ġdiff icult","Ġfund ed","Ġpaper work","Ġw ine","Ġtransact ion","Ġb atch","Ġn urs","Ġn ice","Ġproduct ive","Ġcombin ing","Ġhouse hold","ow s","Ġsubscrip tions","b on","w or","Ġc at","Ġac tion","Ġun used","Ġengine ering","Ġj une","Ġpack age","Ġs am","2 5","a i","Ġ 9","le ment","Ġe commerce","Ġdisc ount","for t","Ġens ure","en ger","Ġg if","Ġmon ica","Ġinteract ions","Ġreport ing","Ġrach el","l ock","en abled","Ġcon ven","Ġm ission","Ġautom ates","Ġkind s","Ġbro kers","Ġflex ible","Ġha ir","Ġpay s","r ics","ines e","Ġeb ay","in ation","Ġhelp ed","Ġac ts","Ġdecis ion","Ġreduc ing","Ñ ģ","Ġapart ments","Ġc op","us es","Ġprototy pe","Ġre li","Ġpay pal","Ġpre t","Ġrepair s","Ġexpens e","Ġinvo icing","Ġcheap est","Ġa ust","le arn","Ġn or","Ġwh ose","Ġmess enger","Ġ201 4","Ġorganiz ation","ne w","Ġpartner ed","Ġ .","f ect","Ġt ut","os ystem","Ġhe av","Ġdis abilities","Ġmort gage","Ġs ix","es h","âĢ Ķ","Ġdoz en","Ġi p","Ġessential ly","Ġn ational","Ġre f","est yle","Ġthan ks","Ġh alf","ke ep","Ġrequ ire","Ġse par","Ġwe ight","Ġwom an","Ġremind ers","on om","Ġv ol","Ġstream lin","Ġdisco very","f ree","Ġpr ior","Ġprefer ences","Ġpattern s","x im","Ġa w","Ġr an","Ġch inese","Ġphil ipp","Ġbul k","Ġassist ants","Ġtem pl","ke nd","Ġal um","Ġj im","Ġcont acts","d om","uc t","Ġdon ate","Ġborrow ers","duc t","Ġtransport ation","Ġec osystem","Ġme x","Ġpublish ing","pres ent","Ġa ff","Ġcare er","Ġbro ad","Ġt ests","Ġm iss","Ġm ix","Ġco ding","Ġim age","Ġfac ial","Ġpip eline","bus iness","Ġm eth","Ġme als","Ġreg ul","Ġlong er","Ġhapp y","Ð ½","Ġnum bers","is on","Ġconsum ption","Ġpitch ing","Ġbas ic","c ts","p ut","Ġpartners hip","Ġsqu are","it ize","Ġrem ember","y ou","Ġr id","ific ation","Ġphilipp ines",". )","Ġc ell","all en","Ġ1 2","Ġrul es","Ġpercent age","ic ks","Ġther ap","Ġto n","Ġd ig","Ġbe g","ge ts","n ers","Ġg ps","Ġcon f","Ġcon ver","st yle","Ġorgan ized","c le","Ġnot e","Ġresearch ers","Ġaccel er","m ade","Ġa ge","Ġn ative","Ġpl ug","Ġgu ess","Ġemerg ing","Ġvehic le","n ia","Ġg ar","Ġal right","pl es","ell ing","Ġext ension","Ġhost ing","Ġbir th","Ġch oice","Ġch ronic","Ġgr aph","Ġgro wn","Ġcomp ar","Ġf ine","Ġb ed","re et","ab et","ther e","ap e","Ġmembers hip","Ġmill ions","Ġs we","Ġco verage","Ġcomm ission","Ġjo in","learn ing","Ġsee kers","Ġcent ers","Ġspread sh","2 00","Ġwan na","Ġrec ip","Ġsales force","Ġsee ing","Ġs ize","Ġb ars","Ġprom ot","Ġment ors","att le","iz able","Ġsp are","Ġhous es","Ġnurs es","Ġin nov","Ġlat in","it ers","Ġm ot","Ġma in","Ġfac ilit","Ġbatter y","u el","Ġman ages","Ġtr ue","Ġenc our","Ġlif estyle","Ġpro s","uc k","Ġadj ust","Ġf air","Ġdis p","Ġform at","Ġc ross","it z","os es","back ed","Ġc art","Ġw ire","ne y","Ġware house","i ety","Ġdr aw","Ġchann el","Ġgener al","Ġmean ing","Ġdi agn","dd dd","Ġcur ated","Ġval ley","Ġc ycle","Ġwe ather","Ġph oe","Ġcar bon","Ġclass es","Ġther most","Ġw ed","ist ic","Ġut ility","Ġcl ick","Ġoff line","Ġansw ers","Ġenc rypt","Ġw all","Ġfr ame","Ġcar p","Ġident ity","Ġp am","Ġg as","Ġpurch asing","Ġresum e","Ġsustain able","Ġe ating","Ġevent ually","Ġmerchand ise","Ġte x","cccc cccc","Ġmillenn ials","e ts","Ġcomput ers","Ġer r","Ñ Ģ","Ġa th","Ġc ro","Ġta p","Ġmon itors","Ġcoord inate","Ġf ight","Ġwork force","Ġdeliver ies","Ġex act","Ġmiddle man","g y","Ġ umm","Ġcont ain","Ġexp ress","Ġinvol ved","Ġmex ico","ith er","Ġenterpr ises","Ġadd ing","Ġaggreg ates","Ġartic les","i ke","Ġf le","Ġapp li","Ġprin ter","Ġmom ent","le vel","Ġwill ing","Ġcommunic ations","Ġanalyz es","Ġb oo","Ġin box","Ġbl ind","Ġinternational ly","des ign","Ġneg ot","Ġcustom izable","Ġ2 5","Ġch allen","Ġfunct ional","i for","Ġm atter","Ġde ad","Ġint uit","Ġc ases","Ġp y","Ġg ym","Ġcal ifor","Ġey es","Ġt ail","on ly","Ġpo or","Ġtem per","Ġupd ates","Ġpodc ast","Ġinstant ly","Ġcalifor nia","s ing","Ġf ly","if ul","Ġag re","ang ing","at ives","an a","ro ad","Ġloc k","Ġsens or","sc ale","Ġ ...","Ġaut onom","ie f","Ġd uring","Ġsc al","Ġstud y","Ġphoe be","pp ing","Ġse ts","re ct","ast ic","Ġm ount","os s","Ġreg ular","Ġacqu is","g th","in come","Ġm ech","Ġma ps","Ġp ush","Ġj uly","enc ing","Ġinform ed","Ġfun n","b ed","Ġem ph","Ġhol y","Ġtot al","Ġd ise","Ġdon ations","Ġimpro ving","Ġrece ip","Ġath let","Ġc ow","Ġl ond","ack s","if ies","Ġenter tain","ak ers","Ġsurve ys","Ġbeaut iful","Ġinstit utions","Ġlond on","or ed","Ġdr one","Ġcut ting","Ġaust ral","Ġmech an","Ġemph as","g ener","l a","Ġ &","Ġpl um","Ġtr ips","Ġch ance","con t","Ġt in","am p","Ġcan c","Ġneed ing","Ġpur pose","ourc ing","Ġelect ron","Ġacqu ired","Ġh t","Ġis n","end ed","Ġbr ain","Ġneed ed","ee ts","Ġvet er","Ġcapt ure","Ġreserv ations","Ġt ag","Ġg one","Ġre present","Ġfe ar","Ġhospital ity","Ġaud ience","Ġhu h","w ide","on ds","Ġmor ning","om s","Ġe there","Ġexpand ing","Ġatt ention","Ġanalyz ing","Ġf all","Ġh ack","Ġcom fort","Ġautonom ous","Ġethere um","Ġa ch","Ġmar k","Ġbut ton","Ġ3 00","Ġcolle cts","Ġincre asing","Ġlat est","Ġaug ust","Ġadmin istr","Ġm ag","ord er","Ġkeep s","Ġful ly","Ġcomp re","Ġwa iting","Ġ1 9","Ġill ness","n ed","ate gor","h ia","v is","Ġp izz","Ġh osts","Ġhigh er","Ġdet ails","Ð¾ Ð","n am","Ġt ast","Ġb ag","ow ers","am less","Ġvisual ization","Ġteach ing","Ġdisc uss","Ġth inking","erm an","Ġalex a","ic on","elp hia","Ġpe ts","ad elphia","Ġbr ick","Ġcult ure","Ġreceiv ed","c ons","Ġ x","Ġcar r","Ġphil adelphia","Ġpr ies","Ġunivers ities","Ġfunct ions","g ed","Ġc ategor","Ġwas h","Ġres ource","Ġtempl ates","Ġcompre h","w ords","Ġab road","ens e","Ġpre par","Ġchec king","Ġcou ple","Ġwed ding","il t","Ġg en","Ġpract ice","Ġtemper ature","Ġathlet es","Ġexerc ise","Ġpiec e","Ġemphas is","u x","in ter","Ġc up","Ġcondit ion","Ġwh om","Ġv ert","pr iet","Ġtechnolog ies","itt en","bu ild","3 00","l s","em ploy","Ġpr im","Ġtechn ical","in ating","Ġw i","Ġstrateg y","Ġlin ks","Ġad op","Ġmach ines","Ġg erman","ent ic","t ed","Ġsy m","Ġhappen ing","e ar","Ġsm bs","Ġper fect","Ġwal k","Ġdin ner","Ġpro priet","Ġas ia","Ġar ch","Ġoper ates","Ġequ ity","Ġfix ed","Ġdrop box","ilit ary","Ġentertain ment","Ġwork out","Ġqu al","Ġsepar ate","Ġcompreh ensive","mo bile","Ġeas t","Ġlevel s","Ġthous and","th on","Ġconnect ions","Ġcamer as","Ġcor rect","Ġtruc ks","Ġphotograph ers","Ġto m","Ġst ocks","Ġbl ack","Ġm it","Ġnet flix","Ġdeliver ing","Ġpret ty","un g","Ġk ick","Ġphys icians","Ġcrypt o","Ġse x","Ġvisual ly","s et","Ġf a","Ġg old","Ġ2 4","Ġgr ound","l ight","Ġst yle","ure d","Ġair line","Ġver ify","Ġreli able","Ġadv ance","Ġemerg ency","Ġfoot print","Ġexpert ise","v ent","Ġinst ance","Ġwr iters","iven ess","Ġaustral ia","Ġm ilitary","Ġse amless","Ġa pr","ag ed","Ġper io","Ġp an","ical s","Ġter ms","Ġpizz a","Ġto ld","ke y","Ġro bots","Ġorganiz ers","Ġpropriet ary","Ġd ed","ec ess","Ġput ting","Ġche fs","Ġdi abet","Ġsou th","Ġnam ed","el e","Ġproduc ers","Ġmin ute","Ġrecommend ation","Ġintuit ive","e xt","¿ ½","ï ¿½","Ġb all","um p","Ġlist ing","Ġhop ing","Ġjud ah","Ġach ie","d rop","Ġe ither","Ġcomp on","Ġv i","os it","Ġstr ipe","Ġst ick","h u","Ġro ll","Ġed itor","Ġstud io","Ġpair s","keep ing","re ds","pl aces","ab ly","ul ation","Ġbo ts","Ġpriv acy","Ġtax i","Ġpy thon","Ġtravel ing","Ġso on","Ġsc re","Ġdescrib e","Ġle aving","und ry","Ġshop ify","Ġprint ed","Ġcoach ing","Ġrecip es","Ġst reet","Ġmo de","Ġfil ter","Ġcompet itor","Ġpolic y","1 5","Ġdr ones","Ġcolle ges","w r","Ġre ly","Ġyour self","Ġsup er","Ġimp lement","Ġrele ased","Ġfact ors","- -","Ġt erm","ic ts","Ġg ather","Ġoffer ings","Ġappoint ment","Ġann oun","Ġpro b","Ġwire less","Ġoper ate","Ġma il","Ġqu e","Ġelim inate","Ġjan uary","p ects","ile d","Ġrecord ing","Ġbeaut y","o ver","Ġma ker","Ġhe ar","Ġem ot","Ġun banked","Ġap is","b all","d ed","oc ol","Ġwe alth","Ġcomm erce","Ġwee ks","Ġtransl ate","ch ec","if ically","Ġcurren cies","Ġcook ing","m e","Ġb ac","Ġm oses","el ess","Ġst ages","Ġl ay","Ġd ar","Ġconfer ences","Ġlab el","Ġbeg in","l and","id ed","Ġde ep","Ġfind s","gr ade","pa id","Ġcontract or","Ġwal mart","Ġsit u"]}}